{"<pad>":0,"<unk>":1,"<s>":2,"</s>":3,"<mask>":4,"\t":5,"\n":6,"!":7,",":8,".":9,"0":10,"1":11,"2":12,"3":13,"4":14,"5":15,"6":16,"7":17,"8":18,"9":19,"?":20,"ઁ":21,"ં":22,"ઃ":23,"અ":24,"આ":25,"ઇ":26,"ઈ":27,"ઉ":28,"ઊ":29,"ઋ":30,"ઌ":31,"ઍ":32,"એ":33,"ઐ":34,"ઑ":35,"ઓ":36,"ઔ":37,"ક":38,"ખ":39,"ગ":40,"ઘ":41,"ઙ":42,"ચ":43,"છ":44,"જ":45,"ઝ":46,"ઞ":47,"ટ":48,"ઠ":49,"ડ":50,"ઢ":51,"ણ":52,"ત":53,"થ":54,"દ":55,"ધ":56,"ન":57,"પ":58,"ફ":59,"બ":60,"ભ":61,"મ":62,"ય":63,"ર":64,"લ":65,"ળ":66,"વ":67,"શ":68,"ષ":69,"સ":70,"હ":71,"઼":72,"ઽ":73,"ા":74,"િ":75,"ી":76,"ુ":77,"ૂ":78,"ૃ":79,"ૄ":80,"ૅ":81,"૆":82,"ે":83,"ૈ":84,"ૉ":85,"ો":86,"ૌ":87,"્":88,"ૐ":89,"૟":90,"ૠ":91,"ૢ":92,"૦":93,"૧":94,"૨":95,"૩":96,"૪":97,"૫":98,"૬":99,"૭":100,"૮":101,"૯":102,"૰":103,"૱":104,"▁":105,"▁ક":106,"મા":107,"▁પ":108,"▁સ":109,"▁ત":110,"ને":111,"વા":112,"ના":113,"્ય":114,"▁જ":115,"▁અ":116,"▁છ":117,"▁આ":118,"્ર":119,"માં":120,"▁છે":121,"ાર":122,"▁હ":123,"▁મ":124,"▁વ":125,"ું":126,"ની":127,"▁ર":128,"▁તે":129,"▁બ":130,"▁કર":131,"તા":132,"▁એ":133,"▁ન":134,"▁દ":135,"▁છે.":136,"ર્":137,"થી":138,"▁શ":139,"લા":140,"▁અને":141,"▁મા":142,"▁ગ":143,"▁કે":144,"્યા":145,"રા":146,"▁લ":147,"▁પ્ર":148,"▁થ":149,"સ્":150,"▁ભ":151,"યા":152,"રી":153,"▁સા":154,"વી":155,"ક્":156,"▁ખ":157,"ન્":158,"ટે":159,"▁વિ":160,"તી":161,"▁ઉ":162,"▁ચ":163,"હે":164,"ાય":165,"▁પર":166,"નો":167,"વે":168,"▁જે":169,"▁સ્":170,"▁પણ":171,"મે":172,"તિ":173,".\n":174,"કા":175,"▁ફ":176,"લી":177,"ત્ર":178,"▁પા":179,"▁રા":180,"નું":181,"ત્":182,"▁એક":183,"રે":184,"▁માટે":185,"શે":186,"ંગ":187,"▁જો":188,"▁વા":189,"▁કરી":190,"િક":191,"▁આપ":192,"વામાં":193,"▁ના":194,"્યું":195,"▁કા":196,"▁ધ":197,"હી":198,"ારે":199,"ણે":200,"કે":201,"ણી":202,"▁કો":203,"▁હત":204,"કો":205,"લે":206,"ાવ":207,"ડી":208,"▁આવ":209,"▁તેમ":210,"▁હો":211,"્યો":212,"લ્":213,"તે":214,"▁લા":215,"▁છે.\n":216,"▁સુ":217,"▁ઘ":218,"ાન":219,"ટી":220,"િયા":221,"થે":222,"ાં":223,"▁સં":224,"ક્ષ":225,"યો":226,"▁સમ":227,"જી":228,"િત":229,"રો":230,"▁સાથે":231,"▁છે,":232,"ડા":233,"▁પો":234,"કાર":235,"ધી":236,"▁ઉપ":237,"▁જા":238,"▁હતી":239,"▁કાર":240,"▁મે":241,"રૂ":242,"▁બા":243,"▁નથી":244,"▁ટ":245,"▁હતા":246,"ંદ":247,"▁મુ":248,"ણા":249,"સા":250,"ંત":251,"▁કરવા":252,"જા":253,"સે":254,"▁નિ":255,"▁મો":256,"▁દે":257,"▁ડ":258,"▁તો":259,"ષ્":260,"્યારે":261,"▁બે":262,"ળી":263,"ભા":264,"▁વધ":265,"ારી":266,"કી":267,"થા":268,"▁હા":269,"મી":270,"▁લો":271,"દ્":272,"પા":273,"▁ભા":274,"▁1":275,"વિ":276,"▁ઓ":277,"▁આવે":278,"્યાં":279,"દી":280,"દા":281,"▁મહ":282,"તાં":283,"▁તમા":284,"શ્":285,"વું":286,"્રી":287,"નુ":288,"▁રહ":289,"▁રહે":290,"▁લે":291,"િવ":292,"ટા":293,"▁આવી":294,"▁ગુ":295,"ંચ":296,"યુ":297,"▁વર્":298,"સી":299,"્રે":300,"ો.":301,"ંધ":302,"▁ખા":303,"▁ઇ":304,"▁હોય":305,"છી":306,"લો":307,"્રા":308,"સ્ત":309,"▁જી":310,"ડે":311,"▁હતું":312,"ળા":313,"▁પુ":314,"▁2":315,"▁ને":316,"િય":317,"જે":318,"▁રી":319,"શન":320,"▁કરે":321,"તો":322,"▁ની":323,"▁પે":324,"્યુ":325,"ાર્":326,"▁કરવામાં":327,"વાર":328,"▁સર":329,"સ્ટ":330,"યે":331,"▁રાજ":332,"દે":333,"ગી":334,"▁માં":335,"▁ચા":336,"▁તા":337,"શે.":338,"▁તેના":339,"▁પૂ":340,"▁થાય":341,"▁પછી":342,"▁થઈ":343,"▁મળ":344,"▁હતી.":345,"ધા":346,"▁રો":347,"ચ્":348,"ન્ટ":349,"ારા":350,"શા":351,"▁તમે":352,"▁સે":353,"વાની":354,"ગે":355,"નાં":356,"▁લોકો":357,"▁સિ":358,"્વા":359,"▁તેને":360,"▁બી":361,"પ્":362,"માન":363,"િલ્":364,"▁રીતે":365,"▁રૂ":366,"▁પોતા":367,"પી":368,"▁૧":369,"હીં":370,"▁ઈ":371,"▁યુ":372,"▁શકે":373,"દ્ધ":374,"ષ્ટ":375,"▁કોઈ":376,"..":377,"હિ":378,"▁વર્ષ":379,"ગા":380,"▁રાખ":381,"બા":382,"▁એમ":383,"▁વે":384,"નિ":385,"▁શક":386,"▁કહે":387,"ખા":388,"▁સુધી":389,"રમાં":390,"ત્રી":391,"▁કહ":392,"ચે":393,"▁પહે":394,"▁કામ":395,"▁દ્વા":396,"ંતુ":397,"▁દ્વારા":398,"▁ત્યારે":399,"▁એટ":400,"મ્":401,"▁હતા.":402,"▁દિવ":403,"ણુ":404,"ચાર":405,"ન્ડ":406,"▁સ્થ":407,"▁પરંતુ":408,"▁ગા":409,"▁ઝ":410,"▁લી":411,"▁વધુ":412,"▁તેની":413,"▁હું":414,"▁દર":415,"▁વ્ય":416,"▁શા":417,"▁બના":418,"▁દુ":419,"સિ":420,"▁ઉપર":421,"ક્ર":422,"▁કે,":423,"ગર":424,"▁દી":425,"▁હે":426,"રણ":427,"માંથી":428,"▁નો":429,"વો":430,"લિ":431,"ચા":432,"▁પરિ":433,"▁પડ":434,"હા":435,"ેર":436,"હો":437,"▁ભાર":438,"મને":439,"▁રહી":440,"▁રે":441,"▁નથી.":442,"▁બો":443,"શી":444,"▁છો":445,"▁મિ":446,"ક્તિ":447,"ટર":448,"▁કુ":449,"▁મૂ":450,"યોગ":451,"▁ખે":452,"▁અનુ":453,"▁હતો.":454,"વન":455,"▁ઉત્":456,"▁વાત":457,"પ્ર":458,"ન્દ":459,"મિ":460,"▁કહ્યું":461,"ર્ણ":462,"▁કેટ":463,"▁જોઈ":464,"▁હવે":465,"ંક":466,"▁સો":467,"બી":468,"▁તથા":469,"▁જ્યારે":470,"▁સમય":471,"▁અથ":472,"▁તેઓ":473,"▁પી":474,"▁તર":475,"▁ત્યાં":476,"ન્ય":477,"ંડ":478,"મો":479,"▁ગયા":480,"બર":481,"ર્વ":482,"તર":483,"▁કિ":484,"▁સ્વ":485,"સર":486,"▁ક્":487,"યું":488,"▁હતો":489,"▁પોલી":490,"▁અથવા":491,"ૂર":492,"હાર":493,"▁સી":494,"્ઞ":495,"▁સામે":496,"▁પ્રા":497,"▁નહીં":498,"પે":499,"▁સમા":500,"નમાં":501,"▁20":502,"ુર":503,"▁પાસે":504,"ારો":505,"સો":506,"વાનું":507,"પો":508,"ત્ય":509,"▁જણ":510,"ુક":511,"ર્ટ":512,"▁જાય":513,"▁અમ":514,"▁સહ":515,"▁!":516,"▁કં":517,"▁લાગ":518,"જન":519,"ટો":520,"▁વખ":521,"▁રહ્યા":522,"▁લગ":523,"▁સૌ":524,"ખી":525,"▁મી":526,"તમાં":527,"િટ":528,"િંગ":529,"▁જરૂ":530,"▁અમે":531,"▁દેશ":532,"▁દા":533,"▁શું":534,"લું":535,"▁૨":536,"▁?":537,"ન્સ":538,"▁બાદ":539,"▁વી":540,"▁નામ":541,"▁પહેલા":542,"▁અધ":543,"પૂ":544,"▁એટલે":545,"તું":546,"▁તેમના":547,"જરા":548,"▁કરીને":549,"વવા":550,"▁કાર્ય":551,"▁અભ":552,"▁ભાગ":553,"▁તમારા":554,"ર્મ":555,"▁ત્ર":556,"લમાં":557,"▁ટે":558,"રુ":559,"▁ઊ":560,"▁કરો":561,"▁જુ":562,"હુ":563,"▁મળી":564,"▁જવા":565,"▁કારણ":566,"▁થયા":567,"▁શરૂ":568,"ત્વ":569,"લુ":570,"જુ":571,"▁ટી":572,"દેશ":573,"સ્થ":574,"▁3":575,"વર":576,"▁મહિ":577,"▁હિ":578,"▁,":579,"▁જણાવ":580,"▁નહિ":581,"▁આવ્યા":582,"▁ગુજરા":583,"તુ":584,"▁આગ":585,"ઓને":586,"▁આપી":587,"▁દિવસ":588,"▁ખૂ":589,"▁હતું.":590,"બ્":591,"▁માન":592,"શે.\n":593,"વાદ":594,"▁કરતા":595,"▁મને":596,"ંભ":597,"▁લઈ":598,"▁ખુ":599,"▁તરી":600,"▁ચે":601,"▁થઇ":602,"પર":603,"▁શિ":604,"▁કર્યો":605,"▁કારણે":606,"લાક":607,"▁આજે":608,"▁ભૂ":609,"ક્ષા":610,"ક્ત":611,"છા":612,"▁તરીકે":613,"્સ":614,"▁ક્ર":615,"ન્દ્ર":616,"▁ફે":617,"▁તેથી":618,"▁સરકાર":619,"ર્થ":620,"હેર":621,"▁બાળ":622,"જો":623,"▁તરફ":624,"▁જાણ":625,"00":626,"ડો":627,"▁પ્રમા":628,"નાર":629,"▁ફો":630,"▁ચો":631,"▁ડિ":632,"ૃત":633,"વાથી":634,"▁યા":635,"▁શ્રી":636,"▁પોલીસ":637,"▁મેળ":638,"સ્તા":639,"▁.":640,"▁હાથ":641,"રિ":642,"▁પોતાના":643,"▁ચૂ":644,"▁મુખ":645,"▁તેમને":646,"▁માત્ર":647,"▁તેમણે":648,"ઠા":649,"▁પાણી":650,"સાર":651,"ભાઈ":652,"▁પ્રે":653,"ચી":654,"▁પ્રતિ":655,"વાન":656,"▁રિ":657,"તના":658,"▁અંગ":659,"▁રૂપ":660,"ંત્ર":661,"▁અન્ય":662,"▁કર્યું":663,"▁જોઈએ":664,"ળે":665,"▁ખૂબ":666,"ટના":667,"િતિ":668,"▁રાજ્ય":669,"▁પહો":670,"દર":671,"▁ફર":672,"▁મારા":673,"▁જીવન":674,"▁વિચાર":675,"▁મારી":676,"▁દિ":677,"▁જેમ":678,"▁આવ્યો":679,"થમ":680,"▁વર":681,"વાય":682,"▁દરમ":683,"▁તમને":684,"▁વિશે":685,"▁ય":686,"મુ":687,"▁દર્":688,"▁તેમની":689,"ક્ટ":690,"વાના":691,"▁5":692,"ગ્ર":693,"ક્સ":694,"▁તેણે":695,"વારે":696,"▁બિ":697,"મમાં":698,"▁સાર":699,"▁ગો":700,"્રો":701,"બે":702,"▁સૂ":703,"▁પડે":704,"ાયે":705,"બંધ":706,"પની":707,"સ્થા":708,"દાર":709,"▁માર્":710,"િયાન":711,"▁પહોંચ":712,"પણ":713,"જના":714,"પાસ":715,"કર":716,"▁શો":717,"જબ":718,"▁શુ":719,"ક્ષણ":720,"▁જોવા":721,"મત":722,"▁ચિ":723,"ચ્ચે":724,"▁ભાવ":725,"▁આવ્યું":726,"જ્ઞ":727,"રેક":728,"▁મન":729,"વાનો":730,"▁ક્ષ":731,"▁વિસ્ત":732,"▁ઉપયોગ":733,"▁વચ્ચે":734,"▁એવા":735,"▁કરતાં":736,"▁આપણે":737,"ધાન":738,"્મ":739,"ર્સ":740,"▁ફિલ્":741,"▁છું":742,"▁જરૂર":743,"▁4":744,"▁જગ":745,"ીએ":746,"▁સર્":747,"▁રહ્યો":748,"ર્ડ":749,"દો":750,"ખ્યા":751,"▁બહાર":752,"▁તેમાં":753,"▁જેમાં":754,"કરી":755,"▁આપે":756,"▁તમામ":757,"▁મળે":758,"▁તેમજ":759,"ભાવ":760,"▁અમા":761,"રોના":762,"▁સૌથી":763,"▁મુખ્ય":764,"▁થી":765,"▁બની":766,"▁બનાવ":767,"▁યો":768,"▁ગઈ":769,"▁બદ":770,"▁વ્યક્તિ":771,"▁દરેક":772,"▁તૈ":773,"▁જણાવ્યું":774,"▁દરમિયાન":775,"તાના":776,"નના":777,"ંટ":778,"▁ઘણા":779,"▁નોંધ":780,"▁હતી.\n":781,"▁અલ":782,"શો":783,"▁અવ":784,"લના":785,"નની":786,"▁પ્રો":787,"▁ડે":788,"▁પ્રકાર":789,"▁બધા":790,"ંત્રી":791,"પુ":792,"મના":793,"▁મહા":794,"ધાર":795,"▁શકાય":796,"▁અહીં":797,"▁લીધ":798,"છે":799,"▁પગ":800,"▁મદ":801,"▁ત્રણ":802,"▁થો":803,"▁આગળ":804,"િલ્લા":805,"▁સ્વા":806,"▁ઠ":807,"▁પ્રથમ":808,"▁શે":809,"▁એવી":810,"ત્મ":811,"▁વિશ્":812,"પ્ત":813,"▁૩":814,"▁કરવાની":815,"▁વધારે":816,"▁કોરોના":817,"▁તમારી":818,"▁પોતાની":819,"▁વિદ":820,"▁અપ":821,"▁પેા":822,"▁અધિક":823,"સના":824,"▁કર્યા":825,"રના":826,"▁તૈય":827,"ન્ન":828,"▁દો":829,"લ્લા":830,"જાર":831,"▁હાય":832,"સ્પ":833,"▁બંધ":834,"સ્તુ":835,"▁છીએ":836,"ખે":837,"▁કેટલાક":838,"સમાં":839,"શુ":840,"▁હુ":841,"▁ફા":842,"▁શરી":843,"ંને":844,"▁ખો":845,"સુ":846,"▁બન":847,"શિ":848,"પૂર્ણ":849,"જર":850,"▁શકો":851,"્ન":852,"▁જિલ્લા":853,"▁સુર":854,"▁આરો":855,"▁ઘણી":856,"▁ચાલ":857,"▁જોઇ":858,"▁છતાં":859,"કુ":860,"લિક":861,"?\n":862,"▁નથી,":863,"▁ધ્યા":864,"▁ખી":865,"દન":866,"▁વાર":867,"તની":868,"ત્રો":869,"વુ":870,"ત્તિ":871,"▁પ્રમાણે":872,"▁પિ":873,"▁થયે":874,"▁પડી":875,"ૃતિ":876,"▁વિષ":877,"ડિ":878,"ળો":879,"▁અનેક":880,"▁માર":881,"▁બીજા":882,"▁ગયો":883,"ડિયા":884,"▁કંપની":885,"▁ફરી":886,"▁પાછ":887,"▁આમ":888,"▁મોટા":889,"ભાગ":890,"રૂપ":891,"▁ચી":892,"▁જેવા":893,"▁નવા":894,"▁શી":895,"ંહ":896,"▁થયો":897,"▁વખતે":898,"તાની":899,"▁થયું":900,"▁પાર્":901,"▁બંને":902,"▁જૂ":903,"્યે":904,"▁કેમ":905,"િન":906,"ષા":907,"▁પ્":908,"▁સફ":909,"▁માણ":910,"▁નિય":911,"▁સામાન":912,"ઓની":913,"રની":914,"▁ઓફ":915,"▁આપવામાં":916,"▁દૂર":917,"▁ચાર":918,"▁ભે":919,"▁અં":920,"▁સ્ટે":921,"▁વ્યવ":922,"મણ":923,"▁રૂપિયા":924,"▁મદદ":925,"▁મહે":926,"લાં":927,"▁ટકા":928,"▁લાખ":929,"્રહ":930,"▁ડા":931,"▁એવું":932,"પના":933,"▁ઘટના":934,"વાસ":935,"▁વૃ":936,"▁વ્યા":937,"દર્":938,"▁ખાસ":939,"▁તુ":940,"▁કાં":941,"ચના":942,"▁રહ્યું":943,"▁અંગે":944,"▁6":945,"▁અંત":946,"સાદ":947,"ંદર":948,"મન":949,"▁કહી":950,"▁મહિલા":951,"કલ":952,"▁બેઠ":953,"▁જ્યાં":954,"ધિ":955,"ત્ત":956,"ષ્ય":957,"જૂ":958,"▁બુ":959,"ગો":960,"ગેરે":961,"્યાર":962,"▁ગ્રા":963,"નારા":964,"▁સ્પ":965,"▁મધ":966,"▁સમયે":967,"ચ્છ":968,"▁ટા":969,"▁લાગે":970,"▁વખત":971,"▁કરા":972,"▁જ્ઞ":973,"▁સામાન્ય":974,"સ્ક":975,"▁આં":976,"વેશ":977,"▁સ્થિતિ":978,"▁કી":979,"ત્મા":980,"દિ":981,"▁ભર":982,"▁જણા":983,"ત્તા":984,"▁ડો":985,"▁વસ્તુ":986,"▁નવી":987,"શ્ચ":988,"▁રોજ":989,"વાને":990,"દાન":991,"▁ભગ":992,"▁નીચે":993,"ન,":994,"▁જીવ":995,"▁આવા":996,"િર":997,"▁તપાસ":998,"▁પાંચ":999,"▁વિસ્તાર":1000,"સંદ":1001,"▁જવાબ":1002,"દ્ધિ":1003,"▁ભાજ":1004,"માં,":1005,"મેન્ટ":1006,"રાવ":1007,"▁સાંભ":1008,"▁સહિત":1009,"▁૪":1010,"▁ભારત":1011,"ૂત":1012,"કિ":1013,"વાળા":1014,"શે,":1015,"▁૫":1016,"વિધ":1017,"▁ગાં":1018,"ળતા":1019,"ર્ષ":1020,"▁બધ":1021,"ગત":1022,"▁મુજબ":1023,"▁સામ":1024,"▁બહુ":1025,"▁વૈ":1026,"▁સ્ત્રી":1027,"પુર":1028,"ંગ્રે":1029,"▁ઢ":1030,"▁બાબ":1031,"▁હતા.\n":1032,"▁માહિ":1033,"ુંબ":1034,"મની":1035,"▁19":1036,"તીય":1037,"▁હાલ":1038,"કાશ":1039,"કમાં":1040,"▁સમજ":1041,"▁બીજી":1042,"કારી":1043,"માર":1044,"▁ગે":1045,"▁જેટ":1046,"ભવ":1047,"▁સાધ":1048,"▁પૈ":1049,"સની":1050,"▁કપ":1051,"▁લઇ":1052,"▁અલગ":1053,"ઝા":1054,"▁લખ":1055,"▁મૃત":1056,"યર":1057,"▁ખરી":1058,"▁યોગ":1059,"▁ઉપરા":1060,"કરણ":1061,"ષ્ઠ":1062,"▁નવ":1063,"તન":1064,"▁સાં":1065,"▁માહિતી":1066,"▁સંબંધ":1067,"▁7":1068,"▁ડી":1069,"બો":1070,"કસ":1071,"▁પસંદ":1072,"▁ધર":1073,"ઓમાં":1074,"▁અર":1075,"▁ધી":1076,"શ્ર":1077,"▁સારી":1078,"ૂટ":1079,"▁તૈયાર":1080,"શિય":1081,"ં.":1082,"વણી":1083,"▁ધર્મ":1084,"...":1085,"લ,":1086,"▁માતા":1087,"▁હતો.\n":1088,"▁પરિવાર":1089,"▁શબ્":1090,"૦૦":1091,"▁જઈ":1092,"▁નિર્":1093,"▁આર":1094,"▁ગણ":1095,"ફો":1096,"▁ત્યાર":1097,"▁સ્થાન":1098,"▁જેના":1099,"▁અર્":1100,"ઓના":1101,"ભાઇ":1102,"જય":1103,"કડ":1104,"ષ્ટ્ર":1105,"▁તેનું":1106,"▁કાય":1107,"▁ચૂંટ":1108,"▁10":1109,"▁કાઢ":1110,"ત્રા":1111,"ઇન":1112,"▁ઉપરાંત":1113,"▁નીક":1114,"▁અસર":1115,"લની":1116,"▁વો":1117,"▁ઉમે":1118,"ાર્થી":1119,"ગ્":1120,"▁કોઇ":1121,"વ્ય":1122,"▁જન્":1123,"▁મેં":1124,"નિક":1125,"▁મંદ":1126,"પોર્ટ":1127,"▁એને":1128,"▁લઈને":1129,"▁જાહેર":1130,"▁દિવસે":1131,"▁કૃ":1132,"વીને":1133,",\n":1134,"▁થા":1135,"▁બાળકો":1136,"▁જેથી":1137,"▁કેવી":1138,"લાઈ":1139,"પરા":1140,"▁રાજા":1141,"▁ગુજરાત":1142,"▁એના":1143,"▁વગેરે":1144,"▁અધિકારી":1145,"▁પ્રેમ":1146,"▁8":1147,"▁રાખી":1148,"▁ખાતે":1149,"▁વિશ્વ":1150,"▁મોદી":1151,"ંકા":1152,"▁કરોડ":1153,"▁ઝડ":1154,"નને":1155,"▁ચૂંટણી":1156,"▁કોંગ્રે":1157,"દય":1158,"▁વિવિધ":1159,"▁વરસાદ":1160,"▁201":1161,"ઓએ":1162,"ણો":1163,"ટમાં":1164,"▁લેવા":1165,"સ્યા":1166,"▁રંગ":1167,"રને":1168,"▁મત":1169,"▁પહેલાં":1170,"▁સ્થા":1171,"ાયો":1172,"▁ટ્રે":1173,"્રિ":1174,"▁વિના":1175,"▁લગ્ન":1176,"ડવા":1177,"▁જરૂરી":1178,"▁સર્વ":1179,"તાવ":1180,"કાસ":1181,"▁નથી.\n":1182,"મંત્રી":1183,"▁સત":1184,"ખો":1185,"્યા.":1186,"હિત":1187,"▁બને":1188,"સ્પિટ":1189,"દાવાદ":1190,"ણાં":1191,"▁સંગ":1192,"▁અભિ":1193,"▁જય":1194,"્રુ":1195,"લન":1196,"▁જેવી":1197,"ભુ":1198,"તાને":1199,"થ્":1200,"▁લોકોને":1201,"▁પાછળ":1202,"હન":1203,"▁મહત્વ":1204,"▁ફિલ્મ":1205,"ણું":1206,"ષ્ટિ":1207,"▁આન":1208,"▁ગર":1209,"▁વિદ્ય":1210,"▁જન":1211,"▁જાણી":1212,"કના":1213,"▁અન":1214,"ફે":1215,"▁સ્ટ":1216,"▁હતા,":1217,"▁આજ":1218,"▁અમદાવાદ":1219,"કની":1220,"▁કરવું":1221,"▁.\n":1222,"▁શહેર":1223,"▁ટો":1224,"તરી":1225,"▁શ્રે":1226,"રાજ":1227,"▁પટે":1228,"▁હોસ્પિટ":1229,"પિ":1230,"ીર":1231,"▁દેવ":1232,"▁લાં":1233,"▁મોટી":1234,"ચારી":1235,"▁લાભ":1236,"▁દિલ્":1237,"▁પક્ષ":1238,"▁રસ":1239,"એસ":1240,"દ્ર":1241,"તમ":1242,"ભગ":1243,"▁ભારતીય":1244,"▁જગ્યા":1245,"▁અર્થ":1246,"્યૂ":1247,"▁આવતા":1248,"▁હતી,":1249,"▁તેવી":1250,"▁ધ્યાન":1251,"▁આધ":1252,"▁ધો":1253,"ફા":1254,"▁હૈ":1255,"કારે":1256,"▁મહિના":1257,"ગ્ય":1258,"▁તેનો":1259,"ક્ટર":1260,"▁બોલ":1261,"▁અનુસાર":1262,"ણમાં":1263,"ાર્થ":1264,"▁કુલ":1265,"ટ્":1266,"▁અત્ય":1267,"ચર":1268,"▁તું":1269,"▁દેખ":1270,"ઇટ":1271,"▁9":1272,"▁ગાંધી":1273,"હેરા":1274,"▁દુઃ":1275,"▁યુવ":1276,"▁સેવા":1277,"▁પરિણા":1278,"ાંત":1279,"▁વિદ્યાર્થી":1280,"▁કેટલી":1281,"શું":1282,"▁અસ":1283,"▁પ્રયા":1284,"▁ઘર":1285,"▁આપણા":1286,"▁નિર્ણ":1287,"▁સું":1288,"▁સુખ":1289,"▁શેર":1290,"▁ખરા":1291,"બુ":1292,"ડીને":1293,"▁મહારા":1294,"▁મર":1295,"▁પતિ":1296,"▁જ્ઞાન":1297,"▁જોઇએ":1298,"▁દિલ્હી":1299,"▁જેને":1300,"▁લોક":1301,"▁વધી":1302,"▁એની":1303,"ચ્છા":1304,"શ્ય":1305,"મ્પ":1306,"▁ખેડ":1307,"▁પોલીસે":1308,"▁કરવી":1309,"સને":1310,"્રીય":1311,"લ્ડ":1312,"કત":1313,"ઠી":1314,"▁દાખ":1315,"નિયા":1316,"▁202":1317,"▁પ્રાપ્ત":1318,"▁ઉત્પા":1319,"▁આવેલા":1320,"▁યાદ":1321,"▁લગભગ":1322,"શ્વર":1323,"▁કલ":1324,"▁છેલ્લા":1325,"ક્રિયા":1326,"▁માંગ":1327,"▁પરી":1328,"▁પ્રસ":1329,"▁પાર":1330,"▁હજાર":1331,"▁પદ":1332,"કને":1333,"તા,":1334,"▁ચાલી":1335,"ડિયો":1336,"▁હતું.\n":1337,"▁સમસ્યા":1338,"▁અંદર":1339,"▁પૂર્વ":1340,"▁૬":1341,"ર્ચ":1342,"▁પત્":1343,"▁પ્રશ્":1344,"ર્ચા":1345,"મર":1346,"▁કેન્દ્ર":1347,"▁સમગ્ર":1348,"સિંહ":1349,"▁વગર":1350,"જ્ઞાન":1351,"▁ભી":1352,"▁શહે":1353,"▁સંપૂર્ણ":1354,"▁થતા":1355,"વાલ":1356,"વૃ":1357,"▁પશુ":1358,"કાના":1359,"▁મામ":1360,"▁રમ":1361,"ખર":1362,"મુખ":1363,"િયન":1364,"▁વિભાગ":1365,"રામ":1366,"▁નજી":1367,"▁વળી":1368,"▁સંખ્યા":1369,"▁કર્મ":1370,"▁ઘરે":1371,"સાય":1372,"ચ્ચ":1373,"▁ક્યારે":1374,"▁છા":1375,"કરા":1376,"▁જોકે":1377,"▁દેખા":1378,"શ્કે":1379,"ંગા":1380,"▁મનુ":1381,"▁લેખ":1382,"▁પૂછ":1383,"ત્રે":1384,"ઘા":1385,"બાદ":1386,"▁ગયું":1387,"▁જમી":1388,"▁ચાલુ":1389,"▁જોઈએ.":1390,"કીય":1391,"નગર":1392,"લાવ":1393,"▁ઓળ":1394,"એમ":1395,"▁ધા":1396,"▁રાજકો":1397,"ભી":1398,"▁ફેર":1399,"▁જન્મ":1400,"▁ભગવાન":1401,"▁મૂળ":1402,"વર્":1403,"▁માર્ગ":1404,"▁અટ":1405,"▁આગા":1406,"▁લાગી":1407,"▁કેસ":1408,"▁દીધ":1409,"▁ખાન":1410,"▁તમારે":1411,"સિક":1412,"▁યોગ્ય":1413,"▁શ્ર":1414,"▁શક્તિ":1415,"▁કરવાનું":1416,"▁પુત્ર":1417,"▁લીધે":1418,"પતિ":1419,"▁લિ":1420,"▁હશે":1421,"▁આપવા":1422,"▁?\n":1423,"▁જાણે":1424,"ૂલ":1425,"▁વાંચ":1426,"ંદ્ર":1427,"▁નિર્ણય":1428,"▁આનંદ":1429,"▁ભારે":1430,"યાં":1431,"ગુ":1432,"▁બ્":1433,"▁બાજુ":1434,"▁ફાય":1435,"▁નાના":1436,"ત્મક":1437,"ક્રમ":1438,"▁અભ્યા":1439,"▁સારવાર":1440,"ર્તા":1441,"▁કંઈ":1442,"▁ગામ":1443,"▁થવા":1444,"▁ગી":1445,"▁તારી":1446,"▁કાર્":1447,"ટન":1448,"▁સુંદર":1449,"▁હેઠ":1450,"▁ભાઈ":1451,"આત":1452,"▁ધાર":1453,"કેટ":1454,"લ્લે":1455,"▁પૈસા":1456,"▁આસ":1457,"▁કરાવ":1458,"▁દર્દી":1459,"પૂર્વ":1460,"▁સભ":1461,"▁પ્રત્ય":1462,"▁એસ":1463,"ફ્":1464,"▁વડા":1465,"▁સતત":1466,"▁પાડ":1467,"▁યોજના":1468,"▁પાર્ટી":1469,"▁ફરિયા":1470,"▁પૂર્ણ":1471,"▁મુંબ":1472,"▁ઇન્":1473,"દુ":1474,"તને":1475,"▁આત્મા":1476,"▁ભો":1477,"▁એજ":1478,"▁કિં":1479,"▁વર્ષે":1480,"▁કલાક":1481,"▁15":1482,"▁એર":1483,"▁હેઠળ":1484,"▁પ્રદેશ":1485,"▁દ્ર":1486,"▁પૃ":1487,"▁આવશે.":1488,"▁તેવા":1489,"મ્બર":1490,"▁ચર્ચા":1491,"ોમાં":1492,"▁આધાર":1493,"▁સલા":1494,"▁કાઈ":1495,"▁ક્ષે":1496,"સ્ત્ર":1497,"▁ખબર":1498,"▁છો.":1499,"▁રોડ":1500,"▁સારા":1501,"બલ":1502,"▁રૂ.":1503,"▁થશે.":1504,"▁ઘટા":1505,"રું":1506,"ઃ\n":1507,"મારી":1508,"▁મુશ્કે":1509,"સ,":1510,"▁કલા":1511,"▁હૃ":1512,"દારી":1513,"ક્કી":1514,"સાન":1515,"ણને":1516,"▁12":1517,"▁એકા":1518,"▁શક્ય":1519,"ડાં":1520,"પણે":1521,"▁બાં":1522,"▁વિકાસ":1523,"ંતર":1524,"▁બનાવી":1525,"▁રામ":1526,"▁બ્રા":1527,"▁છુ":1528,"કામાં":1529,"▁અમારા":1530,"ગ્રી":1531,"ટિ":1532,"▁નિષ્":1533,"▁છે?":1534,"▁ક્યાં":1535,"▁વહે":1536,"▁કરતી":1537,"▁કાળ":1538,"ટ્સ":1539,"▁સ્ક":1540,"▁મીડિયા":1541,"▁લક્ષ":1542,"્વ":1543,"ગ્રા":1544,"▁નહી":1545,"ગીરી":1546,"▁સિવાય":1547,"ાંતિ":1548,"વાહી":1549,"▁પહોંચી":1550,"▁નેતા":1551,"દેવ":1552,"કારો":1553,"ક,":1554,"લર":1555,"▁પત્ની":1556,"▁હં":1557,"લાય":1558,"▁વધારો":1559,"▁શરીર":1560,"▁મધ્ય":1561,"▁સૂર":1562,"▁ઝા":1563,"▁મૃત્યુ":1564,"▁ટીમ":1565,"▁અક":1566,"ન્ને":1567,"ાયેલા":1568,"ચિ":1569,"િકે":1570,"શિયલ":1571,"▁કર્":1572,"▁આરોપી":1573,"▁ત્રી":1574,"ફી":1575,"▁વાયર":1576,"▁નં":1577,"▁મૂક":1578,"▁વેપ":1579,"▁ગુણ":1580,"▁મેચ":1581,"▁ટ્રા":1582,"ચન":1583,"▁નુક":1584,"ળવા":1585,"▁હી":1586,"▁ટ્ર":1587,"▁તાલુ":1588,"▁અગા":1589,"િકો":1590,"મ,":1591,"ંદા":1592,"▁બનાવવા":1593,"ારૂ":1594,"લ્પ":1595,"▁રહેશે.":1596,"▁વન":1597,"▁આયો":1598,"▁ચૂક":1599,"▁શાળા":1600,"▁ભાજપ":1601,"▁જતા":1602,"▁પિતા":1603,"લને":1604,"▁ધરા":1605,"▁બચ":1606,"▁પં":1607,"▁વિશેષ":1608,"▁પાસેથી":1609,"▁થતાં":1610,"▁મુદ્":1611,"▁રાહ":1612,"▁દુઃખ":1613,"▁ઉત્તર":1614,"કાત":1615,"▁બધી":1616,"▁મારે":1617,"▁તેજ":1618,"ઓ,":1619,"▁મં":1620,"વાસી":1621,"▁પુરુ":1622,"▁દૃ":1623,"જરી":1624,"▁ફ્":1625,"▁નાં":1626,"▁નક્કી":1627,"▁હજુ":1628,"▁નહીં.":1629,"▁રજૂ":1630,"▁શોધ":1631,"સ્તી":1632,"▁કરીએ":1633,"!\n":1634,"▁આવેલ":1635,"▁હોવાનું":1636,"▁અતિ":1637,"▁પ્રકાશ":1638,"ત્ન":1639,"▁નહો":1640,"▁થોડા":1641,"▁હર":1642,"▁તી":1643,"સ્સા":1644,"▁કરવાનો":1645,"▁વિસ્તારમાં":1646,"ંધી":1647,"▁શબ્દ":1648,"સન":1649,"▁તેા":1650,"▁ભાષા":1651,"▁છું.":1652,"▁સ્વી":1653,"▁હોવાથી":1654,"▁હૃદય":1655,"▁ગયે":1656,"કમ":1657,"▁સમાજ":1658,"▁મંત્રી":1659,"ક્ષિ":1660,"▁મેળવી":1661,"રેન્દ્ર":1662,"સભા":1663,"▁પંચ":1664,"જ્ઞા":1665,"▁આટ":1666,"▁રહેતા":1667,"ાવો":1668,"▁રહેલા":1669,"▁પેટ":1670,"િવર્":1671,"લેટ":1672,"્યાય":1673,"ળમાં":1674,"▁દુનિયા":1675,"▁લીધી":1676,"▁શર":1677,"▁ફરિયાદ":1678,"▁માટે,":1679,"▁અનુભવ":1680,"▁આઈ":1681,"▁કવિ":1682,"▁ફોન":1683,"▁તારા":1684,"નીય":1685,"▁કાઇ":1686,"મિક":1687,"▁હોઈ":1688,"ંદુ":1689,"▁વીડિયો":1690,"▁પ્રજા":1691,"▁સત્ય":1692,"્યો.":1693,"શ્રી":1694,"દાય":1695,"ષ્ણ":1696,"▁મુલા":1697,"▁દેશમાં":1698,"▁પત્ર":1699,"લક":1700,"▁મહાન":1701,"વવામાં":1702,"ા.":1703,"▁રાખે":1704,"▁ઉદ":1705,"્યું.":1706,"▁સ્પષ્ટ":1707,"▁થશે":1708,"▁પરથી":1709,"▁સુધ":1710,"▁રોકા":1711,"▁પ્રય":1712,"તિહા":1713,"ષણ":1714,"▁૧૯":1715,"ઇલ":1716,"તંત્ર":1717,"▁સંપ":1718,"▁૮":1719,"▁સવારે":1720,"▁અમારી":1721,"▁મોર":1722,"▁દાખલ":1723,"મતા":1724,"▁ગ્ર":1725,"▁પ્લા":1726,"બિ":1727,"દર્શન":1728,"▁દીધી":1729,"ભે":1730,"▁અભ્યાસ":1731,"રોધ":1732,"▁પ્રભુ":1733,"▁મજબ":1734,"▁કોર્":1735,"▁રાજકોટ":1736,"▁અગાઉ":1737,"▁જોડ":1738,"વૃત્તિ":1739,"▁પ્રક્રિયા":1740,"▁કેટલીક":1741,"▁નાખ":1742,"જ્":1743,"▁કોઈપણ":1744,"▁એન્":1745,"ઢી":1746,"▁સમાચાર":1747,"▁સિદ્ધ":1748,"▁૭":1749,"ન્યા":1750,"▁એલ":1751,"▁અત":1752,"▁ભુ":1753,"લય":1754,"▁વિક":1755,"ષ્ટ્રીય":1756,"▁ખરે":1757,"▁ગુરુ":1758,"▁ઓછા":1759,"▁લેા":1760,"▁હંમે":1761,"ંઘ":1762,"▁વિષે":1763,"▁વાગ":1764,"▁પ્રકારના":1765,"ગાર":1766,"▁તત્":1767,"▁તરફથી":1768,"▁કઈ":1769,"▁હુમ":1770,"▁શિક્ષણ":1771,"▁પ્રમુખ":1772,"▁પુસ્ત":1773,"કિસ્તા":1774,"▁સંસ્થા":1775,"▁મુંબઈ":1776,"▁રસ્તા":1777,"મતી":1778,"ડું":1779,"▁ઘરમાં":1780,"▁માગ":1781,"▁કરનાર":1782,"▁ગંભ":1783,"▁સત્તા":1784,"▁બ્રહ":1785,"▁પુરુષ":1786,"▁ખર્ચ":1787,"ાવવા":1788,"▁આગામી":1789,"▁પ્રયાસ":1790,"▁સમયમાં":1791,"▁કરવો":1792,"કારા":1793,"શાન":1794,"ંતા":1795,"▁છે\n":1796,"▁સમાવેશ":1797,"કલી":1798,"▁!\n":1799,"▁અના":1800,"▁જિ":1801,"▁બાકી":1802,"▁દ્":1803,"▁સપ્":1804,"▁નંબર":1805,"ખ્":1806,"દરા":1807,"▁પેાતાના":1808,"▁નહિ.":1809,"▁કહેવાય":1810,"▁સરકારે":1811,"ત,":1812,"▁હવા":1813,"▁નદી":1814,"▁પ્રત્યે":1815,"▁લેવામાં":1816,"શ્વ":1817,"▁ગંભીર":1818,"તરા":1819,"▁ભય":1820,"▁બધું":1821,"ૃહ":1822,"ઠે":1823,"▁ધારા":1824,"▁મનુષ્ય":1825,"▁મ્":1826,"▁આત્મ":1827,"▁દવા":1828,"▁સાત":1829,"▁સરળ":1830,"....":1831,"▁મોત":1832,"▁મેળવવા":1833,"▁વિષય":1834,"ર્ક":1835,"▁ત્યા":1836,"▁11":1837,"▁ગઇ":1838,"▁ઉલ્લે":1839,"▁૨૦":1840,"▁હતુ":1841,"લાલ":1842,"કારક":1843,"ંડા":1844,"▁થતી":1845,"▁માલ":1846,"ંચા":1847,"▁એમાં":1848,"સ્થિતિ":1849,"રીને":1850,"▁જાન":1851,"▁કામગીરી":1852,"▁ગમે":1853,"▁વર્ષની":1854,"▁આક":1855,"▁આખ":1856,"લ્સ":1857,"▁સ્વરૂપ":1858,"▁હતાં.":1859,"કડી":1860,"▁આવતી":1861,"▁એન":1862,"▁ફક્ત":1863,"▁કમ":1864,"▁કાર્યવાહી":1865,"▁ઉત્પ":1866,"▁સમાન":1867,"▁હાલમાં":1868,"▁ઉલ્લેખ":1869,"▁તા.":1870,"▁આપણી":1871,"▁18":1872,"▁અમેરિ":1873,"▁પ્રધાન":1874,"ક્શન":1875,"▁સ્ટો":1876,"▁આઇ":1877,"▁નજીક":1878,"ધન":1879,"વાળી":1880,"▁દૂ":1881,"▁લાલ":1882,"ભાર":1883,"▁૧૦":1884,"▁સ્ટેશન":1885,"▁હતાં":1886,"ૂં":1887,"▁આશા":1888,"▁પાકિસ્તા":1889,"▁સૈ":1890,"▁ખેડૂ":1891,"▁લાંબા":1892,"▁કદા":1893,"▁ઋ":1894,"▁મગ":1895,"ટક":1896,"થો":1897,"જનો":1898,"▁શ્રેષ્ઠ":1899,"▁જમીન":1900,"▁ઉચ્ચ":1901,"▁જાણવા":1902,"▁જોડા":1903,"▁પસાર":1904,"ર્ગ":1905,"▁મુખ્યમંત્રી":1906,"▁રહ્યાં":1907,"▁વ્યવસ્થા":1908,"▁એવો":1909,"સ્મા":1910,"▁આંતર":1911,"▁અત્યાર":1912,"▁પામ":1913,"▁મિત્ર":1914,"▁ગાય":1915,"ટું":1916,"▁પ્રકારની":1917,"▁ધરાવ":1918,"▁પોતે":1919,"▁ઉમેદ":1920,"▁પ્રવેશ":1921,"▁નિયમ":1922,"▁વસ":1923,"પક":1924,"▁અવા":1925,"▁ઑ":1926,"▁સિંહ":1927,"ર,":1928,"▁મેળવ":1929,"▁ચુ":1930,"▁ગ્રામ":1931,"ક્ષે":1932,"▁ફૂ":1933,"000":1934,"ન્સી":1935,"આરી":1936,"ઇડ":1937,"▁રોગ":1938,"▁વિજય":1939,"ઈએ":1940,"ને,":1941,"ઝી":1942,"બેન":1943,"▁કરવાથી":1944,"▁ભૂમિ":1945,"▁ફી":1946,"▁લગા":1947,"િલ":1948,"▁કોર્ટ":1949,"િસ":1950,"▁પ્રગ":1951,"્યા,":1952,"▁માણસ":1953,"▁ઘે":1954,"રિક":1955,"ક્કસ":1956,"▁તેટ":1957,"▁નાની":1958,"કટ":1959,"▁બન્ને":1960,"▁કું":1961,"▁એટલા":1962,"▁જુદા":1963,"▁કર્મચારી":1964,"▁પૂર":1965,"▁હોય,":1966,"▁સમુ":1967,"▁જમા":1968,"▁આસપાસ":1969,"▁જેની":1970,"ળના":1971,"▁છીએ.":1972,"▁અમને":1973,"▁પુન":1974,"▁હોવા":1975,"▁મૂકી":1976,"▁જાહેરા":1977,"▁ઘા":1978,"▁કેટલા":1979,"▁અડ":1980,"પૂર્વક":1981,"▁વળ":1982,"▁તને":1983,"રાય":1984,"સભ":1985,"▁કરો.":1986,"દના":1987,"ડમાં":1988,"પથી":1989,"▁ગુજરાતમાં":1990,"▁પુરૂ":1991,"▁કરશે.":1992,"યા,":1993,"▁નજર":1994,"▁બતા":1995,"▁જણાવી":1996,"▁ઉપા":1997,"ોને":1998,"ક્ષી":1999,"તાર":2000,"▁હતો,":2001,"▁સાંભળી":2002,"▁હજી":2003,"ળામાં":2004,"શિયા":2005,"▁જૈ":2006,"▁આવશે":2007,"▁અરજી":2008,"▁પરીક્ષા":2009,"▁લીધા":2010,"▁હકી":2011,"▁નુકસાન":2012,"▁દક્ષિ":2013,"▁સોશિયલ":2014,"શક":2015,"▁ગુજરાતી":2016,"▁હાઈ":2017,"▁આદ":2018,"▁200":2019,"▁અગ":2020,"વાઈ":2021,"ડની":2022,"▁કર્યાં":2023,"▁રાષ્ટ્ર":2024,"સ્થાન":2025,"▁અમુક":2026,"▁કરવાના":2027,"▁આયોજન":2028,"▁કોંગ્રેસ":2029,"▁ખેડૂતો":2030,"▁દિવસો":2031,"ઉન":2032,"િયે":2033,"▁ત્યારબાદ":2034,"▁ફળ":2035,"▁વ્":2036,"▁૯":2037,"▁ગર્":2038,"ટિંગ":2039,"▁સામા":2040,"▁કિંમત":2041,"▁ઉદા":2042,"ગઢ":2043,"કડા":2044,"▁ચોક્કસ":2045,"▁ખુબ":2046,"▁શાહ":2047,"▁ગયા.":2048,"▁થયેલા":2049,"લેન્ડ":2050,"▁એટલું":2051,"▁છો,":2052,"▁રચના":2053,"મ્બ":2054,"ડુ":2055,"▁ઓળખ":2056,"▁જીત":2057,"ઢા":2058,"જીના":2059,"▁આવેલી":2060,"▁રિપોર્ટ":2061,"▁પોસ્ટ":2062,"▁શિવ":2063,"ધે":2064,"▁યુદ્ધ":2065,"▁બદલે":2066,"▁સાવ":2067,"▁રોકાણ":2068,"ભૂ":2069,"▁ભારતમાં":2070,"▁પાછા":2071,"ઓનો":2072,"ફર":2073,"▁બળ":2074,"પ્રધાન":2075,"ન્ટર":2076,"▁પ્રશ્ન":2077,"▁પૂરી":2078,"▁ક્ષેત્ર":2079,"બાઈ":2080,"▁મનમાં":2081,"▁શરૂઆત":2082,"▁અચ":2083,"▁કહેવા":2084,"▁ન્યૂ":2085,"▁તબ":2086,"નર":2087,"▁સરકારી":2088,"▁ચિંતા":2089,"▁આપ્યો":2090,"ંપ":2091,"▁પુર":2092,"▁બીજ":2093,"▁કરશે":2094,"▁નર":2095,"ંગ્":2096,"▁વપરા":2097,"▁યુન":2098,"▁ખરાબ":2099,"▁બાળક":2100,"▁નું":2101,"▁સબ":2102,"▁ત્રિ":2103,"▁કદાચ":2104,"▁આરોગ્ય":2105,"▁મંગ":2106,"▁તાપ":2107,"▁મંત્ર":2108,"▁ધીમે":2109,"▁નોંધા":2110,"કાં":2111,"▁કહેવામાં":2112,"▁શહેરમાં":2113,"વાદી":2114,"િયર":2115,"▁ધન":2116,"▁રાશિ":2117,"▁વિધાન":2118,"▁પુરા":2119,"▁30":2120,"▁લીધો":2121,"▁ટ્":2122,"▁પરિસ્થિતિ":2123,"▁પામે":2124,"▁સમજી":2125,"▁ડૉ":2126,"▁થોડી":2127,"હરણ":2128,"▁મંદિર":2129,"▁તરત":2130,"▁શૈ":2131,"▁સ્વામી":2132,"ળુ":2133,"દારો":2134,"▁હતું,":2135,"▁સૂર્ય":2136,"કાની":2137,"▁બેઠક":2138,"પોરે":2139,"▁૧૮":2140,"▁રુ":2141,"▁આર્થ":2142,"▁આત":2143,"વડ":2144,"▁રાજ્યમાં":2145,"▁ઓછી":2146,"▁હાજર":2147,"▁નરેન્દ્ર":2148,"મય":2149,"▁ઉજ":2150,"ણીએ":2151,"▁શકી":2152,"▁લાઈ":2153,"તા.":2154,"▁ટૂ":2155,"▁દિશા":2156,"ત્સ":2157,"▁ધરાવે":2158,"▁પ્રસંગ":2159,"▁હાથમાં":2160,"વેલ":2161,"▁સ્ટા":2162,"કાન":2163,"▁ઉં":2164,"▁આવું":2165,"લિંગ":2166,"▁રવિ":2167,"▁સુધીમાં":2168,"હિત્ય":2169,"▁બજાર":2170,"▁સ્થાનિક":2171,"▁હશે.":2172,"▁કમા":2173,"▁શાંતિ":2174,"▁તિ":2175,"▁આશ":2176,"વિધા":2177,"▁મુલાકાત":2178,"ાયું":2179,"ંધા":2180,"▁નામના":2181,"▁માધ":2182,"▁માનવ":2183,"▁કમિ":2184,"▁સિસ્ટ":2185,"▁રાખવા":2186,"▁આધારે":2187,"નાથ":2188,"▁અકસ્મા":2189,"શનલ":2190,"▁ઉપરથી":2191,"ધ્":2192,"▁કાયદા":2193,"▁ટેસ્ટ":2194,"ળું":2195,"▁લોકોએ":2196,"▁ખરેખર":2197,"▁આર્થિક":2198,"▁નોકરી":2199,"▁મોરબી":2200,"▁બાર":2201,"▁શિક્ષ":2202,"▁સ્પર્":2203,"ંચી":2204,"▁ગૌ":2205,"▁રાહુ":2206,"▁જઇ":2207,"નલ":2208,"▁સારું":2209,"▁મજબૂત":2210,"િમ":2211,"▁પ્રોજે":2212,"▁બસ":2213,"ભર":2214,"▁હત્યા":2215,"▁ગેર":2216,"▁પ્રયત્ન":2217,"સાઈ":2218,"▁મળ્યા":2219,"▁જાહેરાત":2220,"▁વાહ":2221,"▁નામે":2222,"▁પટેલ":2223,"▁સાચ":2224,"નારી":2225,"▁સાહે":2226,"▁14":2227,"▁કાઢી":2228,"▁અભિને":2229,"▁ઔ":2230,"▁મિનિ":2231,"▁નગર":2232,"▁ઝડપી":2233,"આઈ":2234,"▁25":2235,"▁ઉત્પન્ન":2236,"▁અક્ષ":2237,"જિ":2238,"કાળ":2239,"કોને":2240,"ડામાં":2241,"જની":2242,"ર્મા":2243,"▁ઓછ":2244,"ંડી":2245,"વારો":2246,"▁ઈન્ડ":2247,"▁વિશા":2248,"ક્સિ":2249,"્યોગ":2250,"▁જતાં":2251,"▁ઈન્":2252,"▁ગૃહ":2253,"▁દારૂ":2254,"યેા":2255,"▁વિસ્તારો":2256,"▁ચમ":2257,"▁બહે":2258,"▁તેનાથી":2259,"▁તૈયારી":2260,"ર્તિ":2261,"જમાં":2262,"▁પરિણામ":2263,"▁જંગ":2264,"▁મુસા":2265,"▁ઉદ્":2266,"▁ઉત્પાદ":2267,"ઠવા":2268,"▁ક્રિયા":2269,"▁પૃથ્":2270,"નાના":2271,"▁હાઇ":2272,"▁મિત્રો":2273,"▁ખેલા":2274,"▁નમ":2275,"▁રાત્રે":2276,"▁લાગણી":2277,"▁મંદિ":2278,"▁આદિ":2279,"ંબ":2280,"ડના":2281,"▁દેશના":2282,"ંકી":2283,"▁ઇન્ડ":2284,"▁મ્યુ":2285,"કૃતિ":2286,"બ્ધ":2287,"▁ઉત્પાદન":2288,"▁વિરુ":2289,"▁કરી.":2290,"▁આપ્યું":2291,"▁બ્ર":2292,"▁નીતિ":2293,"▁રાખવામાં":2294,"▁ખરીદી":2295,"રસ":2296,"▁ધ્યાનમાં":2297,"▁ગ્રાહ":2298,"▁અનુભ":2299,"▁પહેલી":2300,"▁બનાવે":2301,"▁સ્થળ":2302,"▁આપ્યા":2303,"▁જગ્યાએ":2304,"▁શબ્દો":2305,"તામાં":2306,"▁બનાવવામાં":2307,"▁હિં":2308,"▁દર્શ":2309,"ન્ત":2310,"સ્ટે":2311,"▁કહ્યું,":2312,"▁સભા":2313,"▁પરા":2314,"▁સલાહ":2315,"▁સ્મ":2316,"▁ચંદ્ર":2317,"લિયા":2318,"▁બાંધ":2319,"વાહ":2320,"▁વધાર":2321,"▁હોસ્પિટલમાં":2322,"▁નાગર":2323,"▁હાર્":2324,"▁અધ્ય":2325,"▁જમ":2326,"ઉં":2327,"▁સહાય":2328,"▁રન":2329,"▁દર્શન":2330,"▁કાંઈ":2331,"ર્ય":2332,"▁ઓપ":2333,"▁અહે":2334,"રલ":2335,"▁બુદ્ધિ":2336,"ષિ":2337,"લ્લી":2338,"▁યુવતી":2339,"▁ફરજ":2340,"જિક":2341,"ઓનું":2342,"વ્યા":2343,"▁મામલે":2344,"▁જરા":2345,"▁પ્રી":2346,"▁સફળ":2347,"▁વર્ણ":2348,"▁ઉત્તમ":2349,"▁છોકરી":2350,"▁જેટલા":2351,"▁બદલ":2352,"▁હેતુ":2353,"સદ":2354,"▁છે?\n":2355,"▁દેવા":2356,"▁50":2357,"▁પરમા":2358,"ાવવામાં":2359,"સિટી":2360,"▁એન્ડ":2361,"▁બેંક":2362,"સ્થ્ય":2363,"તરમાં":2364,"ઉન્ટ":2365,"▁ચેા":2366,"▁અત્યારે":2367,"▁વિધાનસભા":2368,"કૃ":2369,"જને":2370,"સ્તવ":2371,"▁સાહિત્ય":2372,"▁સુવિધા":2373,"લાવી":2374,"▁નહીં,":2375,"▁લાગ્યા":2376,"▁પડશે.":2377,"▁દેવામાં":2378,"▁ફરીથી":2379,"ટની":2380,"સ્વ":2381,"▁છો.\n":2382,"▁0":2383,"▁દીકરી":2384,"ૂળ":2385,"સ્ય":2386,"▁કાંઇ":2387,"▁મુશ્કેલી":2388,"▁મળશે.":2389,"નામાં":2390,"દેશી":2391,"▁વિરોધ":2392,"▁૧૨":2393,"▁સાંભળ":2394,"રોજ":2395,"▁ફેરફ":2396,"▁ખરીદ":2397,"▁મુક":2398,"▁દેખાય":2399,"▁ધરી":2400,"▁સંસ્ક":2401,"▁માંડ":2402,"પકડ":2403,"વારી":2404,"આર":2405,"▁પાડી":2406,"▁વિશ્વાસ":2407,"▁ધારાસભ":2408,"▁જિલ્લામાં":2409,"જૂરી":2410,"ઝન":2411,"▁ક્રા":2412,"▁નાશ":2413,"નિંગ":2414,"▁13":2415,"▁રકમ":2416,"▁શીખ":2417,"▁નિર્મા":2418,"▁ઇચ્છા":2419,"▁આથી":2420,"▁વડે":2421,"▁મોટો":2422,"▁પેાતાની":2423,"▁સન્":2424,"▁આવશે.\n":2425,"પ્રિય":2426,"▁કિસ્સા":2427,"▁દૂધ":2428,"▁રહેવા":2429,"કામ":2430,"લિત":2431,"કળ":2432,"▁દક્ષિણ":2433,"▁તાર":2434,"▁થવાની":2435,"સ્કાર":2436,"▁તંત્ર":2437,"▁પ્રાણી":2438,"▁કાર્યક્ર":2439,"ોની":2440,"▁જેવું":2441,"▁કૌ":2442,"▁નીકળી":2443,"▁બેસી":2444,"▁ધરપકડ":2445,"▁સફળતા":2446,"▁પ્રિય":2447,"▁સુરક્ષા":2448,"▁નિવે":2449,"▁વડાપ્રધાન":2450,"▁મેટ":2451,"▁જોખ":2452,"▁વિરુદ્ધ":2453,"દિક":2454,"▁બોર્ડ":2455,"▁કૉ":2456,"▁પછી,":2457,"▁માની":2458,"સલ":2459,"▁પુરૂષ":2460,"તિક":2461,"▁લોકોની":2462,"▁કિલો":2463,"▁આખા":2464,"▁ક્રિકે":2465,"▁પ્રવૃત્તિ":2466,"▁મનો":2467,"▁ડાય":2468,"▁સુરત":2469,"▁વાળ":2470,"▁છોડ":2471,"▁ફુ":2472,"▁ચાલે":2473,"▁માનવામાં":2474,"▁શકતા":2475,"▁પૃથ્વી":2476,"દ્ધા":2477,"વીર":2478,"▁તેવું":2479,"▁વિન":2480,"લેક":2481,"▁કબ":2482,"▁એમને":2483,"▁ગરી":2484,"▁ફોટો":2485,"્યાન":2486,"▁ઠા":2487,"ંકર":2488,"▁સ્થળે":2489,"▁સર્વે":2490,"▁આંખ":2491,"▁જીવનમાં":2492,"▁તસ":2493,"ઝે":2494,"િયમ":2495,"▁વર્ત":2496,"▁ધમ":2497,"▁નીકળ":2498,"▁પૂજા":2499,"▁હંમેશા":2500,"લામાં":2501,"▁ભવિ":2502,"▁જાળ":2503,"ન્ચ":2504,"▁સ્વાસ્થ્ય":2505,"▁સવાર":2506,"▁શુભ":2507,"▁રસી":2508,"▁આંક":2509,"▁વાતો":2510,"ઠ્":2511,"▁પ્રમાણ":2512,"▁પદાર્થ":2513,"ંગી":2514,"▁એણે":2515,"▁ફિ":2516,"તી.":2517,"▁કરો.\n":2518,"▁માને":2519,"▁ક્યારેય":2520,"▁કોલે":2521,"▁મુસાફ":2522,"▁વેપારી":2523,"▁ભરે":2524,"ડતા":2525,"▁લઇને":2526,"▁૧૫":2527,"▁પ્રભાવ":2528,"યુક્ત":2529,"▁વેચા":2530,"▁વર્ષો":2531,"▁વ્યવહાર":2532,"▁બરા":2533,"▁ગતિ":2534,"ન્દુ":2535,"ચિત":2536,"▁સામેલ":2537,"▁સાય":2538,"▁કલ્":2539,"▁શકા":2540,"▁લોકોના":2541,"▁આઠ":2542,"રોમાં":2543,"િકલ":2544,"▁ઉપલ":2545,"▁ભવિષ્ય":2546,"▁અનિ":2547,"▁સ્થાપ":2548,"▁એક્ટ":2549,"▁વાસ્તવ":2550,"▁તક":2551,"▁ભાગી":2552,"▁આપણને":2553,"ર્વે":2554,"▁હિંદુ":2555,"▁24":2556,"▁16":2557,"▁મળ્યું":2558,"કાને":2559,"▁યુનિવર્":2560,"▁૧૧":2561,"ટેડ":2562,"લ્ય":2563,"▁વિદ્યા":2564,"20":2565,"▁તેમનું":2566,"નાની":2567,"સ્ટ્રે":2568,"ો,":2569,"ત્ત્વ":2570,"દમ":2571,"▁વાતાવ":2572,"▁સભ્યો":2573,"▁ઉદાહરણ":2574,"▁દીધા":2575,"ડક":2576,"લાઇ":2577,"▁હેાય":2578,"▁રણ":2579,"▁જ્ઞા":2580,"ત્યા":2581,"્રીમ":2582,"▁આપતા":2583,"ર્ન":2584,"પાલ":2585,"▁કુદર":2586,"જીએ":2587,"્રોલ":2588,"▁કયા":2589,"▁વાતાવરણ":2590,"▁ઍ":2591,"સમ":2592,"રૂપે":2593,"▁વાર્તા":2594,"રી,":2595,"▁ડ્રા":2596,"▁લખ્યું":2597,"▁સામગ્રી":2598,"▁પાઠ":2599,"▁ગુરૂ":2600,"▁અત્યંત":2601,"ટ,":2602,"▁ચાં":2603,"હર":2604,"સ્તે":2605,"▁પ્રોજેક્ટ":2606,"મેન":2607,"▁ખાં":2608,"▁ઉઠ":2609,"વલ":2610,"અલ":2611,"ડવામાં":2612,"ઉન્ડ":2613,"ભાવના":2614,"▁ખાલી":2615,"▁ઉર્":2616,"▁ઝડપથી":2617,"એક":2618,"▁સ્ત":2619,"▁વ્યક્ત":2620,"છે.":2621,"▁ઘણું":2622,"ગ્રામ":2623,"▁મળ્યો":2624,"▁ગુમા":2625,"▁જોકે,":2626,"▁ફ્રે":2627,"▁નહિ,":2628,"▁વેબ":2629,"▁બ્રહ્મ":2630,"▁હાર":2631,"▁પાસ":2632,"▁વર્ગ":2633,"વી,":2634,"▁પોતાનું":2635,"▁દબા":2636,"▁સ્વીકાર":2637,"શીલ":2638,"એ,":2639,"▁જોઈએ.\n":2640,"શને":2641,"▁પશ્ચ":2642,"▁શક્યતા":2643,"▁યાત્રા":2644,"▁જોઈને":2645,"▁આકર્ષ":2646,"▁ગ્":2647,"▁સમર્થ":2648,"▁દુર્":2649,"▁ભૂલ":2650,"▁સામનો":2651,"▁દાન":2652,"દ્ધતિ":2653,"▁ભૂત":2654,"▁યુનિવર્સિટી":2655,"▁લાગુ":2656,"ભૂત":2657,"પ્તિ":2658,"▁મંડ":2659,"▁માન્ય":2660,"વત":2661,"▁કહેવું":2662,"▁ગત":2663,"▁રાષ્ટ્રીય":2664,"▁આદેશ":2665,"▁ખુશ":2666,"ડ,":2667,"▁વર્ષના":2668,"▁જતી":2669,"▁શુદ્ધ":2670,"▁મના":2671,"પાલિ":2672,"▁વધારા":2673,"વિત્ર":2674,"▁મહત્વપૂર્ણ":2675,"કરો":2676,"▁છોડી":2677,"ણના":2678,"▁તાજે":2679,"▁તેલ":2680,"▁સંઘ":2681,"▁જૂના":2682,"સ્થિત":2683,"▁ભાવના":2684,"બાર":2685,"▁કાપ":2686,"▁જિલ્લાના":2687,"મદ":2688,"▁17":2689,"▁ઉપલબ્ધ":2690,"▁એમના":2691,"ાયેલી":2692,"▁તેઓએ":2693,"▁નિરા":2694,"ાયેલ":2695,"દ્ય":2696,"ભો":2697,"વિડ":2698,"▁ગરમ":2699,"રીના":2700,"▁પ્રાર":2701,"▁માલિક":2702,"▁એડ":2703,"પ્રે":2704,"▁રેલ":2705,"▁રહેલી":2706,"▁લક્ષણ":2707,"▁અખ":2708,"▁મોકલ":2709,"▁સહે":2710,"▁અનુસાર,":2711,"▁જણાવ્યા":2712,"પાત્ર":2713,"સ્ટર":2714,"▁અજ":2715,"▁ખેલ":2716,"▁મંજૂરી":2717,"રૂં":2718,"▁અંગ્રે":2719,"▁હોવાની":2720,"▁નાણા":2721,"કિંગ":2722,"▁કર્યું.":2723,"▁જવાબદારી":2724,"▁બોલી":2725,"▁લાવ":2726,"▁ભ્ર":2727,"▁ત્યાંથી":2728,"▁ચાર્":2729,"▁રાજકીય":2730,"▁બરાબર":2731,"ડોદરા":2732,"▁રહેશે":2733,"▁અંદા":2734,"તિમ":2735,"ણીને":2736,"ટુ":2737,"હ્મ":2738,"ગ્નિ":2739,"▁ઇતિહા":2740,"▁પરત":2741,"▁પાત્ર":2742,"▁ઘટ":2743,"▁કરી,":2744,"થી,":2745,"▁મેડ":2746,"પમાં":2747,"▁શનિ":2748,"▁સાધુ":2749,"▁અવાજ":2750,"▁સાબ":2751,"▁સાંજે":2752,"▁અરે":2753,"▁ઓન":2754,"કાય":2755,"▁સ્થિતિમાં":2756,"▁કરનારા":2757,"▁પસંદગી":2758,"▁સાહેબ":2759,"ક્ષિત":2760,"▁તેથી,":2761,"ઝને":2762,"▁ઐ":2763,"▁લખી":2764,"▁ગાડી":2765,"▁આવક":2766,"▁એક્":2767,"▁જાત":2768,"▁પુષ્":2769,"▁જયારે":2770,"▁સ્મા":2771,"▁સંબંધિત":2772,"ઠો":2773,"▁વસ્તુઓ":2774,"▁પોતાને":2775,"▁ગ્રં":2776,"▁વિવે":2777,"▁બતાવ":2778,"▁ઉભા":2779,"▁યોજા":2780,"▁જશે.":2781,"▁એમની":2782,"▁સદી":2783,"▁છૂટ":2784,"▁ખાનગી":2785,"▁ખેલાડી":2786,"▁ખુશી":2787,"▁નાખી":2788,"▁દીધું":2789,"▁રાહુલ":2790,"ટલ":2791,"▁ત્રણે":2792,"▁ભરા":2793,"▁નજ":2794,"▁વિશાળ":2795,"▁સ્ના":2796,"▁જળ":2797,"▁અઠવા":2798,"▁કરેલા":2799,"▁ગુજરાતના":2800,"▁આશ્ર":2801,"▁અધ્યક્ષ":2802,"▁ફિલ્મો":2803,"સાહ":2804,"ઝો":2805,"દાસ":2806,"▁છૂ":2807,"▁સ્વાદ":2808,"▁સપા":2809,"યન":2810,"▁યોજ":2811,"▁મુશ્કેલ":2812,"▁જાગ":2813,"ષ્ણુ":2814,"▁વજન":2815,"ગરમાં":2816,"▁તબક્":2817,"▁રાજ્યના":2818,"વળ":2819,"સ્તિ":2820,"▁ઘટાડો":2821,"યોગી":2822,"▁એક્સ":2823,"▁મળતી":2824,"▁પદ્ધતિ":2825,"રીમાં":2826,"▁પગલે":2827,"▁ઝી":2828,"▁તેમાંથી":2829,"▁કાગ":2830,"▁વધે":2831,"▁ગ્રહ":2832,"તાએ":2833,"ંદગી":2834,"યક":2835,"▁કાર્ડ":2836,"ડાઈ":2837,"ાનક":2838,"▁એપ્ર":2839,"▁એકવાર":2840,"સૂ":2841,"▁સારો":2842,"▁પાલન":2843,"▁સરખા":2844,"▁ઉદ્યોગ":2845,"લોજી":2846,"▁કોણ":2847,"▁100":2848,"▁કાર્યક્રમ":2849,"▁વલ":2850,"▁અટકા":2851,"▁જુદી":2852,"સં":2853,"▁પકડ":2854,"▁આંખો":2855,"▁જેટલી":2856,"▁હકીકત":2857,"ઉટ":2858,"ચીન":2859,"▁વૃક્ષ":2860,"▁કેસમાં":2861,"▁સ્વતંત્ર":2862,"▁પવિત્ર":2863,"▁વીજ":2864,"▁મંગળ":2865,"શ્મી":2866,"ઝર":2867,"▁પોતાનો":2868,"▁ટેક":2869,"ઇક":2870,"્યેા":2871,"▁ઓગ":2872,"▁પહોંચા":2873,"▁ચિત્ર":2874,"▁લગાવ":2875,"▁સામાજિક":2876,"▁ડિઝા":2877,"▁માથા":2878,"▁સૂચ":2879,"▁ભાજપના":2880,"બંધી":2881,"▁બેન્":2882,"▁વારં":2883,"▁અંક":2884,"▁સમી":2885,"ક્રમણ":2886,"▁લોકપ્રિય":2887,"▁ખાતરી":2888,"▁સંગી":2889,"ડાના":2890,"▁સંચા":2891,"મ્સ":2892,"▁શહેરના":2893,"▁ખ્યા":2894,"▁વ્યવસાય":2895,"▁મિલ":2896,"▁ક્રો":2897,"▁જોઇએ.":2898,"▁વડોદરા":2899,"▁જોયું":2900,"બીજા":2901,"▁વારંવાર":2902,"▁રોક":2903,"▁સ્પે":2904,"લેક્ટ":2905,"▁આવીને":2906,"▁બાબત":2907,"ગમ":2908,"▁પર્વ":2909,"▁ભારતના":2910,"▁સંખ્યામાં":2911,"ટુંબ":2912,"▁મથ":2913,"ક્રે":2914,"▁સજા":2915,"લ્લ":2916,"▁જૈન":2917,"દ્રા":2918,"▁સહિતના":2919,"ઈન":2920,"▁પ્રમાણમાં":2921,"▁ક્રે":2922,"વી.":2923,"▁શુક્ર":2924,"▁ઘો":2925,"કાલ":2926,"શાં":2927,"ચો":2928,"ક્રિય":2929,"▁દર્શા":2930,"▁માળ":2931,"▁ચૌ":2932,"▁પહેર":2933,"▁ખસે":2934,"▁કન્":2935,"▁સાબિત":2936,"▁અંતિમ":2937,"▁પામી":2938,",000":2939,"▁ગામમાં":2940,"યા.":2941,"▁હાં":2942,"▁બ્રાહ્મ":2943,"આઇ":2944,"▁ખેતી":2945,"▁યુવાન":2946,"▁પાપ":2947,"▁મુદ્દા":2948,"▁આના":2949,"▁માટેની":2950,"▁સંભા":2951,"▁વિસ્તારોમાં":2952,"▁કૈ":2953,"▁ડો.":2954,"▁વાહન":2955,"▁રાખીને":2956,"▁હોસ્પિટલ":2957,"▁અચાનક":2958,"▁કાન":2959,"ફળ":2960,"▁મેને":2961,"▁ગુલા":2962,"▁ભિ":2963,"▁કથા":2964,"▁શ્વા":2965,"▁શંકા":2966,"▁ઘેર":2967,"ષે":2968,"▁પ્રદર્શન":2969,"▁૧૪":2970,"▁વર્ષમાં":2971,"▁ફેરફાર":2972,"▁ભલે":2973,"▁સવાલ":2974,"ણની":2975,"જીને":2976,"▁બિન":2977,"શ્યક":2978,"સ્તો":2979,"▁શરીરમાં":2980,"જીની":2981,"▁દરવા":2982,"તાથી":2983,"ધ્ધ":2984,"▁એટલી":2985,"▁માંથી":2986,"▁બાબતે":2987,"▁પ્રારંભ":2988,"▁જોર":2989,"વતી":2990,"▁ભૂમિકા":2991,"ત્રિ":2992,"▁ભાઇ":2993,"▁નિયંત્ર":2994,"▁કંઈક":2995,"પાન":2996,"▁નિશ્ચ":2997,"જ,":2998,"▁દિવસમાં":2999,"્મી":3000,"કુલ":3001,"▁આચાર":3002,"ફ્ટ":3003,"રાન":3004,"▁અગ્ર":3005,"▁વિપ":3006,"▁પુત્રી":3007,"▁હિન્દુ":3008,"▁વેપાર":3009,"▁અહ":3010,"ંપરા":3011,"▁એકબીજા":3012,"▁મેટા":3013,"▁રમત":3014,"▁ઘણાં":3015,"વા,":3016,"▁થઈને":3017,"શ.":3018,"ડીએ":3019,"▁આર્":3020,"▁કરતો":3021,"▁કૃષ્ણ":3022,"જિત":3023,"▁વાયરલ":3024,"▁રાજ્યો":3025,"તૃ":3026,"▁જામન":3027,"ગલ":3028,"▁થશે.\n":3029,"▁ઉકે":3030,"ળાં":3031,"▁અદા":3032,"લા,":3033,"▁વિગ":3034,"▁નવે":3035,"▁શ્રેણી":3036,"▁ઉમ":3037,"▁બ્રે":3038,"▁ભાગે":3039,"▁મર્યા":3040,"▁વર્ષથી":3041,"▁માનસિક":3042,"▁બીજો":3043,"▁ગ્રે":3044,"ાનુ":3045,"શાહ":3046,"મથી":3047,"▁કરાવી":3048,"ટીના":3049,"▁મેા":3050,"▁ચલાવ":3051,"▁સખ":3052,"▁ઉત":3053,"▁અંતે":3054,"ઝિટ":3055,"ડાની":3056,"▁ગણા":3057,"વું.":3058,"▁21":3059,"▁આશ્ચ":3060,"સ્સો":3061,"▁કરવાને":3062,"રાષ્ટ્ર":3063,"રવ":3064,"▁એસ.":3065,"▁સેન્ટ":3066,"શય":3067,"▁પીએમ":3068,"લી,":3069,"▁ધારણ":3070,"▁આકાશ":3071,"▁છેઃ":3072,"સ્ટો":3073,"▁પ્લે":3074,"▁અધિકાર":3075,"▁આરામ":3076,"▁બર":3077,"ંદો":3078,"▁કહ્યુ":3079,"▁શકે.":3080,"▁વાતચી":3081,"▁ગ્રી":3082,"▁ભક્તિ":3083,"▁લડ":3084,"ક્ટો":3085,"▁વિવાદ":3086,"▁મુક્ત":3087,"ંતી":3088,"▁ડિસે":3089,"▁ન્યાય":3090,"▁પ્રકૃતિ":3091,"સ્વી":3092,"▁વહી":3093,"શો.":3094,"▁પરે":3095,"જીવન":3096,"▁દૃષ્ટિ":3097,"કિત":3098,"▁એકદમ":3099,"▁કર્યો.":3100,"▁મ્હ":3101,"▁જશે":3102,"▁કોલ":3103,"લીને":3104,"ોના":3105,"ાર્મિક":3106,"▁રેકો":3107,"▁પડશે":3108,"▁શરૂઆ":3109,"ખ્યાત":3110,"▁ન્યુ":3111,"▁આખી":3112,"▁અંધ":3113,"વ્ર":3114,"▁હાજરી":3115,"▁લખે":3116,"▁એપ":3117,"▁આપવાની":3118,"▁જરૂરિયા":3119,"સ્ત્રી":3120,"▁પણુ":3121,"સ્ટા":3122,"▁દેશની":3123,"▁ખોરા":3124,"ેદ":3125,"▁બિલ":3126,"▁આવશ્યક":3127,"▁ઓફિ":3128,"▁સગ":3129,"▁થયેલી":3130,"ટરી":3131,"▁બુધ":3132,"ણ,":3133,"થમિક":3134,"▁ગરમી":3135,"પત્ર":3136,"▁રજા":3137,"▁કૂ":3138,"▁આગે":3139,"ત્તમ":3140,"▁અગ્નિ":3141,"▁ફેબ":3142,"દની":3143,"િત્ય":3144,"▁વચન":3145,"▁દસ":3146,"▁મોટાભાગ":3147,"▁મોદીએ":3148,"માની":3149,"▁ચુક":3150,"▁રાત":3151,"કારાત્મક":3152,"▁મહેન":3153,"▁આફ":3154,"ંખ":3155,"ું,":3156,"▁પ્રાથમિક":3157,"ફિક":3158,"▁થયા.":3159,"▁દાવો":3160,"▁બધાં":3161,"▁જાણકારી":3162,"▁મિનિટ":3163,"▁અજા":3164,"▁રાગ":3165,"▁સ્થિત":3166,"▁અપે":3167,"▁શ્":3168,"સિદ્ધ":3169,"▁પરંપરા":3170,"▁ભજ":3171,"▁વર્લ્ડ":3172,"▁કોર્પોરે":3173,"િકાર":3174,"▁વિદ્યાર્થીઓ":3175,"▁પરમ":3176,"▁પ્રિ":3177,"▁લાગ્યા.":3178,"▁સિસ્ટમ":3179,"▁બન્યા":3180,"▁નબ":3181,"▁પકડી":3182,"▁રેકોર્ડ":3183,"▁ફેસ":3184,"▁લશ્":3185,"▁ઉપાય":3186,"લેા":3187,"જ્જ":3188,"▁ા":3189,"▁મહારાષ્ટ્ર":3190,"▁જાન્યુ":3191,"▁ભણ":3192,"ના,":3193,"શભાઈ":3194,"▁ટુ":3195,"▁થાય.":3196,"▁ગામના":3197,"▁ઢા":3198,"▁૧૩":3199,"▁ખીજા":3200,"▁સોમ":3201,"ંજ":3202,"▁જાણો":3203,"▁પ્રતિબંધ":3204,"▁ક્યારેક":3205,"રાની":3206,"ન્ટરને":3207,"તાનું":3208,"▁પ્રશ":3209,"▁કન્યા":3210,"▁લુ":3211,"▁શોધી":3212,"વું,":3213,"▁તારીખ":3214,"▁રાહત":3215,"▁1.":3216,"▁નહે":3217,"▁દૈ":3218,"▁40":3219,"▁નિર":3220,"▁તરીકે,":3221,"▁ભોગ":3222,"રે,":3223,"▁ત્યાગ":3224,"▁સમુદ્ર":3225,"ધો":3226,"ંસ":3227,"▁કદી":3228,"▁કલ્પના":3229,"▁પી.":3230,"માને":3231,"▁ઉલ્લેખનીય":3232,"▁રીત":3233,"▁હસ":3234,"▁જણાય":3235,"▁દઈએ":3236,"▁એમણે":3237,"▁મિશ્ર":3238,"▁તાલુકા":3239,"▁તપ":3240,"▁ઠે":3241,"કાલે":3242,"▁દેખાવ":3243,"લાસ":3244,"▁ચારે":3245,"▁કાર્યો":3246,"જારો":3247,"▁૧૬":3248,"▁માધ્ય":3249,"ણિ":3250,"▁પ્રેર":3251,"▁ધરાવતા":3252,"ડીયા":3253,"કન":3254,"▁ટ્રાન્સ":3255,"▁વીર":3256,"▁થયેલ":3257,"રિયા":3258,"ણી,":3259,"▁આંગ":3260,"ત્કાર":3261,"▁જાન્યુઆરી":3262,"▁હોય.":3263,"ળાવ":3264,"▁સ.":3265,"સિંગ":3266,"▁કેપ્":3267,"▁ચાહ":3268,"▁પાડે":3269,"▁માતાપિ":3270,"રેશન":3271,"▁નિયમો":3272,"▁કુમાર":3273,"ીક":3274,"▁નિક":3275,"▁લૂ":3276,"▁કુટુંબ":3277,"ળ,":3278,"▁જેઓ":3279,"▁દયા":3280,"▁પૈકી":3281,"એલ":3282,"▁ધાર્મિક":3283,"પ્રદ":3284,"▁રહેશે.\n":3285,"▁તાલુકાના":3286,"▁સુપ":3287,"વાં":3288,"▁સ્વભાવ":3289,"▁ત્રા":3290,"▁ભેદ":3291,"▁શાંત":3292,"▁ભલા":3293,"ભરમાં":3294,"▁તમારું":3295,"▁22":3296,"જનક":3297,"▁નાણાં":3298,"▁પંજા":3299,"▁અફ":3300,"▁પેદા":3301,"થ્થ":3302,"▁કચ્છ":3303,"ની,":3304,"શ,":3305,"▁આશ્ચર્ય":3306,"▁દેહ":3307,"▁દ્વાર":3308,"▁દરમ્યાન":3309,"▁અપા":3310,"▁વિદેશ":3311,"▁વાગ્યા":3312,"▁ડ્ર":3313,"▁જલ":3314,"▁હુક":3315,"▁જઈને":3316,"▁સમયથી":3317,"▁કરું":3318,"▁દરિયા":3319,"▁મજા":3320,"▁તેમનો":3321,"રોને":3322,"▁શાક":3323,"▁વર્તમાન":3324,"ઘુ":3325,"▁ગુણવ":3326,"રાના":3327,"લીમ":3328,"એ.":3329,"▁દેવી":3330,"▁સરળતા":3331,"▁ગઈ.":3332,"તાઓ":3333,"ંદી":3334,"કીને":3335,"▁અમલ":3336,"▁હુમલો":3337,"▁સુપર":3338,"▁કોંગ્રેસના":3339,"ડીમાં":3340,"ડી,":3341,"▁લગ્":3342,"▁મહિનામાં":3343,"▁થતું":3344,"▁પુસ્તક":3345,"▁ક્રિકેટ":3346,"▁પ્રગટ":3347,"▁એપ્":3348,"▁પ્રવાસ":3349,"▁મંત્રા":3350,"રાં":3351,"▁પરિણામે":3352,"▁પાટ":3353,"▁૧૭":3354,"ઈને":3355,"▁નામની":3356,"▁માર્ચ":3357,"▁ક્લિક":3358,"લાની":3359,"▁તેનાં":3360,"▁રૂપે":3361,"▁લાઇ":3362,"▁ડેટા":3363,"▁ધોરણ":3364,"▁ક્ષમતા":3365,"લબ":3366,"▁સમયગા":3367,"▁અવિ":3368,"ગમાં":3369,"ષી":3370,"▁વિદેશી":3371,"▁આવવા":3372,"▁બેઠા":3373,"▁યાદી":3374,"લાઇન":3375,"▁ગુનો":3376,"▁બ્રિ":3377,"▁સંતા":3378,"માના":3379,"▁ચહેરા":3380,"▁લીધું":3381,"▁કોર્ટે":3382,"બુક":3383,"▁2022":3384,"▁અભિનેત્રી":3385,"ુનિક":3386,"▁સૂચના":3387,"▁કાળા":3388,"કુમાર":3389,"▁માસ":3390,"▁ગામે":3391,"▁પડ્યો":3392,"▁સેના":3393,"કાએ":3394,"શાળી":3395,"▁વાદ":3396,"▁સાથ":3397,"▁પ્રાચીન":3398,"▁ચૈ":3399,"▁રશિયા":3400,"તી,":3401,"▁વિભા":3402,"▁કરેલ":3403,"▁મારો":3404,"▁અંતર્":3405,"▁સંભાવના":3406,"ૂમ":3407,"▁હરિ":3408,"▁તાજેતરમાં":3409,"▁ગમ":3410,"▁સ્તર":3411,"▁પુનઃ":3412,"▁સમજા":3413,"▁સંપૂર્ણપણે":3414,"ન્સર":3415,"▁મળતા":3416,"▁સૌરાષ્ટ્ર":3417,"▁હોત":3418,"▁સપ્ટે":3419,"▁શેઠ":3420,"▁વિગતો":3421,"જ્ય":3422,"▁ખીજી":3423,"ડા,":3424,"▁વેચ":3425,"સ્ટ્રી":3426,"▁તાત્":3427,"▁સ્થિર":3428,"▁જુઓ":3429,"▁ધર્":3430,"રિય":3431,"▁પંચાય":3432,"▁કચ":3433,"છે,":3434,"▁સફેદ":3435,"▁સાફ":3436,"▁ખેા":3437,"▁મૈ":3438,"▁શર્મા":3439,"▁જાતિ":3440,"ખંડ":3441,"▁ઉજવણી":3442,"ટને":3443,"▁તો,":3444,"▁રમા":3445,"▁ફૂટ":3446,"ાવ્યા":3447,"▁મતદાન":3448,"લ્યુ":3449,"નિધિ":3450,"▁પૂછ્યું":3451,"▁વાસ્તવિક":3452,"▁આયુ":3453,"▁વરસ":3454,"જી,":3455,"▁ચલા":3456,"▁સભ્ય":3457,"ઓથી":3458,"▁સ્ને":3459,"▁ફાયદા":3460,"▁ધારાસભ્ય":3461,"▁ઈચ્છા":3462,"▁મળીને":3463,"▁ટ્વિ":3464,"▁જામનગર":3465,"▁આવતાં":3466,"▁નહીં.\n":3467,"ઈલ":3468,"▁કપડાં":3469,"▁બાળકોને":3470,"▁તાપમાન":3471,"▁જવાની":3472,"▁દંડ":3473,"ંસા":3474,"▁દીધો":3475,"ૂહ":3476,"▁તમારો":3477,"▁નિવેદન":3478,"▁એનું":3479,"▁પવન":3480,"ટીને":3481,"▁સન્માન":3482,"▁સક્રિય":3483,"રેલી":3484,"્રિક":3485,"▁જવું":3486,"▁ગયો.":3487,"▁નિર્માણ":3488,"લવા":3489,"▁કોરોનાના":3490,"▁ટુક":3491,"▁વેચાણ":3492,"▁ભરી":3493,"લમ":3494,"▁સંગઠ":3495,"ળની":3496,"ટીમાં":3497,"▁પ્રશ્નો":3498,"ંશ":3499,"▁મૌ":3500,"ળાના":3501,"▁વાહનો":3502,"▁આખરે":3503,"▁હળ":3504,"▁આપીને":3505,"▁આશરે":3506,"▁દુર":3507,"▁કરેલી":3508,"ણ્ય":3509,"▁રેલવે":3510,"▁બજે":3511,"ન્ના":3512,"▁આરોપ":3513,"ન્ડર":3514,"▁પગલાં":3515,"▁ઉપયોગી":3516,"▁નવું":3517,"▁ઉભી":3518,"▁મોબાઈ":3519,"▁રચ":3520,"▁કરશે.\n":3521,"▁ઘરની":3522,"ળીને":3523,"લતા":3524,"▁અદ":3525,"▁મારું":3526,"▁સઘ":3527,"▁પાતાના":3528,"▁વધુમાં":3529,"▁ઝો":3530,"▁સમિતિ":3531,"▁સેવન":3532,"▁કૃપા":3533,"▁ફટ":3534,"ત્સા":3535,"▁વૃદ્ધિ":3536,"▁સાધન":3537,"▁ચર":3538,"▁ન્યૂઝ":3539,"▁રાય":3540,"▁વિધ":3541,"▁રાજસ્થાન":3542,"ઠું":3543,"▁બીજું":3544,"▁સચ":3545,"▁કેન્દ":3546,"▁સી.":3547,"પુરા":3548,"▁પ્લેટ":3549,"▁23":3550,"▁વિચ":3551,"દર્શ":3552,"▁હવામાન":3553,"▁વાસ":3554,"ઉન્":3555,"▁છીએ,":3556,"▁પંડ":3557,"▁ત્વ":3558,"▁મરી":3559,"લાના":3560,"▁મૂર્તિ":3561,"રાષ્ટ્રીય":3562,"ષ્ટા":3563,"▁ગૂ":3564,"▁ફેલા":3565,"▁અમેરિક":3566,"▁સંદર્":3567,"▁ડિગ્રી":3568,"▁કોન્":3569,"▁મદદથી":3570,"જિન":3571,"▁કેળ":3572,"ક્ષમ":3573,"▁કચે":3574,"▁માયા":3575,"▁લેતા":3576,"▁અધિકારીઓ":3577,"▁ફેબ્રુ":3578,"▁બ્રિટ":3579,"▁સંશો":3580,"▁ખર":3581,"▁સંપર્ક":3582,"▁વિરા":3583,"મેટ":3584,"▁આધારિત":3585,"૨૦":3586,"▁અલ્":3587,"▁પાણીમાં":3588,"કર્તા":3589,"▁વિચારો":3590,"▁ટિ":3591,"▁વાન":3592,"ણીના":3593,"ફોર્મ":3594,"ક્કર":3595,"▁સરકારના":3596,"▁આભાર":3597,"ભિ":3598,"ાયલ":3599,"▁વૃદ્ધ":3600,"▁અંતર્ગત":3601,"▁આવ્યાં":3602,"▁ઈશ્વર":3603,"▁કુદરતી":3604,"▁કર્યુ":3605,"નામ":3606,"▁અભિન":3607,"ગ્રહ":3608,"દમાં":3609,"વાલો":3610,"▁નેટ":3611,"▁અબ":3612,"▁લેવાની":3613,"▁છું,":3614,"▁જેણે":3615,"યેલા":3616,"▁ઇચ્છ":3617,"▁ચોરી":3618,"▁પેલા":3619,"▁જીતી":3620,"▁એ.":3621,"▁અપેક્ષા":3622,"▁રક્ષણ":3623,"▁દાદા":3624,"▁આકાર":3625,"▁પોલીસને":3626,"▁મુસ્":3627,"▁સ્ટાફ":3628,"▁સાથે,":3629,"▁ત્રીજા":3630,"▁કોઈને":3631,"▁ચઢ":3632,"▁સુધાર":3633,"▁સ્વચ્છ":3634,"▁બિઝને":3635,"ૈયા":3636,"▁અંતર":3637,"ાવતા":3638,"્રેસ":3639,"▁આધુનિક":3640,"▁જુલાઈ":3641,"શાસ્ત્ર":3642,"▁શાસ્ત્ર":3643,"▁છે!":3644,"▁સંસાર":3645,"પ્રદેશ":3646,"મીટર":3647,"▁લક્ષ્મી":3648,"૦૦૦":3649,"▁ઘણો":3650,"▁લાગ્યું":3651,"▁બેઠકો":3652,"▁ઊંચા":3653,"▁શારી":3654,"▁પહોંચ્યા":3655,"▁આમાં":3656,"▁લાવવા":3657,"▁કલ્યા":3658,"▁ગણે":3659,"લીઝ":3660,"▁પાક":3661,"▁દિલ":3662,"મેલ":3663,"ત્રુ":3664,"▁પ્રસંગે":3665,"▁શરુ":3666,"મણી":3667,"▁યુરો":3668,"▁સંસ્કૃતિ":3669,"▁લખા":3670,"▁ફેબ્રુઆરી":3671,"▁ફાયર":3672,"▁એકાઉન્ટ":3673,"▁સંતો":3674,"▁મોટું":3675,"ક્રો":3676,"▁પરિવર્":3677,"▁કોવિડ":3678,"ાર્ડ":3679,"▁દશ":3680,"▁સ્વપ્":3681,"▁મળવા":3682,"▁નાય":3683,"▁પર્યા":3684,"▁રૂપા":3685,"▁પશ્ચિમ":3686,"▁છેઃ\n":3687,"▁બાબતો":3688,"પદ":3689,"▁કાલે":3690,"▁માફ":3691,"લીમાં":3692,"▁સાથી":3693,"▁ટિક":3694,"▁ભાગમાં":3695,"▁હાવાથી":3696,"▁લોહી":3697,"▁સાચી":3698,"નથી":3699,"▁દુખ":3700,"▁ગોઠ":3701,"▁સર્જ":3702,"ંડો":3703,"▁ઇન":3704,"▁ઓછું":3705,"▁ફાયદો":3706,"પ્રા":3707,"▁ભોજન":3708,"ગ્રસ્ત":3709,"▁દિવસોમાં":3710,"▁સદા":3711,"▁વય":3712,"ાર્ટ":3713,"▁માર્કેટ":3714,"તક":3715,"▁ચેર":3716,"▁ગ્રંથ":3717,"▁વાયુ":3718,"▁બેસ":3719,"▁પથ":3720,"ામાં":3721,"▁છેવ":3722,"▁મીટર":3723,"▁પ્રતિનિધિ":3724,"▁સ્કૂ":3725,"▁રેડ":3726,"▁થાય,":3727,"▁કેમકે":3728,"▁મ્યુનિ":3729,"▁કેન્દ્રીય":3730,"▁તાત્કા":3731,"▁તૂ":3732,"▁તસવી":3733,"▁મહેનત":3734,"▁જણાવે":3735,"ધર":3736,"▁થતો":3737,"▁ઉમેદવારો":3738,"▁દરરોજ":3739,"▁સ્માર્ટ":3740,"▁હાઉ":3741,"▁એનો":3742,"શિયન":3743,"નોલોજી":3744,"▁હાય,":3745,"▁મહારાજ":3746,"▁વ્યાજ":3747,"લાઈન":3748,"▁મશી":3749,"▁ફોર્મ":3750,"▁નાન":3751,"▁ઠીક":3752,"▁રાષ્ટ્રપતિ":3753,"▁ટેક્":3754,"▁ઊભા":3755,"▁બ્રહ્":3756,"▁આંતરરાષ્ટ્રીય":3757,"ેલા":3758,"▁ગિ":3759,"પજ":3760,"▁રાવ":3761,"▁એજન્સી":3762,"▁જોતા":3763,"▁અકસ્માત":3764,"▁બગ":3765,"એન":3766,"▁199":3767,"▁સંભવ":3768,"▁માણુ":3769,"▁પાટી":3770,"▁નાગરિકો":3771,"▁ભારતની":3772,"▁જથ્":3773,"કૂળ":3774,"▁પાન":3775,"લિકે":3776,"ૂડ":3777,"વિલ":3778,"સીને":3779,"તો.":3780,"▁સહી":3781,"▁સંભ":3782,"શની":3783,"▁જ્યો":3784,"▁સમક્ષ":3785,"સ્પે":3786,"▁મળશે":3787,"▁ઉપસ્થિત":3788,"ળાની":3789,"▁ક્રિ":3790,"▁૨૫":3791,"ંદન":3792,"ચક":3793,"▁ગણાય":3794,"▁વિચારી":3795,"▁ગયાં":3796,"ડિંગ":3797,"સ્ટી":3798,"50":3799,"કા,":3800,"▁કાશ્મી":3801,"▁ટીવી":3802,"▁માટી":3803,"ક્ષણિક":3804,"▁અર્થા":3805,"▁વકી":3806,"▁ડું":3807,"લોક":3808,"▁ભવ્ય":3809,"ધાની":3810,"▁બાદમાં":3811,"▁મકા":3812,"▁રહેતી":3813,"તાહ":3814,"ાવત":3815,"▁વચ":3816,"▁એરપોર્ટ":3817,"▁બચાવ":3818,"▁જેનો":3819,"▁સંગ્રહ":3820,"▁ટ્રાફિક":3821,"ધુ":3822,"▁સ્થળો":3823,"▁નિયમિત":3824,"▁સૂત્રો":3825,"▁ઊભી":3826,"શિષ્ટ":3827,"ૂક":3828,"વિંદ":3829,"▁દીકરા":3830,"▁કમિશન":3831,"▁પડતા":3832,"▁લાવી":3833,"▁ખ્યાલ":3834,"▁તબી":3835,"ગ્ન":3836,"▁પીડા":3837,"▁સહન":3838,"રીએ":3839,"કોર":3840,"▁ઉંમ":3841,"▁સપાટી":3842,"▁સારૂ":3843,"▁કારણો":3844,"▁બિલ્":3845,"▁શારીરિક":3846,"▁ગરીબ":3847,"▁વાતચીત":3848,"ડર":3849,"દેહ":3850,"ીય":3851,"▁માથ":3852,"▁નાગ":3853,"કાર્":3854,"▁સરસ":3855,"▁તદ્":3856,"▁પ્રતી":3857,"તું.":3858,"▁તહે":3859,"▁સ્થાને":3860,"રાઈ":3861,"▁નેશનલ":3862,"▁સ્ટી":3863,"▁સોસાય":3864,"▁દોષ":3865,"▁ઉતર":3866,"શનમાં":3867,"▁યુવાનો":3868,"▁દાય":3869,"▁ચેક":3870,"▁ગાંધીનગર":3871,"▁સુપ્રીમ":3872,"ત્તર":3873,"▁ઈન્ડિયા":3874,"સ્વા":3875,"▁કલે":3876,"ાનિ":3877,"▁ગીત":3878,"પ્પા":3879,"▁કાપી":3880,"▁એફ":3881,"▁જોયા":3882,"▁વાગ્યે":3883,"લોડ":3884,"▁હાથે":3885,"ણામાં":3886,"િયાર":3887,"▁કલમ":3888,"શક્તિ":3889,"▁સદ્":3890,"▁આઉટ":3891,"▁સ્પર્ધા":3892,"▁જોખમ":3893,"▁ખોરાક":3894,"અને":3895,"▁કાણુ":3896,"▁પલ":3897,"▁રહેવું":3898,"▁સહુ":3899,"▁કંઇ":3900,"▁આય":3901,"▁સ્થાપના":3902,"રત":3903,"ન્જ":3904,"▁ઉમેર":3905,"▁તીવ્ર":3906,"▁ગ્રુ":3907,"▁કપૂર":3908,"▁દબાણ":3909,"▁આવ્યા.":3910,"▁પરિવારના":3911,"▁ત્વચા":3912,"▁સંક્રમણ":3913,"▁માટેના":3914,"▁થયાં":3915,"▁મહિલાઓ":3916,"▁રહે.":3917,"▁કૅ":3918,"▁પંજાબ":3919,"▁જાતે":3920,"▁સરે":3921,"વના":3922,"▁અદ્":3923,"▁શરૂઆતમાં":3924,"▁ટાઈ":3925,"▁ડિઝાઇન":3926,"▁એવુ":3927,"▁અર્જુ":3928,"લાને":3929,"▁હેલ્":3930,"▁સળ":3931,"ણીની":3932,"વાઇ":3933,"પલ":3934,"▁વસ્તી":3935,"▁નાટ":3936,"સ્તાવે":3937,"ધ્યા":3938,"ફત":3939,"▁ગુણવત્તા":3940,"▁નૈ":3941,"▁હા,":3942,"▁પ્રવ":3943,"▁ઉત્સ":3944,"▁ભાવનગર":3945,"▁વિગત":3946,"▁દેશો":3947,"▁અજાણ":3948,"▁કે.":3949,"જીત":3950,"પરછ":3951,"▁ખાતર":3952,"▁થે":3953,"▁ડર":3954,"▁કયાં":3955,"▁ટ્રેન":3956,"▁કશું":3957,"▁મોબા":3958,"માલ":3959,"▁કાવ્ય":3960,"▁પાકિસ્તાન":3961,"▁ટેક્સ":3962,"▁વિધિ":3963,"મ્મી":3964,"▁શ્રદ્ધા":3965,"▁બીજે":3966,"▁કોર્ટમાં":3967,"▁બંગા":3968,"▁વિકલ્પ":3969,"વ્યો":3970,"ાઈ":3971,"પ,":3972,"▁ઈજા":3973,"▁મોડ":3974,"▁અંબા":3975,"▁આવી.":3976,"▁ઘણીવાર":3977,"▁દિશામાં":3978,"▁વાળા":3979,"▁વિકેટ":3980,"▁ચક્ર":3981,"▁૨૦૧":3982,"▁પડતી":3983,"▁અઠવાડિયા":3984,"લીન":3985,"▁26":3986,"શમાં":3987,"▁છોકરા":3988,"▁થોડો":3989,"▁ચૂંટણીમાં":3990,"▁બહા":3991,"▁બજારમાં":3992,"▁અમી":3993,"▁તૃ":3994,"▁પ્રચાર":3995,"▁મરણ":3996,"▁સરકારની":3997,"▁ઓછામાં":3998,"સંગ":3999,"▁જગા":4000,"▁કેસો":4001,"▁દસ્તાવે":4002,"▁નોંધપાત્ર":4003,"▁જોતાં":4004,"▁પાછી":4005,"કૃત":4006,"▁27":4007,"▁વ્યક્તિગત":4008,"▁સંગીત":4009,"પણુ":4010,"કોની":4011,"મણાં":4012,"લત":4013,"▁ફેસબુક":4014,"▁જૂથ":4015,"▁નિષ્ણા":4016,"▁આતંક":4017,"▁પ્રોડ":4018,"▁સલ":4019,"▁યુવા":4020,"માત્ર":4021,"▁સંકે":4022,"▁નવો":4023,"▁લોકડા":4024,"▁મુજબ,":4025,"▁પક્ષી":4026,"▁મુસ્લિ":4027,"માનો":4028,"▁ઉના":4029,"▁આપના":4030,"હ્ય":4031,"સીએ":4032,"▁ન્":4033,"▁લવ":4034,"▁ખંડ":4035,"▁ખેંચ":4036,"▁૩૦":4037,"▁નાણાકીય":4038,"થિ":4039,"▁સરળતાથી":4040,"▁પોઝિટ":4041,"▁જોવામાં":4042,"▁વહીવ":4043,"▁રસપ્રદ":4044,"ણાવ":4045,"▁એન્ટ":4046,"▁બદલી":4047,"▁મહત્ત્વ":4048,"▁ક્રમ":4049,"અપ":4050,"▁ઉમેદવાર":4051,"ણિક":4052,"▁પથ્થ":4053,"▁વિજ્ઞાન":4054,"▁મેચમાં":4055,"ક્ષેપ":4056,"▁ઇતિહાસ":4057,"▁થવું":4058,"▁જોઈએ,":4059,"▁પ્રકરણ":4060,"▁સુરક્ષિત":4061,"સ્ત્રો":4062,"▁2021":4063,"▁રસો":4064,"▁ફ્રી":4065,"ણીય":4066,"▁પાણીની":4067,"▁શિયા":4068,"▁વિગેરે":4069,"▁પ્રધાનમંત્રી":4070,"▁આપને":4071,"▁અહિ":4072,"રા,":4073,"વતા":4074,"▁કાળજી":4075,"▁નહેા":4076,"▁તાત્કાલિક":4077,"બૂ":4078,"▁ગણતરી":4079,"▁તકલી":4080,"▁2.":4081,"▁સન":4082,"▁વાપર":4083,"પીએ":4084,"રીઝ":4085,"▁હતુ.":4086,"મંડ":4087,"▁મેદાન":4088,"▁સુધારા":4089,"▁ડિસેમ્બર":4090,"▁સંબંધી":4091,"▁પોલિ":4092,"▁પરિવ":4093,"▁ટ્વી":4094,"▁ફિલ્મમાં":4095,"▁પટેલે":4096,"▁જીલ્લા":4097,"▁ભૂલી":4098,"▁ધુ":4099,"ઈડ":4100,"▁હિત":4101,"▁રાખો":4102,"▁એથી":4103,"શું.":4104,"▁પ્રાર્થ":4105,"▁મોહ":4106,"ટ્ટ":4107,"દેસર":4108,"▁ઇન્ડિયા":4109,"▁કઇ":4110,"▁પૂરા":4111,"બળ":4112,"ાંક":4113,"ચય":4114,"રીની":4115,"▁મોબાઈલ":4116,"▁કંપનીઓ":4117,"▁સદ":4118,"▁અહી":4119,"▁પેઢી":4120,"▁એમ.":4121,"▁કેવળ":4122,"▁ફ્ર":4123,"▁શત્રુ":4124,"▁ઇલેક્ટ":4125,"વાનગી":4126,"▁લોકસ":4127,"▁તેઓને":4128,"▁જવાનો":4129,"▁મકાન":4130,"રેજ":4131,"ફોન":4132,"▁ભલામણ":4133,"▁31":4134,"▁મોટાભાગના":4135,"ભૂમિ":4136,"▁વાણી":4137,"ાવ્યો":4138,"▁નાંખ":4139,"પાર":4140,"રામાં":4141,"▁સિવિલ":4142,"▁વાપ":4143,"▁જાડે":4144,"▁શકીએ":4145,"ડતી":4146,"વીએ":4147,"▁પૂર્વે":4148,"▁અસરકારક":4149,"▁વર્ણન":4150,"▁ટૂંક":4151,"કું":4152,"▁વિકસ":4153,"▁પોઝિટિવ":4154,"પ્સ":4155,"▁જોઇને":4156,"ઇન્ટ":4157,"▁અમેરિકા":4158,"▁આવો":4159,"▁હોવી":4160,"▁કહીને":4161,"▁સપ્ટેમ્બર":4162,"▁વર્ષીય":4163,"▁ઉત્સાહ":4164,"▁બેઠકમાં":4165,"ાની":4166,"▁અપી":4167,"▁મોકલી":4168,"▁બાળકને":4169,"યાત":4170,"▁લોન":4171,"▁ઓક્ટો":4172,"▁ઉત્પાદનો":4173,"ડીના":4174,"▁મની":4175,"▁રાજય":4176,"▁અસા":4177,"▁થવાથી":4178,"ટેલ":4179,"ધારણ":4180,"▁આર.":4181,"▁વ્ર":4182,"▁પુછ":4183,"▁૨૧":4184,"▁ક્ષેત્રમાં":4185,"સેસ":4186,"▁ધરવામાં":4187,"▁પાડવામાં":4188,"▁પ્રકારે":4189,"▁રહીને":4190,"▁ડાઉન":4191,"▁આજ્ઞા":4192,"▁પરમાત્મા":4193,"▁કેમે":4194,"ડાવી":4195,"▁સરદાર":4196,"▁લાગ્યો":4197,"▁ગભ":4198,"▁આગાહી":4199,"▁નજરે":4200,"▁28":4201,"▁બ્લ":4202,"કેશ":4203,"ચ્છે":4204,"▁બીમારી":4205,"▁જાડેજા":4206,"▁તેએ":4207,"▁આંદો":4208,"▁પરવાનગી":4209,"▁લીલા":4210,"▁મુદ્દે":4211,"▁વિલ":4212,"▁પાં":4213,"ણાના":4214,"▁2020":4215,"રાને":4216,"ચાવી":4217,"▁એચ":4218,"▁કથ":4219,"▁બિઝનેસ":4220,"દીપ":4221,"▁મેસે":4222,"▁નીચ":4223,"▁યુવક":4224,"▁ડૉ.":4225,"સામાં":4226,"▁વધારી":4227,"▁ધમકી":4228,"▁સોમવારે":4229,"▁રક્ત":4230,"▁અંગ્રેજી":4231,"▁ઉભ":4232,"▁સમૃ":4233,"▁ઉપદેશ":4234,"તરણ":4235,"▁મુનિ":4236,"▁તાલીમ":4237,"▁સમસ્યાઓ":4238,"▁માં,":4239,"લ્યા":4240,"▁જગત":4241,"▁તદ્દન":4242,"ધારી":4243,"સમા":4244,"▁કડક":4245,"▁ફૂલ":4246,"ડીયો":4247,"રોની":4248,"▁બોલિવ":4249,"સ્પતિ":4250,"▁પક":4251,"▁ગોળી":4252,"▁મહામારી":4253,"▁2019":4254,"▁અસ્તિ":4255,"▁સર્વિ":4256,"▁પ્રવાસી":4257,"વને":4258,"▁વ્યાખ્યા":4259,"▁ચાલો":4260,"ચિત્ર":4261,"ડાને":4262,"▁ફાઇ":4263,"▁વૈજ્ઞાન":4264,"19":4265,"▁ઠેકા":4266,"▁મજ":4267,"▁ઝે":4268,"▁સાહ":4269,"▁60":4270,"▁શાખા":4271,"▁ઢો":4272,"રેટ":4273,"▁ઓગસ્ટ":4274,"શાની":4275,"▁અપના":4276,"ંધો":4277,"પણું":4278,"▁ત્રીજી":4279,"કતા":4280,"ચંદ્ર":4281,"▁વિરો":4282,"▁સરકારને":4283,"▁ઉલ":4284,"▁અપડે":4285,"▁પેઠે":4286,"▁લાંબી":4287,"▁યે":4288,"▁પ્રસિદ્ધ":4289,"▁ઓવર":4290,"▁પ્રસન્ન":4291,"▁લોકસભા":4292,"માથી":4293,"▁વિશિષ્ટ":4294,"દ,":4295,"▁એપ્લિકે":4296,"▁રમી":4297,"▁અમિત":4298,"▁થયું.":4299,"▁નીકળે":4300,"▁મુકા":4301,"▁ટીમે":4302,"દાયક":4303,"▁તેનુ":4304,"▁ઉપકરણ":4305,"▁પગાર":4306,"્યાં.":4307,"▁છું.\n":4308,"▁વિષ્ણુ":4309,"રેશ":4310,"▁ગયેલા":4311,"લીના":4312,"મતિ":4313,"▁ગું":4314,"▁જનરલ":4315,"▁કેર":4316,"મીન":4317,"▁ત્યારથી":4318,"▁વાય":4319,"▁કોમ":4320,"▁ફાઈ":4321,"▁હિંમત":4322,"▁ધ્રુ":4323,"▁મૂલ્ય":4324,"▁વાયરસ":4325,"▁જુએ":4326,"▁ભરત":4327,"ણા,":4328,"સ્ટિક":4329,"▁કામમાં":4330,"▁રવિવારે":4331,"▁દર્દીઓ":4332,"▁પેટ્રોલ":4333,"▁બહેન":4334,"▁માથે":4335,"▁પડ્યા":4336,"▁જોડે":4337,"▁વ્યક્તિને":4338,"▁પ્રગતિ":4339,"▁જવાનું":4340,"▁રીતે,":4341,"▁સધ":4342,"કરે":4343,"સારી":4344,"▁લેવી":4345,"▁દર્શાવે":4346,"▁ખાવા":4347,"ઇઝ":4348,"▁રોગો":4349,"ઇએ":4350,"▁...":4351,"▁વિભાગના":4352,"▁સાથેના":4353,"▁તારે":4354,"▁વૃત્તિ":4355,"▁જાણીતા":4356,"ઢે":4357,"▁દિવસની":4358,"▁ચાર્જ":4359,"ૃષ્ટિ":4360,"▁હોવું":4361,"▁ડ્રગ":4362,"▁મોબાઇલ":4363,"▁જોગ":4364,"▁સુના":4365,"▁સપ્તાહ":4366,"ડિટ":4367,"▁શખ":4368,"▁જનતા":4369,"▁હશે,":4370,"▁ધીરે":4371,"▁આંકડા":4372,"▁શ્વાસ":4373,"▁દરવાજા":4374,"▁છતાં,":4375,"ઝિ":4376,"▁આચાર્ય":4377,"▁પ્રાર્થના":4378,"કોએ":4379,"ંબુ":4380,"ઇને":4381,"▁પાવર":4382,"લ્ટ":4383,"વારના":4384,"▁પ્રોત્સા":4385,"▁સ્ટાર":4386,"▁દુનિયામાં":4387,"▁કેટલાંક":4388,"▁એન્જિન":4389,"▁રમે":4390,"▁રૂા.":4391,"લીએ":4392,"▁મર્યાદા":4393,"દિત":4394,"પૂર":4395,"રીયા":4396,"▁વેગ":4397,"▁દુકા":4398,"▁ખુલા":4399,"▁આને":4400,"ેા":4401,"▁કરે,":4402,"▁સાધનો":4403,"▁કરાર":4404,"વેર":4405,"▁મીઠા":4406,"▁ઓસ્ટ્રે":4407,"▁રૂપી":4408,"ઇમ":4409,"કટર":4410,"▁ગુપ્ત":4411,"▁પ્રયોગ":4412,"▁ઓફર":4413,"મૂ":4414,"▁સક્ષમ":4415,"▁રાજકાર":4416,"▁સંપત્તિ":4417,"▁હલ":4418,"▁,\n":4419,"▁લગાવી":4420,"માય":4421,"▁બાઈ":4422,"▁મૂલ":4423,"કલ્પ":4424,"પ્રતિ":4425,"▁ઓફિસ":4426,"પને":4427,"▁સંકળ":4428,"▁કહેતા":4429,"▁પામ્યા":4430,"શર":4431,"▁નાર":4432,"સાની":4433,"▁વાઇ":4434,"▁ધંધા":4435,"કાવ":4436,"▁અમૃત":4437,"▁રજુ":4438,"▁ભાવે":4439,"▁વાંચી":4440,"▁સિં":4441,"▁કહું":4442,"ખુ":4443,"ંગના":4444,"▁કરે.":4445,"▁યુનિ":4446,"▁કૃષિ":4447,"▁સાંભળીને":4448,"▁પહેલે":4449,"▁મેટ્રો":4450,"▁તત્ત્વ":4451,"▁લક્ષણો":4452,"▁શુક્રવારે":4453,"▁યુગ":4454,"▁ઉંમર":4455,"▁મિથ":4456,"▁શકાય.":4457,"ક્તો":4458,"▁મી.":4459,"▁અમદાવાદમાં":4460,"ડને":4461,"વરણ":4462,"▁ચિત્ત":4463,"▁બૉ":4464,"▁ફ્રા":4465,"ષ્ઠા":4466,"▁ભરતી":4467,"ફિ":4468,"▁દોડી":4469,"▁આટલી":4470,"ખાન":4471,"▁પ્રખ્યાત":4472,"પિત":4473,"▁પાત":4474,"▁એમ્":4475,"▁રાજે":4476,"ભુત":4477,"▁સ્વય":4478,"▁અભાવ":4479,"▁રિલીઝ":4480,"▁આદમી":4481,"▁આવે.":4482,"▁કરો,":4483,"▁ભેટ":4484,"યી":4485,"▁સાચા":4486,"▁કુશ":4487,"▁ભેગા":4488,"▁નવેમ્બર":4489,"▁પૂરું":4490,"▁મમ્મી":4491,"▁માસ્ક":4492,"ન્શન":4493,"▁ચામ":4494,"▁જાય.":4495,"▁માન્યતા":4496,"▁અહેવાલ":4497,"▁બી.":4498,"તરના":4499,"દને":4500,"▁અગર":4501,"▁ઉપરાંત,":4502,"નારે":4503,"▁કેવા":4504,"ત્સવ":4505,"▁નુ":4506,"▁શેા":4507,"ટ્ટી":4508,"▁વ્હા":4509,"▁વ્યાપક":4510,"ઠ્ઠી":4511,"▁મોડે":4512,"▁આવ્યુ":4513,"મારે":4514,"▁જેવો":4515,"▁અસ્તિત્વ":4516,"▁ઉતરી":4517,"▁એકત્ર":4518,"▁સંભાળ":4519,"▁પાદ":4520,"કેશન":4521,"▁મંગળવારે":4522,"▁સમાજના":4523,"▁કેપ્ટન":4524,"▁હેડ":4525,"ક્તા":4526,"▁પ્રવાહ":4527,"જીવ":4528,"ઘાત":4529,"લ્વે":4530,"▁દિવસથી":4531,"હોલ":4532,"▁ફ્લો":4533,"▁જિંદગી":4534,"ડ્":4535,"▁ન્યા":4536,"▁હુમલા":4537,"▁હશે.\n":4538,"▁મસા":4539,"▁શખ્":4540,"રાધ":4541,"સાઇટ":4542,"▁કહ્યું.\n":4543,"▁માણસો":4544,"▁ગર્ભ":4545,"▁થોડું":4546,"▁હુકમ":4547,"▁હમણાં":4548,"વડે":4549,"▁નિષ્ફળ":4550,"ય,":4551,"▁ચીન":4552,"▁અણુ":4553,"▁હોવાનો":4554,"દીના":4555,"્યુઅલ":4556,"▁સ્વસ્થ":4557,"▁જર":4558,"રાશ":4559,"દાં":4560,"▁સાથેની":4561,"▁અલબ":4562,"▁છે,\n":4563,"▁સંબંધો":4564,"▁સેક્સ":4565,"▁હરી":4566,"▁વહા":4567,"▁નિમિ":4568,"▁છેવટે":4569,"▁પ્લાન્ટ":4570,"▁વિશ્વમાં":4571,"▁૦":4572,"▁ભાવમાં":4573,"▁પેાતે":4574,"▁હર્ષ":4575,"▁આશી":4576,"▁જી.":4577,"કોના":4578,"▁પ્રેમી":4579,"▁કલ્યાણ":4580,"▁સેવ":4581,"▁રૂપિયાની":4582,"▁જવાબદાર":4583,"▁મેનેજ":4584,"▁મું":4585,"▁મૃ":4586,"▁2023":4587,"▁ટિકિટ":4588,"▁પરના":4589,"▁લોકોમાં":4590,"▁વાક":4591,"▁મેડિકલ":4592,"▁હોવાના":4593,"▁રાણી":4594,"▁પ્રાપ્તિ":4595,"▁સ્થાપિત":4596,"▁કને":4597,"▁સપ":4598,"▁૨૪":4599,"▁માર્ગદર્શન":4600,"ત્તે":4601,"▁આપેલી":4602,"▁સમીક્ષા":4603,"યાન":4604,"▁અમેરિકન":4605,"▁ત્રણેય":4606,"▁વીજળી":4607,"▁ઉકેલ":4608,"▁આહાર":4609,"▁ઉતાર":4610,"▁જૂની":4611,"▁રસ્તો":4612,"▁રૂમ":4613,"સાથે":4614,"▁ડુ":4615,"▁ઝુ":4616,"▁કરાઈ":4617,"▁તુર":4618,"▁બપોરે":4619,"▁થવાના":4620,"ટીંગ":4621,"▁ઠંડી":4622,"▁કિંમ":4623,"▁મહી":4624,"▁છેલ્લી":4625,"▁ઉઠા":4626,"▁ઇજા":4627,"▁અવસ્થા":4628,"▁અનુસ":4629,"▁કલાકમાં":4630,"વે,":4631,"▁જેનું":4632,"▁સેટ":4633,"▁ભાગ્ય":4634,"▁પ્રાણ":4635,"▁બધુ":4636,"ઝલ":4637,"▁ફોટા":4638,"▁વનસ્પતિ":4639,"▁અપીલ":4640,"▁મેક":4641,"▁મૂકવામાં":4642,"▁મંત્રાલય":4643,"રો,":4644,"▁આંતરિક":4645,"▁મ્યુનિસિ":4646,"▁હસ્ત":4647,"▁હોમ":4648,"▁યૂ":4649,"▁દિન":4650,"▁કાચ":4651,"▁પડયા":4652,"▁સૂત્ર":4653,"▁રજ":4654,"પંચ":4655,"▁છી":4656,"▁દેશી":4657,"▁માછ":4658,"▁ઘૂ":4659,"▁નવીન":4660,"▁બુધવારે":4661,"▁પ્રત્યેક":4662,"▁માઇ":4663,"▁માગે":4664,"▁લડાઈ":4665,"▁ખાઈ":4666,"નેટ":4667,"▁વિદ્":4668,"▁એવાં":4669,"▁બન્યું":4670,"▁ચાલ્યા":4671,"▁જાતને":4672,"▁પડશે.\n":4673,"▁નર્મ":4674,"▁હોટ":4675,"▁મેન":4676,"▁ઓર":4677,"કૃષ્ણ":4678,"▁ટોચ":4679,"▁ઉદય":4680,"પુરમાં":4681,"▁વિદ્યાર્થીઓને":4682,"▁પરિવર્તન":4683,"▁પ્રદાન":4684,"ંજન":4685,"▁સંયુક્ત":4686,"▁અર્થે":4687,"▁રજૂઆત":4688,"▁સંબો":4689,"▁કદ":4690,"નીતિ":4691,"લેશન":4692,"▁હજારો":4693,"ક્સી":4694,"▁લાયક":4695,"▁તલ":4696,"▁મુક્તિ":4697,"▁થકી":4698,"▁તળાવ":4699,"▁આઝા":4700,"▁શકશે":4701,"▁રેખા":4702,"સ્ટ્ર":4703,"▁ફાળ":4704,"▁વિડીયો":4705,"▁અલી":4706,"▁ખેડૂત":4707,"વણ":4708,"▁પૂછપરછ":4709,"▁રે,":4710,"▁ડી.":4711,"▁મલ્":4712,"ન્તિ":4713,"કાંઠા":4714,"▁ડ્રાઇ":4715,"▁બેડ":4716,"▁ફંડ":4717,"તિહાસિક":4718,"▁રાશિના":4719,"▁કાલ":4720,"▁કિશો":4721,"▁ભિન્ન":4722,"▁પ્રેરણા":4723,"▁જલ્":4724,"▁જેટલું":4725,"▁જેનાથી":4726,"▁..":4727,"▁ગયા,":4728,"ક્ષ્મ":4729,"િતા":4730,"▁અગત્ય":4731,"▁એપ્રિલ":4732,"▁સુખી":4733,"▁પુરી":4734,"ગારી":4735,"યેલી":4736,"▁અમર":4737,"મનાથ":4738,"▁લેખક":4739,"ર્ડર":4740,"▁આટલા":4741,"▁સત્ર":4742,"▁સ્પી":4743,"▁એકાદ":4744,"કવા":4745,"શ્વાસ":4746,"▁મુસાફરી":4747,"▁રાખવી":4748,"▁બદલા":4749,"▁સંવે":4750,"▁એકે":4751,"▁અનુકૂળ":4752,"▁સંજય":4753,"▁સીધી":4754,"િટલ":4755,"▁ફર્":4756,"▁વોર્ડ":4757,"▁હથ":4758,"▁૧.":4759,"▁રહેવાની":4760,"▁બતાવી":4761,"▁હમે":4762,"▁સૈનિક":4763,"▁દોડ":4764,"▁આજના":4765,"કોર્ટ":4766,"પ્પ":4767,"▁તકલીફ":4768,"▁કટ":4769,"▁કોહ":4770,"ાવ્યું":4771,"▁મળશે.\n":4772,"▁કિલોમીટર":4773,"ખું":4774,"▁દ્રષ્ટિ":4775,"▁લોન્ચ":4776,"▁મહિને":4777,"▁કંપનીના":4778,"્યો.\n":4779,"▁મુંબઇ":4780,"ખાણ":4781,"્યો,":4782,"▁સિક":4783,"▁જામ":4784,"▁ડોલર":4785,"▁એકલા":4786,"▁મધ્યમ":4787,"▁અર્થાત્":4788,"▁35":4789,"▁શરીરને":4790,"ગરી":4791,"▁રૂમમાં":4792,"▁સખત":4793,"▁અણ":4794,"▁દુકાન":4795,"▁કેટલું":4796,"▁જડ":4797,"▁તસવીરો":4798,"▁હનુ":4799,"▁પેાતાને":4800,"▁બજેટ":4801,"▁પદ્":4802,"▁ગુના":4803,"શ્વિક":4804,"સાથી":4805,"ર્વાદ":4806,"▁છીએ.\n":4807,"▁ડૂ":4808,"▁વેસ્ટ":4809,"▁મહાત્મા":4810,"મસ":4811,"▁વિરૂ":4812,"▁ટીકા":4813,"▁સ્ત્રીઓ":4814,"િકા":4815,"▁જમ્":4816,"▁ઉપરના":4817,"▁ચોક":4818,"▁તુર્":4819,"▁કાગળ":4820,"જલ":4821,"▁ઊંચ":4822,"▁ઊંઘ":4823,"સક":4824,"▁હકીક":4825,"સીબ":4826,"▁રાખવું":4827,"ડાઇ":4828,"▁સમાપ્ત":4829,"્યાત્મ":4830,"▁સોંપ":4831,"▁પ્રશંસા":4832,"ાના":4833,"▁કૃતિ":4834,"▁રહેલ":4835,"▁સ્ટેટ":4836,"▁જ્":4837,"▁મુલાકા":4838,"▁નોંધાયા":4839,"નનો":4840,"▁માંગે":4841,"▁પ્રદેશમાં":4842,"▁તે,":4843,"▁કાર્યક્રમમાં":4844,"દિવ":4845,"ચંદ":4846,"યલ":4847,"▁છાપ":4848,"▁તેટલા":4849,"▁રથ":4850,"રેક્ટર":4851,"▁પરિષ":4852,"▁જેમણે":4853,"▁વાનગી":4854,"▁ઓલ":4855,"▁વધતા":4856,"મું":4857,"▁યુઝ":4858,"▁કર્મચારીઓ":4859,"▁ગઢ":4860,"▁ખુર":4861,"▁વિનંતી":4862,"▁મૂકે":4863,"▁ઇન્ટરને":4864,"▁ખડ":4865,"▁માંગો":4866,"▁ભાગના":4867,"▁કારણકે":4868,"▁નેતાઓ":4869,"ટીએ":4870,"હાં":4871,"▁ઊર્":4872,"▁સ્કૂલ":4873,"વસ્થા":4874,"▁રાત્રિ":4875,"▁અગ્રણી":4876,"▁રદ":4877,"▁પરિણામો":4878,"ખ્ત":4879,"ગન":4880,"▁વાઘ":4881,"▁યુક્રે":4882,"▁શકું":4883,"▁હતાં.\n":4884,"▁ગંગા":4885,"▁આફ્રિ":4886,"ર્દી":4887,"▁ભૌ":4888,"▁નોંધી":4889,"▁આવતું":4890,"▁ઘરના":4891,"▁વૈશ્વિક":4892,"▁આટલું":4893,"વ,":4894,"▁શૂટ":4895,"ટીની":4896,"શના":4897,"▁શૂ":4898,"▁નં.":4899,"▁મોંઘ":4900,"પ્લે":4901,"▁45":4902,"30":4903,"▁મુસલ":4904,"▁અન્":4905,"વિંગ":4906,"▁સિદ્ધિ":4907,"ધું":4908,"▁નાટક":4909,"નનું":4910,"▁થઈ.":4911,"▁સુધીની":4912,"▁ચલાવી":4913,"▁ઐતિહાસિક":4914,"ુરુ":4915,"▁સંદર્ભ":4916,"▁નેટવર્":4917,"મા,":4918,"▁ચોમા":4919,"▁ચાલતા":4920,"▁સવ":4921,"▁તાવ":4922,"▁અલબત્ત":4923,"▁ઘડી":4924,"▁હંમેશાં":4925,"ટિવ":4926,"▁લં":4927,"▁વિતરણ":4928,"▁કોશિ":4929,"▁કોરોનાની":4930,"▁ઘેા":4931,"વાડી":4932,"▁ઓછો":4933,"▁ઝાડ":4934,"રજ":4935,"▁જાળવી":4936,"▁ક્રેડિટ":4937,"ફતે":4938,"ધ્ય":4939,"▁માપ":4940,"ષ્ક":4941,"▁વેક્સિ":4942,"ંતિ":4943,"▁આપવાનું":4944,"ધામ":4945,"▁લાગી.":4946,"▁પ્રયત્":4947,"▁કાર્યક્રમો":4948,"વેલા":4949,"▁સ્વાગત":4950,"▁વેબસાઇટ":4951,"▁સાંસદ":4952,"લીની":4953,"▁શિક્ષક":4954,"ર્મો":4955,"▁સંજો":4956,"▁રેલ્વે":4957,"▁અભિયાન":4958,"▁અનુભવી":4959,"▁કેળવણી":4960,"▁સંર":4961,"ટાં":4962,"ભાં":4963,"▁કરૂ":4964,"▁કરશો":4965,"▁લઘુ":4966,"▁આવેલું":4967,"ર્ષિક":4968,"▁નિર્દેશ":4969,"▁વહેલી":4970,"મલ":4971,"▁ચડ":4972,"▁બેસા":4973,"ભાવિક":4974,"▁પ્રતા":4975,"▁થયુ":4976,"રોએ":4977,"▁1,":4978,"▁બાંધી":4979,"▁એવોર્ડ":4980,"▁ટૂંકા":4981,"▁નિર્મ":4982,"▁ચેત":4983,"▁પ્રભા":4984,"▁ઠેકાણે":4985,"▁બુક":4986,"િની":4987,"▁દલી":4988,"▁ડિસ્":4989,"▁શરીરના":4990,"▁સુધારો":4991,"▁મિલિયન":4992,"▁બાપુ":4993,"▁માનવી":4994,"▁પ્રકાશિત":4995,"ન્દી":4996,"▁હાર્દિક":4997,"ખાં":4998,"▁ભારતી":4999,"▁198":5000,"▁થવાનું":5001,"ાંતર":5002,"▁જર્મ":5003,"બાજુ":5004,"રબ":5005,"▁જોડી":5006,"▁મુકી":5007,"ન્ટે":5008,"▁સ્તરે":5009,"▁પાલિ":5010,"▁પાલ":5011,"▁શાકભા":5012,"▁કેશ":5013,"▁કારકિ":5014,"▁કંપનીએ":5015,"શનના":5016,"ઈટ":5017,"ત્વે":5018,"▁ગ્રહણ":5019,"તૃત્વ":5020,"મિન":5021,"▁બનાવ્યા":5022,"▁પાછળથી":5023,"્યું,":5024,"▁માતાપિતા":5025,"▁સાઇટ":5026,"સ્પદ":5027,"▁ડોક્ટર":5028,"▁ઓપરેશન":5029,"લાએ":5030,"▁ધણી":5031,"▁મચી":5032,"▁29":5033,"▁ભાષામાં":5034,"▁દુશ્":5035,"▁સેક":5036,"▁કેન્સર":5037,"મ્પ્યુ":5038,"▁બાકીના":5039,"▁લશ્કર":5040,"▁હાથી":5041,"▁સરહ":5042,"▁80":5043,"▁કમાણી":5044,"ગના":5045,"▁લક્ષ્ય":5046,"▁ઓસ્ટ્રેલિયા":5047,"▁પાતાની":5048,"▁નહિં":5049,"▁સરેરાશ":5050,"યાત્રા":5051,"▁સમયે,":5052,"▁પ્લેટફોર્મ":5053,"▁એકજ":5054,"▁૫૦":5055,"▁વધીને":5056,"▁નિશ્ચય":5057,"▁ડુંગ":5058,"▁જારી":5059,"▁મારફતે":5060,"▁શાન":5061,"િયત":5062,"▁આર્ટ":5063,"▁સુધીના":5064,"▁છાતી":5065,"▁જાણીએ":5066,"▁પાર્ટીના":5067,"ણાની":5068,"▁નીચેના":5069,"▁છબી":5070,"▁સહયોગ":5071,"સુખ":5072,"▁માહ":5073,"▁સાઉ":5074,"▁ચેરમેન":5075,"▁પૌ":5076,"▁લાય":5077,"▁ખોલ":5078,"▁નજીકના":5079,"▁તત્વો":5080,"▁સ્નેહ":5081,"▁રક્ષા":5082,"▁વધુમાં,":5083,"▁વેળા":5084,"▁સમર્થન":5085,"▁મેસેજ":5086,"▁જાવ":5087,"▁છતા":5088,"▁ભાન":5089,"▁રાખવાની":5090,"દોષ":5091,"પત":5092,"▁કારણુ":5093,"▁૨૨":5094,"▁સ્ક્રી":5095,"▁ડાઉનલોડ":5096,"▁ધણા":5097,"▁હાલત":5098,"બહે":5099,"▁ધારી":5100,"સુધી":5101,"▁પરીક્ષણ":5102,"▁તેવો":5103,"▁શ્રાવ":5104,"▁શનિવારે":5105,"િશ":5106,"▁ભવ":5107,"▁ઠેર":5108,"▁હાડ":5109,"રાજા":5110,"▁વિમાન":5111,"▁ઇંગ્":5112,"▁ઉદ્દેશ":5113,"▁વિરોધી":5114,"▁જશે.\n":5115,"▁ઉછ":5116,"▁પહોંચે":5117,"ર્જ":5118,"▁પાય":5119,"▁સેન્ટર":5120,"▁૨૩":5121,"▁નોંધાવી":5122,"▁જથ્થો":5123,"▁ઓટો":5124,"..\n":5125,"▁કપા":5126,"▁ખાય":5127,"દ્દી":5128,"▁પ્રતિક્રિયા":5129,"▁વાર્ષિક":5130,"▁ખોટી":5131,"▁આદર":5132,"▁પત":5133,"▁રસ્તે":5134,"રાએ":5135,"▁ઉ.":5136,"▁કાયદો":5137,"▁નહ":5138,"▁વિર":5139,"▁પરિવહન":5140,"▁ખર્":5141,"▁મંદિરમાં":5142,"▁હેલ્થ":5143,"▁મોં":5144,"▁ખેંચી":5145,"તઃ":5146,"▁નાગરિક":5147,"▁સ્વર્ગ":5148,"▁બંધાર":5149,"વંત":5150,"▁તેટલી":5151,"ટી,":5152,"▁બોલા":5153,"▁વધારવા":5154,"▁જુના":5155,"▁મુસ્લિમ":5156,"ટિક":5157,"▁બધાને":5158,"▁ઋતુ":5159,"▁વપરાય":5160,"▁પોર્ટ":5161,"દૂ":5162,"▁સગા":5163,"▁ભરૂ":5164,"ધિક":5165,"▁સાચું":5166,"▁રશિયન":5167,"▁વિસ":5168,"સ્ટાગ્રામ":5169,"▁કેમ્પ":5170,"▁ગુજરાતની":5171,"▁ભવિષ્યમાં":5172,"કોમાં":5173,"રૂપી":5174,"▁આવતો":5175,"▁બનાવવાની":5176,"▁2017":5177,"▁લાઇન":5178,"▁ધારાસભ્યો":5179,"▁હનુમાન":5180,"▁વાવા":5181,"દેવી":5182,"▁ગેસ":5183,"▁ભક્ત":5184,"▁સાગર":5185,"▁ઉપયોગમાં":5186,"▁ટેલિ":5187,"▁દિલ્હીમાં":5188,"▁ભંગ":5189,"ાંચ":5190,"▁ચેપ":5191,"▁શાસ્ત્રી":5192,"▁યથ":5193,"▁મૃતદેહ":5194,"▁સોલ":5195,"▁વિકા":5196,"▁પુણ્ય":5197,"▁એપ્લિકેશન":5198,"▁તફ":5199,"્યામ":5200,"ંગે":5201,"▁હરા":5202,"ાવર":5203,"▁ભરવા":5204,"ન્સે":5205,"▁લાખો":5206,"▁કળા":5207,"▁ત્રાસ":5208,"▁બચ્ચ":5209,"સાઇ":5210,"▁જાણતા":5211,"▁જ.":5212,"▁અંગેની":5213,"▁જેમાંથી":5214,"▁કારકિર્દી":5215,"▁ગણી":5216,"▁થશે,":5217,"મીના":5218,"▁સુનાવણી":5219,"મિંગ":5220,"▁ચાલતી":5221,"▁સ્વાભાવિક":5222,"▁ભયંકર":5223,"▁જીવા":5224,"લિન":5225,"▁રખ":5226,"▁વરસાદની":5227,"▁સુગ":5228,"▁અરજ":5229,"ઈન્ટ":5230,"▁પાંદ":5231,"▁3.":5232,"▁2018":5233,"ધર્મ":5234,"▁રાતે":5235,"▁વીસ":5236,"▁ઓક્ટોબર":5237,"▁જ્યોતિ":5238,"▁વેદ":5239,"વેલી":5240,"વૈ":5241,"ચ્ચાર":5242,"યમ":5243,"▁માહોલ":5244,"▁રાજાએ":5245,"ક્ષક":5246,"છો":5247,"▁અયાં":5248,"ક્ચર":5249,"▁સત્તાવાર":5250,"▁તૂટી":5251,"ાઇ":5252,"▁જતો":5253,"▁વિચિત્ર":5254,"▁જૂન":5255,"▁વિશ્વના":5256,"▁વાગે":5257,"▁ભક્તો":5258,"▁સોના":5259,"▁દોર":5260,"બદ્ધ":5261,"સ્પર":5262,"નોને":5263,"▁તીર્થ":5264,"▁જોડાયેલા":5265,"▁દરો":5266,"▁વરસા":5267,"▁સંશોધન":5268,"▁આચ":5269,"▁પાડવા":5270,"લેશ":5271,"▁ૐ":5272,"▁દશા":5273,"▁ખાર":5274,"▁ઔષ":5275,"▁ઉત્તે":5276,"▁પહેલેથી":5277,"▁નૃ":5278,"▁નોંધાયો":5279,"▁ઉતારી":5280,"▁કક્ષા":5281,"▁ઋષિ":5282,"ંગલ":5283,"▁મનુષ":5284,"▁ગયું.":5285,"▁જમ્મુ":5286,"▁સવા":5287,"▁ખુલ્લા":5288,"▁જલ્દી":5289,"▁સતા":5290,"▁તેમનાં":5291,"▁જેલ":5292,"▁બનવા":5293,"▁તેમા":5294,"▁બાત":5295,"તોને":5296,"▁દેશોમાં":5297,"▁યજ્ઞ":5298,"▁બ્રાન્ડ":5299,"▁ગેરકાય":5300,"▁ડોઝ":5301,"▁સૈન્ય":5302,"▁સગી":5303,"▁આદર્શ":5304,"▁એપ્રિ":5305,"િયાં":5306,"▁તોડી":5307,"સીબી":5308,"▁ચૂકી":5309,"▁નુકશાન":5310,"સીપી":5311,"▁ભૂખ":5312,"▁જાઓ":5313,"▁વર્ક":5314,"▁સ્વપ્ન":5315,"▁આલ્":5316,"▁નાખે":5317,"▁ગણવામાં":5318,"▁અનંત":5319,"▁દ્વિ":5320,"▁નર્મદા":5321,"▁લૉ":5322,"પ્રાય":5323,"▁70":5324,"▁ઉંચા":5325,"▁સીધા":5326,"▁અન્ન":5327,"▁વાઈ":5328,"િયાના":5329,"▁આપો":5330,"ડીઓ":5331,"▁ઓક્સિ":5332,"▁રહસ્ય":5333,"▁જીવનની":5334,"ટ્ટા":5335,"ળને":5336,"▁તણાવ":5337,"▁ઇંચ":5338,"▁ગોલ્ડ":5339,"▁તેજસ્વી":5340,"દ્યા":5341,"▁ઈચ્છ":5342,"▁રાજ્યની":5343,"▁બનેલી":5344,"ૃત્તિ":5345,"▁સ્કી":5346,"▁મહત્વની":5347,"▁નાંખી":5348,"▁નિયંત્રણ":5349,"▁પપ્પા":5350,"▁બાય":5351,"ર્ટે":5352,"▁મહો":5353,"▁પુરુષો":5354,"ાર્ટમેન્ટ":5355,"હારી":5356,"▁બારી":5357,"▁મોટર":5358,"સીના":5359,"▁સંતોષ":5360,"ગામ":5361,"▁પાણીના":5362,"▁સમુદાય":5363,"મિતા":5364,"સ્તાન":5365,"▁મેઘ":5366,"▁મોક":5367,"▁અત્રે":5368,"▁રહેવાસી":5369,"▁અનુમાન":5370,"▁પાછો":5371,"▁હિંસા":5372,"!!":5373,"▁ડ્રો":5374,"▁શક્યા":5375,"▁ઓનલાઈન":5376,"▁સંસ્કાર":5377,"એફ":5378,"▁ઢી":5379,"▁મહત્વનું":5380,"▁ડ્રાઈ":5381,"▁ચૂક્યા":5382,"▁ઉર્ફે":5383,"▁નક":5384,"▁ક્યાંક":5385,"▁કસર":5386,"▁જિન":5387,"▁ધ્વ":5388,"▁ભારતે":5389,"▁પરિવારજનો":5390,"યાના":5391,"્યુટી":5392,"▁પૂર્":5393,"▁વાવાઝો":5394,"▁કય":5395,"નીએ":5396,"ભૂતિ":5397,"▁ગૌરવ":5398,"▁અજ્ઞાન":5399,"▁લાગતું":5400,"કર્":5401,"▁ટીમો":5402,"▁વિટા":5403,"▁સંતુ":5404,"સાગર":5405,"▁ગામની":5406,"ડી.":5407,"▁માંસ":5408,"▁માંગણી":5409,"▁આતંકવાદી":5410,"ર્જી":5411,"▁કિસ્સામાં":5412,"▁વધતી":5413,"▁થઇને":5414,"▁દિગ્":5415,"▁પ્રયાસો":5416,"▁બ્લેક":5417,"▁આસપાસના":5418,"▁મનને":5419,"▁આશીર્વાદ":5420,"▁મોડી":5421,"ાયી":5422,"▁સુનિ":5423,"▁તસવીર":5424,"▁જ્ઞાતિ":5425,"▁જૂનાગઢ":5426,"▁વ.":5427,"▁શિષ્ય":5428,"▁ર્":5429,"▁પરમાર":5430,"િયાત":5431,"શનની":5432,"▁નગરપાલિ":5433,"▁દીવ":5434,"▁માણસા":5435,"▁અશ્":5436,"સિસ":5437,"▁કાઉન્":5438,"▁નબળા":5439,"▁રાજીના":5440,"▁બાબતમાં":5441,"▁તુર્કી":5442,"▁કરાયો":5443,"▁ફોર":5444,"ભારી":5445,"▁કોલેજ":5446,"▁હારી":5447,"▁વર્તન":5448,"▁આમંત્ર":5449,"▁દ્રવ્ય":5450,"▁ક્રોધ":5451,"▁બાપ":5452,"▁મામલો":5453,"▁દાં":5454,"▁પ્રચ":5455,"▁છુટ":5456,"▁વિરાટ":5457,"▁અભિનેતા":5458,"▁હક":5459,"▁રાખ્યા":5460,"▁ઊંડા":5461,"▁સ્નાન":5462,"▁ત્":5463,"▁રાજધાની":5464,"▁પાર્ક":5465,"મ્બરે":5466,"ગાં":5467,"▁સહકાર":5468,"▁પગલું":5469,"▁દુઃખી":5470,"ણુ,":5471,"▁કવિતા":5472,"▁મશીન":5473,"▁જેવાં":5474,"▁દિલ્હીઃ":5475,"▁૨.":5476,"▁ઈંગ્":5477,"▁પ્લાન":5478,"▁મિશ્રણ":5479,"▁વાળી":5480,"▁સિદ્ધાંત":5481,"▁ક્લા":5482,"ટેક":5483,"િયો":5484,"▁આણ":5485,"નાને":5486,"▁તેણી":5487,"▁મીઠું":5488,"લભ":5489,"▁પ્રસ્તા":5490,"▁પ્રત્યક્ષ":5491,"▁વિસ્":5492,"▁રોકડ":5493,"▁કર્ણા":5494,"▁ખેડૂતોને":5495,"▁શ્વે":5496,"▁પરંપરાગત":5497,"▁ધૂ":5498,"▁બાંધકામ":5499,"▁છૂટા":5500,"▁એસો":5501,"▁એશિયા":5502,"▁પડેલા":5503,"▁ઇન્દ્ર":5504,"▁પર્યાવરણ":5505,"▁લો.":5506,"▁જાય,":5507,"વરી":5508,"▁એવામાં":5509,"લીઓ":5510,"▁સમાધાન":5511,"▁હૃદયમાં":5512,"સ્લા":5513,"▁જેલમાં":5514,"▁પોતાનાં":5515,"▁અક્ષર":5516,"▁લોકડાઉન":5517,"ર્ત":5518,"ક્કા":5519,"▁શખ્સો":5520,"નિયર":5521,"▁આપણું":5522,"▁કહીએ":5523,"▁કલાકે":5524,"▁ક્રી":5525,"▁પ્રણા":5526,"▁દિવસના":5527,"ર્સને":5528,"▁સ્મૃતિ":5529,"ગ્રે":5530,"▁ઝઘ":5531,"ાવિ":5532,"▁હિમા":5533,"▁વૉ":5534,"▁સેવાઓ":5535,"▁શ્રમ":5536,"▁સમૂહ":5537,"▁સલમાન":5538,"▁આપવી":5539,"ધીન":5540,"▁અર્જુન":5541,"પન":5542,"લાઇટ":5543,"▁નિશાન":5544,"▁બિહાર":5545,"▁સજ્જ":5546,"▁અસ્થ":5547,"▁આવે,":5548,"▁શહેરી":5549,"ંદે":5550,"▁શિકાર":5551,"તીના":5552,"▁સંદેશ":5553,"▁જવાના":5554,"▁માણસને":5555,"▁ચર્ચામાં":5556,"▁મહાનગર":5557,"▁ખુરશી":5558,"ડવાની":5559,"▁સર્જા":5560,"▁અજાણ્યા":5561,"▁ઉઠી":5562,"▁બચાવવા":5563,"▁હાલના":5564,"શાહી":5565,"▁જરૂરિયાત":5566,"ભાવે":5567,"▁ખાતા":5568,"▁અંદાજ":5569,"▁વિભાગે":5570,"▁પહા":5571,"▁છાં":5572,"▁શોધવા":5573,"▁ટેબલ":5574,"નાએ":5575,"▁હોઇ":5576,"▁ગઈકાલે":5577,"▁આગ્રહ":5578,"▁બનેલા":5579,"▁શહેરની":5580,"સિડ":5581,"▁નેતૃત્વ":5582,"▁તત્વ":5583,"િયા,":5584,"▁નોટિ":5585,"વવાની":5586,"▁હિન્દી":5587,"▁કહા":5588,"▁નોટ":5589,"▁મેહ":5590,"▁પીડ":5591,"▁મફત":5592,"યાની":5593,"▁પાતે":5594,"▁મરા":5595,"▁નિત્ય":5596,"▁ગીર":5597,"▁ચહે":5598,"બાની":5599,"▁મોટે":5600,"▁ફૂલો":5601,"કાળમાં":5602,"▁મહાદેવ":5603,"▁ખિ":5604,"બ્યુ":5605,"▁શકશે.":5606,"હું":5607,"ગની":5608,"ઝુ":5609,"ફ્રે":5610,"▁ઘુ":5611,"▁32":5612,"કાઈ":5613,"▁બોલાવ":5614,"ચુ":5615,"▁ચલ":5616,"સીની":5617,"▁કહ્યુંઃ":5618,"▁પૂરો":5619,"▁આજથી":5620,"▁સ્પર્શ":5621,"▁સંજોગો":5622,"ર્ગે":5623,"▁પ્રમો":5624,"▁ખામી":5625,"▁સંઘર્ષ":5626,"▁આંદોલન":5627,"સૂર":5628,"▁સીમા":5629,"▁કરાવવા":5630,"▁વપરાશક":5631,"▁લાકડા":5632,"સ્કૃતિ":5633,"▁ફાર્":5634,"▁બેન":5635,"▁આવ્યો.":5636,"▁થયો.":5637,"▁સાસુ":5638,"▁રોકાણકારો":5639,"▁આપતાં":5640,"▁ગયા.\n":5641,"▁500":5642,"વરમાં":5643,"▁ગણેશ":5644,"સ્કો":5645,"▁આપની":5646,"ણાને":5647,"ટીસ":5648,"ક્રમે":5649,"તલ":5650,"▁આવનાર":5651,"▁પ્રભાવિત":5652,"તાનો":5653,"ળી,":5654,"▁ગામો":5655,"▁ડિજ":5656,"▁વિવેક":5657,"▁અંતઃ":5658,"▁જેમને":5659,"ત્તી":5660,"▁ધન્ય":5661,"▁જેટલો":5662,"▁ગ્રામ્ય":5663,"▁વલણ":5664,"▁કલેક":5665,"▁કરોડની":5666,"▁ગુરુવારે":5667,"▁સબંધ":5668,"▁વી.":5669,"વ્યું":5670,"▁પડ્યું":5671,"▁મધુ":5672,"▁ઝડપ":5673,"▁ચમચી":5674,"▁પથ્થર":5675,"જાવ":5676,"ન્સમાં":5677,"▁તાં":5678,"▁નહિ.\n":5679,"▁સાવચે":5680,"▁સર્વિસ":5681,"▁આળ":5682,"તાનાં":5683,"▁ચરણ":5684,"▁ઘી":5685,"▁અમરેલી":5686,"▁કહ્યું.":5687,"ન્ટ્સ":5688,"▁ચિક":5689,"▁પ્રકારનું":5690,"▁જીવનના":5691,"▁સરખામણી":5692,"▁ખળ":5693,"▁માર્કે":5694,"ફુ":5695,"▁ચીજ":5696,"ચલ":5697,"▁અવાર":5698,"▁વરિ":5699,"▁માત":5700,"▁ચક":5701,"▁પોલીસની":5702,"▁પરિચય":5703,"▁૪૦":5704,"▁સહિતની":5705,"ાર્જ":5706,"▁અંદ":5707,"▁પાળ":5708,"▁આપશે.":5709,"▁સૃષ્ટિ":5710,"લીપ":5711,"▁કરી.\n":5712,"▁સંસદ":5713,"▁ઇસ":5714,"▁બન્યો":5715,"▁હાલતમાં":5716,"▁દીન":5717,"▁અવતાર":5718,"ળીના":5719,"▁દિવાળી":5720,"▁વ્હી":5721,"▁કચેરી":5722,"▁પ્રોત્સાહન":5723,"▁વાચ":5724,"▁પડકાર":5725,"જો.":5726,"લેખ":5727,"▁સુરેન્દ્ર":5728,"૧૯":5729,"▁પણ,":5730,"પટ":5731,"▁મનોર":5732,"▁માફક":5733,"▁છેક":5734,"િયલ":5735,"▁અપમાન":5736,"મ્પ્યુટર":5737,"▁પંથ":5738,"▁તકે":5739,"▁કોન્ટ":5740,"▁બાહ્ય":5741,"▁બનાવીને":5742,"▁અંગત":5743,"▁જીવનસાથી":5744,"▁વિધાનસભાની":5745,"▁વર્ષોથી":5746,"▁નિવેદ":5747,"▁ચતુ":5748,"▁ઘાયલ":5749,"▁આજુ":5750,"▁ઉત્તરા":5751,"▁વહુ":5752,"▁ફિટ":5753,"પાઈ":5754,"▁સોં":5755,"હત્યા":5756,"▁રહી.":5757,"શ્ચિત":5758,"નગરમાં":5759,"▁પોઈન્ટ":5760,"▁પેલી":5761,"▁હેમ":5762,"10":5763,"ંકાર":5764,"▁સ્ટેશનમાં":5765,"▁ઑફ":5766,"ધારા":5767,"▁સ્કે":5768,"▁ખાંડ":5769,"▁નિરી":5770,"ંટી":5771,"વાળું":5772,"▁આપનાર":5773,"▁અમારે":5774,"▁બ્રાહ્મણ":5775,"▁સમયગાળા":5776,"જું":5777,"▁માથું":5778,"▁વશ":5779,"▁મેલ":5780,"▁પ્રોફે":5781,"▁મોકલવામાં":5782,"▁પંડિત":5783,"▁ઓક્સિજન":5784,"▁ખં":5785,"▁પરસ્પર":5786,"▁નિઃ":5787,"▁અમેરિકામાં":5788,"▁રાત્રી":5789,"▁સમર્":5790,"▁માંગતા":5791,"▁ઘટી":5792,"▁પેપર":5793,"▁મૂળભૂત":5794,"ા,":5795,"▁મહત્તમ":5796,"▁વરિષ્ઠ":5797,"▁વડી":5798,"▁ભરપૂર":5799,"યાગ":5800,"▁મંજ":5801,"▁૨૮":5802,"રિત્ર":5803,"▁અભિપ્રાય":5804,"▁આંધ":5805,"▁સાંક":5806,"▁સાક્ષી":5807,"▁આવશે,":5808,"▁માગણી":5809,"▁આશ્રય":5810,"દીને":5811,"▁પૂરતી":5812,"▁ટુકડા":5813,"▁સંપર્":5814,"▁સીટ":5815,"▁ઉતાવ":5816,"▁ઈ.":5817,"▁રૂપમાં":5818,"▁જણાવવામાં":5819,"▁ઊર્જા":5820,"ારામ":5821,"▁શકતી":5822,"ત.":5823,"ાયુ":5824,"▁માનતા":5825,"▁સફર":5826,"▁પટેલ,":5827,"ગણ":5828,"▁આંસુ":5829,"▁પર,":5830,"▁સ્વયં":5831,"▁છેતર":5832,"▁અધિ":5833,"▁પડે.":5834,"▁બેસીને":5835,"ખાના":5836,"▁ભાગ્યે":5837,"▁ઊંચી":5838,"▁મહેતા":5839,"▁એન્ટી":5840,"▁વળતર":5841,"▁કઠ":5842,"▁૨૬":5843,"વડી":5844,"▁ખારા":5845,"▁ધર્મના":5846,"▁ઓનલાઇન":5847,"▁કડ":5848,"નોમાં":5849,"▁જે.":5850,"▁દિવ્ય":5851,"▁નખ":5852,"▁આવરી":5853,"પરિ":5854,"▁બનીને":5855,"પિંગ":5856,"ાને":5857,"▁રત્ન":5858,"ન્ડે":5859,"▁રિઝ":5860,"▁ટેકનોલોજી":5861,"▁જાપાન":5862,"▁કરીને,":5863,"▁ખુદ":5864,"▁દોરી":5865,"▁બતાવે":5866,"▁કાળી":5867,"▁નિશા":5868,"▁જીવે":5869,"યણ":5870,"▁હિંદ":5871,"▁90":5872,"▁ડૉક્ટર":5873,"ક્યુ":5874,"ટણી":5875,"▁ટાં":5876,"▁હેન્ડ":5877,"▁વ્યાવ":5878,"▁ઉંચ":5879,"▁નારાજ":5880,"▁શિક્ષા":5881,"▁પુરાવા":5882,"▁છે.આ":5883,"લોટ":5884,"▁હકીકતમાં":5885,"ધરી":5886,"▁તેણીએ":5887,"સરા":5888,"૨૨":5889,"પિયા":5890,"▁બચી":5891,"▁રમતો":5892,"ન્તુ":5893,"▁જાતના":5894,"▁પેજ":5895,"▁ઝાં":5896,"▁નહોતી":5897,"▁યુએસ":5898,"▁શાળામાં":5899,"▁પ્લાસ્ટિક":5900,"પથ":5901,"▁દાંત":5902,"▁આપવાનો":5903,"▁દેખાઈ":5904,"ાવું":5905,"ડીંગ":5906,"ટીવ":5907,"▁બંગ":5908,"▁શાસન":5909,"▁મનની":5910,"▁કેન્દ્રિત":5911,"▁ચેતવણી":5912,"▁છેલ્લે":5913,"કો,":5914,"▁બ્લડ":5915,"▁નામથી":5916,"▁વસંત":5917,"▁કૌશ":5918,"ાર્ક":5919,"અલગ":5920,"▁કરતું":5921,"▁મેયર":5922,"▁રેસ્ટો":5923,"કં":5924,"▁નવરા":5925,"▁કલેકટર":5926,"▁થયા,":5927,"▁હીરા":5928,"▁મસ્ત":5929,"દીએ":5930,"સીટી":5931,"▁ટ્વિટર":5932,"▁સંકેત":5933,"બારી":5934,"▁કમી":5935,"▁કસ્ટ":5936,"▁આપવું":5937,"▁સમાર":5938,"▁ટ્રક":5939,"▁કેને":5940,"▁સ્નાયુ":5941,"▁બ્રિટિશ":5942,"▁શાનદાર":5943,"ભ્ર":5944,"▁પ્રવાહી":5945,"▁સંક્રમ":5946,"▁પુષ્ટિ":5947,"▁સમજવા":5948,"▁અલબત્ત,":5949,"▁નારાય":5950,"▁સૂક્ષ્મ":5951,"રેલા":5952,"▁દરમિયાન,":5953,"▁હમ":5954,"માન્ય":5955,"▁ચીફ":5956,"▁વચ્ચેના":5957,"▁કરશે,":5958,"ક્ષુ":5959,"▁અરવિંદ":5960,"તુર":5961,"િત્ર":5962,"▁ડ્રગ્સ":5963,"મનો":5964,"લસ":5965,"▁તન":5966,"▁બ્રો":5967,"▁કરાયું":5968,"▁પરિવારમાં":5969,"▁પદાર્થો":5970,"▁સર્વો":5971,"વિક":5972,"▁ટ્રસ્ટ":5973,"▁વપરાશકર્તા":5974,"લથી":5975,"ષિત":5976,"▁જસ્ટ":5977,"▁જહા":5978,"▁આની":5979,"સ્વામી":5980,"▁સ્વિ":5981,"▁રહો":5982,"▁ગુમાવી":5983,"▁પ્રારંભિક":5984,"▁દિક":5985,"▁નિમણ":5986,"▁ડ્રે":5987,"▁શરીરની":5988,"ઘટના":5989,"વારા":5990,"▁બાળકી":5991,"▁આખું":5992,"▁વણ":5993,"▁તે!":5994,"▁ચાવ":5995,"▁પ્રિયંકા":5996,"▁સહેજ":5997,"▁બેં":5998,"▁મતલબ":5999,"▁ફરવા":6000,"▁રહ્યો.":6001,"લકથા":6002,"▁ગ્રીન":6003,"લોમાં":6004,"▁કિમી":6005,"રિટી":6006,"▁ખોટું":6007,"વની":6008,"▁બગી":6009,"ન્ક":6010,"▁બાજુએ":6011,"▁પ્રોડક્ટ":6012,"▁ઇશ્વર":6013,"▁કામના":6014,"ાયર":6015,"▁રાજુ":6016,"▁કરવુ":6017,"▁ચળ":6018,"▁ક્રાઈ":6019,"હેરમાં":6020,"▁મુખ્યત્વે":6021,"પુરના":6022,"શન્સ":6023,"▁લાવવામાં":6024,"▁ઇ.":6025,"▁36":6026,"▁જણાવ્યુ":6027,"▁ઠંડ":6028,"▁સમાજમાં":6029,"▁અડધા":6030,"▁જગતમાં":6031,"▁દવાઓ":6032,"▁નાથ":6033,"ળા,":6034,"▁કામો":6035,"▁અલગઅલગ":6036,"▁વહીવટી":6037,"▁પાછું":6038,"▁પર્ય":6039,"▁શકે.\n":6040,"▁ઘટનાઓ":6041,"▁આર્ય":6042,"▁બગા":6043,"▁પાંડ":6044,"▁અમેરિકાના":6045,"▁સંરક્ષણ":6046,"▁આક્ષેપ":6047,"સાં":6048,"માએ":6049,"▁પેટા":6050,"▁પડતાં":6051,"▁ગ્રુપ":6052,"મહા":6053,"▁પશ્ચિ":6054,"▁રહ્યા.":6055,"▁આમ,":6056,"▁કારી":6057,"▁ફૂડ":6058,"▁સંવાદ":6059,"▁બાજુમાં":6060,"▁કરવામા":6061,"▁ખસેડવામાં":6062,"▁અબ્":6063,"નો,":6064,"▁પુલ":6065,"▁ઝેર":6066,"▁પ્રાં":6067,"▁જાે":6068,"▁ક્ષણ":6069,"▁પુરવ":6070,"▁નકારાત્મક":6071,"▁ઈન્ટરને":6072,"▁કંટ":6073,"▁ભરૂચ":6074,"▁કરોડો":6075,"▁ધાતુ":6076,"સુર":6077,"▁ઇન્ટર":6078,"▁197":6079,"▁જાગૃત":6080,"▁જલદી":6081,"▁સંભવિત":6082,"્યાત્મિક":6083,"રાગ":6084,"સું":6085,"▁યજ":6086,"▁અભિનય":6087,"હૂ":6088,"▁4.":6089,"▁ઉમેરો":6090,"▁આત્માને":6091,"▁નવલકથા":6092,"▁સંક્રમિત":6093,"▁અટક":6094,"▁ફિલ્મોમાં":6095,"▁કાયમ":6096,"▁રાજકોટમાં":6097,"▁પંચાયત":6098,"▁મિથ્યા":6099,"▁પગલા":6100,"▁ડાયા":6101,"પાની":6102,"એટ":6103,"ંદુર":6104,"▁કંટા":6105,"▁નિષ્ણાતો":6106,"▁આપેલા":6107,"▁૩૧":6108,"▁ડિજિટલ":6109,"▁ગ્રાહકો":6110,"▁વિચારે":6111,"ઝનમાં":6112,"ંગો":6113,"▁બનાવો":6114,"પુરુ":6115,"વીસ":6116,"▁લગતી":6117,"▁નાયબ":6118,"ડિઓ":6119,"▁ઠરાવ":6120,"▁સમજે":6121,"▁ઓર્ડર":6122,"▁બ્લો":6123,"વો.":6124,"સણ":6125,"▁રહેતો":6126,"પ્રદાય":6127,"▁મુદ્દો":6128,"વર્ડ":6129,"▁વિજ":6130,"▁જન્મે":6131,"ટાવી":6132,"▁તિર":6133,"▁ચકાસ":6134,"▁સપના":6135,"જીભાઈ":6136,"▁૨૭":6137,"▁ક્ષેત્રે":6138,"▁હરિયા":6139,"યત":6140,"▁લંડ":6141,"પેન્દ્ર":6142,"▁આંગળી":6143,"▁કરીશ":6144,"▁રાજી":6145,"▁ભીડ":6146,"▁મ્હારા":6147,"▁તહેવાર":6148,"▁અદ્ભુત":6149,"મક":6150,"▁પટ":6151,"▁કામે":6152,"▁કોચ":6153,"ખાને":6154,"▁ક્વો":6155,"▁દાખલા":6156,"▁મેનેજર":6157,"▁કરીશું":6158,"▁બિંદુ":6159,"▁તબક્કામાં":6160,"ઝની":6161,"▁જટિ":6162,"▁રાખતા":6163,"▁ઠંડા":6164,"હાન":6165,"▁યાદીમાં":6166,"રાત":6167,"વિન":6168,"▁શૈક્ષણિક":6169,"▁કૌભાં":6170,"▁34":6171,"▁ટાઇ":6172,"▁પરેશાન":6173,"લિવ":6174,"▁કરવા,":6175,"▁દોઢ":6176,"▁શૂટિંગ":6177,"▁ચું":6178,"▁ખાખ":6179,"▁કાર્યકરો":6180,"▁વિસ્તારના":6181,"▁અક્ષય":6182,"બ્રે":6183,"▁બૅ":6184,"▁મધુર":6185,"મારા":6186,"▁ઉડ":6187,"▁દુષ્ટ":6188,"▁મારવા":6189,"▁સંત":6190,"▁પ્રસાર":6191,"▁ટ્યુ":6192,"દાની":6193,"▁છોડીને":6194,"▁ટી.":6195,"▁મહેસા":6196,"▁હાસ્ય":6197,"ઈની":6198,"મ્મદ":6199,"▁તપાસમાં":6200,"વેષ":6201,"▁મહુ":6202,"▁ગુન્":6203,"▁કાર્યરત":6204,"▁ધરતી":6205,"▁મૅ":6206,"લ્પો":6207,"▁મતે":6208,"▁ધ્યે":6209,"▁શામેલ":6210,"બીર":6211,"▁લૂંટ":6212,"▁એનાં":6213,"રમાંથી":6214,"▁મારાં":6215,"▁સર્જન":6216,"▁વીડિયોમાં":6217,"સેન":6218,"▁સુવિધાઓ":6219,"▁ન્હા":6220,"ક્ષેત્ર":6221,"દુર":6222,"▁અજય":6223,"ન્ટા":6224,"▁લાવે":6225,"ળીયા":6226,"▁સુરતમાં":6227,"રણે":6228,"▁મળેલી":6229,"▁2016":6230,"▁સેા":6231,"▁આગેવાનો":6232,"▁હ્ર":6233,"▁કેદ":6234,"▁આંખે":6235,"▁થાડા":6236,"▁બાયો":6237,"▁ફાયદાકારક":6238,"▁સાર્":6239,"કોનો":6240,"▁વ્યસ્ત":6241,"▁આવ્યું.":6242,"▁વ્યક્તિએ":6243,"▁ડોક્ટ":6244,"▁સંસ્કૃત":6245,"▁રાજ્યોમાં":6246,"▁75":6247,"▁દેખી":6248,"લીક":6249,"▁સિટી":6250,"▁કિનારે":6251,"▁પૃષ્ઠ":6252,"▁પર્વત":6253,"ોએ":6254,"વેટ":6255,"▁ખેડુ":6256,"▁પ્રવા":6257,"▁વિજે":6258,"▁અમારું":6259,"▁અવરોધ":6260,"▁કરાવે":6261,"વાયું":6262,"▁એવ":6263,"▁ટોપ":6264,"▁આકર્ષક":6265,"▁તપા":6266,"▁કેજરી":6267,"▁વાતને":6268,"▁પ્રીતિ":6269,"▁એકમાત્ર":6270,"▁મુજ":6271,"▁આધ્યાત્મિક":6272,"▁પર્":6273,"▁મૂર્":6274,"ર્ના":6275,"▁શણ":6276,"▁ક્લિ":6277,"▁તુલ":6278,"▁કર્યા.":6279,"▁સ્વીકારી":6280,"▁નય":6281,"તાં,":6282,"▁હિસા":6283,"▁આત્મહત્યા":6284,"દ્યોગ":6285,"▁કર્યું,":6286,"▁સ્મરણ":6287,"▁સત્":6288,"▁ચુકા":6289,"▁વિરૂદ્ધ":6290,"▁રિસ":6291,"▁જોઇએ.\n":6292,"▁હતાં,":6293,"ધક":6294,"ડીની":6295,"▁અમલમાં":6296,"▁૨૦૦":6297,"લનો":6298,"▁બાબા":6299,"▁સોમનાથ":6300,"▁કરુ":6301,"▁નસીબ":6302,"▁સાધારણ":6303,"▁કરાયા":6304,"▁અમદાવાદના":6305,"▁વર્ષનો":6306,"લિકો":6307,"▁લાખની":6308,"▁શાકભાજી":6309,"હના":6310,"▁નહા":6311,"▁રાંધ":6312,"▁ગભરા":6313,"▁આવ્યે":6314,"▁આવૃત્તિ":6315,"▁વંશ":6316,"▁છે...":6317,"સાના":6318,"સી,":6319,"▁શૈલી":6320,"▁ગ્રાહક":6321,"ડ્સ":6322,"▁આખો":6323,"▁નિયા":6324,"▁ફાં":6325,"લિશ":6326,"▁મહારાજા":6327,"▁પુષ્કળ":6328,"▁37":6329,"▁બરફ":6330,"▁તફાવત":6331,"ઝ,":6332,"▁માસિક":6333,"▁કિરણ":6334,"▁સીએમ":6335,"▁આરંભ":6336,"▁પ્રકા":6337,"▁વાવે":6338,"▁ઇઝ":6339,"▁મમતા":6340,"▁જ્ઞાની":6341,"▁નિશ્ચિત":6342,"▁ઓફિસર":6343,"્રલ":6344,"▁દેવું":6345,"ચ્ચા":6346,"▁માર્યા":6347,"▁સતી":6348,"▁શ્રીકૃષ્ણ":6349,"▁નિર્દોષ":6350,"▁આજુબાજુ":6351,"િરા":6352,"▁દેશને":6353,"▁પ્રતિષ્ઠા":6354,"▁તુલના":6355,"ઝિક":6356,"▁નીપજ":6357,"▁દીપ":6358,"▁ક્વા":6359,"▁૧૦૦":6360,"▁લેવાનું":6361,"▁ઔર":6362,"▁યોગદાન":6363,"▁સાઈ":6364,"▁પડી.":6365,"▁જાણીને":6366,"▁બેન્ક":6367,"સ.":6368,"▁શ્રુ":6369,"▁સાડા":6370,"▁માંગી":6371,"▁હેરાન":6372,"▁કિંગ":6373,"વૃત્ત":6374,"▁બપો":6375,"▁શ્રા":6376,"લિટી":6377,"▁સંબંધમાં":6378,"નમ":6379,"▁રવાના":6380,"ાવવાની":6381,"▁નિવાસ":6382,"▁રોકી":6383,"▁રોહિત":6384,"▁સફાઈ":6385,"▁મહત્વના":6386,"▁કારમાં":6387,"▁તાકાત":6388,"▁33":6389,"સ્સે":6390,"▁ટન":6391,"▁આપી.":6392,"ચાર્જ":6393,"▁ઉન્ન":6394,"કે,":6395,"▁જાગી":6396,"વવાનો":6397,"જ્ઞાની":6398,"▁હૉ":6399,"▁કેબિ":6400,"▁જાતની":6401,"ક્ષર":6402,"▁ભાગીદારી":6403,"▁નોંધનીય":6404,"▁અશો":6405,"▁જોરદાર":6406,"▁રોલ":6407,"▁ભીમ":6408,"▁લાઈફ":6409,"▁જીંદગી":6410,"િષ્ટ":6411,"▁2014":6412,"▁ગીતા":6413,"ડિય":6414,"▁માગી":6415,"▁જામીન":6416,"▁દેતા":6417,"▁વાતાવરણમાં":6418,"▁વિપરી":6419,"▁જાણુ":6420,"▁નેટવર્ક":6421,"▁કેપ":6422,"▁પીઠ":6423,"▁પ્રતિભા":6424,"▁હળવા":6425,"▁કારણોસર":6426,"▁પેન":6427,"▁કમિશનર":6428,"▁દો.":6429,"▁નીચા":6430,"▁શિલ્":6431,"▁પ્રસ્તુ":6432,"▁વહેંચ":6433,"▁માઈ":6434,"ન્ટિ":6435,"▁ઈતિહા":6436,"લક્ષી":6437,"▁દઈ":6438,"▁સામેની":6439,"▁નહી.":6440,"▁કલેક્ટર":6441,"▁ગવર્":6442,"▁વેર":6443,"તરો":6444,"▁દબ":6445,"▁કાયદેસર":6446,"ઠ્ઠા":6447,"▁કન":6448,"▁થએ":6449,"▁સહજ":6450,"▁મુંબઈમાં":6451,"બન":6452,"લ્લો":6453,"▁ઘટનામાં":6454,"▁કાટ":6455,"ન્ડો":6456,"▁આગળની":6457,"▁ઘન":6458,"▁સમયની":6459,"▁કૃત":6460,"▁ખ્રિ":6461,"ાયેલું":6462,"▁સંસ્થાઓ":6463,"▁અશુ":6464,"▁ઉદાર":6465,"▁બેગ":6466,"▁અવશ્ય":6467,"▁ખીલ":6468,"ડલ":6469,"ડાએ":6470,"▁ટીમને":6471,"▁ધારણા":6472,"▁શ્રીમ":6473,"યાર":6474,"▁જવામાં":6475,"▁ખોટા":6476,"▁ચહેરો":6477,"ટલી":6478,"▁કેવું":6479,"▁ટાળ":6480,"વાયા":6481,"▁છે..":6482,"▁મગજ":6483,"પછી":6484,"▁લાક્ષણિક":6485,"નારને":6486,"▁સને":6487,"▁નારી":6488,"પાળ":6489,"▁ગયુ":6490,"▁શાસ":6491,"▁વાતની":6492,"▁કેસની":6493,"ન્ટી":6494,"▁રાજાને":6495,"▁તબીબી":6496,"▁પ્રતિમા":6497,"▁ઘાટ":6498,"એચ":6499,"ષભ":6500,"▁દહા":6501,"▁ભૂતપૂર્વ":6502,"▁હાંસલ":6503,"▁પ્રયત્નો":6504,"ન્સની":6505,"▁પહોંચાડ":6506,"▁ગાર્ડ":6507,"▁અવકાશ":6508,"▁કેમેરા":6509,"ળાને":6510,"▁જીવંત":6511,"▁નવસારી":6512,"૧૦":6513,"▁અશ":6514,"▁ઉપચાર":6515,"▁મૂકીને":6516,"▁તજ":6517,"▁મલ":6518,"લાત":6519,"▁ચારિત્ર":6520,"▁કલાકારો":6521,"▁મધ્યપ્રદેશ":6522,"▁સોલંકી":6523,"થીજ":6524,"▁સ્કો":6525,"▁લીંબુ":6526,"▁શ્રીલ":6527,"▁ભાવિ":6528,"ચાલ":6529,"▁ભાજપે":6530,"▁વસુ":6531,"▁રાખ્યું":6532,"▁કોઇપણ":6533,"▁કરાય":6534,"▁ઉભો":6535,"▁સંવેદન":6536,"વિઝન":6537,"ન્સના":6538,"▁કાને":6539,"સ્પી":6540,"▁વિડિઓ":6541,"▁તંદુર":6542,"લેસ":6543,"બુલ":6544,"ફિકે":6545,"▁જ,":6546,"▁અશક":6547,"▁બોક્સ":6548,"▁સાંજ":6549,"▁છેા":6550,"▁પોરબ":6551,"▁શકે,":6552,"▁હાઇવે":6553,"▁સપોર્ટ":6554,"કેલા":6555,"ભાગે":6556,"▁ગુલાબ":6557,"માર્ગ":6558,"વાનુ":6559,"▁એટલો":6560,"▁બોલે":6561,"▁હિસ્સો":6562,"▁અનામત":6563,"હ્ન":6564,"▁નિહા":6565,"ર્સની":6566,"▁ભાષ":6567,"▁બ્રેક":6568,"વાજ":6569,"▁ગાળ":6570,"▁જોડાયા":6571,"બજાર":6572,"રોહ":6573,"પાત":6574,"▁કીધા":6575,"▁સલામતી":6576,"▁ભૌતિક":6577,"▁માફી":6578,"▁યુ.":6579,"▁બોટ":6580,"▁માનવું":6581,"▁ગીતો":6582,"▁મીડિયામાં":6583,"▁વૈજ્ઞાનિક":6584,"થુ":6585,"▁કિલ્લા":6586,"▁ઉગ્ર":6587,"▁પેકે":6588,"▁દુધ":6589,"▁હાઉસ":6590,"▁પરમે":6591,"▁મેનેજમેન્ટ":6592,"▁ભાષણ":6593,"લોની":6594,"▁મણિ":6595,"▁ખુલ્લી":6596,"▁આજની":6597,"▁ડબલ":6598,"વવાના":6599,"▁સારૂં":6600,"▁ચેાગ્ય":6601,"▁સિને":6602,"▁તળ":6603,"▁બળા":6604,"▁તોડ":6605,"દ્દ":6606,"▁વખાણ":6607,"▁આપતી":6608,"વાલા":6609,"▁વકીલ":6610,"▁ખાદ્ય":6611,"રથી":6612,"▁કાવ":6613,"▁૩.":6614,"▁સ્ક્રીન":6615,"દ્દા":6616,"▁દુર્ઘટના":6617,"▁મેદાનમાં":6618,"▁આવનારા":6619,"▁લાઇટ":6620,"▁બેક":6621,"▁ઈંચ":6622,"▁વિદાય":6623,"▁196":6624,"▁૩૫":6625,"એને":6626,"▁માણસે":6627,"▁ઝેરી":6628,"▁હોવ":6629,"ટાઈ":6630,"▁અનો":6631,"▁સિંધ":6632,"▁કયારે":6633,"▁ગૃ":6634,"▁ટ્રી":6635,"▁તાજ":6636,"▁વીમા":6637,"▁ઉચ્ચાર":6638,"▁પાયા":6639,"▁શહેરોમાં":6640,"▁સચિવ":6641,"વાણી":6642,"▁ગુણુ":6643,"▁ખુલાસો":6644,"▁ખર્ચે":6645,"▁આંચ":6646,"રેખ":6647,"ચાર્ય":6648,"▁તાલુકામાં":6649,"નેશ":6650,"નોની":6651,"▁બેટિંગ":6652,"▁વ્યાવસાય":6653,"▁વગા":6654,"▁યશ":6655,"▁ઓળખા":6656,"▁હટ":6657,"સ્મ":6658,"પુત્ર":6659,"▁સૂચવે":6660,"▁ધરાવતી":6661,"▁મસ્":6662,"▁ઝું":6663,"▁મર્યાદિત":6664,"▁પરિવારો":6665,"▁વિપક્ષ":6666,"▁ભારતને":6667,"▁વિકલ્પો":6668,"▁આપશે":6669,"▁બૂ":6670,"▁સુવ":6671,"▁અર્પણ":6672,"શેષ":6673,"▁પરિવારને":6674,"▁બોલાવી":6675,"જારી":6676,"વાડ":6677,"▁સુપ્ર":6678,"▁પડતું":6679,"▁ગ્લો":6680,"▁સમૃદ્ધ":6681,"લ્ફ":6682,"▁બેસે":6683,"▁જઇને":6684,"▁ક્યાંય":6685,"▁દૃઢ":6686,"▁વ્યક્તિની":6687,"▁આતંકી":6688,"▁શખ્સ":6689,"▁કોન્ટ્રા":6690,"▁પ્રસાદ":6691,"▁ચૂકવણી":6692,"▁અતિશય":6693,"▁પેટ્રો":6694,"▁0.":6695,"▁સ્વાદિષ્ટ":6696,"સાહે":6697,"▁ટ્વીટ":6698,"ગને":6699,"▁સાબર":6700,"▁મળતાં":6701,"▁એવે":6702,"▁મહેન્દ્ર":6703,"▁રસીકરણ":6704,"ગુરુ":6705,"▁માટેનો":6706,"કથા":6707,"ર્જન":6708,"▁ટીમના":6709,"▁દેવતા":6710,"12":6711,"▁નિપજ":6712,"ઈ,":6713,"▁આપવાના":6714,"▁વેદના":6715,"▁અવસાન":6716,"પુર,":6717,"▁પત્રકાર":6718,"▁લેાકા":6719,"▁બાઈક":6720,"▁કંઇક":6721,"▁દેશભરમાં":6722,"▁દિલ્હીના":6723,"▁નાસી":6724,"▁ધે":6725,"▁દુખાવો":6726,"હ્":6727,"ટેસ્ટ":6728,"તેમ":6729,"▁સ્વરૂપે":6730,"▁ઘટનાની":6731,"▁પર્સ":6732,"માંના":6733,"▁ગોંડ":6734,"▁કપડા":6735,"કૂ":6736,"▁અખા":6737,"▁મારૂ":6738,"▁લેન્ડ":6739,"▁માંડી":6740,"▁સીબી":6741,"▁સંકટ":6742,"▁ડાન્સ":6743,"▁ધોરણે":6744,"▁ઓળખી":6745,"▁વધારાની":6746,"▁પિત":6747,"▁સના":6748,"▁5.":6749,"▁પક્ષના":6750,"એના":6751,"▁સંયો":6752,"▁દાહો":6753,"▁ફેંકી":6754,"દક":6755,"▁કાકા":6756,"▁રહ્યુ":6757,"▁રોકવા":6758,"▁આંકડો":6759,"અર":6760,"▁જંતુ":6761,"▁150":6762,"▁કાશી":6763,"▁સાંસ્કૃતિ":6764,"▁પહોંચ્યો":6765,"▁રંગો":6766,"▁સંપા":6767,"પોલિ":6768,"▁હાર્ટ":6769,"▁ઉર્જા":6770,"▁ગુણા":6771,"ષ્ટાચાર":6772,"▁વ્યાપાર":6773,"દર્શક":6774,"ૂની":6775,"▁બંદ":6776,"▁સ્તુ":6777,"▁પગે":6778,"્યા.\n":6779,"▁ચેનલ":6780,"▁પોલીસના":6781,"▁કોન્ફર":6782,"▁હથિયાર":6783,"પારી":6784,"બરે":6785,"▁કવ":6786,"▁ઉપરની":6787,"▁ક્ષેત્રો":6788,"▁કમ્":6789,"▁સસાર":6790,"▁દીઠ":6791,"▁બદલાઈ":6792,"▁સલામત":6793,"▁ઉઠાવી":6794,"▁કાર્યા":6795,"▁કામકા":6796,"▁પહેલાથી":6797,"▁ક્રમે":6798,"▁ખરીદવા":6799,"▁વાજ":6800,"▁આદિવાસી":6801,"▁વ્રત":6802,"નવાર":6803,"વેન્ટ":6804,"વિજય":6805,"▁300":6806,"▁શુભે":6807,"▁વિશ્લે":6808,"▁ના,":6809,"દાને":6810,"▁કરોડના":6811,"▁રજી":6812,"▁નાખ્યા":6813,"▁અધિકારીએ":6814,"ગુણ":6815,"▁કિસ્સામાં,":6816,"▁જાગૃતિ":6817,"સરે":6818,"િયાએ":6819,"▁પછીના":6820,"▁ઘેરા":6821,"માટે":6822,"▁શાહે":6823,"▁વલસા":6824,"કાઉન્ટ":6825,"▁સંચાલન":6826,"▁સરસ્વ":6827,"▁દરબાર":6828,"▁કરાયેલા":6829,"▁વિક્રમ":6830,"યેલ":6831,"▁લેાહી":6832,"▁બેસ્ટ":6833,"ણુના":6834,"▁વરા":6835,"▁લશ્કરી":6836,"▁માછલી":6837,"▁મૂડી":6838,"યેાગ":6839,"▁કાઉન્સિ":6840,"પ્પણી":6841,"▁ગાંધીએ":6842,"▁સેલ":6843,"▁ડાંગ":6844,"▁વોટર":6845,"▁જોઇએ,":6846,"ં,":6847,"▁વાંધો":6848,"▁કોઈની":6849,"▁વેચી":6850,"▁મેળવે":6851,"▁આવવાની":6852,"▁રાખો.":6853,"▁વેબસાઈ":6854,",૦૦૦":6855,"▁ઉલ્લ":6856,"▁ગુણો":6857,"▁વ્યક્તિત્વ":6858,"▁લહેર":6859,"િયામાં":6860,"▁6.":6861,"▁પતિને":6862,"યતા":6863,"▁માણે":6864,"▁નિકાસ":6865,"▁2,":6866,"▁હેર":6867,"▁અમારો":6868,"▁પ્રકારનાં":6869,"▁કણ":6870,"યાને":6871,"▁તેટલું":6872,"▁હદ":6873,"▁જોશી":6874,"▁વાંકા":6875,"ભાષા":6876,"▁ખાળ":6877,"▁સોફ્ટ":6878,"▁પાર્ટન":6879,"▁2015":6880,"ઇ,":6881,"▁હોવાને":6882,"▁કોંગ્રેસે":6883,"▁ફેરફારો":6884,"▁ભરેલા":6885,"▁સ્થળોએ":6886,"લિયન":6887,"▁અા":6888,"▁માબા":6889,"▁માટે.":6890,"▁ફરીયા":6891,"▁ટેક્નોલોજી":6892,"▁જટિલ":6893,"▁આસા":6894,"▁રાઠો":6895,"▁સ્વરૂપમાં":6896,"▁દૈનિક":6897,"ટનો":6898,"▁કૂત":6899,"સીમાં":6900,"▁ચેમ્પ":6901,"▁બિલકુલ":6902,"ઝના":6903,"કૃષ્ટ":6904,"વમાં":6905,"▁મુદ":6906,"▁ખાને":6907,"તો,":6908,"ચારા":6909,"▁લોકોનું":6910,"▁છુપ":6911,"▁દૃષ્ટિએ":6912,"▁દસ્તાવેજો":6913,"▁નમ્ર":6914,"વિધિ":6915,"▁ઈસ":6916,"પુરુષ":6917,"▁મિલકત":6918,"▁દ્વારકા":6919,"ગિ":6920,"▁પચા":6921,"▁તકની":6922,"▁અધિકારીઓએ":6923,"▁ખેલાડીઓ":6924,"▁શ્રીલંકા":6925,"▁દરે":6926,"▁સંપર્કમાં":6927,"ટથી":6928,"▁સાધના":6929,"▁શાળાના":6930,"▁કબજે":6931,"▁ભરેલી":6932,"▁તેવામાં":6933,"▁ઉડી":6934,"▁અંતમાં":6935,"▁પૉ":6936,"વાળ":6937,"▁ઘટે":6938,"▁ટેકો":6939,"▁જવાથી":6940,"ગુરૂ":6941,"22":6942,"▁અવારનવાર":6943,"18":6944,"ટકા":6945,"▁હાવા":6946,"▁ષ":6947,"▁જ્યા":6948,"ળીમાં":6949,"પીના":6950,"▁વિનય":6951,"મહ":6952,"૨૧":6953,"▁બચાવી":6954,"▁ઇરા":6955,"સન્સ":6956,"▁રાઉન્ડ":6957,"▁એકસાથે":6958,"▁બાઇક":6959,"▁ઇમાર":6960,"▁શેખ":6961,"▁ઘટનાસ્થ":6962,"તીને":6963,"તિના":6964,"▁ચોથા":6965,"▁ધ્યેય":6966,"▁નીર":6967,"▁અનાજ":6968,"વાયો":6969,"▁શિખ":6970,"▁કલાકાર":6971,"▁સંવેદનશીલ":6972,"માળ":6973,"▁ઈન":6974,"▁સાર્વ":6975,"ટેજ":6976,"▁એન.":6977,"▁શંકર":6978,"▁જુગાર":6979,"▁ઉત્પત્તિ":6980,"▁તૈયારીઓ":6981,"▁કોશિશ":6982,"▁છિ":6983,"▁એટલુ":6984,"▁અફઘ":6985,"▁કરણ":6986,"ર્સે":6987,"▁વાતા":6988,"રેા":6989,"ટોક":6990,"▁એટલામાં":6991,"▁યુરોપ":6992,"▁ઉદ્ધ":6993,"▁ઉપકાર":6994,"▁ચાલવા":6995,"▁મતદારો":6996,"▁ક્યાંથી":6997,"▁ફટકાર":6998,"99":6999,"ફાન":7000,"નેા":7001,"▁જીએસ":7002,"▁સુરતના":7003,"▁પ્રદેશના":7004,"▁નમૂ":7005,"▁માધ્યમથી":7006,"મામાં":7007,"▁ઉધ":7008,"▁ડિસ્ટ":7009,"▁માર્ગે":7010,"▁રડ":7011,"્સમાં":7012,"▁લિમિ":7013,"▁મહાનગરપાલિ":7014,"▁વિજેતા":7015,"▁નમા":7016,"▁ખની":7017,"▁વિસ્તૃત":7018,"▁થવાને":7019,"પાઇ":7020,"▁સ્વામિ":7021,"▁સાઉથ":7022,"▁સાક્ષા":7023,"▁ગાઢ":7024,"▁સાંસ્કૃતિક":7025,"મરા":7026,"શ્યો":7027,"▁સ્ત્રો":7028,"ભાગ્ય":7029,"▁ચોક્કસપણે":7030,"▁ગ્રાહકોને":7031,"▁અટકાવવા":7032,"▁રિવ":7033,"▁લડાઇ":7034,"▁બેદર":7035,"▁શુક":7036,"▁પહેલ":7037,"▁ફોલો":7038,"▁કર્યું.\n":7039,"▁આપેલ":7040,"તરે":7041,"▁વડ":7042,"▁વધવા":7043,"દીની":7044,"▁દર્દીઓને":7045,"▁રાક્ષ":7046,"▁સ્ત્રીને":7047,"▁મિશન":7048,"▁નદીના":7049,"▁ચૌહા":7050,"▁કળ":7051,"▁બૌ":7052,"▁પહેલો":7053,"▁અહીંથી":7054,"▁અશોક":7055,"શ્રા":7056,"▁થિયે":7057,"કાઓ":7058,"▁એકઠા":7059,"ક્રિ":7060,"▁સમારોહ":7061,"▁માર્કેટમાં":7062,"▁કરેલું":7063,"▁કર્યાં.":7064,"▁કન્ટે":7065,"શનો":7066,"▁નક્ષ":7067,"▁બેટ્સ":7068,"▁સસ્પે":7069,"ાર,":7070,"▁મચ":7071,"▁કોર્પોરેશન":7072,"▁લંબાઈ":7073,"▁બનાસ":7074,"▁લગાવવામાં":7075,"▁સંબોધ":7076,"▁નીચેની":7077,"▁કર્યો,":7078,"▁ફેડ":7079,"▁ચાહકો":7080,"▁મડ":7081,"▁પરણ":7082,"▁વાંચવા":7083,"▁લેાક":7084,"▁ચઢી":7085,"લ્લભ":7086,"વ્":7087,"ાય,":7088,"▁સંકલ":7089,"▁રહેતાં":7090,"▁કાર્યકર્તા":7091,"▁સમજાવ":7092,"▁એજન્ટ":7093,"▁દીધી.":7094,"ગ,":7095,"▁લેવું":7096,"▁૨૯":7097,"▁જવાબમાં":7098,"▁ચર્ચ":7099,"▁ટર્":7100,"ફોર્":7101,"▁દમ":7102,"▁શાહી":7103,"▁પ્રમાણે,":7104,"▁સાંભળે":7105,"▁અનન્ય":7106,"▁ઓળખાય":7107,"▁નાક":7108,"▁માર્ગો":7109,"▁કુંડ":7110,"▁કસરત":7111,"▁જાદુ":7112,"▁દરેકને":7113,"સ્વરૂપ":7114,"ત્યાદિ":7115,"▁સ્વતંત્રતા":7116,"▁બગીચા":7117,"▁પૂરે":7118,"▁બાળકના":7119,"▁મહેમાનો":7120,"ંછ":7121,"▁સખી":7122,"નાઇ":7123,"▁પાઇ":7124,"▁યોગી":7125,"▁જન્મદિવ":7126,"▁ઓળખવામાં":7127,"▁નિરીક્ષણ":7128,"વાડા":7129,"ગાવી":7130,"▁લગતા":7131,"▁જુદાં":7132,"▁માય":7133,"▁એકતા":7134,"▁આપણાં":7135,"લો,":7136,"જો,":7137,"▁સંગઠન":7138,"ર્તન":7139,"▁વાવેતર":7140,"સનો":7141,"માર્":7142,"▁ભરીને":7143,"▁ક્રૂ":7144,"▁લાખથી":7145,"▁બજા":7146,"▁નામનો":7147,"▁જીવનને":7148,"▁અકસ્માતમાં":7149,"▁મ્યુનિસિપાલિ":7150,"▁ઓવરમાં":7151,"▁ફેન્સ":7152,"▁અંદાજે":7153,"ટલા":7154,"▁નિકાલ":7155,"▁મોહન":7156,"▁શિવા":7157,"▁ધીરજ":7158,"▁ધનુ":7159,"▁નિજ":7160,"▁નિયંત્રિત":7161,"▁કોઈએ":7162,"▁પડયું":7163,"▁અદાલ":7164,"▁થવાનો":7165,"▁નિમ":7166,"▁અટકી":7167,"▁લગ્નની":7168,"તીની":7169,"▁ટકી":7170,"પ્રથમ":7171,"્યું.\n":7172,"બાઇ":7173,"▁વરસાદી":7174,"મ્ય":7175,"▁વખતમાં":7176,"▁દાવા":7177,"થર":7178,"શંકર":7179,"▁પ્રવે":7180,"▁વ્યૂ":7181,"▁!!":7182,"▁એકાએક":7183,"▁નદીમાં":7184,"▁એન્ટ્રી":7185,"એશન":7186,"વેસ્ટ":7187,"▁રસ્તામાં":7188,"▁રિક":7189,"▁સિરીઝ":7190,"▁કરનારી":7191,"▁અઘ":7192,"ર્ટર":7193,"▁સમસ્ત":7194,"▁જીવી":7195,"▁મનોરંજન":7196,"▁બટા":7197,"▁શ્યામ":7198,"▁ટકાનો":7199,"▁રહિત":7200,"▁ગુસ્સા":7201,"૩૦":7202,"▁સાઇ":7203,"▁પરન્તુ":7204,"ભાગી":7205,"▁કેટલો":7206,"▁ત્યાંના":7207,"▁૬૦":7208,"▁આમંત્રણ":7209,"23":7210,"▁સરપંચ":7211,"▁પ્રોટી":7212,"▁દાર":7213,"ર્સના":7214,"▁સ્ટ્રી":7215,"બ્રિ":7216,"▁ચેન":7217,"▁ડિરેક્ટર":7218,"વુડ":7219,"▁અર્ધ":7220,"રાજ્ય":7221,"▁નરમ":7222,"▁નૃત્ય":7223,"▁દલ":7224,"▁બાળકોના":7225,"▁અનિલ":7226,"ટકી":7227,"વાળો":7228,"▁પરંતુ,":7229,"ઘાટન":7230,"▁સાંભળવા":7231,"નેશન":7232,"▁કેરી":7233,"▁ધામ":7234,"▁મુશ્કેલીઓ":7235,"▁સ્ટોક":7236,"▁દલીલ":7237,"▁આલિયા":7238,"▁મચ્છ":7239,"▁કોટ":7240,"▁ચરબી":7241,"▁રૂપિયાનો":7242,"ંગ્લા":7243,"▁આનાથી":7244,"▁મમ":7245,"▁હોટેલ":7246,"િયાને":7247,"▁દૃશ્ય":7248,"▁માટેનું":7249,"▁નિવાર":7250,"▁ભગવ":7251,"▁સ્ટુ":7252,"નીને":7253,"▁અઢ":7254,"▁છેડી":7255,"▁રજિ":7256,"શાળા":7257,"▁તાપણુ":7258,"▁ટ્રાન્સફર":7259,"રાઇ":7260,"▁ઉપવાસ":7261,"▁બાથ":7262,"▁સમયસર":7263,"▁સારાં":7264,"▁સંભળા":7265,"▁એસી":7266,"ન્મ":7267,"▁શું?":7268,"▁આઈપી":7269,"▁પ્રસ્તાવ":7270,"▁સિક્":7271,"▁સવાલો":7272,"▁મહિનાની":7273,"▁ક્લ":7274,"▁પ્રવૃત્તિઓ":7275,"▁મેરી":7276,"▁ખાત્રી":7277,"તોમાં":7278,"▁પેટમાં":7279,"▁પરમાણુ":7280,"▁જોગવાઈ":7281,"▁પીડિત":7282,"ભક્તિ":7283,"▁ક્યા":7284,"▁સ્કોર":7285,"▁પ્રાઈ":7286,"▁મોદીના":7287,"▁કુંભ":7288,"▁નીકળ્યા":7289,"▁આણંદ":7290,"જે.":7291,"ન્સ,":7292,"▁48":7293,"બ્લિક":7294,"▁ડોલ":7295,"▁પ્રતીક":7296,"▁રાણા":7297,"▁છુપા":7298,"▁સેકન્ડ":7299,"ષક":7300,"▁સુરેન્દ્રનગર":7301,"લયે":7302,"વાલે":7303,"▁પરો":7304,"ફ્રા":7305,"▁પંદર":7306,"▁ધારે":7307,"▁કારો":7308,"▁ગેરકાયદેસર":7309,"▁કર્યો.\n":7310,"નિકલ":7311,"▁લીધી.":7312,"▁સંશોધ":7313,"▁રક":7314,"▁વારા":7315,"▁કોઈક":7316,"▁આજનો":7317,"▁મંદિરના":7318,"▁ટું":7319,"▁અર્થતંત્ર":7320,"▁માછી":7321,"▁જેવુ":7322,"▁થાય.\n":7323,"▁સર્ચ":7324,"▁કીધી":7325,"▁જીવતા":7326,"▁ચલાવવા":7327,"▁પથારી":7328,"▁ભવન":7329,"્યાં,":7330,"▁આત્મવિ":7331,"▁આકૃતિ":7332,"▁ઉંમરે":7333,"15":7334,"રાગ્ય":7335,"▁નિદાન":7336,"▁નોટિસ":7337,"બના":7338,"▁જબર":7339,"▁માસ્ટર":7340,"▁ખર્ચા":7341,"▁ટિપ્પણી":7342,"ધ્યાય":7343,"પત્":7344,"ભરી":7345,"▁રિટ":7346,"▁વાયરસના":7347,"▁પ્રસ્તુત":7348,"▁હકારાત્મક":7349,"ફ્ટી":7350,"▁રહે,":7351,"▁સીટી":7352,"▁પ્રેમમાં":7353,"▁ભેજ":7354,"▁જાણીતી":7355,"▁પ્રાણીઓ":7356,"▁સેન્ટ્રલ":7357,"▁ગાળા":7358,"▁સૂચિ":7359,"▁આવાં":7360,"▁ટ્રેડ":7361,"પિંડી":7362,"▁તુરત":7363,"બળો":7364,"શ.\n":7365,"ત્વા":7366,"▁વ્યક્તિઓ":7367,"▁ફરજિયાત":7368,"પડ":7369,"▁પ્રહાર":7370,"▁પ્રવર્":7371,"▁પાવડ":7372,"▁મુકેશ":7373,"▁મિક્સ":7374,"▁38":7375,"ધિકારી":7376,"▁રિસર્ચ":7377,"જક":7378,"માન્ડ":7379,"▁તમિ":7380,"▁અલ્લા":7381,"▁ભટ્ટ":7382,"▁પોત":7383,"દાતા":7384,"▁કહ્યા":7385,"▁કંટ્રોલ":7386,"▁સીસીટી":7387,"▁મેટ્રોપોલિ":7388,"નીના":7389,"▁મારૂં":7390,"▁થવી":7391,"કાલીન":7392,"▁હોલ":7393,"▁ઇમ":7394,"દેશા":7395,"રન્ટ":7396,"▁અછ":7397,"▁મશ":7398,"▁સંકલ્પ":7399,"▁પોઇન્ટ":7400,"▁રહેવાનું":7401,"▁મળવાની":7402,"▁ફેક્ટ":7403,"શો.\n":7404,"▁લિસ્ટ":7405,"▁ડુંગળી":7406,"▁હિંદી":7407,"પુરી":7408,"▁અય":7409,"▁ગુસ્સે":7410,"▁વર્ષોમાં":7411,"▁ક્લબ":7412,"▁ટાપુ":7413,"▁જપ્ત":7414,"▁નગ":7415,"ગીના":7416,"▁સ્વ.":7417,"▁દેખરેખ":7418,"▁પિતાએ":7419,"▁ચુકવણી":7420,"▁એસે":7421,"▁માળા":7422,"▁ગર્વ":7423,"જીમાં":7424,"▁સરખી":7425,"▁કેટલાય":7426,"▁ઊભો":7427,"▁65":7428,"▁વિશ્વની":7429,"▁અહિં":7430,"▁ો":7431,"▁ફળો":7432,"▁પ્રમાણુ":7433,"▁કાયમી":7434,"▁હાઈવે":7435,"▁ફટકારી":7436,"....\n":7437,"▁ઝોન":7438,"ંટા":7439,"▁હતે":7440,"▁વ્યકિત":7441,"▁ચીજો":7442,"ઝમ":7443,"▁પોપ":7444,"ધાને":7445,"કુળ":7446,"▁મહિલાઓને":7447,"▁યેા":7448,"યાએ":7449,"▁તમ":7450,"ન્સિ":7451,"▁અધ્યાય":7452,"૧૧":7453,"▁પરની":7454,"▁પારિ":7455,"▁સીસીટીવી":7456,"પાં":7457,"▁ઇંડા":7458,"▁લેખિત":7459,"▁શૌ":7460,"▁ચિંત":7461,"▁સ્ટેન્ડ":7462,"▁૪.":7463,"▁ઇલેક્ટ્રો":7464,"ઈના":7465,"▁માતાના":7466,"▁પિતાને":7467,"▁પાટીદાર":7468,"૫૦":7469,"▁હવામાં":7470,"▁ફસ":7471,"વો,":7472,"▁સ્વર":7473,"▁આગમન":7474,"▁અન્યાય":7475,"▁નહોતી.":7476,"▁દરવાજો":7477,"▁બ્રહ્મા":7478,"સીન":7479,"મ્પે":7480,"▁પ્રીમ":7481,"▁ગજ":7482,"▁માત્રા":7483,"▁નહોતો":7484,"▁વેપારીઓ":7485,"▁મેટ્રોપોલિટન":7486,"વર્ષ":7487,"▁માનું":7488,"▁દેવે":7489,"▁ઢાં":7490,"▁કાપડ":7491,"▁તડ":7492,"▁કરૂં":7493,"▁મારુ":7494,"▁ઉછા":7495,"▁નિવૃત્તિ":7496,"▁રોગચા":7497,"▁મૂલ્યાં":7498,"સથી":7499,"▁સરો":7500,"મેા":7501,"▁નિમિત્તે":7502,"▁અંડ":7503,"▁છે!\n":7504,"▁વ્યક્તિના":7505,"▁શેરી":7506,"જલિ":7507,"તાન":7508,"▁દેવાની":7509,"▁અધિકારીઓને":7510,"ગેટ":7511,"▁રોજગાર":7512,"▁ખીજ":7513,"▁તબિયત":7514,"▁શુભેચ્છા":7515,"▁પછીથી":7516,"જામ":7517,"▁રસ્તાઓ":7518,"▁રાજકોટના":7519,"▁વિચાર્યું":7520,"▁બાળકોની":7521,"▁સ્ટ્રે":7522,"▁લિંક":7523,"▁ભ્રષ્ટાચાર":7524,"એની":7525,"▁છેડ":7526,"▁મય":7527,"▁ગંધ":7528,"▁લડી":7529,"▁બીચ":7530,"▁આવ્યા,":7531,"▁પાણીનો":7532,"બોલ":7533,"▁વિપુ":7534,"▁વાલી":7535,"▁કર્મચારીઓને":7536,"પક્ષ":7537,"▁આનો":7538,"▁કેટે":7539,"▁ઉત્કૃષ્ટ":7540,"▁કાઢે":7541,"▁લુક":7542,"▁સમયના":7543,"▁પ્રવાસીઓ":7544,"▁ચેમ્પિયન":7545,"▁શહી":7546,"▁માવ":7547,"▁ભરો":7548,"▁લાગ્યું.":7549,"ફ્રેન્ડ":7550,"▁આડ":7551,"▁કાબુ":7552,"▁માત્રામાં":7553,"▁કાઢવામાં":7554,"ષેક":7555,"▁સોસાયટી":7556,"40":7557,"▁ખરું":7558,"▁લેપ":7559,"▁બોલિવૂડ":7560,"▁વ્યાવસાયિક":7561,"દિન":7562,"▁ઘડ":7563,"▁ડેમ":7564,"▁અમદાવાદઃ":7565,"▁ખરાખર":7566,"વે.":7567,"▁બાંગ્લા":7568,"▁ગુમ":7569,"▁ભાગો":7570,"▁માર્ક":7571,"▁આજકાલ":7572,"▁હાઈકોર્ટ":7573,"▁બ્રિજ":7574,"▁પ્રતાપ":7575,"▁ઉલ્લંઘ":7576,"બ્રા":7577,"વ્યુ":7578,"▁હરાવ":7579,"▁દળો":7580,"▁માતૃ":7581,"▁શકતો":7582,"▁પ્રાણુ":7583,"▁વચ્ચેની":7584,"▁બીજાને":7585,"▁માલમ":7586,"્યૂટ":7587,"▁સિંહે":7588,"▁વસા":7589,"ન્ગ":7590,"11":7591,"▁ફાઇન":7592,"▁બનતા":7593,"નારાયણ":7594,"▁અબજ":7595,"▁બેટરી":7596,"▁કાઢવા":7597,"▁ઉશ્કે":7598,"મી,":7599,"પેા":7600,"▁પાણીથી":7601,"▁વિભાગમાં":7602,"ટ્સએ":7603,"▁વિગતવાર":7604,"▁સોંપી":7605,"▁ભડ":7606,"▁સાદ":7607,"▁અનુવાદ":7608,"▁અથડા":7609,"▁રૂપિયાના":7610,"▁વધારાના":7611,"▁ચૈત":7612,"▁અયાંશી":7613,"ખરા":7614,"પડી":7615,"ુત":7616,"▁જતું":7617,"▁મહિલાએ":7618,"▁આદિત્ય":7619,"▁કિશોર":7620,"▁ઉભે":7621,"શાસ્ત્રી":7622,"▁અનુસર":7623,"▁માનવા":7624,"▁છોકરીઓ":7625,"▁વાપરી":7626,"વડા":7627,"ક્ટે":7628,"મીએ":7629,"▁પહેરે":7630,"▁ફરતા":7631,"સ્ટ્રેશન":7632,"▁કર્ણાટ":7633,"▁આપઘાત":7634,"▁સામ્રા":7635,"▁આરોપીઓ":7636,"▁વાસ્તવમાં":7637,"▁વૃક્ષો":7638,"મરી":7639,"▁બલ":7640,"▁ધૂમ":7641,"▁અનુપ":7642,"▁ઇન્સ્ટાગ્રામ":7643,"▁બનાસકાંઠા":7644,"▁વેશ":7645,"▁આરતી":7646,"▁સિદ્ધાં":7647,"▁સ્ટોર":7648,"લનું":7649,"▁પાડો":7650,"સેના":7651,"મેન્ટમાં":7652,"▁ગેા":7653,"ંઝ":7654,"દી,":7655,"▁નોંધણી":7656,"િયાની":7657,"મ્મ":7658,"ધારિત":7659,"શિપ":7660,"▁વરસાદના":7661,"▁રમવા":7662,"▁ઘટકો":7663,"▁ઘટનાસ્થળે":7664,"▁જાહેરમાં":7665,"▁ચાવી":7666,"▁દીક્ષા":7667,"▁ચાલક":7668,"▁ટ્રેક":7669,"▁સંકળાયેલા":7670,"▁જસ્ટિસ":7671,"▁અબ્દુ":7672,"▁પ્રથા":7673,"વિટી":7674,"ન્દ્રા":7675,"▁ફિલ્મના":7676,"▁થાક":7677,"▁ભરાઈ":7678,"૨૩":7679,"▁ક્ષમા":7680,"▁પદ્મ":7681,"▁શૂન્ય":7682,"▁અંતઃકરણ":7683,"▁બળાત્કાર":7684,"▁હિટ":7685,"▁વુ":7686,"▁હોય.\n":7687,"વુ,":7688,"▁દુનિયાના":7689,"લ્ક":7690,"▁બેઠેલા":7691,"▁આયોજિત":7692,"▁વસે":7693,"તિને":7694,"▁વર્ચ":7695,"▁રમતા":7696,"▁કાશ્મીર":7697,"શભાઇ":7698,"ૂન":7699,"▁મર્":7700,"▁બાવ":7701,"▁કાર્યમાં":7702,"▁ભાજપને":7703,"▁ટી20":7704,"▁કૉંગ્રે":7705,"▁અદાણી":7706,"▁ભજન":7707,"▁નાનો":7708,"▁બાળપણ":7709,"ાયેલો":7710,"▁અપહરણ":7711,"બની":7712,"▁પેન્શન":7713,"▁પકડીને":7714,"ટર્સ":7715,"નિય":7716,"▁ટક્કર":7717,"▁છો?":7718,"▁પરિવારની":7719,"▁અભિનંદન":7720,"▁અપડેટ":7721,"▁અપડેટ્સ":7722,"ંગ,":7723,"▁ઉપરો":7724,"▁બનશે.":7725,"▁છેલ્લાં":7726,"▁નહોતું":7727,"▁શાં":7728,"▁પડવા":7729,"▁બોટલ":7730,"▁સ્વરૂ":7731,"▁મારીને":7732,"કડાં":7733,"▁જોડાઓ":7734,"▁એક્સપ્રે":7735,"તથી":7736,"▁કષ્ટ":7737,"લેજ":7738,"પ્શન":7739,"▁૧,":7740,"▁પરિણી":7741,"▁પડશે,":7742,"▁ખાવાથી":7743,"▁રિક્ષા":7744,"▁અવસર":7745,"▁અશક્ય":7746,"યના":7747,"સીસ":7748,"બોર્ડ":7749,"▁પત્નીને":7750,"▁મંડળ":7751,"▁ક્રૂર":7752,"▁ચંદ":7753,"વાર,":7754,"▁દરખા":7755,"શ્યલ":7756,"▁પ્રકટ":7757,"▁મારાથી":7758,"▁અવર":7759,"▁સ્પોર્ટ":7760,"નિર્":7761,"▁વ્હે":7762,"▁સંચાલ":7763,"▁એકબીજાને":7764,"▁મંજૂર":7765,"કુર":7766,"વહાર":7767,"▁દંપ":7768,"વીજ":7769,"ાયક":7770,"સિં":7771,"▁લોકોનો":7772,"▁યુક્તિ":7773,"▁પ્રતિબિ":7774,"▁દિલીપ":7775,"સ્થાને":7776,"▁7.":7777,"▁એનાથી":7778,"▁અસંખ":7779,"▁હૅ":7780,"▁અનુક્રમે":7781,"▁શક્તિશાળી":7782,"▁સુવર્ણ":7783,"▁ફેશન":7784,"▁પડેલી":7785,"છે.\n":7786,"▁વનડે":7787,"▁ફુલ":7788,"▁જયે":7789,"▁શસ્ત્ર":7790,"▁કોને":7791,"▁ઇંદ્ર":7792,"▁દર્શાવ":7793,"▁ફોટોગ્રા":7794,"▁કબ્":7795,"▁વસ્ત્ર":7796,"▁ગળે":7797,"▁પુખ્ત":7798,"▁પીએસ":7799,"▁અંશે":7800,"વ્યવસ્થા":7801,"▁કે\n":7802,"ંગમાં":7803,"▁ધૂળ":7804,"મામ":7805,"▁લાક":7806,"▁જાઉં":7807,"▁પાછલા":7808,"▁લગાવ્યો":7809,"▁ચિત":7810,"▁આપું":7811,"▁મેના":7812,"▁ઈરા":7813,"▁55":7814,"▁આયુષ્ય":7815,"▁બર્":7816,"ભાઈએ":7817,"▁મૂકવા":7818,"▁સંદર્ભે":7819,"▁અસંખ્ય":7820,"▁કાબૂ":7821,"કેલી":7822,"▁૩૬":7823,"▁લેખમાં":7824,"આઉટ":7825,"દારે":7826,"મીર":7827,"મિર":7828,"▁ચોંકા":7829,"▁બજારો":7830,"▁સેક્રે":7831,"▁શબ્દોમાં":7832,"▁ભજવી":7833,"▁લેવાય":7834,"▁યોજનાઓ":7835,"▁રોડ,":7836,"▁આયુર્વે":7837,"▁સુગંધ":7838,"કી,":7839,"▁નિરાશા":7840,"▁મહોત્સવ":7841,"વટ":7842,"▁ખાઇ":7843,"▁થઇ.":7844,"▁ક્રાંતિ":7845,"▁સભામાં":7846,"▁વિદ્વાન":7847,"▁ચરિત્ર":7848,"▁ટ્રિ":7849,"સીસી":7850,"▁મળતું":7851,"લિકા":7852,"▁બંનેને":7853,"▁મામલત":7854,"▁વૈજ્ઞાનિકો":7855,"▁સકારાત્મક":7856,"પ્રસાદ":7857,"▁સીધો":7858,"▁રૃ":7859,"▁42":7860,"▁પેાતાનું":7861,"▁ઘટાડવા":7862,"▁ગેરહા":7863,"▁તળે":7864,"રાવી":7865,"▁છેતરપિંડી":7866,"મંદ":7867,"વવી":7868,"▁હજ":7869,"▁મુર":7870,"▁ગયો.\n":7871,"▁ગયેલી":7872,"ુન":7873,"▁તેણીને":7874,"નું,":7875,"▁ઘઉં":7876,"▁લાંબો":7877,"ભેદ":7878,"▁ગઇ.":7879,"▁ઇન્ડસ્ટ્રી":7880,"▁એસિડ":7881,"▁રાજપૂ":7882,"▁કુળ":7883,"▁પ્રેસ":7884,"▁પકડા":7885,"▁સૌંદર":7886,"▁ફોરે":7887,"▁ઘટનાને":7888,"▁ગરબા":7889,"▁કાફ":7890,"▁ખાતામાં":7891,"ડે,":7892,"જે,":7893,"ટર,":7894,"▁સગવડ":7895,"દ્યોગિક":7896,"▁વિપરીત":7897,"મીને":7898,"▁મળી.":7899,"▁મગફ":7900,"▁વિલંબ":7901,"ક્ષ્":7902,"▁ભાજપની":7903,"બ્ર":7904,"▁જળવા":7905,"▁નકા":7906,"▁ફરાર":7907,"▁વિચારણા":7908,"▁સારુ":7909,"▁ગઈ.\n":7910,"▁કંપનીમાં":7911,"......":7912,"▁મોહમ્મદ":7913,"▁વેબસાઈટ":7914,"▁આશિ":7915,"▁અફઘાનિ":7916,"સેવ":7917,"▁દુબ":7918,"▁વિભાગની":7919,"▁એક્ટ્રેસ":7920,"▁ખતરના":7921,"જાત":7922,"▁પરિચિત":7923,"▁બાબુ":7924,"શ્ર્":7925,"▁પુસ્તકો":7926,"▁ન્યુઝ":7927,"▁સ્માર્ટફોન":7928,"▁આયાત":7929,"▁એક્ટર":7930,"▁વિવાહ":7931,"▁ખાવાનું":7932,"▁રિલાય":7933,"▁અખંડ":7934,"▁મજૂ":7935,"▁પ્રણ":7936,"▁ઇસ્લા":7937,"▁હૈદરા":7938,"▁ગ્રામજનો":7939,"▁ઓપન":7940,"▁સંદર્ભમાં":7941,"શૈ":7942,"▁વિઝા":7943,"▁ઇન્ટરનેટ":7944,"▁માખ":7945,"▁રહેશે,":7946,"▁ગુસ્સો":7947,"▁શકિત":7948,"▁2000":7949,"▁શણગાર":7950,"▁અમિતા":7951,"▁મકર":7952,"લોને":7953,"▁જેમની":7954,"▁મુસલમાન":7955,"શાંત":7956,"▁રિયા":7957,"▁હોટલ":7958,"▁લખન":7959,"▁સ્ટ્રો":7960,"▁કરવું.":7961,"▁અર્થમાં":7962,"▁નારાયણ":7963,"▁કલ્પ":7964,"▁નકલ":7965,"જી.":7966,"▁ફ્લે":7967,"▁અત્યા":7968,"▁પામેલા":7969,"ંથ":7970,"▁પૂજન":7971,"▁સુધીનો":7972,"▁ઊઠ":7973,"▁શીખી":7974,"▁પાકિસ્તાનના":7975,"મિત":7976,"▁હોવો":7977,"▁વ્યાસ":7978,"મ્બરમાં":7979,"▁મ્હારી":7980,"▁વોટ":7981,"▁હજારથી":7982,"▁એલ.":7983,"▁માઇક્રો":7984,"▁ચેતન":7985,"▁ફેંક":7986,"▁રોષ":7987,"▁દાસ":7988,"▁બહેનો":7989,"▁ખતરનાક":7990,"માળા":7991,"▁અ.":7992,"સાને":7993,"▁સેંક":7994,"▁વેરિ":7995,"▁ટીમમાં":7996,"▁હોસ્પિટલના":7997,"▁બ્લોક":7998,"▁પાટણ":7999,"▁જના":8000,"પ્ટ":8001,"▁રાખીએ":8002,"▁વિષયો":8003,"▁ગૌતમ":8004,"ઓનાં":8005,"દરી":8006,"લે,":8007,"▁અટકાય":8008,"▁ચમક":8009,"ઓ.":8010,"▁કઠો":8011,"▁ઉમર":8012,"▁જોવાની":8013,"▁ક્ષણે":8014,"▁૩૩":8015,"ઝમાં":8016,"▁પહેરી":8017,"▁ગ્રાઉન્ડ":8018,"▁સપ્લાય":8019,"ઈમાં":8020,"▁નિધન":8021,"▁પૂછી":8022,"▁જમીનમાં":8023,"▁મોડલ":8024,"કર્ષ":8025,"▁દેશે":8026,"▁શકતું":8027,"▁અભિવ":8028,"▁શકાય.\n":8029,"▁વતી":8030,"▁લોટ":8031,"વિદ્યા":8032,"▁શક્યો":8033,"▁ઉત્સા":8034,"▁લાગતા":8035,"▁સરહદ":8036,"આપ":8037,"ખલ":8038,"▁કવર":8039,"▁નામો":8040,"▁ટ્રો":8041,"▁મહિનાથી":8042,"▁વાક્ય":8043,"▁ભંડ":8044,"કોર્ટે":8045,"▁ડબ્":8046,"▁રે.":8047,"▁મૃતક":8048,"▁ભગવાનની":8049,"▁લગ્નના":8050,"ડિયે":8051,"▁બં":8052,"▁એલિ":8053,"▁પડો":8054,"▁રેલી":8055,"▁ખોલી":8056,"▁ધોધ":8057,"▁કરાવવામાં":8058,"▁ઇલેક્ટ્રિક":8059,"▁અલ્પ":8060,"યામાં":8061,"▁મેળા":8062,"▁ખેડા":8063,"▁મહિલાને":8064,"આઈએ":8065,"▁કેાઇ":8066,"▁સાજા":8067,"▁સિંગ":8068,"▁પુત્રને":8069,"▁શોધખો":8070,"▁ત્રિવે":8071,"▁ફુટ":8072,"▁ધંધો":8073,"▁રહેલું":8074,"▁છોકરો":8075,"▁ચિન્":8076,"▁દૃષ્ટ":8077,"▁મ્હા":8078,"▁ઉઘ":8079,"▁તાકી":8080,"▁દીપિ":8081,"▁ટેવ":8082,"બરૂ":8083,"▁વતન":8084,"▁બાલ":8085,"▁સંજોગોમાં":8086,"્યાને":8087,"હીન":8088,"▁હેા":8089,"▁વિકસિત":8090,"રેક્ટ":8091,"▁ગોળ":8092,"▁મોડેલ":8093,"▁ચડી":8094,"▁લેવાનો":8095,"▁સેમ":8096,"▁પહેલીવાર":8097,"▁ભંડો":8098,"લ્લું":8099,"▁હેતુથી":8100,"▁વાંકાને":8101,"હવા":8102,"▁આરાધ":8103,"▁એળ":8104,"તેા":8105,"▁બાઇ":8106,"▁સમાધિ":8107,"સત્તા":8108,"▁નફો":8109,"▁ઇન્સ":8110,"▁ડેપ":8111,"▁જઈએ":8112,"▁સ્ટાર્":8113,"▁હિંદુસ્તા":8114,"▁સ્તુતિ":8115,"ફળતા":8116,"▁લેવાના":8117,"▁પૂછે":8118,"▁પડતો":8119,"▁પરિસ્થિતિમાં":8120,"હલ":8121,"▁લંબ":8122,"કાર્ય":8123,"▁બેટા":8124,"▁પેઇન્ટ":8125,"▁પૂજ્ય":8126,"▁રાજ્યસભા":8127,"▁વિધવા":8128,"▁માણી":8129,"▁ઘણુ":8130,"▁જગતના":8131,"▁ચમત્કાર":8132,"▁ખભા":8133,"વેરા":8134,"▁નાનું":8135,"્સ,":8136,"▁ફાઉન્":8137,"▁એક્ટિવ":8138,"▁જથ્થા":8139,"ત્રણ":8140,"▁લીંક":8141,"▁કોર્ટના":8142,"▁વપરાશ":8143,"▁આરામદાયક":8144,"▁અડધી":8145,"▁તબક્કા":8146,"જવા":8147,"તાનુ":8148,"▁ચપ":8149,"▁કહો":8150,"▁દીકરો":8151,"▁ખુલ":8152,"▁લખવામાં":8153,"▁તંદુરસ્ત":8154,"ૂપ":8155,"▁એમાંથી":8156,"▁ત્રીજો":8157,"▁આકર્ષણ":8158,"▁સામ્રાજ્ય":8159,"ઓમાંથી":8160,"નસ":8161,"▁આવેલો":8162,"▁રહો.":8163,"▁પ્રકારનો":8164,"▁મેહુ":8165,"સ્તર":8166,"▁રેટ":8167,"▁માણુસ":8168,"▁શાર":8169,"▁માસમાં":8170,"▁કરવા.":8171,"▁તેઓની":8172,"▁અહીંયા":8173,"દાયી":8174,"વાટ":8175,"▁હ્યુ":8176,"લાજ":8177,"▁નાનાં":8178,"▁મેટી":8179,"શ્ચા":8180,"ચ્છી":8181,"▁પાકિસ્તાની":8182,"▁સાંભળ્યું":8183,"૧૨":8184,"કાંત":8185,"▁પ્રતિષ્ઠ":8186,"▁૩૪":8187,"▁કુશળતા":8188,"કિક":8189,"▁પાયે":8190,"▁પેસ્ટ":8191,"▁હાલની":8192,"▁ક્રાઇ":8193,"▁વિસ્ફો":8194,"▁બેદરકારી":8195,"જાના":8196,"▁ટ્વિટ":8197,"૧૮":8198,"▁ચીનના":8199,"▁સવારથી":8200,"▁ન્યાયા":8201,"▁ડાયાબિ":8202,"▁અધી":8203,"▁અમલી":8204,"▁બેઠી":8205,"▁બળતરા":8206,"21":8207,"તોની":8208,"▁માર્યો":8209,"▁નીતિન":8210,"▁ગ્લાસ":8211,"બડ":8212,"▁છત":8213,"▁રિઝર્વ":8214,"▁મૂલ્યાંકન":8215,"▁ગયાં.":8216,"▁લાલચ":8217,"▁સુધારવા":8218,"▁તુલસી":8219,"પરી":8220,"હ,":8221,"▁અતી":8222,"▁ગઠ":8223,"▁કામદારો":8224,"ર્ટિ":8225,"▁નામનું":8226,"કર્મી":8227,"લ્ટી":8228,"▁સુલતા":8229,"શ્રમ":8230,"▁નમસ્કાર":8231,"▁નબળી":8232,"▁ખેતરમાં":8233,"▁કરતા.":8234,"▁ડાબી":8235,"▁દેખાતા":8236,"▁એસોસિ":8237,"▁મહેસાણા":8238,"▁પચ":8239,"ન્થ":8240,"▁ઈન્ટર":8241,"▁મીઠી":8242,"▁બનાવવાનું":8243,"▁મદદરૂપ":8244,"▁ખતમ":8245,"▁સાથે.":8246,"▁બોલમાં":8247,"▁ફાટી":8248,"ગ્ધ":8249,"▁રાજાના":8250,"▁ફેરવી":8251,"▁કાળમાં":8252,"▁ઉદ્યો":8253,"▁અહંકાર":8254,"▁કામની":8255,"▁સમજાય":8256,"▁આતુર":8257,"▁ચકાસણી":8258,"▁અંશ":8259,"▁મુદ્દાઓ":8260,"▁એપાર્ટમેન્ટ":8261,"▁આવશ્યકતા":8262,"▁હૈદરાબાદ":8263,"▁બજ":8264,"▁કોડ":8265,"▁લેટેસ્ટ":8266,"▁પિતાની":8267,"▁કૃત્ય":8268,"▁ગયેલ":8269,"??":8270,"કાંડ":8271,"લેટર":8272,"▁સમ્":8273,"▁નેત્ર":8274,"▁સહકારી":8275,"▁૩૨":8276,"▁ચલાવે":8277,"ઠાં":8278,"વાયેલા":8279,"▁થનાર":8280,"▁વાસના":8281,"▁રાજનીતિ":8282,"▁મંદી":8283,"▁પ્રજાને":8284,"▁કેના":8285,"▁પાપી":8286,"▁લેતાં":8287,"▁પરિમા":8288,"▁મીન":8289,"▁ફોર્":8290,"▁લિટર":8291,"▁પૈસાની":8292,"ડિયમ":8293,"▁ગડ":8294,"ડેશન":8295,"શામાં":8296,"▁ધ્યાને":8297,"▁લાઇફ":8298,"▁યુક્રેન":8299,"▁કમ્પ્યુટર":8300,"▁કોષ":8301,"▁ભાભી":8302,"▁પક્ષો":8303,"▁હાર્ડ":8304,"▁તસ્":8305,"▁લાકડી":8306,"▁ચાઇ":8307,"▁બાળકની":8308,"લગ્ન":8309,"▁હડતા":8310,"▁વિકે":8311,"ારામાં":8312,"પ્રકાશ":8313,"▁ભૂપેન્દ્ર":8314,"▁દર્દીઓની":8315,"▁જંગલમાં":8316,"▁શોધખોળ":8317,"▁સંબ":8318,"▁પરિબળો":8319,"▁ખુદા":8320,"▁જિલ્લાની":8321,"▁શરમ":8322,"▁આગેવાની":8323,"ન્ડા":8324,"▁ચઢા":8325,"▁ચિત્":8326,"શું.\n":8327,"▁ઓફિસમાં":8328,"▁દહે":8329,"▁માતાને":8330,"▁મોદીની":8331,"▁દ્રશ્ય":8332,"▁સંચાલિત":8333,"▁સોંપવામાં":8334,"તે,":8335,"▁જીભ":8336,"▁જાણવું":8337,"▁44":8338,"▁બોલિવૂ":8339,"ડયા":8340,"▁નૌ":8341,"▁નિર્ણયો":8342,"▁માગતા":8343,"▁ઉપાસના":8344,"▁જમણી":8345,"▁પરમેશ્વર":8346,"▁આજી":8347,"▁ભણી":8348,"ગ્ગા":8349,"વવું":8350,"▁પૅ":8351,"▁તેવુ":8352,"▁ભણે":8353,"▁એકમો":8354,"રે.":8355,"▁ભાડે":8356,"▁કિસાન":8357,"▁મેડલ":8358,"વાર્ય":8359,"ભરના":8360,"▁ઉડા":8361,"▁શકશે.\n":8362,"ર્સમાં":8363,"▁કંપનીની":8364,"▁૪૫":8365,"▁ઈન્ડસ્ટ્રી":8366,"ર્થી":8367,"▁સમ્ય":8368,"▁શિખર":8369,"▁જગદી":8370,"દર્શિ":8371,"▁ઉપાડી":8372,"▁ગુને":8373,"▁સીલ":8374,"▁ભાગરૂપે":8375,"▁ચિત્રો":8376,"▁મરજી":8377,"▁દ્રષ્ટિએ":8378,"શિંગ":8379,"▁પધાર":8380,"▁અરુ":8381,"▁કોફી":8382,"▁વર્તુ":8383,"▁એમનું":8384,"▁જીવને":8385,"▁પદા":8386,"▁ગાદી":8387,"▁યથા":8388,"▁સમૃદ્ધિ":8389,"▁રાજીનામું":8390,"▁ક્રાઈમ":8391,"▁મામલતદાર":8392,"▁આરા":8393,"મી.":8394,"▁મેળવીને":8395,"▁કાઉ":8396,"▁લાગ્યો.":8397,"▁ગણિત":8398,"▁જોડાણ":8399,"▁શિક્ષકો":8400,"▁વેચવા":8401,"▁બિલ્ડિંગ":8402,"▁નક્ષત્ર":8403,"ક્રા":8404,"્યાના":8405,"▁સ્તન":8406,"▁કાચા":8407,"▁ગુપ્":8408,"▁બિગ":8409,"▁સુંદરતા":8410,"▁વાં":8411,"વારની":8412,"નાર,":8413,"▁તેમાંના":8414,"▁ઔદ્યોગિક":8415,"▁મંત્રાલયે":8416,"▁વિટામિન":8417,"તવ્ય":8418,"▁સાપ":8419,"▁આવે.\n":8420,"▁કિસ્સો":8421,"▁અઢી":8422,"▁એકાંત":8423,"▁શંકાસ્પદ":8424,"યને":8425,"▁પરિણ":8426,"▁એલર્ટ":8427,"▁વિડિયો":8428,"▁સ્પો":8429,"▁વિશ્વા":8430,"▁ભેળ":8431,"▁કિસ્સાઓ":8432,"બત":8433,"મળ":8434,"▁પછા":8435,"▁બચત":8436,",5":8437,"સતા":8438,"વા.":8439,"▁વળે":8440,"▁ભયાન":8441,"▁સાદા":8442,"▁ડ્રેસ":8443,"્યુલર":8444,"સ્ટિ":8445,"▁દુષ્ક":8446,"▁195":8447,"▁2013":8448,"▁અજમા":8449,"▁વેક્સિન":8450,"▁આચર":8451,"▁પારસી":8452,"કંપ":8453,"ગતિ":8454,"▁લડવા":8455,"▁મળે.":8456,"▁બનાવ્યો":8457,"▁પાર્ટીમાં":8458,"▁ભારતીયો":8459,"▁જોવાનું":8460,"ગીર":8461,"▁રુપિયા":8462,"ગજ":8463,"ચાં":8464,"દારા":8465,"લૅ":8466,"▁અપ્ર":8467,"▁સુન":8468,"▁પોષણ":8469,"▁ઈમ":8470,"▁ફાળો":8471,"▁પુષ્પ":8472,"▁આકાશમાં":8473,"▁સમે":8474,"▁હસ્તે":8475,"▁બનશે":8476,"▁ઢગ":8477,"▁નહી,":8478,"▁વિપુલ":8479,"▁આવી,":8480,"▁બનાવ્યું":8481,"▁પિતાના":8482,"▁બતાવવા":8483,"▁ઠાકોર":8484,"▁નિરાશ":8485,"▁પળ":8486,"નીની":8487,"▁મેળવવામાં":8488,"▁સર્જરી":8489,"▁દર્શાવી":8490,"▁આડે":8491,"▁મેર":8492,"▁ખાટા":8493,"▁શોમાં":8494,"▁વૈષ્ણ":8495,"▁અંધકાર":8496,"ચ્યુ":8497,"બાન":8498,"▁સીતા":8499,"▁શરદ":8500,"▁યોજવામાં":8501,"બહેન":8502,"▁સમર્પિત":8503,"▁જર્":8504,"▁મહેર":8505,"▁વાર્":8506,"▁લેશે.":8507,"▁મહારાષ્ટ્રમાં":8508,"▁એચ.":8509,"▁જુલાઇ":8510,"▁માધ્યમ":8511,"વત્":8512,"▁કટોક":8513,"▁તકો":8514,"નાત":8515,"▁હસી":8516,"▁વિનો":8517,"▁સૌપ્રથમ":8518,"▁મુસાફરો":8519,"▁ચૈતન્ય":8520,"કલા":8521,"▁તાજા":8522,"▁સ્મિત":8523,"▁ચામડી":8524,"▁સુનિશ્ચિત":8525,"બમાં":8526,"▁રત્":8527,"▁પ્રાંત":8528,"કાથી":8529,"▁લેક":8530,"ડેક્સ":8531,"▁સેક્ટર":8532,"નિષ":8533,"રિસ":8534,"▁પ્રોગ્રામ":8535,"▁કૃષ્":8536,"▁દારૂની":8537,"▁એન્ટિ":8538,"▁સંસ":8539,"▁ફેફ":8540,"▁અહેવાલો":8541,"▁જશે,":8542,"▁છેકરા":8543,"▁બહારના":8544,"રિયલ":8545,"▁મ્યુનિસિપલ":8546,"▁કોહલી":8547,"▁રેસ્ટોરન્ટ":8548,"▁બૌદ્ધ":8549,"ખમ":8550,"▁ગણુ":8551,"કાઇ":8552,"▁પેસે":8553,"મિશન":8554,"▁અભિમાન":8555,"▁દુકાનો":8556,"ધૂ":8557,"▁મણ":8558,"▁સૌને":8559,"▁પડે,":8560,"▁ફ્રેન્ડ":8561,"▁દુર્લભ":8562,"▁ઉત્સવ":8563,"▁પ્રતિબિંબ":8564,"શ્મા":8565,"▁પીવા":8566,"▁ક્રુ":8567,"▁સ્ટોરી":8568,"▁જંગલ":8569,"▁અટકાવી":8570,"▁નાગરિકોને":8571,"▁વિધા":8572,"લીસ":8573,"▁પાચન":8574,"▁બીમાર":8575,"▁સુધી,":8576,"▁દરજ્":8577,"▁ભાગોમાં":8578,"▁યુદ્ધમાં":8579,"ઝેશન":8580,"▁પેમેન્ટ":8581,"▁પહેલું":8582,"▁શાસ્ત્રો":8583,"▁મેળવવાની":8584,"▁ગૃહમંત્રી":8585,"▁સંતાન":8586,"▁લોકડાઉ":8587,"▁લેવલ":8588,"▁માળખા":8589,"▁લખાણ":8590,"ટ્રા":8591,"▁આક્રમ":8592,"▁પહેરીને":8593,"▁સ્થાયી":8594,"▁બાતમી":8595,"સમી":8596,"▁રિંગ":8597,"▁તેજી":8598,"▁કિ.":8599,"▁મહાભાર":8600,"વાળા,":8601,"▁મુકવામાં":8602,"▁દુશ્મન":8603,"▁લાકા":8604,"▁માલિકી":8605,"▁સચિન":8606,"▁ઉલ્લંઘન":8607,"▁ક્રીમ":8608,"▁ચોર":8609,"▁ચોરસ":8610,"▁બચવા":8611,"દ્દીન":8612,"▁અમિતાભ":8613,"▁દુર્ગ":8614,"▁અપાર":8615,"▁નાખવામાં":8616,"▁માંડે":8617,"▁મહિનાના":8618,"▁પૂરતા":8619,"િયું":8620,"▁ઝર":8621,"▁પહોંચાડી":8622,"▁ઈંગ્લેન્ડ":8623,"ંતે":8624,"▁કેદી":8625,"સ્કે":8626,"▁કરવી.":8627,"▁કપાસ":8628,"▁રાસ":8629,"▁ઈલેક્ટ":8630,"▁ગેંગ":8631,"▁આરોપીને":8632,"▁ગર્લ":8633,"▁બાંગ્લાદેશ":8634,"તમે":8635,"▁લખ્યા":8636,"ક્ક":8637,"▁સોનું":8638,"▁ચેન્ના":8639,"▁વ્યવસ્થિત":8640,"▁કરાઇ":8641,"▁ધર્મની":8642,"▁આશ્રમ":8643,"▁અંકુ":8644,"સૂરિ":8645,"ધરા":8646,"સ્ત્રા":8647,"▁રાધા":8648,"▁આપશે.\n":8649,"▁સુચના":8650,"▁લેતી":8651,"▁ક્રમમાં":8652,"▁૫.":8653,"▁અભિગમ":8654,"ધર્મો":8655,"પમેન્ટ":8656,"▁તણા":8657,"રૂમમાં":8658,"▁દીપક":8659,"▁ઊભ":8660,"▁નવાઈ":8661,"ઝીલેન્ડ":8662,"▁દાવ":8663,"તીમાં":8664,"▁ફતે":8665,"▁ડેવલ":8666,"▁મુદ્દામાલ":8667,"▁એક્શન":8668,"▁જણાવાયું":8669,"▁સરખામણીમાં":8670,"▁અભિવ્ય":8671,"▁લાંચ":8672,"▁બેઠે":8673,"▁કલર":8674,"▁તીર":8675,"વાળાં":8676,"▁બેન્ડ":8677,"ભાવી":8678,"▁દીવા":8679,"▁ભેગ":8680,"▁મૂક્યો":8681,"▁કોવિડ19":8682,"▁થઈ,":8683,"લનાડુ":8684,"▁પટેલની":8685,"▁અશ્વ":8686,"જેક્શન":8687,"▁પ્રતિજ્ઞા":8688,"▁ગેટ":8689,"▁મહારાષ્ટ્રના":8690,"નેજ":8691,"▁ફિલ્મની":8692,"▁સ્પેશિયલ":8693,"ુ,":8694,"રૂમ":8695,"▁નોંધવામાં":8696,"▁હ્રદય":8697,"▁દાહોદ":8698,"ઢિ":8699,"▁રઘુ":8700,"▁શપથ":8701,"▁બાગ":8702,"▁કોર્પોરેટ":8703,"▁ગિર":8704,"▁સાલ":8705,"▁વારે":8706,"▁કુમા":8707,"મુખી":8708,"▁અંદરથી":8709,"▁પંચા":8710,"▁શરત":8711,"પસંદ":8712,"▁તે\n":8713,"▁સેવામાં":8714,"▁વરસાદને":8715,"▁રિપોર્ટમાં":8716,"▁દસ્તાવેજ":8717,"▁એન્જિનિયર":8718,"▁સજ્":8719,"▁નગરમાં":8720,"▁ઝૂ":8721,"▁બેઠો":8722,"▁નિષ્ફળતા":8723,"▁જોડાયેલ":8724,"નામું":8725,"▁ખંભા":8726,"મણુ":8727,"ત્રિમ":8728,"ળીઓ":8729,"▁હિન્દ":8730,"ર્સ,":8731,"▁બંનેએ":8732,"▁સ્ત્રીએ":8733,"▁રસાય":8734,"▁શરતો":8735,"▁કાઢીને":8736,"▁દુષ્કર્મ":8737,"વસ્તુ":8738,"ૈા":8739,"▁સસ":8740,"▁વિકાર":8741,"▁રાખ્યો":8742,"▁સમજાવી":8743,"▁પોરબંદર":8744,"વદ":8745,"▁તારીખે":8746,"▁ભૂતકાળ":8747,"ભાન":8748,"▁વલ્લભ":8749,"▁મામા":8750,"સ્કી":8751,"▁ડિલિવ":8752,"▁હૈા":8753,"▁અઠવાડિયે":8754,"સાહેબ":8755,"ખ્ય":8756,"દ્રો":8757,"▁રા.":8758,"▁મુળ":8759,"▁શાન્તિ":8760,"▁મધ્યમાં":8761,"▁હીરો":8762,"સ્ટેટ":8763,"▁ઉમેર્યું":8764,"▁કાર્યાલય":8765,"▁ભયાનક":8766,"▁મેડી":8767,"▁વર્ગો":8768,"▁શેરબજાર":8769,"ગુજરા":8770,"▁પુનરાવ":8771,"▁ઃ":8772,"▁છેડે":8773,"▁તરફે":8774,"▁રિલાયન્સ":8775,"બેર":8776,"હની":8777,"▁તર્ક":8778,"▁વજ":8779,"▁કેક":8780,"વેદ":8781,"▁લોખંડ":8782,"▁પહેાં":8783,"મ્પલ":8784,"▁યોજાઈ":8785,"▁એકત્રિત":8786,"▁ખ્રિસ્તી":8787,"▁નષ્ટ":8788,"▁પ્રેક્ટ":8789,"▁પાર્કિંગ":8790,"▁સ્થિતિને":8791,"▁ઓપરે":8792,"17":8793,"પાના":8794,"રુપ":8795,"▁વિશ્લેષણ":8796,"▁દરખાસ્ત":8797,"▁તારૂ":8798,"▁મુન":8799,"▁દેસાઈ":8800,"▁ગાળી":8801,"ફના":8802,"▁વસ્ત્રો":8803,"▁પાથ":8804,"▁ઘટીને":8805,"▁ભાવા":8806,"▁હવે,":8807,"▁અનિવાર્ય":8808,"▁ડેપ્યુટી":8809,"▁ગળા":8810,"▁ઉઘા":8811,"▁લેશે":8812,"▁ઇમે":8813,"▁નેગે":8814,"▁શોખ":8815,"▁મિલ્":8816,"▁પ્રદર્શ":8817,"▁મેઘા":8818,"▁ખેત":8819,"સનીય":8820,"▁ઉત્પાદક":8821,"▁ટાઈમ":8822,"▁સરસ્વતી":8823,"▁2012":8824,"▁પૂર્વક":8825,"25":8826,"ખત":8827,"નાઈ":8828,"લાપ":8829,"ણીમાં":8830,"જુરી":8831,"▁બધે":8832,"▁ધીમી":8833,"ુલ":8834,"▁ત્ય":8835,"લીયા":8836,"▁પાઈ":8837,"▁રંગી":8838,"▁લક્ષ્મ":8839,"▁અનુભવે":8840,"▁કથિત":8841,"જન્સી":8842,"▁આપ્યું.":8843,"▁ઇત્યાદિ":8844,"▁લાગતી":8845,"▁નિષ્ણાત":8846,"▁જોયો":8847,"▁હોટે":8848,"▁દ્વેષ":8849,"▁ગુલામ":8850,"▁મૌન":8851,"એસ.":8852,"▁ઇતિહાસમાં":8853,"શકર":8854,"▁સુરેશ":8855,"▁રાખવાનું":8856,"▁બનાવની":8857,"▁અગાઉના":8858,"▁વિશ્ર":8859,"▁ઝટ":8860,"▁કિડની":8861,"▁ઉપરોક્ત":8862,"ધના":8863,"▁કેઃ":8864,"લ્સને":8865,"જીનું":8866,"સ્ટિટ":8867,"▁બુદ્ધ":8868,"▁વળી,":8869,"યામ":8870,"ડાટ":8871,"▁નિવૃત્ત":8872,"▁આવેલાં":8873,"▁મ્હે":8874,"▁સર્જાયો":8875,"▁સ્પીડ":8876,"ડીઝ":8877,"▁ઘડિયા":8878,"▁ઈશ":8879,"▁મહેશ":8880,"▁સેક્રેટરી":8881,"60":8882,"▁જાં":8883,"રાજે":8884,"▁લગી":8885,"▁ક્ષય":8886,"▁થોડીવાર":8887,"▁સવારના":8888,"▁લગ્નમાં":8889,"▁પ્રદૂ":8890,"▁પોલ":8891,"▁જીતે":8892,"▁જવાને":8893,"▁કારણે,":8894,"▁કરવું,":8895,"▁આવતીકાલે":8896,"▁તારો":8897,"તા.\n":8898,"▁વિવા":8899,"કામના":8900,"▁આવડ":8901,"▁પાછળના":8902,"▁ભગવાનને":8903,"▁મળેલ":8904,"▁વૈરાગ્ય":8905,"▁આદત":8906,"▁મોંઘવારી":8907,"▁શ્રો":8908,"સાસ":8909,"▁બોલિંગ":8910,"▁બનાવવાનો":8911,"▁દિવાલ":8912,"▁ગાંઠ":8913,"▁નિમણૂક":8914,"▁તવ":8915,"▁નંદ":8916,"▁જાતીય":8917,"દ્વારા":8918,"▁કેટલાં":8919,"▁કોરોનાને":8920,"▁કલાકની":8921,"▁વળગી":8922,"▁આઝાદી":8923,"ઇસ":8924,"▁વધશે.":8925,"શાસ":8926,"▁રેન્":8927,"▁ચોપ":8928,"▁સર્કલ":8929,"▁યાદવ":8930,"▁તરતજ":8931,"▁ફ્રેન્ચ":8932,"▁નગરપાલિકા":8933,"બ્યુલ":8934,"ખાર":8935,"▁પતા":8936,"▁જસ":8937,"▁બદા":8938,"ડાઓ":8939,"▁આઈ.":8940,"▁લાઈક":8941,"▁સહાયક":8942,"▁પ્રતિષ્ઠિત":8943,"▁જેમા":8944,"કીંગ":8945,"▁ઇચ્છે":8946,"લિસ્ટ":8947,"▁શીત":8948,"▁જોડાઈ":8949,"અમે":8950,"▁ઉગા":8951,"▁આવુ":8952,"▁મેગા":8953,"▁બિર":8954,"▁સ્વાર્થ":8955,"▁દર્દીને":8956,"▁ગુણધર્મો":8957,"દશા":8958,"▁નકલી":8959,"રીંગ":8960,"▁યુપી":8961,"...\n":8962,"▁400":8963,"▁પ્રથમ,":8964,"▁ટાટા":8965,"▁જગ્યાઓ":8966,"▁મંદિરની":8967,"ગર્":8968,"▁વરુ":8969,"▁ઉકા":8970,"▁સાથે.\n":8971,"▁ક્ષત્ર":8972,"▁ત્યારપછી":8973,"મહે":8974,"▁ફરે":8975,"▁કિનારા":8976,"▁તુજ":8977,"▁ચુસ્ત":8978,"▁જરૂરિયાતો":8979,"▁ડૂબી":8980,"લક્ષ":8981,"▁રૉ":8982,"▁કારખા":8983,"▁ટાર્":8984,"વારિક":8985,"▁૩૭":8986,"▁કબજો":8987,"▁અસ્":8988,"▁આહ":8989,"ક્કો":8990,"▁ટકાથી":8991,"ટ્ટો":8992,"▁લાઈન":8993,"પર્":8994,"ભેર":8995,"▁માંડીને":8996,"▁સેલિ":8997,"▁પીપ":8998,"મુક્ત":8999,"▁સૌંદર્ય":9000,"ચ,":9001,"▁પ્રાય":9002,"▁ટૂં":9003,"પેશ":9004,"▁ચોખા":9005,"▁અવગ":9006,"▁વોટ્સએ":9007,"શ્રીએ":9008,"કાર્પણ":9009,"▁કુશળ":9010,"વણુ":9011,"સનું":9012,"▁રતન":9013,"નોના":9014,"સીબે":9015,"▁માળખું":9016,"▁માર્કેટિંગ":9017,"▁પાર્ટનર":9018,"▁કમર":9019,"▁પ્યાર":9020,"▁પરસે":9021,"▁ફેલાઈ":9022,"▁43":9023,"▁ભગવાનના":9024,"▁પ્રચલિત":9025,"▁ગવર્નર":9026,"૧૫":9027,"▁માના":9028,"ફાઈ":9029,"▁સંપ્રદાય":9030,"▁વેલ":9031,"▁રોજગારી":9032,"▁વિચારા":9033,"▁નિવેદનમાં":9034,"▁અળ":9035,"▁રોમાં":9036,"▁અપરાધ":9037,"▁કાનૂની":9038,"▁પાઉ":9039,"▁પોલીસમાં":9040,"▁સમાજની":9041,"▁બસો":9042,"▁રામાય":9043,"▁સિનિયર":9044,"▁જાણું":9045,"▁મહાવીર":9046,"વય":9047,"▁નફા":9048,"▁દહીં":9049,"▁ભટ્":9050,"▁ઘસ":9051,"ડેલા":9052,"દ્ધાં":9053,"▁કચરો":9054,"▁આત્મવિશ્વાસ":9055,"કથી":9056,"▁પ્રવી":9057,"પીને":9058,"▁કારણથી":9059,"કુમારી":9060,"▁વિવેચન":9061,"▁વહીવટ":9062,"▁અવસ્થામાં":9063,"▁ઇંગ્લેન્ડ":9064,"▁અની":9065,"▁ખેર":9066,"જીવી":9067,"▁સે.":9068,"▁ફ્લાઈ":9069,"▁ઉછેર":9070,"થના":9071,"▁રૂપિયાનું":9072,"▁પત્રમાં":9073,"▁અંગ્રેજો":9074,"▁પતંગ":9075,"બર્ગ":9076,"▁એડિ":9077,"તીએ":9078,"▁કરવાં":9079,"▁કહેતાં":9080,"પુરૂ":9081,"▁પ્રેમથી":9082,"▁આત્માની":9083,"▁નાખીને":9084,"▁વાપરવા":9085,"▁ી":9086,"▁ઇશ":9087,"▁મેળવો":9088,"▁અવય":9089,"▁મનુષ્યને":9090,"▁સળગ":9091,"▁ફર્નિ":9092,"તારા":9093,"▁તાલિ":9094,"▁બોલ્ડ":9095,"▁રિપ":9096,"▁બહારથી":9097,"▁પૂછવામાં":9098,"▁ધર્મો":9099,"▁માહા":9100,"▁સાગ":9101,"▁નિશાની":9102,"▁પેહે":9103,"▁મળેલા":9104,"▁194":9105,"▁બ્લા":9106,"▁મનોજ":9107,"ણથી":9108,"▁સરા":9109,"નારો":9110,"સ્કર":9111,"ત્રિક":9112,"▁કુર":9113,"ન્સને":9114,"▁શિષ":9115,"શો,":9116,"▁ભગવાને":9117,"કડું":9118,"▁મામલામાં":9119,"▁ગ્લે":9120,"▁યુનિવર્સિટીના":9121,"રૂખ":9122,"▁માનસ":9123,"▁અગાઉથી":9124,"▁સમયગાળો":9125,"▁કોન્સ્ટે":9126,"▁કમન":9127,"▁મંચ":9128,"▁શકશો.":9129,"▁મૂકો":9130,"મરજન્સી":9131,"▁કર્મો":9132,"▁લાવ્યા":9133,"બાના":9134,"▁દુખા":9135,"ધમ":9136,"▁આવાસ":9137,"વેા":9138,"▁એકમ":9139,"▁મુલ":9140,"▁રૂટ":9141,"▁તુમ":9142,"▁સોસાયટીમાં":9143,"▁અંડર":9144,"કળા":9145,"▁ઞ":9146,"▁ગાર":9147,"▁લાગ્યા,":9148,"▁ફાસ્ટ":9149,"▁સ્ટેજ":9150,"▁સાંજના":9151,"▁સુની":9152,"યે,":9153,"▁સોનિયા":9154,"▁જેમકે":9155,"▁અવ્ય":9156,"▁ભેા":9157,"▁ફ્લાઇટ":9158,"ધમાં":9159,"▁ક્યુ":9160,"▁હૈાય":9161,"▁પાંડે":9162,"▁પ્રોફેસર":9163,"▁અટકાયત":9164,"પણા":9165,"▁વનમાં":9166,"યું.":9167,"▁પતિએ":9168,"▁પાદશાહ":9169,"▁પરીક્ષામાં":9170,"▁મનીષ":9171,"▁પંથકમાં":9172,"▁પ્રેમની":9173,"▁મોદીને":9174,"બરી":9175,"્યુત":9176,"▁46":9177,"▁બ્લે":9178,"▁સ્પષ્ટતા":9179,"▁ઇન્ડિયન":9180,"▁પ્રમોશન":9181,"▁સમારંભ":9182,"▁મસ્જિ":9183,"વવાનું":9184,"▁એલે":9185,"▁મીની":9186,"▁શ્રી.":9187,"▁સૂચન":9188,"ભાવસ્થા":9189,"▁ગોંડલ":9190,"▁ધિ":9191,"▁પાંચમા":9192,"▁બહાદુર":9193,"▁જ્યોતિષ":9194,"▁કરવી,":9195,"▁ગ્રહો":9196,"▁એમ્બ્યુલ":9197,"▁દરોડા":9198,"▁સ્રો":9199,"▁આસિ":9200,"▁હાઇડ":9201,"▁શિલા":9202,"▁પ્લોટ":9203,"▁ચૌધ":9204,"▁ઉનાળામાં":9205,"સિંહે":9206,"ખરી":9207,"ગારે":9208,"▁પ્રબળ":9209,"▁આવવું":9210,"લ્વર":9211,"▁વિનાશ":9212,"▁ઘાસ":9213,"▁પાવડર":9214,"▁જજ":9215,"▁ધર્મા":9216,"▁ઇટા":9217,"▁બદલાવ":9218,"▁નિર્ધારિત":9219,"▁કુંવર":9220,"▁39":9221,"▁પ્રેક્ષ":9222,"▁માતાએ":9223,"▁ફ્લેટ":9224,"▁ધર્મે":9225,"▁સ્કૂલમાં":9226,"ફ્રાસ્ટ્ર":9227,"▁ઉજ્જ":9228,"સ્થાપિત":9229,"▁લાભાર્થી":9230,"▁વિદેશમાં":9231,"▁ઉંમરના":9232,"▁સૈનિકો":9233,"▁ડ્રાઈવર":9234,"▁વાડી":9235,"▁પુસ્તકા":9236,"▁પ્રમાણપત્ર":9237,"▁જુનાગઢ":9238,"ંડે":9239,"ધાં":9240,"▁દળ":9241,"કરાર":9242,"▁રાજાની":9243,"▁ભાજપમાં":9244,"▁છૂટી":9245,"કનો":9246,"▁રસા":9247,"▁ધૈ":9248,"▁લો.\n":9249,"▁અનુરૂપ":9250,"▁પક્ષમાં":9251,"▁૬.":9252,"▁ભુજ":9253,"ઠ્ઠ":9254,"▁નળ":9255,"લાન":9256,"▁મુકે":9257,"▁મોઢ":9258,"દાના":9259,"▁ગોપાલ":9260,"▁બંનેની":9261,"▁કપિલ":9262,"▁ઘરેથી":9263,"▁વાદળી":9264,"▁મસાલા":9265,"▁પરિષદ":9266,"▁તૂટ":9267,"▁દુષ્":9268,"▁રેશ":9269,"▁ટીમની":9270,"▁56":9271,"▁સ્ત્રીઓને":9272,"ભવતી":9273,"▁તલવાર":9274,"મૂલ":9275,"▁પાતાને":9276,"▁લાગશે":9277,"▁સમજવું":9278,"▁મિત્રતા":9279,"બસ્ત":9280,"▁માતાની":9281,"▁વાતે":9282,"▁ઢાંક":9283,"▁ચુકી":9284,"▁વયના":9285,"▁બ્રહ્માં":9286,"ચૂ":9287,"સરી":9288,"▁રૈ":9289,"▁ઉસ":9290,"શ્ન":9291,"▁યુક્ત":9292,"▁જાળવણી":9293,"▁કોલકા":9294,"▁પંડ્યા":9295,"▁પ્રતિનિધિત્વ":9296,"૧૪":9297,"▁દલિત":9298,"▁ફટા":9299,"▁વિચારમાં":9300,"▁માણસની":9301,"▁જંગલી":9302,"૧૭":9303,"▁જયા":9304,"▁જયાં":9305,"કાશ્મી":9306,"▁ધરે":9307,"▁કેન્દ્રમાં":9308,"▁દીધા.":9309,"▁ચારેય":9310,"▁અસામાન્ય":9311,"▁પચાસ":9312,"▁જીએસટી":9313,"▁કશી":9314,"▁છત્ર":9315,"▁દિવ્યા":9316,"▁બોય":9317,"▁હિતે":9318,"▁બંધા":9319,"▁કૃત્રિમ":9320,"▁બોલ્યા":9321,"▁રમેશ":9322,"▁શંક":9323,"▁અને,":9324,"▁નાઇટ":9325,"▁લાખા":9326,"▁લીડ":9327,"▁રંગના":9328,"▁મેરે":9329,"▁મહિમા":9330,"▁બહુજ":9331,"▁દિલ્હીની":9332,"▁મકાનમાં":9333,"તત્ત્વ":9334,"▁સુદ":9335,"▁સિઝનમાં":9336,"▁શિર":9337,"▁થયું,":9338,"રેખા":9339,"▁તાલ":9340,"▁સોનાના":9341,"તરની":9342,"▁અપાય":9343,"▁કલક":9344,"▁દર્શાવવામાં":9345,"▁પારિવારિક":9346,"▁કડી":9347,"▁મોઢા":9348,"▁મનના":9349,"▁વિષયમાં":9350,"પક્ષી":9351,"હરા":9352,"▁દ્રા":9353,"▁ભાં":9354,"▁યંત્ર":9355,"▁ડોકટ":9356,"▁ક્રાઇમ":9357,"▁તબીબો":9358,"▁પિતૃ":9359,"્ડ":9360,"કીના":9361,"▁ઇનિંગ":9362,"▁હાઇકોર્ટ":9363,"▁અઠવાડિયામાં":9364,"▁કામકાજ":9365,"16":9366,"રીય":9367,"▁એકી":9368,"▁એકલી":9369,"▁નારા":9370,"▁સેને":9371,"▁મારતા":9372,"▁આત્માના":9373,"▁ઉંચી":9374,"સાઇડ":9375,"▁લેનાર":9376,"▁જેમના":9377,"▁મહેમાન":9378,"▁ઉમેરી":9379,"▁શ્રેય":9380,"▁ઝુંબે":9381,"▁માળે":9382,"▁વાંક":9383,"▁બોમ્બ":9384,"દેશિક":9385,"▁શોર્ટ":9386,"▁નિયમન":9387,"▁જોડાયેલી":9388,"▁હઝર":9389,"વીય":9390,"ડેન્ટ":9391,"પ્ટર":9392,"▁કુમારે":9393,"▁ક્લાસ":9394,"▁ઝડપે":9395,"▁મનાય":9396,"▁શ્રેણીમાં":9397,"▁નૈતિક":9398,"ંશી":9399,"▁આવકાર":9400,"▁1000":9401,"પ્રો":9402,"▁મુકાબ":9403,"▁ઉપકરણો":9404,"જાન":9405,"▁તલા":9406,"▁એટી":9407,"લ્લુ":9408,"▁લાશ":9409,"▁બાંધે":9410,"▁આર્મી":9411,"▁કરીશું.":9412,"▁જણાવેલ":9413,"▁પટેલને":9414,"▁કર્તવ્ય":9415,"▁ગ્રામ\n":9416,"▁ઉદ્યોગો":9417,"70":9418,"80":9419,"▁રનની":9420,"▁દત્ત":9421,"▁વિ.":9422,"▁કહે,":9423,"▁થયેા":9424,"▁પાંચે":9425,"▁ટોચના":9426,"▁પટેલના":9427,"▁ફ્લોર":9428,"▁નમૂના":9429,"▁જબરદ":9430,"એએ":9431,"▁સત્સ":9432,"મેટા":9433,"▁49":9434,"▁શાળાઓ":9435,"▁યથાવત":9436,"જરૂ":9437,"યિક":9438,"▁પઠા":9439,"▁શૃ":9440,"▁ખાવ":9441,"▁સ્માર":9442,"▁કાયા":9443,"પ્રમુખ":9444,"▁2011":9445,"▁તેવાં":9446,"▁નહોતો.":9447,"▁આંખમાં":9448,"▁હાજરીમાં":9449,"▁રાજસ્થાનના":9450,"▁સૂત્રોના":9451,"▁ફ્રન્ટ":9452,"મણા":9453,"ૃશ્ય":9454,"▁મટી":9455,"▁લય":9456,"▁રાતના":9457,"કોટ":9458,"▁કોરોનાથી":9459,"▁રોગપ્રતિ":9460,"▁મજાક":9461,"▁રાજકારણ":9462,"દ્વાર":9463,"▁લેવો":9464,"ભાઈને":9465,"▁ફરમા":9466,"▁ટ્રમ્પ":9467,"▁કૉલ":9468,"▁બતાવવામાં":9469,"▁કાના":9470,"▁સેલ્સ":9471,"મિટ":9472,"▁રોજિ":9473,"ગ્ને":9474,"▁ગેરહાજરી":9475,"▁આપત્તિ":9476,"▁બાલા":9477,"▁લેવાથી":9478,"▁શકયા":9479,"▁ઊતર":9480,"▁ગ્રામી":9481,"▁જમણા":9482,"▁બદલવા":9483,"▁સ્થાપન":9484,"▁ઇન્ટરનેશનલ":9485,"▁એડવા":9486,"▁ખરૂં":9487,"▁કોર":9488,"▁કહેશે":9489,"▁પીળા":9490,"▁પીવાથી":9491,"▁બિમારી":9492,"▁કરોડથી":9493,"▁તત્પર":9494,"▁હતુ.\n":9495,"▁આશંકા":9496,"▁કાંઈક":9497,"▁માધ્યમિક":9498,"▁પેકેજ":9499,"▁ત્યારે,":9500,"▁નોન":9501,"ન્દર":9502,"▁ગ્રો":9503,"રીઓ":9504,"▁પાસા":9505,"▁ખાલ":9506,"▁તહેવારો":9507,"નન":9508,"ભવી":9509,"▁રાઈ":9510,"▁દા.":9511,"▁કરતા,":9512,"▁ગોર":9513,"▁હમેશાં":9514,"▁કટા":9515,"▁ડગ":9516,"▁કોંગ્રેસને":9517,"▁મોરબીના":9518,"▁કૌભાંડ":9519,"ૌકિક":9520,"▁કારા":9521,"▁કોઈના":9522,"▁નાંખે":9523,"▁ઠાકરે":9524,"ધ્વ":9525,"▁વાટ":9526,"▁તેનામાં":9527,"▁પીર":9528,"▁પાર્થ":9529,"▁અભિષેક":9530,"▁મલ્ટી":9531,"દું":9532,"▁ઓર્ગે":9533,"▁તમારૂં":9534,"▁કહેવાય.":9535,"▁એક્સપ":9536,"▁પઢ":9537,"▁હની":9538,"▁આપણો":9539,"▁નાજ":9540,"▁મેષ":9541,"▁મીટિંગ":9542,"▁શોષણ":9543,"વ્યૂ":9544,"▁મહાનુ":9545,"▁૮૦":9546,"વામા":9547,"▁હરણ":9548,"▁આપ્યો.":9549,"▁મુદ્રા":9550,"▁વરસે":9551,"શ્રુ":9552,"▁ફિલ્મનું":9553,"▁કોલેજમાં":9554,"▁સંભાળી":9555,"▁પાંદડા":9556,"▁કંગના":9557,"▁ખતરો":9558,"મેર":9559,"▁આવવાનું":9560,"▁સેલ્":9561,"▁ભૂકંપ":9562,"▁દિવાલો":9563,"▁52":9564,"▁બિલા":9565,"▁લાગણીઓ":9566,"▁જોખમી":9567,"▁ઓડિ":9568,"▁ખાવાની":9569,"▁તેઓના":9570,"બેક":9571,"▁ચીનની":9572,"▁એકાગ્ર":9573,"▁માનીએ":9574,"▁તટ":9575,"▁પ્રાદેશિક":9576,"▁અહીંના":9577,"▁ચીની":9578,"▁કાંઠે":9579,"▁વિદ્યાર્થીઓએ":9580,"▁ફરિયાદો":9581,"▁સંસ્થાના":9582,"લિય":9583,"▁સાભ":9584,"▁લોકાર્પણ":9585,"▁સિદ્ધા":9586,"ણુને":9587,"▁ઝિ":9588,"▁પહેલાં,":9589,"▁હસ્તા":9590,"▁રચે":9591,"▁તેર":9592,"▁દવે":9593,"▁હોતી":9594,"▁અડચ":9595,"▁યુવતીને":9596,"▁એપિ":9597,"▁ભઠ્ઠી":9598,"▁પેશા":9599,"▁વેક્સી":9600,"▁કલાકો":9601,"▁નોંધાઈ":9602,"▁વર્ગના":9603,"▁ઝઘડો":9604,"એમાં":9605,"▁સવિ":9606,"▁રાસાય":9607,"્રાઈ":9608,"▁પરિવારે":9609,"▁બાદશાહ":9610,"▁થયા.\n":9611,"છેડા":9612,"▁એ,":9613,"▁વાસ્તે":9614,"▁મેરા":9615,"▁દીવાલ":9616,"▁સરકારમાં":9617,"▁ચિહ્ન":9618,"▁લીધાં":9619,"▁8.":9620,"કાંક્ષા":9621,"▁ચુંટણી":9622,"▁શહીદ":9623,"છું":9624,"જન્ય":9625,"▁મસ":9626,"▁વયે":9627,"▁બેઝ":9628,"▁પૂ.":9629,"▁જુવાન":9630,"▁ચૂપ":9631,"▁ઈન્ડિયન":9632,"▁ડ્રાઇવ":9633,"▁કડવા":9634,"▁સૉ":9635,"▁નિદ્રા":9636,"મ્મત":9637,"્સની":9638,"▁પ્રતિભાવ":9639,"▁ફરક":9640,"▁કાંટા":9641,"▁યુવકે":9642,"▁શહેરો":9643,"▁ગયેા.":9644,"૧૬":9645,"▁વાવ":9646,"▁ઉપયાગ":9647,"▁મહત્વનો":9648,"▁પંક્તિ":9649,"▁નિર્માતા":9650,"▁સાયન્સ":9651,"▁ઊંચાઈ":9652,"શંક":9653,"રેન":9654,"▁નિબંધ":9655,"પાને":9656,"ળાઈ":9657,"શોભ":9658,"▁થોડાક":9659,"▁દુનિયાની":9660,"▁કમિટી":9661,"આને":9662,"▁માજી":9663,"ન્જર":9664,"▁વિરામ":9665,"▁સ્ફ":9666,"▁કરીશ.":9667,"▁ધસી":9668,"▁ગાળામાં":9669,"▁રેસ":9670,"▁બોન્ડ":9671,"▁રૂપાંતર":9672,"▁પ્રોસે":9673,"▁શાહરૂખ":9674,"▁ભૂતકાળમાં":9675,"▁મોટાભાગની":9676,"▁ચુક્યા":9677,"▁રસોઈ":9678,"▁ખારાક":9679,"પાર્ટમેન્ટ":9680,"▁વતની":9681,"▁સાંધા":9682,"▁બેઉ":9683,"ળીની":9684,"▁અંતરે":9685,"▁અસમ":9686,"▁અમીર":9687,"ાએ":9688,"▁મકવા":9689,"▁સમ્રા":9690,"▁મળતો":9691,"▁મનસુખ":9692,"▁મેળવ્યા":9693,"▁સદીના":9694,"લૂ":9695,"લેશ્વર":9696,"▁ઓલિ":9697,"યુર":9698,"▁બધાની":9699,"▁મુંબઈના":9700,"▁શિયાળામાં":9701,"▁અસ્પ":9702,"▁પાચ":9703,"▁મળશે,":9704,"▁સત્યા":9705,"લાયક":9706,"▁સ્મશાન":9707,"આમ":9708,"▁અન્ને":9709,"▁આયા":9710,"▁કીર્તિ":9711,"ૉક":9712,"▁આપ્યા.":9713,"જાતિ":9714,"દેવે":9715,"▁અધ્યા":9716,"▁3,":9717,"દારને":9718,"▁દેખાતી":9719,"▁અંગ્રેજ":9720,"▁અને\n":9721,"▁આવ્યેા":9722,"▁નિંદા":9723,"▁તોફા":9724,"સી.":9725,"▁રીક્ષા":9726,"▁કહેવુ":9727,"▁ભાગની":9728,"▁કંપનીને":9729,"ભર્યા":9730,"▁વિશાલ":9731,"▁ગુન્હા":9732,"▁મરે":9733,"▁પ્રભારી":9734,"▁લાડ":9735,"▁સંડો":9736,"પી,":9737,"શિયમ":9738,"▁કોંગ્રેસની":9739,"▁મથક":9740,"▁જન્મદિવસ":9741,"▁નિવારણ":9742,"▁ડિલિવરી":9743,"▁વહ":9744,"▁બેક્ટે":9745,"▁ઈચ્છે":9746,"▁દ્વારા,":9747,"▁સર્વા":9748,"▁લગાડ":9749,"▁પુરવઠા":9750,"ષણા":9751,"ંતો":9752,"▁લીટર":9753,"સિદ્ધિ":9754,"▁અધિકારો":9755,"▁ધોવા":9756,"▁આરોપીઓને":9757,"▁ખુબજ":9758,"▁પછ":9759,"્યારા":9760,"▁ઉજા":9761,"▁પાત્રો":9762,"▁મૂંઝ":9763,"▁બહુમતી":9764,"▁ઉમેદવારી":9765,"▁વલસાડ":9766,"પત્ની":9767,"▁વધા":9768,"▁ગુર":9769,"્સને":9770,"▁આરોપો":9771,"▁માધવ":9772,"▁સદીમાં":9773,"▁સમિતિના":9774,"▁પર્યાપ્ત":9775,"માઈ":9776,"▁પધ":9777,"▁હાન":9778,"મેં":9779,"▁ધાન":9780,"વિજ્ઞાન":9781,"▁રેડિયો":9782,"સુમ":9783,"▁જોરથી":9784,"▁એન્ટર":9785,"▁નેહા":9786,"▁47":9787,"▁વસ્તુને":9788,"▁ધરમ":9789,"▁માર્ગદર્શિ":9790,"▁ઝીણી":9791,"▁ક્લાસિક":9792,"▁પોતપો":9793,"અમ":9794,"રીક":9795,"▁ડીઝલ":9796,"સંગત":9797,"▁સેવક":9798,"▁પાડીને":9799,"▁છુટા":9800,"▁સાહેબે":9801,"▁સ્વચ્છતા":9802,"▁મૂર્ખ":9803,"13":9804,"▁કંડ":9805,"▁લેખો":9806,"▁તાજી":9807,"▁કામને":9808,"્સના":9809,"▁પાણીને":9810,"▁ગોવિંદ":9811,"▁૩૮":9812,"▁પરાજય":9813,"▁પાલિકા":9814,"▁બેટ્સમેન":9815,"સવા":9816,"▁આક્રમણ":9817,"સ્તિક":9818,"ટોપ":9819,"▁યાર્":9820,"▁ફાઇલ":9821,"▁ખાનની":9822,"▁બાંધવામાં":9823,"▁તિરસ્કાર":9824,"સેલ":9825,"▁વોર":9826,"▁પતિની":9827,"▁ગ્લોબલ":9828,"ળિયા":9829,"▁સાકાર":9830,"▁કાળે":9831,"ડાથી":9832,"▁આવી.\n":9833,"▁રોય":9834,"ર્મલ":9835,"▁ડેટ":9836,"▁પ્રક્રિયામાં":9837,"▁ધર્મને":9838,"ર્નામેન્ટ":9839,"▁વિનોદ":9840,"ફ્ર":9841,"▁હૂં":9842,"જીભાઇ":9843,"▁કરે.\n":9844,"▁વિશેની":9845,"મુના":9846,"કર,":9847,"▁પૃ.":9848,"ટિક્સ":9849,"▁આઇ.":9850,"▁ચલાવવામાં":9851,"▁કચ્છમાં":9852,"▁સાહસ":9853,"▁આલ્બ":9854,"ટલે":9855,"▁શરણ":9856,"▁સિઝન":9857,"▁૪૮":9858,"▁હૈ,":9859,"▁પૂરતું":9860,"▁ગૂગલ":9861,"▁નીચલા":9862,"▁વાનગીઓ":9863,"▁નવરાત્રી":9864,"▁વિન્ડો":9865,"▁સ્પા":9866,"▁સુશોભ":9867,"▁સમાજને":9868,"▁પુરસ્કાર":9869,"નવી":9870,"▁જ્યુ":9871,"સેક":9872,"▁મારફત":9873,"▁લોકશાહી":9874,"▁ચૂકવવા":9875,"▁વાતચીતમાં":9876,"કલ્પિક":9877,"▁લિમિટેડ":9878,"ગૃહ":9879,"૨૫":9880,"▁કેલ્":9881,"▁ગુડ":9882,"▁રાખવાનો":9883,"બામાં":9884,"▁જેમ,":9885,"▁મનપસંદ":9886,"▁પ્રયાગ":9887,"▁મ્હાર":9888,"સભર":9889,"▁દીધું.":9890,"▁અશુભ":9891,"▁અપૂર્વ":9892,"ડાયા":9893,"▁વર્ગી":9894,"▁રેગ":9895,"▁ચાલતું":9896,"▁કીધું":9897,"▁અડધો":9898,"▁લાગ્યા.\n":9899,"▁પાઠવી":9900,"▁ઉત્તરાખંડ":9901,"▁ઈતિહાસ":9902,"▁બંદો":9903,"▁દઇ":9904,"▁ફાર":9905,"ંગાર":9906,"▁વાલ્":9907,"ટીક":9908,"▁દિનેશ":9909,"▁શેડ":9910,"▁૪૪":9911,"▁સાયકલ":9912,"▁કાળજીપૂર્વક":9913,"રીથી":9914,"▁પાતા":9915,"▁ગુફા":9916,"મિત્ર":9917,"▁શુષ્ક":9918,"▁આનદ":9919,"▁શીખવા":9920,"▁ચૌધરી":9921,"▁ચલાવતા":9922,"કાર્ડ":9923,"▁વાગી":9924,"યેલું":9925,"▁બોડી":9926,"યોગ્ય":9927,"▁અસલ":9928,"▁જરુર":9929,"▁ઘૂંટ":9930,"આના":9931,"▁સસ્તા":9932,"▁વગ":9933,"▁એનુ":9934,"▁વિઘ":9935,"ંદના":9936,"▁ચેતના":9937,"▁આગળના":9938,"▁થયેલું":9939,"▁ગઇકાલે":9940,"▁કમળ":9941,"▁મૈત્રી":9942,"▁ધ્રુવ":9943,"▁હથિય":9944,"▁અયો":9945,"▁વગરના":9946,"▁પત્રકારો":9947,"▁સાચો":9948,"▁ગ્રામીણ":9949,"ાજ":9950,"▁રડી":9951,"▁ચુંબ":9952,"તિયા":9953,"ાવતી":9954,"▁સંકો":9955,"▁આપીએ":9956,"▁પહોંચતા":9957,"▁જૂથો":9958,"▁રંગની":9959,"▁સહીત":9960,"▁ટ્યુબ":9961,"▁થય":9962,"▁હોઠ":9963,"▁ઉપજ":9964,"ન્યાસ":9965,"▁વસવાટ":9966,"▁250":9967,"▁નિરાકરણ":9968,"▁....":9969,"▁ગંદ":9970,"▁સોનાની":9971,"▁અમદાવાદની":9972,"કર્મ":9973,"ોનો":9974,"વાએ":9975,"▁મૉ":9976,"ન્તર":9977,"▁ઉપલા":9978,"▁દે.":9979,"▁ક્લો":9980,"▁પાસેના":9981,"▁તરફ,":9982,"▁નિયત":9983,"▁૭૦":9984,"▁અનુભવો":9985,"▁બોર્ડર":9986,"▁સિક્યો":9987,"▁હિસાબ":9988,"▁સંમતિ":9989,"▁સિંગલ":9990,"▁ટાળવા":9991,"▁અલા":9992,"માંજ":9993,"▁મલે":9994,"વિચાર":9995,"▁પેટે":9996,"▁ફેક":9997,"▁ઈન્સ્ટાગ્રામ":9998,"ઝરી":9999,"ફેર":10000,"▁સરી":10001,"▁રક્ષ":10002,"▁સાડી":10003,"ટીઓ":10004,"▁મીરા":10005,"▁ચૂંટણીના":10006,"▁રાજેન્દ્ર":10007,"▁એક્સપ્રેસ":10008,"એથી":10009,"▁અકા":10010,"▁વફા":10011,"▁તે.":10012,"▁નથી\n":10013,"પેટ":10014,"▁54":10015,"▁વૈભવ":10016,"▁અમેરિકાની":10017,"▁દીકરીને":10018,"▁સાવચેતી":10019,"અન":10020,"▁એમે":10021,"▁કોમે":10022,"▁આવેદન":10023,"્યેા.":10024,"▁જમ્મુકાશ્મી":10025,"▁નકારી":10026,"બુદ્ધિ":10027,"▁ઘટાડે":10028,"▁ભરેલું":10029,"સદો":10030,"રાજી":10031,"▁કારની":10032,"▁મેલી":10033,"▁નિવાસી":10034,"▁નિફ્ટી":10035,"▁વર્ષા":10036,"▁ટેન્ડર":10037,"▁ચોખ્":10038,"નાઇટેડ":10039,"▁વંચ":10040,"▁સિલિ":10041,"▁વીતી":10042,"▁મ્યુઝ":10043,"▁સમયગાળામાં":10044,"▁અસાધારણ":10045,"14":10046,"▁શૅ":10047,"▁ચતુર":10048,"▁લોકોનાં":10049,"▁ફેલાય":10050,"▁ખીજે":10051,"▁ચીનમાં":10052,"▁ગર્ભવતી":10053,"▁સેંકડો":10054,"માસ":10055,"▁તેહ":10056,"▁બરો":10057,"▁કરાયેલ":10058,"▁ફ્યુ":10059,"▁આપવો":10060,"જીક":10061,"સીંગ":10062,"▁સીઝન":10063,"ન્દ્રિય":10064,"▁બનવાની":10065,"▁ગેમ":10066,"▁ટ્રસ્ટી":10067,"▁હવાઈ":10068,"▁2008":10069,"ય.":10070,"રમ":10071,"▁અે":10072,"▁ઓથો":10073,"▁સેન્સે":10074,"▁લીલી":10075,"▁72":10076,"▁પુરૂષા":10077,"▁યુવતીએ":10078,"પુટ":10079,"▁સ્ત્રીની":10080,"▁દીધુ":10081,"▁ઈન્ટરનેટ":10082,"▁ન્યાયાધી":10083,"▁આક્રમક":10084,"▁બટન":10085,"▁સમયા":10086,"▁ઓમ":10087,"▁દેશોના":10088,"▁છાયા":10089,"▁કુદરત":10090,"▁ચાંદી":10091,"▁સ્ત્રોત":10092,"શ્રે":10093,"▁વૈકલ્પિક":10094,"▁પાડ્યા":10095,"▁જમાનામાં":10096,"▁રજુઆત":10097,"▁ડ્રાઇવર":10098,"▁છુટકારો":10099,"▁પાડોશી":10100,"ંકારા":10101,"▁કેવો":10102,"્યુ.":10103,"▁દાદી":10104,"▁ભાગને":10105,"▁ડેસ્ક":10106,"▁નીકળતા":10107,"▁તારું":10108,"પ્રાપ્તિ":10109,"1.":10110,"▁હાવ":10111,"▁સંચાર":10112,"▁પોષક":10113,"▁રહેલો":10114,"▁ચિકિ":10115,"▁નીપજ્યું":10116,"▁ભંડોળ":10117,"▁બલિ":10118,"લીંગ":10119,"▁નાચ":10120,"▁108":10121,"▁આશ્ચર્યજનક":10122,"▁કનેક્ટ":10123,"▁કેબિનેટ":10124,"▁વાડ":10125,"▁જાપ":10126,"▁રેતી":10127,"▁2010":10128,"▁મગજમાં":10129,"▁સાવધાન":10130,"▁ઝોનમાં":10131,"▁સાવચેત":10132,"▁રાસાયણિક":10133,"ોનું":10134,"▁પદે":10135,"▁વસાહ":10136,"▁જોયુ":10137,"▁પેલે":10138,"▁રાજન":10139,"▁વાંચો":10140,"▁કર્તા":10141,"કૃતિક":10142,"▁ક્રિકેટર":10143,"મારો":10144,"▁એડી":10145,"▁માટે.\n":10146,"કારની":10147,"ભાષ":10148,"▁બંનેના":10149,"▁વહેલા":10150,"ડન્ટ":10151,"▁સત્વ":10152,"▁નિત":10153,"લેષ":10154,"▁ક્રિસ":10155,"▁લખવા":10156,"▁સર્વોચ્ચ":10157,"▁ગઠબંધ":10158,"નાન્સ":10159,"▁સંધિ":10160,"સા,":10161,"વું.\n":10162,"▁યુકે":10163,"િંગ,":10164,"▁રસિક":10165,"▁નાખવા":10166,"▁સઘળા":10167,"▁મુલાકાતે":10168,"▁મ્યુનિસિપાલિટી":10169,"જ્યુ":10170,"કાર,":10171,"▁શેષ":10172,"▁લખીને":10173,"▁આંધ્ર":10174,"▁અભાવે":10175,"▁મજૂરી":10176,"▁વટ":10177,"▁રમણ":10178,"▁વિનિ":10179,"▁સુખા":10180,"▁કોરોનાનો":10181,"▁મહારાજે":10182,"ઘાટ":10183,"▁અગ્રે":10184,"▁મસ્તક":10185,"▁ચુકાદો":10186,"▁ઉન્નતિ":10187,"ખારી":10188,"રર":10189,"ળક":10190,"હાય":10191,"▁કાંક":10192,"▁બેલે":10193,"▁યુગમાં":10194,"▁તમારાં":10195,"▁ઘટાડ":10196,"▁શકાશે.":10197,"▁ક્રોસ":10198,"▁વધારીને":10199,"▁ધના":10200,"▁મેક્ષ":10201,"▁બોટા":10202,"▁સહભાગી":10203,"▁ખીજો":10204,"▁તાજેતરના":10205,"▁સ્ટીલ":10206,"▁પ્રોટીન":10207,"▁થતુ":10208,"▁રાજીવ":10209,"▁વિસ્તરણ":10210,"▁પ્રજાતિ":10211,"શ્વરે":10212,"▁પાકિસ્તાનની":10213,"▁આંખોમાં":10214,"▁ગણાવી":10215,"▁સગર્":10216,"▁કેજરીવાલ":10217,"શઃ":10218,"▁હર્":10219,"▁પ્રત":10220,"▁રહયા":10221,"▁અમૂલ":10222,"▁ફેલાવ":10223,"▁ધર્મમાં":10224,"શ્વરી":10225,"▁ઔષધ":10226,"બને":10227,"▁જ્વા":10228,"જામાં":10229,"▁હિલ":10230,"▁ફેમિ":10231,"▁ગામડા":10232,"▁ગૃહસ્થ":10233,"▁કબૂલ":10234,"▁ગિરિ":10235,"▁જર્મન":10236,"▁દીપિકા":10237,"એલા":10238,"ઢુ":10239,"▁હપ્":10240,"▁રચી":10241,"▁નાસ્તો":10242,"▁સંમત":10243,"▁બેલ":10244,"▁યુનાઇટેડ":10245,"ણુમાં":10246,"▁અંગેના":10247,"▁ભારતનો":10248,"ફાઇ":10249,"શું,":10250,"▁વડોદરામાં":10251,"▁ડિસેમ્બરે":10252,"▁શર્માએ":10253,"▁કેટેગ":10254,"થલ":10255,"▁પાંખ":10256,"હિની":10257,"ચારિક":10258,"સ્પો":10259,"ન્નુ":10260,"▁વિહાર":10261,"▁મહાર":10262,"▁કહેા":10263,"▁ખેલી":10264,"▁સોશ્યલ":10265,"▁અપરા":10266,"▁અમદાવાદ,":10267,"▁સમજીને":10268,"ઝાર":10269,"ળાય":10270,"▁લઈએ":10271,"▁પેાતાનાં":10272,"▁પ્રજાના":10273,"▁મજબુત":10274,"ધ્ધિ":10275,"▁પ્રિન્ટ":10276,"▁બંદોબસ્ત":10277,"શથી":10278,"▁તેં":10279,"▁સ્કુ":10280,"ળીએ":10281,"વારથી":10282,"▁યમ":10283,"▁સુવા":10284,"▁ફર્યા":10285,"▁પ્રોગ્રા":10286,"▁ડેબ":10287,"▁પતિના":10288,"▁મનુષ્યના":10289,"▁ડાયરેક્ટર":10290,"▁ખુલાસા":10291,"▁વેળાએ":10292,"▁સિનેમા":10293,"▁સનાતન":10294,"▁નેગેટિવ":10295,"રાણી":10296,"▁પરદેશી":10297,"દીન":10298,"▁મીના":10299,"▁ઊઠી":10300,"▁ચોકડી":10301,"▁શુદ્ધિ":10302,"▁ડેરી":10303,"▁ઓફી":10304,"▁ગાડીમાં":10305,"▁બજેટમાં":10306,"સરમાં":10307,"▁રામા":10308,"પ્લો":10309,"શીપ":10310,"ર્ટમ":10311,"▁દાગીના":10312,"▁99":10313,"▁કાંઇક":10314,"▁પ્રોત્સાહિત":10315,"▁હકીકતમાં,":10316,"ખડ":10317,"▁આવવાના":10318,"▁બીએસ":10319,"▁નવાં":10320,"▁ટાઇટ":10321,"▁ટાઉન":10322,"▁શાંતિથી":10323,"▁ફર્સ્ટ":10324,"▁અભિવ્યક્તિ":10325,",4":10326,"▁જોવું":10327,"લિપ":10328,"▁બનતી":10329,"▁રથયાત્રા":10330,"▁અથા":10331,"▁આલ":10332,"▁આક્ષે":10333,"▁વાંસ":10334,"▁ચાલતાં":10335,"વુ.":10336,"▁સર્વત્ર":10337,"▁ખેડૂતોની":10338,"▁ક્ષેત્રોમાં":10339,"▁ફરીયાદ":10340,"▁પૂરેપૂ":10341,"ન્ડી":10342,"▁વારો":10343,"▁બેટ":10344,"▁ક્લે":10345,"સોર્ટ":10346,"▁મેળવતા":10347,"નેસ":10348,"▁ઉન":10349,"▁ગાઈડ":10350,"▁ટ્રેન્ડ":10351,"▁સ્વે":10352,"▁પાના":10353,"▁જાડા":10354,"▁મોતી":10355,"▁પૂજ":10356,"મોને":10357,"▁ઊલ":10358,"▁અભ્યાસમાં":10359,"▁નાખવાની":10360,"દારોને":10361,"▁આંદોલ":10362,"▁કેશવ":10363,"▁શ્રુતિ":10364,"▁વાંકાનેર":10365,"▁રોજિંદા":10366,"▁ભત્રી":10367,"▁કોમ્":10368,"▁વાતનો":10369,"▁સીટો":10370,"ભાઈ,":10371,"▁વિસ્તારની":10372,"▁વિશ્વભરમાં":10373,"▁અસત્ય":10374,"▁ચૂક્યો":10375,"▁નહોતું.":10376,"▁ભ્રષ્ટ":10377,"▁હાડકાં":10378,"▁માણેક":10379,"▁સાથો":10380,"▁ધણું":10381,"ફેક્ટ":10382,"▁અમેરિકી":10383,"મેટિક":10384,"▁અંદરના":10385,"માઇ":10386,"▁પ્યા":10387,"વાળુ":10388,"▁મતિ":10389,"રીતે":10390,"▁રહેતું":10391,"ડોર":10392,"▁અપવાદ":10393,"મ્પિક":10394,"▁ટ્રાય":10395,"▁મ્યુનિ.":10396,"▁કાયદેસરની":10397,"▁રોગપ્રતિકારક":10398,"સ્ર":10399,"▁સાવર":10400,"વી.\n":10401,"સામ":10402,"ચેા":10403,"▁પડદા":10404,"▁૨,":10405,"▁નોંધ્યું":10406,"▁સ્ટેડિય":10407,"▁તબક્કે":10408,"▁2019માં":10409,"▁બંધારણ":10410,"▁આઘાત":10411,"ન્ટેડ":10412,"▁ગાળો":10413,"▁સ્ત્રીના":10414,"▁વિનાના":10415,"▁વધારવામાં":10416,"▁ઉઠાવ":10417,"▁મથકે":10418,"▁અહિંસા":10419,"દવ":10420,"▁અજી":10421,"▁શોક":10422,"નિકે":10423,"▁ઉત્તરપ્રદેશ":10424,"▁નર્":10425,"▁સોન":10426,"▁મેટલ":10427,"▁પાતળા":10428,"▁નાજુક":10429,"કશન":10430,"▁છંદ":10431,"ન્તા":10432,"લ્ટા":10433,"ક્ષ્ણ":10434,",3":10435,"ઉપ":10436,"▁અવે":10437,"▁સ્ક્":10438,"▁ખાબ":10439,"િંગની":10440,"દુઃ":10441,"▁ઘોડા":10442,"▁લોકસભાની":10443,"▁સમીક્ષાઓ":10444,"▁યૂઝ":10445,"▁લે.":10446,"▁હૃદયની":10447,"▁નજીકથી":10448,"▁સમુદ્રમાં":10449,"▁ઇચ્છતા":10450,"▁ચળવળ":10451,"▁રખા":10452,"મીની":10453,"▁રાજકુમાર":10454,"▁જણાવવા":10455,"▁હાથથી":10456,"▁ધ્વનિ":10457,"▁પંક":10458,"▁હતેા":10459,"વાયત":10460,"▁સમજણ":10461,"▁યોજાયેલી":10462,"▁બગડી":10463,"▁ફર્નિચર":10464,"▁કોરિયા":10465,"▁સુશાંત":10466,"▁નિભાવ":10467,"સ્ટન્ટ":10468,"▁લીમ":10469,"▁નોંધવું":10470,"▁ડાઇ":10471,"▁સંકેતો":10472,"▁ઉતાવળ":10473,"૧,":10474,"▁સામુ":10475,"▁ભાત":10476,"▁પેશી":10477,"▁દીલ":10478,"▁ખેંચા":10479,"▁ગોહિ":10480,"▁ભરવામાં":10481,"▁85":10482,"▁ટ્રેડિંગ":10483,"▁યુવકને":10484,"▁ગામડાં":10485,"▁સાયબર":10486,"▁ભજવે":10487,"▁ફાર્મ":10488,"ફની":10489,"બીસી":10490,"▁ધીર":10491,"▁કઈક":10492,"▁બોર્ડની":10493,"▁સૂત્રોએ":10494,"▁ઉત્સુક":10495,"▁અછત":10496,"▁ટાર્ગેટ":10497,"▁પલા":10498,"વાસના":10499,"▁નિકો":10500,"▁ભદ્ર":10501,"વીના":10502,"▁એમનાં":10503,"▁યુવરાજ":10504,"વર્તી":10505,"▁સફળતાપૂર્વક":10506,"▁પોલિસી":10507,"▁મસ્તી":10508,"▁આપો.":10509,"સાધ":10510,"▁ઇવેન્ટ":10511,"હાઉ":10512,"▁દાણા":10513,"▁ભૂલો":10514,"▁લાભો":10515,"▁કેન્દ્રો":10516,"▁પ્રણામ":10517,"▁સુલતાન":10518,"ૂરી":10519,"લાદ":10520,"નિસ":10521,"ત્મ્ય":10522,"▁રૂપિયામાં":10523,"▁કોઇને":10524,"▁પાર્ટીએ":10525,"▁એજ્યુ":10526,"ભર્યું":10527,"▁આકર્ષિત":10528,"▁પદ્ધતિઓ":10529,"▁આફ્રિકા":10530,"24":10531,"▁હડ":10532,"▁બચા":10533,"▁ઓમિક":10534,"▁પહેા":10535,"▁પ્રાઇ":10536,"▁જવાન":10537,"▁સિદ્ધાર્થ":10538,"▁દિગ્ગજ":10539,"▁છેડા":10540,"▁એમા":10541,"▁વિતા":10542,"▁ઉઠે":10543,"▁જોબ":10544,"▁ધંધ":10545,"▁રહેલાં":10546,"યેલો":10547,"▁પહેાંચ":10548,"▁પ્રાકૃતિક":10549,"▁તૈનાત":10550,"▁64":10551,"▁દેખાડ":10552,"▁માર્ગમાં":10553,"▁સંસારમાં":10554,"▁રૂપીઆ":10555,"▁સસ્પેન્ડ":10556,"૧૩":10557,"▁નરેશ":10558,"▁ખારી":10559,"કીએ":10560,"▁મિત્રા":10561,"▁શ્રીમતી":10562,"▁ગેરકાયદે":10563,"▁થિયેટર":10564,"▁સ્વરૂપો":10565,"વશ":10566,"▁ફૅ":10567,"યે.":10568,"મિકા":10569,"સરની":10570,"▁શિખા":10571,"▁આપે.":10572,"▁લીધો.":10573,"▁ટ્રાયલ":10574,"▁૧૯૪":10575,"▁રાશિમાં":10576,"▁પકડવા":10577,"▁રાજકારણમાં":10578,"▁આરે":10579,"▁વિખ્યાત":10580,"સીય":10581,"માનંદ":10582,"▁પડયો":10583,"▁હિમ":10584,"▁ભાષાના":10585,"▁પ્રેરિત":10586,"▁અસ્તિત્વમાં":10587,"▁ગળ":10588,"▁રંગે":10589,"▁સધળા":10590,"▁સપનું":10591,"▁ફાઉન્ડેશન":10592,"ચરણ":10593,"મનું":10594,"▁નટ":10595,"▁ખવડ":10596,"▁ધમા":10597,"▁ભાંગી":10598,"▁ખાદ":10599,"સ્ટાર":10600,"▁સેમિ":10601,".....":10602,"▁સોની":10603,"▁ત્રીસ":10604,"▁હૃદયના":10605,"▁ગોઠવી":10606,"▁પબ્લિક":10607,"▁રિયલ":10608,"્યાની":10609,"▁સાકર":10610,"▁જેએ":10611,"િકારી":10612,"▁ધો.":10613,"ણેા":10614,"▁નિકા":10615,"▁સેનાના":10616,"▁વીચાર":10617,"▁આપી,":10618,"▁મનથી":10619,"▁ભારતનું":10620,"▁દોષિત":10621,"▁દાયકા":10622,"▁જોવી":10623,"નિશ":10624,"હુમ":10625,"▁તરીકેની":10626,"▁સૂચનો":10627,"▁બપોર":10628,"સૈ":10629,"▁અરિ":10630,"▁રજની":10631,"▁મેવા":10632,"સાવી":10633,"▁પેરે":10634,"શાહે":10635,"▁બદલાય":10636,"▁વ્યાપી":10637,"▁પક્ષે":10638,"▁ઇન્સ્પે":10639,"▁બ્રાન્ચ":10640,"▁અયોધ્યા":10641,"ટ્યુ":10642,"▁આવવાથી":10643,"▁ગાથા":10644,"▁શોભા":10645,"▁મળે,":10646,"▁પ્રભુની":10647,"િકારક":10648,"▁સંબોધન":10649,"▁ઊભું":10650,"બ્રહ":10651,"મેશન":10652,"▁અભય":10653,"▁મેળે":10654,"▁માર્ચે":10655,"ધાન્ય":10656,"▁કહેવાતા":10657,"ઘો":10658,"િના":10659,"▁સક":10660,"▁ખનિ":10661,"▁જાપાની":10662,"▁રહેવાથી":10663,"▁શકાશે":10664,"▁ગુલાબી":10665,"▁શ્વ":10666,"▁વર્તે":10667,"▁જીતુ":10668,"▁તાલા":10669,"▁સૂક":10670,"▁અર્થવ્યવસ્થા":10671,"▁ડુંગર":10672,"▁કોન્ફરન્સ":10673,"લૉ":10674,"વરા":10675,"હવે":10676,"તોના":10677,"▁ચોકી":10678,"▁સ્ટેટ્સ":10679,"પુરની":10680,"▁તત્ત્":10681,"▁અફઘાનિસ્તા":10682,"ન\n":10683,"▁નોટો":10684,"પ્રમા":10685,"▁બોલર":10686,"▁આસન":10687,"▁સપ્તાહમાં":10688,"▁હઝરત":10689,"▁લહે":10690,"▁લસણ":10691,"▁થવામાં":10692,"▁ના.":10693,"▁૩૯":10694,"▁ભ્રમ":10695,"▁ઉદ્યોગપતિ":10696,"▁ઇનકાર":10697,"▁એકર":10698,"▁એકથી":10699,"પાલન":10700,"▁પુત્રો":10701,"▁લીગ":10702,"▁મિલિ":10703,"▁સર્ક":10704,"વ્યવહાર":10705,"▁હિમાચલ":10706,"▁યુરોપિયન":10707,"જરૂરી":10708,"દગી":10709,"નાથી":10710,"▁ફસાઈ":10711,"▁મહાસ":10712,"▁વ્યાપારી":10713,"▁જણાઈ":10714,"▁માથુ":10715,"▁સિંહા":10716,"ષુ":10717,"▁અસ્વ":10718,"▁મટા":10719,"▁બલ્":10720,"▁ગળામાં":10721,"▁થનારા":10722,"▁ખાણ":10723,"શાસન":10724,"હિર":10725,"▁વેકેશન":10726,"ક્સમાં":10727,"▁ગોલ":10728,"▁લખેલા":10729,"▁અવિના":10730,"▁મુલાકાતી":10731,"લાલે":10732,"ાય.":10733,"િયસ":10734,"પ્લા":10735,"▁બદલામાં":10736,"▁જન્મા":10737,"▁અગિયાર":10738,"▁સભ્યોની":10739,"▁અંબાણી":10740,"▁વિક્ર":10741,"▁ઉચિત":10742,"▁કોન્સ":10743,"▁જાણવાની":10744,"▁વરસી":10745,"▁બોલતા":10746,"▁2009":10747,"▁કિસ્સાઓમાં":10748,"▁સંવેદના":10749,"▁ચિકન":10750,"ફિકેશન":10751,"▁સાબરમતી":10752,"ચર્સ":10753,"▁આનું":10754,"▁જોતી":10755,"▁સંક":10756,"ન્ટલ":10757,"▁શરીરે":10758,"▁મ્હો":10759,"▁ઉમદા":10760,"▁વોટ્સએપ":10761,"ટરમાં":10762,"વંશ":10763,"સલા":10764,"▁સની":10765,"▁મક્":10766,"▁કેસર":10767,"્યોને":10768,"ક્ષમતા":10769,"નુસાર":10770,"▁નીલ":10771,"▁પ્રેશર":10772,"▁જિલ્લાઓમાં":10773,"▁વૈદ્ય":10774,"▁કચ્છના":10775,"▁હોત.":10776,"▁રાત્રીના":10777,"▁હથિયારો":10778,"ખમાં":10779,"▁બેરોજ":10780,"▁રૂૂ":10781,"▁પીવાના":10782,"▁સ્ટાર્ટ":10783,"▁હજારની":10784,"હરચના":10785,"▁નિમિત્ત":10786,"▁સ્પોર્ટ્સ":10787,"▁ટૂંકી":10788,"▁સજ":10789,"▁સવારી":10790,"▁કાનમાં":10791,"▁સિંઘ":10792,"▁ચેડા":10793,"▁58":10794,"▁સૂઈ":10795,"▁મોટાભાગે":10796,"▁નિર્ભર":10797,"▁પુરુષા":10798,"▁પૂછ્યું.\n":10799,"▁શેાધ":10800,"▁સોફ્ટવેર":10801,"અલી":10802,"ભય":10803,"▁કસ":10804,"▁અદ્ય":10805,"▁આડા":10806,"▁મેક્સ":10807,"▁ગઈ,":10808,"▁ગયેા":10809,"▁બીજાં":10810,"▁ઉદ્ઘાટન":10811,"▁ગામોમાં":10812,"▁ચકચાર":10813,"▁પડોશી":10814,"▁કર.":10815,"▁કરશો.":10816,"▁નંગ":10817,"▁દંત":10818,"▁ખાડા":10819,"▁ગાલ":10820,"▁કરાશે.":10821,"▁95":10822,"▁ઉપાડ":10823,"▁ગર્ભા":10824,"▁સ્થળાંતર":10825,"▁મથકમાં":10826,"▁બ્રિગે":10827,"▁લંડન":10828,"▁પું":10829,"▁વાસુ":10830,"જાને":10831,"▁શામ":10832,"▁પીછો":10833,"▁વગેરેની":10834,"▁ઘેરી":10835,"▁ઘેાડા":10836,"▁છઠ્ઠા":10837,"▁બસમાં":10838,"ટાઇ":10839,"▁અનુભૂતિ":10840,"▁વચ્ચેનો":10841,"▁120":10842,"▁પુસ્તકમાં":10843,"▁લીધા.":10844,"▁સઘન":10845,"▁ભંડાર":10846,"લીશ":10847,"▁રહેવાનો":10848,"▁તેમનામાં":10849,"▁ઠાર":10850,"▁મહિલાના":10851,"▁પાર્ટીની":10852,"▁સેનાપતિ":10853,"▁જપ":10854,"▁મગર":10855,"▁વધ્યા":10856,"ણુની":10857,"ર્થ્ય":10858,"▁સર્જના":10859,"▁બનવું":10860,"▁જનતાને":10861,"▁૧૯૯":10862,"▁ખેડૂતોએ":10863,"▁જમવા":10864,"ફાય":10865,"▁અષા":10866,"▁આસ્થા":10867,"▁કેવ":10868,"▁કોમ્પ્યુટર":10869,"નિટી":10870,"▁ખેલે":10871,"▁પીસી":10872,"વાળાને":10873,"▁જીતવા":10874,"▁યુનિયન":10875,"▁શક્યતાઓ":10876,"▁મુદત":10877,"મૃત":10878,"▁તથ":10879,"નાલ્ડ":10880,"▁બૈ":10881,"▁બ્રી":10882,"▁પ્રિયા":10883,"સ્ડ":10884,"▁ભ્રા":10885,"ંતરે":10886,"ષ્મા":10887,"તાં.":10888,"▁જીવો":10889,"▁રેમ":10890,"▁થઇ,":10891,"▁પાડ્યો":10892,"▁નરસિંહ":10893,"▁ઈજાગ્રસ્ત":10894,"▁મોંઘી":10895,"▁પાટા":10896,"▁હોદ્":10897,"▁સુધા":10898,"▁સંકુ":10899,"▁પોઝી":10900,"▁અસરગ્રસ્ત":10901,"▁જાણીતું":10902,"▁બ્લુ":10903,"▁2007":10904,"▁ગણાતા":10905,"▁ફોટોગ્રાફ":10906,"▁મહાનુભાવ":10907,"▁આભ":10908,"▁સુત્રો":10909,"▁પેક":10910,"▁રેસીપી":10911,"▁દેશનું":10912,"▁ભાવથી":10913,"▁ડીલ":10914,"▁નિરંતર":10915,"ૂહિક":10916,"▁ગૂંચ":10917,"▁કિંમતમાં":10918,"▁સર્ટિ":10919,"શાલ":10920,"▁હેલિકો":10921,"ળેા":10922,"▁આજરોજ":10923,"▁ઘટાડી":10924,"▁ઉલટી":10925,"▁છૂટાછેડા":10926,"▁ખિસ્સા":10927,"ચ્યા":10928,"▁સદર":10929,"▁ઉગ":10930,"ત્યાર":10931,"▁પિત્ત":10932,"▁પાડતા":10933,"ફ્યુ":10934,"▁મચાવી":10935,"▁વહન":10936,"લાકી":10937,"▁ખટ":10938,"▁ઉંડા":10939,"▁વાંધા":10940,"▁ને?":10941,"▁વાતમાં":10942,"▁ઊભે":10943,"▁57":10944,"▁અસરો":10945,"▁દીધો.":10946,"▁મંદિરે":10947,"▁જાડેજા,":10948,"▁બજાવતા":10949,"ડાય":10950,"▁બંદર":10951,"▁માહી":10952,"▁ધેા":10953,"▁સુસંગત":10954,"▁મિની":10955,"▁સામૂહિક":10956,"▁કાયદાકીય":10957,"▁વર્ગમાં":10958,"▁ચૌદ":10959,"▁સ્પર્ધામાં":10960,"▁તજવીજ":10961,"હને":10962,"▁તોફાન":10963,"શાક":10964,"▁૪૩":10965,"▁કિંમતી":10966,"▁નિષ્ઠા":10967,"▁આગેવાન":10968,"▁વ્યૂહરચના":10969,"ટેલા":10970,"▁પરદેશ":10971,"▁પડવાની":10972,"▁વખતના":10973,"▁સૌર":10974,"▁કરાવ્યું":10975,"▁એનર્જી":10976,"▁ચાંદ":10977,"▁જર્મની":10978,"▁પ્રવીણ":10979,"▁એપિસો":10980,"ક્યો":10981,"ખના":10982,"યની":10983,"▁પ્રતિસાદ":10984,"▁બહારની":10985,"મેન્ટિક":10986,"▁૪૬":10987,"▁ડીઝ":10988,"▁સુખદ":10989,"▁પ્રભુને":10990,"▁મેળવ્યો":10991,"▁ફાળવણી":10992,"▁પુરવઠો":10993,"વલ્લી":10994,"▁હાત":10995,"▁કાર્યોમાં":10996,"▁રૂપાણીએ":10997,"▁વચમાં":10998,"▁પક્ષીઓ":10999,"▁ખર્ચાળ":11000,"વરે":11001,"સાથ":11002,"▁તમાકુ":11003,"કરને":11004,"▁આરોપીની":11005,"▁પ્રભુના":11006,"▁પ્રભાવશાળી":11007,"ઘે":11008,"૨૪":11009,"▁અષ્ટ":11010,"▁અતુ":11011,"▁નાસ્તા":11012,"▁મોતને":11013,"▁ઓરિ":11014,"▁ઇકો":11015,"▁હાથની":11016,"▁શુક્":11017,"▁કરોડનું":11018,"દેવને":11019,"▁અવાજે":11020,"ગળ":11021,"▁ઇન્ટ":11022,"▁એમજ":11023,"▁ફિલ્મને":11024,"▁પૂર્ણિ":11025,"ધ્ધા":11026,"▁ગરીબી":11027,"▁પાસપોર્ટ":11028,"▁રાઠોડ":11029,"▁વર્ચ્યુઅલ":11030,"▁ચોંકાવ":11031,"▁પ્રદર્શિત":11032,"90":11033,"ન્ધ":11034,"▁રોયલ":11035,"▁લાગશે.":11036,"▁ખોદ":11037,"▁પ્લ":11038,"સૂત્ર":11039,"▁બ્લોગ":11040,"મ્ર":11041,"શિક":11042,"▁અવન":11043,"ષ્ટી":11044,"િંગમાં":11045,"બ્સ":11046,"▁ટકાના":11047,"▁પ્રકાશમાં":11048,"▁ગાયબ":11049,"▁હાઈકોર્ટે":11050,"▁ખેડૂતોના":11051,"▁કબૂ":11052,"▁બપોરના":11053,"▁સંકલન":11054,"▁ઓમિક્રો":11055,"ઈઓ":11056,"વિત":11057,"▁કસો":11058,"▁તરે":11059,"▁વખા":11060,"▁ભાનુ":11061,"▁રોપ":11062,"્રોજન":11063,"▁થાડી":11064,"▁૧૮૯":11065,"▁શ્રાવણ":11066,"ફ્રાસ્ટ્રક્ચર":11067,"▁હાનિ":11068,"▁રાકેશ":11069,"▁ગુજ":11070,"▁મન,":11071,"▁થીમ":11072,"▁67":11073,"કલ્યા":11074,"▁કીધે":11075,"▁સુધારે":11076,"▁પરાક્રમ":11077,"▁પ્રવૃતિ":11078,"▁રાજેશ":11079,"▁જ્હો":11080,"ભ્રમણ":11081,"▁સરોવર":11082,"પુરૂષ":11083,"ઇંગ":11084,"▁પારા":11085,"▁આભારી":11086,"▁ચં":11087,"▁શ્રીરામ":11088,"▁હાથમાંથી":11089,"▁બદલો":11090,"▁ટ્રેનમાં":11091,"તનું":11092,"શેા":11093,"▁આપ્યુ":11094,"▁ધડા":11095,"▁બેભાન":11096,"પી.":11097,"▁ક્વિ":11098,"મુનિ":11099,"▁જૂને":11100,"▁વગેરેના":11101,"▁ગરદન":11102,"▁પાકિસ્તાનમાં":11103,"▁મંત્રાલયના":11104,"▁વિસર્જન":11105,"▁ક્ષત્રિય":11106,"દયા":11107,"નામા":11108,"કાળના":11109,"▁ગુજાર":11110,"▁મહિનો":11111,"▁41":11112,"▁દ્રશ્યો":11113,"▁૧૯૦":11114,"▁સમાં":11115,"▁જળા":11116,"▁લલિત":11117,"▁ફકત":11118,"સેવા":11119,"▁ખાત":11120,"▁રાખવાથી":11121,"▁ટેબ":11122,"▁ડિપાર્ટમેન્ટ":11123,"▁લાખનો":11124,"▁પુરવાર":11125,"▁યુવતીના":11126,"▁નિકળ":11127,"▁ડ્રાય":11128,"▁સૌરાષ્ટ્રમાં":11129,"▁ઢોર":11130,"▁હિમાલય":11131,"▁પ્રેક્ટિસ":11132,"▁જબરદસ્ત":11133,"▁આપનારા":11134,"▁નિયુક્ત":11135,"લોકન":11136,"▁53":11137,"▁પ્રસરી":11138,"▁પેટર્ન":11139,"▁પુરૂષો":11140,"▁અપાઈ":11141,"▁કનેક્શન":11142,"▁ડિસ્કાઉન્ટ":11143,"▁ચિંતન":11144,"ગરા":11145,"▁પારે":11146,"▁મથા":11147,"લાભ":11148,"કે.":11149,"▁ટંકારા":11150,"▁વિદ્યુત":11151,"▁રહ્યું.":11152,"▁શાસ્ત્રીય":11153,"બલી":11154,"▁ખસ":11155,"▁હોળી":11156,"ડાનું":11157,"▁ખાતાં":11158,"▁પ્રતિકાર":11159,"કરની":11160,"▁યોજી":11161,"▁મુદ્દ":11162,"▁મંત્રીએ":11163,"▁યુવાનોને":11164,"▁યુનિટ":11165,"છુ":11166,"▁આમાંથી":11167,"▁કાલા":11168,"્યાં.\n":11169,"▁જાય.\n":11170,"▁ભાગવ":11171,"▁પ્રોપર્":11172,"▁વૈદિક":11173,"▁વિકાસના":11174,"▁અહુ":11175,"▁હસન":11176,"▁ભરાય":11177,"▁આપવાને":11178,"▁સંધ્યા":11179,"સેા":11180,"પાટ":11181,"▁સિપા":11182,"▁વેરા":11183,"▁વખતે,":11184,"▁ભર્યું":11185,"▁ગર્ભાવસ્થા":11186,"▁જીલ્લામાં":11187,"પત્તિ":11188,"▁અપર":11189,"▁મોનિ":11190,"▁ભાગવત":11191,"નારની":11192,"▁ટકાઉ":11193,"▁સ્થિતિમાં,":11194,"▁જીવલે":11195,"▁અનત":11196,"▁ભાઈઓ":11197,"▁ઇન્સ્ટિટ":11198,"▁કોલેજના":11199,"▁દુર્ગા":11200,"▁ઉદ્દેશ્ય":11201,"▁ચીજવસ્તુ":11202,"▁સાર્થ":11203,"▁લાકે":11204,"▁પરિપૂર્ણ":11205,"▁અન્યથા":11206,"▁ગણપતિ":11207,"▁પ્રકાશન":11208,"ખની":11209,"▁સચિ":11210,"▁ઘણે":11211,"▁પુરો":11212,"▁વધુને":11213,"▁મીઠ":11214,"▁ટેપ":11215,"▁શિવાય":11216,"▁પાણી,":11217,"▁ભેગી":11218,"▁દેખાયા":11219,"વર્ધન":11220,"▁હૃદયને":11221,"▁દ્વી":11222,"▁સમજાવે":11223,"▁વાજબી":11224,"▁દસ્ત":11225,"▁મોજ":11226,"▁ઝાર":11227,"▁અનુષ્":11228,"▁સૂકા":11229,"▁છુ.":11230,"▁દાયકામાં":11231,"મંડળ":11232,"▁બેસાડી":11233,"▁સર્જનાત્મક":11234,"▁ઉપે":11235,"▁નામદાર":11236,"▁પગમાં":11237,"▁સ્થાનમાં":11238,"▁10.":11239,"▁દેખાવા":11240,"▁ઇન્સ્ટો":11241,"▁સ્ટેશનના":11242,"▁જીત્યા":11243,"ંગ્લો":11244,"▁બોર્ડના":11245,"▁ગરીબો":11246,"▁યોજાયો":11247,"▁પહેરવા":11248,"▁માબાપ":11249,"ણક":11250,"▁સશ":11251,"▁છવાઈ":11252,"▁ઉપાયો":11253,"▁દેવો":11254,"▁સિંચા":11255,"▁હેલ્પ":11256,"▁ચોથી":11257,"▁ડિવિઝન":11258,"▁શીર્ષ":11259,"▁ટ્રેનિંગ":11260,"▁અરજીઓ":11261,"કૃષ્":11262,"▁લીધું.":11263,"સગઢ":11264,"૮૦":11265,"▁ઉન્":11266,"▁સંયમ":11267,"વિના":11268,"▁રીંગ":11269,"▁ડિપો":11270,"▁પહોંચવા":11271,"▁ભાગીદાર":11272,"▁હળવદ":11273,"▁અર્થાત":11274,"▁બીજેપી":11275,"▁આક્ષેપો":11276,"અે":11277,"વ.":11278,"▁આધીન":11279,"ટેશન":11280,"સેટ":11281,"▁ભાંગ":11282,"▁નીચી":11283,"▁કહુ":11284,"▁પીડિ":11285,"▁જગતને":11286,"▁કેટલીકવાર":11287,"પ્રી":11288,"માતા":11289,"▁રગ":11290,"ગામી":11291,"મોલ":11292,"▁વારવાર":11293,"▁પક્ષની":11294,"▁પત્નીએ":11295,"▁અકબર":11296,"▁જિયો":11297,"▁એટલુંજ":11298,"▁આશિષ":11299,"ગર્ભ":11300,"▁અદ્યતન":11301,"▁મેલે":11302,"▁પીતા":11303,"▁મદદની":11304,"▁કોલેજો":11305,"▁કચરા":11306,"▁2017માં":11307,"▁વપરાશકર્તાઓ":11308,"ટૂ":11309,"▁કઢ":11310,"▁આદુ":11311,"▁ન.":11312,"▁પ્રદ":11313,"▁કોર્સ":11314,"▁બોસ":11315,"▁આગલા":11316,"▁મહેલ":11317,"▁ડાબા":11318,"▁નવલ":11319,"ણાંક":11320,"▁જોડાય":11321,"▁વિધાનસભામાં":11322,"▁લોકપ્રિયતા":11323,"▁ખસેડ":11324,"▁પ્રવક્તા":11325,"▁કેસોમાં":11326,"▁તુરંત":11327,"ડમ":11328,"૧.":11329,"▁મટે":11330,"▁કરના":11331,"▁જે,":11332,"▁એક,":11333,"▁તેમ,":11334,"▁પછીની":11335,"▁મિલક":11336,"ટરની":11337,"▁માણસના":11338,"▁દિલ્હી,":11339,"▁હુમલામાં":11340,"▁સ્પેસ":11341,"▁સર્જાઈ":11342,"▁હાનિકારક":11343,"▁તકરાર":11344,"રોનો":11345,"▁9.":11346,"ગુણુ":11347,"▁બળવાન":11348,"▁તારણ":11349,"ૃા":11350,"▁શર્ટ":11351,"▁કોઠ":11352,"▁સમજૂ":11353,"▁સાથેનો":11354,"▁પો.":11355,"▁બાઉ":11356,"▁લેખા":11357,"▁લેવાને":11358,"▁લીક":11359,"▁પ્રાધાન્ય":11360,"▁આરબી":11361,"▁હૈ.":11362,"▁નેતાઓએ":11363,"▁ઉજવવામાં":11364,"મૂર્તિ":11365,"▁કર્ણાટક":11366,"▁સ્વામિનારાયણ":11367,",8":11368,"ચક્ર":11369,"ને\n":11370,"▁જવુ":11371,"▁નક્કર":11372,"▁પીએ":11373,"▁વાંચન":11374,"▁નાંખ્યા":11375,"▁પ્રવાસન":11376,"▁નિર્મળ":11377,"▁થએલા":11378,"▁ધોધમાર":11379,"▁હટાવી":11380,"▁લૂં":11381,"લીવુડ":11382,"▁સમિટ":11383,"▁નથી?":11384,"જા,":11385,"▁માંહે":11386,"▁તા,":11387,"▁ઈં":11388,"▁ચોપરા":11389,"સ્પર્":11390,"▁બધો":11391,"▁થાકી":11392,"ઝોન":11393,"▁લડત":11394,"નિર્ભર":11395,"▁પુનરાવર્તન":11396,"▁છત્તી":11397,"▁છે.તે":11398,"▁આપતો":11399,"▁સુખે":11400,"▁ખાધા":11401,"િલ્લો":11402,"▁પીરસ":11403,"▁રાજકોટની":11404,"▁શકાતું":11405,"▁ગ્રંથા":11406,"▁અમલીકરણ":11407,"▁માર્ગદર્શિકા":11408,"ગાન":11409,"ભક્ત":11410,"▁બળવા":11411,"▁માઉન્ટ":11412,"▁ચન્દ્ર":11413,"ાં,":11414,"▁ખાતું":11415,"▁સોર્સ":11416,"▁સીમ":11417,"▁વિશેષતા":11418,"▁ફીટ":11419,"▁યોજાશે.":11420,"▁પરેશાની":11421,"ક્ષેત્રમાં":11422,"4માં":11423,"ંબા":11424,"▁જોડીને":11425,"▁સંસ્":11426,"ડેલી":11427,"▁સેલે":11428,"▁ચોંકી":11429,"▁ઘરમાંથી":11430,"▁વાગ્યાથી":11431,"▁ધુમા":11432,"▁સંપાદન":11433,"▁જીવલેણ":11434,"હારે":11435,"▁આપવાથી":11436,"▁કોક":11437,"▁ઊતરી":11438,"▁કરતાં,":11439,"▁મહામંત્રી":11440,"▁તુલા":11441,"▁66":11442,"▁ભૂમિકામાં":11443,"▁એક્સચે":11444,"▁સૌરાષ્ટ્રના":11445,"ડન":11446,"▁પચી":11447,"▁નામાં":11448,"▁નામને":11449,"પીઠ":11450,"ત્વના":11451,"▁ખૂણે":11452,"પર્ય":11453,"▁ગાંધીજી":11454,"▁લક્ષ્યાં":11455,"▁શાળાઓમાં":11456,"▁હરકત":11457,"▁પૃથ્વીના":11458,"▁2022માં":11459,"▁એપ્રિલે":11460,"દત્ત":11461,"▁હારા":11462,"▁માપદ":11463,"તીત":11464,"▁ઉપસ્થિતિ":11465,"▁અનુયા":11466,"ભાઈના":11467,"▁લીધુ":11468,"▁કરાવ્યા":11469,"તંત્ર્ય":11470,"▁તિથિ":11471,"▁અસ્થિર":11472,"▁કટોકટી":11473,"▁સસરા":11474,"▁બ્યુ":11475,"ટેક્ટ":11476,"ધીને":11477,"હાની":11478,"ક્સ,":11479,"▁વ્યક્તિનું":11480,"▁ઠપ":11481,"▁વોલ્યુ":11482,"▁નેતાઓને":11483,"▁મુખ્યમંત્રીએ":11484,"▁પ્રતિબંધિત":11485,"▁કયાંથી":11486,"▁અઢાર":11487,"ચમાં":11488,"▁શૉ":11489,"▁કેબલ":11490,"▁લાવીને":11491,"▁જવાય":11492,"▁જીવનશૈ":11493,"▁વૃષભ":11494,"▁જ્યાંથી":11495,"્યમ":11496,"▁એલો":11497,"▁કેતન":11498,"▁સ્મિ":11499,"▁પણે":11500,"લ્સ,":11501,"▁ઇક્":11502,"▁ચાહે":11503,"▁મૂડ":11504,"▁થોડાં":11505,"▁૫૪":11506,"▁ગ્રીક":11507,"▁અલ્ટ્રા":11508,"▁તમિલનાડુ":11509,"▁આરાધના":11510,"ઘી":11511,"▁માક":11512,"▁પેરા":11513,"▁ટેમ્":11514,"▁દોસ્ત":11515,"▁૪૨":11516,"▁ભુલ":11517,"▁પોસ્ટમો":11518,"▁અકસ્માતની":11519,"▁મુશ્કેલીમાં":11520,"▁જાળવવા":11521,"▁એક્સપર્ટ":11522,"પતા":11523,"▁ઉષા":11524,"▁નેપા":11525,"તરફ":11526,"▁સીડી":11527,"શુદ્ધ":11528,"▁ખોટ":11529,"▁ટાઇમ":11530,"▁ગેલે":11531,"▁વિદ્યાર્થ":11532,"▁ધોની":11533,"▁પંચાયતના":11534,"▁જીતીને":11535,"▁કોન્ટ્રાક્ટ":11536,"▁અત્યાચાર":11537,"ગસ":11538,"ગરો":11539,"▁દેશોની":11540,"▁કીટ":11541,"▁અરવલ્લી":11542,"ચર્ય":11543,"▁સુધારી":11544,"▁સંતુલન":11545,"▁પ્રચંડ":11546,"▁બંન્ને":11547,"ટ્રે":11548,"પાવ":11549,"વૉ":11550,"હરી":11551,"િતી":11552,"▁મેગે":11553,"▁રાખવો":11554,"▁કહેવત":11555,"▁કામ,":11556,"▁નામ,":11557,"▁તરફના":11558,"▁જીવનનો":11559,"▁બધાએ":11560,"▁અધિકૃત":11561,"▁સંબંધોમાં":11562,"▁અરસામાં":11563,"▁ઝાલા":11564,"▁ફરિયાદમાં":11565,"▁પ્રજાપતિ":11566,"▁લાઈટ":11567,"▁અંદરની":11568,"▁કોન્સ્ટેબલ":11569,"ડય":11570,"▁પાયલ":11571,"▁એહ":11572,"▁પર.":11573,"▁લાજ":11574,"કીટ":11575,"▁એમનો":11576,"વોકેટ":11577,"▁જણાવતા":11578,"▁ચીને":11579,"▁વ્યવસાયિક":11580,"▁ઠંડુ":11581,"મ.":11582,"▁છંટ":11583,"▁પાવ":11584,"▁કારને":11585,"▁રીતિ":11586,"▁૧\n":11587,"▁ડિસ્ક":11588,"▁યાને":11589,"▁શેક":11590,"▁દીધે":11591,"▁સાવધાની":11592,"▁પ્રીમિયમ":11593,"ંય":11594,"▁અક્":11595,"▁છરી":11596,"રાદ":11597,"▁થાં":11598,"▁ફૉ":11599,"▁કોમેન્ટ":11600,"▁નિરૂ":11601,"▁પેનલ":11602,"▁કહેવાની":11603,"જો.\n":11604,"▁કરોડનો":11605,"લ્યુશન":11606,"▁મિથુન":11607,"▁ખોલવામાં":11608,",7":11609,"▁સત્કાર":11610,"▁કેલ":11611,"▁આપણુ":11612,"વિષ":11613,"યુગ":11614,"ગીને":11615,"▁ઝળ":11616,"▁શાસક":11617,"▁રેન્જ":11618,"▁વખતની":11619,"▁વિશ્વસનીય":11620,"▁આખરી":11621,"▁દિવસોથી":11622,"▁આતંકવાદ":11623,"▁ગોળીબાર":11624,"▁સફરજન":11625,"ભદ્ર":11626,"વાત":11627,"▁ખરો":11628,"▁પાળે":11629,"▁ધબ":11630,"▁બેબી":11631,"બાગ":11632,"લિયો":11633,"▁ટેકરી":11634,"▁ચેટ":11635,"પર,":11636,"▁યોગે":11637,"▁થયેલો":11638,"▁પામ્યો":11639,"▁બિનજરૂરી":11640,"▁સંભળાવ":11641,"▁આયર્":11642,"▁પસ્તા":11643,"લોના":11644,"▁ગરમા":11645,"ફટ":11646,"▁પની":11647,"વાડે":11648,"કારના":11649,"▁મોટાં":11650,"▁રહી,":11651,"▁બાદ,":11652,"દિપ":11653,"▁કોંગ્રેસમાં":11654,"▁યાદવે":11655,"▁યોજનામાં":11656,"▁દ્રારા":11657,"▁ગુમાવ":11658,"▁યુનિવર્સિટીમાં":11659,"▁નાનપણ":11660,"▁જગાએ":11661,"▁ચૌહાણ":11662,"▁એસિ":11663,"▁ગુલ":11664,"▁કહેવાનું":11665,"▁મિસ":11666,"પેડ":11667,"જનિક":11668,"▁રૂપિયાથી":11669,"▁શોધમાં":11670,"▁બાકીની":11671,"શ્વત":11672,"કુંડ":11673,"▁મજૂર":11674,"▁વિકાસની":11675,"▁બચ્ચન":11676,"▁વ્હીલ":11677,"▁કારે":11678,"માદ":11679,"▁કેન":11680,"▁ખાવું":11681,"▁ઉધા":11682,"ન્ડિ":11683,"▁રાજ્યપાલ":11684,"▁૫૦૦":11685,"▁અધિકારીઓની":11686,"▁કર્મી":11687,"▁સાબરકાંઠા":11688,"▁કડા":11689,"▁કબુલ":11690,"▁કહેવાથી":11691,"▁કિશન":11692,"▁અવશેષ":11693,"▁થયેલાં":11694,"▁વસૂલ":11695,"▁યુઝર્સ":11696,"▁અબ્દુલ":11697,"▁બેક્ટેરિયા":11698,"નંદ":11699,"વસ":11700,"▁ઉક":11701,"▁જોષી":11702,"▁ખાટી":11703,"▁રોમેન્ટિક":11704,"▁શકે?":11705,"શુલ":11706,"▁મહિલાઓની":11707,"▁એન્જી":11708,"▁રાત્રિના":11709,"▁તકેદારી":11710,"▁અથડામણ":11711,"▁બ્લાસ્ટ":11712,"2માં":11713,"ખરે":11714,"▁અપૂર્ણ":11715,"▁તેણીના":11716,"▁જેત":11717,"▁હોર્મો":11718,"્યોર":11719,"▁જુઓ,":11720,"▁ડોકટર":11721,"▁નાખ્યો":11722,"▁સબંધી":11723,"▁આર્કિ":11724,"▁જામનગરમાં":11725,"લૅન્ડ":11726,"જનમાં":11727,"▁સચો":11728,"▁યુએ":11729,"▁સામેના":11730,"▁ફોનમાં":11731,"▁51":11732,"▁ફાટ":11733,"▁વળાંક":11734,"▁મ્યુઝિક":11735,"▁સભ્યોને":11736,"▁લખ્યું,":11737,"▁સંગઠનો":11738,"▁બંગાળ":11739,"▁આઝાદ":11740,"▁પર્સનલ":11741,"ગમત":11742,"પતી":11743,"નીત":11744,"▁જેતે":11745,"▁રહેવાના":11746,"▁પ્રોટો":11747,"▁ચાલકે":11748,"▁જૂદા":11749,"▁વિના,":11750,"▁ઘરનું":11751,"▁ઉમેરવામાં":11752,"આની":11753,"▁હસ્તી":11754,"▁કરાયેલી":11755,"▁ગુર્":11756,"▁પેટી":11757,"▁મિશ્રા":11758,"▁કિસ":11759,"▁સામેથી":11760,"▁૫૬":11761,"▁કરાવ્યો":11762,"▁અદભૂત":11763,"▁ઇજાગ્રસ્ત":11764,"▁કબ્જે":11765,"▁પંત":11766,"▁છાવ":11767,"▁દન":11768,"▁ફ્રો":11769,"▁ધસ":11770,"▁મેથી":11771,"વિષ્ટ":11772,"▁સંખ્યાબંધ":11773,"▁સ્ટાઇ":11774,"▁દરિયાઈ":11775,"▁ધિક્":11776,"▁વંચિત":11777,"ખ,":11778,"ૌપ":11779,"વાસમાં":11780,"▁લેકે":11781,"પ્રભુ":11782,"▁ત્યાંસુધી":11783,"▁બનાવતા":11784,"મણિ":11785,"▁૫૫":11786,"ર્ષિ":11787,"▁193":11788,"ભીત":11789,"▁એલર્જી":11790,"▁મુંબઈઃ":11791,"▁ઉભું":11792,"▁અગત્યનું":11793,"▁ટુકડાઓ":11794,"▁વિકેટે":11795,"▁રંગીન":11796,"▁બીન":11797,"▁ટેન્":11798,"▁જાણ્યા":11799,"▁યાર":11800,"ક્ટરમાં":11801,"▁ચિંતિ":11802,"▁જગતની":11803,"ગોળ":11804,"▁વિરોધમાં":11805,"▁જાન્યુઆરીએ":11806,"▁ઇચ્છિત":11807,"▁આંત":11808,"▁બર્થ":11809,"▁ભટક":11810,"▁જાએ":11811,"▁સિલ્વર":11812,"▁મહિલાની":11813,"▁સામર્થ્ય":11814,"▁મતભેદ":11815,"▁કદાપિ":11816,"▁સરખામ":11817,"▁સ્કીમ":11818,"મજ":11819,"▁વત":11820,"▁દઇએ":11821,"▁ગાન":11822,"▁કેાઈ":11823,"▁લિંગ":11824,"▁એકને":11825,"▁નાઈટ":11826,"▁ઉપયા":11827,"▁રેટિંગ":11828,"▁ટાળી":11829,"▁સાંભળ્યા":11830,"▁પ્રદૂષણ":11831,"▁હસ્તાક્ષર":11832,"▁એજ્યુકેશન":11833,"વાયુ":11834,"▁અહા":11835,"▁અયોગ્ય":11836,"▁આકરા":11837,"▁હતી\n":11838,"▁જણાયું":11839,"▁યાત્રી":11840,"▁લાખના":11841,"▁કાંતિ":11842,"▁તીક્ષ્ણ":11843,"▁સાચુ":11844,"▁અખબાર":11845,"વાળે":11846,"ન્નાથ":11847,"▁ચક્કર":11848,"▁વાચક":11849,"▁મળ્યા.":11850,"▁કહેલું":11851,"▁મિલી":11852,"▁દિવા":11853,"▁ગયો,":11854,"▁કમલ":11855,"▁ખેલ્યા":11856,"▁સન્માનિત":11857,"▁કાશ્મીરમાં":11858,"▁શ્વેત":11859,"▁ટાંકી":11860,"▁લાક્ષણિકતા":11861,"તાપૂર્વક":11862,"▁એનિ":11863,"▁નાયક":11864,"▁ઊંડી":11865,"▁જેટલાં":11866,"▁નિષ્ક્રિય":11867,"▁પૂરતો":11868,"▁શરૂઆતથી":11869,"▁અધ્યયન":11870,"▁નિયમોનું":11871,"▁ફેબ્રુઆરીએ":11872,"લક્ષ્મી":11873,"▁ટૅ":11874,"▁લેખે":11875,"▁જીવવા":11876,"▁સોનુ":11877,"▁ખુલ્લું":11878,"▁શિશુ":11879,"▁ભગત":11880,"▁જમીનની":11881,"▁કાર્બન":11882,"▁કવિએ":11883,"▁અફવા":11884,"▁હોટલમાં":11885,"કનું":11886,"▁પર્ણ":11887,"▁વિલાય":11888,"▁ચંદન":11889,"સ્ટ્રો":11890,"▁શક્યું":11891,"મ્બે":11892,"▁પ્રેમના":11893,"▁મારામારી":11894,"▁સમજતા":11895,"▁સ્થાનિકો":11896,"ભાઇએ":11897,"▁એસપી":11898,"▁સ્પષ્ટપણે":11899,"▁દીવસ":11900,"▁જન્મેલા":11901,"▁કાઉન્સિલ":11902,"▁લતા":11903,"▁ઉર":11904,"▁પાછે":11905,"▁બાજી":11906,"▁બાપા":11907,"▁પડયા.":11908,"▁..\n":11909,"▁બીજાની":11910,"▁૭૫":11911,"▁ન્યૂન":11912,"▁રુચિ":11913,"▁રૂપાણી":11914,"▁2018માં":11915,"▁આચરણ":11916,"▁સ્ટ્રીટ":11917,"▁વિશ્ર્વ":11918,",6":11919,"સ્યો":11920,"▁મલિક":11921,"▁રતિ":11922,"લેમ":11923,"ટીશ":11924,"મીક":11925,"દામાં":11926,"▁રીપોર્ટ":11927,"્યુલ":11928,"ગીય":11929,"ક્રાંતિ":11930,"▁શેટ્ટી":11931,"▁અંજામ":11932,"▁દુઃખા":11933,"▁પરિસ્થિતિને":11934,"▁સ્તંભ":11935,"▁રિટર્ન":11936,"▁સિક્યોરિટી":11937,"ડતાં":11938,"માર્ક":11939,"▁ગં":11940,"▁મેહે":11941,"ારી,":11942,"▁દાસી":11943,"ભાઈની":11944,"▁ટકા,":11945,"▁કંઈપણ":11946,"▁સ્વીકારે":11947,"▁આશય":11948,"▁માધુ":11949,"▁વિચારીને":11950,"▁મૃતદેહને":11951,"▁ધ્વજ":11952,"▁જગદીશ":11953,"▁સમયાંતરે":11954,"▁છત્તીસગઢ":11955,"ન્સિંગ":11956,"મે,":11957,"▁સેગ":11958,"▁દીધાં":11959,"▁ટ્રાન્":11960,"▁શરૂઆતના":11961,"▁જાતિના":11962,"▁ડૂબ":11963,"▁હૉસ્પિટ":11964,"▁કટિ":11965,"▁મણી":11966,"▁થર":11967,"▁ભકિત":11968,"▁કોવિ":11969,"▁હો,":11970,"▁કારના":11971,"▁ખેતર":11972,"▁ચેલે":11973,"▁યોજનાનો":11974,"▁ક્રિયાઓ":11975,"▁વાદળ":11976,"▁શ્રદ્ધાળુ":11977,"▁કોમ્યુ":11978,"▁જ્વેલ":11979,"▁માખણ":11980,"ંબર":11981,"ગટ":11982,"▁આજીવન":11983,"▁રવી":11984,"▁માટા":11985,"▁ઘટક":11986,"▁સંદેશા":11987,"▁હેરા":11988,"▁આવ્યો.\n":11989,"લયમાં":11990,"▁મગન":11991,"▁ઑન":11992,"▁વાર્તાઓ":11993,"▁પરિણામે,":11994,"▁ફાયરિંગ":11995,"▁બિલ્ડીંગ":11996,"▁હતેા.":11997,"વૈયા":11998,"▁જખ":11999,"▁ઉંઘ":12000,"▁કાજ":12001,"▁સાથેજ":12002,"જાની":12003,"▁ઈન્દ":12004,"▁ભૂકં":12005,"▁શોપિંગ":12006,"▁અપલોડ":12007,"▁ભર્યા":12008,"▁છાલ":12009,"▁કરીએ.":12010,"▁નહોતા":12011,"▁ઊંચું":12012,"▁સંસદમાં":12013,"યૂ":12014,"માણિક":12015,"▁જસદ":12016,"▁વઢ":12017,"▁પરિભ્રમણ":12018,"▁ડેડ":12019,"▁હાય.":12020,"▁ચાલ્યું":12021,"▁જંગી":12022,"▁માંડવી":12023,"▁શકાતી":12024,"▁વ્યવસાયમાં":12025,"▁યેાગ્ય":12026,"▁એમ્બ્યુલન્સ":12027,"જ્યારે":12028,"▁પ્રહ":12029,"▁વારમાં":12030,"▁સમર":12031,"િલ્ડ":12032,"▁ચેમ્બર":12033,"▁વિચારવા":12034,"▁63":12035,"▁એસટી":12036,"▁મુંબઈની":12037,"▁સ્ટોપ":12038,"ષેધ":12039,"▁રમતગમત":12040,"▁સગાં":12041,"▁દૈવી":12042,"ો.\n":12043,"▁સજાવ":12044,"▁અરૂ":12045,"▁આઇટ":12046,"ળાએ":12047,"▁જાણવામાં":12048,"▁પ્રોસેસ":12049,"▁પાછાં":12050,"▁62":12051,"▁૯૦":12052,"▁પાઇપ":12053,"ણપ":12054,"▁મલાઈ":12055,"▁બટ":12056,"▁ખસી":12057,"▁કાઠ":12058,"▁ત્યાંની":12059,"▁ખોટો":12060,"▁સ્થિરતા":12061,"▁હળદર":12062,"▁અલ્લાહ":12063,"▁ચિંતિત":12064,"▁મંગા":12065,"લાંગ":12066,"કાવી":12067,"▁સિક્કા":12068,"▁હેત":12069,"▁સહયોગી":12070,"▁શ્રીજી":12071,"▁પાણીનું":12072,"▁ભરવાની":12073,"▁ગાયકવા":12074,"▁ક્ષેત્રના":12075,"▁મુસાફરોને":12076,"▁રશિયાના":12077,"▁ચટણી":12078,"▁હાવી":12079,"▁ત્યાંજ":12080,"▁સ્પિન":12081,"▁ગાંધીને":12082,"▁સૂરજ":12083,"▁હોઈએ":12084,"▁મેટાં":12085,"▁ઉમટી":12086,"▁વાઘેલા":12087,"▁મનુષ્યા":12088,"▁અશ્વિ":12089,"▁મરાઠી":12090,"▁સમારોહમાં":12091,"ન.":12092,"પં":12093,"▁અજ્ઞા":12094,"▁લલ":12095,"▁સાદી":12096,"▁જામી":12097,"્યુ,":12098,"▁સેટિંગ":12099,"▁દુલ્":12100,"▁શિંદે":12101,"▁તરફ્":12102,"બેને":12103,"▁વૈશા":12104,"▁દુનિયાને":12105,"▁અવિરત":12106,"પત્રો":12107,"▁તર્":12108,"▁જહે":12109,"સ્તાં":12110,"▁ચંચ":12111,"▁લોડ":12112,"▁લેવ":12113,"▁ચેન્ન":12114,"▁કંપનીઓએ":12115,"▁બેઠાં":12116,"▁જણાતા":12117,"▁હશે?":12118,"▁નહોતા.":12119,"▁એલસીબી":12120,"▁કર્મચારીઓની":12121,"▁ન્યૂઝીલેન્ડ":12122,"▁છેાડી":12123,"▁ગર્લફ્રેન્ડ":12124,"▁સરખામણીએ":12125,"૬૦":12126,"▁ળ":12127,"▁સહાર":12128,"▁કરિ":12129,"▁શ્યા":12130,"▁ચડા":12131,"▁ક્ષુ":12132,"▁દો.\n":12133,"▁ફાઈલ":12134,"▁વસ્તુની":12135,"▁સમજાવવા":12136,"▁નજીકમાં":12137,"▁ઇન્ડેક્સ":12138,"દેવના":12139,"▁આટલો":12140,"▁અક્ષરો":12141,"▁ગમતું":12142,"▁ઓરડામાં":12143,"જવર":12144,"▁પમા":12145,"▁મતા":12146,"▁ભૈ":12147,"▁ટાય":12148,"▁વર્થ":12149,"▁મળ્યો.":12150,"▁આવ્યા.\n":12151,"ડો,":12152,"શ્ચિક":12153,"▁ગાયક":12154,"▁વ્યવહારમાં":12155,"▁એડવોકેટ":12156,"▁માથાના":12157,"▁બિલ્ડ":12158,"▁છોકરાઓ":12159,"▁તકનીકી":12160,"▁સચોટ":12161,"તેલા":12162,"▁હા.":12163,"▁જયંતિ":12164,"▁૧૮૮":12165,"▁માથામાં":12166,"▁વિપક્ષી":12167,"▁પંજાબના":12168,"▁ઝુંબેશ":12169,"ૂફ":12170,"તેજ":12171,"▁ગુનામાં":12172,"▁અપાવ":12173,"▁ચાલ્યો":12174,"▁600":12175,"▁સૈય":12176,"▁મ્હને":12177,"▁હેન્ડલ":12178,"▁ઈન્ટરનેશનલ":12179,"▁ફેક્ટરી":12180,"▁લક્ષ્મણ":12181,"▁પત્રો":12182,"▁સસ્ત":12183,"▁જરુ":12184,"▁દારા":12185,"▁ચણા":12186,"▁જીન":12187,"▁તરુ":12188,"▁રિપોર્ટ્સ":12189,"▁વ્યાખ્યાન":12190,"▁અનોખી":12191,"કમા":12192,"૪૦":12193,"▁છલ":12194,"ારના":12195,"▁એસ્ટેટ":12196,"▁પોઝિ":12197,"કારણ":12198,"▁ભાદર":12199,"▁રહે.\n":12200,"▁ડિફે":12201,"▁દિને":12202,"▁વિભાગને":12203,"▁સત્તાવાળા":12204,"▁ખરેખર,":12205,"▁એક્સેસ":12206,"▁વેપારમાં":12207,"▁મૈં":12208,"▁અંગ્રેજીમાં":12209,"▁કઠોર":12210,"જત":12211,"▁છે..\n":12212,"▁મોક્ષ":12213,"▁વધશે":12214,"વિયે":12215,"▁દારૂના":12216,"▁અજિત":12217,"▁સંકળાયેલ":12218,"▁પરમાર,":12219,"▁સંયોજન":12220,"▁ઉછાળો":12221,"બિન":12222,"▁નસ":12223,"▁નાબૂ":12224,"▁ધૃ":12225,"▁સુરે":12226,"યો.":12227,"સ્ટિંગ":12228,"▁ઝગ":12229,"▁બુલ":12230,"▁૪૭":12231,"▁યાદગાર":12232,"▁દર્દીઓના":12233,"▁દુકાનમાં":12234,"ઘર":12235,"▁રામના":12236,"ણીઓ":12237,"દીય":12238,"▁ખાધ":12239,"મ્મા":12240,"▁પડ્યો.":12241,"▁કુમ":12242,"▁મામલા":12243,"▁હસતાં":12244,"▁અદૃશ્ય":12245,"▁પુછપરછ":12246,"▁અસ્વસ્થ":12247,"▁પોઝીટીવ":12248,"ટિન":12249,"▁સારે":12250,"▁નરે":12251,"વેશન":12252,"▁વર્તા":12253,"▁પેશ":12254,"▁રૂઢિ":12255,"▁રિટેલ":12256,"▁59":12257,"▁વ્યાધિ":12258,"▁સ્પ્રે":12259,"▁ટ્રેક્ટર":12260,"દેવની":12261,"▁પંચમહા":12262,"▁રાજકોટ,":12263,"▁મેળવ્યું":12264,"▁સૂર્યના":12265,"▁ઠાકો":12266,"પ્રેમી":12267,"▁ચલણ":12268,"▁નારાજગી":12269,"હારા":12270,"▁છોડવા":12271,"ખીને":12272,"▁સ્વાતંત્ર્ય":12273,"વિધ્ય":12274,"▁સંગ્ર":12275,"▁બાજુના":12276,"▁અતિથિ":12277,"▁શરદી":12278,"▁ડિસ્પ્લે":12279,"▁સાઉદી":12280,"▁વચના":12281,"▁બૂમ":12282,"▁તાપી":12283,"▁ઈમાર":12284,"▁સીન":12285,"▁બંધન":12286,"ખોર":12287,"▁બોલ્યો":12288,"▁દર્દીના":12289,"▁ઝાડા":12290,"▁બનાવવાના":12291,"▁૧૯૭":12292,"▁રજપૂ":12293,"▁શ્રીમદ્":12294,"▁જળવાઈ":12295,"▁વિસ્ફોટ":12296,"મિયા":12297,"▁મા,":12298,"▁ધિરા":12299,"▁તેમનુ":12300,"▁ઇનામ":12301,"▁દાઉ":12302,"ાયેલાં":12303,"▁સેન્ટરમાં":12304,"▁મહત્ત્વની":12305,"▁જીલ્લાના":12306,"▁દષ્ટિ":12307,"▁લું":12308,"ન્તી":12309,"ંગુ":12310,"▁વાંદ":12311,"રોન":12312,"રોલ":12313,"શીએ":12314,"▁વિચારધારા":12315,"▁પડે.\n":12316,"▁ચિર":12317,"▁સામ્ય":12318,"▁હત્યાના":12319,"▁પૂછ્યું,":12320,"▁હંગા":12321,"▁માલુ":12322,"▁કેલિ":12323,"▁કોં":12324,"▁ઉપનિષ":12325,"પાક":12326,"દાએ":12327,"▁શકશો":12328,"▁લીટી":12329,"▁પડકારો":12330,"▁તથાપિ":12331,"▁ફરીને":12332,"▁શક્તિને":12333,"▁ઉપાધિ":12334,"▁મોરબીમાં":12335,"▁કૌશલ્ય":12336,"1માં":12337,"થન":12338,"હ્યા":12339,"હરિ":12340,"▁મ.":12341,"▁રામે":12342,"▁માટેજ":12343,"▁તાલી":12344,"▁કહેતી":12345,"▁ઝૂં":12346,"▁ફેસ્ટ":12347,"▁ફોજ":12348,"▁રણવીર":12349,"▁સેનાએ":12350,"▁બહાને":12351,"▁સયા":12352,"વાતા":12353,"▁વળવા":12354,"▁માક્ષ":12355,"▁નાળ":12356,"▁લાદ":12357,"▁ઇસ્ત":12358,"▁નેહ":12359,"▁વોશિંગ":12360,"▁લેખન":12361,"િકોણ":12362,",9":12363,"ચું":12364,"▁પય":12365,"▁માસની":12366,"▁સાનુ":12367,"▁આવરણ":12368,"▁હોબા":12369,"▁વધ્યો":12370,"▁લોકલ":12371,"વનમાં":12372,"▁68":12373,"▁વોલ્":12374,"▁પૂરક":12375,"▁ઠાકુર":12376,"▁અંકિત":12377,"▁નેતૃત્વમાં":12378,"િસ્ટ":12379,"ારમાં":12380,"ક્સેસ":12381,"ળાટ":12382,"▁મળ્યાં":12383,"▁મીર":12384,"▁સાંભળતા":12385,"...!":12386,"ફેક્શન":12387,"▁નિર્ણયને":12388,"ારૂપ":12389,"▁સ્વયંસેવ":12390,"▁સાર્વજનિક":12391,"▁રાજપૂત":12392,"ૉન":12393,"▁જ્યાર":12394,"▁સાધી":12395,"તિ,":12396,"ણાથી":12397,"જાએ":12398,"▁સિગ્ન":12399,"શી,":12400,"▁લાગેલા":12401,"▁શિવસે":12402,"▁માનીને":12403,"▁એક્ટિ":12404,"▁વ્હાઇટ":12405,"▁કેબિને":12406,"▁મહાનગરપાલિકા":12407,"▁પોસ્ટમોર્ટમ":12408,"બરો":12409,"શ્યામ":12410,"▁કવા":12411,"▁કપૂ":12412,"▁પળે":12413,"▁જરાય":12414,"▁તેડી":12415,"▁નઈ":12416,"▁ભળી":12417,"▁કોની":12418,"ન્ટની":12419,"ખાઈ":12420,"▁ખેદ":12421,"▁સોજો":12422,"▁મારામાં":12423,"▁ગુજરાતીમાં":12424,"▁પહોંચાડવા":12425,"▁રસોડામાં":12426,"▁રાખો.\n":12427,"▁મેકઅપ":12428,"▁ઉત્તેજન":12429,"ક્યુમેન્ટ":12430,"કન્યા":12431,"ાથી":12432,"▁પવાર":12433,"▁કરજ":12434,"▁ઓ.":12435,"▁ઇં":12436,"▁તાણ":12437,"પીએસ":12438,"▁ગાજર":12439,"કરના":12440,"▁કરાવવાની":12441,"▁સબસ્ક":12442,"▁સીબીઆઈ":12443,"ઘ્":12444,"ધિકાર":12445,"ન્યુ":12446,"સિહ":12447,"▁મિ.":12448,"▁મિલન":12449,"▁મીણ":12450,"▁ફરતી":12451,"▁તેવીજ":12452,"▁કર્ક":12453,"▁મંગલ":12454,"▁ડૉક્ટ":12455,"▁મથુ":12456,"▁પાંદડાં":12457,"▁ડેવલપમેન્ટ":12458,"▁છંટકાવ":12459,"ગથી":12460,"૨,":12461,"▁ાય":12462,"▁ગાયો":12463,"▁કેચ":12464,"▁નિવ":12465,"▁વેન્ટિ":12466,"▁કુટુ":12467,"▁જગત્":12468,"▁નોંધાયું":12469,"▁લાગે.":12470,"▁જનક":12471,"▁દ્રષ્ટ":12472,"▁ચર્ચાઓ":12473,"▁તારક":12474,"▁તોફાની":12475,"▁ગંદકી":12476,"દરે":12477,"લાઇડ":12478,"▁સાન":12479,"▁ખલી":12480,"▁ચ્":12481,"▁ફગાવી":12482,"▁73":12483,"▁માતાનું":12484,"▁૧૯૩":12485,"▁થોડીક":12486,"▁ગતિવિધિ":12487,"▁ટેલિવિઝન":12488,"▁પેસેન્જર":12489,"ચમ":12490,"ત્યારે":12491,"▁પારો":12492,"▁ઘરને":12493,"▁દરકાર":12494,"▁કર્યા,":12495,"ળો,":12496,"▁મંજુરી":12497,"▁ત્રિશુલ":12498,"▁લાવવાની":12499,"▁ટ્રાન્સપોર્ટ":12500,"▁પ્રકરણમાં":12501,"કક્ષા":12502,"▁અરી":12503,"▁તેણીની":12504,"▁દ્રો":12505,"્યાસ":12506,"લી.":12507,"ંગની":12508,"▁હોસ્ટે":12509,"▁હોસ્પી":12510,"▁બેનર":12511,"▁રિમાન્ડ":12512,"બેલ":12513,"▁ચિહ્":12514,"▁અવલોકન":12515,"▁ડીવી":12516,"▁પૃથ":12517,"▁ઘટાડા":12518,"▁પંપ":12519,"▁સાચવી":12520,"ગારો":12521,"ટમેન્ટ":12522,"બ,":12523,"નેરી":12524,"▁અસ્ત":12525,"▁ભગા":12526,"▁કાલિ":12527,"ટા,":12528,"▁લાગ્યાં.":12529,"પરથી":12530,"▁દર્દ":12531,"▁ચૂંટણીની":12532,"▁ડાયમંડ":12533,"▁લખેલું":12534,"▁ધર્માં":12535,"▁વાસ્તવિકતા":12536,"▁મોંઘા":12537,"▁સમર્પણ":12538,"▁પટ્ટા":12539,"▁બારો":12540,"▁માઇલ":12541,"સ્મિક":12542,"▁પાવન":12543,"▁આપ્યાં":12544,"ખાનામાં":12545,"▁જાણ્યું":12546,"▁રિવાજ":12547,"▁રિસોર્ટ":12548,"▁શેરોમાં":12549,"▁78":12550,"▁વગરની":12551,"▁કાર્તિક":12552,"▁અહેવા":12553,"▁સઘળી":12554,"▁બેંકો":12555,"▁ઉદ્ધવ":12556,"▁ફેડરલ":12557,"▁સેન્સેક્સ":12558,"▁થાંભ":12559,"▁લ્યુ":12560,"▁ડરી":12561,"▁સેન્સર":12562,"▁બીસીસી":12563,"બાપુ":12564,"▁કુવા":12565,"▁અનુકરણ":12566,"▁પહોંચ્યા.":12567,"▁વિવિધતા":12568,"▁અસલી":12569,"▁સાતમા":12570,"▁આઇફોન":12571,"▁ચાંદીના":12572,"▁ઉતરે":12573,"▁અન્વ":12574,"▁પ્રાઈવેટ":12575,"▁વારાણ":12576,"▁અંકુશ":12577,"▁રચા":12578,"▁બળી":12579,"▁માનુ":12580,"િક,":12581,"▁ઉપદ્ર":12582,"▁સિધ્ધ":12583,"▁દીર્":12584,"▁વિચારને":12585,"▁જગન્નાથ":12586,"▁શકાય,":12587,"▁થયો.\n":12588,"એસપી":12589,"▁ગાંધીનગરમાં":12590,"▁પદવી":12591,"▁ચાલીને":12592,"▁લેાકાને":12593,"▁પાસવર્ડ":12594,"▁અંબાજી":12595,"▁મૂલ્યવાન":12596,"▁અવરજવર":12597,"▁કાફલો":12598,"▁વિદ્યાર્થિની":12599,"શત":12600,"▁પડા":12601,"▁ટર્મ":12602,"સે,":12603,"▁પેન્ટ":12604,"▁ઈનિંગ":12605,"▁અધ્યાત્મ":12606,"▁નિષ્ણાં":12607,"▁જિજ્ઞા":12608,"▁બાંધકા":12609,"▁બગાડ":12610,"▁દહાડે":12611,"મ્યા":12612,"શિવ":12613,"▁ખરૂ":12614,"▁પાગલ":12615,"▁રાઉ":12616,"▁કોપી":12617,"કોમ":12618,"કારને":12619,"▁ટાયર":12620,"▁યુધિ":12621,"▁ગાઠ":12622,"▁કારણસર":12623,"તુ,":12624,"▁અંતરા":12625,"▁2021માં":12626,"▁યથાર્થ":12627,"▁કારોબારી":12628,"▁આબો":12629,"▁ગાર્":12630,"▁સાઇન":12631,"ટામાં":12632,"▁છોટા":12633,"▁પોલીસકર્મી":12634,"▁યૌ":12635,"▁પાંચમી":12636,"▁77":12637,"▁બોલ્યો.\n":12638,"ચરલ":12639,"▁૭.":12640,"▁પ્રત્યેની":12641,"........":12642,"▁ખુશીથી":12643,"▁હસતા":12644,"▁ભેદભાવ":12645,"▁મુસ્લિમો":12646,"▁લાકડાના":12647,"▁ભરોસો":12648,"▁દંપતી":12649,"▁મક્કમ":12650,"શમ":12651,"▁સન્યા":12652,"▁સાચે":12653,"▁પાલી":12654,"▁મોડા":12655,"▁વેઠ":12656,"▁ચેકિંગ":12657,"▁વૈવિધ્ય":12658,"▁પાછળનું":12659,"▁વિદ્યાર્થીઓની":12660,"▁૧૫૦":12661,"▁૨૦૧૯":12662,"▁ધંધામાં":12663,"▁કક્ષાએ":12664,"▁ફેમિલી":12665,"ચિક":12666,"વાણ":12667,"ના\n":12668,"▁દ્વ":12669,"▁લટક":12670,"ાવન":12671,"િત,":12672,"▁ઈમે":12673,"▁વૃશ્ચિક":12674,"▁સાંસદો":12675,"▁જ્ઞાનની":12676,"▁શ્રદ્ધાં":12677,"▁૧૦૮":12678,"▁દબાવી":12679,"▁પરેશ":12680,"▁દરિયામાં":12681,"▁લાયસન્સ":12682,"▁સ્વિમિંગ":12683,"મહારા":12684,"ઈઝ":12685,"▁કદર":12686,"ાવવાનો":12687,"▁ઉપપ્રમુખ":12688,"▁સિમેન્ટ":12689,"▁શાન્ત":12690,"પરંતુ":12691,"▁દિલમાં":12692,"▁દૂરથી":12693,"▁બાળકોમાં":12694,"ટ્સે":12695,"▁આરોપીઓની":12696,"▁શબ્દના":12697,"▁મનુષ્યની":12698,"▁ખળભ":12699,"▁કેજરીવાલે":12700,"આમાં":12701,"▁કન્ટ":12702,"▁કતાર":12703,"▁સખ્યા":12704,"▁આત્":12705,"લાંડ":12706,"▁લક્":12707,"▁વિલા":12708,"▁નાદ":12709,"ારે,":12710,"▁ક્રૂડ":12711,"▁ડેવિડ":12712,"▁કંપનીઓને":12713,"▁ફરિયાદી":12714,"▁કરનારને":12715,"▁નોકરીમાં":12716,"▁પર્યંત":12717,"▁સ્ટેડિયમમાં":12718,"▁જરુરી":12719,",0":12720,"પું":12721,"▁હતા\n":12722,"બીએ":12723,"▁કિમ":12724,"▁ટીપાં":12725,"▁દિપક":12726,"▁શ્રવણ":12727,"▁વિકૃતિ":12728,"▁આખુ":12729,"▁ક્રિકેટમાં":12730,"▁સંતુલિત":12731,"▁વદ":12732,"▁ખતા":12733,"▁સ્ક્ર":12734,"▁ધૃત":12735,"▁સુભાષ":12736,"▁કરેલાં":12737,"▁નોંધાયેલા":12738,"▁કેમિકલ":12739,"▁વગેરેને":12740,"▁ગાંધીની":12741,"▁મજબૂ":12742,"▁હતુ,":12743,"▁બિલિયન":12744,"▁મેડીકલ":12745,"ચની":12746,"્રાઇ":12747,"ચા,":12748,"વાથી,":12749,"▁પ્રતિબદ્ધ":12750,"દાર,":12751,"▁ક્ષણો":12752,"▁ડોનાલ્ડ":12753,"▁ભાઈને":12754,"▁સમુદ":12755,"▁ગોલ્ડન":12756,"▁કમો":12757,"▁નિધિ":12758,"▁મોકો":12759,"▁લેશ":12760,"ન્યૂ":12761,"▁કાર્યને":12762,"▁શીખ્યા":12763,"▁શરીરનું":12764,"▁બારણું":12765,"▁એપ્રિલના":12766,"ંમત":12767,"▁બજાવ":12768,"▁એશિયન":12769,"▁ધેર":12770,"▁સમન્":12771,"મોહન":12772,"▁જવાહર":12773,"▁પ્રજાની":12774,"બિંદુ":12775,"▁સ્વાસ્થ્યને":12776,"▁માલિકો":12777,"▁પરિવહ":12778,"▁ફેસ્ટિવ":12779,"45":12780,"એ.\n":12781,"▁નર્સ":12782,"▁શસ્ત્રો":12783,"▁ખલે":12784,"▁રોકડા":12785,"▁સિમ":12786,"પોર":12787,"▁વિકાસને":12788,"▁૮.":12789,"▁કાયદાની":12790,"▁બારડો":12791,"જિકલ":12792,"▁જાતકો":12793,"લેાક":12794,"▁પ્રશાંત":12795,"▁વિભાજિત":12796,"▁શાસ્ત્રમાં":12797,"▁ક્વાર્ટ":12798,"ગુજરાત":12799,"▁સેલ્ફી":12800,"▁કઢા":12801,"▁પશ્ચા":12802,"▁અરો":12803,"▁અદ્ર":12804,"▁મંત":12805,"▁નાત":12806,"▁નાગા":12807,"▁સંવત":12808,"▁સરવે":12809,"▁યુવાને":12810,"▁રાખવાના":12811,"ન્ડર્ડ":12812,"▁આગમ":12813,"▁બનાવતી":12814,"▁થયું.\n":12815,"▁ઘટનાના":12816,"▁ઢે":12817,"્રિજ":12818,"▁વહેતી":12819,"▁સ્ટાફે":12820,"▁મિનિટમાં":12821,"▁બેંકના":12822,"▁ઐશ્વર":12823,"▁અંધાર":12824,"▁સર્જાય":12825,"▁નાનકડી":12826,"▁જ્યોર્જ":12827,"હાનિ":12828,"▁આા":12829,"ાવવાનું":12830,"▁જાગે":12831,"▁બેંગ્લો":12832,"▁લે,":12833,"સીમ":12834,"રણ્ય":12835,"▁સીરીઝ":12836,"▁બીજાના":12837,"▁ટ્રેનો":12838,"▁વિદ્યાર્થીઓના":12839,"▁જુઓ.":12840,"▁કોહલીએ":12841,"▁તટસ્થ":12842,"▁ઓલિમ્પિક":12843,"▁સાથોસાથ":12844,"નીક":12845,"▁નયન":12846,"ન્ચે":12847,"▁વાસ્તુ":12848,"▁ને,":12849,"▁મીરાં":12850,"▁બિરાજ":12851,"બેરી":12852,"▁સમજાયું":12853,"▁ગુજરાતને":12854,"▁જગ્યામાં":12855,"▁ચુડા":12856,"▁માનવતા":12857,"▁ઘોષણા":12858,"▁કલેક્શન":12859,"▁ડાયાબિટી":12860,"▁બૃહ":12861,"▁પરવા":12862,"▁ટાવર":12863,"ષ્મ":12864,"▁ભાજન":12865,"વિવાદ":12866,"નાં,":12867,"▁બીલ":12868,"ુકુ":12869,"▁ઘણીજ":12870,"▁છતાંય":12871,"▁વારસા":12872,"▁વ્યાકરણ":12873,"▁પાછળની":12874,"▁વાંચે":12875,"▁જીત્યો":12876,"▁ટેસ્ટમાં":12877,"▁દર્શકો":12878,"▁નિકળી":12879,"▁દાદાશ્રી":12880,"▁ફાઈનલ":12881,"▁મૃગ":12882,"▁ફસાયેલા":12883,"બસ":12884,"▁અન્ત":12885,"▁રખે":12886,"▁દઉં":12887,"▁કોણે":12888,"યું,":12889,"▁પાર્વતી":12890,"▁દિલ્લી":12891,"▁૬૫":12892,"▁ઓળખાણ":12893,"▁લીધેલા":12894,"▁પ્રદેશની":12895,"▁ધમધ":12896,"▁સંચાલક":12897,"▁વરસ્યો":12898,"▁રાજસ્થાનમાં":12899,"▁ઉમેદવારોને":12900,"▁યજમ":12901,"▁તુલનામાં":12902,"▁જહેમત":12903,"▁પાયો":12904,"▁આશ્વાસ":12905,"▁મફ":12906,"ું.":12907,"તાપ":12908,"▁ચાય":12909,"▁સંલગ્ન":12910,"ડેડ":12911,"ખા,":12912,"▁કુટું":12913,"▁ઉત્તરી":12914,"▁ભાગ,":12915,"▁મદ્રા":12916,"▁જૂનના":12917,"▁જયંતી":12918,"▁જ્ઞાનના":12919,"▁ફીચર":12920,"▁ટોચની":12921,"▁વિરૂધ્ધ":12922,"▁સંતુષ્ટ":12923,"▁હેલિકોપ્ટર":12924,"▁અનુયાયી":12925,"જલી":12926,"ર્મી":12927,"▁થવુ":12928,"▁વિતાવ":12929,"▁વાલ":12930,"▁હોલ્ડ":12931,"▁વધવાની":12932,"▁કહેલા":12933,"▁કહાની":12934,"▁પ્રાકૃત":12935,"▁ખુલી":12936,"ફામ":12937,"▁ગયું.\n":12938,"▁અહેમદ":12939,"▁કૉલે":12940,"▁અટકાવે":12941,"▁અપાવી":12942,"▁અલ્પેશ":12943,"મકી":12944,"દેદારો":12945,"▁થઈ.\n":12946,"▁ખૂન":12947,"ન્નર":12948,"▁પાર્ટીને":12949,"▁અનાદિ":12950,"▁જોડાવા":12951,"▁પ્રવાસે":12952,"▁દહાડા":12953,"▁ઇસ્તંબુ":12954,"શરી":12955,"▁સસ્તી":12956,"ટેન":12957,"રોડ":12958,"▁વરસની":12959,"▁પગની":12960,"▁સ્થાપક":12961,"▁લીધે,":12962,"▁નાટ્ય":12963,"ષાય":12964,"્યારી":12965,"▁લઉં":12966,"▁દાળ":12967,"▁અંગો":12968,"▁યત્ન":12969,"▁મદન":12970,"▁કપમાં":12971,"▁લાગી,":12972,"▁સલામ":12973,"▁બ્રાઉ":12974,"▁ભયભીત":12975,"જનોને":12976,"▁લગાવીને":12977,"▁શૈલીમાં":12978,"ભિન્ન":12979,"▁સદ્ગુ":12980,"▁વિકાસમાં":12981,"▁સગર્ભા":12982,"ઈંગ":12983,"ચરિત્ર":12984,"લાલને":12985,"▁પ્રફુ":12986,"▁ચડે":12987,"▁કાવ્યા":12988,"▁આવિ":12989,"▁મુકીને":12990,"દા,":12991,"▁રહેવુ":12992,"મિની":12993,"મોટા":12994,"▁ડોક્યુમેન્ટ":12995,"▁થાઇ":12996,"પિતા":12997,"▁જોયું.":12998,"▁હરાવી":12999,"▁પ્રમ":13000,"▁પ્રવિ":13001,"▁કાઠી":13002,"▁છો?\n":13003,"▁વસ્તુઓને":13004,"▁પ્રશ્નના":13005,"▁ઔપ":13006,"▁અગત્યની":13007,"▁એસોસિએશન":13008,"યમાં":13009,"▁બહિ":13010,"ર્નિંગ":13011,"▁કોષ્ટ":13012,"▁સુકા":13013,"▁ઇન્દ":13014,"▁દાવે":13015,"▁પ્રેમને":13016,"▁પ્રકારો":13017,"▁શેરમાં":13018,"તમંદ":13019,"▁સિવાયના":13020,"▁પ્રક્રિયાઓ":13021,"▁રવિવાર":13022,"▁દર્શના":13023,"▁નવેમ્બરે":13024,"▁કાપીને":13025,"▁લડાઈમાં":13026,"▁ચોકલેટ":13027,"▁ડ્રાઈવ":13028,"▁શિલ્પા":13029,"આએ":13030,"ડકા":13031,"તમા":13032,"પદે":13033,"પાંચ":13034,"▁સખ્ત":13035,"રીન":13036,"શાને":13037,"▁વ્યર્થ":13038,"▁બોર":13039,"મિલ":13040,"▁ખોર":13041,"▁વિસ્તારમાંથી":13042,"▁ઉપાધ્યાય":13043,"▁મોકલવા":13044,"▁ઉદ્યોગમાં":13045,"▁સ્માર્ટફો":13046,"▁આજુબાજુના":13047,"▁વેક્સીન":13048,"▁તસ્વી":13049,"વીન":13050,"▁પણ્":13051,"ાંને":13052,"▁મુઝ":13053,"નિષ્ઠ":13054,"▁અધમ":13055,"▁પ્રતિકૂળ":13056,"▁ક્ષમ":13057,"▁ધર્મનું":13058,"▁પ્રોજેક્ટ્સ":13059,"▁જાડેજાએ":13060,"▁ગુંદર":13061,"▁પહાડ":13062,"▁શિવાજી":13063,"લ.":13064,"▁તસ્ક":13065,"્ય,":13066,"▁અગી":13067,"▁દં":13068,"રાણિક":13069,"▁પર્યાય":13070,"▁આવકમાં":13071,"ણાએ":13072,"▁પ્રેસિ":13073,"▁અટલ":13074,"▁સુધર":13075,"▁મેન્યુ":13076,"▁અવગણના":13077,"▁સુનીલ":13078,"▁છૅ":13079,"▁આલેખ":13080,"ંગત":13081,"▁સુભ":13082,"▁મોડું":13083,"▁કાર્યક્ષમતા":13084,"▁જુનિયર":13085,"▁દિવસનો":13086,"▁૪૯":13087,"▁દેખાતું":13088,"▁ગૃહસ્થા":13089,"▁સાહિત્યમાં":13090,"▁કોર્પોરેટર":13091,"▁ડ્રોન":13092,"દલ":13093,"હક":13094,"▁તજી":13095,"▁છેલ્લો":13096,"▁હસીને":13097,"▁ગૂં":13098,"▁ફિલ":13099,"▁પામતા":13100,"▁કાજલ":13101,"ારા,":13102,"ગાહ":13103,"▁પ્રા.":13104,"▁ટેલી":13105,"વરણીય":13106,"▁ફિલ્મી":13107,"▁બનાવટી":13108,"રાજને":13109,"▁અસહ્ય":13110,"મર્યા":13111,"ગ્રહણ":13112,"6.":13113,"જ.":13114,"▁લારી":13115,"▁પાકી":13116,"▁કાલી":13117,"પ્પુ":13118,"▁પ્રતિક":13119,"ળેલા":13120,"▁ધરવા":13121,"▁રાખીને,":13122,"▁આત્મનિર્ભર":13123,"▁અહેસાસ":13124,"▁રણબીર":13125,"▁રાજયમાં":13126,"▁યજમાન":13127,"▁ડોલરની":13128,"▁કાબૂમાં":13129,"▁સત્સંગ":13130,"▁પંકજ":13131,"ફિટ":13132,"ૂંક":13133,"▁કફ":13134,"▁અજબ":13135,"▁કોમ્પ":13136,"▁લેનારા":13137,"▁રૂબરૂ":13138,"▁સુરતની":13139,"▁વૈભવી":13140,"▁કાઇને":13141,"▁પ્રજાસત્તા":13142,"▁શૈલેષ":13143,"▁સ્ટાન્ડર્ડ":13144,"▁ફ્રેમ":13145,"▁ગ્રેડ":13146,"▁બિહારના":13147,"▁ફેડરેશન":13148,"▁આઈપીએલ":13149,"▁પ્રાઇવેટ":13150,"▁સાર્થક":13151,"▁ઝારખંડ":13152,"પાય":13153,"લામ":13154,"▁પ્રાયો":13155,"▁પાવા":13156,"વિસ્ત":13157,"▁મળવાથી":13158,"▁યાદો":13159,"▁કંપનીઓના":13160,"▁વ્યાપ":13161,"▁ચુપ":13162,"▁ડિઝાઇ":13163,"▁સંતાનો":13164,"▁જયેશ":13165,"▁તરફેણમાં":13166,"શ્રેષ્ઠ":13167,"ટકે":13168,"સંપ":13169,"▁એટેક":13170,"▁જેનાં":13171,"▁રાશી":13172,"▁જોઉં":13173,"▁ઓઇલ":13174,"▁બનતું":13175,"▁કપલ":13176,"▁મતદાર":13177,"▁આનન્દ":13178,"▁આરોપીએ":13179,"▁વસતા":13180,"▁ગ્રેજ્યુ":13181,"▁બંગાળમાં":13182,"▁મંજુર":13183,"▁છિદ્ર":13184,"▁મગફળી":13185,"ગિક":13186,"ચાય":13187,"▁ગઝલ":13188,"રાથી":13189,"યા.\n":13190,"▁વિક્ષેપ":13191,"▁રાઘ":13192,"ટીકલ":13193,"▁પુણે":13194,"▁વેરાવ":13195,"▁ઝવે":13196,"▁અનુરોધ":13197,"▁૨\n":13198,"▁વરદાન":13199,"▁મનપા":13200,"▁મેચની":13201,"▁શાહરુ":13202,"▁હત્યાનો":13203,"કાવવાની":13204,"▁વાંચીને":13205,"નાન":13206,"▁પ્રસા":13207,"▁ભારી":13208,"▁ખન":13209,"▁એકંદર":13210,"▁જાગ્ર":13211,"ટાના":13212,"▁ખાવી":13213,"▁વ્યકત":13214,"વવાને":13215,"▁આજે,":13216,"▁રાજ્યને":13217,"મુખે":13218,"શ્ચિ":13219,"▁ગાંધીના":13220,"▁અસુર":13221,"▁દેખાઇ":13222,"▁ક્ષેત્રની":13223,"▁એન્ડ્રો":13224,"▁પોર્ટલ":13225,"▁અસ્થિ":13226,"▁સાક્ષાત્કાર":13227,"5માં":13228,"ંજા":13229,"સહ":13230,"૨૮":13231,"માસિક":13232,"▁ગટર":13233,"ાવતાં":13234,"સામે":13235,"▁ઈસ્લા":13236,"સિન":13237,"▁રહી.\n":13238,"▁બોગસ":13239,"▁પ્રક્રિયાને":13240,"▁કામગીરીમાં":13241,"▁ભ્રમણ":13242,"▁બતાવ્યા":13243,"▁વિધાર્થી":13244,"▁રાવણ":13245,"▁કથન":13246,"▁અપનાવી":13247,"▁ફાળવવામાં":13248,"▁ક્વાર્ટર":13249,"રીટ":13250,"▁સ્લે":13251,"▁લાકડાં":13252,"▁દેવાના":13253,"વિર":13254,"શાના":13255,"▁ખૂણા":13256,"▁આંખા":13257,"▁ટોલ":13258,"▁ચૂકવી":13259,"▁જાનથી":13260,"▁મુકવા":13261,"▁ગતિશીલ":13262,"▁કચેરીમાં":13263,"▁ફ્રાં":13264,"▁ગોળીઓ":13265,"▁મૂલ્યો":13266,"▁વજ્ર":13267,"▁કલકત્તા":13268,"પાર્":13269,"▁આત્મક":13270,"▁પ્રક":13271,"▁બનાવા":13272,"▁કેટલેક":13273,"▁સમાવિષ્ટ":13274,"વાળાએ":13275,"▁એનાયત":13276,"▁સમસ્યાને":13277,"▁સમસ્યાનો":13278,"▁ચૂક્યું":13279,"▁રાખેલ":13280,"▁મિત્રને":13281,"▁લગાવ્યા":13282,"▁2020માં":13283,"▁નારદ":13284,"▁ઘેાડી":13285,"▁રજિસ્ટ્રેશન":13286,"▁કેટેગરીમાં":13287,"થાન":13288,"૭,":13289,"▁કરિય":13290,"▁ગધે":13291,"▁રાષ્ટ":13292,"ત્તાની":13293,"▁ધરમાં":13294,"કેતુ":13295,"▁કોસ્ટ":13296,"▁નિગ":13297,"વિઝ":13298,"શ્કરી":13299,"▁રહા":13300,"બીના":13301,"▁જ્ઞાન,":13302,"▁જોખમમાં":13303,"▁પ્રોડક્શન":13304,"▁આપોઆપ":13305,"▁દિકરી":13306,"▁મત્ર":13307,"▁રણુ":13308,"લીટ":13309,"▁એકઠી":13310,"સાહિત્ય":13311,"▁ઓક":13312,"દીક":13313,"▁સ્વરાજ્ય":13314,"પેક્ષ":13315,"▁આપી.\n":13316,"▁સુખની":13317,"▁ઇન્વેસ્ટ":13318,"▁પુનર્":13319,"▁મોકલે":13320,"▁સજ્જન":13321,"▁છપા":13322,"ભાસ":13323,"શ્નર":13324,"▁રાખો,":13325,"▁મહાસભા":13326,"▁ઉમેરા":13327,"▁દયાળુ":13328,"▁બાબતોમાં":13329,"▁બેસવા":13330,"▁મશરૂ":13331,"▁અનુપમ":13332,"▁ઉત્સાહી":13333,"▁કમનસીબે":13334,"3માં":13335,"4.":13336,"આન":13337,"ળથી":13338,"ોર":13339,"▁સબ્":13340,"▁દશે":13341,"સ્થી":13342,"તિની":13343,"▁પાદુ":13344,"▁વાકે":13345,"▁ટક":13346,"પાઠ":13347,"▁ભાસ":13348,"▁ઈસુ":13349,"▁ગુજરાન":13350,"▁બિચારા":13351,"▁સ્થાનો":13352,"▁શરણે":13353,"▁શાહ,":13354,"▁સાંભળતાં":13355,"▁શ્વેતા":13356,"▁નિવેદનો":13357,"▁કઠિન":13358,"▁બજારોમાં":13359,"▁વૈષ્ણવ":13360,"▁સમ્રાટ":13361,"▁પ્રોપર્ટી":13362,"▁ર૦":13363,"▁બચ્ચા":13364,"▁એ\n":13365,"▁લટકા":13366,"▁ટૉ":13367,"હાસ":13368,"▁અંતરમાં":13369,"▁98":13370,"▁પૂછવા":13371,"▁ચૂકવવામાં":13372,"▁રજૂઆ":13373,"લેન્ડર":13374,"▁હિંસક":13375,"વ્યાપી":13376,"▁બતાવ્યું":13377,"▁એકબીજાની":13378,"▁રમાયેલી":13379,"▁પ્રશ્નોના":13380,"▁ગણાય.":13381,"▁સંબંધીઓ":13382,"▁લઘુત્તમ":13383,"▁નવરાત્રિ":13384,"▁પરિમાણો":13385,"▁કિસ્સાઓમાં,":13386,"▁સર્કિટ":13387,"▁સર્ટિફિકે":13388,"ઇની":13389,"બર્ટ":13390,"શબ્":13391,"▁ગદ્ય":13392,"▁સ્ત્ર":13393,"▁ફૈ":13394,"ડીપી":13395,"▁લેવડ":13396,"્યુલેશન":13397,"સ્ટ્રા":13398,"રિન":13399,"ચીને":13400,"▁આવ્યો,":13401,"▁૩,":13402,"▁રંગમાં":13403,"▁ભાઈ,":13404,"▁સામાજીક":13405,"▁સવારમાં":13406,"સમૂહ":13407,"▁પાલનપુર":13408,"▁થનારી":13409,"▁સાબુ":13410,"▁પાકને":13411,"▁ઉપરી":13412,"▁વધ્યું":13413,"તુ.":13414,"▁અપક્ષ":13415,"▁મૃતકના":13416,"▁ઈમરાન":13417,"સૌ":13418,"▁અષ":13419,"ારની":13420,"ણીયા":13421,"▁ઘરો":13422,"જેક્ટ":13423,"હિતા":13424,"બાલ":13425,"▁ખુશા":13426,"▁ડિપ્રે":13427,"▁વરરાજા":13428,"▁ધોઈ":13429,"▁ઇમરાન":13430,"ઓવર":13431,"સરો":13432,"ુએ":13433,"લ્સની":13434,"ટી.":13435,"▁મળવાનું":13436,"નિકા":13437,"▁ગાળાના":13438,"▁વ્યવસ":13439,"▁મધ્યે":13440,"▁૧૯૮":13441,"▁વિકટ":13442,"▁શરીરમાંથી":13443,"▁યુરોપમાં":13444,"▁નાનકડા":13445,"▁બુકિંગ":13446,"▁લેપટોપ":13447,"▁ધર્મેન્દ્ર":13448,"▁પરનો":13449,"▁ફફ":13450,"▁લાઇક":13451,"▁સુલે":13452,"▁મોઢે":13453,"વિકા":13454,"સ્ટન":13455,"▁ચેરી":13456,"▁સમજ્યા":13457,"રાજની":13458,"▁મહારાજના":13459,"▁કર્યાં,":13460,"▁બેંકમાં":13461,"▁નજરમાં":13462,"▁વડોદરાના":13463,"▁ચૈા":13464,"▁હલકા":13465,"▁તળિયે":13466,"▁લખનૌ":13467,"▁ટ્રોફી":13468,"▁દવાની":13469,"ર્શિયલ":13470,"કાળે":13471,"▁ઇજને":13472,"લોલ":13473,"▁થાયછે.":13474,"પ્ટો":13475,"ત્રીસ":13476,"▁શ્રીકૃષ્":13477,"▁પ્લસ":13478,"▁બદલે,":13479,"▁ચઢે":13480,"▁ઉત્તેજના":13481,"▁દલપત":13482,"▁આવેદનપત્ર":13483,"ડયંત્ર":13484,"▁સ્ર":13485,"▁હારે":13486,"▁કેહે":13487,"▁એકસર":13488,"▁સાથેસાથે":13489,"્રેટ":13490,"▁ઇલા":13491,"લિની":13492,"ચાલી":13493,"▁રિલેશન":13494,"▁ગ્રાન્ટ":13495,"▁લાગી.\n":13496,"▁ખર્ચમાં":13497,"▁ચિંતામાં":13498,"▁શકાશે.\n":13499,"▁પહોંચાડે":13500,"▁બંગાળના":13501,"▁ગઢવી":13502,"▁બાતમીના":13503,"ગિત":13504,"▁ગઝ":13505,"▁ઉડાવી":13506,"▁જોગી":13507,"▁કરીના":13508,"લ્સમાં":13509,"▁સુગર":13510,"▁મેલા":13511,"▁મહંત":13512,"▁સેનાની":13513,"નિક્સ":13514,"▁પ્રાણા":13515,"▁અધિન":13516,"▁થયાં.":13517,"▁ચિત્રા":13518,"▁પડી,":13519,"▁નિર્ણાયક":13520,"▁ઘટાડવામાં":13521,"▁ઋણ":13522,"▁બનાવેલા":13523,"▁ફ્રેન્":13524,"▁માતૃભાષા":13525,"સર્":13526,"વાજો":13527,"▁રબર":13528,"▁જેમ્સ":13529,"મેને":13530,"▁પાને":13531,"▁વાણિ":13532,"▁કાળો":13533,"▁મેકલ":13534,"▁ખાઈને":13535,"▁નેક":13536,"▁રોટલી":13537,"વો.\n":13538,"પૂજા":13539,"▁મુખે":13540,"▁સૂપ":13541,"▁ડેમો":13542,"▁190":13543,"▁સાધ્":13544,"▁ત્યાગી":13545,"▁પ્રશ્નકર્તા":13546,"▁ઉત્પાદકો":13547,"▁ગ્રેટ":13548,"▁વાસણ":13549,"▁ઉમેદવારોની":13550,"▁બગીચામાં":13551,"▁અમૂલ્ય":13552,"ભવે":13553,"▁કબીર":13554,"▁હૂ":13555,"▁સાહિ":13556,"હેા":13557,"▁જેઠા":13558,"▁ધડ":13559,"▁હોતા":13560,"▁રાજપુ":13561,"ધાત":13562,"▁વધુની":13563,"▁સીઝ":13564,"▁અવસરે":13565,"ટ્ટર":13566,"▁પૂર્વજો":13567,"▁આઈપીએ":13568,"▁પૌરાણિક":13569,"▁પ્રણાલી":13570,"થની":13571,"સત":13572,"▁વૅ":13573,"▁રડવા":13574,"▁એકની":13575,"▁ધ્ર":13576,"ાવસ્થા":13577,"▁મુદા":13578,"▁ઓર્":13579,"▁લીન":13580,"▁૬૪":13581,"▁મૃત્યુના":13582,"▁ઉદ્યા":13583,"▁૧૯૫":13584,"▁પુરુષાર્થ":13585,"▁ઉત્પાદનમાં":13586,"▁છૂટક":13587,"▁અહુર":13588,"ચ્છેદ":13589,"▁ઉમેરો.":13590,"▁ષડયંત્ર":13591,"▁દરજ્જો":13592,"ચલા":13593,"બાયો":13594,"▁પતી":13595,"▁આયોગ":13596,"▁પ્રત્યા":13597,"ક્સે":13598,"▁એકલો":13599,"▁બાહુ":13600,"▁ઉપર,":13601,"▁ભૂખ્યા":13602,"નારના":13603,"▁બનશે.\n":13604,"▁સભાન":13605,"▁પ્રસંગો":13606,"▁ગુમાવ્યા":13607,"▁બ્રહ્મચર્ય":13608,"▁મંડળી":13609,"▁અસ્પષ્ટ":13610,"▁યુધિષ્ઠ":13611,"28":13612,"▁િ":13613,"▁બસ,":13614,"લીલા":13615,"▁એકંદ":13616,"સાએ":13617,"▁ઇંદ":13618,"▁પુજા":13619,"ધારણુ":13620,"▁કરાતા":13621,"▁દ્રઢ":13622,"▁ગ્રૂ":13623,"▁સંસ્કરણ":13624,"▁પ્રતિનિધિઓ":13625,"▁સમારકામ":13626,"▁દુર્ગંધ":13627,"ંઠ":13628,"ચકિત":13629,"ફાં":13630,"▁દેશે.":13631,"▁બેફામ":13632,"▁પુત્રા":13633,"િયારા":13634,"લિઝ":13635,"▁વાત,":13636,"▁સ્વરે":13637,"▁સહાનુ":13638,"જ્ઞે":13639,"▁ગેહ":13640,"▁લખ્યો":13641,"▁માંગુ":13642,"એમસી":13643,"▁સલાહકાર":13644,"▁લંબા":13645,"▁પૂર્વા":13646,"▁બોલાવવામાં":13647,"ઇના":13648,"દ્રુ":13649,"▁ગગ":13650,"ટેલિ":13651,"જીનો":13652,"▁નીમ":13653,"▁માહિતી,":13654,"▁ધર્મ,":13655,"▁આધે":13656,"▁એનસીપી":13657,"▁સાહિત્યના":13658,"▁ઢાળ":13659,"▁અડચણ":13660,"ઉં.":13661,"▁કેટર":13662,"▁આવનારી":13663,"ધીમે":13664,"▁રહેણાંક":13665,"▁ગાઇડ":13666,"▁શાશ્વત":13667,"▁ખીન્ન":13668,"▁કર્મના":13669,"▁ઘાતક":13670,"▁અખિલ":13671,"▁ભરાયા":13672,"▁કૃપાથી":13673,"હત":13674,"▁કતલ":13675,"▁પ્રજ્ઞા":13676,"▁હામ":13677,"યુ.":13678,"▁રોશન":13679,"▁સીરિ":13680,"▁સીઝનમાં":13681,"▁સમાવે":13682,"▁યાર્ડ":13683,"▁સુરત,":13684,"ફોડ":13685,"▁શેરડી":13686,"▁ભરાઇ":13687,"▁ડ્રાઇવિંગ":13688,"વતાં":13689,"▁આકરી":13690,"▁રબારી":13691,"▁કરવો.":13692,"યુદ્ધ":13693,"▁દાતા":13694,"▁ઊડી":13695,"▁જુની":13696,"▁પ્રેમ,":13697,"ફેક":13698,"શ્રીના":13699,"▁11.":13700,"▁પ્રોજેકટ":13701,"▁સુધારણા":13702,"▁વાપરે":13703,"▁ઢગલા":13704,"▁નિરૂપણ":13705,"▁માલુમ":13706,"▁જવ":13707,"▁દય":13708,"▁સાઇડ":13709,"▁ઉડ્":13710,"▁ધવન":13711,"▁રોશની":13712,"શાળામાં":13713,"▁સમયને":13714,"▁સ્થાપત્ય":13715,"▁કાર્યક્રમનું":13716,"▁રચાયેલ":13717,"▁ખરચ":13718,"શાસ્ત્રના":13719,"▁પ્રવચન":13720,"▁પશ્ચિમી":13721,"▁તદન":13722,"ન્ત્ર":13723,"▁જોધ":13724,"પાદન":13725,"▁સેમ્પલ":13726,"▁ખુલ્લો":13727,"▁રહ્યો.\n":13728,"▁ટીમનો":13729,"▁સમાચાર,":13730,"▁રુબે":13731,"▁યોજાનાર":13732,"▁વાહનોની":13733,"▁કરુણ":13734,"▁દરબારમાં":13735,"ફરી":13736,"▁સ્રી":13737,"▁સાસ":13738,"શેદ":13739,"▁ઘરોમાં":13740,"▁હાહા":13741,"▁ઈન્દ્ર":13742,"▁પીવાનું":13743,"▁લાગે,":13744,"▁700":13745,"▁મરહુમ":13746,"▁માલૂમ":13747,"▁આકસ્મિક":13748,"▁તૈયારીમાં":13749,"▁સ્વીકારવામાં":13750,"▁સંઘના":13751,"▁છાંટ":13752,"▁અનુષ્કા":13753,"▁શૂર":13754,"▁માસના":13755,"▁ગળી":13756,"▁એકએક":13757,"યોને":13758,"▁બાળા":13759,"▁વર્ઝન":13760,"▁રેસ્ક":13761,"▁સ્ટેશને":13762,"▁સ્ટ્ર":13763,"▁પત્નીની":13764,"▁મોરચા":13765,"▁ગાયને":13766,"▁ડિપોઝિટ":13767,"ન્હા":13768,"▁સ્લાઇડ":13769,"રોગ":13770,"▁ડૅ":13771,"▁લેશે.\n":13772,"શીને":13773,"સર,":13774,"▁શિસ્ત":13775,"▁ડિરે":13776,"▁શકો.":13777,"ડિટી":13778,"▁સર્વને":13779,"▁હોસ્પિટલોમાં":13780,"▁અભ્યાસક્ર":13781,"▁આતશ":13782,"▁ઉંમરમાં":13783,"▁મેઘરાજા":13784,"▁શ્રમિકો":13785,"▁કપૂરે":13786,"▁પતન":13787,"વાનાં":13788,"▁આણી":13789,"▁કર,":13790,"▁નડિયા":13791,"▁છે.અ":13792,"્યાએ":13793,"રીયલ":13794,"▁કોમન":13795,"▁સં.":13796,"યોમાં":13797,"રો.":13798,"▁વધતાં":13799,"▁ઇલે":13800,"▁જીએ":13801,"▁ઈમરજન્સી":13802,"▁સ્વદેશી":13803,"▁ગણો":13804,"▁800":13805,"▁સ્થાના":13806,"▁કરીએ,":13807,"▁યુદ્ધના":13808,"▁સૂર્યની":13809,"▁ઈન્ડિ":13810,"▁સગીર":13811,"▁આર્યન":13812,"▁હોબાળો":13813,"▁ઉષ્ણ":13814,"િયાનો":13815,"▁મોસ્કો":13816,"▁લેબ":13817,"▁પ્લો":13818,"▁કરાવતા":13819,"▁હોવાથી,":13820,"▁સિંહની":13821,"▁બાળકનું":13822,"▁કાયદાના":13823,"▁અનિશ્ચિત":13824,"▁સ્પર્ધાત્મક":13825,"▁અશ્વિન":13826,"▁કંટાળી":13827,"▁2014માં":13828,"▁ગર્ભાશય":13829,"ંઢ":13830,"ધ,":13831,"▁કળી":13832,"▁નમન":13833,"▁માલા":13834,"▁વિધે":13835,"▁સમીર":13836,"▁કહેર":13837,"વર,":13838,"▁સૂચિત":13839,"▁વારસ":13840,"▁૫૨":13841,"▁૬૩":13842,"▁દુનિયાભરમાં":13843,"▁પ્રમાણિક":13844,"▁અંકલેશ્વર":13845,"▁ઇલેક્ટ્રોનિક":13846,"▁વેરિઅ":13847,"▁દિવ્યાંગ":13848,"▁સ્મારક":13849,"▁કોમેડી":13850,"નીંગ":13851,"▁નળી":13852,"▁લસ":13853,"▁ભૃ":13854,"લ્સના":13855,"▁ટર્ન":13856,"▁રેક":13857,"▁ગોડા":13858,"▁ખોલવા":13859,"▁ગ્રાન્ડ":13860,"▁બાબતની":13861,"▁સંબંધોને":13862,"▁પિતાનું":13863,"જ્જુ":13864,"▁તત્કાલીન":13865,"િયમિત":13866,"▁બ્રેડ":13867,"▁કૂદ":13868,"▁હાઉસિંગ":13869,"▁અરજદાર":13870,"▁ઇન્સ્ટોલ":13871,"▁શ્રદ્ધાંજલિ":13872,"▁આશ્વાસન":13873,"▁આકા":13874,"▁એલી":13875,"ત્સાહ":13876,"▁વાસી":13877,"▁કોબી":13878,"▁દેખે":13879,"્રીક":13880,"▁રાખું":13881,"▁બન્યા.":13882,"▁વૃત્તા":13883,"▁વસ્તુઓની":13884,"▁ઘરેલુ":13885,"ભૂષણ":13886,"▁રણનીતિ":13887,"▁મંડળના":13888,"▁તેલંગા":13889,"▁વિવેકાન":13890,"▁માતાપિતાને":13891,"▁પરિવર્ત":13892,"ગાંઠ":13893,"▁ઘડિયાળ":13894,"કતો":13895,"▁આનુ":13896,"તાબેન":13897,"▁કાનુ":13898,"હી,":13899,"▁સુલ":13900,"ગીત":13901,"▁માણવા":13902,"▁પારદર્શક":13903,"▁ઇન્જેક્શન":13904,"▁ધરાવતો":13905,"▁તિરા":13906,"▁ઋતુમાં":13907,"▁આમંત્રિત":13908,"▁જહાજ":13909,"▁તપાસી":13910,"▁ચેન્નાઈ":13911,"ઝાન":13912,"દરમાં":13913,"વચ":13914,"૧\n":13915,"▁તંગી":13916,"▁એપી":13917,"▁ઉધાર":13918,"ર્વસ":13919,"▁સીએન":13920,"▁રહ્યા,":13921,"▁સૌની":13922,"▁પગથ":13923,"▁જીવતી":13924,"▁વોચ":13925,"▁લેવાયો":13926,"▁180":13927,"▁વસૂ":13928,"▁૧૮૭":13929,"▁બેસાડ":13930,"▁લખનઉ":13931,"▁અન્વયે":13932,"ધને":13933,"ભારે":13934,"▁સલ્":13935,"▁સાસર":13936,"▁આપા":13937,"▁ભાગા":13938,"મ્પર":13939,"▁હેવી":13940,"▁હવેથી":13941,"▁ટેલિકો":13942,"▁સરકારનો":13943,"શિયાર":13944,"▁અધિકારીને":13945,"▁યુવકની":13946,"▁જિને":13947,"▁તિજો":13948,"▁હેાય,":13949,"▁કસ્ટડીમાં":13950,"▁પોરબંદ":13951,"2.":13952,"▁કવાયત":13953,"▁મયુર":13954,"▁કરત":13955,"▁નડ":13956,"▁થવો":13957,"▁વિખ":13958,"▁લેડી":13959,"▁પેહ":13960,"▁પડવાથી":13961,"▁રહીએ":13962,"સરથી":13963,"ળે,":13964,"▁ચૂંટણીને":13965,"▁બનેલું":13966,"▁સિદ્ધાંતો":13967,"બત્તી":13968,"▁જનાર":13969,"▁હક્ક":13970,"▁સામી":13971,"▁કામા":13972,"ાનંદ":13973,"▁સંદીપ":13974,"▁ઉપયેાગ":13975,"▁રીઝ":13976,"ાર્થે":13977,"▁ઊપ":13978,"▁યંગ":13979,"▁મનન":13980,"રાજસિંહ":13981,"▁ધાર્યું":13982,"▁અરે,":13983,"▁સાહેબ,":13984,"▁આવ્યાં.":13985,"▁પંજાબમાં":13986,"▁સાહસિક":13987,"▁શૌચા":13988,"▁અરુણ":13989,"▁જ્વાળા":13990,"▁સમજૂતી":13991,"રસના":13992,"ોથી":13993,"્યના":13994,"▁આણુ":13995,"▁રૅ":13996,"વેલું":13997,"▁બેત્રણ":13998,"િવર":13999,"▁વેલે":14000,"▁શું?\n":14001,"▁કાર્યકારી":14002,"▁આપે,":14003,"▁અહીંની":14004,"▁આંશિક":14005,"▁સમજવામાં":14006,"▁જમીનના":14007,"▁પાડવાની":14008,"▁દીધી.\n":14009,"▁તંત્રને":14010,"ધ્યક્ષ":14011,"▁નિયામક":14012,"▁કસોટી":14013,"6માં":14014,"૭માં":14015,"▁માદા":14016,"▁ટચ":14017,"ટાની":14018,"▁શકય":14019,"વન્યુ":14020,"▁સીએ":14021,"▁પ્રામાણિક":14022,"▁મીલ":14023,"લુએ":14024,"▁ઠો":14025,"▁ઠરા":14026,"▁નજીકની":14027,"▁મૂક્યા":14028,"▁પંખી":14029,"▁પ્રભુત્વ":14030,"▁તિવારી":14031,"▁દારૂનો":14032,"▁નાણાંકીય":14033,"▁મીઠાઈ":14034,"ચૂંટ":14035,"▁અસમર્થ":14036,"▁સપ્ત":14037,"▁અબુ":14038,"▁અશ્રુ":14039,"▁નહેર":14040,"▁ગય":14041,"તિન":14042,"કાયા":14043,"▁ફસા":14044,"▁આપતું":14045,"▁મેરેજ":14046,"▁લો,":14047,"▁ખાટ":14048,"▁કરેલો":14049,"▁પેડ":14050,"▁સેન્ડ":14051,"▁વ્યસન":14052,"ક્રિટ":14053,"પ્રિ":14054,"જોય":14055,"▁લખ્યુ":14056,"▁વગેરે.":14057,"▁શબ્દનો":14058,"▁શિવલિંગ":14059,"▁શિવસેના":14060,"▁પ્રશ્નનો":14061,"▁વાળને":14062,"▁છૂટકારો":14063,"▁નિકટ":14064,"▁પ્રવર્ત":14065,"▁વિનિમય":14066,"▁આછા":14067,"ટેબલ":14068,"▁પાળી":14069,"્યુટ":14070,"▁જીવનનું":14071,"▁વિદ્યાર્થીની":14072,"▁ભીના":14073,"▁મજબૂર":14074,"▁૧૮૫":14075,"▁તારાં":14076,"▁પ્રતીતિ":14077,"▁માપદંડ":14078,"▁મત્સ":14079,"▁દખલ":14080,"શે\n":14081,"િકી":14082,"▁ટૂર":14083,"▁નિષેધ":14084,"▁ઈશાન":14085,"બાજી":14086,"▁કહેછે":14087,"▁નોટીસ":14088,"મિનિ":14089,"▁ડિસ":14090,"▁અવલ":14091,"▁ચાલતો":14092,"સિંહના":14093,"▁મધ્યસ્થ":14094,"▁૨૦૨૦":14095,"▁તિલક":14096,"▁બોલીવુ":14097,"▁આશ્રમમાં":14098,"સંબંધ":14099,"ર્ષા":14100,"▁શત":14101,"▁લક":14102,"▁પ્રદીપ":14103,"▁સાળ":14104,"▁એકલ":14105,"▁કોરિ":14106,"▁ઉપલે":14107,"▁કરવાનુ":14108,"▁સેર":14109,"▁સુધીનું":14110,"▁ખીલે":14111,"▁ડીગ્રી":14112,"▁સંગ્રા":14113,"ગ્રાફી":14114,"▁જતા.":14115,"▁દલીલો":14116,"▁રામાયણ":14117,"▁બલિદાન":14118,"૨૬":14119,"▁બાર્":14120,"વીશ":14121,"▁સુદર":14122,"▁તોય":14123,"▁રોલમાં":14124,"▁દીવાન":14125,"▁ખુલ્લે":14126,"▁મનહર":14127,"▁મહારાણી":14128,"▁12.":14129,"▁ભુપેન્દ્ર":14130,"▁ભયથી":14131,"▁મિત્રોને":14132,"▁મંદિરો":14133,"▁ઓક્ટોબરે":14134,"▁શેરબજારમાં":14135,"▁કટાક્ષ":14136,"▁દંપતિ":14137,"ંક્શન":14138,"ણંદ":14139,"માયા":14140,"▁લાલા":14141,"▁સુમે":14142,"યો,":14143,"▁બેર":14144,"યુકત":14145,"▁પેલો":14146,"▁માંદગી":14147,"▁સેફ":14148,"મ્પી":14149,"▁કુતરા":14150,"▁ક્ષી":14151,"▁મારવામાં":14152,"▁પાર્ટ":14153,"▁પતિપત્ની":14154,"સિંહને":14155,"▁વહેંચી":14156,"▁યુનિય":14157,"▁અનિષ્ટ":14158,"▁એક્ઝિક":14159,"▁ટ્રીટમેન્ટ":14160,"▁કૉંગ્રેસ":14161,"કપ":14162,"ગતા":14163,"▁તણી":14164,"ની\n":14165,"▁નૂર":14166,"▁શતા":14167,"▁લશકર":14168,"ક્ટના":14169,"કાવ્ય":14170,"▁નાકરી":14171,"▁હેન":14172,"▁કિર":14173,"બેડ":14174,"▁પહોંચ્યું":14175,"▁નોંધઃ":14176,"ફેટે":14177,"▁ભાઈએ":14178,"▁સ્કિન":14179,"▁બાંધીને":14180,"▁પ્રસારણ":14181,"▁ઉત્સાહિત":14182,"▁ધિરાણ":14183,"મૈ":14184,"▁નગરી":14185,"▁શમ":14186,"કાનું":14187,"કોઈ":14188,"▁હોતું":14189,"▁બનાવેલ":14190,"િટિ":14191,"▁કાર્યકાળ":14192,"▁ભૂગર્ભ":14193,"▁ચૂર્ણ":14194,"▁વિશ્વને":14195,"▁કાર્બો":14196,"▁તત્કાળ":14197,"▁સપ્તા":14198,"▁પાકિસ્તાનને":14199,"▁ચૈત્ર":14200,"▁તાપમાનમાં":14201,"▁ફેસબુક,":14202,"▁ફ્રાન્સ":14203,"▁દેવેન્દ્ર":14204,"▁એન્જિનિયરિંગ":14205,"▁કમોસમી":14206,"9.":14207,"મંત્ર":14208,"▁મક":14209,"▁બહો":14210,"▁પાનાં":14211,"▁ધાવ":14212,"ણે,":14213,"પીટ":14214,"▁ક્ષતિ":14215,"▁થયો,":14216,"▁માંગતો":14217,"▁ખાનને":14218,"▁સ્વરૂપને":14219,"▁સમીકરણ":14220,"▁ફેબ્રિક":14221,"▁ગિફ્ટ":14222,"ભવન":14223,"મજી":14224,"▁ખંજ":14225,"▁સ્કુલ":14226,"▁પાઘ":14227,"▁વાટા":14228,"▁દુની":14229,"▁સોદા":14230,"છાયા":14231,"▁નીકળવા":14232,"▁વગેરેમાં":14233,"▁સારવારમાં":14234,"▁નાખ્યું":14235,"▁પ્રકૃતિના":14236,"▁લખેલી":14237,"▁રસોઇ":14238,"▁મધ્યપ્રદેશના":14239,"▁સ્ટુડિયો":14240,"▁દંતકથા":14241,"દૃ":14242,"▁ખચ":14243,"▁કોસ્":14244,"▁દેતાં":14245,"ારીયા":14246,"▁તમારૂ":14247,"▁હિર":14248,"▁બનવાનું":14249,"▁માંગતી":14250,"વર્ક":14251,"▁બાજુથી":14252,"▁ગંભીરતાથી":14253,"▁પામ્યા.":14254,"▁ત્રિમાસિક":14255,"▁શરુઆત":14256,"▁સહયોગથી":14257,"▁ઝાંખી":14258,"▁ડાયાબિટીસ":14259,"▁કાઉન્ટર":14260,"▁વરુણ":14261,"▁શૅર":14262,"તકી":14263,"▁સપૂર્ણ":14264,"▁કોથ":14265,"ડીયા,":14266,"▁નિપુ":14267,"▁ડેર":14268,"▁ઓડિયો":14269,"▁લીંબ":14270,"▁પ્રભુએ":14271,"▁ગૃહમાં":14272,"▁ડિસ્ચાર્જ":14273,"▁તસ્વીર":14274,"ઝ્":14275,"વંશી":14276,"વાન્":14277,"▁આડી":14278,"▁ગમતી":14279,"▁કેા":14280,"કાઉ":14281,"ંચન":14282,"▁બનાવવી":14283,"▁શીખે":14284,"▁કાળના":14285,"▁ગ્રન્થ":14286,"▁સ્ટોરેજ":14287,"દાસજી":14288,"▁રજાઓ":14289,"▁જુલાઈના":14290,"▁કારોબાર":14291,"▁ફાઇનલ":14292,"▁કેનાલ":14293,"▁અતુલ":14294,"▁વોલ્યુમ":14295,"આ,":14296,"શલ":14297,"▁આબરૂ":14298,"▁વિમ":14299,"▁ચશ્મા":14300,"▁રાધે":14301,"▁ધ્રા":14302,"▁સ્થગિત":14303,"▁મૂત્ર":14304,"▁દાઢી":14305,"▁દિવસને":14306,"▁બનાવમાં":14307,"▁થોડે":14308,"▁પાછુ":14309,"▁૫૩":14310,"▁૧૯૬":14311,"▁પ્લાનિંગ":14312,"▁ઑફિ":14313,"▁ઉદ્દ":14314,"▁ગુરૂવારે":14315,"▁સમિતિની":14316,"▁તૃપ્તિ":14317,"▁પદ્મા":14318,"છોડ":14319,"▁સ્કેન":14320,"▁નિપજ્યું":14321,"▁બોટાદ":14322,"તણ":14323,"▁આખે":14324,"▁શરા":14325,"▁વાળો":14326,"▁સુઈ":14327,"ષ્કાર":14328,"▁રહું":14329,"▁વેડ":14330,"▁દરદી":14331,"▁કાર્યકર":14332,"▁ચાલશે":14333,"▁પત્થ":14334,"▁ધીમેધીમે":14335,"▁કમાન્ડ":14336,"▁ટેસ્ટિંગ":14337,"▁અજાય":14338,"▁સૂચનાઓ":14339,"▁રેસ્ટોરાં":14340,"▁પ્રસારિત":14341,"▁ક૨":14342,"▁મસ્ક":14343,"▁માજ":14344,"▁જાતો":14345,"▁ભાવેશ":14346,"▁ઓઈલ":14347,"▁બીટ":14348,"▁દરદ":14349,"▁બાળકીને":14350,"▁જૂનો":14351,"▁અનિયમિત":14352,"▁પ્રદેશ,":14353,"▁૨૦૨૨":14354,"▁ભાવનાત્મક":14355,"▁નાણામંત્રી":14356,"▁પ્લેન":14357,"▁આંગણ":14358,"▁પહેાંચી":14359,"▁સહાનુભૂતિ":14360,"▁પટ્ટી":14361,"તાબ":14362,"ર્ડે":14363,"▁ભરણ":14364,"▁ડહા":14365,"પાણી":14366,"▁પુરે":14367,"મ્બા":14368,"▁ગાજ":14369,"▁મિડ":14370,"▁સીમમાં":14371,"જનની":14372,"▁ખીલી":14373,"લાઈથી":14374,"▁મહારાજને":14375,"સ્ટ્રેટ":14376,"▁ખેલાડીઓને":14377,"▁સોસાયટીના":14378,"▁વહીવટીતંત્ર":14379,"સ્ટિક્સ":14380,"7માં":14381,"ડાવ":14382,"વનાર":14383,"વાતી":14384,"તા\n":14385,"▁પાઉન્ડ":14386,"ાવ્ય":14387,"યોજિત":14388,"▁મુકત":14389,"▁એટલાં":14390,"▁દુકાને":14391,"જુદા":14392,"▁પ્રોટે":14393,"▁સ્ટેશનો":14394,"▁૯.":14395,"▁બળજબ":14396,"▁તંત્રની":14397,"▁જામનગરના":14398,"▁લાયકાત":14399,"▁ઉદ્ધાર":14400,"▁ગુનેગાર":14401,"▁ઔપચારિક":14402,"ગરે":14403,"▁પકાવવાની":14404,"▁રને":14405,"▁માઈલ":14406,"ક્વ":14407,"ાયત":14408,"▁દેશા":14409,"▁ભાડું":14410,"▁માંડી.":14411,"▁સમાગમ":14412,"▁પગથી":14413,"▁ફાડી":14414,"▁ચીઝ":14415,"▁સફાઇ":14416,"▁ડાઘ":14417,"▁સુંદરી":14418,"▁પત્નિ":14419,"▁ડૉલર":14420,"▁સહાયતા":14421,"▁જરાક":14422,"▁સભ્યોએ":14423,"▁ઉઠાવ્યો":14424,"▁ચાર્ટ":14425,"▁વિટામિ":14426,"ન્ટાઇન":14427,"▁આસિસ્ટન્ટ":14428,"▁ચિકિત્સા":14429,"▁જ્યારથી":14430,"▁અપરિ":14431,"▁કરવે":14432,"▁ગાવ":14433,"તિત":14434,"▁મેમરી":14435,"▁ખાદી":14436,"િયન્સ":14437,"▁વર્ષનું":14438,"▁સરકારનું":14439,"▁હુસેન":14440,"▁ડોર":14441,"▁માગું":14442,"▁પરાક્ર":14443,"▁નાબૂદ":14444,"દળ":14445,"ટેલી":14446,"હીને":14447,"▁નિહ":14448,"દ્વેષ":14449,"▁શાહિ":14450,"▁દુરા":14451,"▁કુછ":14452,"▁કાર્યક્ષમ":14453,"▁આવ્યું,":14454,"▁યોગા":14455,"▁સિંહના":14456,"▁સિસ્ટમમાં":14457,"▁સ્કૂલના":14458,"▁જાઓ.":14459,"▁દ્વિતીય":14460,"▁ધૈર્ય":14461,"▁ગલ":14462,"▁ગજે":14463,"ંગર":14464,"▁મેડિ":14465,"નિર્મા":14466,"▁ઝપા":14467,"▁લાગવા":14468,"▁ક્રમાં":14469,"▁4,":14470,"કુમા":14471,"▁નિર્દે":14472,"▁બોલવા":14473,"▁પુરુષને":14474,"▁વિજયભાઈ":14475,"▁બ્રાં":14476,"▁પુરૂષને":14477,"▁ઉકેલવા":14478,"▁બ્રિટીશ":14479,"▁ફૂટબોલ":14480,"▁મોટેભાગે":14481,"▁તત્ત્વો":14482,"200":14483,"35":14484,"ઓફ":14485,"સિયે":14486,"▁બ્રુ":14487,"▁લપ":14488,"▁સાતે":14489,"▁ઉલ્લા":14490,"▁કાલ્પ":14491,"ષ્ણા":14492,"▁રાજ્યા":14493,"▁બીક":14494,"..!":14495,"તરું":14496,"▁તમારામાં":14497,"પુર્ણ":14498,"▁88":14499,"▁ઓળખે":14500,"▁રામચંદ્ર":14501,"▁વાયરસની":14502,"▁જમવાનું":14503,"પ્રેમ":14504,"▁ઓગસ્ટના":14505,"એટલે":14506,"▁પદાધિકારી":14507,"દૂત":14508,"સકે":14509,"▁મઝા":14510,"▁રામન":14511,"▁પોપટ":14512,"▁દે,":14513,"▁પુર્ણ":14514,"હિણી":14515,"▁સ્થૂલ":14516,"▁ગાયા":14517,"શીના":14518,"ખીન":14519,"▁નીચેથી":14520,"▁લખાય":14521,"▁વોલ":14522,"▁સત્તામાં":14523,"▁બન્નેને":14524,"▁ભૂલથી":14525,"▁દીકરાને":14526,"▁કિંમતો":14527,"▁લૉકડા":14528,"▁સાંકળ":14529,"▁સેલિબ્રિ":14530,"પગ":14531,"હમ":14532,"▁સદન":14533,"▁તરૂ":14534,"▁જશો":14535,"નીઝ":14536,"▁ગલી":14537,"▁મેગ":14538,"▁લોકેશન":14539,"▁લેઇ":14540,"ડે.":14541,"▁પુર્વ":14542,"▁નીવડ":14543,"▁વેરિય":14544,"્યે,":14545,"▁પુત્રવ":14546,"▁દ્રૌપ":14547,"▁ટ્રમ્પે":14548,"▁સિંહ,":14549,"▁નીકળ્યો":14550,"▁વર્કશો":14551,"▁કેનેડા":14552,"ખને":14553,"ચ્યુઅલ":14554,"જળ":14555,"▁કદના":14556,"▁જશ":14557,"▁મટ":14558,"▁ઉચા":14559,"▁પરણી":14560,"▁એકસ":14561,"▁કાલાવ":14562,"કોલ":14563,"▁ઉપજા":14564,"▁મુકામ":14565,"▁લોકે":14566,"▁રહેનાર":14567,"▁ગાઉ":14568,"▁વાતનું":14569,"▁જુદું":14570,"▁ચેતા":14571,"મુક્ષુ":14572,"▁અવધિ":14573,"▁જીવિત":14574,"▁ટ્રાવેલ":14575,"▁જોડવામાં":14576,"▁પાકિસ્તાને":14577,"▁નિર્મલા":14578,"▁કિંગ્સ":14579,"▁કર્ણાટકમાં":14580,"▁મહાભારત":14581,"▁સટ્ટા":14582,"▁તપે":14583,"વાયેલી":14584,"▁વ્યુ":14585,"▁બજર":14586,"▁કાકડી":14587,"▁ધાં":14588,"▁સંસાધ":14589,"▁મુર્":14590,"લોગ":14591,"▁પેર":14592,"▁ચાગ્ય":14593,"▁ઉત્તરમાં":14594,"▁વાતથી":14595,"▁માનસી":14596,"ભાઇ,":14597,"▁ટોસ":14598,"▁ખાનના":14599,"▁પંચે":14600,"▁ઋષભ":14601,"▁અમલદાર":14602,"▁પથરા":14603,"▁રાજયના":14604,"▁લાક્ષણિકતાઓ":14605,"બ્રહ્મ":14606,"૨.":14607,"▁ખજ":14608,"યુ,":14609,"વારમાં":14610,"▁થાયછે":14611,"▁નોર્થ":14612,"▁લાગ્યાં":14613,"સ્થળ":14614,"▁તેથીજ":14615,"▁દેખાડી":14616,"▁વાગ્યાની":14617,"▁પોલિસ":14618,"▁તત્ત્વજ્ઞાન":14619,"▁અટકળો":14620,"▁ગાર્ડન":14621,"▁અહેવાલમાં":14622,"▁લ્":14623,"ક્લો":14624,"▁ચક્ષુ":14625,"▁રોબો":14626,"▁બીજુ":14627,"શીટ":14628,"▁પહેલા,":14629,"▁વિચારતા":14630,"ભાવથી":14631,"મણું":14632,"▁ગુજરાત,":14633,"▁શહેરને":14634,"▁પુત્રના":14635,"▁હૃદ":14636,"▁રસ્તાની":14637,"▁પુનઃસ્થાપિત":14638,"▁મસાજ":14639,"▁ઘૂસી":14640,"▁ઇન્ટરવ્યૂ":14641,"▁નિહાળી":14642,"▁પરોપ":14643,"26":14644,"કૂટ":14645,"હિક":14646,"▁વંદન":14647,"▁એરો":14648,"▁શાહુ":14649,"▁ચિં":14650,"▁૩૦૦":14651,"▁ટકાની":14652,"▁61":14653,"▁કરાવીને":14654,"▁કર્ણ":14655,"▁ભૂલશો":14656,"▁સ્નાતક":14657,"▁ખસેડી":14658,"▁શ્લો":14659,"▁કાશ્મીરના":14660,"▁વ્રજ":14661,"▁વસુલ":14662,"▁તારૂં":14663,"▁ફટાકડા":14664,"▁ટેલિકોમ":14665,"ધની":14666,"િણી":14667,"▁અધા":14668,"▁આખ્યા":14669,"▁મિકે":14670,"▁સમજો":14671,"▁તમામને":14672,"▁સિઝ":14673,"▁ઝલક":14674,"▁હેક":14675,"▁આપેલું":14676,"ખોરી":14677,"▁પ્રિન્સ":14678,"▁વાઇરસ":14679,"▁દરોડો":14680,"▁કરીશું.\n":14681,"પક્ષીય":14682,"▁દ્રાક્ષ":14683,"▁કોંક્રિટ":14684,"ંમદ":14685,"ચન્દ્ર":14686,"▁કમ્પ":14687,"▁અડવા":14688,"▁અજ્ઞાની":14689,"▁હદે":14690,"▁મણુ":14691,"▁લથ":14692,"▁કાક":14693,"િયાનમાં":14694,"▁ટાંક":14695,"લોએ":14696,"ારાને":14697,"▁સેક્ટરમાં":14698,"▁શકયતા":14699,"▁ગાદ":14700,"▁ખીચ":14701,"▁નવાબ":14702,"▁ખરીદે":14703,"▁અરબ":14704,"▁અન્યા":14705,"▁છુ,":14706,"▁ટેકનિકલ":14707,"▁રમેશભાઈ":14708,"▁શ્રુત":14709,"▁ઢાંકી":14710,"▁જ્હોન":14711,"▁ચેલેન્જ":14712,"75":14713,"▁સત્તર":14714,"માંની":14715,"િક્ર":14716,"▁ડાં":14717,"▁ક્ધ":14718,"વરને":14719,"▁ખીજું":14720,"▁અરબી":14721,"▁લાઇવ":14722,"▁બહાદુ":14723,"▁સિક્યુ":14724,"▁ઓટોમો":14725,"▁ફાઇનલમાં":14726,"▁આત્મકથા":14727,"ટેલિજ":14728,"અનુ":14729,"ખિત":14730,"મડ":14731,"▁ક.":14732,"▁કયું":14733,"▁પટના":14734,"▁વક્ત":14735,"▁કરચ":14736,"▁ગળું":14737,"▁એકના":14738,"હાદ":14739,"▁વિચારવું":14740,"▁બધાના":14741,"▁દોસ્તી":14742,"▁સંપન્ન":14743,"▁રમાઈ":14744,"▁નારંગી":14745,"▁બજાવી":14746,"▁પેશાબ":14747,"ગૌ":14748,"વારોના":14749,"▁છઠ્ઠી":14750,"▁એલ્":14751,"▁ઉતરા":14752,"▁મોસમ":14753,"▁લેબો":14754,"▁પેકેટ":14755,"▁રોમન":14756,"▁સેમી":14757,"▁પીને":14758,"જન,":14759,"▁ખૂબજ":14760,"▁વિચારસર":14761,"શુદ્ધિ":14762,"▁સમસ્યાઓનો":14763,"▁ઝાપ":14764,"▁ઓછુ":14765,"એનએ":14766,"▁ખેંચે":14767,"▁ઉત્તેજિત":14768,"▁રિકવરી":14769,"▁એસોસિએ":14770,"▁પ્રતિબિંબિત":14771,"▁રિપબ્લિક":14772,"3.":14773,"ઉડ":14774,"ફરા":14775,"રથ":14776,"ને!":14777,"▁શંખ":14778,"▁ચંદુ":14779,"મેશ":14780,"▁જો,":14781,"▁સુત":14782,"▁સુમ":14783,"▁રાજવી":14784,"▁પરિબળ":14785,"હાલ":14786,"▁પીણું":14787,"▁ચેન્જ":14788,"▁બદલીને":14789,"▁અલૌકિક":14790,"▁મહેલમાં":14791,"દર્શી":14792,"▁ભીષણ":14793,"▁વીડિયોને":14794,"▁ગાયત્રી":14795,"▁કઠણ":14796,"▁ધિક્કાર":14797,"▁કાલ્પનિક":14798,"૨માં":14799,"▁અપ્રિય":14800,"▁નતા":14801,"રાનું":14802,"▁સૌમ્ય":14803,"▁ડિરેક્ટ":14804,"▁વ્યક્તિઓને":14805,"▁કાંઠા":14806,"▁વરસાદથી":14807,"▁પશુપાલ":14808,"▁પાડ્યું":14809,"▁નંબરે":14810,"▁કમિશ્નર":14811,"▁05":14812,"▁પુત્રીને":14813,"▁યુઝરે":14814,"▁કક્ષાના":14815,"▁રહસ્યમય":14816,"▁અધિક્ષક":14817,"▁રત્ના":14818,"ળ્યા":14819,"▁રદ્દ":14820,"▁ફ્રિ":14821,"દેશે":14822,"▁પૂજારી":14823,"હાને":14824,"▁રહ્યા.\n":14825,"▁મહિલાઓના":14826,"▁૫૮":14827,"▁110":14828,"▁વધારવાની":14829,"▁પામીને":14830,"▁યુવાનને":14831,"▁કેસોની":14832,"▁દૃષ્ટાંત":14833,"▁કવી":14834,"▁અડા":14835,"▁લૂટ":14836,
[...]
