{
  "version": "1.0",
  "truncation": null,
  "padding": null,
  "added_tokens": [
    {
      "id": 0,
      "content": "<pad>",
      "single_word": false,
      "lstrip": false,
      "rstrip": false,
      "normalized": false,
      "special": true
    },
    {
      "id": 1,
      "content": "<unk>",
      "single_word": false,
      "lstrip": false,
      "rstrip": false,
      "normalized": false,
      "special": true
    },
    {
      "id": 2,
      "content": "<s>",
      "single_word": false,
      "lstrip": false,
      "rstrip": false,
      "normalized": false,
      "special": true
    },
    {
      "id": 3,
      "content": "</s>",
      "single_word": false,
      "lstrip": false,
      "rstrip": false,
      "normalized": false,
      "special": true
    },
    {
      "id": 4,
      "content": "<mask>",
      "single_word": false,
      "lstrip": false,
      "rstrip": false,
      "normalized": false,
      "special": true
    }
  ],
  "normalizer": {
    "type": "NFKC"
  },
  "pre_tokenizer": {
    "type": "Metaspace",
    "replacement": "▁",
    "prepend_scheme": "always",
    "split": true
  },
  "post_processor": null,
  "decoder": {
    "type": "Metaspace",
    "replacement": "▁",
    "prepend_scheme": "always",
    "split": true
  },
  "model": {
    "type": "BPE",
    "dropout": null,
    "unk_token": "<unk>",
    "continuing_subword_prefix": null,
    "end_of_word_suffix": null,
    "fuse_unk": false,
    "byte_fallback": false,
    "ignore_merges": false,
    "vocab": {
      "<pad>": 0,
      "<unk>": 1,
      "<s>": 2,
      "</s>": 3,
      "<mask>": 4,
      "\t": 5,
      "\n": 6,
      "!": 7,
      ",": 8,
      ".": 9,
      "0": 10,
      "1": 11,
      "2": 12,
      "3": 13,
      "4": 14,
      "5": 15,
      "6": 16,
      "7": 17,
      "8": 18,
      "9": 19,
      "?": 20,
      "ઁ": 21,
      "ં": 22,
      "ઃ": 23,
      "અ": 24,
      "આ": 25,
      "ઇ": 26,
      "ઈ": 27,
      "ઉ": 28,
      "ઊ": 29,
      "ઋ": 30,
      "ઍ": 31,
      "એ": 32,
      "ઐ": 33,
      "ઑ": 34,
      "઒": 35,
      "ઓ": 36,
      "ઔ": 37,
      "ક": 38,
      "ખ": 39,
      "ગ": 40,
      "ઘ": 41,
      "ઙ": 42,
      "ચ": 43,
      "છ": 44,
      "જ": 45,
      "ઝ": 46,
      "ઞ": 47,
      "ટ": 48,
      "ઠ": 49,
      "ડ": 50,
      "ઢ": 51,
      "ણ": 52,
      "ત": 53,
      "થ": 54,
      "દ": 55,
      "ધ": 56,
      "ન": 57,
      "પ": 58,
      "ફ": 59,
      "બ": 60,
      "ભ": 61,
      "મ": 62,
      "ય": 63,
      "ર": 64,
      "લ": 65,
      "ળ": 66,
      "વ": 67,
      "શ": 68,
      "ષ": 69,
      "સ": 70,
      "હ": 71,
      "઼": 72,
      "ઽ": 73,
      "ા": 74,
      "િ": 75,
      "ી": 76,
      "ુ": 77,
      "ૂ": 78,
      "ૃ": 79,
      "ૄ": 80,
      "ૅ": 81,
      "ે": 82,
      "ૈ": 83,
      "ૉ": 84,
      "ો": 85,
      "ૌ": 86,
      "્": 87,
      "ૐ": 88,
      "૘": 89,
      "ૠ": 90,
      "ૢ": 91,
      "૤": 92,
      "૥": 93,
      "૦": 94,
      "૧": 95,
      "૨": 96,
      "૩": 97,
      "૪": 98,
      "૫": 99,
      "૬": 100,
      "૭": 101,
      "૮": 102,
      "૯": 103,
      "૰": 104,
      "૱": 105,
      "૳": 106,
      "▁": 107,
      "મા": 108,
      "▁પ": 109,
      "▁સ": 110,
      "▁ક": 111,
      "ના": 112,
      "્ય": 113,
      "્ર": 114,
      "માં": 115,
      "▁અ": 116,
      "▁આ": 117,
      "▁ત": 118,
      "ને": 119,
      "વા": 120,
      "▁જ": 121,
      "▁છ": 122,
      "▁છે": 123,
      "▁વ": 124,
      "ાર": 125,
      "▁મ": 126,
      "ની": 127,
      "▁હ": 128,
      "ું": 129,
      "ર્": 130,
      "રા": 131,
      "▁છે.": 132,
      "▁બ": 133,
      "▁તે": 134,
      "▁દ": 135,
      "▁અને": 136,
      "લા": 137,
      "▁ગ": 138,
      "રી": 139,
      "તા": 140,
      "▁એ": 141,
      "વે": 142,
      "▁શ": 143,
      "▁પ્ર": 144,
      "▁ભ": 145,
      "િક": 146,
      "નો": 147,
      "સ્": 148,
      "ન્": 149,
      "તી": 150,
      "▁ર": 151,
      "▁કર": 152,
      "થી": 153,
      "▁ન": 154,
      "▁લ": 155,
      "▁મા": 156,
      "ાય": 157,
      "ામ": 158,
      "ક્": 159,
      "▁આવે": 160,
      "▁વિ": 161,
      "▁જે": 162,
      "▁ઉ": 163,
      "્યા": 164,
      "ંગ": 165,
      "િય": 166,
      "▁તેમ": 167,
      "▁ખ": 168,
      "▁કે": 169,
      "ટે": 170,
      "ત્": 171,
      "▁થ": 172,
      "▁સ્": 173,
      "▁ચ": 174,
      "નું": 175,
      "વી": 176,
      "લ્": 177,
      "▁રા": 178,
      "તિ": 179,
      "▁પર": 180,
      "ત્ર": 181,
      "▁સં": 182,
      "▁સા": 183,
      "કા": 184,
      "▁૧": 185,
      "વામાં": 186,
      "લી": 187,
      "▁એક": 188,
      "▁ફ": 189,
      "કો": 190,
      "હે": 191,
      "તો": 192,
      "▁છે.\n": 193,
      "▁ના": 194,
      "ાલ": 195,
      ".\n": 196,
      "ાં": 197,
      "કે": 198,
      "▁મુ": 199,
      "▁ભા": 200,
      "ાન": 201,
      "▁ધ": 202,
      "િત": 203,
      "ડી": 204,
      "ેશ": 205,
      "▁ગામ": 206,
      "▁ય": 207,
      "ાસ": 208,
      "▁1": 209,
      "્યો": 210,
      "▁માટે": 211,
      "▁ઓ": 212,
      "▁પણ": 213,
      "જી": 214,
      "▁ડ": 215,
      "શ્": 216,
      "ણી": 217,
      "ષ્": 218,
      "ટી": 219,
      "ણે": 220,
      "▁રાજ": 221,
      "▁ભાર": 222,
      "ાળ": 223,
      "▁હો": 224,
      "▁,": 225,
      "▁પા": 226,
      "લે": 227,
      "ક્ષ": 228,
      "▁ગુ": 229,
      "▁આવેલા": 230,
      "▁કો": 231,
      "▁૨": 232,
      "▁ખે": 233,
      "કાર": 234,
      "િલ્": 235,
      "▁ઘ": 236,
      "રે": 237,
      "00": 238,
      "લો": 239,
      "રો": 240,
      "્યું": 241,
      "ંદ": 242,
      "▁બા": 243,
      "▁સમ": 244,
      "યો": 245,
      "ટ્ર": 246,
      "▁ઇ": 247,
      "▁આવ": 248,
      "થા": 249,
      "▁લો": 250,
      "ટા": 251,
      "ભા": 252,
      "તે": 253,
      "▁ભાગ": 254,
      "▁વા": 255,
      "િયા": 256,
      "▁જો": 257,
      "▁છે,": 258,
      "તું": 259,
      "▁સુ": 260,
      "▁ઉપ": 261,
      "▁હતા": 262,
      "▁મુખ": 263,
      "▁અન": 264,
      "દ્": 265,
      "▁મો": 266,
      "ંત": 267,
      "મે": 268,
      "▁કરી": 269,
      "▁પ્રા": 270,
      "▁હતી": 271,
      "▁મુખ્ય": 272,
      "▁કાર": 273,
      "હી": 274,
      "▁2": 275,
      "▁મે": 276,
      "▁૧૯": 277,
      "થે": 278,
      "▁આપ": 279,
      "વિ": 280,
      "▁યુ": 281,
      "દી": 282,
      "ડા": 283,
      "્યુ": 284,
      "▁ભારત": 285,
      "▁કરવામાં": 286,
      "ધી": 287,
      "મી": 288,
      "▁વર્": 289,
      "કી": 290,
      "સ્ત": 291,
      "ણા": 292,
      "જરા": 293,
      "▁સાથે": 294,
      "▁ગુજરા": 295,
      "ારે": 296,
      "ંચ": 297,
      "▁હતો": 298,
      "સા": 299,
      "▁દ્": 300,
      "▁મહ": 301,
      "ન્ડ": 302,
      "મ્": 303,
      "▁૨૦": 304,
      "્રે": 305,
      "યા": 306,
      "▁.": 307,
      "▁હતું": 308,
      "▁લોકો": 309,
      "▁રો": 310,
      "વસ": 311,
      "▁પુ": 312,
      "▁વધ": 313,
      "▁વ્ય": 314,
      "યે": 315,
      "▁દ્વા": 316,
      "રીકે": 317,
      "▁બે": 318,
      "જા": 319,
      "▁પો": 320,
      "રૂ": 321,
      "▁હોય": 322,
      "▁તરીકે": 323,
      "▁જિલ્": 324,
      "દ્ધ": 325,
      "િમ": 326,
      "▁લા": 327,
      "ંધ": 328,
      "▁ગામમાં": 329,
      "▁દ્વારા": 330,
      "▁લે": 331,
      "સી": 332,
      "▁દેશ": 333,
      "ટો": 334,
      "થમ": 335,
      "દા": 336,
      "▁રાજ્ય": 337,
      "લું": 338,
      "ાલુ": 339,
      "ર,": 340,
      "માન": 341,
      "▁જા": 342,
      "▁જી": 343,
      "▁ખેતી": 344,
      "▁ભાગમાં": 345,
      "▁દિ": 346,
      "▁વે": 347,
      "▁રી": 348,
      "▁કરે": 349,
      "ન્ટ": 350,
      "▁સે": 351,
      "િન": 352,
      "▁તાલુ": 353,
      "ાર્": 354,
      "▁જિલ્લા": 355,
      "▁નિ": 356,
      "▁સૌ": 357,
      "ૂર્": 358,
      "તર": 359,
      "▁19": 360,
      "પ્": 361,
      "▁અન્ય": 362,
      "▁ને": 363,
      "પા": 364,
      "સ્ટ": 365,
      "વો": 366,
      "▁ઉત્": 367,
      "▁તાલુકા": 368,
      "શ્ચ": 369,
      "▁થાય": 370,
      "નાં": 371,
      "ાળા": 372,
      "▁સિ": 373,
      "રુ": 374,
      "્યારે": 375,
      "્રી": 376,
      "▁કુ": 377,
      "▁સ્થ": 378,
      "▁કરવા": 379,
      "▁ગુજરાત": 380,
      "રણ": 381,
      "▁તેઓ": 382,
      "ષ્ટ્ર": 383,
      "ચ્": 384,
      "ન્સ": 385,
      "▁ઈ": 386,
      "▁ડે": 387,
      "શે": 388,
      "▁મળ": 389,
      "▁દર": 390,
      "▁માં": 391,
      "શા": 392,
      "▁ટ": 393,
      "ારી": 394,
      "દર્": 395,
      "▁પશ્ચ": 396,
      "યોગ": 397,
      "▁શા": 398,
      "પ્ર": 399,
      "વલ": 400,
      "પી": 401,
      "્ષ": 402,
      "▁બી": 403,
      "▁ની": 404,
      "▁હતી.": 405,
      "નિ": 406,
      "▁આવેલું": 407,
      "▁વર્ષ": 408,
      "▁સર": 409,
      "▁કા": 410,
      "બા": 411,
      "શ્વ": 412,
      "▁રીતે": 413,
      "બ્": 414,
      "દેશ": 415,
      "ક્ર": 416,
      "જૂ": 417,
      "ડે": 418,
      "શન": 419,
      "ર્મ": 420,
      "ત્વ": 421,
      "▁હતા.": 422,
      "સે": 423,
      "સિ": 424,
      "ગર": 425,
      "▁સમા": 426,
      "્રહ": 427,
      "▁પશ્ચિમ": 428,
      "બર": 429,
      "▁નામ": 430,
      "વર્": 431,
      "▁વિક": 432,
      "છી": 433,
      "▁દૂ": 434,
      "▁નો": 435,
      "▁ધરા": 436,
      "ંડ": 437,
      "પુ": 438,
      "્રા": 439,
      "માંથી": 440,
      "▁તો": 441,
      "તાં": 442,
      "▁તા": 443,
      "ૃત": 444,
      "▁સુધી": 445,
      "ર્ચ": 446,
      "ખા": 447,
      "્યાં": 448,
      "▁દેશના": 449,
      "▁તેમણે": 450,
      "▁દે": 451,
      "▁તેના": 452,
      "▁બના": 453,
      "િંગ": 454,
      "▁વધુ": 455,
      "▁રાજ્યના": 456,
      "હેર": 457,
      "▁હતો.": 458,
      "▁તેમના": 459,
      "િલ": 460,
      "પાલ": 461,
      "▁વિસ્ત": 462,
      "તમ": 463,
      "▁થયે": 464,
      "▁200": 465,
      "ળા": 466,
      "▁શાળા": 467,
      "▁બો": 468,
      "▁આવી": 469,
      "બે": 470,
      "▁સંગ": 471,
      "▁રહે": 472,
      "ોમાં": 473,
      "ચે": 474,
      "ધ્ય": 475,
      "▁પાક": 476,
      "▁રે": 477,
      "▁અથ": 478,
      "▁પરિ": 479,
      "▁નથી": 480,
      "▁શક": 481,
      "▁ઉપયોગ": 482,
      "ગી": 483,
      "દ્ર": 484,
      "▁પોતા": 485,
      "▁જેવી": 486,
      "▁પંચ": 487,
      "ત્વે": 488,
      "ંક": 489,
      "▁અથવા": 490,
      "▁ખા": 491,
      "▁મુખ્યત્વે": 492,
      "શુ": 493,
      "ંત્ર": 494,
      "ળી": 495,
      "▁હિ": 496,
      "▁રોજ": 497,
      "વસાય": 498,
      "થમિક": 499,
      "▁પ્રાથમિક": 500,
      "ટ્": 501,
      "▁સૌથી": 502,
      "વન": 503,
      "બી": 504,
      "▁જુ": 505,
      "ગે": 506,
      "▁૨૦૧": 507,
      "ણવા": 508,
      "ષા": 509,
      "તીય": 510,
      "હીં": 511,
      "▁હે": 512,
      "મો": 513,
      "િકા": 514,
      "▁ફે": 515,
      "▁વિસ્તાર": 516,
      "▁અનુ": 517,
      "▁વ્યવસાય": 518,
      "વાદ": 519,
      "દર્ભ": 520,
      "▁સામ": 521,
      "▁સંદર્ભ": 522,
      "રી,": 523,
      "99": 524,
      "▁ગો": 525,
      "▁હતું.": 526,
      "▁પછી": 527,
      "ટર": 528,
      "▁પે": 529,
      "ારા": 530,
      "▁મૂ": 531,
      "▁ક્ર": 532,
      "▁પશુ": 533,
      "▁સ્વ": 534,
      "▁અંગ": 535,
      "▁ઝ": 536,
      "િર": 537,
      "વું": 538,
      "ાયત": 539,
      "ર્થ": 540,
      "ધા": 541,
      "▁ગામના": 542,
      "પાલન": 543,
      "▁તેને": 544,
      "▁પંચાયત": 545,
      "લિ": 546,
      "▁જિલ્લામાં": 547,
      "▁સમય": 548,
      "▁પશુપાલન": 549,
      "ટલા": 550,
      "ોગ": 551,
      "▁3": 552,
      "ક્તિ": 553,
      "▁લી": 554,
      "▁તેની": 555,
      "રફ": 556,
      "ંપ": 557,
      "▁આંગ": 558,
      "▁દૂધ": 559,
      "▁અભ": 560,
      "જન": 561,
      "▁માન": 562,
      "▁વિશ્વ": 563,
      "વાર": 564,
      "▁ટે": 565,
      "▁ખેતી,": 566,
      "જૂરી": 567,
      "▁ખેતમ": 568,
      "▁ઓફ": 569,
      "જે": 570,
      "▁શાળા,": 571,
      "પે": 572,
      "ભાજી": 573,
      "▁બાજ": 574,
      "ણવાડી": 575,
      "▁શાક": 576,
      "▁આંગણવાડી": 577,
      "હો": 578,
      "વાની": 579,
      "્ઞ": 580,
      "પ્ય": 581,
      "▁ક્ષ": 582,
      "પો": 583,
      "▁ભાષા": 584,
      "▁અમ": 585,
      "વેશ": 586,
      "▁પંચાયતઘ": 587,
      "પાસ": 588,
      "ીય": 589,
      "્રિ": 590,
      "▁પ્રાપ્ય": 591,
      "▁લોકોનો": 592,
      "▁કારણે": 593,
      "▁શાકભાજી": 594,
      "▁ડેરી": 595,
      "▁સંસ્": 596,
      "▁દૂધની": 597,
      "▁સવલ": 598,
      "▁હા": 599,
      "િયન": 600,
      "▁ભારતીય": 601,
      "▁સવલતો": 602,
      "હિ": 603,
      "ારો": 604,
      "▁સો": 605,
      "ડો": 606,
      "▁શકે": 607,
      "યુ": 608,
      "▁પંચાયતઘર,": 609,
      "▁એમ": 610,
      "▁કિ": 611,
      "▁મોટા": 612,
      "▁થયેલી": 613,
      "▁તેમની": 614,
      "▁ખેતમજૂરી": 615,
      "ક્ષિ": 616,
      "▁બાદ": 617,
      "▁જેમાં": 618,
      "▁પ્રથમ": 619,
      "▁તાલુકામાં": 620,
      "▁પૂર્": 621,
      "૦૦": 622,
      "ઓ\n": 623,
      "▁ભૂ": 624,
      "▁શહેર": 625,
      "▁લેખ": 626,
      "ંતુ": 627,
      "▁ગુજરાતી": 628,
      "યું": 629,
      "▁આધ": 630,
      "ક્ત": 631,
      "ત્ય": 632,
      "ખ્યા": 633,
      "▁કર્યો": 634,
      "▁મિ": 635,
      "ગો": 636,
      "▁દરમ": 637,
      "વર": 638,
      "▁થઈ": 639,
      "▁રહ": 640,
      "▁શરૂ": 641,
      "▁તથા": 642,
      "સો": 643,
      "▁પાકની": 644,
      "▁ઊ": 645,
      "▁શાકભાજીના": 646,
      "▁કુલ": 647,
      "▁પૈ": 648,
      "નિક": 649,
      "▁સી": 650,
      "ૂર": 651,
      "▁કહે": 652,
      "▁દક્ષિ": 653,
      "ગા": 654,
      "સ્ત્ર": 655,
      "▁જેમ": 656,
      "▁જ્યારે": 657,
      "▁સ્થા": 658,
      "▁અહીં": 659,
      "▁ચો": 660,
      "▁મેળ": 661,
      "▁કર્યું": 662,
      "મિ": 663,
      "ાયે": 664,
      "શો": 665,
      "ષ્ટ": 666,
      "હિત": 667,
      "▁દિવસ": 668,
      "▁સર્": 669,
      "મેર": 670,
      "સર": 671,
      "વવામાં": 672,
      "▁એવા": 673,
      "▁મંદ": 674,
      "તુ": 675,
      "▁પરંતુ": 676,
      "▁જૂ": 677,
      "ચાર": 678,
      "સ્તા": 679,
      "ો\n": 680,
      "વાય": 681,
      "▁રાષ્ટ્ર": 682,
      "▁કામ": 683,
      "માન્ય": 684,
      "▁રાખ": 685,
      "▁તેમને": 686,
      "વવા": 687,
      "▁.\n": 688,
      "રિ": 689,
      "▁પહે": 690,
      "▁૨૦૦": 691,
      "માણ": 692,
      "પૂર્": 693,
      "▁દક્ષિણ": 694,
      "▁મધ્ય": 695,
      "▁હોવા": 696,
      "▁પૈકી": 697,
      "ગ્": 698,
      "▁ઉત્તર": 699,
      "▁બાજરી,": 700,
      "▁પી": 701,
      "▁ડિ": 702,
      "▁સંગ્રહ": 703,
      "▁ધરાવ": 704,
      "ર્ટ": 705,
      "▁૧૮": 706,
      "▁બહ": 707,
      "▁આવ્યું": 708,
      "▁જેવા": 709,
      "બંધ": 710,
      "િયાન": 711,
      "ુક": 712,
      "▁કાર્ય": 713,
      "ેત્ર": 714,
      "▁સમાવેશ": 715,
      "▁થયો": 716,
      "ન્દ્ર": 717,
      "બ્દ": 718,
      "▁સામાન્ય": 719,
      "શી": 720,
      "ક્સ": 721,
      "▁કોઈ": 722,
      "▁તા.": 723,
      "માં,": 724,
      "હાસ": 725,
      "▁ચર્ચ": 726,
      "જ્ઞ": 727,
      "▁ઓળ": 728,
      "બો": 729,
      "▁તમા": 730,
      "▁સરકાર": 731,
      "ણો": 732,
      "▁ખાતે": 733,
      "▁ફિલ્": 734,
      "▁કરા": 735,
      "પુર": 736,
      "▁સ્ટે": 737,
      "જો": 738,
      "ચી": 739,
      "સાર": 740,
      "ર્ડ": 741,
      "રાષ્ટ્ર": 742,
      "નના": 743,
      "▁કરતા": 744,
      "▁કેટલા": 745,
      "ઓમાં": 746,
      "▁શકાય": 747,
      "તિહાસ": 748,
      "નમાં": 749,
      "▁ત્યારે": 750,
      "▁ટ્ર": 751,
      "▁પ્રતિ": 752,
      "▁નિર્": 753,
      "▁દરમિયાન": 754,
      "ચ્ચે": 755,
      "ઠા": 756,
      "એસ": 757,
      "ેર": 758,
      "મ્બર": 759,
      "▁વચ્ચે": 760,
      "▁કરીને": 761,
      "ર્ગ": 762,
      "▁અલ": 763,
      "▁શબ્દ": 764,
      "પાદ": 765,
      "▁કપાસ": 766,
      "▁આવ્યો": 767,
      "▁બન": 768,
      "▁આવ્યા": 769,
      "ન,": 770,
      "▁પ્રકાર": 771,
      "ોડ": 772,
      "ઓને": 773,
      "▁જીવન": 774,
      "ં,": 775,
      "▁અમેર": 776,
      "▁દર્": 777,
      "▁ગણ": 778,
      "▁થી": 779,
      "ર્સ": 780,
      "▁પ્રદેશ": 781,
      "▁રજ": 782,
      "▁લખ": 783,
      "ંભ": 784,
      "▁ક્ષેત્ર": 785,
      "ાઇ": 786,
      "ાંચ": 787,
      "વિધ": 788,
      "▁ચિ": 789,
      "▁દુ": 790,
      "▁કપાસ,": 791,
      "દાન": 792,
      "▁સ્થાપ": 793,
      "ત્તા": 794,
      "લ,": 795,
      "▁દા": 796,
      "▁રૂ": 797,
      "નની": 798,
      "ૃતિ": 799,
      "કુ": 800,
      "કાશ": 801,
      "▁૩": 802,
      "દે": 803,
      "ગ્ર": 804,
      "▁ધરાવે": 805,
      "▁વ્યા": 806,
      "ચના": 807,
      "▁ત્ર": 808,
      "▁ચે": 809,
      "..": 810,
      "▁ટી": 811,
      "▁અધ": 812,
      "▁જન્": 813,
      "દિ": 814,
      "▁યુદ્ધ": 815,
      "▁મળે": 816,
      "ંતર": 817,
      "▁ઘઉ": 818,
      "▁અંગ્રે": 819,
      "ત્રી": 820,
      "્યૂ": 821,
      "▁પડ": 822,
      "▁ફો": 823,
      "ઓની": 824,
      "▁સહ": 825,
      "▁પૂ": 826,
      "▁સ્થળ": 827,
      "▁વખ": 828,
      "▁ચર્ચા": 829,
      "▁દિવે": 830,
      "ટ્સ": 831,
      "▁તરફ": 832,
      "તિક": 833,
      "ટિ": 834,
      "પ્ત": 835,
      "▁શિ": 836,
      "▁વૈ": 837,
      "▁વ્યક્તિ": 838,
      "▁બ્રિ": 839,
      "▁સંદર્ભ\n": 840,
      "▁20": 841,
      "▁તેમાં": 842,
      "ર્ષ": 843,
      "લેન્ડ": 844,
      "▁પાણી": 845,
      "▁પૈકીના": 846,
      "કર": 847,
      "સ્તી": 848,
      "▁ઘઉં,": 849,
      "▁સામે": 850,
      "ુંબ": 851,
      "પર": 852,
      "▁બદ": 853,
      "િયમ": 854,
      "▁પાસ": 855,
      "▁મંદિર": 856,
      "▁કેટલાક": 857,
      "▁પહેલા": 858,
      "િક્ષ": 859,
      "▁શો": 860,
      "▁પ્રો": 861,
      "▁તેમજ": 862,
      "▁વિવિધ": 863,
      "કરણ": 864,
      "્સ": 865,
      "સ્થ": 866,
      "આત": 867,
      "દર": 868,
      "મુ": 869,
      "જબ": 870,
      "▁ટા": 871,
      "ત્મ": 872,
      "▁સંગ્રહિત": 873,
      "▁સ્થાન": 874,
      "રાંત": 875,
      "હા": 876,
      "ચા": 877,
      "▁અવ": 878,
      "▁જોવા": 879,
      "▁અર્થ": 880,
      "▁નદી": 881,
      "▁નોંધ": 882,
      "બેક": 883,
      "તંત્ર": 884,
      "▁મશ": 885,
      "▁બંધ": 886,
      "▁ધર્મ": 887,
      "▁બાહ": 888,
      "▁જન્મ": 889,
      "▁મહત્વ": 890,
      "▁યો": 891,
      "▁મી": 892,
      "▁ઉદ": 893,
      "ટન": 894,
      "▁ક્": 895,
      "▁અં": 896,
      "▁ગાં": 897,
      "ટેડ": 898,
      "▁4": 899,
      "▁પોતાના": 900,
      "▁ઉપર": 901,
      "▁ફિલ્મ": 902,
      "▁મશિન": 903,
      "▁શ્રી": 904,
      "ગત": 905,
      "ભાગ": 906,
      "▁ઓળખ": 907,
      "ત્રો": 908,
      "▁તાલુકાઓ": 909,
      "▁ડા": 910,
      "લ્સ": 911,
      "ટલી": 912,
      "▁લોક": 913,
      "▁વિશે": 914,
      "ેશન": 915,
      "▁સભ": 916,
      "હિત્ય": 917,
      "▁શ્રે": 918,
      "▁ઉપરાંત": 919,
      "મ્પ": 920,
      "▁દી": 921,
      "ચ્છ": 922,
      "ષ્ઠ": 923,
      "▁વેબેક": 924,
      "વાસ": 925,
      "▁ગ્ર": 926,
      "▁બાહ્ય": 927,
      "ર્ક": 928,
      "ષ્ણ": 929,
      "સ્થા": 930,
      "▁થયા": 931,
      "લા,": 932,
      "▁કડી": 933,
      "▁મહા": 934,
      "થો": 935,
      "વ્ય": 936,
      "▁થઇ": 937,
      "લિક": 938,
      "▁મૂળ": 939,
      "▁થયું": 940,
      "▁પાછ": 941,
      "▁યા": 942,
      "ભાવ": 943,
      "ીત": 944,
      "વાન": 945,
      "▁ત્યાં": 946,
      "▁જાય": 947,
      "▁સૂ": 948,
      "▁નથી.": 949,
      "ાળી": 950,
      "▁સદી": 951,
      "કૃત": 952,
      "▁લગ": 953,
      "રત": 954,
      "▁આગ": 955,
      "પરા": 956,
      "▁હતી.\n": 957,
      "▁એટ": 958,
      "▁પૂર્વ": 959,
      "કરી": 960,
      "્યાર": 961,
      "મત": 962,
      "ડિયા": 963,
      "ટના": 964,
      "ફો": 965,
      "▁ઇતિહાસ": 966,
      "▁માત્ર": 967,
      "નાર": 968,
      "▁બીજા": 969,
      "્યાન": 970,
      "15": 971,
      "મણ": 972,
      "▁સાહિત્ય": 973,
      "ઓના": 974,
      "▁પાસે": 975,
      "વાસી": 976,
      "▁ઘણી": 977,
      "▁ખાસ": 978,
      "વત": 979,
      "ન્ટર": 980,
      "જુ": 981,
      "મિક": 982,
      "▁અલગ": 983,
      "તરી": 984,
      "કલ": 985,
      "▁વી": 986,
      "▁રજકો": 987,
      "જના": 988,
      "▁હતા.\n": 989,
      "િયો": 990,
      "▁આપે": 991,
      "▁ઘણા": 992,
      "▁જાણી": 993,
      "▁વિસ્તારમાં": 994,
      "▁સ્વા": 995,
      "રુ,": 996,
      "▁માહિ": 997,
      "▁ત્રણ": 998,
      "▁ત્યાર": 999,
      "▁મહિ": 1000,
      "કીય": 1001,
      "▁અધિક": 1002,
      "▁અંગ્રેજી": 1003,
      "▁યોગ": 1004,
      "વ્યું": 1005,
      "ક્ષા": 1006,
      "▁વિષ": 1007,
      "▁કંપ": 1008,
      "▁સ્પ": 1009,
      "▁શિક્ષ": 1010,
      "▁5": 1011,
      "વાનો": 1012,
      "▁ચી": 1013,
      "▁તેનો": 1014,
      "▁વસ": 1015,
      "ત્તિ": 1016,
      "▁18": 1017,
      "▁ગાંધી": 1018,
      "િતિ": 1019,
      "મેન્ટ": 1020,
      "▁જીરુ,": 1021,
      "▁પિ": 1022,
      "ફળ": 1023,
      "જીક": 1024,
      "▁તુ": 1025,
      "▁પદ": 1026,
      "▁યુનિ": 1027,
      "ગેરે": 1028,
      "▁ખૂ": 1029,
      "▁જરૂ": 1030,
      "▁કર્યા": 1031,
      "▁સમુ": 1032,
      "▁સેવા": 1033,
      "▁માહિતી": 1034,
      "ક્ષણ": 1035,
      "▁અંત": 1036,
      "્યાસ": 1037,
      "▁ઢ": 1038,
      "▁મળી": 1039,
      "લ્ડ": 1040,
      "▁કારણ": 1041,
      "▁૬": 1042,
      "▁રિ": 1043,
      "▁ટકા": 1044,
      "આરી": 1045,
      "▁કંપની": 1046,
      "દાર": 1047,
      "▁દર્શા": 1048,
      "રૂપ": 1049,
      "નારા": 1050,
      "▁કોઇ": 1051,
      "ધિ": 1052,
      "▁આંતર": 1053,
      "▁વો": 1054,
      "પૂર્ણ": 1055,
      "ચિ": 1056,
      "નુ": 1057,
      "જ્ઞાન": 1058,
      "▁કેન્દ્ર": 1059,
      "્રો": 1060,
      "▁જોડ": 1061,
      "▁અપ": 1062,
      "▁હતી,": 1063,
      "્લે": 1064,
      "▁બિ": 1065,
      "▁પ્રકાશ": 1066,
      "રેક": 1067,
      "થક": 1068,
      "▁લીધ": 1069,
      "▁દિવેલા,": 1070,
      "દુ": 1071,
      "▁આપી": 1072,
      "▁બને": 1073,
      "000": 1074,
      "▁શરૂઆત": 1075,
      "▁વગેરે": 1076,
      "▁મુજબ": 1077,
      "▁વિકિ": 1078,
      "કૃતિ": 1079,
      "▁લિ": 1080,
      "▁સંખ્યા": 1081,
      "ુમ": 1082,
      "▁ભારતના": 1083,
      "▁પક્ષ": 1084,
      "▁આઇ": 1085,
      "▁વસ્તી": 1086,
      "▁ચા": 1087,
      "▁ગયા": 1088,
      "▁પોતાની": 1089,
      "▁રાજા": 1090,
      "લમાં": 1091,
      "▁પહો": 1092,
      "▁મગ": 1093,
      "▁સૈ": 1094,
      "ર્તા": 1095,
      "▁પ્રમાણ": 1096,
      "ાંત": 1097,
      "▁પુર": 1098,
      "▁199": 1099,
      "▁હતા,": 1100,
      "ળો": 1101,
      "▁હતો.\n": 1102,
      "થ્": 1103,
      "ંટ": 1104,
      "સ્ટ્ર": 1105,
      "▁ડી": 1106,
      "▁જવા": 1107,
      "▁પુસ્ત": 1108,
      "▁બની": 1109,
      "▁6": 1110,
      "▁વધારે": 1111,
      "શાસ્ત્ર": 1112,
      "▁કરતાં": 1113,
      "▁સૌરાષ્ટ્ર": 1114,
      "ાયા": 1115,
      "▁૪": 1116,
      "▁ટો": 1117,
      "▁ન્યૂ": 1118,
      "્રુ": 1119,
      "▁કડીઓ\n": 1120,
      "▁જેને": 1121,
      "જિ": 1122,
      "ઠળ": 1123,
      "▁વિકાસ": 1124,
      "લાઇ": 1125,
      "▁હતું.\n": 1126,
      "હન": 1127,
      "▁એટલે": 1128,
      "▁દરેક": 1129,
      "▁જણા": 1130,
      "▁હાલ": 1131,
      "▁હેઠળ": 1132,
      "▁આધાર": 1133,
      "▁0": 1134,
      "▁નજીક": 1135,
      "▁યુના": 1136,
      "▁ઉત્પાદ": 1137,
      "▁૧૦": 1138,
      "▁મૃત": 1139,
      "ંદર": 1140,
      "ભગ": 1141,
      "▁અભ્યાસ": 1142,
      "▁કાય": 1143,
      "રિયા": 1144,
      "ઈ,": 1145,
      "▁રચના": 1146,
      "▁ધરાવતા": 1147,
      "▁પ્રે": 1148,
      "ંશ": 1149,
      "▁યુનિવર્": 1150,
      "▁આપવામાં": 1151,
      "▁છતાં": 1152,
      "લય": 1153,
      "▁સંસ્થા": 1154,
      "સ.": 1155,
      "▁જિલ્લો": 1156,
      "ારણ": 1157,
      "▁તેનું": 1158,
      "રસ": 1159,
      "▁મશિન\n": 1160,
      "▁કાર્": 1161,
      "▁વખત": 1162,
      "▁મહે": 1163,
      "▁અસ": 1164,
      "ન્ન": 1165,
      "▁૧૯૪": 1166,
      "▁તમામ": 1167,
      "દો": 1168,
      "ત્મક": 1169,
      "ફા": 1170,
      "▁૫": 1171,
      "▁નવા": 1172,
      "વ્યો": 1173,
      "સિટી": 1174,
      "તન": 1175,
      "▁ડો": 1176,
      "▁લગભગ": 1177,
      "િટ": 1178,
      "▁કૃ": 1179,
      "▁રંગ": 1180,
      "▁૧૯૬": 1181,
      "▁વ્યવ": 1182,
      "▁આવેલ": 1183,
      "▁રાષ્ટ્રીય": 1184,
      "ંદ્ર": 1185,
      "માર": 1186,
      "▁રહી": 1187,
      "▁વપરા": 1188,
      "▁મુંબ": 1189,
      "ભૂ": 1190,
      "▁હિંદ": 1191,
      "પણ": 1192,
      "▁જ્યાં": 1193,
      "▁વિદ": 1194,
      "▁પાંચ": 1195,
      "▁માર્ગ": 1196,
      "વ્યા": 1197,
      "▁ખૂબ": 1198,
      "▁કલા": 1199,
      "▁ચાર": 1200,
      "▁પૃ": 1201,
      "▁છો": 1202,
      "▁બાળ": 1203,
      "ધાન": 1204,
      "▁સમયે": 1205,
      "િસ્તા": 1206,
      "▁બં": 1207,
      "▁આશ": 1208,
      "▁લાગ": 1209,
      "યન": 1210,
      "▁બહાર": 1211,
      "ઇટ": 1212,
      "રના": 1213,
      "▁પર્": 1214,
      "▁એન્ડ": 1215,
      "હાર": 1216,
      "▁પામ": 1217,
      "▁ઓછ": 1218,
      "▁આમ": 1219,
      "▁આદિ": 1220,
      "▁ધો": 1221,
      "▁અમેરિક": 1222,
      "▁શાસ": 1223,
      "▁પ્રમા": 1224,
      "▁મદ": 1225,
      "લના": 1226,
      "ચ્ચ": 1227,
      "▁જંગ": 1228,
      "▁નિય": 1229,
      "▁ગે": 1230,
      "▁ફૂ": 1231,
      "ટક": 1232,
      "▁રહ્યા": 1233,
      "દાય": 1234,
      "મ્બ": 1235,
      "▁યુનિવર્સિટી": 1236,
      "ધન": 1237,
      "િકો": 1238,
      "પતિ": 1239,
      "▁વિશ": 1240,
      "▁નીચે": 1241,
      "▁ખો": 1242,
      "▁થો": 1243,
      "ઝા": 1244,
      "ગઢ": 1245,
      "▁જોઈ": 1246,
      "ભાર": 1247,
      "્લો": 1248,
      "▁સંબંધ": 1249,
      "▁ફર": 1250,
      "▁પ્રમાણે": 1251,
      "લેખ": 1252,
      "▁પાર્": 1253,
      "▁ચૂ": 1254,
      "▁૧૯૭": 1255,
      "▁શી": 1256,
      "ણાં": 1257,
      "દાવાદ": 1258,
      "મના": 1259,
      ".7": 1260,
      "▁મૃત્યુ": 1261,
      "▁ઇન્": 1262,
      "▁મહારા": 1263,
      "▁અસર": 1264,
      "▁આવેલી": 1265,
      "ખી": 1266,
      "▁ડાંગ": 1267,
      "▁યુરો": 1268,
      "▁ખુ": 1269,
      "▁વર": 1270,
      "પૂર્વ": 1271,
      "▁દૂર": 1272,
      "▁અભિ": 1273,
      "▁પહોંચ": 1274,
      "▁7": 1275,
      "▁ભગ": 1276,
      "▁જન": 1277,
      "▁અનેક": 1278,
      "▁ધી": 1279,
      "શે.": 1280,
      "▁જાન": 1281,
      "▁જાહેર": 1282,
      "▁વેબ": 1283,
      "▁સત્તા": 1284,
      "▁૧૯૮": 1285,
      "▁માતા": 1286,
      "સ્તુ": 1287,
      "▁ઑ": 1288,
      "વાદી": 1289,
      "▁બંને": 1290,
      "▁પરિણ": 1291,
      "▁એન્": 1292,
      "▁૨૦૨": 1293,
      "▁નગર": 1294,
      "ળી,": 1295,
      "નેટ": 1296,
      "▁સ્થાપના": 1297,
      "રમાં": 1298,
      "▁સૂર": 1299,
      "▁કવિ": 1300,
      "▁9": 1301,
      "▁હવા": 1302,
      "સ્કાર": 1303,
      "▁ફરી": 1304,
      "▁૧૯૫": 1305,
      "▁અર્": 1306,
      "વણી": 1307,
      "▁પરથી": 1308,
      "▁સંદર્ભો\n": 1309,
      "મન": 1310,
      "▁હતો,": 1311,
      "▁અનુસાર": 1312,
      "▁આર": 1313,
      "ોને": 1314,
      "ઓએ": 1315,
      "▁૧૪": 1316,
      "▁અમદાવાદ": 1317,
      "▁ઊંચ": 1318,
      "10": 1319,
      "▁સુધ": 1320,
      "▁ગી": 1321,
      "વાનું": 1322,
      "▁દેવ": 1323,
      "શિયા": 1324,
      "્યતા": 1325,
      "▁બાં": 1326,
      "▁તેણે": 1327,
      "ોની": 1328,
      "ક્રિયા": 1329,
      "ંહ": 1330,
      "▁ઓક્": 1331,
      "ફે": 1332,
      "▁બુ": 1333,
      "▁મોટી": 1334,
      "▁૧૭": 1335,
      "▁વહે": 1336,
      "બાદ": 1337,
      "ગ્ન": 1338,
      "▁મેળવી": 1339,
      "કની": 1340,
      "ઇટેડ": 1341,
      "ઓ,": 1342,
      "▁8": 1343,
      "▁કરવાની": 1344,
      "બલ": 1345,
      "▁વૃ": 1346,
      "▁જોકે": 1347,
      "ંથ": 1348,
      "▁૧૧": 1349,
      "▁અમેરિકા": 1350,
      "▁શિક્ષણ": 1351,
      "લ્લા": 1352,
      "▁વર્ણ": 1353,
      "▁હવે": 1354,
      "રાજ": 1355,
      "ૈય": 1356,
      "પક": 1357,
      "▁પ્રય": 1358,
      "▁જેના": 1359,
      "▁લાં": 1360,
      "▁૭": 1361,
      "▁૧૯૯": 1362,
      "સ,": 1363,
      "▁મગફ": 1364,
      "▁નેટ": 1365,
      "▁મદદ": 1366,
      "9999": 1367,
      "ડિ": 1368,
      "▁આસ": 1369,
      "ઠી": 1370,
      "▁શહે": 1371,
      "્યોગ": 1372,
      "▁સપ્": 1373,
      "▁પાછળ": 1374,
      "▁પ્રાર": 1375,
      "▁પગ": 1376,
      "▁કે,": 1377,
      "▁સ્વતંત્ર": 1378,
      "▁સામા": 1379,
      "▁શોધ": 1380,
      "ક્ટ": 1381,
      "લાલ": 1382,
      "લેજ": 1383,
      "વાના": 1384,
      "▁દ્ર": 1385,
      "▁115": 1386,
      "▁શ્રેણી": 1387,
      "▁પડે": 1388,
      "કથા": 1389,
      "▁પ્રારંભ": 1390,
      "▁દિલ્": 1391,
      "▁હતાં": 1392,
      "▁એવો": 1393,
      "ચીન": 1394,
      "▁હતું,": 1395,
      "ંપરા": 1396,
      "▁એવી": 1397,
      "▁પાકિસ્તા": 1398,
      "▁૧૫": 1399,
      "▁તલ,": 1400,
      "ૃત્તિ": 1401,
      "▁અંગે": 1402,
      "▁નહીં": 1403,
      "▁ભારતમાં": 1404,
      "રની": 1405,
      "▁વાર": 1406,
      "્રેસ": 1407,
      "▁જગ": 1408,
      "ન્ય": 1409,
      "▁ઇન્ડ": 1410,
      "ર્ન": 1411,
      "ેટ": 1412,
      "▁જિલ્લાના": 1413,
      "▁બાબ": 1414,
      "ાયો": 1415,
      "▁યુનાઇટેડ": 1416,
      "▁૧૨": 1417,
      "▁સંગીત": 1418,
      "લુ": 1419,
      "▁પાડ": 1420,
      "▁મગફળી,": 1421,
      "▁ચાલ": 1422,
      ".સ.": 1423,
      "ફી": 1424,
      "▁૧૯૩": 1425,
      "▁જય": 1426,
      "▁પરંપરા": 1427,
      "▁જમી": 1428,
      "ત્યા": 1429,
      "▁નેટવર્": 1430,
      "▁એપ્ર": 1431,
      "▁જાન્યુ": 1432,
      "▁હું": 1433,
      "▁સ્વી": 1434,
      "ન\n": 1435,
      "▁દિલ્હી": 1436,
      "19": 1437,
      "▁જૈ": 1438,
      "▁રજૂ": 1439,
      "ક,": 1440,
      "ટ્રો": 1441,
      "▁વાત": 1442,
      "ઓનો": 1443,
      "ભાઈ": 1444,
      "▁મકા": 1445,
      "ંદા": 1446,
      "3.": 1447,
      "▁અગ": 1448,
      "▁પ્રક્રિયા": 1449,
      "ક્ક": 1450,
      "▁૮": 1451,
      "ાયેલા": 1452,
      "દ્ધતિ": 1453,
      "લ્પ": 1454,
      "▁ઓગ": 1455,
      "જિક": 1456,
      "▁કેટલી": 1457,
      "▁સભ્ય": 1458,
      "▁મથક": 1459,
      "▁એપ્રિલ": 1460,
      "▁જ્ઞ": 1461,
      "કળ": 1462,
      "▁સિદ્ધ": 1463,
      "▁અત્ય": 1464,
      "▁આગળ": 1465,
      "ષણ": 1466,
      "▁સમાજ": 1467,
      "સં": 1468,
      "મુખ": 1469,
      "એમ": 1470,
      "▁ડિસે": 1471,
      "▁રૂપ": 1472,
      "▁સફળ": 1473,
      "નને": 1474,
      "▁એવું": 1475,
      "કારી": 1476,
      "▁૧૬": 1477,
      "વરણ": 1478,
      "▁198": 1479,
      "▁અમુક": 1480,
      "સંદ": 1481,
      "▁પદ્ધતિ": 1482,
      "▁પરિણામ": 1483,
      "▁દિશા": 1484,
      ",000": 1485,
      "્લા": 1486,
      "રમ": 1487,
      "▁દિવસે": 1488,
      "રામ": 1489,
      "ાંતિ": 1490,
      "▁પાર": 1491,
      "▁મત": 1492,
      "▁હોવાથી": 1493,
      "ંમ": 1494,
      "▁વિભાગ": 1495,
      "▁ઔ": 1496,
      "▁તાલુકાનું": 1497,
      "ખો": 1498,
      "▁શે": 1499,
      "▁નાના": 1500,
      "▁મુંબઈ": 1501,
      "ઇડ": 1502,
      "▁બહુ": 1503,
      "▁પુન": 1504,
      "▁પુરસ્કાર": 1505,
      "▁તેમનું": 1506,
      "▁તૈય": 1507,
      "▁વ્યવસ્થા": 1508,
      "▁શુ": 1509,
      "કોટ": 1510,
      "રાષ્ટ્રીય": 1511,
      "▁વિચાર": 1512,
      "ફ્": 1513,
      "સાય": 1514,
      "▁બનાવવામાં": 1515,
      "લબ્": 1516,
      "▁સમગ્ર": 1517,
      "▁સંસ્કૃતિ": 1518,
      "કિ": 1519,
      "લની": 1520,
      "્યું.": 1521,
      "▁ચિત્ર": 1522,
      "લી,": 1523,
      "નગર": 1524,
      "▁સેના": 1525,
      "▁પિતા": 1526,
      "▁કલ": 1527,
      "▁લઈ": 1528,
      "▁10": 1529,
      "▁નું": 1530,
      "ગુ": 1531,
      "▁પ્રાચીન": 1532,
      "▁તેથી": 1533,
      "ઝી": 1534,
      "▁દો": 1535,
      "ષ્ય": 1536,
      "▁ભી": 1537,
      "ણા,": 1538,
      "એ.": 1539,
      "▁અસ્": 1540,
      "0000": 1541,
      "▁એર": 1542,
      "▁સૂર્ય": 1543,
      "▁તેમનો": 1544,
      "▁નવી": 1545,
      "શનલ": 1546,
      "▁૯": 1547,
      "કાળ": 1548,
      "▁પુરા": 1549,
      "ાઈ": 1550,
      "▁આધારિત": 1551,
      "▁ઉપલબ્": 1552,
      "▁હિન્": 1553,
      "▁બાંધ": 1554,
      "▁સમાન": 1555,
      "▁નવે": 1556,
      "ત્ત": 1557,
      "સુ": 1558,
      "▁પૂર": 1559,
      "કાં": 1560,
      "જ્ય": 1561,
      "▁પ્રાપ્ત": 1562,
      "▁કેટલીક": 1563,
      "▁કરી.": 1564,
      "▁બીજી": 1565,
      "દરા": 1566,
      "▁દસ": 1567,
      "્રમ": 1568,
      "▁પસંદ": 1569,
      "▁ખાન": 1570,
      "વળ": 1571,
      "ઇન": 1572,
      "▁અર": 1573,
      "હરણ": 1574,
      "▁સંઘ": 1575,
      "▁૧૯૨": 1576,
      "▁જાન્યુઆરી": 1577,
      "▁ગ્રી": 1578,
      "▁હિંદુ": 1579,
      "નાથ": 1580,
      "▁સંભ": 1581,
      "▁પૃથ્": 1582,
      "▁પ્રત્ય": 1583,
      "▁ઉલ્": 1584,
      "▁છે\n": 1585,
      "▁ઠ": 1586,
      "▁જર્મ": 1587,
      "▁ઉદા": 1588,
      "▁ભે": 1589,
      "ચાલ": 1590,
      "વાડા": 1591,
      "લેક્": 1592,
      "ટિશ": 1593,
      "▁ઘટના": 1594,
      "▁બંગ": 1595,
      "▁115.7": 1596,
      "▁વિરો": 1597,
      "્રહ્": 1598,
      "▁સપ્ટે": 1599,
      "▁હાથ": 1600,
      "▁ત્રી": 1601,
      "▁હુમ": 1602,
      "્યો.": 1603,
      "પણે": 1604,
      "▁સાં": 1605,
      "▁,\n": 1606,
      "▁ઉપલબ્ધ": 1607,
      "લર": 1608,
      "પ્રિય": 1609,
      "▁વિકિપી": 1610,
      "જર": 1611,
      "▁ગા": 1612,
      "▁આદિવાસી": 1613,
      "ંકા": 1614,
      "▁197": 1615,
      "▁નવ": 1616,
      "▁ફેરફ": 1617,
      "▁વન": 1618,
      "▁નિર્માણ": 1619,
      "▁કહેવાય": 1620,
      "દેવ": 1621,
      "▁વિન": 1622,
      "▁માર્": 1623,
      "▁વંશ": 1624,
      "▁સંશો": 1625,
      "ોના": 1626,
      "▁બ્રા": 1627,
      "ટોબર": 1628,
      "▁રામ": 1629,
      "▁સ્થાનિક": 1630,
      "▁પાં": 1631,
      "▁કાળ": 1632,
      "▁પૃથ્વી": 1633,
      "▁ઢાંચ": 1634,
      "કામ": 1635,
      "▁17": 1636,
      "ચર": 1637,
      "બુ": 1638,
      "ંગા": 1639,
      "▁સિવાય": 1640,
      "▁નેટવર્ક": 1641,
      "▁તેવી": 1642,
      "▁ઝડ": 1643,
      "વતી": 1644,
      "▁બળ": 1645,
      "▁૧૩": 1646,
      "ષ્ટિ": 1647,
      "▁આવતા": 1648,
      "▁ટ્રે": 1649,
      "▁બન્યા": 1650,
      "▁એન": 1651,
      "વડ": 1652,
      "વિક": 1653,
      "હ્": 1654,
      "ેલ": 1655,
      "20": 1656,
      "ુનિક": 1657,
      "▁આંતરરાષ્ટ્રીય": 1658,
      "▁સ્વરૂપ": 1659,
      "▁સંપૂર્ણ": 1660,
      "▁પુત્ર": 1661,
      "▁ચંદ્ર": 1662,
      "▁બ્રિટિશ": 1663,
      "▁જવાબ": 1664,
      "▁યુરોપ": 1665,
      "▁લેવામાં": 1666,
      "▁કી": 1667,
      "યાં": 1668,
      "સંગ": 1669,
      "▁મોટ": 1670,
      "દર્શન": 1671,
      "ર્યા": 1672,
      "▁માધ્ય": 1673,
      "▁ભુ": 1674,
      "લાઈ": 1675,
      "પાર": 1676,
      "▁૦": 1677,
      "▁તી": 1678,
      "▁તત્": 1679,
      "▁ફિ": 1680,
      "▁બધા": 1681,
      "▁સહિત": 1682,
      "▁સામાજિક": 1683,
      "▁મંત્ર": 1684,
      "▁તમે": 1685,
      "▁પુસ્તક": 1686,
      "▁16": 1687,
      "પાત્ર": 1688,
      "▁લોકપ્રિય": 1689,
      "▁આધુનિક": 1690,
      "▁જગ્યા": 1691,
      "▁કપ": 1692,
      "તા,": 1693,
      "▁એડ": 1694,
      "▁ફુ": 1695,
      "▁ઉદાહરણ": 1696,
      "▁કહ": 1697,
      "મમાં": 1698,
      "▁જિલ્લાનું": 1699,
      "50": 1700,
      "લાય": 1701,
      "▁માનવ": 1702,
      "▁રાજકીય": 1703,
      "દર્શ": 1704,
      "એન": 1705,
      "▁ડિસેમ્બર": 1706,
      "તની": 1707,
      "જય": 1708,
      "કૂ": 1709,
      "મને": 1710,
      "▁બિન": 1711,
      "તના": 1712,
      "▁મિલ": 1713,
      "▁નવલ": 1714,
      "▁કોર્": 1715,
      "ફ્ર": 1716,
      "ામી": 1717,
      "▁કાં": 1718,
      "▁જેથી": 1719,
      "▁ભગવાન": 1720,
      "▁કાયદા": 1721,
      "▁પ્રભાવ": 1722,
      "યુક્ત": 1723,
      "રૂપે": 1724,
      "▁સ્થિતિ": 1725,
      "ડર": 1726,
      "▁એલ": 1727,
      "ટિક": 1728,
      "▁વિકિપીડિયા": 1729,
      "▁ફ્રે": 1730,
      "▁તેણી": 1731,
      "▁કોલેજ": 1732,
      "▁અમેરિકન": 1733,
      "બ્રુ": 1734,
      "શ્ય": 1735,
      "▁ચણા,": 1736,
      "▁ઉચ્ચ": 1737,
      "▁નિષ્": 1738,
      "▁૧૯૧": 1739,
      "▁શેર": 1740,
      "▁પં": 1741,
      "▁ચાલુ": 1742,
      "▁લેવા": 1743,
      "▁સ્પર્": 1744,
      "▁ટ્રા": 1745,
      "▁તૈયાર": 1746,
      "▁સાર": 1747,
      "પિ": 1748,
      "ડી,": 1749,
      "▁મકાઈ,": 1750,
      "મતા": 1751,
      "યણ": 1752,
      "▁આં": 1753,
      "▁વાર્તા": 1754,
      "▁196": 1755,
      "▁સ્ટેટ્સ": 1756,
      "▁શૈ": 1757,
      "▁સાધ": 1758,
      "▁ભૂમ": 1759,
      "ઓનું": 1760,
      "▁ઓગસ્ટ": 1761,
      "▁જોડા": 1762,
      "મની": 1763,
      "▁સભ્યો": 1764,
      "મ્પ્યુ": 1765,
      "▁વેબસા": 1766,
      "▁સાત": 1767,
      "▁ઉલ્લેખ": 1768,
      "મ્સ": 1769,
      "ખ્યાત": 1770,
      "▁ઋ": 1771,
      "▁મહિના": 1772,
      "ૂહ": 1773,
      "▁ઉત્પાદન": 1774,
      "▁પ્રકારના": 1775,
      "▁માર્ચ": 1776,
      "▁આયો": 1777,
      "▁જોઇ": 1778,
      "▁ઓછા": 1779,
      "▁બાજુ": 1780,
      "▁વિષય": 1781,
      "▁ગ્રા": 1782,
      "ક્કસ": 1783,
      "આઇ": 1784,
      "11": 1785,
      "▁સ્તર": 1786,
      "▁નવેમ્બર": 1787,
      "ાર્મિક": 1788,
      "▁ઐ": 1789,
      "▁ચક્ર": 1790,
      "▁જીવ": 1791,
      "▁સુરત": 1792,
      "જાર": 1793,
      "નાય": 1794,
      "▁ભર": 1795,
      "▁સ્ત્રી": 1796,
      "▁રોગ": 1797,
      "▁માનવામાં": 1798,
      "▁બ્રહ્": 1799,
      "જ્ઞા": 1800,
      "લોજી": 1801,
      "▁સંચાલ": 1802,
      "▁પ્રમાણમાં": 1803,
      "▁જ્ઞાન": 1804,
      "લિમ": 1805,
      "▁પ્રજા": 1806,
      "કર્ષ": 1807,
      "▁તેવા": 1808,
      "▁સપ્ટેમ્બર": 1809,
      "ડીયા": 1810,
      "▁ગ્રે": 1811,
      "▁મૂક": 1812,
      "▁પહેલાં": 1813,
      "▁ઓળખાય": 1814,
      "ાંતર": 1815,
      "▁કર્યું.": 1816,
      "ડીને": 1817,
      "▁ઘટા": 1818,
      "▁આર્થ": 1819,
      "ચલ": 1820,
      "▁કાઢ": 1821,
      "▁પદાર્": 1822,
      "▁પ્રકાશિત": 1823,
      "નિયા": 1824,
      "▁કેમ": 1825,
      "▁ધાર્મિક": 1826,
      "▁ઓળખા": 1827,
      "▁વસ્તુ": 1828,
      "▁દિશામાં": 1829,
      "ઘા": 1830,
      "▁લગ્ન": 1831,
      "સિદ્ધ": 1832,
      "▁આશરે": 1833,
      "િયર": 1834,
      "▁પૂર્ણ": 1835,
      "▁આસપાસ": 1836,
      "▁ભારતની": 1837,
      "▁લશ્": 1838,
      "કનો": 1839,
      "▁નક્": 1840,
      "ંગ્": 1841,
      "▁ફેબ્રુ": 1842,
      "ટીશ": 1843,
      "ગ્રહ": 1844,
      "▁સમુદ્ર": 1845,
      "િસ": 1846,
      "▁ગ્રંથ": 1847,
      "▁શરી": 1848,
      "▁ટૂ": 1849,
      "▁સૈનિક": 1850,
      "▁જમીન": 1851,
      "▁અત્યંત": 1852,
      "વાળા": 1853,
      "િયાર": 1854,
      "ાયોગ": 1855,
      "્વ": 1856,
      "▁પ્રવેશ": 1857,
      "વીને": 1858,
      "▁કૃષ્ણ": 1859,
      "▁મહાન": 1860,
      "▁પ્રમુખ": 1861,
      "ાયક": 1862,
      "લ્લ": 1863,
      "▁ચોક્કસ": 1864,
      "વાડ": 1865,
      "ન્સી": 1866,
      "▁12": 1867,
      "▁કથા": 1868,
      "▁ચૌ": 1869,
      "શિ": 1870,
      "ૂત": 1871,
      "▁આરો": 1872,
      "▁જાતિ": 1873,
      "▁2007": 1874,
      "▁વખતે": 1875,
      "▁સગ": 1876,
      "ત્રા": 1877,
      "▁સંસ્કૃત": 1878,
      "વેદ": 1879,
      "▁ઉજ": 1880,
      "્યાલય": 1881,
      "▁યોગ્ય": 1882,
      "▁વધારો": 1883,
      "▁જાણીતા": 1884,
      "▁વિશાળ": 1885,
      "▁વડે": 1886,
      "▁વિના": 1887,
      "▁2008": 1888,
      "▁છું": 1889,
      "▁રાજ્યમાં": 1890,
      "▁મંદિ": 1891,
      "▁સલા": 1892,
      "▁ભૌ": 1893,
      "▁આફ્ર": 1894,
      "ઇલ": 1895,
      "▁શહેરમાં": 1896,
      "▁એશિયા": 1897,
      "▁રમત": 1898,
      "▁33.": 1899,
      "▁આય": 1900,
      "▁સુર": 1901,
      "▁કાર્યક્ર": 1902,
      "▁થતો": 1903,
      "▁ગયો": 1904,
      "▁ફા": 1905,
      "સિંહ": 1906,
      "▁મુસ્": 1907,
      "▁રહેલા": 1908,
      "▁બનાવવા": 1909,
      "▁કર્યો.": 1910,
      "▁પ્રકારની": 1911,
      "▁શ્રેષ્ઠ": 1912,
      "▁ઉદ્યોગ": 1913,
      "▁મહિલા": 1914,
      "▁શાસન": 1915,
      "▁નવલકથા": 1916,
      "▁ઉદ્": 1917,
      "▁જેની": 1918,
      "▁માટેની": 1919,
      "▁પ્રાણી": 1920,
      "૦૦૦": 1921,
      "▁વિશેષ": 1922,
      "▁ઇન્ટર": 1923,
      "▁ભો": 1924,
      "▁સામ્રા": 1925,
      "ંસ": 1926,
      "નીય": 1927,
      "બિ": 1928,
      "▁પક્ષી": 1929,
      "૧૯": 1930,
      "▁સપા": 1931,
      "▁અગા": 1932,
      "▁આર્થિક": 1933,
      "▁મ્યુ": 1934,
      "▁ગયું": 1935,
      "▁ભૂમિકા": 1936,
      "▁રમ": 1937,
      "▁સમયમાં": 1938,
      "▁પ્રવ": 1939,
      "્યાર્": 1940,
      "▁અવસ": 1941,
      "▁રુ": 1942,
      "▁ભાઈ": 1943,
      "શ્વિક": 1944,
      "▁જરૂરી": 1945,
      "યેલા": 1946,
      "▁દરમ્યાન": 1947,
      "કના": 1948,
      "▁ઘો": 1949,
      "▁સ્ટ": 1950,
      "▁ધ્યાન": 1951,
      "▁તળા": 1952,
      "22": 1953,
      "▁વડા": 1954,
      "૧૦": 1955,
      "▁માળ": 1956,
      "▁શક્તિ": 1957,
      "▁..": 1958,
      "ંબ": 1959,
      "▁કાલ": 1960,
      "▁ત્યારબાદ": 1961,
      "▁વૈશ્વિક": 1962,
      "▁જાણ": 1963,
      "▁આજે": 1964,
      "વાહ": 1965,
      "▁આવેલો": 1966,
      "▁15": 1967,
      "▁જેનો": 1968,
      "▁પરી": 1969,
      "૯\n": 1970,
      "▁પ્રત્યે": 1971,
      "▁શીખ": 1972,
      "▁ગુરુ": 1973,
      "પોર": 1974,
      "ઈટ": 1975,
      "સ્ટો": 1976,
      "▁જૈન": 1977,
      "▁નિયમ": 1978,
      "સાદ": 1979,
      "▁ઓક્ટોબર": 1980,
      "▁કેન્સ": 1981,
      "▁ચલા": 1982,
      "▁વર્ષની": 1983,
      "▁જૂના": 1984,
      "્યાય": 1985,
      "▁વાતા": 1986,
      "18": 1987,
      "ંતી": 1988,
      "▁શહેરો": 1989,
      "▁યાદી": 1990,
      "▁ધર": 1991,
      "▁રહ્યો": 1992,
      "વુ": 1993,
      "લાડી": 1994,
      "ધાની": 1995,
      "▁અગાઉ": 1996,
      "ચન": 1997,
      "ભવ": 1998,
      "સ્પ": 1999,
      "િયે": 2000,
      "▁ફેબ્રુઆરી": 2001,
      "▁નાટ": 2002,
      "▁ઘણાં": 2003,
      "સના": 2004,
      "▁લડા": 2005,
      "ાયેલી": 2006,
      "14": 2007,
      "ોએ": 2008,
      "ગીરી": 2009,
      "ડુ": 2010,
      "▁મોટાભાગ": 2011,
      "▁રાજ્યો": 2012,
      "▁પ્રદેશમાં": 2013,
      "▁આલ્": 2014,
      "કોશ": 2015,
      "▁દાય": 2016,
      "વીય": 2017,
      "▁મેં": 2018,
      "▁કાઉ": 2019,
      "▁આઈ": 2020,
      "▁ગુણ": 2021,
      "78": 2022,
      "ચો": 2023,
      "▁અંદા": 2024,
      "▁થયેલા": 2025,
      "▁રેલ": 2026,
      "ણમાં": 2027,
      "દારી": 2028,
      "▁જળ": 2029,
      "▁દરિયા": 2030,
      "▁ચૂંટ": 2031,
      "રલ": 2032,
      "તિત્વ": 2033,
      "▁ઇતિહાસ\n": 2034,
      "બાર": 2035,
      "▁કરવાનો": 2036,
      "▁જૂન": 2037,
      "▁યોજના": 2038,
      "ગ્રી": 2039,
      "દ્ધિ": 2040,
      "લન": 2041,
      "▁આર્": 2042,
      "ન્ક": 2043,
      "બાઈ": 2044,
      "▁જેટ": 2045,
      "▁મુસ્લિમ": 2046,
      "▁નામના": 2047,
      "▁કોંગ": 2048,
      "ઝન": 2049,
      "જ્": 2050,
      "30": 2051,
      "િક્": 2052,
      "▁પૂરી": 2053,
      "▁ટુ": 2054,
      "તમાં": 2055,
      "▁સન્": 2056,
      "▁એચ": 2057,
      "▁નક્કી": 2058,
      "ગલ": 2059,
      "ાઇન": 2060,
      "ખર": 2061,
      "▁૨૨": 2062,
      "▁બોલ": 2063,
      "▁ડાંગર,": 2064,
      "▁અવસાન": 2065,
      "૨\n": 2066,
      "ન્દ": 2067,
      "▁આંક": 2068,
      "▁ફક્ત": 2069,
      "▁જૂથ": 2070,
      "▁સંપ": 2071,
      "▁નાગર": 2072,
      "▁કરતી": 2073,
      "▁શિવ": 2074,
      "ટલ": 2075,
      "▁મોટો": 2076,
      "▁બનાવે": 2077,
      "▁બોલી": 2078,
      "ંકર": 2079,
      "▁પ્રસિદ્ધ": 2080,
      "▁ભજ": 2081,
      "▁વસે": 2082,
      "▁જુઓ\n": 2083,
      "ક્રિય": 2084,
      "કાંઠા": 2085,
      "ાયોગદાન": 2086,
      "▁સામ્રાજ્ય": 2087,
      "▁પત્": 2088,
      "ન્ને": 2089,
      "▁ઓછી": 2090,
      "▁સત": 2091,
      "▁હાલમાં": 2092,
      "▁તિ": 2093,
      "▁જ્યો": 2094,
      "▁વિભા": 2095,
      "ેલા": 2096,
      "▁હોવાનું": 2097,
      "ટેલ": 2098,
      "▁દાયકા": 2099,
      "▁ગૂ": 2100,
      "▁ક્રિક": 2101,
      "તિહાસિક": 2102,
      "▁અસ્તિત્વ": 2103,
      "સૂ": 2104,
      "▁મોટું": 2105,
      "ચર્ચ": 2106,
      "▁સ્થિત": 2107,
      "▁પર્વત": 2108,
      "▁તબ": 2109,
      "▁કોલ": 2110,
      "▁ઇન": 2111,
      "▁બનાવ": 2112,
      "▁બદલ": 2113,
      "▁નોંધપાત્ર": 2114,
      "2.": 2115,
      "▁નામે": 2116,
      "▁નિયંત્ર": 2117,
      "▁મહારાષ્ટ્ર": 2118,
      "▁ગ્રહ": 2119,
      "રુષ": 2120,
      "▁ગાંધીજી": 2121,
      "▁હતાં.": 2122,
      "કમાં": 2123,
      "યર": 2124,
      "▁તત્વ": 2125,
      "દાસ": 2126,
      "▁ગૌ": 2127,
      "▁ચળ": 2128,
      "ભુ": 2129,
      "ો,": 2130,
      "▁વર્ગ": 2131,
      "ફર": 2132,
      "▁લાલ": 2133,
      "▁વલ": 2134,
      "17": 2135,
      "▁આપ્યો": 2136,
      "આર": 2137,
      "સિક": 2138,
      "▁કચ્છ": 2139,
      "▁મહત્": 2140,
      "▁શાસ્ત્ર": 2141,
      "હેવા": 2142,
      "▁નથી,": 2143,
      "▁સ્પર્ધા": 2144,
      "▁બીજ": 2145,
      "ક્ષી": 2146,
      "▁સ્વતંત્રતા": 2147,
      "▁પ્રારંભિક": 2148,
      "▁સપાટી": 2149,
      "ટ્રી": 2150,
      "▁ભાગના": 2151,
      "▁આપવા": 2152,
      "▁રાખી": 2153,
      "▁દેખા": 2154,
      "▁ફેલા": 2155,
      "ંધી": 2156,
      "▁વિજ્ઞાન": 2157,
      "▁કૉ": 2158,
      "▁ક્રમ": 2159,
      "▁કર્": 2160,
      "▁બનાવી": 2161,
      "▁નિર્ણ": 2162,
      "▁લખા": 2163,
      "▁લુ": 2164,
      "▁રાજધાની": 2165,
      "ાર્ડ": 2166,
      "▁વસતી": 2167,
      "▁વિદ્યાર્": 2168,
      "▁આવા": 2169,
      "▁પોર્ટ": 2170,
      "ોનો": 2171,
      "▁અનુવાદ": 2172,
      "▁માન્યતા": 2173,
      "▁ઉમે": 2174,
      "વિદ": 2175,
      "▁દર્શાવે": 2176,
      "▁લાગે": 2177,
      "▁જામ": 2178,
      "▁મને": 2179,
      "▁વહી": 2180,
      "▁મોકલ": 2181,
      "▁ત્રિ": 2182,
      "▁પ્રયત્": 2183,
      "ષિ": 2184,
      "▁પત્ર": 2185,
      "▁સું": 2186,
      "▁ડું": 2187,
      "▁ફેરફાર": 2188,
      "▁અંદર": 2189,
      "▁બ્રિટીશ": 2190,
      "્લ": 2191,
      "▁ડેટા": 2192,
      "▁પ્રવાસ": 2193,
      "▁સર્વ": 2194,
      "▁હૈ": 2195,
      "▁થતા": 2196,
      "▁લોકોની": 2197,
      "સમાં": 2198,
      "▁વર્ષે": 2199,
      "▁સ્ત": 2200,
      "પુરા": 2201,
      "▁થોડા": 2202,
      "જિત": 2203,
      "▁વિશ્": 2204,
      "▁ચલ": 2205,
      "કૃતિક": 2206,
      "▁થતી": 2207,
      "ભી": 2208,
      "▁માટેના": 2209,
      "▁વપરાશ": 2210,
      "▁ખેલાડી": 2211,
      "▁જેઓ": 2212,
      "▁કિમી": 2213,
      "▁ઓળખવામાં": 2214,
      "મેન": 2215,
      "▁રચ": 2216,
      "ટ્ટ": 2217,
      "ચર્ચાયોગદાન": 2218,
      "ખંડ": 2219,
      "▁પડી": 2220,
      "તાઓ": 2221,
      "▁કમ્પ્યુ": 2222,
      "▁૨૩": 2223,
      "▁વર્ત": 2224,
      "▁વર્લ્ડ": 2225,
      "▁વાતાવરણ": 2226,
      "જિંગ": 2227,
      "સન": 2228,
      "▁૧૯૦": 2229,
      "12": 2230,
      "▁વેબસાઇટ": 2231,
      "▁વિદ્યાર્થી": 2232,
      "મ,": 2233,
      "્યા.": 2234,
      "▁પાડે": 2235,
      "લાકા": 2236,
      "▁ઐતિહાસિક": 2237,
      "રાળ": 2238,
      "▁સંયુક્ત": 2239,
      "▁તાપ": 2240,
      "▁સમુદાય": 2241,
      "▁ડૉ": 2242,
      "▁માંગ": 2243,
      "16": 2244,
      "▁પ્લે": 2245,
      "▁લીધે": 2246,
      "૮\n": 2247,
      "▁૨૧": 2248,
      "▁સિસ્ટ": 2249,
      "▁લોકોને": 2250,
      "ંડળ": 2251,
      "▁રેડ": 2252,
      "▁રહ્યું": 2253,
      "▁મારી": 2254,
      "▁ઈ.સ.": 2255,
      "ાયેલ": 2256,
      "▁લાંબા": 2257,
      "નંદ": 2258,
      "▁આઠ": 2259,
      "સ્સા": 2260,
      "▁જેવાં": 2261,
      "▁પરિવાર": 2262,
      "જિન": 2263,
      "કર્તા": 2264,
      "સ્થાન": 2265,
      "▁જણાવ્યું": 2266,
      "▁કહ્યું": 2267,
      "▁છોડ": 2268,
      "▁મરા": 2269,
      "▁સંપાદ": 2270,
      "▁સરળ": 2271,
      "▁સ્વીકાર": 2272,
      ".એસ": 2273,
      "▁પ્રખ્યાત": 2274,
      "▁અભિને": 2275,
      "ફ્ટ": 2276,
      "ધ્": 2277,
      "▁પાલ": 2278,
      "▁ધા": 2279,
      "હુ": 2280,
      "▁કહેવામાં": 2281,
      "▁સ્વામી": 2282,
      "▁બાળકો": 2283,
      "40": 2284,
      "▁લીધો": 2285,
      ".0": 2286,
      "લિન": 2287,
      "▁સ્પષ્ટ": 2288,
      "ંખ": 2289,
      "ેશ્": 2290,
      "▁કરવાનું": 2291,
      "▁જરૂર": 2292,
      "ધો": 2293,
      "▁પ્રિ": 2294,
      "▁પસાર": 2295,
      "ન્ડો": 2296,
      "ઉન્ડ": 2297,
      "▁વિદેશ": 2298,
      "▁લઇ": 2299,
      "લ્લી": 2300,
      "૫,": 2301,
      "▁સંશોધન": 2302,
      "રાશ": 2303,
      "ત્મા": 2304,
      "એફ": 2305,
      "▁તુવર": 2306,
      "▁પ્રગ": 2307,
      "થુ": 2308,
      "▁રાખવામાં": 2309,
      "▁સૈન્ય": 2310,
      "૦માં": 2311,
      "▁આવતી": 2312,
      "▁આભાર": 2313,
      "▁સમયગ": 2314,
      "પાન": 2315,
      "ષદ": 2316,
      "૧\n": 2317,
      "▁અંક": 2318,
      "▁જાળ": 2319,
      "▁મીટર": 2320,
      "▁બેઠ": 2321,
      "▁નથી.\n": 2322,
      "ણિક": 2323,
      "▁પલ": 2324,
      "▁વિનંતી": 2325,
      "▁ક્યારે": 2326,
      "▁બાર": 2327,
      "▁મુક": 2328,
      "▁ભાષામાં": 2329,
      "▁ભાગે": 2330,
      "▁સુધીમાં": 2331,
      "▁ઇન્ડિયા": 2332,
      "▁આયોજન": 2333,
      "▁લડ": 2334,
      "▁પુરુષ": 2335,
      "્રામ": 2336,
      "▁નેશનલ": 2337,
      "▁!": 2338,
      "▁તમાકુ": 2339,
      "▁પ્રતિનિ": 2340,
      "▁વહીવ": 2341,
      "કન": 2342,
      "ંડા": 2343,
      "સ્યા": 2344,
      "ંડો": 2345,
      "▁ફૂટ": 2346,
      "▁કર્મ": 2347,
      "ણુ": 2348,
      "▁ગતિ": 2349,
      "▁મુલાકા": 2350,
      "ાળી,": 2351,
      "રાવ": 2352,
      "શ્ર": 2353,
      "રાઇ": 2354,
      "▁નહો": 2355,
      "▁આપ્યું": 2356,
      "▁ધરાવતી": 2357,
      "▁પ્રતિક": 2358,
      "૪,": 2359,
      "▁ગર્": 2360,
      "ણના": 2361,
      "▁ગણા": 2362,
      "ર્જા": 2363,
      "▁લાખ": 2364,
      "▁સર્જન": 2365,
      "▁કું": 2366,
      "▁બાકી": 2367,
      "▁કં": 2368,
      "શ્વર": 2369,
      "▁2006": 2370,
      "▁એક્": 2371,
      "▁અક્ષ": 2372,
      "ગોળ": 2373,
      "ભૂત": 2374,
      "▁નાગ": 2375,
      "▁ઉત્તરી": 2376,
      "▁ન્યુ": 2377,
      "પ્રદાય": 2378,
      "▁નીતિ": 2379,
      "▁વિરોધ": 2380,
      "▁વર્ષો": 2381,
      "૨૦": 2382,
      "▁હેતુ": 2383,
      "લીન": 2384,
      "▁સક્રિય": 2385,
      "▁દેખ": 2386,
      "ૃહ": 2387,
      "પોર્ટ": 2388,
      "નનો": 2389,
      "સની": 2390,
      "▁જેટલા": 2391,
      "▁પ્રયાસ": 2392,
      "▁મૈ": 2393,
      "સ્ટર": 2394,
      "ફિક": 2395,
      "ન્ટી": 2396,
      "▁નાખ": 2397,
      "તક": 2398,
      "▁2009": 2399,
      "તૃ": 2400,
      "પ્તિ": 2401,
      "3,": 2402,
      "ટા,": 2403,
      "▁સતત": 2404,
      "ધાર": 2405,
      "▁2005": 2406,
      "લ્વે": 2407,
      "▁સંદેશ": 2408,
      "▁હુ": 2409,
      "▁ગણતરી": 2410,
      "▁જુદા": 2411,
      "▁મૂલ": 2412,
      "▁સદીના": 2413,
      "સભા": 2414,
      "▁બન્ને": 2415,
      "▁મોટે": 2416,
      "ૂર્તિ": 2417,
      "ક્ષ્": 2418,
      "હેરા": 2419,
      "▁નાની": 2420,
      "▁કુદર": 2421,
      "સ્કો": 2422,
      "ન્ચ": 2423,
      "57": 2424,
      "ાલય": 2425,
      "▁બંધારણ": 2426,
      "તાના": 2427,
      "▁૨૦૧૩": 2428,
      "▁સાય": 2429,
      "▁આપણે": 2430,
      "▁પોતાનું": 2431,
      "▁ક્રિકેટ": 2432,
      "▁વિજય": 2433,
      "▁નામની": 2434,
      "ળાં": 2435,
      "▁એજ": 2436,
      "▁ગુલા": 2437,
      "વાહી": 2438,
      "▁સ્ટેશન": 2439,
      "મતી": 2440,
      "▁બટા": 2441,
      "ત્સા": 2442,
      "૧,": 2443,
      "તાની": 2444,
      "ચિત્ર": 2445,
      "કેટ": 2446,
      "૨,": 2447,
      "િકાર": 2448,
      "▁સન્માન": 2449,
      "તાને": 2450,
      "▁છા": 2451,
      "▁રણ": 2452,
      "▁ચળવળ": 2453,
      "▁ફી": 2454,
      "▁તરફથી": 2455,
      "▁આફ્રિકા": 2456,
      "તિમ": 2457,
      "૭માં": 2458,
      "▁આધારે": 2459,
      "▁જીવન\n": 2460,
      "ણું": 2461,
      "હર": 2462,
      "▁દેવી": 2463,
      "32": 2464,
      "▁વડો": 2465,
      "▁ઘર": 2466,
      "૮માં": 2467,
      "ૃત્ય": 2468,
      "▁ભૂમિ": 2469,
      "▁મારા": 2470,
      "▁વાયુ": 2471,
      "▁બંગાળ": 2472,
      "િષ્ટ": 2473,
      "▁બદલે": 2474,
      "▁નહિ": 2475,
      "▁મુક્ત": 2476,
      "ંઘ": 2477,
      "૮,": 2478,
      "▁રોક": 2479,
      "▁દેશોમાં": 2480,
      "▁સૂચ": 2481,
      "ાયું": 2482,
      "▁પશ્ચિ": 2483,
      "▁રૂપે": 2484,
      "▁કિંગ": 2485,
      "▁લીધી": 2486,
      "▁વરિય": 2487,
      "▁ખર્ચ": 2488,
      "▁આને": 2489,
      "▁યુગ": 2490,
      "▁જંગલ": 2491,
      "▁ઢાંચો\n": 2492,
      "૨માં": 2493,
      "૬,": 2494,
      "▁હી": 2495,
      "▁પ્રયોગ": 2496,
      "મીર": 2497,
      "▁ભૂત": 2498,
      ".એસ.": 2499,
      "ાયી": 2500,
      "▁મુદ્": 2501,
      "▁પંજા": 2502,
      "▁અધિકારી": 2503,
      "▁કિલ્": 2504,
      "▁છૂ": 2505,
      "▁નર": 2506,
      "કાદ": 2507,
      "▁આકાર": 2508,
      "પરી": 2509,
      "▁વિશ્વમાં": 2510,
      "ઇમ": 2511,
      "▁પરંપરાગત": 2512,
      "▁સંગઠ": 2513,
      "▁તાપમાન": 2514,
      "પન": 2515,
      "▁નહી": 2516,
      "▁સંત": 2517,
      "▁વરિયાળી,": 2518,
      "૭,": 2519,
      "▁ખી": 2520,
      "▁માણ": 2521,
      "▁પ્રવૃત્તિ": 2522,
      "▁મર્યા": 2523,
      "ાળો": 2524,
      "દાચ": 2525,
      "લાં": 2526,
      "વેર": 2527,
      "▁બેઇ": 2528,
      "▁પરિણામે": 2529,
      "ઈન": 2530,
      "▁શાંતિ": 2531,
      "ણીય": 2532,
      "▁મં": 2533,
      "▁સારી": 2534,
      "▁ચુ": 2535,
      "૬માં": 2536,
      "▁કદ": 2537,
      "▁અડ": 2538,
      "ાસા": 2539,
      "▁ઓસ્ટ્ર": 2540,
      "▁ભાવ": 2541,
      "▁ક્ષમતા": 2542,
      "▁સદીમાં": 2543,
      "▁આકર્ષ": 2544,
      "▁વાંચ": 2545,
      "શીલ": 2546,
      "▁સુંદર": 2547,
      "▁શું": 2548,
      "▁લક્ષ": 2549,
      "▁કોંગ્રેસ": 2550,
      "▁ડુંગ": 2551,
      "એલ": 2552,
      "વેલ": 2553,
      "▁વિવે": 2554,
      "▁ધવલ": 2555,
      "▁?": 2556,
      "▁પાન": 2557,
      "▁જેટલી": 2558,
      "▁સ્પે": 2559,
      "▁કાર્યો": 2560,
      "સલ": 2561,
      "▁સંકળ": 2562,
      "માળા": 2563,
      "▁પ્રતિનિધિ": 2564,
      "▁પરિવ": 2565,
      "૪\n": 2566,
      "▁રસ": 2567,
      "▁લેખક": 2568,
      "▁કામગીરી": 2569,
      "▁સરે": 2570,
      "નામ": 2571,
      "સ્ક": 2572,
      "▁લંડ": 2573,
      "▁ઈન્ટર": 2574,
      "▁વડોદરા": 2575,
      "▁કદાચ": 2576,
      "▁મહી": 2577,
      "▁વર્ષના": 2578,
      "▁ક્રિયા": 2579,
      "દિત": 2580,
      "▁થયેલ": 2581,
      "▁વૃક્ષ": 2582,
      "▁ગુજરાતના": 2583,
      "▁ઝી": 2584,
      "ેશ્વર": 2585,
      "▁આક્ર": 2586,
      "▁ઝડપ": 2587,
      "80": 2588,
      "૩,": 2589,
      "િયલ": 2590,
      "▁૨૦૦૯": 2591,
      "1,": 2592,
      "તાર": 2593,
      "સ્લા": 2594,
      "સ્ટા": 2595,
      "▁રેલ્વે": 2596,
      "▁જોઈએ": 2597,
      "▁વધારા": 2598,
      "ચ્છા": 2599,
      "▁ડૉ.": 2600,
      "સાઈ": 2601,
      "▁ટાપુ": 2602,
      "34": 2603,
      "રિક": 2604,
      "▁પૌ": 2605,
      "▁હસ્ત": 2606,
      "▁જર્મની": 2607,
      "વાથી": 2608,
      "▁નિક": 2609,
      "▁સમૂહ": 2610,
      "▁ફોર": 2611,
      "▁ઍ": 2612,
      "▁હુમલા": 2613,
      "▁એસ": 2614,
      "▁મનો": 2615,
      "▁રાજકાર": 2616,
      "▁બ્લો": 2617,
      "▁સંબંધિત": 2618,
      "તરા": 2619,
      "ર્જ": 2620,
      "ગ્ય": 2621,
      "વાળી": 2622,
      "▁પ્રસાર": 2623,
      "▁ઉમ": 2624,
      "▁194": 2625,
      "▁અંતિમ": 2626,
      "લબ": 2627,
      "▁બૌ": 2628,
      "▁સગવડ": 2629,
      "ર્ય": 2630,
      "▁શરુ": 2631,
      "▁ખંડ": 2632,
      ".મી": 2633,
      "૫\n": 2634,
      "સ્ટે": 2635,
      "▁વર્ણન": 2636,
      "▁અંતર": 2637,
      "ત્સ": 2638,
      "▁વેપાર": 2639,
      "શે.\n": 2640,
      "▁કિલો": 2641,
      "▁યોગદાન": 2642,
      "૫માં": 2643,
      "સ્ટી": 2644,
      "▁રેજિ": 2645,
      "▁પત્ની": 2646,
      "▁14": 2647,
      "▁પુસ્તકો": 2648,
      "▁ચૂંટણી": 2649,
      "૯,": 2650,
      "▁જોખ": 2651,
      "▁પસંદગી": 2652,
      "▁સરેરાશ": 2653,
      "▁સંર": 2654,
      "▁ઇ.સ.": 2655,
      "▁અહીંના": 2656,
      "▁વિષે": 2657,
      "▁ચાર્": 2658,
      "▁ટેલિ": 2659,
      "વતા": 2660,
      "મીટર": 2661,
      "નલ": 2662,
      "▁વગર": 2663,
      "▁પ્રોગ": 2664,
      "▁ભારે": 2665,
      "મિલ": 2666,
      "▁વાન": 2667,
      "▁ધાર": 2668,
      "▁સમર્થ": 2669,
      "જનો": 2670,
      "મદ": 2671,
      "▁અધ્ય": 2672,
      "ચાર્ય": 2673,
      "▁વ્યાપક": 2674,
      "▁હિન્દુ": 2675,
      "ઉન": 2676,
      "વિધા": 2677,
      "▁જીત": 2678,
      "▁ટીમ": 2679,
      "▁પ્રોટો": 2680,
      "▁પાસેથી": 2681,
      "▁સ્રો": 2682,
      "▁બેઇજિંગ": 2683,
      "▁સરકારી": 2684,
      "▁સામેલ": 2685,
      "▁પાર્ટી": 2686,
      "▁સત્તાવાર": 2687,
      "▁બૅ": 2688,
      "▁કરવો": 2689,
      "બોલ": 2690,
      "ંસા": 2691,
      "▁આથી": 2692,
      "▁વધી": 2693,
      "▁વિરુ": 2694,
      "▁ઈન્ડ": 2695,
      "શોક": 2696,
      "▁નં": 2697,
      "▁હાઇ": 2698,
      "▁કરવું": 2699,
      "▁રાજકોટ": 2700,
      "▁કુદરતી": 2701,
      "▁શાહ": 2702,
      "▁પુનઃ": 2703,
      "ૂમ": 2704,
      "▁ખરી": 2705,
      "▁સંસ": 2706,
      "▁યાદ": 2707,
      "▁ઉપયોગમાં": 2708,
      "▁મંદિરો": 2709,
      "પાળ": 2710,
      "૫૦": 2711,
      "▁જેનું": 2712,
      "કારો": 2713,
      "▁વાસ્ત": 2714,
      "▁એન્જિન": 2715,
      "▁એટલા": 2716,
      "▁શૈલી": 2717,
      "કેલ": 2718,
      "▁પેદા": 2719,
      "▁ખ્રિ": 2720,
      "▁કોર્પોર": 2721,
      "▁લશ્કરી": 2722,
      "36": 2723,
      "▁આવી.": 2724,
      "▁તબક્": 2725,
      "▁જતા": 2726,
      "સ્મા": 2727,
      "▁ભાવન": 2728,
      "▁જેમણે": 2729,
      "▁રેજિમેન્ટ": 2730,
      "ઝિક": 2731,
      "▁બનાસ": 2732,
      "▁પરિષદ": 2733,
      "▁અધિકૃત": 2734,
      "ક્ષણિક": 2735,
      "▁ખુબ": 2736,
      "રીયા": 2737,
      "▁સમજ": 2738,
      "▁જિલ્લાઓ": 2739,
      "ચય": 2740,
      "▁આનંદ": 2741,
      "▁વિશિષ્ટ": 2742,
      "▁સંચાલન": 2743,
      "▁સમયગાળા": 2744,
      "▁અબ": 2745,
      "▁નૃત્ય": 2746,
      "▁સ્ટો": 2747,
      "▁સમસ્યા": 2748,
      "▁૩૦": 2749,
      "ભૂમિ": 2750,
      "ગમ": 2751,
      "નીઝ": 2752,
      "▁ઇંગ્": 2753,
      "▁તળાવ": 2754,
      "પૂ": 2755,
      "▁મેચ": 2756,
      "શાસ્ત્રી": 2757,
      "પારી": 2758,
      "ર્દી": 2759,
      "▁વહેંચ": 2760,
      "ણને": 2761,
      "▁એક્સ": 2762,
      "કોને": 2763,
      "દારો": 2764,
      "▁દૃ": 2765,
      "સ્સો": 2766,
      "▁શહેરની": 2767,
      "▁મિલિયન": 2768,
      "ધું": 2769,
      "બંધી": 2770,
      "૦\n": 2771,
      "▁દબા": 2772,
      "▁માછ": 2773,
      "▁ફ્રા": 2774,
      "▁લડાઈ": 2775,
      "દ્ય": 2776,
      "વાળ": 2777,
      "▁દ્વિ": 2778,
      "▁કુટ": 2779,
      "▁પૂર્વે": 2780,
      "▁જંગલો": 2781,
      "▁ટ્રાન્સ": 2782,
      "બન": 2783,
      "▁ઘા": 2784,
      "▁...": 2785,
      "▁ક્ષેત્રમાં": 2786,
      "▁પ્રજાતિ": 2787,
      "25": 2788,
      "▁કૌ": 2789,
      "▁સિટી": 2790,
      "પદ": 2791,
      "ર્વ": 2792,
      "૧૧": 2793,
      "▁કમ": 2794,
      "▁અગિયાર": 2795,
      "▁મહત્ત્વ": 2796,
      "▁સભા": 2797,
      "નોના": 2798,
      "સમ": 2799,
      "▁કાન": 2800,
      "▁હિમા": 2801,
      "39": 2802,
      "▁દાં": 2803,
      "▁ફરીથી": 2804,
      "▁ખેડ": 2805,
      "ટની": 2806,
      "▁કક્ષા": 2807,
      "▁તેઓએ": 2808,
      "વ્ર": 2809,
      "▁કબ": 2810,
      "ન્ટા": 2811,
      "ક્ષિત": 2812,
      "▁સમિતિ": 2813,
      "▁શક્ય": 2814,
      "▁ભૌતિક": 2815,
      "▁ગઈ": 2816,
      "▁પોલી": 2817,
      "▁ઉત્પ": 2818,
      "▁અગ્ર": 2819,
      "▁ભાવનગર": 2820,
      "૪માં": 2821,
      "▁પાછળથી": 2822,
      "▁પલટ": 2823,
      "▁સંપ્રદાય": 2824,
      "▁મોક": 2825,
      "▁ચૌદ": 2826,
      "▁સુવિધા": 2827,
      "▁સફળતા": 2828,
      "્રમણ": 2829,
      "▁અ.": 2830,
      "▁પ્રશ્": 2831,
      "▁બજાર": 2832,
      "૧માં": 2833,
      "▁ન્યાય": 2834,
      "▁ઓન": 2835,
      "▁વૈજ્ઞાન": 2836,
      "▁બાંધકામ": 2837,
      "▁બૌદ્ધ": 2838,
      "▁વિશ્વકોશ": 2839,
      "દૂ": 2840,
      "હામ": 2841,
      "▁પ્લા": 2842,
      "▁સેક": 2843,
      "▁ગણવામાં": 2844,
      "▁યુકે": 2845,
      "▁જાપાન": 2846,
      "▁જાહેરા": 2847,
      "▁નેતા": 2848,
      "▁ગીત": 2849,
      "▁શક્": 2850,
      "કારક": 2851,
      "યેલ": 2852,
      "▁નિર્ણય": 2853,
      "▁બ્રે": 2854,
      "▁હિન્દી": 2855,
      "▁બનાસકાંઠા": 2856,
      "▁નોકરી": 2857,
      "પિત": 2858,
      "▁શેરડી,": 2859,
      "ધ્ધ": 2860,
      "રાક": 2861,
      "▁૧૦૦": 2862,
      "▁હોઈ": 2863,
      "▁રોડ": 2864,
      "પ્રથમ": 2865,
      "ખ્": 2866,
      "▁૧૮૯": 2867,
      "▁આંકડા": 2868,
      "અલ": 2869,
      "▁ઉંમ": 2870,
      "સાગર": 2871,
      "▁મિશ્ર": 2872,
      "▁વિરુદ્ધ": 2873,
      "▁જ્": 2874,
      "▁વર્તમાન": 2875,
      "કિત": 2876,
      "ણ,": 2877,
      "ભો": 2878,
      "▁ઈન્": 2879,
      "▁તત્વો": 2880,
      "ળે": 2881,
      "▁મજબ": 2882,
      "▁પરના": 2883,
      "ડાં": 2884,
      "▁ઘે": 2885,
      "▁સિંહ": 2886,
      "▁૧૮૮": 2887,
      "ચારી": 2888,
      "▁તક": 2889,
      "▁પ્રશ": 2890,
      "પૂર્વક": 2891,
      "▁ડુંગરાળ": 2892,
      "ણની": 2893,
      "▁કૃતિ": 2894,
      "સાહ": 2895,
      "▁વેચા": 2896,
      "▁અમેરિકી": 2897,
      "▁પાય": 2898,
      "▁સરખ": 2899,
      "▁ગ્રીક": 2900,
      "▁કૂ": 2901,
      "વાને": 2902,
      "▁હજુ": 2903,
      "▁દાખ": 2904,
      "▁આયર્": 2905,
      "▁કમ્પ્યુટર": 2906,
      "ઉસ": 2907,
      "▁હત્યા": 2908,
      "લ્ફ": 2909,
      "▁સીમા": 2910,
      "સ્કૃતિક": 2911,
      "▁નાટક": 2912,
      "▁જુલાઇ": 2913,
      "▁ફિલ્મો": 2914,
      "▁સિદ્ધાંત": 2915,
      "▁શક્કરી": 2916,
      "38": 2917,
      "એચ": 2918,
      "લ્યુ": 2919,
      "મારી": 2920,
      "▁ઉંચ": 2921,
      "▁પર્યા": 2922,
      "▁હુમલો": 2923,
      "▁રાણી": 2924,
      "ભાગે": 2925,
      "ંકી": 2926,
      "ન્ટે": 2927,
      "▁યોજ": 2928,
      "▁બટાટા,": 2929,
      "▁અંતે": 2930,
      "▁કહી": 2931,
      "▁છેલ્લા": 2932,
      "▁શાખા": 2933,
      "▁બાદમાં": 2934,
      "▁પરિવહન": 2935,
      "▁શક્કરીયાં": 2936,
      "29": 2937,
      "ગ્રા": 2938,
      "ટ,": 2939,
      "ટાલ": 2940,
      "ઢી": 2941,
      "▁ફળ": 2942,
      "▁ઉજવણી": 2943,
      "ઝે": 2944,
      "▁યુએસ": 2945,
      "જેતર": 2946,
      "ટમાં": 2947,
      "તને": 2948,
      "▁રક્ત": 2949,
      "▁શબ્દો": 2950,
      "▁2004": 2951,
      "▁સરકારે": 2952,
      "લ\n": 2953,
      "▁પ્રાંત": 2954,
      "સ્પતિ": 2955,
      "▁ખ્યા": 2956,
      "35": 2957,
      "2,": 2958,
      "▁લાઇ": 2959,
      "▁જેણે": 2960,
      "▁પુણે": 2961,
      "▁માછલી": 2962,
      "▁કોમ": 2963,
      "▁ધાતુ": 2964,
      "વાર,": 2965,
      "▁સેન્ટર": 2966,
      "રાય": 2967,
      "▁વિકસા": 2968,
      "▁દુનિયા": 2969,
      "37": 2970,
      "છે": 2971,
      "▁શ્": 2972,
      "દ્યોગ": 2973,
      "▁આવૃત્તિ": 2974,
      "▁માંથી": 2975,
      "ચલિત": 2976,
      "ભર": 2977,
      "ામણી": 2978,
      "ંદો": 2979,
      "▁પ્રોગ્રામ": 2980,
      "▁મન": 2981,
      "▁નુક": 2982,
      "▁વિક્રમ": 2983,
      "▁સ્વરૂપે": 2984,
      "▁30": 2985,
      "▁તાજેતર": 2986,
      "▁એમણે": 2987,
      ".5": 2988,
      "▁૨૫": 2989,
      "મૂ": 2990,
      "ીર": 2991,
      "▁બતા": 2992,
      "▁કેને": 2993,
      "▁તાલુકો": 2994,
      "ધુ": 2995,
      "▁પાત્ર": 2996,
      "ઉત્": 2997,
      "▁બ્ર": 2998,
      "ષ્ટિએ": 2999,
      "▁તમાકુ,": 3000,
      "▁પશ્ચિમી": 3001,
      "૩માં": 3002,
      "▁195": 3003,
      "▁થયો.": 3004,
      "▁અધિકાર": 3005,
      "▁સંખ્યામાં": 3006,
      "પલ": 3007,
      "▁ખેત": 3008,
      "▁સ્થાપિત": 3009,
      "▁પ્રેમ": 3010,
      "▁પર્વ": 3011,
      "▁નિષ્ફળ": 3012,
      "▁1,": 3013,
      "▁કાવ્ય": 3014,
      ".મી.": 3015,
      "▁કરનાર": 3016,
      "▁માઇ": 3017,
      "▁શહેરના": 3018,
      "▁મેળવવા": 3019,
      "▁વ્યાખ્યા": 3020,
      "▁એવોર્ડ": 3021,
      "▁રેલવે": 3022,
      "ંજ": 3023,
      "▁લેખો": 3024,
      "▁પ્રોત્સા": 3025,
      "▁મોટાભાગના": 3026,
      "▁કરોડ": 3027,
      "▁લગા": 3028,
      "▁વાહ": 3029,
      "બ્લિક": 3030,
      "▁પ્રધાન": 3031,
      "▁નિમ": 3032,
      "યેલી": 3033,
      "૯માં": 3034,
      "▁કરવી": 3035,
      "▁માને": 3036,
      "▁સંભાળ": 3037,
      "▁જ.": 3038,
      "▁છી": 3039,
      "▁કરો": 3040,
      "નિયન": 3041,
      "તાનો": 3042,
      "▁કારકિ": 3043,
      "▁વિશ્વના": 3044,
      "▁ટીકા": 3045,
      "▁ઘટાડો": 3046,
      "▁વર્ષમાં": 3047,
      "▁સરહ": 3048,
      "શિયન": 3049,
      "▁જમા": 3050,
      "▁પોતે": 3051,
      "▁બન્યું": 3052,
      "▁જનરલ": 3053,
      "▁ઓસ્ટ્રેલ": 3054,
      "▁કારકિર્દી": 3055,
      "▁ખેડા": 3056,
      "▁પરિવર્": 3057,
      "ષ્ણુ": 3058,
      "▁કેન્સર": 3059,
      ".6": 3060,
      "28": 3061,
      "ંડી": 3062,
      "સને": 3063,
      "▁સાર્": 3064,
      "▁સત્ય": 3065,
      "▁વિલ": 3066,
      "▁1\n": 3067,
      "▁ખાનગી": 3068,
      "▁સહાય": 3069,
      "▁ત્રીજા": 3070,
      "ઠો": 3071,
      "ડક": 3072,
      "ંત્રી": 3073,
      "▁મુલાકાત": 3074,
      "ધર": 3075,
      "▁નાય": 3076,
      "▁નાશ": 3077,
      "▁દેશો": 3078,
      "▁વિસ્તારોમાં": 3079,
      "▁દાવો": 3080,
      "ડવા": 3081,
      "દય": 3082,
      "તીક": 3083,
      "▁સ્ના": 3084,
      "▁ગર": 3085,
      "ટ્ટો": 3086,
      "▁આલ્બ": 3087,
      "મનો": 3088,
      "ટને": 3089,
      "▁કોર્ટ": 3090,
      "ઠ્": 3091,
      "લને": 3092,
      "ભાઇ": 3093,
      "▁અભિન": 3094,
      "વૈ": 3095,
      "ંદુ": 3096,
      "▁ગોઠ": 3097,
      "▁અર્થતંત્ર": 3098,
      "▁૨૦૦૭": 3099,
      "▁થતાં": 3100,
      "▁ભાષ": 3101,
      "24": 3102,
      "અને": 3103,
      "જરી": 3104,
      "▁મળ્યો": 3105,
      "▁પદાર્થો": 3106,
      "▁શરૂઆતમાં": 3107,
      "નામાં": 3108,
      "▁આના": 3109,
      "▁વરસાદ": 3110,
      "▁સાંસ્કૃતિક": 3111,
      "▁ખ્રિસ્તી": 3112,
      "▁માર": 3113,
      "▁દેશમાં": 3114,
      "▁જરૂરિયા": 3115,
      "વીર": 3116,
      "▁પૃષ્ઠ": 3117,
      "▁બ્રાહ્": 3118,
      "કોની": 3119,
      "▁ધરાવતું": 3120,
      "▁વસવા": 3121,
      "▁જિલ્લો\n": 3122,
      "▁પ્રોટોકો": 3123,
      "▁તમિલ": 3124,
      "▁ગણાય": 3125,
      "સ્થિતિ": 3126,
      "ધવલ": 3127,
      "▁બર્": 3128,
      "▁કરેલા": 3129,
      "▁ફરજ": 3130,
      "કત": 3131,
      "▁આર્ટ": 3132,
      "▁સ્કૂ": 3133,
      "ઓથી": 3134,
      "ડની": 3135,
      "▁ફાય": 3136,
      "▁આરોગ્ય": 3137,
      "▁સરખામણી": 3138,
      "ક્ટર": 3139,
      "▁ગ્રામ": 3140,
      "▁વ્યક્તિગત": 3141,
      "▁શ્રીલ": 3142,
      "ઝર": 3143,
      "▁અતિ": 3144,
      "▁જેમકે": 3145,
      "...": 3146,
      "▁પ્રોજે": 3147,
      "▁મહત્વની": 3148,
      "▁શહેરી": 3149,
      "દ્યોગિક": 3150,
      "▁વપરાય": 3151,
      "તામાં": 3152,
      "▁વિધાન": 3153,
      "▁સ્ત્રો": 3154,
      "▁ઉપગ્રહ": 3155,
      "▁જાહેરાત": 3156,
      "તોમાં": 3157,
      "▁અંગત": 3158,
      "▁જોકે,": 3159,
      "▁જુના": 3160,
      "▁ચેપ": 3161,
      "▁વનસ્પતિ": 3162,
      "્રીય": 3163,
      "▁નીકળ": 3164,
      "▁સુધાર": 3165,
      "▁જયારે": 3166,
      "ેય": 3167,
      "▁અહેવા": 3168,
      "▁તેવું": 3169,
      "કાલીન": 3170,
      "ક્ષર": 3171,
      "નારાયણ": 3172,
      "▁શરીર": 3173,
      "▁11": 3174,
      "▁૨૦૦૮": 3175,
      "▁જર્મન": 3176,
      "ગામ": 3177,
      "▁પરા": 3178,
      "▁ડાય": 3179,
      "સાડ": 3180,
      "રણો": 3181,
      "▁૨૦૧૯\n": 3182,
      "ઢવા": 3183,
      "રેલી": 3184,
      "ચક": 3185,
      "▁૨૬": 3186,
      "26": 3187,
      "કૃ": 3188,
      "ટિંગ": 3189,
      "શાન": 3190,
      "▁ચાઇ": 3191,
      "▁ભાષાના": 3192,
      "▁નાગરિક": 3193,
      "▁પ્રવાસી": 3194,
      "▁પ્રદર્શન": 3195,
      "▁કિના": 3196,
      "▁યુદ્ધમાં": 3197,
      "ઝો": 3198,
      "▁હતુ": 3199,
      "▁દર્શન": 3200,
      "▁જૂનાગઢ": 3201,
      "▁કુટુંબ": 3202,
      "0ના": 3203,
      "▁પ્રચલિત": 3204,
      "▁સ્માર": 3205,
      "▁સાથી": 3206,
      "▁સૌપ્રથમ": 3207,
      "▁વિકસ": 3208,
      "▁પહોંચી": 3209,
      "થર": 3210,
      "વવાની": 3211,
      "▁૨૪": 3212,
      "▁ટુક": 3213,
      "▁વાનગી": 3214,
      "ચંદ્ર": 3215,
      "માત્ર": 3216,
      "▁મૌ": 3217,
      "▁કરવાના": 3218,
      "▁કાશ્": 3219,
      "▁ગણિત": 3220,
      "▁માલિક": 3221,
      "ક્ષેત્ર": 3222,
      "આઈ": 3223,
      "▁લખ્યું": 3224,
      "▁મુંબઇ": 3225,
      "▁આવતો": 3226,
      "▁2\n": 3227,
      "27": 3228,
      "ળના": 3229,
      "ાંતિક": 3230,
      "▁મહત્વનો": 3231,
      "▁ફ્રેન્ચ": 3232,
      "ચારો": 3233,
      "▁વાર્ષ": 3234,
      "▁સાથેના": 3235,
      "▁તરીકે,": 3236,
      "▁પૈકીનો": 3237,
      "▁જોડાણ": 3238,
      "▁મૂર્તિ": 3239,
      "▁કરાર": 3240,
      "▁યુ.એસ.": 3241,
      "▁રહેતા": 3242,
      "▁સુધારા": 3243,
      "▁પદાર્થ": 3244,
      "▁મનાય": 3245,
      "તાન": 3246,
      "નોમાં": 3247,
      "▁ધ્યા": 3248,
      "▁સર્વો": 3249,
      "▁રાખે": 3250,
      "વ્યવ": 3251,
      "ત,": 3252,
      "વિત": 3253,
      "▁અટ": 3254,
      "▁બધી": 3255,
      "▁ગાળા": 3256,
      "વેલી": 3257,
      "▁વિષ્ણુ": 3258,
      "▁પાડવામાં": 3259,
      "▁ઈન્ટરનેટ": 3260,
      "▁પટેલ": 3261,
      "▁બી.": 3262,
      "▁હિસ્સો": 3263,
      "ાયેલું": 3264,
      "વિત્ર": 3265,
      "▁વચ્ચેના": 3266,
      "▁યુરોપી": 3267,
      "▁ગેર": 3268,
      "ક્રો": 3269,
      "▁2001": 3270,
      "જને": 3271,
      "▁મનુ": 3272,
      "▁વિસ્તારના": 3273,
      "ક\n": 3274,
      "▁સજા": 3275,
      "▁બચા": 3276,
      "▁સ્કો": 3277,
      "▁કિલોમીટર": 3278,
      "ત.": 3279,
      "૩૦": 3280,
      "▁અના": 3281,
      "ડ,": 3282,
      "▁બ્લે": 3283,
      "▁થા": 3284,
      "▁મંત્રી": 3285,
      "▁ફ્રાન્સ": 3286,
      "નર": 3287,
      "▁અવકાશ": 3288,
      "▁પાછા": 3289,
      "▁પાકિસ્તાન": 3290,
      "ણિ": 3291,
      "▁પ્રભુ": 3292,
      "▁ઝા": 3293,
      "▁100": 3294,
      "▁ઇસ્લા": 3295,
      "3માં": 3296,
      "▁પક": 3297,
      "▁અહિ": 3298,
      "▁માલ": 3299,
      "▁ધ્વ": 3300,
      "▁ઑફ": 3301,
      "▁આક્રમણ": 3302,
      "▁ઝડપથી": 3303,
      "ંછ": 3304,
      "હવા": 3305,
      "▁મેન": 3306,
      "▁વાર્ષિક": 3307,
      "▁રસ્તા": 3308,
      "રોમાં": 3309,
      "શન્સ": 3310,
      "▁25": 3311,
      "▁અખ": 3312,
      "▁રાજ્યની": 3313,
      "ાર્થ": 3314,
      "▁માધ્યમિક": 3315,
      "બળ": 3316,
      "▁મુશ્": 3317,
      "▁વર્ગી": 3318,
      "▁તેનાથી": 3319,
      "▁આવ્યું.": 3320,
      "▁માત્રા": 3321,
      "▁ગ્રાહ": 3322,
      "▁સંઘર્ષ": 3323,
      "કને": 3324,
      "સાન": 3325,
      "▁બદલા": 3326,
      "▁નિયંત્રણ": 3327,
      "▁હ્યુ": 3328,
      "▁વિવાદ": 3329,
      "▁ઘટ": 3330,
      "▁વાપર": 3331,
      "▁જોડાયા": 3332,
      "▁સલાહ": 3333,
      "200": 3334,
      "▁નાણા": 3335,
      "બીજા": 3336,
      "▁વ્યવસાયમાં": 3337,
      "▁લખી": 3338,
      "▁પંજાબ": 3339,
      "▁મહીસાગર": 3340,
      "▁પવિત્ર": 3341,
      "▁તપાસ": 3342,
      "▁દળો": 3343,
      "▁સારા": 3344,
      "▁વિદ્": 3345,
      "▁કહેવા": 3346,
      "▁લઈને": 3347,
      "ટરી": 3348,
      "૬૦": 3349,
      "▁કમા": 3350,
      "▁જિ": 3351,
      "▁ગરમ": 3352,
      "ેશા": 3353,
      "▁વેદ": 3354,
      "▁વૈજ્ઞાનિક": 3355,
      "▁પોતાનો": 3356,
      "▁આવ્યા.": 3357,
      "▁વિદ્યા": 3358,
      "▁વૃદ્ધિ": 3359,
      "કનોલોજી": 3360,
      "▁પ્રયત્ન": 3361,
      "ટણી": 3362,
      "▁ભય": 3363,
      "▁હિંદી": 3364,
      "▁સંપર્ક": 3365,
      "▁તાં": 3366,
      "ાંશ": 3367,
      "▁હોય,": 3368,
      "લેન્ડમાં": 3369,
      "▁આજ": 3370,
      "▁જમ": 3371,
      "▁કુમાર": 3372,
      "▁ચૂક": 3373,
      "▁પરત": 3374,
      "▁નેતૃ": 3375,
      "જારો": 3376,
      "મ્બે": 3377,
      "▁પછી,": 3378,
      "▁આંગણવાડી,": 3379,
      "▁આત્મ": 3380,
      "▁દિવેલી,": 3381,
      "▁થયા.": 3382,
      "▁શ્રીલંકા": 3383,
      "▁કરી,": 3384,
      "▁પુત્રી": 3385,
      "વાઈ": 3386,
      "▁સ્ક": 3387,
      "ઉત્પાદ": 3388,
      "ધવલચર્ચાયોગદાન": 3389,
      "િન્ન": 3390,
      "▁આખ": 3391,
      "▁ઓક": 3392,
      "▁ઓલ": 3393,
      "▁વસવાટ": 3394,
      "▁અફ": 3395,
      "▁માટે,": 3396,
      "શે,": 3397,
      "▁અમે": 3398,
      "▁એફ": 3399,
      "▁ખેંચ": 3400,
      "ટાલિયન": 3401,
      "ડું": 3402,
      "વાઇ": 3403,
      "ટીના": 3404,
      "▁મિત્ર": 3405,
      "▁આવ્યો.": 3406,
      "▁ચિત્રો": 3407,
      "▁નિયમો": 3408,
      "▁તારી": 3409,
      "▁ઈ.": 3410,
      "બીસી": 3411,
      "▁ચલચિત્ર": 3412,
      "વાજ": 3413,
      "▁અપના": 3414,
      "▁હર": 3415,
      "▁લં": 3416,
      "▁ઓર્": 3417,
      "રણે": 3418,
      "▁હંમ": 3419,
      "ક્ષે": 3420,
      "વિસ": 3421,
      "▁પ્રતિબંધ": 3422,
      "ફિ": 3423,
      "▁ગઝ": 3424,
      "▁ઉમેર": 3425,
      "તોષ": 3426,
      "ગાર": 3427,
      "▁ગયા.": 3428,
      "60": 3429,
      "પ્સ": 3430,
      "શાળી": 3431,
      "▁છુ": 3432,
      "નોની": 3433,
      "▁અર્જુ": 3434,
      "▁ભવિ": 3435,
      "િયાના": 3436,
      "્યાં.": 3437,
      "▁અનુભવ": 3438,
      "▁શકાય.": 3439,
      "▁વિશ્વકોશમાં": 3440,
      "તોને": 3441,
      "▁બેન્ડ": 3442,
      "▁વેચાણ": 3443,
      "ૂક": 3444,
      "▁આવેલાં": 3445,
      "▁કોડ": 3446,
      "▁સમાચાર": 3447,
      "▁વીર": 3448,
      "▁બહે": 3449,
      "▁ગાય": 3450,
      "▁ઉના": 3451,
      "▁રાય": 3452,
      "જીવન": 3453,
      "▁આવતું": 3454,
      "▁બોર્ડ": 3455,
      "યુદ્ધ": 3456,
      "▁દુર": 3457,
      "▁આંતરિક": 3458,
      "▁જવાબદાર": 3459,
      "દળ": 3460,
      "▁કમિ": 3461,
      "▁જઈ": 3462,
      "▁હાર્": 3463,
      "તાથી": 3464,
      "▁પ્રકા": 3465,
      "▁ખરે": 3466,
      "▁પાના": 3467,
      "▁ઔદ્યોગિક": 3468,
      "▁તીવ્ર": 3469,
      "▁કિંગડ": 3470,
      "▁વાસ્તવિક": 3471,
      "▁બ્લ": 3472,
      "ન્ના": 3473,
      "લીમ": 3474,
      "▁ઊર્જા": 3475,
      "▁કાર્યક્રમ": 3476,
      "49": 3477,
      "▁સ્થાને": 3478,
      "▁નદીના": 3479,
      "▁સ્વામિ": 3480,
      "૬\n": 3481,
      "ન્ડર": 3482,
      "પ્રધાન": 3483,
      "▁ક્રો": 3484,
      "▁યુનાઈ": 3485,
      "▁પર્વતમાળા": 3486,
      "▁મરાઠી": 3487,
      "▁ભવિષ્ય": 3488,
      "ખે": 3489,
      "▁અદ": 3490,
      "▁કેપ": 3491,
      "▁કેળાં": 3492,
      "▁સરદાર": 3493,
      "વર્ણ": 3494,
      "▁અંતરે": 3495,
      "▁ઝડપી": 3496,
      "▁સિસ્ટમ": 3497,
      "70": 3498,
      "▁એકબીજા": 3499,
      "રેન્દ્ર": 3500,
      "▁કેટલાંક": 3501,
      "▁જોઇએ": 3502,
      "લનો": 3503,
      "ણાલી": 3504,
      "▁ખેતમજૂ": 3505,
      "▁વિદેશી": 3506,
      "વારી": 3507,
      "▁ભારતી": 3508,
      "▁ક્રાંતિ": 3509,
      "▁મહત્વનું": 3510,
      "▁થયું.": 3511,
      "▁અગ્રણી": 3512,
      "▁ગાયક": 3513,
      "▁ચું": 3514,
      "▁પર્ય": 3515,
      "▁પરિસ્થિતિ": 3516,
      "ચુ": 3517,
      "▁વળ": 3518,
      "ક્ષમ": 3519,
      "▁બાપ્તિ": 3520,
      "▁જગ્યાએ": 3521,
      "રોને": 3522,
      "સ્તાવે": 3523,
      "▁ભોજન": 3524,
      "▁રેડિયો": 3525,
      "▁કળા": 3526,
      "▁કેવી": 3527,
      "▁જુઓ": 3528,
      "▁એકમાત્ર": 3529,
      "▁ઉત્સ": 3530,
      "▁ગુજરાતમાં": 3531,
      "▁મળ્યા": 3532,
      "▁રાખવા": 3533,
      "▁ડિઝ": 3534,
      "▁દલી": 3535,
      "રીય": 3536,
      "▁સંવત": 3537,
      "▁સાર્વ": 3538,
      "▁ખેતમજૂરી,": 3539,
      "ઈડ": 3540,
      "નેશનલ": 3541,
      "▁ધ્રુ": 3542,
      "▁ક્રિ": 3543,
      "▁નિર્દેશ": 3544,
      "▁છોડી": 3545,
      "▁આંબે": 3546,
      "▁સૈનિકો": 3547,
      "કડા": 3548,
      "ટિવ": 3549,
      "▁ગંગા": 3550,
      "પૂર": 3551,
      "ભે": 3552,
      "વૃ": 3553,
      "▁તમને": 3554,
      "સ્ટિટ": 3555,
      "▁સિક્": 3556,
      "▁રક્ષણ": 3557,
      "▁થવા": 3558,
      "▁લખાણ": 3559,
      ",૦૦૦": 3560,
      "વંશ": 3561,
      "▁અશોક": 3562,
      "ાસી": 3563,
      "▁દેવામાં": 3564,
      "▁જુદી": 3565,
      "▁ટેકનોલોજી": 3566,
      "▁તમારા": 3567,
      "કુલ": 3568,
      "▁મહાભાર": 3569,
      "▁50": 3570,
      "▁પ્રગટ": 3571,
      "દ્રા": 3572,
      "▁સબ": 3573,
      "▁વ્": 3574,
      "ન્ટિ": 3575,
      "▁જુવાર,": 3576,
      "▁દુર્": 3577,
      "▁ચીન": 3578,
      "▁વલસાડ": 3579,
      "▁અક": 3580,
      "▁દસ્તાવે": 3581,
      "ન્ગ": 3582,
      "▁કાર્તિક": 3583,
      "▁વહીવટી": 3584,
      "6,": 3585,
      "▁આદેશ": 3586,
      "▁લોકોના": 3587,
      "▁રાષ્ટ્રપતિ": 3588,
      "▁ચાલી": 3589,
      "48": 3590,
      "રાબ": 3591,
      "▁પ્રસ્તા": 3592,
      "▁દ્વાર": 3593,
      "4,": 3594,
      "▁એના": 3595,
      "▁શસ્ત્ર": 3596,
      "▁પ્રેર": 3597,
      "▁2000": 3598,
      "▁સાંભ": 3599,
      "ફેદ": 3600,
      "માની": 3601,
      "▁બસ": 3602,
      "ડીઓ": 3603,
      "▁32.": 3604,
      "▁એમના": 3605,
      "ારૂ": 3606,
      "▁ફેર": 3607,
      "▁સંશોધ": 3608,
      "ઝિ": 3609,
      "ડલ": 3610,
      "ડવામાં": 3611,
      "પીએસ": 3612,
      "▁સોવ": 3613,
      "▁સ્ટેટ": 3614,
      "▁દા.": 3615,
      "▁યુનાઈટેડ": 3616,
      "75": 3617,
      "વણ": 3618,
      "▁દૈ": 3619,
      "▁પછીના": 3620,
      "▁ટેકો": 3621,
      "▁તર": 3622,
      "રીના": 3623,
      "કારા": 3624,
      "▁જાણીતી": 3625,
      "▁ગીતો": 3626,
      "▁મજબૂત": 3627,
      "ડિયમ": 3628,
      "ણંદ": 3629,
      "▁સ.": 3630,
      "ંગી": 3631,
      "▁સમૃ": 3632,
      "▁તારા": 3633,
      "વી.": 3634,
      "▁ઝે": 3635,
      "▁અંગ્રેજો": 3636,
      "વેરા": 3637,
      "▁પાડી": 3638,
      "▁ગુમા": 3639,
      "િનિ": 3640,
      "▁બીજો": 3641,
      "▁સંસદ": 3642,
      "મસ": 3643,
      "▁ગિર": 3644,
      "શાહી": 3645,
      "▁દિવેલી": 3646,
      "▁મહત્વપૂર્ણ": 3647,
      "▁હવાઈ": 3648,
      "ટિન": 3649,
      "૧૨": 3650,
      "▁દશ": 3651,
      "▁ઘરે": 3652,
      "▁મોડે": 3653,
      "▁વારં": 3654,
      "ઝને": 3655,
      "ડના": 3656,
      "▁નેતૃત્વ": 3657,
      "ડકર": 3658,
      "▁આગે": 3659,
      "▁કરેલ": 3660,
      "▁શકે.": 3661,
      "▁છું.": 3662,
      "▁આવક": 3663,
      "ક્ય": 3664,
      "▁ક્રમાં": 3665,
      "▁2010": 3666,
      "નાયત": 3667,
      "▁નાટ્ય": 3668,
      "ભરમાં": 3669,
      "▁વિચારો": 3670,
      "▁મળ્યું": 3671,
      "▁મર્યાદિત": 3672,
      "▁બિલ": 3673,
      "▁એનાયત": 3674,
      "▁ઓર": 3675,
      "▁લાભ": 3676,
      "▁સ્થિર": 3677,
      "▁સ્વય": 3678,
      "▁બહા": 3679,
      "▁જાણીતું": 3680,
      "▁છતાં,": 3681,
      "▁ભીમ": 3682,
      "▁ઘોષ": 3683,
      "ષી": 3684,
      "▁સિને": 3685,
      "▁બાપ્તિસ્મા": 3686,
      ",\n": 3687,
      "▁સફેદ": 3688,
      "▁મોર": 3689,
      "ટ્ટી": 3690,
      "▁એમની": 3691,
      "▁વારંવાર": 3692,
      "▁અણુ": 3693,
      "▁આઝા": 3694,
      "▁લોકોએ": 3695,
      "ફોર્ડ": 3696,
      "્ડ": 3697,
      "▁સમી": 3698,
      "▁જુલાઈ": 3699,
      "▁જવાબદારી": 3700,
      "▁ખેતઉત્પાદ": 3701,
      "તા.": 3702,
      "▁કેર": 3703,
      "▁વ્યવહાર": 3704,
      "▁માગ": 3705,
      "▁રહેલી": 3706,
      "▁કવિતા": 3707,
      "▁પૌરા": 3708,
      "લક": 3709,
      "▁દેશની": 3710,
      "▁૨૦૧૨\n": 3711,
      "દમ": 3712,
      "નાના": 3713,
      "▁૨૮": 3714,
      "િયામાં": 3715,
      "શેષ": 3716,
      "▁સેવાઓ": 3717,
      "▁દેખાય": 3718,
      "▁તબક્કા": 3719,
      "21": 3720,
      "ઇઝ": 3721,
      "લિંગ": 3722,
      "લ્ટ": 3723,
      "રોની": 3724,
      "▁પામ્યા": 3725,
      "ળવી": 3726,
      "▁આશા": 3727,
      "▁હાર": 3728,
      "▁કિસ્સા": 3729,
      "▁મિત્રો": 3730,
      "▁મુદ્દા": 3731,
      "▁ક્યુ": 3732,
      "▁વસાહ": 3733,
      "્યુત": 3734,
      "▁સોસાય": 3735,
      "મ્બર,": 3736,
      "▁978": 3737,
      "▁ઉદ્દેશ": 3738,
      "▁જીતી": 3739,
      "▁રેકો": 3740,
      "▁થઈ.": 3741,
      "દન": 3742,
      "▁ગરી": 3743,
      "નોને": 3744,
      "ન્સ્ટા": 3745,
      "▁આત": 3746,
      "▁પ્રવાહ": 3747,
      "▁બાદ,": 3748,
      "▁ઊંચાઈ": 3749,
      "શ્રી": 3750,
      "શંકર": 3751,
      "ુપ": 3752,
      "▁મર": 3753,
      "▁હરા": 3754,
      "ક્શન": 3755,
      "▁૨૭": 3756,
      "▁લીધું": 3757,
      "▁ડાંગર": 3758,
      "▁અંદાજ": 3759,
      "▁સલ્લ": 3760,
      "વિઝન": 3761,
      "▁પોલિ": 3762,
      "▁કાપ": 3763,
      "▁૧૮૫": 3764,
      "▁જોઈએ.": 3765,
      "▁શુદ્ધ": 3766,
      "▁બ્રહ્મ": 3767,
      "45": 3768,
      "વત્તા": 3769,
      "▁હરિ": 3770,
      "શ્ચિત": 3771,
      "▁અગત્ય": 3772,
      "નાની": 3773,
      "▁ધરાવતો": 3774,
      "વડા": 3775,
      "▁પ્રબંધ": 3776,
      "િકલ": 3777,
      "ન્ટો": 3778,
      "▁ભાગી": 3779,
      "ટ્ટા": 3780,
      "▁કર્યા.": 3781,
      "▁ઇલેક્": 3782,
      "▁ગઢ": 3783,
      "▁શકા": 3784,
      "▁૨૦૧૫\n": 3785,
      "▁લીગ": 3786,
      "▁લાંબી": 3787,
      "▁પદ્": 3788,
      "વાલ": 3789,
      "▁સાબર": 3790,
      "▁વાય": 3791,
      "▁૨૦૧૮\n": 3792,
      "▁મંજૂરી": 3793,
      ".8": 3794,
      "ન્યા": 3795,
      "▁આયુ": 3796,
      "િયા,": 3797,
      "▁વિશ્વાસ": 3798,
      "▁સમર્થન": 3799,
      "▁પ્રોત્સાહન": 3800,
      "▁ટેક્": 3801,
      "▁બુદ્ધ": 3802,
      "▁બંગાળી": 3803,
      "▁પાલન": 3804,
      "યિક": 3805,
      "▁પ્રસંગ": 3806,
      "▁માટેનો": 3807,
      "▁સમજા": 3808,
      "▁ટ્યુ": 3809,
      "રિત્ર": 3810,
      "▁પહેલી": 3811,
      "▁પદવી": 3812,
      "▁જેટલો": 3813,
      "▁પ્રોજેક્ટ": 3814,
      "મંત્રી": 3815,
      "▁આંદો": 3816,
      "નો,": 3817,
      "કેલી": 3818,
      "નિંગ": 3819,
      "▁વિષયો": 3820,
      "▁માળખા": 3821,
      "▁અલ્": 3822,
      "▁લાય": 3823,
      "▁મહાદેવ": 3824,
      "▁માધ્યમ": 3825,
      "▁કેળાં,": 3826,
      "૪૦": 3827,
      "▁ફાઇ": 3828,
      "▁મુખ્યાલય": 3829,
      "▁કુક": 3830,
      "▁પેટા": 3831,
      "▁ક્રાંતિક": 3832,
      "▁સંસ્થાઓ": 3833,
      "▁મહેતા": 3834,
      "▁કલ્યા": 3835,
      "▁ઋષિ": 3836,
      "વિદ્યાલય": 3837,
      "▁કિનારે": 3838,
      "મંડળ": 3839,
      "યાત": 3840,
      "▁પાણીની": 3841,
      "▁સર્વોચ્ચ": 3842,
      "▁છેઃ": 3843,
      "સ્વ": 3844,
      "▁નક": 3845,
      "▁કોન્": 3846,
      "▁નેહ": 3847,
      "▁બોલા": 3848,
      "▁ટોચ": 3849,
      "▁વસ્તુઓ": 3850,
      "ંમત": 3851,
      "ઉટ": 3852,
      "ચિત": 3853,
      "▁ઉષ્ણ": 3854,
      "▁આપતા": 3855,
      "▁જેટલું": 3856,
      "ંથો": 3857,
      "▁ફ્ર": 3858,
      "કોનો": 3859,
      "ાંતો": 3860,
      "ભાવના": 3861,
      "▁તીર્થ": 3862,
      "▁સારવાર": 3863,
      "▁જામનગર": 3864,
      "▁નુકસાન": 3865,
      "▁પતિ": 3866,
      "ર્ણ": 3867,
      "▁નાણાં": 3868,
      "▁માટેનું": 3869,
      "▁તુલના": 3870,
      "ંખ્ય": 3871,
      "▁વિધાનસભા": 3872,
      "▁કબ્": 3873,
      "▁શકો": 3874,
      "▁લઘ": 3875,
      "▁સાબ": 3876,
      "▁પરિચય": 3877,
      "▁અસંખ્ય": 3878,
      "▁મહારાજા": 3879,
      "▁મસ્": 3880,
      "રોધ": 3881,
      "▁બેક": 3882,
      "ડિશા": 3883,
      "▁જ્યોતિ": 3884,
      "▁ક્રાંતિકારી": 3885,
      "કરા": 3886,
      "▁કલ્પ": 3887,
      "▁કર્યુ": 3888,
      "▁જાપા": 3889,
      "રીને": 3890,
      "ટીંગ": 3891,
      "▁સામગ્રી": 3892,
      "▁ભૂગોળ": 3893,
      "2માં": 3894,
      "90": 3895,
      "▁શ્ર": 3896,
      "▁પ્રદાન": 3897,
      "▁કિ.મી.": 3898,
      "▁ફેરફારો": 3899,
      "▁ક્યારેક": 3900,
      "▁૨૦૧૩\n": 3901,
      "સ્ય": 3902,
      "▁આત્મા": 3903,
      "▁ગઇ": 3904,
      "▁એમ.": 3905,
      "▁ઓછું": 3906,
      "▁કેન્દ": 3907,
      "▁શક્યતા": 3908,
      "▁યોર્ક": 3909,
      "▁આતંક": 3910,
      "▁કન્": 3911,
      "▁પ્રણાલી": 3912,
      "▁તેમનાં": 3913,
      "રોના": 3914,
      "દેવી": 3915,
      "▁કિલ્લા": 3916,
      "▁બ્લેક": 3917,
      "▁પૂરા": 3918,
      "▁મૂળભૂત": 3919,
      "▁નંબર": 3920,
      "▁ઉત્પન્ન": 3921,
      "પત્ર": 3922,
      "▁છે.આ": 3923,
      "▁જોડે": 3924,
      "િલિ": 3925,
      "▁અનુભ": 3926,
      "▁કોઈપણ": 3927,
      "્ઝ": 3928,
      "વાડી": 3929,
      "▁રાસાય": 3930,
      "રો,": 3931,
      "▁બીબીસી": 3932,
      "▁સ્થળે": 3933,
      "▁૨૦૨૧\n": 3934,
      "વમાં": 3935,
      "▁આખા": 3936,
      "તાહ": 3937,
      "▁લક્ષ્": 3938,
      "▁મારફ": 3939,
      "કોમાં": 3940,
      "▁નિબંધ": 3941,
      "સિસ": 3942,
      "▁ફેડર": 3943,
      "▁બદલી": 3944,
      "▁હાલના": 3945,
      "ધરા": 3946,
      "▁મના": 3947,
      "હેબ": 3948,
      "▁દેવા": 3949,
      "શો.": 3950,
      "▁ખરેખર": 3951,
      "▁તાર": 3952,
      "▁હિમ": 3953,
      "▁સ્ટી": 3954,
      "▁સંકે": 3955,
      "▁વિશ્વની": 3956,
      "▁નિયમિત": 3957,
      "િકન": 3958,
      "▁ઉડ": 3959,
      "▁ટિ": 3960,
      "સ્ત્રી": 3961,
      "▁અંગ્રેજીમાં": 3962,
      "▁જાળવી": 3963,
      "▁પર્યાવરણ": 3964,
      "થાન": 3965,
      "કોએ": 3966,
      "▁કોન્ડો": 3967,
      "સી.": 3968,
      "▁વિશ્વયુદ્ધ": 3969,
      "▁સુરક્ષા": 3970,
      "▁ગુણવત્તા": 3971,
      "▁સ્તરે": 3972,
      "▁ભૂતપૂર્વ": 3973,
      "૧૮": 3974,
      "▁ટાઇ": 3975,
      "68": 3976,
      "▁રોકા": 3977,
      "થુન": 3978,
      ".1": 3979,
      "થિ": 3980,
      "▁દરજ્": 3981,
      "▁પેટ": 3982,
      "▁પાંડ": 3983,
      "▁પ્રકાશન": 3984,
      "બદ્ધ": 3985,
      "▁અપા": 3986,
      "▁એલિ": 3987,
      "▁કરનારા": 3988,
      "▁કાર્યવાહી": 3989,
      "શ્યક": 3990,
      "▁કરતો": 3991,
      "લાઇન": 3992,
      "▁લાગુ": 3993,
      "▁ગર્ભ": 3994,
      "▁ઉત્તરીય": 3995,
      "૭\n": 3996,
      "▁જણ": 3997,
      "ર્જી": 3998,
      "▁બંદર": 3999,
      "▁શર": 4000,
      "▁બાબત": 4001,
      "▁પોર્ટુ": 4002,
      "▁હંમેશા": 4003,
      "િતા": 4004,
      "▁ઇંગ": 4005,
      "▁દિગ્": 4006,
      "▁નેપાળ": 4007,
      "▁નજીકનું": 4008,
      "▁અમેરિકાના": 4009,
      "▁અભિનય": 4010,
      "▁સ્વામિનારાયણ": 4011,
      "પત": 4012,
      "▁અત": 4013,
      "▁જતાં": 4014,
      "▁સ્કોટ": 4015,
      "▁ઉત્તમ": 4016,
      "નિર્": 4017,
      "▁સામનો": 4018,
      "▁ચોરસ": 4019,
      "▁બીજું": 4020,
      "▁પથ્": 4021,
      "્યે": 4022,
      "▁તંત્ર": 4023,
      "▁બાબતો": 4024,
      "▁વિજે": 4025,
      "▁ભાગની": 4026,
      "▁અભય": 4027,
      "▁નુ": 4028,
      "▁નૈ": 4029,
      "ર્મિંગ": 4030,
      "▁ઉદ્યાન": 4031,
      "▁મૂકવામાં": 4032,
      "માર્ગ": 4033,
      "▁એમાં": 4034,
      "▁40": 4035,
      "▁દર્શાવવામાં": 4036,
      "▁ધોરી": 4037,
      "ગણ": 4038,
      "▁એ.": 4039,
      "▁શિય": 4040,
      "▁13": 4041,
      "▁વ્યક્ત": 4042,
      "▁દરવા": 4043,
      "▁ઉપયોગી": 4044,
      "▁કરાય": 4045,
      "▁ધોરણે": 4046,
      "▁ફૂલો": 4047,
      "▁અભિનેત્રી": 4048,
      "▁બ્લોગ": 4049,
      "▁પ્રસ્તાવ": 4050,
      "65": 4051,
      "▁તેલ": 4052,
      "▁કૃષિ": 4053,
      "વડો": 4054,
      "ના,": 4055,
      "▁મેક": 4056,
      "▁ઓફિસ": 4057,
      "▁વિરોધી": 4058,
      "કાદમી": 4059,
      "▁સન": 4060,
      "વા,": 4061,
      "ની,": 4062,
      "▁સુવર્ણ": 4063,
      "વર્ડ": 4064,
      "▁બ્રહ્માં": 4065,
      "▁ઇન્ટરનેટ": 4066,
      "▁જ્યોર્જ": 4067,
      "▁ગૃહ": 4068,
      "▁કારણો": 4069,
      "▁પેલે": 4070,
      "▁ક્લબ": 4071,
      "▁ખોરાક": 4072,
      "▁અત્યાર": 4073,
      "▁પરમાણ": 4074,
      "▁સંયો": 4075,
      "▁રાજસ્થાન": 4076,
      "હ્ન": 4077,
      "ગાં": 4078,
      "ૅન્ડ": 4079,
      "▁મેડ": 4080,
      "▁મેને": 4081,
      "▁સિંઘ": 4082,
      "▁સમયના": 4083,
      "મનાથ": 4084,
      "બલ્યુ": 4085,
      "▁ભાષાંતર": 4086,
      "7માં": 4087,
      "▁ફ્લો": 4088,
      "▁કરાયો": 4089,
      "▁જોખમ": 4090,
      "વ,": 4091,
      "ુલ": 4092,
      "▁આમાં": 4093,
      "▁નર્મ": 4094,
      "▁વ્યાપાર": 4095,
      "▁દીધી": 4096,
      "▁ધ્યાનમાં": 4097,
      "▁સરો": 4098,
      "▁ફાઇન": 4099,
      "▁બન્યો": 4100,
      "▁વગેરેની": 4101,
      "▁બાંધવામાં": 4102,
      "૦ના": 4103,
      "▁અહ": 4104,
      "▁છેલ્": 4105,
      "▁વિસ્તારો": 4106,
      "▁જૂથો": 4107,
      "ગ્નિ": 4108,
      "▁પગલે": 4109,
      "▁કોર્પોરેશન": 4110,
      "▁પાયા": 4111,
      "ન્જ": 4112,
      "સ્ટ્રી": 4113,
      "▁રેકોર્ડ": 4114,
      "ધર્મ": 4115,
      "લ્ટી": 4116,
      "▁વાહન": 4117,
      "▁યુનિયન": 4118,
      "શું": 4119,
      "▁ભક્તિ": 4120,
      "▁ચાં": 4121,
      "▁મેદાન": 4122,
      "▁મહુ": 4123,
      "▁સરકારના": 4124,
      "▁પડ્યું": 4125,
      "▁ઘણીવાર": 4126,
      "▁અંકુ": 4127,
      "▁ભારતીયો": 4128,
      "▁કલ્યાણ": 4129,
      "ડિય": 4130,
      "▁વિમાન": 4131,
      "ત્રિક": 4132,
      "▁રહેવા": 4133,
      "▁ગોળ": 4134,
      "▁લેખમાં": 4135,
      "▁અંગ્રેજ": 4136,
      "▁કેમકે": 4137,
      "▁અધ્યક્ષ": 4138,
      "ડમાં": 4139,
      "વારે": 4140,
      "ન્ત": 4141,
      "▁મુસા": 4142,
      "▁૨૯": 4143,
      "▁બોમ્બે": 4144,
      "▁મળીને": 4145,
      "▁બનેલા": 4146,
      "રીમાં": 4147,
      "▁પ્રચાર": 4148,
      "▁ઓટો": 4149,
      "▁માં,": 4150,
      "▁હાજરી": 4151,
      "▁પ્રભાવિત": 4152,
      "▁કુકણા": 4153,
      "33": 4154,
      "6માં": 4155,
      "ઇસ": 4156,
      "પના": 4157,
      "બૂ": 4158,
      "નામી": 4159,
      "▁બરફ": 4160,
      "▁ગંભ": 4161,
      "▁માંડ": 4162,
      "▁કાર્બન": 4163,
      "▁સરહદ": 4164,
      "▁ગુપ્ત": 4165,
      "▁આવશ્યક": 4166,
      "▁રોમન": 4167,
      "▁વધાર": 4168,
      "▁ગોલ્ડ": 4169,
      "▁જૂની": 4170,
      "▁જ્ઞા": 4171,
      "69": 4172,
      "▁નબ": 4173,
      "▁સાબિત": 4174,
      "▁ભોગ": 4175,
      "▁ખાં": 4176,
      "▁પર\n": 4177,
      "▁સાહ": 4178,
      "ડી.": 4179,
      "▁ઘણો": 4180,
      "▁ન્યૂટન": 4181,
      "▁ભુટ્ટો": 4182,
      "▁પટે": 4183,
      "▁આકાશ": 4184,
      "▁હલ": 4185,
      "▁કેરી": 4186,
      "ત્તર": 4187,
      "▁રાવ": 4188,
      "પાલિકા": 4189,
      "▁લીધા": 4190,
      "▁ઇતિહાસમાં": 4191,
      "▁ડોલર": 4192,
      "ત્રિ": 4193,
      "▁ઇસ": 4194,
      "▁ભારતનું": 4195,
      "દ્ધા": 4196,
      "ચ્ચાર": 4197,
      "▁ગુજરાતીમાં": 4198,
      "▁ફોટો": 4199,
      "▁લશ્કર": 4200,
      "▁સંરક્ષણ": 4201,
      "દિક": 4202,
      "▁21": 4203,
      "ચ્યુ": 4204,
      "▁અલી": 4205,
      "લેટ": 4206,
      "▁હોય.": 4207,
      "▁મેળવ": 4208,
      "▁આભાર.": 4209,
      "જીએ": 4210,
      "જિપ્ત": 4211,
      "▁રાજકારણી": 4212,
      "નનું": 4213,
      "પશ્ચ": 4214,
      "ૂતો": 4215,
      "▁જહા": 4216,
      "▁થતું": 4217,
      "ડા,": 4218,
      "▁પોસ્ટ": 4219,
      "▁૨૦૦૯૦": 4220,
      "ઇન્ટ": 4221,
      "ચંદ": 4222,
      "ઝ,": 4223,
      "▁પિય": 4224,
      "▁અકાદમી": 4225,
      "▁દવા": 4226,
      "▁હોઇ": 4227,
      "▁190": 4228,
      "પ્રદેશ": 4229,
      "▁ધર્મના": 4230,
      "▁અનુસાર,": 4231,
      "▁કર્મચારી": 4232,
      "▁મૂલ્ય": 4233,
      "▁અટકા": 4234,
      "▁આંબેડકર": 4235,
      "7,": 4236,
      "યમ": 4237,
      "વરી": 4238,
      "▁તકની": 4239,
      "▁શૂ": 4240,
      "્યાત્મ": 4241,
      "▁નાં": 4242,
      "ટીટી": 4243,
      "▁સુદ": 4244,
      "▁લંડન": 4245,
      "ઝમ": 4246,
      "▁ઉર્": 4247,
      "▁નવું": 4248,
      "▁ચકા": 4249,
      "▁કરાયું": 4250,
      "▁તેણીએ": 4251,
      "▁વડાપ્રધાન": 4252,
      "ણ\n": 4253,
      "તા\n": 4254,
      "▁વેપારી": 4255,
      "▁ઊંચા": 4256,
      "▁ચાલે": 4257,
      "▁સંદેશા": 4258,
      "▁ગંભીર": 4259,
      "1માં": 4260,
      "યલ": 4261,
      "૧૫": 4262,
      "▁તેમાંથી": 4263,
      "▁ઓપ": 4264,
      "જીના": 4265,
      "▁મહાસા": 4266,
      "▁સ્થળાંતર": 4267,
      "▁મુંબઈમાં": 4268,
      "▁ઇંગ્લેન્ડ": 4269,
      "▁પંડ": 4270,
      "▁સમર્": 4271,
      "▁અનિ": 4272,
      "▁યાત્રા": 4273,
      "▁આશ્રમ": 4274,
      "▁અમેરિકામાં": 4275,
      "▁સ્રોત": 4276,
      "ખું": 4277,
      "▁આબો": 4278,
      "▁નાન": 4279,
      "▁ઑડિશા": 4280,
      "▁ગીર": 4281,
      "▁ઢાંચો": 4282,
      "▁પૌરાણિક": 4283,
      "▁ગુફા": 4284,
      "▁1999": 4285,
      "ન્સે": 4286,
      "▁મિલા": 4287,
      "▁૧૮૭": 4288,
      "▁વિભાજન": 4289,
      "4માં": 4290,
      "▁કેસ": 4291,
      "▁પાટ": 4292,
      "▁વર્ષોમાં": 4293,
      "▁વિદ્યુત": 4294,
      "▁હિમાલય": 4295,
      "ક્રે": 4296,
      "મહ": 4297,
      "▁સ્મ": 4298,
      "▁પાઠ": 4299,
      "▁લાક્ષણિક": 4300,
      "સ્થિત": 4301,
      "ક્યુ": 4302,
      "રોળ": 4303,
      "▁પામે": 4304,
      "▁કાર્યક્રમો": 4305,
      "▁કર્ણા": 4306,
      "અર": 4307,
      "શાસ": 4308,
      "▁જલ": 4309,
      "▁ગવર્": 4310,
      "▁સેન્ટ": 4311,
      "▁સુધારો": 4312,
      "▁કાલિ": 4313,
      "▁સ્ત્રોત": 4314,
      "▁વય": 4315,
      "▁એસ.": 4316,
      "કેશન": 4317,
      "▁સાથેની": 4318,
      "▁પડતી": 4319,
      "▁કાયદો": 4320,
      "▁પારિ": 4321,
      "▁રાસાયણિક": 4322,
      "▁પરમાણુ": 4323,
      "ંજન": 4324,
      "ઓમાંથી": 4325,
      "કલ્પ": 4326,
      "થી,": 4327,
      "સાણા": 4328,
      "▁વેસ્ટ": 4329,
      "▁દા.ત.": 4330,
      "▁સ્વયં": 4331,
      "કોના": 4332,
      "▁પોતાને": 4333,
      "▁વિશ્વવિદ્યાલય": 4334,
      "▁અસરકારક": 4335,
      "▁સેકન્ડ": 4336,
      "88": 4337,
      "▁બટાલિયન": 4338,
      "▁ઉછ": 4339,
      "વી,": 4340,
      "કુમાર": 4341,
      "▁કલાકાર": 4342,
      "▁પહોંચા": 4343,
      "▁દારૂ": 4344,
      "▁એસો": 4345,
      "ાયર": 4346,
      "▁મૂકી": 4347,
      "▁સ્થાપત્ય": 4348,
      "▁નીચેના": 4349,
      "કું": 4350,
      "જ,": 4351,
      "ધરી": 4352,
      "▁કચ": 4353,
      "િક્સ": 4354,
      "▁નગ": 4355,
      "▁ખરાબ": 4356,
      "રેટ": 4357,
      "ુમતી": 4358,
      "▁રજૂઆત": 4359,
      "▁પ્રતિનિધિત્વ": 4360,
      "ઠે": 4361,
      "▁દરમિયાન,": 4362,
      "▁પૂજા": 4363,
      "▁અભયારણ": 4364,
      "સ્પર": 4365,
      "▁રસાય": 4366,
      "▁નૌ": 4367,
      "▁સ્વાદ": 4368,
      "▁ધાન": 4369,
      "▁આપ્યા": 4370,
      "▁સોમનાથ": 4371,
      "લમ": 4372,
      "▁બાલ": 4373,
      "▁શકી": 4374,
      "▁લોહી": 4375,
      "વિજ્ઞાન": 4376,
      "▁જીપીએસ": 4377,
      "▁શોધી": 4378,
      "▁વસતિ": 4379,
      "▁ફૂટબોલ": 4380,
      "▁ક્યાં": 4381,
      "▁જતી": 4382,
      "▁તેજ": 4383,
      "▁દાન": 4384,
      "▁એકા": 4385,
      "ડીયો": 4386,
      "ભાષા": 4387,
      "▁કાઢી": 4388,
      "▁ગૂગલ": 4389,
      "▁જુનાગઢ": 4390,
      "▁મસ્જિ": 4391,
      "▁ઇંગ્લે": 4392,
      "િયાં": 4393,
      "જીવ": 4394,
      "ડામાં": 4395,
      "▁વિસ્તૃત": 4396,
      "▁રેખા": 4397,
      "▁પંચા": 4398,
      "▁સ્થળો": 4399,
      "▁મીઠા": 4400,
      "▁ભૌગો": 4401,
      "▁માલિકી": 4402,
      "▁નાગરિકો": 4403,
      ".4": 4404,
      "▁કાળા": 4405,
      "▁તહેવા": 4406,
      "ડાના": 4407,
      "▁દ્રષ્ટિએ": 4408,
      "▁પાકિસ્તાની": 4409,
      "▁ગુલાબ": 4410,
      "▁પ્રોટોકોલ": 4411,
      "▁ઠા": 4412,
      "માના": 4413,
      "▁સમ્રા": 4414,
      "▁ક્ષેત્રોમાં": 4415,
      "▁પાર્ક": 4416,
      "▁સોસાયટી": 4417,
      "▁મંગ": 4418,
      "પ્પ": 4419,
      "▁સર્જ": 4420,
      "▁સર્વે": 4421,
      "▁ચેન્ન": 4422,
      "▁દાખલ": 4423,
      "▁તારીખ": 4424,
      "▁નેહરુ": 4425,
      "▁તૃ": 4426,
      "રાયણ": 4427,
      "▁બંદ": 4428,
      "▁પ્રદર્શ": 4429,
      "▁માપ": 4430,
      "તો,": 4431,
      "▁અનુક્ર": 4432,
      "▁હાઈ": 4433,
      "▁૧૮૬": 4434,
      "▁મ્યુઝ": 4435,
      "▁કૉલેજ": 4436,
      "▁બ્રાહ્મણ": 4437,
      "▁ત્યા": 4438,
      "▁એલેક્": 4439,
      "▁સંજ્ઞા": 4440,
      "▁હોવાનો": 4441,
      "▁કાઉન્ટી": 4442,
      "શય": 4443,
      "▁ઉચ્ચાર": 4444,
      "▁ઘણું": 4445,
      "▁24": 4446,
      "▁મિસ્ત્રી": 4447,
      "નારી": 4448,
      "▁અવાજ": 4449,
      "▁બ્રિટ": 4450,
      "▁બન્યા.": 4451,
      "વિદ્યા": 4452,
      "▁પાન,": 4453,
      "▁પરિવર્તન": 4454,
      "▁અંધ": 4455,
      "▁હાં": 4456,
      "▁આવ્યાં": 4457,
      "....": 4458,
      "પબ્લિક": 4459,
      "રવ": 4460,
      "▁કંપનીઓ": 4461,
      "▁ઇન્સ્ટિટ": 4462,
      "▁અભિનેતા": 4463,
      "▁સંકળાયેલા": 4464,
      "79": 4465,
      "ઈલ": 4466,
      "ોનું": 4467,
      "▁પ્રકૃતિ": 4468,
      "▁સાંક": 4469,
      "▁બી,": 4470,
      "▁ટેસ્ટ": 4471,
      "▁હાઉસ": 4472,
      "▁દીધો": 4473,
      "સંગ્રહ": 4474,
      "▁ઘેરા": 4475,
      "ગના": 4476,
      "્રિયા": 4477,
      "▁22": 4478,
      "વિડ": 4479,
      "્યુટ": 4480,
      "વવાનો": 4481,
      "▁પ્રત્યેક": 4482,
      "▁મુસાફ": 4483,
      "શાળા": 4484,
      "▁આની": 4485,
      "ર્ના": 4486,
      "▁શામ": 4487,
      "લીયન": 4488,
      "▁નિવાસ": 4489,
      "▁નામથી": 4490,
      "▁મદદથી": 4491,
      "▁મનુષ્ય": 4492,
      "કારાત્મક": 4493,
      "▁વજન": 4494,
      "▁નવો": 4495,
      "▁વિગ": 4496,
      "▁યુએન": 4497,
      "▁તાલીમ": 4498,
      "▁વધુમાં": 4499,
      "ફોર્મ": 4500,
      "▁ઔર": 4501,
      "▁બૅન્ક": 4502,
      "દ,": 4503,
      "ૂપ": 4504,
      "▁મંડળ": 4505,
      "દેશિક": 4506,
      "▁સોંપ": 4507,
      "▁સોફ્ટ": 4508,
      "▁જનતા": 4509,
      "▁પુરાણ": 4510,
      "▁સોવિયે": 4511,
      "▁આગેવાની": 4512,
      "જની": 4513,
      "▁અજ": 4514,
      "ર્જન": 4515,
      "▁બગ": 4516,
      "▁નમ": 4517,
      "▁જેમાંથી": 4518,
      "▁ઉભી": 4519,
      "▁એકદમ": 4520,
      "મેલ": 4521,
      "▁કરેલી": 4522,
      "▁મહાત્મા": 4523,
      "▁લુણા": 4524,
      "▁શરુઆત": 4525,
      "▁દાંતા": 4526,
      "58": 4527,
      "▁વિધિ": 4528,
      "▁ક્રમે": 4529,
      "▁તરફે": 4530,
      "▁પાણીના": 4531,
      "▁મહત્વના": 4532,
      "▁એરપોર્ટ": 4533,
      "આઇવી": 4534,
      "▁ઇન્ટરનેશનલ": 4535,
      "▁યુરોપીયન": 4536,
      "સ\n": 4537,
      "માનો": 4538,
      "▁પહા": 4539,
      "વારા": 4540,
      "ામુ": 4541,
      "કાર,": 4542,
      "▁આપણા": 4543,
      "▁ચાર્લ્સ": 4544,
      "▁દોડ": 4545,
      "ન્ટ્ર": 4546,
      "▁ઘન": 4547,
      "▁અમરેલી": 4548,
      "▁આર.": 4549,
      "▁અસ્તિત્વમાં": 4550,
      "▁વેબસાઇટ\n": 4551,
      "▁થવાની": 4552,
      "▁રાજય": 4553,
      "▁વાઘ": 4554,
      "સ્ટન": 4555,
      "▁મોટાભાગે": 4556,
      "▁દર્દી": 4557,
      "▁પૂરો": 4558,
      "વેદન": 4559,
      "▁એજન્સી": 4560,
      "▁દલીલ": 4561,
      "ઇને": 4562,
      "ટર્સ": 4563,
      "▁હજારો": 4564,
      "▁વાળા": 4565,
      "▁સ્થાયી": 4566,
      "▁ઊંચી": 4567,
      "▁બાબતે": 4568,
      "સંઘ": 4569,
      "▁રવિ": 4570,
      "▁કરી.\n": 4571,
      "▁પુષ્": 4572,
      "▁મળતા": 4573,
      "▁માર્ગદર્શન": 4574,
      "▁મંદિર,": 4575,
      "વદર": 4576,
      "હૂ": 4577,
      "▁હશે": 4578,
      "▁સુરેન્દ્ર": 4579,
      "▁વેગ": 4580,
      "▁અનુસ": 4581,
      "વ્યું.": 4582,
      "▁ગ્રીન": 4583,
      "▁ફુટ": 4584,
      "▁દબાણ": 4585,
      "▁પ્રવાહી": 4586,
      "▁બાંગ": 4587,
      "▁સાથે,": 4588,
      "▁જણાવે": 4589,
      "▁સ્મારક": 4590,
      "▁કર્ણાટક": 4591,
      "▁ભટ્ટ": 4592,
      "સ્તો": 4593,
      "▁ધારા": 4594,
      "▁ઢો": 4595,
      "▁સાયન્સ": 4596,
      "▁નિમણ": 4597,
      "▁ભૌગોલિક": 4598,
      "યાન": 4599,
      "▁ઉતરી": 4600,
      "લીના": 4601,
      "▁મેટ્રો": 4602,
      "▁દ્વી": 4603,
      "▁ન્યૂટ": 4604,
      "▁સાધુ": 4605,
      "ંડોળ": 4606,
      "▁મારફતે": 4607,
      "વીસ": 4608,
      "▁ધૂમ": 4609,
      "▁વાસ": 4610,
      "▁શબ્દનો": 4611,
      "▁સ્વાતંત્ર": 4612,
      "▁બિહાર": 4613,
      "▁ધીમે": 4614,
      "▁હવાઇમ": 4615,
      "▁અત્યારે": 4616,
      "▁લુણાવાડા": 4617,
      "ખરા": 4618,
      "ડિયો": 4619,
      "▁તર્ક": 4620,
      "▁વડ": 4621,
      "▁નામનો": 4622,
      "▁સર્વિસ": 4623,
      "▁હોવાને": 4624,
      "▁પાણીમાં": 4625,
      "▁ગ્રંથો": 4626,
      "દુર": 4627,
      "▁ઓછામાં": 4628,
      "▁પોલીસ": 4629,
      "ટુ": 4630,
      "▁ઉભ": 4631,
      "▁કેપ્": 4632,
      "▁પ્રાદેશિક": 4633,
      "▁હાથી": 4634,
      "▁વીજ": 4635,
      "▁નિયુ": 4636,
      "▁થોડી": 4637,
      "પ્રેસ": 4638,
      "શલ": 4639,
      "▁હજી": 4640,
      "▁ઉપકરણ": 4641,
      "કમ": 4642,
      "ઢા": 4643,
      "▁તફા": 4644,
      "ને,": 4645,
      "▁ઇન્દ્ર": 4646,
      "નિસિ": 4647,
      "▁૨૦૨૦\n": 4648,
      "▁અંકુશ": 4649,
      "▁અભયારણ્ય": 4650,
      "31": 4651,
      "સર્ચ": 4652,
      "▁અવિ": 4653,
      "▁મંડ": 4654,
      "િકિ": 4655,
      "▁સાધન": 4656,
      "▁નામાં": 4657,
      "▁ભાષાઓ": 4658,
      "▁પિયતની": 4659,
      "આરી,": 4660,
      "ઉન્ટ": 4661,
      "લૅન્ડ": 4662,
      "ર્મા": 4663,
      "▁ઇ.": 4664,
      "▁ભરપૂર": 4665,
      "▁એચઆઇવી": 4666,
      "▁વિકસિત": 4667,
      ".9": 4668,
      "▁વલ્લ": 4669,
      "ષ્ટા": 4670,
      "▁સિંધ": 4671,
      "▁પછીથી": 4672,
      "▁દીધું": 4673,
      "▁લાગણી": 4674,
      "▁ચાઇનીઝ": 4675,
      "રાન": 4676,
      "રી\n": 4677,
      "▁રાઇ": 4678,
      "▁2,": 4679,
      "▁ક્યારેય": 4680,
      "▁અબજ": 4681,
      "૩\n": 4682,
      "▁રીંછ": 4683,
      "▁ખેડૂતો": 4684,
      "▁બ્રેડ": 4685,
      "બર્ટ": 4686,
      "રું": 4687,
      "▁તેનાં": 4688,
      "▁નારાયણ": 4689,
      "▁ધન": 4690,
      "ડાની": 4691,
      "પાડા": 4692,
      "ળામાં": 4693,
      "▁ટેકરી": 4694,
      "▁દાયકામાં": 4695,
      "પુર,": 4696,
      "▁રોજ,": 4697,
      "▁ચેમ્પ": 4698,
      "▁ક્લિ": 4699,
      "ધારા": 4700,
      "મય": 4701,
      "▁સદ": 4702,
      "▁હળ": 4703,
      "▁ઝાં": 4704,
      "ચારિક": 4705,
      "▁સગવડો": 4706,
      "▁કાશ્મીર": 4707,
      "▁બાંગ્લા": 4708,
      "▁એપ્": 4709,
      "▁રાહ": 4710,
      "કો,": 4711,
      "▁ઇચ્છા": 4712,
      "સિંગ": 4713,
      "વ્યો.": 4714,
      "▁બેઠક": 4715,
      "બર્ગ": 4716,
      "૧ના": 4717,
      "ટ્રિક": 4718,
      "▁સુનામી": 4719,
      "િમિ": 4720,
      "ટોક": 4721,
      "▁બનેલી": 4722,
      "▁વિનાશ": 4723,
      "▁કેન્દ્રીય": 4724,
      "▁દળ": 4725,
      "▁શાહી": 4726,
      "▁મધ્યપૂર્વ": 4727,
      "▁પ્રતિભાવ": 4728,
      "▁શહેરોમાં": 4729,
      "▁સમૃદ્ધ": 4730,
      "▁આઝાદી": 4731,
      "▁પ્રી": 4732,
      "▁રન": 4733,
      "▁મોહ": 4734,
      "▁ટૂંક": 4735,
      "▁અંદાજે": 4736,
      "▁માત્રામાં": 4737,
      "▁દ્વારકા": 4738,
      "76": 4739,
      "▁સક્ષમ": 4740,
      "▁અગ્નિ": 4741,
      "▁ઉતર": 4742,
      "▁ગામથી": 4743,
      "ભાઈ,": 4744,
      "મ્મદ": 4745,
      "▁બોલે": 4746,
      "▁કોઇપણ": 4747,
      "▁જાણકારી": 4748,
      "▁પાંડવો": 4749,
      "▁ઉપા": 4750,
      "▁ક્લા": 4751,
      "▁મુજબ,": 4752,
      "▁સંબંધો": 4753,
      "ંતિ": 4754,
      "▁તાલ": 4755,
      "▁એની": 4756,
      "▁કેમ્પ": 4757,
      "▁ધારણ": 4758,
      "▁ઝો": 4759,
      "▁અભિયાન": 4760,
      "▁જેમને": 4761,
      "▁ટાઈ": 4762,
      "▁વંશના": 4763,
      "▁કાનૂ": 4764,
      "▁ડિઝાઇન": 4765,
      "▁નવસ": 4766,
      "▁ગુરૂ": 4767,
      "સાઇડ": 4768,
      "▁રીતે,": 4769,
      "▁થઈને": 4770,
      "▁પ્રસારણ": 4771,
      "લનું": 4772,
      "રાઈ": 4773,
      "કેતુ": 4774,
      "▁મુક્તિ": 4775,
      "ાર્ક": 4776,
      "▁મરાઠા": 4777,
      "▁લક્ષ્મી": 4778,
      "▁હવાઇમથક": 4779,
      "ૂલ": 4780,
      "▁ભ્રમણ": 4781,
      "▁રશિયા": 4782,
      "બાઇલ": 4783,
      "▁વોલ્": 4784,
      "▁ડી.": 4785,
      "▁ઓછો": 4786,
      "▁શાસક": 4787,
      "▁અર્ધ": 4788,
      "▁ઓળખાતા": 4789,
      "▁ક્રમાંક": 4790,
      "55": 4791,
      "બ્રે": 4792,
      "▁જાત": 4793,
      "▁પૂરું": 4794,
      "▁ગ્રેટ": 4795,
      "▁2007માં": 4796,
      "▁વિજેતા": 4797,
      "▁ગ્લો": 4798,
      "લીયા": 4799,
      "▁વાપરી": 4800,
      "▁સરકારની": 4801,
      "▁વંશીય": 4802,
      "▁ચલાવે": 4803,
      "▁અહેવાલ": 4804,
      "શ.": 4805,
      "૧૩": 4806,
      "▁સહે": 4807,
      "▁છેવ": 4808,
      "▁પરની": 4809,
      "▁પુરૂ": 4810,
      "▁પુત્રો": 4811,
      "▁પત્રકાર": 4812,
      "▁દ્વિતીય": 4813,
      "▁સ્કે": 4814,
      "લ્થ": 4815,
      "▁યોજા": 4816,
      "▁તિબે": 4817,
      "છા": 4818,
      "▁ઈલેક્": 4819,
      "▁વ્યાસ": 4820,
      "▁મૈથુન": 4821,
      "23": 4822,
      "▁જેવો": 4823,
      "▁કોશ": 4824,
      "▁વાળ": 4825,
      "▁રહ્યાં": 4826,
      "▁અંબા": 4827,
      "▁વપરાશકર્તા": 4828,
      ".0,": 4829,
      "એ,": 4830,
      "▁મશી": 4831,
      "▁એકત્ર": 4832,
      "કોર": 4833,
      "▁મોઢવા": 4834,
      "યેલું": 4835,
      "▁જંગલોથી": 4836,
      "▁બ્લૂ": 4837,
      "▁સ્વાતંત્ર્ય": 4838,
      "મતિ": 4839,
      "▁હજાર": 4840,
      "લાના": 4841,
      "▁ખડ": 4842,
      "▁કુળ": 4843,
      "▁અનુય": 4844,
      "▁સંદર્ભમાં": 4845,
      "▁નહીં.": 4846,
      "▁એન્જિનિયર": 4847,
      "ધ્યા": 4848,
      "▁સાચ": 4849,
      "▁મધ્યમ": 4850,
      "▁નજીકના": 4851,
      "▁લઇને": 4852,
      "▁સુરેન્દ્રનગર": 4853,
      "▁જથ્": 4854,
      "▁છબી": 4855,
      "▁શિકાર": 4856,
      "▁28": 4857,
      "▁ચોક": 4858,
      "▁પ્રાણીઓ": 4859,
      "▁મોઢવાડીયા": 4860,
      "ૉન": 4861,
      "રીની": 4862,
      "▁નહે": 4863,
      "▁મેક્સ": 4864,
      "જાવુ": 4865,
      "▁તરીકેની": 4866,
      "▁કેન્દ્રિત": 4867,
      "▁શૈક્ષણિક": 4868,
      "્યાત્મિક": 4869,
      "▁મહાસાગર": 4870,
      "5માં": 4871,
      "▁જેવું": 4872,
      "▁સંધિ": 4873,
      "▁ફ્લે": 4874,
      "▁32": 4875,
      "▁જોડાયેલા": 4876,
      "▁1998": 4877,
      "▁દોર": 4878,
      "▁તહેવારો": 4879,
      "▁પહેર": 4880,
      "▁તરત": 4881,
      "ંગો": 4882,
      "લોડ": 4883,
      "િયાની": 4884,
      "▁આપવાની": 4885,
      "હોન": 4886,
      "▁મોકલી": 4887,
      "ડાલ": 4888,
      "▁બગી": 4889,
      "▁પોપ": 4890,
      "▁મળતી": 4891,
      "▁દુશ્": 4892,
      "▁અસરો": 4893,
      "લાયક": 4894,
      "▁ટૂંકી": 4895,
      "▁એલેક્ઝા": 4896,
      "૨૨": 4897,
      "▁પરસ્પર": 4898,
      "જી,": 4899,
      "▁ઇજિપ્ત": 4900,
      "▁વાવ": 4901,
      "▁સિં": 4902,
      "બેલ": 4903,
      "▁ટેક": 4904,
      "▁૫૦": 4905,
      "દર્શક": 4906,
      "▁દેખાવ": 4907,
      "▁અનુયાયી": 4908,
      "ગામી": 4909,
      "તરે": 4910,
      "મણો": 4911,
      "રબ": 4912,
      "દ્દી": 4913,
      "ાર્ટ": 4914,
      "બાઇ": 4915,
      "સિડ": 4916,
      "ંડલ": 4917,
      "▁લીલા": 4918,
      "▁રૂપમાં": 4919,
      "▁સંપત્તિ": 4920,
      "ધારી": 4921,
      "વસ્તુ": 4922,
      "▁નામનું": 4923,
      "ષ્ટિકો": 4924,
      "▁તમારી": 4925,
      "▁80": 4926,
      "▁તાજેતરમાં": 4927,
      "▁દરવાજા": 4928,
      "59": 4929,
      "લેષણ": 4930,
      "▁ફોર્": 4931,
      "ધાં": 4932,
      "ૃદય": 4933,
      "૧૭": 4934,
      "▁પવન": 4935,
      "▁અપે": 4936,
      "▁રમા": 4937,
      "▁થે": 4938,
      "▁સંબંધી": 4939,
      "▁નીચ": 4940,
      "મોન્ટ": 4941,
      "▁વચ્ચેની": 4942,
      "▁સહયોગ": 4943,
      "▁ઇન્ડિયન": 4944,
      "▁ત્રીજી": 4945,
      "▁ઋતુ": 4946,
      "▁ભજવી": 4947,
      "▁આંધ": 4948,
      "▁વરાઇ": 4949,
      "▁એને": 4950,
      "સ્પે": 4951,
      "▁સંકલ": 4952,
      "▁સુપર": 4953,
      "▁જાણવા": 4954,
      "સેસ": 4955,
      "ળીયા": 4956,
      "▁ઉદ્યો": 4957,
      "▁જેનાથી": 4958,
      "કાળમાં": 4959,
      "સ્પદ": 4960,
      "▁પોર્ટુગી": 4961,
      "નૈ": 4962,
      "▁નાર": 4963,
      "▁સુધીના": 4964,
      "▁ગોલ": 4965,
      "▁મધ્યમાં": 4966,
      "▁અવશેષ": 4967,
      "▁નોંધ\n": 4968,
      "▁હાથમાં": 4969,
      "▁પક્ષીઓ": 4970,
      "▁વિભાગો": 4971,
      "તીકંપ": 4972,
      "કૃષ્ણ": 4973,
      "▁પદ્મ": 4974,
      "ખત": 4975,
      "ધામ": 4976,
      "નાડુ": 4977,
      "સ્કા": 4978,
      "ડીંગ": 4979,
      "લેંડ": 4980,
      "સાધ": 4981,
      "મ્મુ": 4982,
      "▁બેલ": 4983,
      "▁લાઇન": 4984,
      "▁તાપી": 4985,
      "▁સમયથી": 4986,
      "▁મેળવે": 4987,
      "▁કાર્યરત": 4988,
      "▁કરાયા": 4989,
      "▁લક્ષણો": 4990,
      "▁આલ્બમ": 4991,
      "▁મસ્જિદ": 4992,
      "▁સોવિયેત": 4993,
      "યોર્ક": 4994,
      "▁કરવાથી": 4995,
      "▁વિક્": 4996,
      "▁આસપાસના": 4997,
      "▁ઉંમરે": 4998,
      "▁નાણાકીય": 4999,
      "▁ધૂમકેતુ": 5000,
      ".2": 5001,
      "પ્રે": 5002,
      "▁હકી": 5003,
      "▁મારે": 5004,
      "િલ્ડ": 5005,
      "▁વિસ્તરણ": 5006,
      "▁લખે": 5007,
      "દેસર": 5008,
      "▁સંખ્યાબંધ": 5009,
      "વલ્લી": 5010,
      "૭ના": 5011,
      "▁કમ્": 5012,
      "▁વકી": 5013,
      "કાશી": 5014,
      "જીત": 5015,
      "રેખ": 5016,
      "▁દર્શ": 5017,
      "ફોન": 5018,
      "▁અંતર્ગ": 5019,
      "▁આઇસ": 5020,
      "▁હવામાન": 5021,
      "▁સૂચવે": 5022,
      "▁ખરીદી": 5023,
      "▁સમર્પિત": 5024,
      "▁વ્યુ": 5025,
      "▁હટા": 5026,
      "▁ભલા": 5027,
      "ષ્ઠા": 5028,
      "▁લેટિન": 5029,
      "▁રહ્યા.": 5030,
      "▁વર્ગીકરણ": 5031,
      "▁નવસારી": 5032,
      "મર": 5033,
      "મા,": 5034,
      "▁કટોક": 5035,
      "▁મુખ્યમંત્રી": 5036,
      "ન્સિલ": 5037,
      "▁પેઢી": 5038,
      "▁સીધા": 5039,
      "▁શિલા": 5040,
      "▁સાહિત્યમાં": 5041,
      "▁બિઝને": 5042,
      "▁બાળક": 5043,
      "રાજ્ય": 5044,
      "▁2008માં": 5045,
      "▁અહિં": 5046,
      "ફેર": 5047,
      "▁તટ": 5048,
      "▁છે.તે": 5049,
      "તાનું": 5050,
      "વેદી": 5051,
      "▁માથા": 5052,
      "ત્વા": 5053,
      "ન્સ,": 5054,
      "ળીને": 5055,
      "▁શિખર": 5056,
      "▁પગલાં": 5057,
      "▁ટૂંકા": 5058,
      "▁સલામતી": 5059,
      "▁ધરતીકંપ": 5060,
      "▁તાંજાવુ": 5061,
      "ઘાન": 5062,
      "સનો": 5063,
      "સ્કી": 5064,
      "▁રત્": 5065,
      "તોના": 5066,
      "તોની": 5067,
      "લોક": 5068,
      "▁૨૦૧૪\n": 5069,
      "▁વ્યાવસાય": 5070,
      "▁દરિયાઈ": 5071,
      "▁રોકાણ": 5072,
      "▁ધાન્યો": 5073,
      "કત્તા": 5074,
      "જમાં": 5075,
      "▁હથ": 5076,
      "▁દંત": 5077,
      "તાલ": 5078,
      "▁૧,": 5079,
      "▁લાગી": 5080,
      "▁લાવવા": 5081,
      "▁આવી.\n": 5082,
      "▁હિંસા": 5083,
      "▁હાજર": 5084,
      "▁ચોથા": 5085,
      "▁કોર્પોરેશ": 5086,
      "▁બાંગ્લાદેશ": 5087,
      "63": 5088,
      "ધિક": 5089,
      "પમાં": 5090,
      "▁તહે": 5091,
      "▁ઓપન": 5092,
      "▁આવરી": 5093,
      "▁રાજ્યનો": 5094,
      "વર્ત": 5095,
      "પુરી": 5096,
      "▁કિંમત": 5097,
      "▁નિર્મા": 5098,
      "▁સ્થાપક": 5099,
      "▁શિક્ષક": 5100,
      "▁ચીની": 5101,
      "▁બિંદુ": 5102,
      "▁સ્ટાર": 5103,
      "▁પ્રગતિ": 5104,
      "▁કિલ્લો": 5105,
      "▁સંગઠન": 5106,
      "▁છેવટે": 5107,
      ".૫": 5108,
      "નગ": 5109,
      "▁તેવો": 5110,
      "▁ભિન્ન": 5111,
      "▁કેલિ": 5112,
      "▁ડુ": 5113,
      "▁27": 5114,
      "▁ઉત્તે": 5115,
      "▁ડેરીની": 5116,
      "ાયેલો": 5117,
      "47": 5118,
      "મ\n": 5119,
      "ું,": 5120,
      "▁ચૅ": 5121,
      "્યો,": 5122,
      "વિંદ": 5123,
      "▁તો,": 5124,
      "▁કિનારા": 5125,
      "▁વોલ્સ": 5126,
      "▁સ્થિતિમાં": 5127,
      "▁ફાઉન્ડ": 5128,
      "▁દૈનિક": 5129,
      "▁ખેતઉત્પાદનોના": 5130,
      "▁સ્ટા": 5131,
      "▁ફ્રી": 5132,
      "▁નોક": 5133,
      "▁શકતા": 5134,
      "▁અહીંથી": 5135,
      "▁ક્ષેત્રે": 5136,
      "▁રૂપાંતર": 5137,
      "▁માર્કેટ": 5138,
      "▁લંબાઈ": 5139,
      "વૃત્ત": 5140,
      "▁ચેન્નઈ": 5141,
      "98": 5142,
      "▁તબી": 5143,
      "▁ભંડોળ": 5144,
      "▁ખબર": 5145,
      "જીની": 5146,
      "▁રીસી": 5147,
      "▁સ્વાગત": 5148,
      "▁પાંદ": 5149,
      "▁ચકાસ": 5150,
      "૨ના": 5151,
      "▁આર્ક": 5152,
      "▁આણંદ": 5153,
      "▁ઓપર": 5154,
      "▁સમક્ષ": 5155,
      "▁26": 5156,
      "▁વૈદિક": 5157,
      "લ્લાહ": 5158,
      "જ્ઞાની": 5159,
      "▁પર્યટન": 5160,
      "▁અંતર્ગત": 5161,
      "પચારિક": 5162,
      "ર્ભ": 5163,
      "▁ભૂલ": 5164,
      "▁અવતાર": 5165,
      "▁દીધા": 5166,
      "▁એરિ": 5167,
      "▁શ્રા": 5168,
      "▁માટી": 5169,
      "▁સ્ટ્રી": 5170,
      "▁ફાળો": 5171,
      "રોએ": 5172,
      "▁23": 5173,
      "▁ટ્રો": 5174,
      "▁યુરોપિયન": 5175,
      "વ્યવહાર": 5176,
      "▁કમિશન": 5177,
      "▁મ્યુઝિયમ": 5178,
      "▁કેપ્ટન": 5179,
      "્લુ": 5180,
      "રાની": 5181,
      "નો\n": 5182,
      "▁પરમ": 5183,
      "▁સંક્ર": 5184,
      "▁કાસ્ટ્ર": 5185,
      "▁આધ્યાત્મિક": 5186,
      "▁કર્યું,": 5187,
      "▁અંતમાં": 5188,
      "▁કલ્પના": 5189,
      "બ્રા": 5190,
      "ભૌ": 5191,
      "▁જગત": 5192,
      "▁બજા": 5193,
      "▁સ્ટ્ર": 5194,
      "▁પાનું": 5195,
      "મેટ": 5196,
      "▁બેંગ": 5197,
      "▁કારણકે": 5198,
      "▁1990": 5199,
      "▁અરવલ્લી": 5200,
      "▁એડ્રેસ": 5201,
      "▁વહીવટ": 5202,
      "▁મર્યાદા": 5203,
      "વટ": 5204,
      "▁વદ": 5205,
      "▁મલ": 5206,
      "▁ડબ્": 5207,
      "▁લોકોમાં": 5208,
      "▁માહિતી\n": 5209,
      "▁કલાક": 5210,
      "▁અવસાન\n": 5211,
      "▁પ્રભુત્વ": 5212,
      "▁ભૂગોળ\n": 5213,
      "કાય": 5214,
      "રને": 5215,
      "હારી": 5216,
      "૨૫": 5217,
      "માને": 5218,
      "▁હડ": 5219,
      "▁ગણી": 5220,
      "લેસ": 5221,
      "▁સામ્ય": 5222,
      "▁પામી": 5223,
      "▁સ્વરૂપમાં": 5224,
      "▁સ્કૂલ": 5225,
      "િની": 5226,
      "રાના": 5227,
      "▁દત્તા": 5228,
      "▁પરો": 5229,
      "▁મોટર": 5230,
      "ંધા": 5231,
      "▁વર્ષનો": 5232,
      "▁ગોળી": 5233,
      "▁રજવાડા": 5234,
      "▁મહેસાણા": 5235,
      "▁હતાં.\n": 5236,
      "▁એલટીટી": 5237,
      "▁ઉદ્યોગો": 5238,
      "▁રામા": 5239,
      "▁સાક્ષર": 5240,
      "રોજ": 5241,
      "▁રોમાન": 5242,
      "▁ટપાલ": 5243,
      "વર્તી": 5244,
      "▁સ્ટેન": 5245,
      "ગ્રસ્ત": 5246,
      "▁અંગેની": 5247,
      "▁મોટેભાગે": 5248,
      "▁જરૂરિયાત": 5249,
      "▁સોફ્ટવેર": 5250,
      "ફાઇ": 5251,
      "▁એસે": 5252,
      "▁પ્રસ": 5253,
      "▁ચર": 5254,
      "▁ફાઈ": 5255,
      "▁ગામની": 5256,
      "▁હોવાની": 5257,
      "▁19મી": 5258,
      "પીઠ": 5259,
      "▁ઊભી": 5260,
      "▁ટાવર": 5261,
      "▁ધરપક": 5262,
      "▁પ્રતિકાર": 5263,
      "▁આયર્લેન્ડ": 5264,
      "▁ખ્યાલ": 5265,
      "▁માઇક્રો": 5266,
      "પૃ": 5267,
      "શિંગ": 5268,
      "ામો": 5269,
      "▁સાવ": 5270,
      "રેન": 5271,
      "▁લાકડા": 5272,
      "▁કાગ": 5273,
      "▁દક્ષિણમાં": 5274,
      "▁ઉમેદ": 5275,
      "▁આયર્લૅન્ડ": 5276,
      "▁આત્મક": 5277,
      "▁આદર્શ": 5278,
      "▁હૃદય": 5279,
      "▁થયાં": 5280,
      "▁આવું": 5281,
      "વર્ગ": 5282,
      "▁સી.": 5283,
      "▁જીવનચ": 5284,
      "▁ત્યારથી": 5285,
      "▁મ્યુનિસિ": 5286,
      "▁માળખું": 5287,
      "▁પ્રયત્નો": 5288,
      "▁સંપાદન": 5289,
      "૧૪": 5290,
      "▁કૈ": 5291,
      "▁હશે.": 5292,
      "▁બર": 5293,
      "▁એરલાઇ": 5294,
      "▁યુરોપમાં": 5295,
      "▁સ્ત્રીઓ": 5296,
      "▁યાદી\n": 5297,
      "▁વિદ્યાર્થીઓ": 5298,
      ".3": 5299,
      "એશન": 5300,
      "કટિ": 5301,
      "રચના": 5302,
      "▁અનંત": 5303,
      "્રીમ": 5304,
      "▁સર્વર": 5305,
      "▁પ્રદેશના": 5306,
      "▁સહાયક": 5307,
      "▁નગરપાલિકા": 5308,
      "▁સહિતના": 5309,
      "▁અફઘાન": 5310,
      "▁સરોવર": 5311,
      "▁આબોહવા": 5312,
      "લિત": 5313,
      "લામાં": 5314,
      "▁જે.": 5315,
      "▁ઇડર": 5316,
      "▁બેંક": 5317,
      "ટોન": 5318,
      "▁કરાઈ": 5319,
      "▁જન્મે": 5320,
      "▁ધોરણ": 5321,
      "ર્નલ": 5322,
      "▁પલટણ": 5323,
      "તઃ": 5324,
      "બારી": 5325,
      "▁દ્રા": 5326,
      "▁ભાગોમાં": 5327,
      "નિસ": 5328,
      "▁31": 5329,
      "▁દાદરા": 5330,
      "▁સદીની": 5331,
      "▁લગતા": 5332,
      "▁કાયમી": 5333,
      "▁ટ્રેડ": 5334,
      "▁ગરમી": 5335,
      "▁મુશ્કેલી": 5336,
      "▁જ્યોતિષ": 5337,
      "ઈને": 5338,
      "▁કથ": 5339,
      "ર્વેદ": 5340,
      "▁નડાલ": 5341,
      "વો\n": 5342,
      "▁કાલા": 5343,
      "▁પશ્ચિમમાં": 5344,
      "▁કર્યું.\n": 5345,
      "▁દાદા": 5346,
      "સ્થાપિત": 5347,
      "▁વાતાવરણમાં": 5348,
      "▁અનુક્રમે": 5349,
      "▁કેલિફો": 5350,
      "5,": 5351,
      "ગિ": 5352,
      "મથક": 5353,
      "સિય": 5354,
      "▁આનો": 5355,
      "ર્વે": 5356,
      "▁વિગત": 5357,
      "લોની": 5358,
      "પ્રા": 5359,
      "▁બોટા": 5360,
      "▁ફુલ": 5361,
      "▁ટ્રાફિક": 5362,
      "દની": 5363,
      "▁જમ્મુ": 5364,
      "▁છઠ્": 5365,
      "▁દત્ત": 5366,
      "▁વિધ": 5367,
      "▁જોડી": 5368,
      "▁એમને": 5369,
      "▁પૂર્વીય": 5370,
      "▁પૂર્વમાં": 5371,
      "▁સુરક્ષિત": 5372,
      "સ્પિટ": 5373,
      "સાં": 5374,
      "▁અઠ": 5375,
      "▁પ્રિય": 5376,
      "સ્વી": 5377,
      "▁વિપરી": 5378,
      "▁સંબો": 5379,
      "▁સાહેબ": 5380,
      "▁ફાળ": 5381,
      "ાનુ": 5382,
      "▁પાત્રો": 5383,
      "▁ડિગ્રી": 5384,
      "▁ચિં": 5385,
      "▁પડતા": 5386,
      "ક્ષ્મ": 5387,
      "▁દરજ્જો": 5388,
      "▁તફાવત": 5389,
      "કિમ": 5390,
      "૮૦": 5391,
      "▁આહાર": 5392,
      "▁પ્રથા": 5393,
      "▁નમૂ": 5394,
      "▁રાજ્યને": 5395,
      "ન્ટ્સ": 5396,
      "▁નિરી": 5397,
      "▁વિકલ્પ": 5398,
      "▁સામયિક": 5399,
      "▁તિરુ": 5400,
      "▁ખરીદ": 5401,
      "▁ઇંગ્લેંડ": 5402,
      "▁પુરૂષ": 5403,
      "▁આંધ્ર": 5404,
      "પક્ષ": 5405,
      "૫ના": 5406,
      "▁વ્ર": 5407,
      "રા,": 5408,
      "લાની": 5409,
      "▁સાઉ": 5410,
      "ટીએ": 5411,
      "સાઇ": 5412,
      "▁2003": 5413,
      "જનક": 5414,
      "▁ટીવી": 5415,
      "▁સ્થળો\n": 5416,
      "▁બાળપણ": 5417,
      "▁સપ્તાહ": 5418,
      "▁સાધનો": 5419,
      "▁ભરતી": 5420,
      "▁કેરળ": 5421,
      "44": 5422,
      "યી": 5423,
      "▁સાગર": 5424,
      "▁એકે": 5425,
      "જીને": 5426,
      "્રેડ": 5427,
      "▁ક્ષેત્રો": 5428,
      "▁આર્ય": 5429,
      "▁બાજુએ": 5430,
      "▁નાટકો": 5431,
      "▁પુરુષો": 5432,
      "▁વિદ્વાનો": 5433,
      "▁પ્રદર્શિત": 5434,
      "ત\n": 5435,
      "માર્": 5436,
      "▁આઉટ": 5437,
      "▁મિન": 5438,
      "▁મણિ": 5439,
      "▁બાયો": 5440,
      "ામે": 5441,
      "▁વિખ્યાત": 5442,
      "▁ચુક": 5443,
      "લીની": 5444,
      "▁નાઝી": 5445,
      "▁ઉપદેશ": 5446,
      "▁સીધી": 5447,
      "▁સંગ્રહાલય": 5448,
      "▁દુધ": 5449,
      "▁ફોન": 5450,
      "ર્ષક": 5451,
      "▁60": 5452,
      "▁જણાવ્યા": 5453,
      "▁વહેવાર": 5454,
      "▁પાડવા": 5455,
      "▁કલકત્તા": 5456,
      "▁ભેદ": 5457,
      "ધારિત": 5458,
      "▁સંતરામ": 5459,
      "▁વિગતો": 5460,
      "▁બ્લૂઝ": 5461,
      "▁મતે": 5462,
      "▁હર્ષ": 5463,
      "▁ડચ": 5464,
      "▁સમ્": 5465,
      "▁વાંસ": 5466,
      "▁પ્રાકૃતિક": 5467,
      "▁ઈતિહાસ": 5468,
      "▁પેજ": 5469,
      "▁પ્રદેશો": 5470,
      "▁વ્યાપારી": 5471,
      "▁થયું.\n": 5472,
      "▁આશ્ર": 5473,
      "▁એક્સપ્રેસ": 5474,
      "▁ચેમ્પિયન": 5475,
      "ત્વાકર્ષ": 5476,
      "કિંગ": 5477,
      "ઝુ": 5478,
      "▁હાર્ડ": 5479,
      "▁કરતું": 5480,
      "▁કેટ": 5481,
      "▁પાટન": 5482,
      "▁વ્યકિત": 5483,
      "▁લાઈ": 5484,
      "▁જિલ્લાની": 5485,
      "▁૨૦૧૦૦": 5486,
      "▁ઝિ": 5487,
      "▁પ્રતિભા": 5488,
      "▁શ્રેણીમાં": 5489,
      "▁પ્રિન્સ": 5490,
      "▁અદાલ": 5491,
      "▁ચુંટણી": 5492,
      "▁લઘુ": 5493,
      "પ્પણી": 5494,
      "▁કટોકટી": 5495,
      "▁ધરપકડ": 5496,
      "તનો": 5497,
      "▁અમા": 5498,
      "▁ઓલિ": 5499,
      "▁૨૦૦૦": 5500,
      "▁વધે": 5501,
      "બાજુ": 5502,
      "▁૩૧": 5503,
      "નુમાન": 5504,
      "▁ગૌણ": 5505,
      "▁ધ્રુવીય": 5506,
      "▁તહેવાર": 5507,
      "કતા": 5508,
      "▁વળી": 5509,
      "▁હરી": 5510,
      "સ્વતી": 5511,
      "▁સાગ": 5512,
      "▁ઘાસ": 5513,
      "▁બાગ": 5514,
      "▁સેન્ટ્ર": 5515,
      "નિશ": 5516,
      "ક્સ\n": 5517,
      "▁આપી.": 5518,
      "▁રમતો": 5519,
      "▁ગુણધર્મ": 5520,
      "▁ભાવના": 5521,
      "▁૨૦૦૮૦": 5522,
      "▁નિયુક્ત": 5523,
      "9,": 5524,
      "લગ્ન": 5525,
      "વની": 5526,
      "વાંટ": 5527,
      "▁ભાગો": 5528,
      "▁જાગ": 5529,
      "▁જાતે": 5530,
      "▁નિશ્ચિત": 5531,
      "▁નેશન્સ": 5532,
      "▁બનાવ્યા": 5533,
      "▁થયેલો": 5534,
      "રિસ": 5535,
      "▁સૂત્ર": 5536,
      "▁મેનેજ": 5537,
      "▁ઉછેર": 5538,
      "▁વ્યાવસાયિક": 5539,
      "પની": 5540,
      "▁કોમ્પ્યુ": 5541,
      "▁ડેરી,": 5542,
      "▁વિશ્વભરમાં": 5543,
      "▁મ્યુઝિક": 5544,
      "▁સિક": 5545,
      "▁મસા": 5546,
      "▁લૂ": 5547,
      "▁ઉકેલ": 5548,
      "લ્લો": 5549,
      "▁સાઇ": 5550,
      "▁ઇમા": 5551,
      "▁યુવા": 5552,
      "▁વેચી": 5553,
      "▁કર્યો.\n": 5554,
      "▁મંદિરમાં": 5555,
      "▁લાંબો": 5556,
      "▁વિભાગમાં": 5557,
      "બંધીય": 5558,
      "▁સમ્રાટ": 5559,
      "67": 5560,
      "એક": 5561,
      "કંપ": 5562,
      "▁અખા": 5563,
      "નીયા": 5564,
      "▁હાસ": 5565,
      "▁ગાળ": 5566,
      "▁આપ્યું.": 5567,
      "વિન": 5568,
      "્યુઅલ": 5569,
      "યેલો": 5570,
      "▁ઈશ્વર": 5571,
      "▁જન્મ\n": 5572,
      "▁મોટાભાગની": 5573,
      "▁બોટાદ": 5574,
      "▁નાનો": 5575,
      "▁કોષ": 5576,
      "▁વાદ": 5577,
      "દ્દ": 5578,
      "▁વર્મોન્ટ": 5579,
      "▁સિગ્ન": 5580,
      "▁ઈન": 5581,
      "▁ટ્": 5582,
      "▁શક્યા": 5583,
      "▁મંદિરની": 5584,
      "▁સંપૂર્ણપણે": 5585,
      "▁સિક્કિમ": 5586,
      "ખ્યાય": 5587,
      "રંજન": 5588,
      "ુર": 5589,
      "૯૦": 5590,
      "▁પથ": 5591,
      "▁પબ્લિક": 5592,
      "▁પ્રતીક": 5593,
      "▁રાઉ": 5594,
      "▁એકમ": 5595,
      "▁સુપ": 5596,
      "▁નીક": 5597,
      "▁રેનો": 5598,
      "▁યુદ્ધના": 5599,
      "▁બંધા": 5600,
      "▁ફિલ્મોમાં": 5601,
      "▁તુલ": 5602,
      "▁જોઇએ.": 5603,
      "▁અગાઉના": 5604,
      "▁છૂટ": 5605,
      "▁આકર્ષણ": 5606,
      "▁કોમ્યુ": 5607,
      "▁એન્જિનિયરિંગ": 5608,
      "!\n": 5609,
      "વૃત્તિ": 5610,
      "સમી": 5611,
      "૭૦": 5612,
      "▁છે?": 5613,
      "ંગ,": 5614,
      "▁મુઘ": 5615,
      "ડીના": 5616,
      "▁હોસ્પિટ": 5617,
      "દ્રો": 5618,
      "▁કર્યો,": 5619,
      "▁કરાયેલા": 5620,
      "▁વ્યક્તિઓ": 5621,
      "ચિત્રો": 5622,
      "▁પ્રમાણે,": 5623,
      "▁અમદાવાદમાં": 5624,
      "▁માણસો": 5625,
      "▁સ્કોટલેન્ડ": 5626,
      "▁બિઝનેસ": 5627,
      "▁પાટનગર": 5628,
      "1\n": 5629,
      "ધિકાર": 5630,
      "નિય": 5631,
      "▁આજુ": 5632,
      "રાદ": 5633,
      "તી,": 5634,
      "તી.": 5635,
      "▁રસો": 5636,
      "ાળુ": 5637,
      "રેજ": 5638,
      "▁સુખ": 5639,
      "▁ગોધરા": 5640,
      "▁ઉત્તરમાં": 5641,
      "▁મહાકા": 5642,
      "▁દિલ્હીમાં": 5643,
      "▁સંચાલિત": 5644,
      "ખ્ત": 5645,
      "▁પાયદળ": 5646,
      "▁સિનેમા": 5647,
      "પશ્ચિમ": 5648,
      "▁અહી": 5649,
      "વાલો": 5650,
      "▁મધુ": 5651,
      "▁બાય": 5652,
      "▁પ્રાર્થ": 5653,
      "▁વિતર": 5654,
      "▁સાચી": 5655,
      "▁નાઇ": 5656,
      "▁રાષ્ટ્રસંઘ": 5657,
      "▁ત્યાંથી": 5658,
      "▁સિદ્ધાંતો": 5659,
      "▁અરબી": 5660,
      "▁માર્ગો": 5661,
      "▁ચક્રવા": 5662,
      "▁સ્ટુ": 5663,
      "▁યાદીમાં": 5664,
      "▁કાઉન્સી": 5665,
      "▁ગૂવેરા": 5666,
      "▁શાસ્ત્રીય": 5667,
      "ષે": 5668,
      "▁અણ": 5669,
      "▁મરી": 5670,
      "રીક": 5671,
      "▁પ્રોડ": 5672,
      "▁માઈ": 5673,
      "▁મારો": 5674,
      "▁3,": 5675,
      "દિરા": 5676,
      "▁બળવા": 5677,
      "▁લડાઇ": 5678,
      "▁આત્મકથા": 5679,
      "ખ્યાયિત": 5680,
      "મું": 5681,
      "▁પ્રદૂ": 5682,
      "▁વાળી": 5683,
      "▁હાઇડ": 5684,
      "ર્ષિ": 5685,
      "▁ઉદ્યા": 5686,
      "▁બાકીના": 5687,
      "▁ઈન્ડિયા": 5688,
      "▁પ્રેરણા": 5689,
      "▁પાળ": 5690,
      "▁શંક": 5691,
      "ત્ત્વ": 5692,
      "▁નાખી": 5693,
      "બી.": 5694,
      "▁આરંભ": 5695,
      "▁આરોપ": 5696,
      "▁સંપાદક": 5697,
      "▁માણસ": 5698,
      "▁કારકિર્દી\n": 5699,
      "▁મુશ્કેલ": 5700,
      "નેશન": 5701,
      "▁વયે": 5702,
      "▁પ્રકરણ": 5703,
      "ત્રે": 5704,
      "▁ફ્": 5705,
      "▁આપને": 5706,
      "ાર્ધ": 5707,
      "▁હેન": 5708,
      "▁સ્વચ્છ": 5709,
      "▁૨૦૦૯\n": 5710,
      "▁ટ્રસ્ટ": 5711,
      "▁પડ્યો": 5712,
      "▁ઉદય": 5713,
      "▁૪૦": 5714,
      "▁મહિનામાં": 5715,
      "▁તળાજા": 5716,
      "▁સાંભળ": 5717,
      "વક": 5718,
      "ૃષ્ટિ": 5719,
      "ંદી": 5720,
      "ારીરિક": 5721,
      "▁રાષ્ટ્રવાદી": 5722,
      "▁શિખ": 5723,
      "વાસીઓ": 5724,
      "▁પુરવ": 5725,
      "▁૨૦૨૨\n": 5726,
      "▁વાહનો": 5727,
      "▁જણાય": 5728,
      "▁પારિતોષ": 5729,
      "▁ઓપરેશન": 5730,
      "13": 5731,
      "શ્રે": 5732,
      "▁આચાર્ય": 5733,
      "▁શંકા": 5734,
      "▁પ્રાય": 5735,
      "ંગલ": 5736,
      "▁ફર્": 5737,
      "રેખા": 5738,
      "▁જોવામાં": 5739,
      "રુપ": 5740,
      "▁ભગવ": 5741,
      "▁પરીક્ષણ": 5742,
      "▁કંઈ": 5743,
      "▁વિવેચ": 5744,
      "▁ક્લિન્ટ": 5745,
      "કટ": 5746,
      "૧૬": 5747,
      "▁અભાવ": 5748,
      "▁હનુમાન": 5749,
      "▁ઉપખંડ": 5750,
      "બ્દી": 5751,
      "▁દેસાઈ": 5752,
      "▁અમલ": 5753,
      "▁મોકલવામાં": 5754,
      "▁ઉમર": 5755,
      "▁બ્રોડ": 5756,
      "▁ગઝલ": 5757,
      "▁અર્જુન": 5758,
      "▁સાબરકાંઠા": 5759,
      "પૂત": 5760,
      "સ્વા": 5761,
      "▁ઉર્જા": 5762,
      "▁થોડ": 5763,
      "લીમાં": 5764,
      "▁વેરા": 5765,
      "▁અનુકૂ": 5766,
      "▁પંચાયતઘર": 5767,
      "▁ચીનના": 5768,
      "▁શુક્ર": 5769,
      "▁ગયો.": 5770,
      "8,": 5771,
      "▁સત્યા": 5772,
      "▁કૅ": 5773,
      "કો\n": 5774,
      "▁ઉત્તરા": 5775,
      "▁વર્ષથી": 5776,
      "▁35": 5777,
      "▁માનવી": 5778,
      "▁કિરણ": 5779,
      "▁ત્રણે": 5780,
      "▁શિવા": 5781,
      "▁થોડો": 5782,
      "▁જીવંત": 5783,
      "▁સંકેત": 5784,
      "▁નર્મદા": 5785,
      "ામુખી": 5786,
      "▁પોર્ટુગીઝ": 5787,
      "▁વ્યુત્": 5788,
      "▁સેન્ટ્રલ": 5789,
      "કલા": 5790,
      "▁જટ": 5791,
      "▁એરિયા": 5792,
      "▁એકાદ": 5793,
      "▁શિલ્": 5794,
      "▁લિંગ": 5795,
      "ત્તમ": 5796,
      "▁થકી": 5797,
      "▁ડ્રા": 5798,
      "રોનો": 5799,
      "▁હતાં,": 5800,
      "▁મોનો": 5801,
      "▁નદીઓ": 5802,
      "▁ડોલ": 5803,
      "▁માતાપિ": 5804,
      "▁પુરાવા": 5805,
      "▁ફિલા": 5806,
      "▁બનાવવાની": 5807,
      "▁2006માં": 5808,
      "▁અક્ષર": 5809,
      "▁નિકાસ": 5810,
      "64": 5811,
      "શક્તિ": 5812,
      "રાસ": 5813,
      "વો,": 5814,
      "▁સરસ્વતી": 5815,
      "વર્ધન": 5816,
      "▁તાજ": 5817,
      "▁સુધીની": 5818,
      "▁શાળાઓ": 5819,
      "▁પી.": 5820,
      "▁ઉપરથી": 5821,
      "▁મહારાજ": 5822,
      "▁પાકિસ્તાનના": 5823,
      "▁બગીચા": 5824,
      "વર,": 5825,
      "▁તૈ": 5826,
      "▁બચ્ચ": 5827,
      "િકી": 5828,
      "ત્રેય": 5829,
      "▁મેસો": 5830,
      "▁ડેમો": 5831,
      "▁ક્ષત્ર": 5832,
      "▁બ્રિટન": 5833,
      "▁મહેલ": 5834,
      "▁ઘટનાઓ\n": 5835,
      "▁આદિવાસીઓ": 5836,
      "▁બોલીનો": 5837,
      "▁રાખીને": 5838,
      "▁ધારણા": 5839,
      "▁પ્રશ્ન": 5840,
      "▁૨૦૦૭૦": 5841,
      "▁કિંગડમ": 5842,
      "▁આતંકવાદ": 5843,
      "▁ઉર્દૂ": 5844,
      "▁વલ્લભ": 5845,
      "ણનો": 5846,
      "▁કઠ": 5847,
      "વાળો": 5848,
      "િયત": 5849,
      "▁કે.": 5850,
      "▁એકમો": 5851,
      "ટાઉ": 5852,
      "▁તેઓને": 5853,
      "▁પીપ": 5854,
      "વાનગી": 5855,
      "▁આદિવાસીઓની": 5856,
      "▁શાસ્ત્રી": 5857,
      "▁એટલાન્ટા": 5858,
      "▁વિલિયમ": 5859,
      "▁ઇલેક્ટ્રો": 5860,
      "પ,": 5861,
      "▁ક્રા": 5862,
      "▁અસ્થ": 5863,
      "▁તૂ": 5864,
      "▁શારીરિક": 5865,
      "▁નજર": 5866,
      "▁વિર": 5867,
      "રિટી": 5868,
      "▁નદીની": 5869,
      "▁ધર્મમાં": 5870,
      "▁જોડાયેલ": 5871,
      "▁સરળતાથી": 5872,
      "▁રસાયણ": 5873,
      "ગારી": 5874,
      "▁ડબલ્યુ": 5875,
      "▁હોસ્ટ": 5876,
      "▁ઇચ્છ": 5877,
      "▁વર્તન": 5878,
      "▁મેળવ્યો": 5879,
      "▁અલય": 5880,
      "▁વ્યાખ્યાયિત": 5881,
      "▁દેવતા": 5882,
      "▁અંગેના": 5883,
      "▁પરીક્ષા": 5884,
      "બાઈલ": 5885,
      "▁જંગલમાંથી": 5886,
      "▁ઘાટ": 5887,
      "૮ના": 5888,
      "▁અરુ": 5889,
      "ન્કો": 5890,
      "▁રદ": 5891,
      "▁લખ્યા": 5892,
      "▁ખસે": 5893,
      "ાંક": 5894,
      "ક્ષક": 5895,
      "▁વાચ": 5896,
      "▁ચેનલ": 5897,
      "▁ડાઉન": 5898,
      "▁સમુરાઇ": 5899,
      "ટ્રોલ": 5900,
      "▁2005માં": 5901,
      "▁ઈન્ડિયન": 5902,
      "▁અડીને": 5903,
      "▁જેમ્સ": 5904,
      "▁ચૈ": 5905,
      "તિના": 5906,
      "ાસત્તા": 5907,
      "▁વેચ": 5908,
      "▁ક્ષય": 5909,
      "▁૧૮૪": 5910,
      "▁જાણીતો": 5911,
      "▁કંપનીના": 5912,
      "વાયા": 5913,
      "▁મૃ": 5914,
      "ન્ડી": 5915,
      "▁માસ": 5916,
      "▁ફાર": 5917,
      "▁મેદા": 5918,
      "વિષ્ટ": 5919,
      "▁ભાષાઓમાં": 5920,
      "▁સોલ": 5921,
      "▁૨૦૦૬": 5922,
      "▁લખપત": 5923,
      "▁સાહિત્યિક": 5924,
      "▁સેનાની": 5925,
      "▁સ્ટેટ્સમાં": 5926,
      "▁ટુર્ના": 5927,
      "▁પ્લેટ": 5928,
      "▁કોન્ડોમ": 5929,
      "▁કોશિકા": 5930,
      "▁અપેક્ષા": 5931,
      "ઠું": 5932,
      "ડ્સ": 5933,
      "નમ": 5934,
      "▁ઉગા": 5935,
      "▁ઘટી": 5936,
      "રૂપો": 5937,
      "▁શહેરને": 5938,
      "▁પિરા": 5939,
      "▁ગીતા": 5940,
      "▁નહીં,": 5941,
      "▁કાઉન્સિલ": 5942,
      "▁સાર્વભૌ": 5943,
      "દરી": 5944,
      "લક્ષી": 5945,
      "▁ઉઠા": 5946,
      "▁ખગોળ": 5947,
      "ડીપી": 5948,
      "▁ઓરિ": 5949,
      "▁૨૦૧૧": 5950,
      "▁ટેક્સ": 5951,
      "પેક્ષ": 5952,
      "વવાનું": 5953,
      "▁દુકા": 5954,
      "▁આસામ": 5955,
      "▁ફિલાડે": 5956,
      "ધે": 5957,
      "૪ના": 5958,
      "લાહો": 5959,
      "િકે": 5960,
      "▁રસી": 5961,
      "કાર્ય": 5962,
      "ંદન": 5963,
      "▁ઇસ્ટ": 5964,
      "▁રોયલ": 5965,
      "▁નીચા": 5966,
      "▁માનતા": 5967,
      "ડોશી": 5968,
      "▁પૈસા": 5969,
      "બોર્ડ": 5970,
      "ર્સ,": 5971,
      "ંભાળ": 5972,
      "▁ક્લ": 5973,
      "▁ગાંધીનગર": 5974,
      "▁રિપબ્લિક": 5975,
      "▁અરજી": 5976,
      "▁સંભવિત": 5977,
      "▁ફુગા": 5978,
      "▁ગાંધીજીએ": 5979,
      "▁નાગલી,": 5980,
      "▁સરખામણીમાં": 5981,
      "▁ફાઇનલમાં": 5982,
      "▁ચૅપ્": 5983,
      "દક્ષિ": 5984,
      "શ,": 5985,
      "સન્સ": 5986,
      "▁મું": 5987,
      "દ્દા": 5988,
      "▁ભારતનાં": 5989,
      "▁વર્તુ": 5990,
      "ન્ડે": 5991,
      "▁લખવામાં": 5992,
      "▁રિસર્ચ": 5993,
      "▁છો.": 5994,
      "▁માતાજી": 5995,
      "▁ગયું.": 5996,
      "▁શ્વે": 5997,
      "▁ઓકટોબર": 5998,
      "મહાલ": 5999,
      "▁અબ્દ": 6000,
      "▁બરા": 6001,
      "▁શતા": 6002,
      "▁પ્રજ": 6003,
      "સ્ફ": 6004,
      "▁ચમ": 6005,
      "▁મોબાઇલ": 6006,
      "▁લેતા": 6007,
      "▁લેવાય": 6008,
      "▁રાજ્યનું": 6009,
      "સ્ટિક": 6010,
      "▁૨૦૧૬\n": 6011,
      "▁હેમ": 6012,
      "▁ગોળા": 6013,
      "▁મિશન": 6014,
      "▁પ્રોટી": 6015,
      "▁અધિકારો": 6016,
      "▁પ્રેસ": 6017,
      "▁1980": 6018,
      "▁જાતિના": 6019,
      "સિંહજી": 6020,
      "▁મિશ્રણ": 6021,
      "▁છીએ": 6022,
      "▁ટ્યુબ": 6023,
      "▁જાપાની": 6024,
      "▁મ્યુનિસિપલ": 6025,
      "77": 6026,
      "શનો": 6027,
      "ારામ": 6028,
      "▁વિજ": 6029,
      "▁થરાદ": 6030,
      "▁૧.": 6031,
      "લોન": 6032,
      "▁૨૦૧૧૦": 6033,
      "▁ગોંડલ": 6034,
      "▁માનસિક": 6035,
      "▁જીવનમાં": 6036,
      "▁આપીને": 6037,
      "▁પુરાત": 6038,
      "▁ટેલિવિઝન": 6039,
      "▁નં.": 6040,
      "▁પંડિત": 6041,
      "▁કાનૂની": 6042,
      "▁ગ્લોબલ": 6043,
      "▁પ્રાર્થના": 6044,
      "▁અલયહિ": 6045,
      "ંટી": 6046,
      "રિયન": 6047,
      "િપ": 6048,
      "▁અચ": 6049,
      "▁અળવી": 6050,
      "▁હસ્તા": 6051,
      "▁ગિ": 6052,
      "▁ભવ્ય": 6053,
      "▁કરું": 6054,
      "▁જેલમાં": 6055,
      "ાનક": 6056,
      "▁કોલે": 6057,
      "રેક્ટ": 6058,
      "▁મેરે": 6059,
      "▁દરબાર": 6060,
      "બાની": 6061,
      "▁સમાજના": 6062,
      "▁રાખ્યું": 6063,
      "▁આમંત્ર": 6064,
      "▁દ્રવ્ય": 6065,
      "▁આંખ": 6066,
      "▁પર્વતમાળાના": 6067,
      "▁ગિરનાર": 6068,
      "9માં": 6069,
      "પત્તિ": 6070,
      "▁કન્યા": 6071,
      "▁મથ": 6072,
      "▁મદ્ર": 6073,
      "▁ગાર્ડ": 6074,
      "▁વિસા": 6075,
      "કાર્": 6076,
      "યા,": 6077,
      "▁લેવાની": 6078,
      "▁પડકાર": 6079,
      "▁ફૂલ": 6080,
      "▁ભેજ": 6081,
      "▁છાપ": 6082,
      "▁તબીબી": 6083,
      "રીયન": 6084,
      "▁મેગે": 6085,
      "▁યુવાન": 6086,
      "સેના": 6087,
      "વરણીય": 6088,
      "▁રજવાડ": 6089,
      "▁વલણ": 6090,
      "વાળું": 6091,
      "▁ટુકડી": 6092,
      "ર્મિંગહામ": 6093,
      "▁હાઇડ્રો": 6094,
      "ગન": 6095,
      "ર્કી": 6096,
      "સ્ફો": 6097,
      "▁થશે.": 6098,
      "▁ગામો": 6099,
      "▁હોમ": 6100,
      "▁ખાલી": 6101,
      "▁અવકાશી": 6102,
      "▁આંદોલન": 6103,
      "▁રીસીવર": 6104,
      "▁આજુબાજુ": 6105,
      "બ્ર": 6106,
      "▁આલેખ": 6107,
      "▁હિલ": 6108,
      "▁માય": 6109,
      "▁પાછી": 6110,
      "▁ઇરા": 6111,
      "▁ભાગલા": 6112,
      "બ્સ": 6113,
      "▁પંચમહાલ": 6114,
      "▁અમર": 6115,
      "▁ક્લો": 6116,
      "▁લોકશાહી": 6117,
      "▁ઉપરાંત,": 6118,
      "▁વોટર": 6119,
      "▁જંગલી": 6120,
      "▁જૈવિક": 6121,
      "▁ટ્રેન": 6122,
      "▁કર્ણ": 6123,
      "વના": 6124,
      "વ્યુ": 6125,
      "▁વસ્ત્ર": 6126,
      "▁બધાં": 6127,
      "▁પરવાનગી": 6128,
      "▁ઝુ": 6129,
      "▁બહુમતી": 6130,
      "▁પ્રદેશોમાં": 6131,
      "▁અંશ": 6132,
      "▁188": 6133,
      "▁તૈયારી": 6134,
      "▁દંતકથા": 6135,
      "▁રામાયણ": 6136,
      "▁પાયે": 6137,
      "ન્ઝ": 6138,
      "▁મોડ": 6139,
      "સાથે": 6140,
      "▁રોબર્ટ": 6141,
      "ારીત": 6142,
      "▁કાફ": 6143,
      "▁માન્ય": 6144,
      "પેદા": 6145,
      "▁ભલામણ": 6146,
      "પમેન્ટ": 6147,
      "વંત": 6148,
      "હાન": 6149,
      "હાઇ": 6150,
      "▁બર્મિંગહામ": 6151,
      "▁સાઇટ": 6152,
      "કાઇ": 6153,
      "▁આપતી": 6154,
      "સામાન્ય": 6155,
      "શાહ": 6156,
      "▁કાચ": 6157,
      "▁અધ્યા": 6158,
      "▁પ્રજાતિઓ": 6159,
      "▁પુણેમાં": 6160,
      "▁ફિલાડેલ્ફ": 6161,
      "▁માર્ક": 6162,
      "▁ચતુ": 6163,
      "લીઝ": 6164,
      "▁ફ્લા": 6165,
      "▁મોદી": 6166,
      "▁આપવાનો": 6167,
      "▁મેળવવામાં": 6168,
      "▁ટાઇમ": 6169,
      "▁અમેરિકાની": 6170,
      "▁મહત્તમ": 6171,
      "▁આફ્રિકામાં": 6172,
      "▁દુર્યો": 6173,
      "▁મેડિકલ": 6174,
      "વતો": 6175,
      "▁પાયો": 6176,
      "વાણી": 6177,
      "▁છેલ્લી": 6178,
      "▁ઘરમાં": 6179,
      "ટ્રા": 6180,
      "વિલ": 6181,
      "▁પોઇન્ટ": 6182,
      "પ્લે": 6183,
      "▁સમયની": 6184,
      "▁ટેલી": 6185,
      "▁અહીંની": 6186,
      "્યૂટ": 6187,
      "▁મહિનાનો": 6188,
      "▁જ્વાળ": 6189,
      "▁સંતરામપુર": 6190,
      "54": 6191,
      "વને": 6192,
      "શૈ": 6193,
      "▁સવારે": 6194,
      "વાણ": 6195,
      "▁ભેટ": 6196,
      "કાત": 6197,
      "▁ઓવર": 6198,
      "▁વાઇ": 6199,
      "▁ટાઉન": 6200,
      "લિકો": 6201,
      "▁ગાદી": 6202,
      "▁2007ના": 6203,
      "▁2008ના": 6204,
      "▁પ્રશ્નો": 6205,
      "▁મેનહ": 6206,
      "▁ગવર્નર": 6207,
      "▁પંચાંગ": 6208,
      "▁કેલિફોર્ન": 6209,
      "▁નીકળી": 6210,
      "▁ગયેલા": 6211,
      "વેલા": 6212,
      "ક્કા": 6213,
      "રેલ": 6214,
      "▁બાઇ": 6215,
      "્યુલ": 6216,
      "સેફ": 6217,
      "▁પીડી": 6218,
      "▁સૂચન": 6219,
      "▁સાહિત્યકાર": 6220,
      "▁સમાજમાં": 6221,
      "▁મંત્રાલય": 6222,
      "વં": 6223,
      "શળ": 6224,
      "▁સળ": 6225,
      "▁સારો": 6226,
      "લાસ": 6227,
      "▁મુનિ": 6228,
      "▁ગામનાં": 6229,
      "▁ગુણો": 6230,
      "▁રોગો": 6231,
      "▁જુન": 6232,
      "▁રજુ": 6233,
      "▁માતાનું": 6234,
      "▁માધ્યમો": 6235,
      "▁પંજાબી": 6236,
      "▁ઉંમર": 6237,
      "▁જ્હોન": 6238,
      "ભિ": 6239,
      "ળ\n": 6240,
      "શિયલ": 6241,
      "▁સહી": 6242,
      "▁અટક": 6243,
      "▁બૉ": 6244,
      "ક્ટે": 6245,
      "▁સ્વિ": 6246,
      "▁ફ઼": 6247,
      "▁જાતીય": 6248,
      "▁નિરૂપ": 6249,
      "▁1950": 6250,
      "▁સમાવિષ્ટ": 6251,
      "▁ભાષાની": 6252,
      "▁સંસ્કરણ": 6253,
      "▁મેળવ્યું": 6254,
      "▁ટાઇટ": 6255,
      "▁ડીસા": 6256,
      "▁દ્રશ્ય": 6257,
      "▁ઔપચારિક": 6258,
      "▁શિયાળા": 6259,
      "▁બ્રહ્માંડ": 6260,
      "ેન્દ્ર": 6261,
      "▁સલ્": 6262,
      "▁બાર્": 6263,
      "▁ભરૂ": 6264,
      "ંગે": 6265,
      "▁આપો": 6266,
      "ન્ટિક": 6267,
      "▁સેલ": 6268,
      "▁કુમા": 6269,
      "▁નામો": 6270,
      "▁માનવીય": 6271,
      "▁પહોંચે": 6272,
      "▁ગાઢ": 6273,
      "▁કોલકા": 6274,
      "▁ગ્રહો": 6275,
      "▁સરખામણીએ": 6276,
      "શાસિત": 6277,
      "▁ત્યાગ": 6278,
      "▁મદ્રાસ": 6279,
      "ષિત": 6280,
      "ષ્યો": 6281,
      "▁સચિ": 6282,
      "▁માની": 6283,
      "▁સંવેદન": 6284,
      "રેબ": 6285,
      "▁આવતાં": 6286,
      "▁સુલ": 6287,
      "▁ઈરા": 6288,
      "▁ટિક": 6289,
      "સ્તાન": 6290,
      "▁સ્વાસ્થ": 6291,
      "▁બુદ્ધિ": 6292,
      "લ્લાહુ": 6293,
      "▁ઉજવણીઓ\n": 6294,
      "▁હતુ.": 6295,
      "▁ઓર્લા": 6296,
      "▁મુઘલ": 6297,
      "▁જટિલ": 6298,
      "▁સખત": 6299,
      "▁એશિયન": 6300,
      "▁માછી": 6301,
      "▁સાન": 6302,
      "▁ફાર્": 6303,
      "ાલે": 6304,
      "▁સમાર": 6305,
      "▁બનાવ્યું": 6306,
      "▁પહેલો": 6307,
      "▁સ્ટેડિયમ": 6308,
      "▁ગણના": 6309,
      "વિધિ": 6310,
      "િયોજના": 6311,
      "▁ટોચના": 6312,
      "▁જાન્યુઆરી,": 6313,
      "▁એશિયામાં": 6314,
      "▁પ્લાન્ટ": 6315,
      "▁તાજેતરના": 6316,
      "▁ઓસ્ટ્રેલિયા": 6317,
      "▁ઘોષણા": 6318,
      "▁તાંજાવુર": 6319,
      "▁ટુર્નામેન્ટ": 6320,
      "▁બરાબર": 6321,
      "બળો": 6322,
      "૯ના": 6323,
      "▁પરાજ": 6324,
      "▁કઈ": 6325,
      "▁પ્રણ": 6326,
      "▁માઇલ": 6327,
      "▁વિભ": 6328,
      "▁સંલગ્ન": 6329,
      "પ્ટ": 6330,
      "સ્ટિ": 6331,
      "▁અમલમાં": 6332,
      "▁મેળો": 6333,
      "▁ખોરા": 6334,
      "▁વાર્તાઓ": 6335,
      "▁આફ્રિકન": 6336,
      "▁પ્રતિક્રિયા": 6337,
      "▁મૌર્ય": 6338,
      "▁સલ્લલ્લાહુ": 6339,
      "▁મોઢવાડીયાચર્ચાયોગદાન": 6340,
      "પદી": 6341,
      "▁આંત": 6342,
      "▁બહો": 6343,
      "▁નિકો": 6344,
      "▁હોવું": 6345,
      "▁પાનાં": 6346,
      "▁દેહ": 6347,
      "ગ્રામ": 6348,
      "▁ચેત": 6349,
      "▁થઇને": 6350,
      "▁થોમસ": 6351,
      "▁મતદાન": 6352,
      "▁વિકિપીડિયામાં": 6353,
      "▁આઈન્સ્ટા": 6354,
      "▁છૂટા": 6355,
      "▁ધારાસ": 6356,
      "▁અખબાર": 6357,
      "▁દત્તાત્રેય": 6358,
      "▁પારિતોષિક": 6359,
      "▁માપદ": 6360,
      "▁વિડિ": 6361,
      "▁જેલ": 6362,
      "▁ખનિ": 6363,
      "ક્રિ": 6364,
      "▁હાઉ": 6365,
      "▁લોકસભા": 6366,
      "▁જોડણી": 6367,
      "▁ઓક્લાહો": 6368,
      "▁કોલેજ,": 6369,
      "▁દેખરેખ": 6370,
      "▁સ્નાતક": 6371,
      "▁32.8": 6372,
      "▁ગરીબ": 6373,
      "▁જથ્થા": 6374,
      "▁સ્ટેનફોર્ડ": 6375,
      "ગર્ભ": 6376,
      "ઝિલ": 6377,
      "ૂળ": 6378,
      "મા\n": 6379,
      "▁વરાળ": 6380,
      "▁બુક": 6381,
      "▁ભંગ": 6382,
      "તો.": 6383,
      "▁ભારતનો": 6384,
      "સાની": 6385,
      "▁પોરબ": 6386,
      "▁પૂર્વી": 6387,
      "▁ડિસ્ક": 6388,
      "▁મંદિર\n": 6389,
      "▁ગીચ": 6390,
      "▁મનોરંજન": 6391,
      "વ્યવસ્થા": 6392,
      "▁ઉષ્ણકટિ": 6393,
      "હૂદી": 6394,
      "▁મેનેજમેન્ટ": 6395,
      "▁જ્વાળામુખી": 6396,
      "રીંગ": 6397,
      "▁ભરત": 6398,
      "▁સમજૂ": 6399,
      "▁ભાગવત": 6400,
      "▁મોબાઈલ": 6401,
      "યાની": 6402,
      "▁જીવા": 6403,
      "▁પ્રકારનું": 6404,
      "▁પૂછ": 6405,
      "▁20મી": 6406,
      "▁ફિલ્મફેર": 6407,
      "▁કાર્ને": 6408,
      "▁પાર્શ્વ": 6409,
      "▁મહાનગર": 6410,
      "િયેટર": 6411,
      "▁આયુર્વેદ": 6412,
      "▁ચકાસણી": 6413,
      "▁પિરામિ": 6414,
      "▁ભરૂચ": 6415,
      "કક્ષા": 6416,
      "રખા": 6417,
      "હવેલી": 6418,
      "ીકરણ": 6419,
      "૨૪": 6420,
      "▁અશ્વ": 6421,
      "▁આનું": 6422,
      "▁આહવા": 6423,
      "▁ગ્લા": 6424,
      "ટેક્": 6425,
      "▁નાનું": 6426,
      "▁ડાયો": 6427,
      "▁યુધિ": 6428,
      "ડાને": 6429,
      "▁નિર્મ": 6430,
      "▁અનુમાન": 6431,
      "▁ટેને": 6432,
      "▁જીવનના": 6433,
      "▁સૂક્ષ્મ": 6434,
      "▁નગરહવેલી": 6435,
      "▁ઓળખાતી": 6436,
      "▁વર્ગીકૃત": 6437,
      "▁આખરે": 6438,
      "કલ્પિક": 6439,
      "▁વિક્ટો": 6440,
      "શસ્ત્ર": 6441,
      "૦,": 6442,
      "માળ": 6443,
      "▁અજા": 6444,
      "▁અલ્પ": 6445,
      "▁તપ": 6446,
      "▁રજા": 6447,
      "▁ચિકિ": 6448,
      "▁રાજપૂત": 6449,
      "▁મહર્ષિ": 6450,
      "▁સેમ": 6451,
      "ન્સમાં": 6452,
      "▁જીવનની": 6453,
      "▁કેન્દ્રશાસિત": 6454,
      "▁પૃથ્વીની": 6455,
      "▁વેબસાઈટ": 6456,
      "▁વૈશ્વિકરણ": 6457,
      "▁ધ્વનિ": 6458,
      "▁પથ્થર": 6459,
      "▁મિનિટ": 6460,
      "આન": 6461,
      "પરિ": 6462,
      "▁કણો": 6463,
      "▁વતની": 6464,
      "▁પ્રસ્તુ": 6465,
      "ક્કો": 6466,
      "▁ખવાય": 6467,
      "▁સ્વર્ગ": 6468,
      "▁પાપ": 6469,
      "▁સમજી": 6470,
      "દ્વારા": 6471,
      "વિસ્ત": 6472,
      "▁બેન": 6473,
      "▁નિર": 6474,
      "▁વૈષ્ણ": 6475,
      "હાઉસ": 6476,
      "▁ફર્યા": 6477,
      "▁પૂરક": 6478,
      "▁115.74": 6479,
      "▁પૃથ્વીના": 6480,
      "▁ગૌતમ": 6481,
      "▁પ્રવાસન": 6482,
      "▁કાર્નેગી": 6483,
      "?\n": 6484,
      "અમેર": 6485,
      "ખિત": 6486,
      "જોગ": 6487,
      "ભ્રમણ": 6488,
      "▁અશ": 6489,
      "▁વફા": 6490,
      "ર્ત": 6491,
      "▁ગમે": 6492,
      "▁રસ્તો": 6493,
      "ક્કર": 6494,
      "▁ડભો": 6495,
      "હીન": 6496,
      "▁વ્યારા": 6497,
      "▁બેસ": 6498,
      "▁જિલ્લાનો": 6499,
      "▁૨૦૧૨": 6500,
      "▁અમૃત": 6501,
      "▁મેળવેલ": 6502,
      "▁૧૮૩": 6503,
      "▁પ્રકારનો": 6504,
      "▁સહમત": 6505,
      "▁નોંધા": 6506,
      "▁અંશે": 6507,
      "▁જોડાયેલું": 6508,
      "▁ઊંચો": 6509,
      "▁સૂર્યમંડળ": 6510,
      "ંસક": 6511,
      "▁નકશા": 6512,
      "▁ફ્રાં": 6513,
      "▁શતાબ્દી": 6514,
      "▁યુધિષ્ઠ": 6515,
      "66": 6516,
      "▁તલ": 6517,
      "▁વન્ય": 6518,
      "▁હઝ": 6519,
      "▁દાળ": 6520,
      "▁ચામ": 6521,
      "▁રાત્રે": 6522,
      "▁એકઠી": 6523,
      "કે,": 6524,
      "▁ધુ": 6525,
      "▁ધરી": 6526,
      "▁ઇઝ": 6527,
      "▁આપના": 6528,
      "▁વૈકલ્પિક": 6529,
      "▁0.": 6530,
      "▁વિચારધારા": 6531,
      "▁ઘટનાઓ": 6532,
      "સૂત્ર": 6533,
      "ષ્ટિકોણ": 6534,
      "વનો": 6535,
      "▁કણ": 6536,
      "▁મઠ": 6537,
      "સ્તે": 6538,
      "▁બાલા": 6539,
      "▁ઇન્ટ": 6540,
      "▁કરીએ": 6541,
      "▁29": 6542,
      "▁આપવાનું": 6543,
      "દાદ": 6544,
      "▁ઈંગ્": 6545,
      "▁સુધીનો": 6546,
      "બેન": 6547,
      "▁સ્વપ્": 6548,
      "▁દિવસો": 6549,
      "▁હોવાના": 6550,
      "▁ટીમો": 6551,
      "▁શિષ્ય": 6552,
      "▁મંદિરના": 6553,
      "▁લિં": 6554,
      "ગુપ્ત": 6555,
      "ટિક્સ": 6556,
      "▁સારું": 6557,
      "▁મેચમાં": 6558,
      "▁હાંસલ": 6559,
      "▁સાક્ષરતા": 6560,
      "ઘટન": 6561,
      "ઢિ": 6562,
      "વય": 6563,
      "▁બચ": 6564,
      "▁શાંત": 6565,
      "લીંગ": 6566,
      "વિધ્ય": 6567,
      "▁મહો": 6568,
      "પાત": 6569,
      "▁શાળામાં": 6570,
      "▁પરિબળો": 6571,
      "▁સરકારને": 6572,
      "▁બનેલો": 6573,
      "▁પારંપ": 6574,
      "▁તમિલનાડુ": 6575,
      "▁બહેન": 6576,
      "2\n": 6577,
      "મલ": 6578,
      "▁ગ્": 6579,
      "લીશ": 6580,
      "રેલા": 6581,
      "રો\n": 6582,
      "▁૨૦૦૮\n": 6583,
      "▁વચ્ચેનો": 6584,
      "▁અવરોધ": 6585,
      "▁૧૯૪૭": 6586,
      "▁70": 6587,
      "▁પ્રારંભમાં": 6588,
      "▁મહિલાઓ": 6589,
      "▁શક્તિશાળી": 6590,
      "▁સર્જન\n": 6591,
      "નામું": 6592,
      "▁પેટન્ટ": 6593,
      "▁પથ્થ": 6594,
      "શિંગ્": 6595,
      "▁ટિકિટ": 6596,
      "મિત": 6597,
      "▁પત": 6598,
      "▁મૅ": 6599,
      "▁દમણ": 6600,
      "▁રથ": 6601,
      "▁કેમ્બ": 6602,
      "▁થિયેટર": 6603,
      "▁મુસલ": 6604,
      "▁આપણી": 6605,
      "▁વધતી": 6606,
      "સીસી": 6607,
      "▁કરેલું": 6608,
      "પ્પા": 6609,
      "▁હિસ્સા": 6610,
      "▁ભૂકંપ": 6611,
      "▁સ્થળોએ": 6612,
      "વ્યક્તિ": 6613,
      "િસ્તાન": 6614,
      "▁ચંદ્રક": 6615,
      "▁એરિસ્ટો": 6616,
      "▁સાઉથ": 6617,
      "▁થશે": 6618,
      "▁યહૂદી": 6619,
      "ટીમાં": 6620,
      "▁કોચ": 6621,
      "▁આપ્યો.": 6622,
      "▁ગુજરાન": 6623,
      "▁પુરી": 6624,
      "▁જીત્યા": 6625,
      "▁અમલી": 6626,
      "▁દુષ્": 6627,
      "▁કોલેજમાં": 6628,
      "▁એચ.": 6629,
      "▁માંગરોળ": 6630,
      "▁મુકવામાં": 6631,
      "▁કબજો": 6632,
      "▁વીજળી": 6633,
      "▁કોમ્પ્યુટર": 6634,
      "▁પ્રજાસત્તા": 6635,
      "▁પોરબંદર": 6636,
      "ંજના": 6637,
      "કડી": 6638,
      "જણ": 6639,
      "ધ્વ": 6640,
      "રનો": 6641,
      "▁સફર": 6642,
      "▁કૃત": 6643,
      "વાલા": 6644,
      "▁વહન": 6645,
      "▁એઇડ": 6646,
      "▁ચરિત્ર": 6647,
      "▁ઇમાર": 6648,
      "▁ઇજને": 6649,
      "ડાનાં": 6650,
      "▁તાલુકાના": 6651,
      "▁સિન્ડ": 6652,
      "▁સરખા": 6653,
      "▁મૂડી": 6654,
      "એસબી": 6655,
      "▁ચિંત": 6656,
      "▁ઉપરના": 6657,
      "▁ફિલ્મમાં": 6658,
      "▁આમ,": 6659,
      "▁કોર્પો": 6660,
      "▁લીધો.": 6661,
      "▁બજારમાં": 6662,
      "▁ધ્વજ": 6663,
      "▁ડભોઇ": 6664,
      "અશોક": 6665,
      "▁દાર્": 6666,
      "▁પ્રવા": 6667,
      "▁સંભાવના": 6668,
      "▁કોણ": 6669,
      "▁લોર્ડ": 6670,
      "▁જોગ": 6671,
      "સામાં": 6672,
      "પ્રકાશ": 6673,
      "બેરી": 6674,
      "▁હેડ": 6675,
      "▁વિશ્વનું": 6676,
      "પોલિ": 6677,
      "▁057": 6678,
      "▁ગુરુત્વાકર્ષ": 6679,
      "▁ચલાવવામાં": 6680,
      "▁આર્મી": 6681,
      "ઝિકોડ": 6682,
      "▁ઓનલાઇન": 6683,
      "▁ગાળામાં": 6684,
      "▁સંયોજન": 6685,
      "▁સાર્વભૌમ": 6686,
      "4.": 6687,
      "સરા": 6688,
      "▁સવાર": 6689,
      "્યામ": 6690,
      "▁આરા": 6691,
      "વાયું": 6692,
      "▁પ્રભા": 6693,
      "▁લગ્": 6694,
      "િયસ": 6695,
      "જીવી": 6696,
      "▁કોતર": 6697,
      "ડાઓ": 6698,
      "પ્રાય": 6699,
      "▁ખાતરી": 6700,
      "ભાજીત": 6701,
      "▁પાણીનો": 6702,
      "▁આગામી": 6703,
      "▁શરૂઆતના": 6704,
      "▁અર્થા": 6705,
      "▁કાંઠે": 6706,
      "▁પરિવારમાં": 6707,
      "▁તુલનામાં": 6708,
      "▁તરફેણ": 6709,
      "▁નમૂના": 6710,
      "ળું": 6711,
      "▁મંચ": 6712,
      "▁ભલે": 6713,
      "નોલોજી": 6714,
      "▁ચારે": 6715,
      "▁સાફ": 6716,
      "લો,": 6717,
      "▁વાયર": 6718,
      "▁મેળા": 6719,
      "▁ભારત\n": 6720,
      "▁પુલ": 6721,
      "▁રીત": 6722,
      "▁નિવૃત્ત": 6723,
      "▁રહેલ": 6724,
      "▁ફેફ": 6725,
      "વું,": 6726,
      "લિશ": 6727,
      "▁સંસ્કાર": 6728,
      "▁સીપી": 6729,
      "▁દુઃ": 6730,
      "▁ટાગો": 6731,
      "▁જોવાલાયક": 6732,
      "▁લગતી": 6733,
      "▁વસંત": 6734,
      "▁કેન્દ્રમાં": 6735,
      "શાસ્ત્રના": 6736,
      "▁બેકહામ": 6737,
      "▁શિલાલેખ": 6738,
      "ઈના": 6739,
      "▁સર્ચ": 6740,
      "▁અદ્": 6741,
      "િકરણ": 6742,
      "▁માર્યા": 6743,
      "▁માતૃ": 6744,
      "▁ભારતે": 6745,
      "▁ઘડ": 6746,
      "સીસ": 6747,
      "▁આવીને": 6748,
      "યુના": 6749,
      "નિકલ": 6750,
      "▁કરાયેલ": 6751,
      "▁૬૦": 6752,
      "▁ઉત્પાદક": 6753,
      "▁ગેસ": 6754,
      "▁મેળવી.": 6755,
      "▁મતભે": 6756,
      "▁સન્માન\n": 6757,
      "▁વાપરવામાં": 6758,
      "▁મશીન": 6759,
      "▁ભગવદ્": 6760,
      "4\n": 6761,
      "ંબર": 6762,
      "ર\n": 6763,
      "ળ,": 6764,
      "૨૩": 6765,
      "▁લિમિ": 6766,
      "ક્તા": 6767,
      "▁સંહિ": 6768,
      "▁સંજોગ": 6769,
      "શ્શ": 6770,
      "▁બેન્ક": 6771,
      "▁રહેલો": 6772,
      "▁પછીની": 6773,
      "▁કારણે,": 6774,
      "▁વ્યાકરણ": 6775,
      "મુના": 6776,
      "▁શ્રીમ": 6777,
      "▁આગમન": 6778,
      "▁ચાલતી": 6779,
      "▁પદ્ધતિઓ": 6780,
      "▁મુંબઈની": 6781,
      "▁પાંખ": 6782,
      "▁સામ્રાજ્યના": 6783,
      "▁પ્રવૃત્તિઓ": 6784,
      "▁કાશ્મી": 6785,
      "▁મહાભારત": 6786,
      "▁મોડેલ": 6787,
      "▁નોકિયા": 6788,
      "▁વિપરીત": 6789,
      "▁હાસ્ય": 6790,
      "▁તુલસી": 6791,
      "૩ના": 6792,
      "▁ભગત": 6793,
      "▁માફ": 6794,
      "લ્શ": 6795,
      "▁ફટ": 6796,
      "ેશન્સ": 6797,
      "્યો.\n": 6798,
      "▁ઓમ": 6799,
      "દ્વાર": 6800,
      "▁શાળાની": 6801,
      "▁ખાખરા": 6802,
      "▁શહેરનો": 6803,
      "▁189": 6804,
      "▁કાર્ડ": 6805,
      "▁115.6": 6806,
      "▁1970": 6807,
      "▁માર્ગે": 6808,
      "▁કપડાં": 6809,
      "▁ફાટી": 6810,
      "▁એજ્યુ": 6811,
      "▁ઈન્દિરા": 6812,
      "એક્સ": 6813,
      "કસ": 6814,
      "ફના": 6815,
      "▁વુ": 6816,
      "▁થિય": 6817,
      "▁કોઝિકોડ": 6818,
      "▁વાક્ય": 6819,
      "▁કાઠ": 6820,
      "▁સોડિયમ": 6821,
      "▁લેખન": 6822,
      "▁૧૮૦": 6823,
      "▁ગણેશ": 6824,
      "▁સહકાર": 6825,
      "▁વ્યક્તિત્વ": 6826,
      "▁2022": 6827,
      "▁મહાવીર": 6828,
      "▁પક્ષના": 6829,
      "▁જવાહર": 6830,
      "▁સ્તંભ": 6831,
      "▁સ્પેનિશ": 6832,
      "▁સ્રોતો": 6833,
      "▁ભાગીદારી": 6834,
      "ઝની": 6835,
      "મંડ": 6836,
      "રાણ": 6837,
      "▁દાસ": 6838,
      "રીઓ": 6839,
      "▁ભ્ર": 6840,
      "▁કરશે": 6841,
      "▁વિભાજીત": 6842,
      "વીન": 6843,
      "રોહ": 6844,
      "▁રહેલું": 6845,
      "▁૨૦૧૭\n": 6846,
      "િરિ": 6847,
      "▁સંસ્થાન": 6848,
      "▁પ્રોફે": 6849,
      "▁પાછો": 6850,
      "▁વોશિંગ્": 6851,
      "▁પુરું": 6852,
      "▁હેઠળના": 6853,
      "▁તત્કાલીન": 6854,
      "પૂ.": 6855,
      "▁દૃષ્ટિએ": 6856,
      "▁કિસ્સામાં": 6857,
      "▁નહેરુ": 6858,
      "દ્દીન": 6859,
      "▁ઇમારત": 6860,
      "56": 6861,
      "બ્રહ્": 6862,
      "હિલ": 6863,
      "▁જરુ": 6864,
      "▁હૂ": 6865,
      "▁પ્રવર્ત": 6866,
      "▁સાચા": 6867,
      "▁ફિલિ": 6868,
      "▁રાજની": 6869,
      "▁૨.": 6870,
      "▁ભાગ્યે": 6871,
      "િયાત": 6872,
      "▁સેટ": 6873,
      "▁અનુસર": 6874,
      "યુગ": 6875,
      "▁વૈવિધ્ય": 6876,
      "▁અવસ્થા": 6877,
      "▁કાયદેસર": 6878,
      "▁હવાઇ": 6879,
      "▁નિયંત્રિત": 6880,
      "▁કચ્છના": 6881,
      "▁નાયક": 6882,
      "▁સ્મૃતિ": 6883,
      "▁પ્રદૂષણ": 6884,
      "▁ડેમોક્રે": 6885,
      "ડ્": 6886,
      "વડી": 6887,
      "▁પટ્ટા": 6888,
      "▁આહી": 6889,
      "▁વણ": 6890,
      "▁મલય": 6891,
      "▁હક": 6892,
      "▁લક્ષણ": 6893,
      "▁ચડા": 6894,
      "કાના": 6895,
      "કામાં": 6896,
      "ાલિ": 6897,
      "ટી,": 6898,
      "▁ઇટા": 6899,
      "▁વ્યસ્ત": 6900,
      "સેન": 6901,
      "▁બોમ્બ": 6902,
      "▁સ્વરૂપો": 6903,
      "એસપી": 6904,
      "▁ક્ષેત્રફળ": 6905,
      "▁ચેન": 6906,
      "▁પડતો": 6907,
      "શાસ્ત્ર,": 6908,
      "▁2009ના": 6909,
      "ક્ષેપ": 6910,
      "▁બહાદુર": 6911,
      "▁ખાંડ": 6912,
      "પેદાશો": 6913,
      "▁સ્વાસ્થ્ય": 6914,
      "દના": 6915,
      "શર": 6916,
      "માસ": 6917,
      "▁આદ": 6918,
      "▁તમિ": 6919,
      "▁રાજવી": 6920,
      "▁મોક્ષ": 6921,
      "સાહિત્ય": 6922,
      "▁ચોટી": 6923,
      "▁આવ્યું.\n": 6924,
      "▁સૂચિ": 6925,
      "▁લિપિ": 6926,
      "▁રચનાઓ": 6927,
      "▁ભગવા": 6928,
      "▁બાજુમાં": 6929,
      "▁ગ્રાન્ડ": 6930,
      "▁અધિકારીઓ": 6931,
      "▁ગઢડા": 6932,
      "▁પરિચય\n": 6933,
      "▁નિર્માતા": 6934,
      "પૃષ્ઠ": 6935,
      "▁વિસાવદર": 6936,
      "▁ચેતવણી": 6937,
      "ઉં": 6938,
      "ડન": 6939,
      "લ્યા": 6940,
      "▁એક્ટ": 6941,
      "▁કેળ": 6942,
      "▁સંચાર": 6943,
      "લોલ": 6944,
      "ખાસ્ત": 6945,
      "▁પેરા": 6946,
      "▁ચોખા": 6947,
      "▁શકાય.\n": 6948,
      "▁2021": 6949,
      "લ્સ,": 6950,
      "▁ગ્રુપ": 6951,
      "▁ચીજ": 6952,
      "▁ચીનમાં": 6953,
      "ભૂતિ": 6954,
      "▁ઔષ": 6955,
      "▁33.3": 6956,
      "▁નાખવામાં": 6957,
      "▁છેલ્લે": 6958,
      "▁જીવનચરિત્ર": 6959,
      "▁પીડીએફ": 6960,
      "ઇ,": 6961,
      "૨૭": 6962,
      "▁આયાત": 6963,
      "▁એટલી": 6964,
      "▁કરશે.": 6965,
      "▁માઉન્ટ": 6966,
      "▁પરિયોજના": 6967,
      "લોને": 6968,
      "▁નિદાન": 6969,
      "▁દેવો": 6970,
      "▁શહેરનું": 6971,
      "▁2011": 6972,
      "▁ઇતિહાસકાર": 6973,
      "▁લિંક": 6974,
      "▁આઇન્સ્ટા": 6975,
      "▁શીર્ષક": 6976,
      "▁ભજવે": 6977,
      "▁માછલીઘ": 6978,
      "▁નૈતિક": 6979,
      "▁ચૅપ્લિન": 6980,
      "ખુ": 6981,
      "ડાય": 6982,
      "િતી": 6983,
      "▁પર્સ": 6984,
      "નાત": 6985,
      "▁શીત": 6986,
      "▁રાજી": 6987,
      "▁સંવાદ": 6988,
      "▁કોળી": 6989,
      "▁કોરિયા": 6990,
      "▁મેરી": 6991,
      "▁લેન્ડ": 6992,
      "▁પરિભ્રમણ": 6993,
      "▁પંચાયતની": 6994,
      "▁મેળવ્યા": 6995,
      "▁ક્લે": 6996,
      "▁કાર્બ": 6997,
      "▁બહારના": 6998,
      "▁તેણીને": 6999,
      "▁ખેલાડીઓ": 7000,
      "▁કુંડ": 7001,
      "▁2009માં": 7002,
      "▁લક્ષ્ય": 7003,
      "▁પ્રશંસા": 7004,
      "▁સામ્યવાદી": 7005,
      "▁વહેવારમાં": 7006,
      "શ્શૂર": 7007,
      "3\n": 7008,
      "દ્રી": 7009,
      "પિંગ": 7010,
      "વાયેલા": 7011,
      "▁જવાની": 7012,
      "▁બલ": 7013,
      "ાયલ": 7014,
      "▁વિટ": 7015,
      "ત્તે": 7016,
      "▁સાણંદ": 7017,
      "▁મેઘ": 7018,
      "દીઠ": 7019,
      "▁.,": 7020,
      "▁સેવન": 7021,
      "▁કિરણો": 7022,
      "▁બંધાર": 7023,
      "▁ઓળખી": 7024,
      "▁કંપનીએ": 7025,
      "▁ડો.": 7026,
      "▁90": 7027,
      "▁ઓક્સિ": 7028,
      "ટિકલ": 7029,
      "▁કેન્સાસ": 7030,
      "▁સ્પર્ધામાં": 7031,
      "▁ખીણ": 7032,
      "▁કબ્જે": 7033,
      "▁ટેનેસી": 7034,
      "૨૬": 7035,
      "▁આગા": 7036,
      "▁શનિ": 7037,
      "▁સંતોષ": 7038,
      "▁ફિલ": 7039,
      "▁યૂ": 7040,
      "▁ઇશ્વર": 7041,
      "▁વધતા": 7042,
      "▁૨૦૧૦": 7043,
      "▁ઊંડા": 7044,
      "▁૨૦૦૫": 7045,
      "▁થયો.\n": 7046,
      "▁ઘઉં": 7047,
      "▁મીડિયા": 7048,
      "▁વીર્ય": 7049,
      "▁અભ્યાસક્ર": 7050,
      "▁ડાંગી": 7051,
      "▁૨૦૨૪\n": 7052,
      "▁સ્વીકારી": 7053,
      "▁સૈનિકોને": 7054,
      "▁વિવેચન": 7055,
      "▁ટાપુઓ": 7056,
      "▁દાખલા": 7057,
      "▁ફાઉન્ડેશન": 7058,
      "▁મસાલા": 7059,
      ".,": 7060,
      "500": 7061,
      "▁બધું": 7062,
      "▁લ્યુ": 7063,
      "▁ગુજરાત\n": 7064,
      "▁૨૦૦૧": 7065,
      "▁સહન": 7066,
      "▁વિવિધતા": 7067,
      "મ્પિક": 7068,
      "▁ભીષ્": 7069,
      "▁સૂર્યની": 7070,
      "▁બેઠકો": 7071,
      "▁ધવલભાઇ": 7072,
      "▁અકબર": 7073,
      "▁છેઃ\n": 7074,
      "▁લિમિટેડ": 7075,
      "મરી": 7076,
      "▁ગયાં": 7077,
      "્યા,": 7078,
      "ંગના": 7079,
      "ટીવ": 7080,
      "▁પાટી": 7081,
      "▁ઘુ": 7082,
      "▁વાવે": 7083,
      "વિષ": 7084,
      "યાના": 7085,
      "▁લાહો": 7086,
      "▁કુશળ": 7087,
      "▁ડેવલ": 7088,
      "▁ટન": 7089,
      "યોગ્ય": 7090,
      "▁ઉદભવ": 7091,
      "સ્ટ્રો": 7092,
      "લાઇટ": 7093,
      "▁ફૂડ": 7094,
      "▁તત્ત્વ": 7095,
      "▁વધારાની": 7096,
      "▁ખેંચી": 7097,
      "▁આંદોલ": 7098,
      "લસ": 7099,
      "શને": 7100,
      "▁ગું": 7101,
      "▁નાતા": 7102,
      "▁હોવી": 7103,
      "▁સેવ": 7104,
      "▁સિપા": 7105,
      "▁ભાષાનો": 7106,
      "▁૨૦૦૪": 7107,
      "શીપ": 7108,
      "પુરમાં": 7109,
      "▁પ્રતિષ્ઠ": 7110,
      "▁500": 7111,
      "▁અપાયું": 7112,
      "▁1997": 7113,
      "▁પ્રેસ,": 7114,
      "▁હોવાથી,": 7115,
      "▁ભુજ": 7116,
      "▁કૉંગ": 7117,
      "▁ક્યુબા": 7118,
      "▁ગરીબી": 7119,
      "▁ઈલેક્ટ્રો": 7120,
      "▁ડબ્લ્યુ": 7121,
      "▁સત્યાગ્રહ": 7122,
      "ટું": 7123,
      "યક": 7124,
      "▁મુકી": 7125,
      "▁ઘટક": 7126,
      "▁સુગ": 7127,
      "ડાનો": 7128,
      "▁રહેતી": 7129,
      "▁એમનું": 7130,
      "પુરના": 7131,
      "▁દર્શાવવા": 7132,
      "▁અપવાદ": 7133,
      "▁લાગ્યું": 7134,
      "▁પામેલા": 7135,
      "ોનેશિયા": 7136,
      "▁ભેગા": 7137,
      "▁પુસ્તકમાં": 7138,
      "જ્જ": 7139,
      "▁એસેમ્બ": 7140,
      "ફુ": 7141,
      "▁કાળી": 7142,
      "▁છતા": 7143,
      "▁પ્રતી": 7144,
      "ન્ચે": 7145,
      "▁પાવર": 7146,
      "▁જીવો": 7147,
      "▁દિન": 7148,
      "▁નેરુ": 7149,
      "▁બનાવીને": 7150,
      "▁વ્યક્તિને": 7151,
      "▁એટલું": 7152,
      "▁બનેલ": 7153,
      "▁0.0": 7154,
      "▁ગેલે": 7155,
      "▁ઢાંચા": 7156,
      "▁ફિલો": 7157,
      "▁કાંઈ": 7158,
      "▁પર્વતીય": 7159,
      "▁પ્રબંધક": 7160,
      "ગાંવ": 7161,
      "▁નબળા": 7162,
      "▁એલેક્ઝાન્ડ": 7163,
      "▁અઠવા": 7164,
      "▁વેચીને": 7165,
      "▁પિરામિડ": 7166,
      "▁અમીર": 7167,
      "▁તળ": 7168,
      "ામ્": 7169,
      "▁ફાં": 7170,
      "▁રાજવંશ": 7171,
      "રોતર": 7172,
      "▁મે,": 7173,
      "ણાના": 7174,
      "સ્ટર્સ": 7175,
      "▁ડેવિડ": 7176,
      "▁મિલીયન": 7177,
      "▁સ્થાનીય": 7178,
      "▁મંદી": 7179,
      "▁પ્રતિષ્ઠા": 7180,
      "▁ખોટી": 7181,
      "ઘાટ": 7182,
      "▁યુરોપીય": 7183,
      "▁તબક્કામાં": 7184,
      "▁9780": 7185,
      "▁ફારસી": 7186,
      "દક્ષિણ": 7187,
      "▁નેરુદા": 7188,
      "▁રખ": 7189,
      "કોમ": 7190,
      "ડીની": 7191,
      "રુનાં": 7192,
      "પ્રો": 7193,
      "▁2002": 7194,
      "▁રહેશે.": 7195,
      "▁વિસ્તારની": 7196,
      "નિક્સ": 7197,
      "▁વ્યાજ": 7198,
      "▁ધીરે": 7199,
      "▁સિદ્ધિ": 7200,
      "▁ફિફા": 7201,
      "▁હુમા": 7202,
      "▁વધારાના": 7203,
      "▁સમયગાળામાં": 7204,
      "▁દ્વીપ": 7205,
      "▁બળવાખો": 7206,
      "▁મેરેથો": 7207,
      "ચિન": 7208,
      "મિન": 7209,
      "૬ના": 7210,
      "▁કપરા": 7211,
      "▁આભ": 7212,
      "▁ત્રા": 7213,
      "વાદા": 7214,
      "▁દવે": 7215,
      "▁લવ": 7216,
      "િયારો": 7217,
      "▁કેબલ": 7218,
      "▁ચટણી": 7219,
      "▁આવશે.": 7220,
      "તું.": 7221,
      "▁બેસી": 7222,
      "▁લાવવામાં": 7223,
      "▁દેશનું": 7224,
      "▁નેચર": 7225,
      "પ્રસાદ": 7226,
      "પી.": 7227,
      "▁ગોપાલ": 7228,
      "▁આવ્યો.\n": 7229,
      "▁બન્યું.": 7230,
      "▁ગાંઠ": 7231,
      "▁આપેલા": 7232,
      "▁પુસ્તકા": 7233,
      "ંશિક": 7234,
      "▁ત્રીજો": 7235,
      "▁વિનંતી.": 7236,
      "▁નહિ.": 7237,
      "▁અવશેષો": 7238,
      "બર,": 7239,
      "ષક": 7240,
      "સણ": 7241,
      "ૂડ": 7242,
      "૨૯": 7243,
      "લાવ": 7244,
      "▁ખં": 7245,
      "▁ભારતને": 7246,
      "ંધો": 7247,
      "▁ઈચ્છા": 7248,
      "▁કાવ્યો": 7249,
      "▁સુધી,": 7250,
      "ધ્યાય": 7251,
      "▁ખાતેના": 7252,
      "▁ક્ષેત્રની": 7253,
      "દેપુર": 7254,
      "▁શિક્ષા": 7255,
      "▁અપાય": 7256,
      "▁169": 7257,
      "▁કાઢવામાં": 7258,
      "▁ગાંધીજીના": 7259,
      "▁ચૂંટણીમાં": 7260,
      "▁ઉત્પત્તિ": 7261,
      "▁મોકલે": 7262,
      "▁વિકસાવવામાં": 7263,
      "▁વિદ્વાન": 7264,
      "▁મેસોપો": 7265,
      "▁સંવેદનશીલ": 7266,
      "ંઠ": 7267,
      "ભવન": 7268,
      "મૂર્તિ": 7269,
      "▁પપ": 7270,
      "▁દંડ": 7271,
      "રીએ": 7272,
      "▁શ્લો": 7273,
      "▁ઉભા": 7274,
      "▁થવાથી": 7275,
      "▁આવ્યુ": 7276,
      "▁નિવાસી": 7277,
      "▁આધારીત": 7278,
      "▁પીઠ": 7279,
      "▁પ્રતિમા": 7280,
      "દિવસ": 7281,
      "▁ઉદાર": 7282,
      "▁પારસી": 7283,
      "▁જ્ઞાનકોશ": 7284,
      "▁ટીમરુનાં": 7285,
      "▁વિદ્યાપીઠ": 7286,
      "▁બિલિયન": 7287,
      "▁સમીકરણ": 7288,
      "▁મહુડાનાં": 7289,
      "▁ચિંતા": 7290,
      "▁સમજૂતી": 7291,
      "એસબીએન": 7292,
      "▁પ્રોફેસર": 7293,
      "ૉલ": 7294,
      "▁બૃહ": 7295,
      "▁કર્યાં": 7296,
      "▁ન્ય": 7297,
      "▁માદા": 7298,
      "ક્લો": 7299,
      "▁ચરોતર": 7300,
      "▁રાઈટ": 7301,
      "▁ફળો": 7302,
      "▁યજ": 7303,
      "લોના": 7304,
      "મ્પી": 7305,
      "▁ટર્મ": 7306,
      "દેશી": 7307,
      "▁સુધીમાં,": 7308,
      "▁લખવા": 7309,
      "▁પગલા": 7310,
      "▁એપ્રિલ,": 7311,
      "▁કંઇ": 7312,
      "▁લંડનમાં": 7313,
      "▁પહાડી": 7314,
      "▁મેક્સિકો": 7315,
      "▁એરલાઇન્સ": 7316,
      "▁સાગનાં": 7317,
      "▁જવાહરલાલ": 7318,
      "6\n": 7319,
      "74": 7320,
      "કરો": 7321,
      "ગરી": 7322,
      "દમાં": 7323,
      "▁આદર": 7324,
      "▁વસા": 7325,
      "▁શંકર": 7326,
      "▁નકારાત્મક": 7327,
      "▁સ્પી": 7328,
      "▁યજ્ઞ": 7329,
      "▁ઘી": 7330,
      "▁જોસેફ": 7331,
      "▁મોહન": 7332,
      "સ્તર": 7333,
      "▁નેતાઓ": 7334,
      "▁સિંચ": 7335,
      "▁૨૦૧૧\n": 7336,
      "▁સીડી": 7337,
      "▁રંગી": 7338,
      "▁વરદાન": 7339,
      "▁દેવભૂમિ": 7340,
      "▁વનપેદાશો": 7341,
      "▁હૈદરા": 7342,
      "▁અધ્યાય": 7343,
      "▁ઉનાળા": 7344,
      "▁ખેતઉત્પાદનો": 7345,
      "▁સાબરમતી": 7346,
      "▁મોહમ્મદ": 7347,
      "નૈતિક": 7348,
      "▁કાલાવડ": 7349,
      "▁એકાદશી": 7350,
      "199": 7351,
      "નદી": 7352,
      "હરા": 7353,
      "ૂંક": 7354,
      "▁અછ": 7355,
      "▁અલા": 7356,
      "▁પ્રતા": 7357,
      "▁પ્રસાદ": 7358,
      "▁કરંજના": 7359,
      "ામિન": 7360,
      "▁સાથ": 7361,
      "▁યંત્ર": 7362,
      "▁ગુના": 7363,
      "લોમાં": 7364,
      "▁ઇજા": 7365,
      "▁મેજર": 7366,
      "▁માંસ": 7367,
      "▁બનાવાય": 7368,
      "▁ખાદ્ય": 7369,
      "▁ગોવા": 7370,
      "▁ઊભા": 7371,
      "▁ચોકી": 7372,
      "મિથ": 7373,
      "ંદર્ય": 7374,
      "સંગત": 7375,
      "▁ઉદ્ભવ": 7376,
      "▁ગૌરવ": 7377,
      "▁માંગણી": 7378,
      "▁જોડાયા.": 7379,
      "▁તૃશ્શૂર": 7380,
      "▁મુસાફરી": 7381,
      "▁સુપ્રીમ": 7382,
      "▁ખાખરાનાં": 7383,
      "▁પેશ": 7384,
      "▁બરો": 7385,
      "ત્તી": 7386,
      "▁ચરણ": 7387,
      "લેક": 7388,
      "▁લોટ": 7389,
      "▁વેન": 7390,
      "સિએશન": 7391,
      "▁આવી,": 7392,
      "ગીય": 7393,
      "▁હેલ": 7394,
      "▁સહકારી": 7395,
      "▁થઇ.": 7396,
      "▁વિનંતિ": 7397,
      "▁બ્રાઉ": 7398,
      "▁કાળમાં": 7399,
      "ામીણ": 7400,
      "▁રાજ્યોમાં": 7401,
      "▁ઉમેરો": 7402,
      "▁સંપર્કમાં": 7403,
      "▁સ્ક્રી": 7404,
      "▁ભવિષ્યમાં": 7405,
      "▁પરાજય": 7406,
      "▁પ્રસ્તુત": 7407,
      "દાં": 7408,
      "પાર્ટ": 7409,
      "▁પતન": 7410,
      "▁કવ": 7411,
      "▁તામ": 7412,
      "▁મલ્ટી": 7413,
      "▁બારી": 7414,
      "ત્વો": 7415,
      "કાઈ": 7416,
      "▁યે": 7417,
      "▁ઉપનિ": 7418,
      "પાઈ": 7419,
      "▁દરખાસ્ત": 7420,
      "▁સમાપ્ત": 7421,
      "▁બોઝ": 7422,
      "▁પેકે": 7423,
      "▁ઝેર": 7424,
      "▁ઝુંબ": 7425,
      "▁ચો.": 7426,
      "▁રાખવાની": 7427,
      "▁ફિલ્ડ": 7428,
      "▁વ્યક્તિના": 7429,
      "▁બ્રિગે": 7430,
      "▁સામેની": 7431,
      "થોલિક": 7432,
      "▁મળી.": 7433,
      "▁ઇન્ટે": 7434,
      "▁શિક્ષણ\n": 7435,
      "▁૭૫": 7436,
      "▁રચિત": 7437,
      "▁વેરાવળ": 7438,
      "▁ક્રે": 7439,
      "▁આંશિક": 7440,
      "વાર્": 7441,
      "લ્ક": 7442,
      "ત્રિમ": 7443,
      "▁સંતુ": 7444,
      "▁યશ": 7445,
      "▁જોશી": 7446,
      "▁પીએચ": 7447,
      "▁સામાન્યપણે": 7448,
      "▁પ્રતિબિ": 7449,
      "▁દાવા": 7450,
      "▁શોષણ": 7451,
      "▁અંબ": 7452,
      "▁અંહી": 7453,
      "▁શરીરમાં": 7454,
      "▁ચૌધરી": 7455,
      "▁ઉમેરી": 7456,
      "▁ડુંગર": 7457,
      "▁ઇન્ડિયાના": 7458,
      "▁જ્ઞાતિ": 7459,
      "▁બટાલિયન\n": 7460,
      "▁એસોસિય": 7461,
      "▁યુધિષ્ઠિર": 7462,
      "1.": 7463,
      "▁કશું": 7464,
      "▁વગા": 7465,
      "▁સાઈ": 7466,
      "કાંત": 7467,
      "▁રાજનૈતિક": 7468,
      "▁અન્યો": 7469,
      "સાના": 7470,
      "યાત્રા": 7471,
      "▁વધારી": 7472,
      "▁બેન્": 7473,
      "▁ઓફર": 7474,
      "ન્દ્રનાથ": 7475,
      "▁સામાજીક": 7476,
      "▁સંસ્કૃતિમાં": 7477,
      "▁સિવાયના": 7478,
      "▁બળવો": 7479,
      "▁સપાટીથી": 7480,
      "▁પ્રશાસ": 7481,
      "▁યોજાય": 7482,
      "▁પ્રવાસીઓ": 7483,
      "▁સલાહકાર": 7484,
      "▁સમીક્ષા": 7485,
      "▁હૈદરાબાદ": 7486,
      ".ડી.": 7487,
      "ઝેશન": 7488,
      "ધક": 7489,
      "▁કને": 7490,
      "▁કયા": 7491,
      "માંના": 7492,
      "▁જતો": 7493,
      "▁હજ": 7494,
      "ન્ડા": 7495,
      "▁સંકુ": 7496,
      "▁એકવાર": 7497,
      "▁મુહ": 7498,
      "▁ડ્ર": 7499,
      "▁કારો": 7500,
      "▁મેસે": 7501,
      "ણાની": 7502,
      "પાઇ": 7503,
      "▁ઈટા": 7504,
      "▁નોર્થ": 7505,
      "▁ચોથી": 7506,
      "▁કરાવી": 7507,
      "▁ગ્રામીણ": 7508,
      "▁સાહિત્યના": 7509,
      "▁રિચ": 7510,
      "▁ડોમે": 7511,
      "▁અગાસી": 7512,
      "▁માર્શલ": 7513,
      "સ્પર્": 7514,
      "▁ગ્રહણ": 7515,
      "▁ગઈ.": 7516,
      "▁ઇસ્લામ": 7517,
      "▁કબ્જો": 7518,
      "▁એપ્લી": 7519,
      "▁સિપાહી": 7520,
      "કળા": 7521,
      "ભ્ર": 7522,
      "▁આકૃતિ": 7523,
      "▁મંત": 7524,
      "રાં": 7525,
      "▁ભરા": 7526,
      "▁ઉલ": 7527,
      "▁ખંભાળ": 7528,
      "▁રાજકુમાર": 7529,
      "ક્ષમતા": 7530,
      "ટાઈ": 7531,
      "▁યુએ": 7532,
      "▁ભારત,": 7533,
      "ર્મન": 7534,
      "▁અલબ": 7535,
      "▁અર્થમાં": 7536,
      "▁ક્લાય": 7537,
      "▁આપેલ": 7538,
      "▁અસહ": 7539,
      "▁લાગ્યા": 7540,
      "▁નગરમાં": 7541,
      "▁કાળો": 7542,
      "▁ત્રિવેદી": 7543,
      "▁વૃક્ષો": 7544,
      "▁હિમાચલ": 7545,
      "▁પ્રાંતમાં": 7546,
      "▁નુકશાન": 7547,
      "▁શૂન્ય": 7548,
      "▁નિરીક્ષણ": 7549,
      "▁હસ્તાક્ષર": 7550,
      "▁વિભિન્ન": 7551,
      "વિસ્તાર": 7552,
      "▁બંધારણીય": 7553,
      "▁ઝુંબેશ": 7554,
      "અન": 7555,
      "બિન": 7556,
      "▁જંતુ": 7557,
      "▁છેક": 7558,
      "▁હમ": 7559,
      "રીતે": 7560,
      "▁નજ": 7561,
      "ક્સી": 7562,
      "▁સ્પો": 7563,
      "▁રાધા": 7564,
      "કાની": 7565,
      "પ્રદ": 7566,
      "જૂર": 7567,
      "▁વિકસી": 7568,
      "▁અનુગામી": 7569,
      "▁સોમ": 7570,
      "▁વી.": 7571,
      "▁ગાંધીએ": 7572,
      "▁વોર્મિંગ": 7573,
      "▁પહોળા": 7574,
      "▁અભિગમ": 7575,
      "▁દોરી": 7576,
      "▁બ્રહ્મા": 7577,
      "▁વર્તણ": 7578,
      "▁વાંચી": 7579,
      "▁સંપ્રદાયના": 7580,
      "▁2004માં": 7581,
      "▁નિમણૂક": 7582,
      "▁વૈષ્ણવ": 7583,
      "▁ખંભાળિયા": 7584,
      "8માં": 7585,
      "ઘો": 7586,
      "બુક": 7587,
      "ૈયા": 7588,
      "▁ભક્ત": 7589,
      "જીરાવ": 7590,
      "▁કોટ": 7591,
      "▁વાગ": 7592,
      "▁વ્યૂ": 7593,
      "જાતિ": 7594,
      "▁હોય.\n": 7595,
      "▁કાશી": 7596,
      "▁ભાષાથી": 7597,
      "▁દક્ષિણી": 7598,
      "▁દિવસોમાં": 7599,
      "▁બનવા": 7600,
      "▁૩૫": 7601,
      "લેન્ડ,": 7602,
      "▁છોડીને": 7603,
      "▁વારસો": 7604,
      "▁બ્રાઝિલ": 7605,
      "▁પરીણ": 7606,
      "વુડ": 7607,
      "▁!\n": 7608,
      "▁લડાઈમાં": 7609,
      "▁ઉમેરવામાં": 7610,
      "▁મેળવનાર": 7611,
      "5\n": 7612,
      "થું": 7613,
      "ર્ટ્સ": 7614,
      "▁બિર": 7615,
      "સ્કૂ": 7616,
      "▁રિંગ": 7617,
      "▁સંક્ષિ": 7618,
      "▁ઓપ્": 7619,
      "▁ઓક્સ": 7620,
      "▁વાપ": 7621,
      "▁સુચ": 7622,
      "▁લાવી": 7623,
      "વર્ષ": 7624,
      "▁હેલ્થ": 7625,
      "▁ક્ષેત્રના": 7626,
      "▁રૂઢિ": 7627,
      "ચ્છે": 7628,
      "સંખ્યા": 7629,
      "▁બાળકોને": 7630,
      "▁મૂલ્યો": 7631,
      "▁કોંગ્રેસના": 7632,
      "▁?\n": 7633,
      "▁ઉંચાઈ": 7634,
      "▁બ્રાહ્મણો": 7635,
      "▁ઝાડ": 7636,
      "▁ગુમાવી": 7637,
      "▁વ્યુત્પત્તિ": 7638,
      "▁પ્રજાસત્તાક": 7639,
      "89": 7640,
      "ંબો": 7641,
      "▁છત્ર": 7642,
      "▁ભક્": 7643,
      "▁રશિયન": 7644,
      "▁રાઈ": 7645,
      "તિત": 7646,
      "▁હોલ": 7647,
      "▁પાકે": 7648,
      "▁જોહ્ન": 7649,
      "▁દિવ્ય": 7650,
      "પાક": 7651,
      "▁કાપી": 7652,
      "સેટ": 7653,
      "બેઝ": 7654,
      "▁રેસ્ટો": 7655,
      "▁ફેંક": 7656,
      "▁એમનો": 7657,
      "▁દિવસની": 7658,
      "▁ફરતે": 7659,
      "વાદીઓ": 7660,
      "▁ન્યુયોર્ક": 7661,
      "▁સન્માનિત": 7662,
      "▁એટલાન્ટિક": 7663,
      "▁ઉડાન": 7664,
      "▁આશ્રય": 7665,
      "▁લિંક્સ\n": 7666,
      "ઘુ": 7667,
      "જાન": 7668,
      "શના": 7669,
      "▁સશસ્ત્ર": 7670,
      "▁કલ્": 7671,
      "▁માસ્ટર": 7672,
      "▁થવામાં": 7673,
      "ટ્રે": 7674,
      "▁આવવા": 7675,
      "▁ભાગરૂપે": 7676,
      "▁રોકી": 7677,
      "સિડે": 7678,
      "▁બનાવ્યો": 7679,
      "▁ઝૂ": 7680,
      "▁ભાષા,": 7681,
      "▁રહસ્ય": 7682,
      "ર્ગ્યુ": 7683,
      "▁નદીમાં": 7684,
      "▁પાછલા": 7685,
      "▁સૂચના": 7686,
      "▁અભિવ્યક્તિ": 7687,
      "▁ફેલાવો": 7688,
      "▁વિદ્યાર્થીઓને": 7689,
      "▁નરસિંહ": 7690,
      "▁ફાયદા": 7691,
      "▁ઓર્ગે": 7692,
      "▁વિતરણ": 7693,
      "▁કોર્પોરેટ": 7694,
      "ંબા": 7695,
      "રિયલ": 7696,
      "▁કચે": 7697,
      "▁કઠો": 7698,
      "▁આજના": 7699,
      "રામાં": 7700,
      "▁રક્ષા": 7701,
      "ંગિક": 7702,
      "▁સંસાર": 7703,
      "▁નાંખ": 7704,
      "ણી,": 7705,
      "▁જાતને": 7706,
      "▁તેઓની": 7707,
      "▁૨૦૧૪": 7708,
      "વાદના": 7709,
      "▁ટેનિસ": 7710,
      "▁રાખો": 7711,
      "▁પ્રકારે": 7712,
      "▁૩.": 7713,
      "લેન્ડના": 7714,
      "▁છોટાઉ": 7715,
      "▁વાતચી": 7716,
      "એમએસ": 7717,
      "ગુજરા": 7718,
      "ગુરુ": 7719,
      "▁બ્રાન્ડ": 7720,
      "▁વિષયક": 7721,
      "સ્ટીટ": 7722,
      "▁રાઇફ": 7723,
      "▁એકેડે": 7724,
      "ંટો": 7725,
      "તરો": 7726,
      "વરો": 7727,
      "માર્ક": 7728,
      "▁પત્રો": 7729,
      "▁પ્લ": 7730,
      "▁સૉ": 7731,
      "▁કબર": 7732,
      "▁બ્રો": 7733,
      "રીઝ": 7734,
      "▁એથ": 7735,
      "નોએ": 7736,
      "નોનો": 7737,
      "ન્થ": 7738,
      "▁રબર": 7739,
      "▁રચે": 7740,
      "▁વિવાદા": 7741,
      "▁સ્ને": 7742,
      "▁રાંધ": 7743,
      "લીય": 7744,
      "▁નાથ": 7745,
      "▁પણ,": 7746,
      "ટીએસ": 7747,
      "▁આવો": 7748,
      "પાડ": 7749,
      "▁સરસ": 7750,
      "▁તોપ": 7751,
      "▁પરિબળ": 7752,
      "▁જેમની": 7753,
      "▁રાષ્ટ્રો": 7754,
      "▁યોદ્ધા": 7755,
      "▁પાછું": 7756,
      "▁પ્રત્યક્ષ": 7757,
      "▁૦૯": 7758,
      "▁સંકળાયેલી": 7759,
      "▁ટિપ્પણી": 7760,
      "▁ચોટીલા": 7761,
      "ફ્રે": 7762,
      "૨૧": 7763,
      "▁સિમ": 7764,
      "▁કબી": 7765,
      "માંતર": 7766,
      "▁અશ્": 7767,
      "▁અપરા": 7768,
      "▁તેલુ": 7769,
      "▁માસિક": 7770,
      "▁સાલ": 7771,
      "લી\n": 7772,
      "▁ભાગનો": 7773,
      "▁વાણિ": 7774,
      "▁બેસ્ટ": 7775,
      "▁લાઈન": 7776,
      "રિશ": 7777,
      "▁કરાવે": 7778,
      "▁અવલો": 7779,
      "મ્પશ": 7780,
      "▁ન્યૂઝ": 7781,
      "▁જણાવ": 7782,
      "▁પાકિસ્તાનમાં": 7783,
      "રિકે": 7784,
      "▁સમસ્યાઓ": 7785,
      "▁જરૂરિયાતો": 7786,
      "▁બદલીને": 7787,
      "નિર્માણ": 7788,
      "▁રત્ન": 7789,
      "દ્રોહ": 7790,
      "▁મેસોપોટે": 7791,
      "▁છોટાઉદેપુર": 7792,
      "ડબલ્યુ": 7793,
      "▁સારે": 7794,
      "▁તળે": 7795,
      "▁ફર્ગ્યુ": 7796,
      "▁૨,": 7797,
      "વિંગ": 7798,
      "▁બેદી": 7799,
      "▁દેશોની": 7800,
      "▁જીડીપી": 7801,
      "▁કરેલો": 7802,
      "▁નિરા": 7803,
      "▁પેપર": 7804,
      "▁38": 7805,
      "કુળ": 7806,
      "▁મળેલા": 7807,
      "▁રહીને": 7808,
      "▁શરીરના": 7809,
      "▁વિભાજિત": 7810,
      "▁ઓસ્ટ્રેલિયન": 7811,
      "▁ગાયકવાડ": 7812,
      "▁ફાઇલ": 7813,
      "▁દુધની": 7814,
      "▁ચેમ્પિયનશિ": 7815,
      "▁વલ્લભભાઈ": 7816,
      "▁દુર્યોધન": 7817,
      "▁ઓક્લાહોમા": 7818,
      "▁એજ્યુકેશન": 7819,
      "▁કપરાડા": 7820,
      "29999": 7821,
      "ખાન": 7822,
      "સદ": 7823,
      "▁હાન": 7824,
      "રાહ": 7825,
      "▁એનો": 7826,
      "▁એટી": 7827,
      "▁શહી": 7828,
      "▁ભદ્ર": 7829,
      "તીઓ": 7830,
      "▁ખર": 7831,
      "કા,": 7832,
      "▁ઘડિય": 7833,
      "▁સૌંદર્ય": 7834,
      "ગીર": 7835,
      "▁કિશો": 7836,
      "▁આવ્યા.\n": 7837,
      "▁મેળવીને": 7838,
      "▁સામાયિક": 7839,
      "▁નવરા": 7840,
      "લાઈન": 7841,
      "▁હેતુથી": 7842,
      "▁ફીટ": 7843,
      "▁સંરચના": 7844,
      "▁તકલી": 7845,
      "▁કાપડ": 7846,
      "▁કલ્યાણપુર": 7847,
      "▁હથિયારો": 7848,
      "▁એઇડ્ઝ": 7849,
      "▁પ્રવર્તમાન": 7850,
      "▁જ,": 7851,
      "નીક": 7852,
      "નીંગ": 7853,
      "▁એડિ": 7854,
      "▁ભરી": 7855,
      "▁ભચા": 7856,
      "▁કેવળ": 7857,
      "▁રાત્રિ": 7858,
      "ડીય": 7859,
      "લેમ": 7860,
      "▁કોમન": 7861,
      "રોગ": 7862,
      "▁મેર": 7863,
      "▁આપની": 7864,
      "મ્ન": 7865,
      "▁પુખ્ત": 7866,
      "▁સેને": 7867,
      "▁ઉત્તરે": 7868,
      "▁સ્થપ": 7869,
      "▁મળતું": 7870,
      "▁નોન": 7871,
      "▁બોટ": 7872,
      "▁ગોર": 7873,
      "▁પહેલે": 7874,
      "▁પ્રકારનાં": 7875,
      "▁જોડાયેલી": 7876,
      "▁ડીઝ": 7877,
      "▁ન્યૂટને": 7878,
      "▁યુનિવર્સિટીમાં": 7879,
      "▁ખુલ્લા": 7880,
      "▁જયાં": 7881,
      "▁સભ્યોને": 7882,
      "▁પ્રસારિત": 7883,
      "▁અ.૧૯": 7884,
      "▁શાખાઓ": 7885,
      "▁ચૂકવણી": 7886,
      "▁વાવેતર": 7887,
      "▁સંક્ષિપ્ત": 7888,
      "ઉપ": 7889,
      "કર,": 7890,
      "તિયા": 7891,
      "▁તું": 7892,
      "▁ત્વ": 7893,
      "▁વતન": 7894,
      "▁કરુ": 7895,
      "▁વિસ્ફો": 7896,
      "લીએ": 7897,
      "▁ઘૂ": 7898,
      "▁નોબેલ": 7899,
      "▁થયેલું": 7900,
      "▁ખાડી": 7901,
      "▁જુવો\n": 7902,
      "▁હેન્ડ": 7903,
      "ગ્રંથ": 7904,
      "▁અવગ": 7905,
      "▁અર્થઘટન": 7906,
      "▁પહોંચ્યા": 7907,
      "▁પરિણામો": 7908,
      "ૂહિક": 7909,
      "▁વસેલું": 7910,
      "▁વિશ્વસ": 7911,
      "▁સમયગાળો": 7912,
      "▁પર્યાવરણીય": 7913,
      "▁નીકળે": 7914,
      "▁ટેક્નોલોજી": 7915,
      "▁ઓટોમો": 7916,
      "▁હકીક": 7917,
      "▁આર્કિ": 7918,
      "▁આમંત્રણ": 7919,
      "▁ફિલોસો": 7920,
      "▁વિવાદાસ્પદ": 7921,
      "▁તેલુગુ": 7922,
      "જલિ": 7923,
      "▁કળ": 7924,
      "▁અલ્લાહ": 7925,
      "નોર": 7926,
      "▁નંદ": 7927,
      "▁નકારી": 7928,
      "▁ઓરે": 7929,
      "▁હોવો": 7930,
      "▁જોર": 7931,
      "મી,": 7932,
      "યા.": 7933,
      "સીએ": 7934,
      "સીની": 7935,
      "▁સમાધાન": 7936,
      "▁બોલિ": 7937,
      "▁શકું": 7938,
      "▁ગોડ": 7939,
      "▁મૂકે": 7940,
      "▁સીટી": 7941,
      "▁ધર્મની": 7942,
      "▁શ્રેય": 7943,
      "▁બન્યા.\n": 7944,
      "ન્દ્રા": 7945,
      "▁મુદ્દો": 7946,
      "▁સમિતિના": 7947,
      "▁કૃતિઓ": 7948,
      "ગ્રાફ": 7949,
      "▁નબળી": 7950,
      "▁ભ્રમણકક્ષા": 7951,
      "▁થોડું": 7952,
      "વંશી": 7953,
      "▁માપદંડ": 7954,
      "▁ભચાઉ": 7955,
      "100": 7956,
      "ચક્ર": 7957,
      "રણા": 7958,
      "૨૮": 7959,
      "▁જશે.": 7960,
      "▁વરસ": 7961,
      "ન્શન": 7962,
      "ંગાર": 7963,
      "ત્કાર": 7964,
      "▁ચેર": 7965,
      "▁સંતાન": 7966,
      "કાલિન": 7967,
      "લીને": 7968,
      "▁ફ્લ": 7969,
      "▁મુળ": 7970,
      "▁150": 7971,
      "▁કોઠ": 7972,
      "▁ઉપનામ": 7973,
      "▁મોતી": 7974,
      "▁બેઝ": 7975,
      "▁દેશી": 7976,
      "▁વર્ષા": 7977,
      "▁વધુમાં,": 7978,
      "▁રેખ": 7979,
      "ટ્ટીશ": 7980,
      "▁ફેક્ટ": 7981,
      "▁સંદર્ભે": 7982,
      "▁થઈ,": 7983,
      "્સ,": 7984,
      "▁ટાટા": 7985,
      "▁શ્રીકૃષ્ણ": 7986,
      "▁ગયા,": 7987,
      "▁ધોળ": 7988,
      "▁દોષ": 7989,
      "▁ઠંડા": 7990,
      "ફરન્સ": 7991,
      "▁લખાણો": 7992,
      "▁વિશ્લેષણ": 7993,
      "▁ચલચિત્રો": 7994,
      "▁સુવિધાઓ": 7995,
      "વૈત": 7996,
      "▁ભીમરાવ": 7997,
      "▁સ્ટીલ": 7998,
      "▁અહલ્યા": 7999,
      "▁જન્મેલા": 8000,
      "▁સોલંકી": 8001,
      "કબ": 8002,
      "ગૃહ": 8003,
      "▁કડક": 8004,
      "્યેય": 8005,
      "▁વહા": 8006,
      "▁ગંધ": 8007,
      "ન્દર": 8008,
      "▁ઉગ્ર": 8009,
      "▁ચુંબ": 8010,
      "▁ડૂ": 8011,
      "▁ગુરખા": 8012,
      "▁લોકોનું": 8013,
      "સીટી": 8014,
      "બ્બ": 8015,
      "વર્તન": 8016,
      "▁સંગમ": 8017,
      "▁પોતાનાં": 8018,
      "▁ભાષાનું": 8019,
      "▁કામદારો": 8020,
      "▁પહેલું": 8021,
      "▁પ્રતિજ્ઞા": 8022,
      "▁યુદ્ધની": 8023,
      "▁પડ્યા": 8024,
      "▁ઇન્ફ": 8025,
      "▁સંગીતકાર": 8026,
      "▁ચાલતા": 8027,
      "▁વિભાગના": 8028,
      "▁એડ્રે": 8029,
      "▁મૂક્યો": 8030,
      "▁બંગાળના": 8031,
      "▁અડધા": 8032,
      "▁કમ્યુ": 8033,
      "▁સફળતાપૂર્વક": 8034,
      "▁ઉત્સર્જન": 8035,
      "▁મુદ્દાઓ": 8036,
      "ગણિત": 8037,
      "▁પહોંચાડ": 8038,
      "▁ઉષ્ણકટિબંધીય": 8039,
      "▁અજાણ": 8040,
      "ધના": 8041,
      "▁તારણ": 8042,
      "▁વિયે": 8043,
      "▁સ્વાય": 8044,
      "▁પાત": 8045,
      "િયાનો": 8046,
      "▁મહાસ": 8047,
      "▁જાણે": 8048,
      "▁સેન": 8049,
      "▁કાન્": 8050,
      "▁કાકા": 8051,
      "▁તોડી": 8052,
      "ખાના": 8053,
      "▁પરંતુ,": 8054,
      "▁જૂનું": 8055,
      "ગ્સ": 8056,
      "ક્સ,": 8057,
      "▁બનેલું": 8058,
      "▁બની.": 8059,
      "▁નજીકમાં": 8060,
      "ફાઈ": 8061,
      "▁ઓક્ટો": 8062,
      "▁મૂલ્યાં": 8063,
      "▁કેનેડા": 8064,
      "ઠ્ઠી": 8065,
      "▁દિગ્દર્શક": 8066,
      "▁સંયોજનો": 8067,
      "▁પટેલો": 8068,
      "▁વકીલ": 8069,
      "▁રસોઈ": 8070,
      "▁પ્રતિબિંબ": 8071,
      "પટ": 8072,
      "ફન": 8073,
      "સૂર": 8074,
      "▁૦૦": 8075,
      "▁આસો": 8076,
      "▁કેરા": 8077,
      "લ્મ": 8078,
      "▁કોપી": 8079,
      "▁ઇમે": 8080,
      "▁આપનો": 8081,
      "▁સહુ": 8082,
      "▁આરબ": 8083,
      "▁ઊંચું": 8084,
      "▁ઊંચાઇ": 8085,
      "એમએ": 8086,
      "▁નિષ્ણા": 8087,
      "▁નિયમન": 8088,
      "▁ચૂંટાયા": 8089,
      "▁તત્વજ્ઞાન": 8090,
      "▁મોકલ્યું": 8091,
      "▁શ્વાસ": 8092,
      "▁સર્વેક્ષણ": 8093,
      "▁ગ્રીનહાઉસ": 8094,
      "ષ્ટાચાર": 8095,
      "▁સ્ટ્રીટ": 8096,
      "▁જ્યોતિષવિદ્યા": 8097,
      "છોડ": 8098,
      "ન્યુ": 8099,
      "િબ": 8100,
      "▁પું": 8101,
      "▁અપ્ર": 8102,
      "▁તદ્": 8103,
      "▁રકમ": 8104,
      "▁મારુ": 8105,
      "િયુ": 8106,
      "િયોગ": 8107,
      "▁પ્રાપ્તિ": 8108,
      "સી,": 8109,
      "▁દેખી": 8110,
      "▁હેમ્પશ": 8111,
      "▁રહ્યું.": 8112,
      "▁પૈકીની": 8113,
      "▁ત્યારે,": 8114,
      "▁બનતા": 8115,
      "▁પાણીનું": 8116,
      "▁કૃત્રિમ": 8117,
      "▁રંગની": 8118,
      "▁અભિપ્રાય": 8119,
      "▁ઑગ": 8120,
      "▁ખાનપુર": 8121,
      "▁ભૂતકાળ": 8122,
      "ગ્રાફી": 8123,
      "▁અહિંસા": 8124,
      "▁ઝેરી": 8125,
      "▁અવિભા": 8126,
      "▁ક્ષત્રિય": 8127,
      "▁પ્રતિષ્ઠિત": 8128,
      "▁કૉંગ્રેસ": 8129,
      "19999": 8130,
      "52": 8131,
      "▁છે..": 8132,
      "લા\n": 8133,
      "વેશન": 8134,
      "▁નાબૂ": 8135,
      "▁મુદ્રા": 8136,
      "▁સમકાલીન": 8137,
      "▁વાતો": 8138,
      "દીય": 8139,
      "▁બેટ્સ": 8140,
      "▁પોળ\n": 8141,
      "▁વેલે": 8142,
      "ન્ટલ": 8143,
      "▁સિંગા": 8144,
      "▁સામૂહિક": 8145,
      "વવાના": 8146,
      "▁ત્રિકો": 8147,
      "ટ્સ,": 8148,
      "▁નદીને": 8149,
      "▁અભ્યાસમાં": 8150,
      "▁રંગના": 8151,
      "▁શીખો": 8152,
      "▁દ્રષ્ટિ": 8153,
      "▁તબક્કો": 8154,
      "▁યુકેમાં": 8155,
      "▁ઓલપાડ": 8156,
      "િનિદાદ": 8157,
      "▁ઓક્સિજન": 8158,
      "▁વાણિજ્ય": 8159,
      "53": 8160,
      "રવો": 8161,
      "▁વેશ": 8162,
      "▁એસિડ": 8163,
      "▁પ્રત": 8164,
      "▁વિસ": 8165,
      "▁થવું": 8166,
      "▁સંમતિ": 8167,
      "▁૧૦૦૦": 8168,
      "▁ધ્યેય": 8169,
      "▁ઓર્ડ": 8170,
      "▁હોત": 8171,
      "▁ઉપવાસ": 8172,
      "▁કારતક": 8173,
      "વિઝ": 8174,
      "▁સાથેનો": 8175,
      "▁વેળા": 8176,
      "પુલ": 8177,
      "▁ઝાર": 8178,
      "રફે": 8179,
      "▁પહેલ": 8180,
      "▁ટ્રી": 8181,
      "▁અધિ": 8182,
      "▁આપેલી": 8183,
      "▁યુનિટ": 8184,
      "▁ઓગસ્ટ,": 8185,
      "▁નહી.": 8186,
      "▁પલટણો": 8187,
      "▁સ્નાત": 8188,
      "▁ગ્રાહક": 8189,
      "▁દસ્તાવેજ": 8190,
      "▁લાયક": 8191,
      "ાર્ધમાં": 8192,
      "▁ડેવલપમેન્ટ": 8193,
      "46": 8194,
      "5.": 8195,
      "એટ": 8196,
      "ચાં": 8197,
      "ડ઼": 8198,
      "▁જાં": 8199,
      "▁હવામાં": 8200,
      "▁શિકા": 8201,
      "▁લંબ": 8202,
      "કાંડ": 8203,
      "▁રાજ્યપાલ": 8204,
      "▁ઈંડ": 8205,
      "▁શાળાઓમાં": 8206,
      "ટ્ઝ": 8207,
      "▁૨૦૧૦\n": 8208,
      "▁લેખોમાં": 8209,
      "▁દક્ષિણપૂર્વ": 8210,
      "▁પડતું": 8211,
      "▁મી.": 8212,
      "▁ગાંધીના": 8213,
      "▁દર્શાવી": 8214,
      "▁પ્રક્રિયામાં": 8215,
      "▁રમતગ": 8216,
      "▁મુસ્લિમો": 8217,
      "તારામ": 8218,
      "▁જોઈએ.\n": 8219,
      "▁શ્રીલંકાના": 8220,
      "▁પ્રેરિત": 8221,
      "▁સિન્ડ્રે": 8222,
      "ફાઇન": 8223,
      "મણી": 8224,
      "વસ્થા": 8225,
      "▁પડોશી": 8226,
      "▁કવાંટ": 8227,
      "નાશ": 8228,
      "નેસ્કો": 8229,
      "વાયો": 8230,
      "▁જની": 8231,
      "▁હર્": 8232,
      "▁ગળ": 8233,
      "▁કરશો": 8234,
      "▁વિડીયો": 8235,
      "▁ઓડિ": 8236,
      "▁આવરણ": 8237,
      "▁આપનાર": 8238,
      "ન્સના": 8239,
      "▁ઈસ્ટ": 8240,
      "નિટી": 8241,
      "િંગ,": 8242,
      "▁૨૦૦૩": 8243,
      "▁તમારે": 8244,
      "▁2015": 8245,
      "▁રહી.": 8246,
      "▁ડેટાબેઝ": 8247,
      "સમૂહ": 8248,
      "▁બચાવ": 8249,
      "▁ફર્સ્ટ": 8250,
      "▁એરિસ્ટોટલ": 8251,
      "▁કાઠિયા": 8252,
      "▁આગાહી": 8253,
      "▁રમતગમત": 8254,
      "ડાસ": 8255,
      "ૉર્ડ": 8256,
      "▁પૅ": 8257,
      "▁અયોગ્ય": 8258,
      "▁તસ": 8259,
      "નેર": 8260,
      "▁મજા": 8261,
      "▁પ્રક્ષે": 8262,
      "▁રદિ": 8263,
      "ક્લ": 8264,
      "ક્વ": 8265,
      "▁ફરે": 8266,
      "▁મોત": 8267,
      "▁મેમો": 8268,
      "સીપી": 8269,
      "▁સેંટ": 8270,
      "▁ઈસુ": 8271,
      "પ્રયોગ": 8272,
      "સિફિક": 8273,
      "ગીન": 8274,
      "▁વ્યવસાયિક": 8275,
      "▁અભ્યા": 8276,
      "▁દક્ષિણે": 8277,
      "▁ચોમા": 8278,
      "▁થયો,": 8279,
      "▁પહેલાના": 8280,
      "સ્થળ": 8281,
      "▁વિશેની": 8282,
      "▁થયા.\n": 8283,
      "▁નીચેની": 8284,
      "▁ખુલ્લી": 8285,
      "▁બુધ": 8286,
      "▁ત્રીજ": 8287,
      "▁પ્રભાવશાળી": 8288,
      "▁જાતિઓ": 8289,
      "▁ઉજવવામાં": 8290,
      "▁દરિયાકિ": 8291,
      "▁વર્ગના": 8292,
      "▁લક્ષ્યાં": 8293,
      "▁દસ્તાવેજી": 8294,
      "બ્રેરી": 8295,
      "▁અઠવાડિયા": 8296,
      "▁સયા": 8297,
      "▁ક્રી": 8298,
      "નેલ": 8299,
      "નીકરણ": 8300,
      "▁લેશ": 8301,
      "▁ઉત": 8302,
      "▁રાક્ષ": 8303,
      "▁ધન્ય": 8304,
      "▁યાં": 8305,
      "ષ્ક": 8306,
      "ટીક": 8307,
      "મેને": 8308,
      "▁સેમિ": 8309,
      "પ્તાહ": 8310,
      "▁થઈ.\n": 8311,
      "▁સર્વિ": 8312,
      "▁પીડા": 8313,
      "▁લખેલા": 8314,
      "▁મૂળના": 8315,
      "▁આઇપો": 8316,
      "શાસ્ત્રમાં": 8317,
      "▁ધોધ": 8318,
      "▁બાંધી": 8319,
      "▁દ્રૌ": 8320,
      "▁ક્રિકે": 8321,
      "▁અક્ષરો": 8322,
      "▁છીએ.": 8323,
      "▁ક્રોસ": 8324,
      "▁દુર્ગા": 8325,
      "▁મંગળ": 8326,
      "▁સંક્રમણ": 8327,
      "▁માતાપિતા": 8328,
      "▁નિર્મિત": 8329,
      "▁દુષ્કાળ": 8330,
      "7\n": 8331,
      "ફર્ડ": 8332,
      "▁કટ": 8333,
      "▁બસો": 8334,
      "ન્ની": 8335,
      "▁કેશ": 8336,
      "કોણ": 8337,
      "▁સમન્": 8338,
      "▁પુરો": 8339,
      "▁મળતો": 8340,
      "દ્રુપ": 8341,
      "▁૨૦૧૨૦": 8342,
      "▁પેરુ": 8343,
      "▁કરાઇ": 8344,
      "▁શબ્દોમાં": 8345,
      "▁દાણા": 8346,
      "▁કંપનીની": 8347,
      "▁વસ્તી\n": 8348,
      "▁પુનરા": 8349,
      "▁રોગચ": 8350,
      "▁ઇનકાર": 8351,
      "▁લીધી.": 8352,
      "▁જીત્યો": 8353,
      "▁ખેડબ્રહ્": 8354,
      "▁પર્વતો": 8355,
      "▁બોલાતી": 8356,
      "▁અહમદ": 8357,
      "▁ફુટબોલ": 8358,
      "▁મલયાલ": 8359,
      "ક્રીય": 8360,
      "ચલા": 8361,
      "ફ,": 8362,
      "લગ": 8363,
      "▁પટ": 8364,
      "▁કન્ન": 8365,
      "▁વોડ": 8366,
      "▁હમીર": 8367,
      "રાચાર્ય": 8368,
      "▁ગદ્ય": 8369,
      "▁શરણ": 8370,
      "▁પ્રસ્થાપિત": 8371,
      "▁ઉધ": 8372,
      "▁થયુ": 8373,
      "▁ઓથો": 8374,
      "ટી.": 8375,
      "▁ઉપચાર": 8376,
      "▁કારી": 8377,
      "▁મેલ": 8378,
      "▁કુરુ": 8379,
      "▁બોલ્": 8380,
      "▁સંગ્રામ": 8381,
      "ટ્ટે": 8382,
      "▁અનુરૂપ": 8383,
      "▁શકે.\n": 8384,
      "▁ભૂખ": 8385,
      "▁ઉત્તરપૂર્વ": 8386,
      "▁ધરાવતાં": 8387,
      "▁પ્રદેશની": 8388,
      "▁પાસા": 8389,
      "▁૮૦": 8390,
      "▁નવેમ્બર,": 8391,
      "▁તેણીની": 8392,
      "▁1960": 8393,
      "▁બારડો": 8394,
      "▁હ્યુસ્ટન": 8395,
      "વિષયક": 8396,
      "▁પહેલેથી": 8397,
      "ગર,": 8398,
      "▁અન્ન": 8399,
      "▁પ્રજન": 8400,
      "▁કરના": 8401,
      "▁સાપેક્ષ": 8402,
      "કોષ": 8403,
      "▁ભાંગ": 8404,
      "▁ગામે": 8405,
      "▁ઉપરો": 8406,
      "▁પ્રાણવા": 8407,
      "▁૧૯મી": 8408,
      "▁લાગો": 8409,
      "ખાણ": 8410,
      "▁હાથે": 8411,
      "▁ભૂગર્ભ": 8412,
      "▁દિવસ\n": 8413,
      "▁દિવસમાં": 8414,
      "▁પૈકીનું": 8415,
      "▁આગ્રહ": 8416,
      "▁પ્રકાશના": 8417,
      "▁ચાહ": 8418,
      "▁1990ના": 8419,
      "▁ઉત્પાદનમાં": 8420,
      "▁બહારની": 8421,
      "▁પાર્વતી": 8422,
      "▁ખુલ્": 8423,
      "▁સલામત": 8424,
      "▁ગુલામ": 8425,
      "સ્ટેટ": 8426,
      "▁ખુબજ": 8427,
      "▁સેક્રે": 8428,
      "▁સ્કોટ્ટીશ": 8429,
      "▁ઉત્સવ": 8430,
      "▁સિક્કા": 8431,
      "▁સાહસ": 8432,
      "▁સાંકળ": 8433,
      "▁અરુણા": 8434,
      "▁યજમાન": 8435,
      "પ્તાહિક": 8436,
      "▁દ્રૌપદી": 8437,
      "કરે": 8438,
      "મદાવાદ": 8439,
      "▁જવાનો": 8440,
      "▁હ્ર": 8441,
      "▁એવ": 8442,
      "▁ભવન": 8443,
      "ાયન": 8444,
      "▁સંમત": 8445,
      "▁ગામો\n": 8446,
      "▁ગુગલ": 8447,
      "ંદિર": 8448,
      "▁બાષ્": 8449,
      "▁વાવા": 8450,
      "▁જોયું": 8451,
      "મ્મ": 8452,
      "▁દિલ": 8453,
      "▁ડેન": 8454,
      "▁ડેલ્": 8455,
      "ક્રાંતિ": 8456,
      "▁તાત્": 8457,
      "▁પેન": 8458,
      "જનિક": 8459,
      "▁ટેબલ": 8460,
      "▁લેખકો": 8461,
      "▁આવ્યો,": 8462,
      "લ્સમાં": 8463,
      "▁પ્રમાણભૂત": 8464,
      "▁1996": 8465,
      "▁જનસંખ્યા": 8466,
      "▁વર્ણવવામાં": 8467,
      "▁સેનાના": 8468,
      "▁ધરતી": 8469,
      "▁સંદેશો": 8470,
      "▁બતાવે": 8471,
      "▁ઘટકો": 8472,
      "▁ઓકલેન્ડ": 8473,
      "▁નિર્દેશક": 8474,
      "▁મિલાન": 8475,
      "▁રાજીનામું": 8476,
      "ગ,": 8477,
      "મૈ": 8478,
      "રનું": 8479,
      "લયો": 8480,
      "▁અનો": 8481,
      "▁જવું": 8482,
      "▁શ્યામ": 8483,
      "▁પ્રયો": 8484,
      "▁કેદી": 8485,
      "▁સાઈટ": 8486,
      "▁પણે": 8487,
      "▁સમૂ": 8488,
      "▁વાઈ": 8489,
      "▁ટકી": 8490,
      "વર્સ": 8491,
      "▁વિક્ર": 8492,
      "▁નિર્ધારિત": 8493,
      "ર્સના": 8494,
      "▁૩૮": 8495,
      "ભૂષણ": 8496,
      "▁યુનિવર્સિટીના": 8497,
      "▁વરસા": 8498,
      "▁૧૯૮૦": 8499,
      "▁૧૯૮૪": 8500,
      "▁સભ્યોની": 8501,
      "▁કથાઓ": 8502,
      "▁લાલપુર": 8503,
      "▁રોકવા": 8504,
      "▁પ્રયોગો": 8505,
      "▁વધીને": 8506,
      "ઝેક": 8507,
      "▁ચીજવસ્તુ": 8508,
      "▁પુસ્તકાલય": 8509,
      "▁બ્રિગેડ": 8510,
      "લભ": 8511,
      "▁હારી": 8512,
      "ર્વાદ": 8513,
      "▁રાત": 8514,
      "▁રાખ્યા": 8515,
      "▁કોમ્": 8516,
      "દ્વી": 8517,
      "દ્દો": 8518,
      "▁પ્રાણ": 8519,
      "▁કારા": 8520,
      "વિરામ": 8521,
      "▁દેશોના": 8522,
      "▁ગુજરાતની": 8523,
      "▁પીરસ": 8524,
      "▁નોંધ્યું": 8525,
      "ચિંત": 8526,
      "▁જોડવામાં": 8527,
      "▁૧૭૫": 8528,
      "▁પુરસ્કાર\n": 8529,
      "▁સંસ્કૃતિના": 8530,
      "▁સેનાએ": 8531,
      "▁કલમ": 8532,
      "▁સપ્ટેમ્બર,": 8533,
      "▁ગ્રેગો": 8534,
      "▁વર્ષોથી": 8535,
      "▁વિવેચક": 8536,
      "▁ઇંગ્લીશ": 8537,
      "▁દુનિયામાં": 8538,
      "▁બી.એ.": 8539,
      "▁ગેરકાય": 8540,
      "▁પાટણ": 8541,
      "▁સિંધુ": 8542,
      "▁ચરબી": 8543,
      "▁ટાઇટલ": 8544,
      "▁વોશિંગ્ટન": 8545,
      "ંબુ": 8546,
      "ગતા": 8547,
      "૧૦૦": 8548,
      "▁વચન": 8549,
      "▁હુક": 8550,
      "▁શાર": 8551,
      "▁પરનો": 8552,
      "લીક": 8553,
      "▁એકલા": 8554,
      "ડીઆ": 8555,
      "▁ઇંડા": 8556,
      "સીના": 8557,
      "▁જી.": 8558,
      "▁ઈશ્વ": 8559,
      "▁કાલ્પ": 8560,
      "ક્રા": 8561,
      "ગાડી": 8562,
      "▁ચિન્": 8563,
      "▁૩૨": 8564,
      "▁મંદિરનું": 8565,
      "▁થયા,": 8566,
      "▁સહિતની": 8567,
      "▁કરો.": 8568,
      "▁કમાન્ડ": 8569,
      "▁પ્રોટીન": 8570,
      "દિન": 8571,
      "વ્": 8572,
      "▁સત્ર": 8573,
      "▁સિન": 8574,
      "▁બૂમ": 8575,
      "▁એમ્": 8576,
      "▁પ્રાં": 8577,
      "▁ભણ": 8578,
      "▁વિજ્ઞાની": 8579,
      "▁કેરો": 8580,
      "▁રાશિ": 8581,
      "▁ફેશન": 8582,
      "▁ફરિયા": 8583,
      "શ્લેષણ": 8584,
      "કારે": 8585,
      "રેક્ટર": 8586,
      "▁આવશે": 8587,
      "▁૧૯૦૦": 8588,
      "▁યુ.": 8589,
      "કીંગ": 8590,
      "ણામાં": 8591,
      "▁સેનેટ": 8592,
      "ાર્થી": 8593,
      "પ્રમુખ": 8594,
      "▁તાજા": 8595,
      "▁બોક્સ": 8596,
      "▁રોજગારી": 8597,
      "▁વિસ્તારને": 8598,
      "▁૧૮૨": 8599,
      "▁પ્રકારો": 8600,
      "▁લખાયેલા": 8601,
      "િક્ષણ": 8602,
      "▁વિનિમ": 8603,
      "▁ટ્રેક": 8604,
      "▁ફ્રેંચ": 8605,
      "▁ઘોડા": 8606,
      "સ્કોપ": 8607,
      "▁ઝીપ": 8608,
      "▁સ્નાન": 8609,
      "▁માર્કેટિંગ": 8610,
      "▁રાઉટર": 8611,
      "▁વિડિઓ": 8612,
      "પોલિટન": 8613,
      "પાર્ટમેન્ટ": 8614,
      "▁યાંત્રિક": 8615,
      "ગંબર": 8616,
      "ઠન": 8617,
      "ધિત": 8618,
      "નાર્": 8619,
      "▁આલો": 8620,
      "સ્કે": 8621,
      "▁વિન્ડો": 8622,
      "▁ઉમા": 8623,
      "▁ખોડ": 8624,
      "▁કેમે": 8625,
      "▁સ્કુલ": 8626,
      "▁સ્મિથ": 8627,
      "▁ચઢા": 8628,
      "▁ભાઇ": 8629,
      "ડીએ": 8630,
      "જાત": 8631,
      "▁સૌર": 8632,
      "ર્મિ": 8633,
      "▁જુએ": 8634,
      "▁પેરિ": 8635,
      "▁સોં": 8636,
      "▁લેખક,": 8637,
      "▁૩૬": 8638,
      "ટિસ": 8639,
      "▁ધર્મો": 8640,
      "▁લિખિત": 8641,
      "▁પ્રેસિડે": 8642,
      "▁ચાલ્યા": 8643,
      "▁ઠંડી": 8644,
      "▁વિશેષતા": 8645,
      "▁ચળવળમાં": 8646,
      "▁ટેલિફોન": 8647,
      "▁ગ્રામ્ય": 8648,
      "▁ઉપગ્રહો": 8649,
      "▁દરજ્જા": 8650,
      "▁એલટીટીઇ": 8651,
      "▁પુરવઠા": 8652,
      "▁નિરૂપણ": 8653,
      "▁ખનિજ": 8654,
      "▁હુમાયુ": 8655,
      "▁સારેગા": 8656,
      "▁સેક્રેટરી": 8657,
      "110": 8658,
      "8\n": 8659,
      "ોલ": 8660,
      "▁બ્રી": 8661,
      "▁પ્રયા": 8662,
      "▁માણે": 8663,
      "▁વિરૂ": 8664,
      "ણીના": 8665,
      "▁હોતા": 8666,
      "▁છે,જે": 8667,
      "▁સિંગ": 8668,
      "નિસ્ટ": 8669,
      "▁બોલાય": 8670,
      "▁સંદર્ભો": 8671,
      "▁ભૂલો": 8672,
      "▁મળેલી": 8673,
      "▁ઇન્ટેલ": 8674,
      "▁ભોજ": 8675,
      "▁પોર્ટલેન્ડ": 8676,
      "▁પશ્ચિમે": 8677,
      "▁આકર્ષક": 8678,
      "▁ન્યાયમૂર્તિ": 8679,
      "▁અનામત": 8680,
      "▁દિગ્દર્શ": 8681,
      "▁વધારવા": 8682,
      "▁ક્લાસિક": 8683,
      "▁ટેક્સાસ": 8684,
      "▁ધારાસભા": 8685,
      "▁અમલીકરણ": 8686,
      "▁ઉપરોક્ત": 8687,
      "ડ્ર": 8688,
      "રિન": 8689,
      "વનાર": 8690,
      "હાં": 8691,
      "ૂન": 8692,
      "▁પચ": 8693,
      "વારો": 8694,
      "▁બ્યુ": 8695,
      "▁પ્રદુ": 8696,
      "સ્પો": 8697,
      "▁સાક્ષી": 8698,
      "▁ફ્રો": 8699,
      "કેલા": 8700,
      "▁રાજેન્દ્ર": 8701,
      "ક્ષણો": 8702,
      "▁વાટા": 8703,
      "મોદ": 8704,
      "▁ચોમ્": 8705,
      "▁ધર્મનો": 8706,
      "▁રિલીઝ": 8707,
      "▁આવેલુ": 8708,
      "▁એન્જિ": 8709,
      "▁શુભ": 8710,
      "▁સંસ્કૃતિ\n": 8711,
      "▁યુરોપના": 8712,
      "▁કાયદાઓ": 8713,
      "▁ગાંધીજીની": 8714,
      "પ્રદાયિક": 8715,
      "▁બૅન્": 8716,
      "▁ઇસ્લામિક": 8717,
      "▁દસ્તાવેજો": 8718,
      "▁નાણાંકીય": 8719,
      "▁કારણોસર": 8720,
      "▁કર્મચારીઓ": 8721,
      "▁ઉમેદવાર": 8722,
      "▁દ્રાક્ષ": 8723,
      "▁મહાકાવ્ય": 8724,
      "▁અનુકૂળ": 8725,
      "▁ડિસ્કવરી": 8726,
      "▁ડાયોક્": 8727,
      "▁કિરણોત્સ": 8728,
      "▁રદિ.": 8729,
      "▁ખેડબ્રહ્મા": 8730,
      "73": 8731,
      "યત": 8732,
      "▁પદે": 8733,
      "▁અથા": 8734,
      "▁તણા": 8735,
      "▁જઇ": 8736,
      "▁જરા": 8737,
      "▁વઢવા": 8738,
      "▁કરણ": 8739,
      "▁ખામી": 8740,
      "▁સાપ્તાહિક": 8741,
      "▁ભાજ": 8742,
      "▁સુપ્ર": 8743,
      "ણાત્મક": 8744,
      "▁દરરોજ": 8745,
      "▁રહેવાની": 8746,
      "મોન": 8747,
      "▁જેમના": 8748,
      "▁400": 8749,
      "▁તુર": 8750,
      "▁પક્ષે": 8751,
      "▁ડિસેમ્બર,": 8752,
      "▁સેનાપતિ": 8753,
      "▁ઉદાહરણો": 8754,
      "▁માર્ચ,": 8755,
      "▁ઓળખાતું": 8756,
      "▁નિર્ણાયક": 8757,
      "▁પ્રયાસો": 8758,
      "▁આંકડાઓ": 8759,
      "▁મારું": 8760,
      "▁પકડ": 8761,
      "▁વ્હાઇ": 8762,
      "▁શસ્ત્રો": 8763,
      "▁પ્રસંગો": 8764,
      "▁ટાઇમ્સ": 8765,
      "▁ફિલસૂ": 8766,
      "▁ઑગસ્ટ": 8767,
      "9.": 8768,
      "ખાં": 8769,
      "મક": 8770,
      "મણે": 8771,
      "ૃતા": 8772,
      "માટે": 8773,
      "▁કલોલ": 8774,
      "▁અવા": 8775,
      "▁આંચ": 8776,
      "▁હરિયા": 8777,
      "▁તેર": 8778,
      "▁એપો": 8779,
      "▁એન્ટિ": 8780,
      "▁શત્ર": 8781,
      "▁સ્ખ": 8782,
      "કેશ": 8783,
      "▁ધૃત": 8784,
      "▁વ્યૂહ": 8785,
      "માનંદ": 8786,
      "▁સેમી": 8787,
      "▁નિહ": 8788,
      "▁બીચ": 8789,
      "▁સીધો": 8790,
      "▁મંદીર": 8791,
      "▁ત્રિનિદાદ": 8792,
      "▁સામેના": 8793,
      "▁બંધુ": 8794,
      "▁અપલોડ": 8795,
      "ૈયાં": 8796,
      "▁મતલબ": 8797,
      "▁પિતાનું": 8798,
      "▁રુપ": 8799,
      "ચોટ": 8800,
      "▁દાયકાના": 8801,
      "▁બીજાં": 8802,
      "▁સૂચિત": 8803,
      "▁આખરી": 8804,
      "▁9788": 8805,
      "▁આયુષ્ય": 8806,
      "▁જાપાનીઝ": 8807,
      "▁ન્યૂટનના": 8808,
      "▁ઉભરી": 8809,
      "▁મલેશ": 8810,
      "▁અબ્દુલ": 8811,
      "▁ભ્રષ્ટાચાર": 8812,
      "▁વિટામિન": 8813,
      "અપ": 8814,
      "ઈન્ટ": 8815,
      "બર્": 8816,
      "લેશન": 8817,
      "▁કર્ક": 8818,
      "▁તારો": 8819,
      "▁બૂ": 8820,
      "▁વિપુલ": 8821,
      "ટેસ્ટ": 8822,
      "▁થિ": 8823,
      "નું,": 8824,
      "▁રાઉન્ડ": 8825,
      "▁મુવાડા": 8826,
      "ભાષ": 8827,
      "▁વારસ": 8828,
      "વો.": 8829,
      "િંગની": 8830,
      "▁ફેસ": 8831,
      "▁ગોવિંદ": 8832,
      "ડો,": 8833,
      "▁કોઈક": 8834,
      "▁ફોર્મ": 8835,
      "્સમાં": 8836,
      "▁સ્વાઝી": 8837,
      "▁સ્પેશ": 8838,
      "▁બિમારી": 8839,
      "▁લિપ": 8840,
      "▁આઇઝેક": 8841,
      "▁ઉત્પાદનો": 8842,
      "▁સંસ્થાના": 8843,
      "▁વપરાતા": 8844,
      "▁પરિણમે": 8845,
      "▁ઉદ્યોગમાં": 8846,
      "▁ભાઈઓ": 8847,
      "▁મોકલવા": 8848,
      "▁યુગમાં": 8849,
      "▁મહત્ત્વની": 8850,
      "▁કબજે": 8851,
      "▁વૈજ્ઞાનિકો": 8852,
      "▁ધોરીમાર્ગ": 8853,
      "▁વયના": 8854,
      "▁શામેલ": 8855,
      "શ્રેષ્ઠ": 8856,
      "▁વર્તુળ": 8857,
      "▁અર્થાત": 8858,
      "▁સારેગામા\n": 8859,
      "ઃ\n": 8860,
      "ગિલ": 8861,
      "ડિયન": 8862,
      "▁સમાંતર": 8863,
      "▁સચોટ": 8864,
      "▁અત્યા": 8865,
      "લાઈ,": 8866,
      "િકારી": 8867,
      "સ્કર": 8868,
      "▁વિમ્બ": 8869,
      "▁કેથોલિક": 8870,
      "ટેક": 8871,
      "ટેજ": 8872,
      "▁ડાઇ": 8873,
      "▁ઘાયલ": 8874,
      "▁મોજા": 8875,
      "સ્તિક": 8876,
      "▁..\n": 8877,
      "▁રોઝ": 8878,
      "▁બેગ": 8879,
      "▁લેખિત": 8880,
      "ગોન": 8881,
      "▁સર્જા": 8882,
      "▁જૂન,": 8883,
      "▁બનતી": 8884,
      "▁બન્યો.": 8885,
      "▁આવ્યા,": 8886,
      "▁ચિહ્": 8887,
      "▁રૂ.": 8888,
      "▁ટી.": 8889,
      "▁વ્યક્તિની": 8890,
      "▁દીઠ": 8891,
      "▁વસતા": 8892,
      "વ્યા.": 8893,
      "▁જમીનમાં": 8894,
      "▁ઠંડ": 8895,
      "▁દરિયાઇ": 8896,
      "▁જાળવણી": 8897,
      "▁!!": 8898,
      "વૈયા": 8899,
      "▁આતંકવાદી": 8900,
      "▁એલિસ": 8901,
      "▁જહાજ": 8902,
      "▁32.7": 8903,
      "સાધારણ": 8904,
      "▁હકીકત": 8905,
      "▁તટસ્થ": 8906,
      "▁અચાનક": 8907,
      "▁શિકાગો": 8908,
      "▁કાલ્પનિક": 8909,
      "ડમ": 8910,
      "બના": 8911,
      "વવું": 8912,
      "માથી": 8913,
      "▁પલા": 8914,
      "ર્તિ": 8915,
      "▁બિલ્": 8916,
      "▁નરેન્દ્ર": 8917,
      "ાયુ": 8918,
      "▁સ્લો": 8919,
      "કાલ": 8920,
      "જી.": 8921,
      "ણીક": 8922,
      "▁ઘટે": 8923,
      "લોગ": 8924,
      "▁યુનેસ્કો": 8925,
      "▁ટૅ": 8926,
      "▁3\n": 8927,
      "▁સરકારમાં": 8928,
      "▁ગણરાજ્ય": 8929,
      "▁ટીમના": 8930,
      "▁ગ્રૂપ": 8931,
      "▁તુર્કી": 8932,
      "▁બિરુ": 8933,
      "▁વગેરેનો": 8934,
      "સુર": 8935,
      "▁એલ.": 8936,
      "▁આર્ટ્સ": 8937,
      "▁દાંડી": 8938,
      "▁તકનિક": 8939,
      "▁ફળદ્રુપ": 8940,
      "▁ગ્રાહકો": 8941,
      "▁લંબાઇ": 8942,
      "▁ઘોષિત": 8943,
      "▁લાક્ષણિકતા": 8944,
      "▁તિબેટ": 8945,
      "▁શંકરાચાર્ય": 8946,
      "▁કેમ્બ્રિ": 8947,
      "▁અલબત્ત": 8948,
      "▁ચોમ્સ્કી": 8949,
      "43": 8950,
      "ઓ.": 8951,
      "વરા": 8952,
      "વવી": 8953,
      "▁અરેબ": 8954,
      "▁જર્": 8955,
      "▁હિલ્": 8956,
      "▁એપ": 8957,
      "▁શ્રમ": 8958,
      "ન્ટ્રી": 8959,
      "ાસરા": 8960,
      "▁જોડિયા": 8961,
      "મેં": 8962,
      "▁રોમ": 8963,
      "▁રોય": 8964,
      "▁રીંગ": 8965,
      "▁સેક્સ": 8966,
      "▁ટાળ": 8967,
      "▁પેકેટ": 8968,
      "વાર્ય": 8969,
      "▁ઊટી": 8970,
      "▁સીતા": 8971,
      "▁નિર્ભર": 8972,
      "▁ધર્મ,": 8973,
      "▁વોર": 8974,
      "▁વગેરે.": 8975,
      "▁છોડો": 8976,
      "▁જોઈને": 8977,
      "▁75": 8978,
      "▁૧૯૫૦": 8979,
      "▁પાકિસ્તાનની": 8980,
      "▁વારસા": 8981,
      "▁ઇન્ડો": 8982,
      "▁પિતાના": 8983,
      "▁સમાનતા": 8984,
      "▁સંભવત": 8985,
      "▁એન.": 8986,
      "▁કાલિક": 8987,
      "▁લડત": 8988,
      "▁ચુકા": 8989,
      "▁સંસદીય": 8990,
      "▁જમણી": 8991,
      "▁ગુણધર્મો": 8992,
      "▁વાચન\n": 8993,
      "▁અધ્યાપક": 8994,
      "▁મોકલ્યું!": 8995,
      "▁ધૃતરાષ્ટ્ર": 8996,
      "ંટા": 8997,
      "ટલો": 8998,
      "ડતા": 8999,
      "૨૦૦": 9000,
      "▁કય": 9001,
      "▁કલેક્": 9002,
      "▁અષા": 9003,
      "▁છાલ": 9004,
      "રાને": 9005,
      "▁શણ": 9006,
      "▁નરમ": 9007,
      "▁ઉડા": 9008,
      "તિષ": 9009,
      "▁પર,": 9010,
      "કે.": 9011,
      "ંદગી": 9012,
      "દીના": 9013,
      "ડાઈ": 9014,
      "▁પુર્વ": 9015,
      "▁ઉત્કૃ": 9016,
      "▁માંડીને": 9017,
      "ડેજા": 9018,
      "ડોર": 9019,
      "▁ખાતેની": 9020,
      "▁સ્થાપવામાં": 9021,
      "▁કેન્દ્રો": 9022,
      "▁અપમાન": 9023,
      "▁પ્રમાણિત": 9024,
      "દોષ": 9025,
      "▁વપરાતી": 9026,
      "▁કલાકારો": 9027,
      "▁ખોલ": 9028,
      "▁ધીમી": 9029,
      "▁૧૫૦": 9030,
      "▁દિલ્હીની": 9031,
      "▁ઠેર": 9032,
      "▁ભરવાડ": 9033,
      "▁પરિવારના": 9034,
      "▁સાર્વજનિક": 9035,
      "▁તીર્થંકર": 9036,
      "▁ઓપરે": 9037,
      "▁સંકલિત": 9038,
      "▁ફ઼િલ્": 9039,
      "યુનાઇટેડ": 9040,
      "▁એસોસિયેશન": 9041,
      "▁ત્વચા": 9042,
      "▁તદ્દન": 9043,
      "▁વિરૂદ્ધ": 9044,
      "આપ": 9045,
      "ગ્રે": 9046,
      "ણિત": 9047,
      "પછી": 9048,
      "સનું": 9049,
      "૪.": 9050,
      "▁વઘ": 9051,
      "▁શૌ": 9052,
      "▁નકલ": 9053,
      "▁માધ": 9054,
      "▁માર્ટ": 9055,
      "▁સંતાનો": 9056,
      "કાસ્ટ": 9057,
      "▁નાનાં": 9058,
      "ાંકી": 9059,
      "▁ધમ": 9060,
      "ષ્ટી": 9061,
      "લેરિયા": 9062,
      "▁વાણી": 9063,
      "▁બેક્ટે": 9064,
      "▁પોઝિ": 9065,
      "▁ટર્": 9066,
      "▁નીચી": 9067,
      "ટ્સે": 9068,
      "▁કાર્યમાં": 9069,
      "▁વ્યાપ": 9070,
      "▁પ્રોસે": 9071,
      "▁નોંધણી": 9072,
      "▁વિશેના": 9073,
      "▁૧૯૪૭માં": 9074,
      "▁જાહેરમાં": 9075,
      "▁૧૯૩૦": 9076,
      "▁રૂપિયા": 9077,
      "વિકિ": 9078,
      "▁જોડાઈ": 9079,
      "▁પડી.": 9080,
      "▁ગણાવી": 9081,
      "▁આનાથી": 9082,
      "▁દીધો.": 9083,
      "▁દુશ્મન": 9084,
      "સ્વામી": 9085,
      "▁તૈનાત": 9086,
      "▁સચિવ": 9087,
      "▁અવિભાજ્ય": 9088,
      "▁સમન્વય": 9089,
      "ઝ્": 9090,
      "૭૫": 9091,
      "▁જ્યુ": 9092,
      "▁વચ": 9093,
      "▁ભરાય": 9094,
      "▁કેન": 9095,
      "▁સંકો": 9096,
      "▁કોષ્ટ": 9097,
      "▁વાદળ": 9098,
      "▁લાખો": 9099,
      "▁જાડેજા": 9100,
      "▁દિવાલો": 9101,
      "▁વેર": 9102,
      "▁સિધ્ધ": 9103,
      "સેલ": 9104,
      "નિકેશન": 9105,
      "▁ચિહ્ન": 9106,
      "▁દુર્ગ": 9107,
      "▁ત્રાસ": 9108,
      "00010": 9109,
      "▁૧૯૭૧": 9110,
      "▁મદદરૂપ": 9111,
      "લાયચી": 9112,
      "ઘાટન": 9113,
      "સ્ટોન": 9114,
      "▁બોલતા": 9115,
      "▁ક્રમનું": 9116,
      "▁હાઇવે": 9117,
      "▁શૈલીમાં": 9118,
      "▁કહીને": 9119,
      "▁આવૃત્તિ.": 9120,
      "▁ફેડરલ": 9121,
      "▁સદસ્ય": 9122,
      "▁શહીદ": 9123,
      "▁ગ્રેગોરીયન": 9124,
      "▁વિનિમય": 9125,
      "42": 9126,
      "ઝિન": 9127,
      "તલ": 9128,
      "મ્યુ": 9129,
      "▁સજ્જ": 9130,
      "▁આખી": 9131,
      "▁આજનો": 9132,
      "▁વૉ": 9133,
      "▁મિલ્": 9134,
      "▁છે.અ": 9135,
      "▁બ્રુ": 9136,
      "ન્જર": 9137,
      "▁રમે": 9138,
      "▁માયા": 9139,
      "ટેશન": 9140,
      "▁સ્ક્": 9141,
      "▁ધરો": 9142,
      "▁ધારી": 9143,
      "્યું.\n": 9144,
      "▁લોખંડ": 9145,
      "▁વાજ": 9146,
      "▁મેયર": 9147,
      "મ્બા": 9148,
      "▁ગુજરાત,": 9149,
      "ર્મો": 9150,
      "▁તોફા": 9151,
      "▁આંગણવાડીની": 9152,
      "▁અમને": 9153,
      "▁ટાઉ": 9154,
      "▁નોંધનીય": 9155,
      "▁ક્વો": 9156,
      "▁પાછળના": 9157,
      "▁દિલ્હીના": 9158,
      "▁તેણીના": 9159,
      "▁છું,": 9160,
      "ત્સવ": 9161,
      "▁પ્રોત્સાહિત": 9162,
      "▁2001માં": 9163,
      "▁ગોલ્ડફિ": 9164,
      "▁જહાજો": 9165,
      "▁શકીએ": 9166,
      "▁નામાંકન": 9167,
      "▁ડ્રાઇ": 9168,
      "▁તુરંત": 9169,
      "એએ": 9170,
      "ઝિર": 9171,
      "પરાંત": 9172,
      "▁પબ્": 9173,
      "▁અદા": 9174,
      "▁વળાં": 9175,
      "▁વડું": 9176,
      "▁હિત": 9177,
      "રાપ": 9178,
      "▁એલે": 9179,
      "▁ભળી": 9180,
      "▁વિવાહ": 9181,
      "▁ખિતા": 9182,
      "▁રાજકુ": 9183,
      "રોધી": 9184,
      "▁લોહ": 9185,
      "▁વાઇસ": 9186,
      "▁રહેશે": 9187,
      "▁૨૦૧૫": 9188,
      "▁300": 9189,
      "▁ભાષાને": 9190,
      "▁શકે,": 9191,
      "▁સ્ટેશનો": 9192,
      "▁ફિલ્મના": 9193,
      "▁કર્યા.\n": 9194,
      "વ્યાપી": 9195,
      "▁કવિ,": 9196,
      "▁દેવના": 9197,
      "▁શોધવા": 9198,
      "▁સમાજવાદી": 9199,
      "▁સંભાળી": 9200,
      "▁ભૂમધ્ય": 9201,
      "▁2006ના": 9202,
      "▁યુગના": 9203,
      "▁સ્પેસ": 9204,
      "▁સ્ટોક": 9205,
      "▁ગેરહા": 9206,
      "▁મેટ્રોપોલિટન": 9207,
      "▁નામાંકિત": 9208,
      "▁સંકલન": 9209,
      "▁હથિયાર": 9210,
      "બ્રાસ્કા": 9211,
      "▁વિગતવાર": 9212,
      "▁પ્રાયઃ": 9213,
      "▁કંઈક": 9214,
      "▁સમારંભ": 9215,
      "ન્ચેસ્ટર": 9216,
      "▁પપૈયાં": 9217,
      "ણ્ય": 9218,
      "દંડ": 9219,
      "બહે": 9220,
      "૪૫": 9221,
      "▁પટના": 9222,
      "▁અસાધારણ": 9223,
      "▁આશી": 9224,
      "▁આરસ": 9225,
      "વાવ": 9226,
      "▁જારી": 9227,
      "▁શર્મા": 9228,
      "ન્હા": 9229,
      "▁માળીયા": 9230,
      "ક્ટ્સ": 9231,
      "▁વિ.": 9232,
      "િયર્સ": 9233,
      "▁થાન": 9234,
      "▁પરનું": 9235,
      "▁મુલ": 9236,
      "▁ઓલ્ડ": 9237,
      "ટીસ": 9238,
      "▁રાજપૂ": 9239,
      "▁ભાગને": 9240,
      "▁જોન": 9241,
      "▁જોષી": 9242,
      "▁મોગલ": 9243,
      "▁મેટ્રિક": 9244,
      "▁યુવાનો": 9245,
      "▁લેન": 9246,
      "▁1930": 9247,
      "▁મળ્યો.": 9248,
      "▁સમાધિ": 9249,
      "▁સમારોહ": 9250,
      "▁જુદાં": 9251,
      "▁સામુ": 9252,
      "▁ઊભ": 9253,
      "▁પૂજ": 9254,
      "▁ચીનની": 9255,
      "▁હાલની": 9256,
      "▁મહેન": 9257,
      "▁નવીન": 9258,
      "▁પંક્તિ": 9259,
      "▁ગ્રંથોમાં": 9260,
      "▁33.0": 9261,
      "▁પરિષદના": 9262,
      "▁કૌશલ": 9263,
      "▁કક્ષાના": 9264,
      "▁જઈને": 9265,
      "▁અંગ્રેજોએ": 9266,
      "▁શ્રદ્ધા": 9267,
      "▁નાનક": 9268,
      "કુંડ": 9269,
      "શૈલી": 9270,
      "▁ઇમારતો": 9271,
      "▁એકેડેમી": 9272,
      "▁પ્રજનન": 9273,
      "300": 9274,
      "ઓમાં,": 9275,
      "ખ્ય": 9276,
      "ધપુર": 9277,
      "પથ": 9278,
      "ળુ": 9279,
      "શની": 9280,
      "▁સફ": 9281,
      "▁અન્": 9282,
      "▁મરણો": 9283,
      "ામણ": 9284,
      "▁પરશુ": 9285,
      "કાલિક": 9286,
      "▁સેલ્સ": 9287,
      "યોગી": 9288,
      "▁બીજુ": 9289,
      "▁કાબુ": 9290,
      "ડેટ": 9291,
      "પુત્ર": 9292,
      "▁રહેવાસી": 9293,
      "▁૨૦૧૬": 9294,
      "▁૨૦૧૯": 9295,
      "▁ગોરા": 9296,
      "▁માનવું": 9297,
      "▁મોટાપ": 9298,
      "▁રહ્યો.": 9299,
      "▁મીઠું": 9300,
      "▁ડાબી": 9301,
      "▁આઇએસબીએન": 9302,
      "▁ગયા.\n": 9303,
      "▁રાજાઓ": 9304,
      "▁માર્ગદર્શ": 9305,
      "▁કોંગ્રે": 9306,
      "▁સમુદાયના": 9307,
      "હુદી": 9308,
      "▁પ્રિન્ટ": 9309,
      "▁વાંચન\n": 9310,
      "▁ધવલચર્ચાયોગદાન": 9311,
      "▁જાપાનમાં": 9312,
      "▁યોજવામાં": 9313,
      "▁ફરજિયાત": 9314,
      "▁બી.બી.": 9315,
      "▁ધ્રુવ": 9316,
      "લકંઠ": 9317,
      "કોનોમિક": 9318,
      "▁લઘુમતી": 9319,
      "▁ફ્લોરિ": 9320,
      "▁ઉચ્ચારણ": 9321,
      "▁આઇસલેંડ": 9322,
      "ધિકારી": 9323,
      "▁કાગળ": 9324,
      "▁બહોળા": 9325,
      "▁વિશ્વસનીય": 9326,
      "▁કાઠિયાવાડ": 9327,
      "ઇન્સ": 9328,
      "ખલી": 9329,
      "જલ": 9330,
      "હલા": 9331,
      "૮.": 9332,
      "▁કવી": 9333,
      "▁આરામ": 9334,
      "▁દરે": 9335,
      "વેલ્થ": 9336,
      "સ્તિ": 9337,
      "▁વિભાવના": 9338,
      "▁સંતો": 9339,
      "કોનું": 9340,
      "િતાર": 9341,
      "ડીમાં": 9342,
      "▁1.": 9343,
      "▁1000": 9344,
      "▁સુશ": 9345,
      "▁સુચના": 9346,
      "▁કાર્યાલય": 9347,
      "▁વિશ્વનો": 9348,
      "ત્યાર": 9349,
      "▁પીળા": 9350,
      "▁આવ્યું,": 9351,
      "▁180": 9352,
      "▁ન્યૂયોર્ક": 9353,
      "▁૧૯૪૮": 9354,
      "▁પગથ": 9355,
      "▁જૈવ": 9356,
      "▁નિષ્ક્રિય": 9357,
      "બિંદુ": 9358,
      "▁સપાટ": 9359,
      "▁આફ્રિકાના": 9360,
      "▁ઉમરે": 9361,
      "▁કેપિટ": 9362,
      "▁એલેક્ઝાન્ડર": 9363,
      "▁કાઉન્સીલ": 9364,
      "▁ત્રણેય": 9365,
      "▁હાઇડ્રોજન": 9366,
      "▁ઓર્લાન્ડો": 9367,
      "▁અમીરગઢ": 9368,
      "મિયા": 9369,
      "લિયન": 9370,
      "▁પંથ": 9371,
      "▁સબા": 9372,
      "▁મધ": 9373,
      "▁હરે": 9374,
      "લાઓ": 9375,
      "▁એરો": 9376,
      "▁ભવ": 9377,
      "▁ભિ": 9378,
      "▁રબારી": 9379,
      "▁લૉ": 9380,
      "▁વિગેરે": 9381,
      "િયન્સ": 9382,
      "▁કેશો": 9383,
      "▁કેલેન્ડ": 9384,
      "ડીનાર": 9385,
      "રોય": 9386,
      "્યું,": 9387,
      "▁બાપા": 9388,
      "▁ઇંચ": 9389,
      "▁કારકી": 9390,
      "▁તરીકે\n": 9391,
      "▁લાઇટ": 9392,
      "▁વેલ્સ": 9393,
      "▁1920": 9394,
      "ચ્ચા": 9395,
      "▁મળવા": 9396,
      "▁ખાતા": 9397,
      "▁ક્રિસ": 9398,
      "▁હાડ": 9399,
      "▁હાઈડ": 9400,
      "શોભ": 9401,
      "િક્ષા": 9402,
      "▁45": 9403,
      "▁વીસ": 9404,
      "▁જંગલમાં": 9405,
      "▁૧૯૫૬": 9406,
      "▁અમદાવાદની": 9407,
      "▁૭૦": 9408,
      "▁અસ્વી": 9409,
      "▁વંશજો": 9410,
      "▁મોટાં": 9411,
      "ઘાત": 9412,
      "▁બંધારણમાં": 9413,
      "▁વ્હી": 9414,
      "▁આઝાદ": 9415,
      "▁ઉડ્ડ": 9416,
      "▁સ્વયંસે": 9417,
      "▁બૅન્કિંગ": 9418,
      "▁શિલ્પ": 9419,
      "▁તૂટી": 9420,
      "▁વિરપુર": 9421,
      "▁મેદાનો": 9422,
      "▁ઘડિયાળ": 9423,
      "▁ધન્યવાદ": 9424,
      "▁વ્હાઇટ": 9425,
      "7.": 9426,
      "85": 9427,
      "ગાળા": 9428,
      "દારે": 9429,
      "બારો": 9430,
      "લિયા": 9431,
      "વલી": 9432,
      "▁બલિ": 9433,
      "▁એલ્": 9434,
      "▁પ્રાંતો": 9435,
      "▁રમી": 9436,
      "▁રમણ": 9437,
      "▁માતર": 9438,
      "▁કેલ્": 9439,
      "▁ઇન્સ": 9440,
      "▁વાળો": 9441,
      "▁વર્ગો": 9442,
      "▁લાદ": 9443,
      "▁દ્વારા,": 9444,
      "▁1940": 9445,
      "પીએ": 9446,
      "▁2003માં": 9447,
      "▁ફેક": 9448,
      "▁લીલી": 9449,
      "▁રાષ્ટ્રધ્વ": 9450,
      "▁કેટલાય": 9451,
      "▁ક્ષેત્રને": 9452,
      "▁ધર્મ\n": 9453,
      "▁ક્વી": 9454,
      "▁૧૯૪૨": 9455,
      "▁લાગ્યા.": 9456,
      "▁અર્થે": 9457,
      "▁પૂરતી": 9458,
      "▁કપૂર": 9459,
      "▁એશિયાના": 9460,
      "▁રણજિત": 9461,
      "▁સુધારણા": 9462,
      "▁અનિવાર્ય": 9463,
      "▁મંડળી": 9464,
      "▁નારિયે": 9465,
      "▁ચુક્યા": 9466,
      "▁ફિલાડેલ્ફિયા": 9467,
      "▁મેસોપોટેમી": 9468,
      "ટ્યુ": 9469,
      "▁સસ્ત": 9470,
      "▁અઢ": 9471,
      "▁છાં": 9472,
      "ારિક": 9473,
      "▁હાય": 9474,
      "▁દલ": 9475,
      "▁માળા": 9476,
      "ેશનના": 9477,
[...]
