{"<pad>":0,"<unk>":1,"<s>":2,"</s>":3,"<mask>":4,"\t":5,"\n":6,"!":7,",":8,".":9,"0":10,"1":11,"2":12,"3":13,"4":14,"5":15,"6":16,"7":17,"8":18,"9":19,"?":20,"ઁ":21,"ં":22,"ઃ":23,"અ":24,"આ":25,"ઇ":26,"ઈ":27,"ઉ":28,"ઊ":29,"ઋ":30,"ઍ":31,"એ":32,"ઐ":33,"ઑ":34,"ઓ":35,"ઔ":36,"ક":37,"ખ":38,"ગ":39,"ઘ":40,"ઙ":41,"ચ":42,"છ":43,"જ":44,"ઝ":45,"ઞ":46,"ટ":47,"ઠ":48,"ડ":49,"ઢ":50,"ણ":51,"ત":52,"થ":53,"દ":54,"ધ":55,"ન":56,"પ":57,"ફ":58,"બ":59,"ભ":60,"મ":61,"ય":62,"ર":63,"લ":64,"ળ":65,"વ":66,"શ":67,"ષ":68,"સ":69,"હ":70,"઼":71,"ઽ":72,"ા":73,"િ":74,"ી":75,"ુ":76,"ૂ":77,"ૃ":78,"ૄ":79,"ૅ":80,"ે":81,"ૈ":82,"ૉ":83,"ો":84,"ૌ":85,"્":86,"ૐ":87,"ૠ":88,"ૢ":89,"૦":90,"૧":91,"૨":92,"૩":93,"૪":94,"૫":95,"૬":96,"૭":97,"૮":98,"૯":99,"૰":100,"૱":101,"▁":102,"▁ક":103,"મા":104,"▁પ":105,"▁સ":106,"▁ત":107,"ને":108,"વા":109,"ના":110,"્ય":111,"▁જ":112,"▁અ":113,"▁છ":114,"▁આ":115,"્ર":116,"▁છે":117,"માં":118,"ાર":119,"▁હ":120,"▁મ":121,"▁વ":122,"ું":123,"ની":124,"▁ર":125,"▁તે":126,"▁બ":127,"▁કર":128,"તા":129,"▁એ":130,"▁ન":131,"▁છે.":132,"▁દ":133,"ર્":134,"થી":135,"▁શ":136,"લા":137,"▁અને":138,"▁મા":139,"▁ગ":140,"▁કે":141,"્યા":142,"રા":143,"▁લ":144,"▁પ્ર":145,"સ્":146,"▁થ":147,"▁ભ":148,"રી":149,"યા":150,"▁સા":151,"વી":152,"▁ખ":153,"ક્":154,"ન્":155,"▁વિ":156,"ટે":157,"તી":158,"▁ઉ":159,"▁ચ":160,"હે":161,"ાય":162,"▁પર":163,"નો":164,"વે":165,"▁જે":166,"▁સ્":167,"▁પણ":168,"મે":169,"તિ":170,".\n":171,"કા":172,"▁ફ":173,"ત્ર":174,"લી":175,"▁પા":176,"▁રા":177,"નું":178,"ત્":179,"▁એક":180,"રે":181,"▁માટે":182,"શે":183,"ંગ":184,"▁જો":185,"▁વા":186,"િક":187,"▁કરી":188,"▁આપ":189,"વામાં":190,"▁ના":191,"▁કા":192,"્યું":193,"▁ધ":194,"હી":195,"ારે":196,"ણી":197,"ણે":198,"કે":199,"▁કો":200,"કો":201,"ાવ":202,"ડી":203,"લે":204,"▁હત":205,"▁હો":206,"▁તેમ":207,"▁આવ":208,"લ્":209,"્યો":210,"તે":211,"▁લા":212,"▁છે.\n":213,"▁સુ":214,"▁ઘ":215,"ાન":216,"ટી":217,"થે":218,"િયા":219,"▁સં":220,"ક્ષ":221,"ડા":222,"યો":223,"▁સમ":224,"જી":225,"▁સાથે":226,"િત":227,"રો":228,"ાં":229,"▁છે,":230,"▁પો":231,"ધી":232,"કાર":233,"▁ઉપ":234,"▁જા":235,"▁કાર":236,"▁મે":237,"▁હતી":238,"રૂ":239,"▁બા":240,"▁નથી":241,"▁ટ":242,"ંદ":243,"ણા":244,"▁હતા":245,"▁મુ":246,"સા":247,"ંત":248,"▁કરવા":249,"જા":250,"સે":251,"▁નિ":252,"▁મો":253,"▁દે":254,"ષ્":255,"▁ડ":256,"▁તો":257,"્યારે":258,"▁બે":259,"ળી":260,"ભા":261,"▁વધ":262,"ારી":263,"થા":264,"કી":265,"▁હા":266,"મી":267,"▁લો":268,"દ્":269,"પા":270,"▁ભા":271,"▁આવે":272,"▁ઓ":273,"વિ":274,"▁1":275,"દી":276,"્યાં":277,"▁મહ":278,"દા":279,"▁તમા":280,"શ્":281,"તાં":282,"્રી":283,"વું":284,"નુ":285,"િવ":286,"▁રહ":287,"ટા":288,"▁ગુ":289,"▁રહે":290,"▁લે":291,"▁આવી":292,"▁વર્":293,"યુ":294,"ંચ":295,"્રે":296,"સી":297,"ંધ":298,"ો.":299,"▁ખા":300,"▁ઇ":301,"▁હોય":302,"સ્ત":303,"છી":304,"લો":305,"્રા":306,"▁ને":307,"▁જી":308,"ળા":309,"▁2":310,"▁પુ":311,"ડે":312,"િય":313,"જે":314,"▁હતું":315,"શન":316,"▁રી":317,"▁કરે":318,"તો":319,"્યુ":320,"▁ની":321,"▁પે":322,"ાર્":323,"વાર":324,"▁સર":325,"સ્ટ":326,"યે":327,"▁માં":328,"▁કરવામાં":329,"▁રાજ":330,"દે":331,"ગી":332,"શે.":333,"▁ચા":334,"▁તા":335,"▁પૂ":336,"▁તેના":337,"▁થાય":338,"▁પછી":339,"▁રો":340,"▁થઈ":341,"ધા":342,"▁મળ":343,"▁હતી.":344,"ચ્":345,"▁તમે":346,"ન્ટ":347,"▁સે":348,"શા":349,"ારા":350,"વાની":351,"ગે":352,"▁સિ":353,"નાં":354,"▁લોકો":355,"્વા":356,"પ્":357,"માન":358,"▁૧":359,"▁બી":360,"▁રૂ":361,"િલ્":362,"▁તેને":363,"▁રીતે":364,"▁પોતા":365,"હીં":366,"▁ઈ":367,"▁યુ":368,"પી":369,"▁શકે":370,"ષ્ટ":371,"▁વર્ષ":372,"▁કોઈ":373,"હિ":374,"▁રાખ":375,"▁વે":376,"દ્ધ":377,"ગા":378,"▁એમ":379,"બા":380,"નિ":381,"▁સુધી":382,"ત્રી":383,"▁શક":384,"ખા":385,"▁કહે":386,"..":387,"રમાં":388,"ચે":389,"▁કામ":390,"▁પહે":391,"▁કહ":392,"▁દ્વા":393,"ંતુ":394,"▁દ્વારા":395,"▁ત્યારે":396,"મ્":397,"▁દિવ":398,"▁એટ":399,"ચાર":400,"ણુ":401,"▁સ્થ":402,"▁હતા.":403,"▁ઝ":404,"▁પરંતુ":405,"▁લી":406,"▁ગા":407,"ન્ડ":408,"▁વધુ":409,"▁દર":410,"▁તેની":411,"▁હું":412,"▁શા":413,"▁દુ":414,"▁બના":415,"સિ":416,"▁વ્ય":417,"ગર":418,"▁દી":419,"▁કે,":420,"ક્ર":421,"▁ઉપર":422,"▁હે":423,"રણ":424,"ચા":425,"માંથી":426,"▁નો":427,"વો":428,"લિ":429,"▁પરિ":430,"▁પડ":431,"હા":432,"▁રે":433,"ેર":434,"▁ભાર":435,"હો":436,"▁રહી":437,"▁છો":438,"મને":439,"▁કુ":440,"▁નથી.":441,"▁મિ":442,"▁બો":443,"ટર":444,"શી":445,"યોગ":446,"મિ":447,"વન":448,"▁અનુ":449,"ક્તિ":450,"▁મૂ":451,"▁વાત":452,"પ્ર":453,"▁ઉત્":454,"ન્દ":455,"▁ખે":456,"▁કેટ":457,"ંક":458,"▁કહ્યું":459,"ર્ણ":460,"▁હતો.":461,"▁હવે":462,"▁સો":463,"▁તથા":464,"▁જોઈ":465,"▁અથ":466,"બી":467,"▁સમય":468,"▁જ્યારે":469,"ન્ય":470,"▁પી":471,"▁તેઓ":472,"મો":473,"▁તર":474,"ંડ":475,"ર્વ":476,"તર":477,"▁ત્યાં":478,"▁કિ":479,"▁ગયા":480,"બર":481,"▁ક્":482,"▁સ્વ":483,"▁અથવા":484,"ૂર":485,"▁પોલી":486,"યું":487,"સર":488,"▁સી":489,"ારો":490,"▁પ્રા":491,"▁નહીં":492,"▁સામે":493,"▁હતો":494,"્ઞ":495,"ુર":496,"પે":497,"નમાં":498,"▁20":499,"ુક":500,"ત્ય":501,"▁સમા":502,"સો":503,"▁જણ":504,"વાનું":505,"▁જાય":506,"▁સહ":507,"પો":508,"હાર":509,"▁પાસે":510,"▁અમ":511,"ર્ટ":512,"▁કં":513,"▁લગ":514,"ટો":515,"▁!":516,"▁લાગ":517,"▁મી":518,"જન":519,"ખી":520,"▁રહ્યા":521,"▁વખ":522,"િટ":523,"▁સૌ":524,"િંગ":525,"▁જરૂ":526,"▁દેશ":527,"તમાં":528,"▁૨":529,"લું":530,"ન્સ":531,"▁અમે":532,"▁શું":533,"▁વી":534,"પૂ":535,"▁પહેલા":536,"▁બાદ":537,"▁દા":538,"જરા":539,"▁નામ":540,"▁?":541,"▁તેમના":542,"▁અધ":543,"▁તમારા":544,"▁કરો":545,"▁એટલે":546,"▁કાર્ય":547,"▁ત્ર":548,"વવા":549,"તું":550,"▁ટે":551,"▁ઊ":552,"▁ભાગ":553,"લમાં":554,"▁કરીને":555,"રુ":556,"▁અભ":557,"હુ":558,"ર્મ":559,"▁જુ":560,"▁કારણ":561,"જુ":562,"વર":563,"લુ":564,"▁શરૂ":565,"સ્થ":566,"▁3":567,"▁મળી":568,"▁ટી":569,"દેશ":570,"▁થયા":571,"ત્વ":572,"▁જવા":573,"▁મહિ":574,"▁જણાવ":575,"▁,":576,"તુ":577,"▁ખૂ":578,"▁ગુજરા":579,"▁આગ":580,"વાદ":581,"▁આવ્યા":582,"▁દિવસ":583,"▁નહિ":584,"ઓને":585,"▁હિ":586,"બ્":587,"▁આપી":588,"શે.\n":589,"▁કરતા":590,"▁તરી":591,"▁ખુ":592,"▁હતું.":593,"▁લઈ":594,"▁માન":595,"ંભ":596,"▁થઇ":597,"▁કારણે":598,"▁મને":599,"પર":600,"▁ચે":601,"છા":602,"▁શિ":603,"▁ભૂ":604,"્સ":605,"▁આજે":606,"ક્ત":607,"▁કર્યો":608,"▁તરીકે":609,"ક્ષા":610,"ન્દ્ર":611,"ર્થ":612,"લાક":613,"▁ફે":614,"▁જાણ":615,"▁સરકાર":616,"જો":617,"00":618,"હેર":619,"▁ક્ર":620,"▁ચો":621,"▁તરફ":622,"ડો":623,"▁યા":624,"▁પ્રમા":625,"▁શ્રી":626,"▁તેથી":627,"▁બાળ":628,"વાથી":629,"▁ડિ":630,"ૃત":631,"▁ફો":632,"નાર":633,"▁.":634,"▁પોલીસ":635,"સ્તા":636,"▁પોતાના":637,"▁મેળ":638,"▁તેમને":639,"▁મુખ":640,"રિ":641,"ઠા":642,"▁હાથ":643,"ભાઈ":644,"▁ચૂ":645,"▁પ્રે":646,"ચી":647,"▁તેમણે":648,"સાર":649,"▁માત્ર":650,"▁રિ":651,"▁પ્રતિ":652,"▁ખૂબ":653,"િતિ":654,"વાન":655,"ટના":656,"▁અન્ય":657,"દર":658,"▁રાજ્ય":659,"▁રૂપ":660,"▁અંગ":661,"▁પાણી":662,"તના":663,"ળે":664,"▁વિચાર":665,"ંત્ર":666,"▁જીવન":667,"▁પહો":668,"▁ફર":669,"▁જોઈએ":670,"▁દિ":671,"▁કર્યું":672,"▁જેમ":673,"થમ":674,"▁મારી":675,"▁દર્":676,"▁મારા":677,"▁વિશે":678,"▁બિ":679,"▁ય":680,"▁5":681,"વાય":682,"▁આવ્યો":683,"▁તમને":684,"▁દરમ":685,"્રો":686,"ક્ટ":687,"મુ":688,"બંધ":689,"મમાં":690,"▁વર":691,"વાના":692,"પની":693,"▁સાર":694,"ાયે":695,"▁તેમની":696,"વારે":697,"ગ્ર":698,"▁સૂ":699,"બે":700,"દાર":701,"સ્થા":702,"પણ":703,"▁ગો":704,"▁તેણે":705,"ચ્ચે":706,"ક્ષણ":707,"▁માર્":708,"▁શો":709,"▁પડે":710,"જના":711,"િયાન":712,"ક્સ":713,"જબ":714,"▁પહોંચ":715,"▁જોવા":716,"મત":717,"▁વચ્ચે":718,"▁ચિ":719,"▁ઉપયોગ":720,"પાસ":721,"▁શુ":722,"જ્ઞ":723,"▁ક્ષ":724,"કર":725,"▁આવ્યું":726,"▁ભાવ":727,"▁એવા":728,"ધાન":729,"વાનો":730,"▁આપણે":731,"રેક":732,"▁ફિલ્":733,"▁વિસ્ત":734,"▁મન":735,"▁છું":736,"્મ":737,"ર્સ":738,"▁4":739,"ીએ":740,"▁કરતાં":741,"ખ્યા":742,"▁જરૂર":743,"દો":744,"▁રહ્યો":745,"▁સર્":746,"▁થી":747,"▁તમામ":748,"▁જગ":749,"▁મળે":750,"કરી":751,"▁બહાર":752,"રોના":753,"▁તેમજ":754,"▁જેમાં":755,"▁આપે":756,"▁મુખ્ય":757,"▁બની":758,"ર્ડ":759,"▁સૌથી":760,"▁તેમાં":761,"ભાવ":762,"▁યો":763,"▁બનાવ":764,"તાના":765,"▁અલ":766,"▁અમા":767,"▁જણાવ્યું":768,"▁તૈ":769,"શો":770,"▁દરેક":771,"▁બદ":772,"▁વ્યક્તિ":773,"▁દરમિયાન":774,"્ન":775,"▁ઘણા":776,"▁ગઈ":777,"પુ":778,"લના":779,"ંત્રી":780,"ંટ":781,"▁હતી.\n":782,"▁નોંધ":783,"▁અવ":784,"▁મહા":785,"▁શકાય":786,"ધાર":787,"▁અહીં":788,"▁પગ":789,"▁પ્રકાર":790,"▁બધા":791,"▁પ્રો":792,"▁સ્વા":793,"મના":794,"▁લીધ":795,"▁ડે":796,"▁પ્રથમ":797,"▁એવી":798,"પ્ત":799,"▁શે":800,"▁મદ":801,"▁આગળ":802,"▁ત્રણ":803,"▁થો":804,"નની":805,"▁તમારી":806,"નના":807,"▁વિશ્":808,"િલ્લા":809,"▁ઠ":810,"▁૩":811,"▁કોરોના":812,"સ્તુ":813,"▁પોતાની":814,"▁કરવાની":815,"લ્લા":816,"▁વધારે":817,"છે":818,"સના":819,"▁કર્યા":820,"ત્મ":821,"▁અધિક":822,"▁વિદ":823,"▁તૈય":824,"▁અપ":825,"રના":826,"▁પેા":827,"▁બંધ":828,"ંને":829,"સ્પ":830,"જાર":831,"ખે":832,"ન્ન":833,"▁છીએ":834,"▁હાય":835,"▁ફા":836,"▁શકો":837,"▁દો":838,"▁ખો":839,"સુ":840,"▁ઘણી":841,"▁શરી":842,"▁કેટલાક":843,"પૂર્ણ":844,"શુ":845,"શિ":846,"▁ચાલ":847,"સમાં":848,"ૃતિ":849,"▁જોઇ":850,"ત્રો":851,"▁હુ":852,"લિક":853,"કુ":854,"જર":855,"▁આરો":856,"▁જિલ્લા":857,"▁બન":858,"તની":859,"?\n":860,"▁સુર":861,"▁છતાં":862,"▁ધ્યા":863,"વુ":864,"▁વાર":865,"દન":866,"ત્તિ":867,"ળો":868,"▁કંપની":869,"▁ખી":870,"ડિ":871,"▁નથી,":872,"▁પિ":873,"▁અનેક":874,"▁થયે":875,"▁પડી":876,"▁માર":877,"▁મોટા":878,"ડિયા":879,"ષા":880,"▁પ્રમાણે":881,"ંહ":882,"▁ચી":883,"▁પાછ":884,"▁જૂ":885,"▁ગયો":886,"▁આમ":887,"▁ફરી":888,"▁નવા":889,"ભાગ":890,"▁બીજા":891,"રૂપ":892,"▁પાર્":893,"▁બંને":894,"▁વિષ":895,"▁કેમ":896,"તાની":897,"▁જેવા":898,"▁વખતે":899,"િન":900,"▁માણ":901,"▁થયો":902,"રની":903,"▁પ્":904,"▁ઓફ":905,"▁નિય":906,"▁સફ":907,"▁અં":908,"્યે":909,"▁સામાન":910,"ઓની":911,"મણ":912,"▁શી":913,"▁ભે":914,"▁રૂપિયા":915,"▁થયું":916,"▁આપવામાં":917,"▁ચાર":918,"▁સ્ટે":919,"▁ડા":920,"▁દૂર":921,"પના":922,"▁ખાસ":923,"▁ઘટના":924,"▁વૃ":925,"▁લાખ":926,"▁ટકા":927,"લાં":928,"▁વ્યા":929,"▁વ્યવ":930,"▁મહિલા":931,"▁મદદ":932,"▁બેઠ":933,"ચના":934,"મન":935,"▁મધ":936,"▁મહે":937,"વાસ":938,"▁એવું":939,"▁તુ":940,"▁રહ્યું":941,"ગો":942,"દર્":943,"્રહ":944,"▁કહી":945,"▁અંદ":946,"▁અંગે":947,"▁6":948,"િર":949,"▁સમયે":950,"▁કાં":951,"વિધ":952,"▁અંત":953,"▁આં":954,"ત્ત":955,"કલ":956,"ચ્છ":957,"ષ્ય":958,"▁વસ્તુ":959,"ગેરે":960,"▁સ્પ":961,"સ્ક":962,"જૂ":963,"▁જ્યાં":964,"સાદ":965,"્યાર":966,"વેશ":967,"▁૫":968,"▁ગ્રા":969,"નારા":970,"▁ટા":971,"▁સ્થિતિ":972,"▁લાગે":973,"▁સામાન્ય":974,"▁બુ":975,"▁ડો":976,"▁ભર":977,"શ્ચ":978,"▁રોજ":979,"▁વખત":980,"▁જણા":981,"ત્તા":982,"દાન":983,"▁આવા":984,"▁કરા":985,"ગત":986,"▁ભાજ":987,"▁નવી":988,"▁જ્ઞ":989,"ન,":990,"▁કી":991,"માં,":992,"▁ભારત":993,"▁પાંચ":994,"દિ":995,"▁ઢ":996,"મેન્ટ":997,"▁વિસ્તાર":998,"બો":999,"રાવ":1000,"▁લગ્ન":1001,"▁નીચે":1002,"▁૪":1003,"વાને":1004,"સંદ":1005,"▁ગાં":1006,"ર્ષ":1007,"▁સહિત":1008,"▁માહિ":1009,"▁જીવ":1010,"ૂત":1011,"ંગ્રે":1012,"▁બહુ":1013,"ળતા":1014,"▁સાંભ":1015,"▁તપાસ":1016,"તીય":1017,"દ્ધિ":1018,"કિ":1019,"▁બધ":1020,"વાળા":1021,"મની":1022,"શે,":1023,"▁સામ":1024,"▁મુજબ":1025,"▁ભગ":1026,"માર":1027,"ધિ":1028,"ઝા":1029,"પુર":1030,"▁જેટ":1031,"કારી":1032,"▁હતા.\n":1033,"▁વૈ":1034,"ભવ":1035,"ત્મા":1036,"કમાં":1037,"કાશ":1038,"▁બીજી":1039,"યર":1040,"▁અલગ":1041,"▁લખ":1042,"▁ઉપરા":1043,"▁સ્ત્રી":1044,"▁માહિતી":1045,"▁જવાબ":1046,"ુંબ":1047,"▁હાલ":1048,"▁બાબ":1049,"▁લઇ":1050,"▁સમજ":1051,"શ્ર":1052,"▁નવ":1053,"▁સાં":1054,"▁સાધ":1055,"▁સંબંધ":1056,"સની":1057,"▁ખરી":1058,"▁ધર":1059,"▁7":1060,"▁કપ":1061,"▁પૈ":1062,"▁સારી":1063,"▁મૃત":1064,",\n":1065,"ષ્ઠ":1066,"▁યોગ":1067,"શિય":1068,"▁ધી":1069,"▁19":1070,"કસ":1071,"વણી":1072,"ઇન":1073,"▁ડી":1074,"ઓમાં":1075,"▁શબ્":1076,"▁અર":1077,"▁ગે":1078,"કરણ":1079,"▁પસંદ":1080,"▁ઉમે":1081,"ૂટ":1082,"લ,":1083,"▁તૈયાર":1084,"▁સ્થાન":1085,"▁જઈ":1086,"▁જેના":1087,"તન":1088,"▁ગણ":1089,"▁પરિવાર":1090,"▁માતા":1091,"▁આર":1092,"▁નિર્":1093,"ફો":1094,"ભાઇ":1095,"ષ્ટ્ર":1096,"૦૦":1097,"નિક":1098,"▁અર્":1099,"▁ઉપરાંત":1100,"▁કોઇ":1101,"▁ત્યાર":1102,"...":1103,"ઓના":1104,"જય":1105,"▁દિવસે":1106,"ં.":1107,"▁હતો.\n":1108,"▁ધર્મ":1109,"▁કાય":1110,"ત્રા":1111,"વ્ય":1112,"▁કોંગ્રે":1113,"▁જન્":1114,"▁મંદ":1115,"▁10":1116,"▁વો":1117,"▁એને":1118,"▁તેનું":1119,"ગ્":1120,"લની":1121,"્રિ":1122,"પોર્ટ":1123,"▁નીક":1124,"ણો":1125,"▁જાહેર":1126,"▁કાઢ":1127,"▁ચૂંટ":1128,"▁કરોડ":1129,"પરા":1130,"▁કૃ":1131,"▁ગુજરાત":1132,"▁અસર":1133,"▁201":1134,"ંકા":1135,"ડવા":1136,"▁મોદી":1137,"▁લઈને":1138,"ાર્થી":1139,"▁કેવી":1140,"▁ઝડ":1141,"▁પ્રેમ":1142,"▁બાળકો":1143,"▁8":1144,"▁થા":1145,"▁મેં":1146,"લાઈ":1147,"▁વિવિધ":1148,"▁જેથી":1149,"નને":1150,"▁વગેરે":1151,"▁લેવા":1152,"▁રાખી":1153,"રને":1154,"▁મત":1155,"▁અધિકારી":1156,"▁વિશ્વ":1157,"દય":1158,"▁પહેલાં":1159,"સ્યા":1160,"▁સ્થા":1161,"ટમાં":1162,"ઓએ":1163,"▁રાજા":1164,"▁એના":1165,"▁જરૂરી":1166,"મંત્રી":1167,"વીને":1168,"્રુ":1169,"▁સર્વ":1170,"▁ચૂંટણી":1171,"્યા.":1172,"હિત":1173,"▁વિના":1174,"કાસ":1175,"તાવ":1176,"▁ખાતે":1177,"દાવાદ":1178,"સ્પિટ":1179,"▁અભિ":1180,"તાને":1181,"ણાં":1182,"▁બને":1183,"ખો":1184,"▁જેવી":1185,"▁રંગ":1186,"▁સંગ":1187,"▁ટ્રે":1188,"ભુ":1189,"ફે":1190,"▁ફિલ્મ":1191,"ાયો":1192,"▁લાભ":1193,"▁.\n":1194,"ષ્ટિ":1195,"▁સત":1196,"પિ":1197,"▁આન":1198,"▁જાણી":1199,"▁નથી.\n":1200,"ણું":1201,"થ્":1202,"▁પાછળ":1203,"▁સ્ટ":1204,"▁વરસાદ":1205,"▁ટો":1206,"લન":1207,"▁આજ":1208,"હન":1209,"▁અન":1210,"▁જય":1211,"▁ગર":1212,"કના":1213,"▁મહત્વ":1214,"દ્ર":1215,"કડ":1216,"▁લોકોને":1217,"▁અમદાવાદ":1218,"કની":1219,"▁જન":1220,"▁શ્રે":1221,"▁શહેર":1222,"ચારી":1223,"રાજ":1224,"▁લાં":1225,"▁હોસ્પિટ":1226,"તમ":1227,"▁ધો":1228,"ઇટ":1229,"▁ભારતીય":1230,"ભગ":1231,"▁દેવ":1232,"▁કરવું":1233,"▁પક્ષ":1234,"ફા":1235,"એસ":1236,"▁પટે":1237,"▁રસ":1238,"ીર":1239,"▁કુલ":1240,"તરી":1241,"▁વિદ્ય":1242,"▁અર્થ":1243,"▁હતા,":1244,"▁પતિ":1245,"▁સેવા":1246,"▁યુવ":1247,"▁ગાંધી":1248,"ણમાં":1249,"ચર":1250,"▁મોટી":1251,"▁અત્ય":1252,"▁હૈ":1253,"▁તેવી":1254,"ગ્ય":1255,"ટ્":1256,"▁અનુસાર":1257,"▁આવતા":1258,"શ્ય":1259,"▁9":1260,"હેરા":1261,"▁દિલ્":1262,"▁આધ":1263,"▁મહિના":1264,"કારે":1265,"▁શેર":1266,"▁દેખ":1267,"▁ધ્યાન":1268,"▁જગ્યા":1269,"▁પરિણા":1270,"▁દુઃ":1271,"▁ઘર":1272,"▁આપણા":1273,"▁સું":1274,"બુ":1275,"▁તેનો":1276,"▁બોલ":1277,"ક્ટર":1278,"શું":1279,"ાંત":1280,"▁એની":1281,"▁હતી,":1282,"▁તું":1283,"▁નિર્ણ":1284,"▁વધી":1285,"▁કેટલી":1286,"શ્વર":1287,"▁પોલીસે":1288,"▁ખરા":1289,"મ્પ":1290,"▁સુખ":1291,"▁પત્":1292,"ચ્છા":1293,"▁પ્રયા":1294,"સને":1295,"▁મર":1296,"▁લોક":1297,"▁અસ":1298,"▁જોઇએ":1299,"્યૂ":1300,"ઠી":1301,"▁પાર":1302,"▁ભી":1303,"▁યાદ":1304,"્રીય":1305,"▁છેલ્લા":1306,"▁જ્ઞાન":1307,"▁જેને":1308,"કત":1309,"▁આવેલા":1310,"▁202":1311,"ડીને":1312,"▁વિદ્યાર્થી":1313,"નિયા":1314,"▁પ્રસ":1315,"▁લગભગ":1316,"ાર્થ":1317,"▁ઉત્પા":1318,"સિંહ":1319,"▁મહારા":1320,"▁કલ":1321,"▁માંગ":1322,"લ્ડ":1323,"▁દિલ્હી":1324,"▁સમસ્યા":1325,"▁પૂર્વ":1326,"▁પરી":1327,"▁૬":1328,"▁હજાર":1329,"▁પ્રાપ્ત":1330,"▁રમ":1331,"સાય":1332,"ર્ચ":1333,"▁વગર":1334,"▁ચાલી":1335,"▁દાખ":1336,"▁લેખ":1337,"ર્ચા":1338,"▁પદ":1339,"▁સમગ્ર":1340,"▁કરવી":1341,"વાલ":1342,"ક્રિયા":1343,"▁સંપૂર્ણ":1344,"▁ખેડ":1345,"ડિયો":1346,"▁પ્રશ્":1347,"મર":1348,"વૃ":1349,"▁સંખ્યા":1350,"▁મામ":1351,"▁શહે":1352,"રામ":1353,"તા,":1354,"▁કેન્દ્ર":1355,"જ્ઞાન":1356,"કાના":1357,"▁વળી":1358,"▁હતું.\n":1359,"કને":1360,"મુખ":1361,"▁પશુ":1362,"▁અંદર":1363,"ખર":1364,"નગર":1365,"▁વિભાગ":1366,"િયન":1367,"એમ":1368,"▁ક્યારે":1369,"કીય":1370,"ંગા":1371,"▁થતા":1372,"▁ધા":1373,"▁કર્મ":1374,"▁છા":1375,"ત્રે":1376,"▁જન્મ":1377,"▁ઘરે":1378,"ઘા":1379,"▁જોકે":1380,"▁ગયું":1381,"કરા":1382,"શ્કે":1383,"▁નજી":1384,"▁ઓળ":1385,"લાવ":1386,"▁ચાલુ":1387,"▁ખાન":1388,"▁મનુ":1389,"▁મૂળ":1390,"▁શ્ર":1391,"ચ્ચ":1392,"ભી":1393,"વર્":1394,"▁જોઈએ.":1395,"▁માર્ગ":1396,"ૂલ":1397,"▁ફેર":1398,"▁અટ":1399,"▁દેખા":1400,"▁લાગી":1401,"▁તમારે":1402,"ર્તા":1403,"▁હશે":1404,"પતિ":1405,"▁ફાય":1406,"▁દીધ":1407,"▁રૂ.":1408,"▁આનંદ":1409,"સિક":1410,"▁વાંચ":1411,"▁ભગવાન":1412,"▁કરવાનું":1413,"▁પૂછ":1414,"▁ગી":1415,"▁રાજકો":1416,"▁બ્":1417,"▁એર":1418,"બાદ":1419,"▁યોગ્ય":1420,"▁આપવા":1421,"ક્રમ":1422,"ગુ":1423,"▁લીધે":1424,"▁દર્દી":1425,"▁લિ":1426,"▁જાણે":1427,"ંદ્ર":1428,"▁પુત્ર":1429,"▁આગા":1430,"▁નિર્ણય":1431,"ટન":1432,"ડાં":1433,"▁અભ્યા":1434,"▁સુંદર":1435,"▁ફરિયા":1436,"▁કાર્":1437,"▁ગામ":1438,"▁નાના":1439,"લ્લે":1440,"▁શક્તિ":1441,"▁કેસ":1442,"▁ક્ષે":1443,"▁થવા":1444,"▁વર્ષે":1445,"▁જમી":1446,"▁રોડ":1447,"▁સભ":1448,"▁તારી":1449,"▁હેઠ":1450,"▁સારવાર":1451,"તને":1452,"▁યોજના":1453,"▁પ્રત્ય":1454,"▁બાજુ":1455,"▁પ્રદેશ":1456,"▁છો.":1457,"▁ભારે":1458,"▁શરૂઆ":1459,"પૂર્વ":1460,"સ્ત્ર":1461,"▁પાર્ટી":1462,"ફ્":1463,"▁વડા":1464,"ત્મક":1465,"▁ધાર":1466,"મારી":1467,"▁ભાઈ":1468,"▁કરાવ":1469,"▁પૃ":1470,"▁પૂર્ણ":1471,"▁કિં":1472,"▁આવશે.":1473,"▁આસ":1474,"દેવ":1475,"▁હેઠળ":1476,"▁એસ":1477,"દારી":1478,"ટ્સ":1479,"▁તેવા":1480,"▁કંઈ":1481,"▁આધાર":1482,"▁?\n":1483,"▁ચર્ચા":1484,"મ્બર":1485,"▁દ્ર":1486,"▁કાઈ":1487,"▁ખબર":1488,"▁પૈસા":1489,"▁ભો":1490,"▁થશે.":1491,"▁સતત":1492,"ોમાં":1493,"રું":1494,"સ,":1495,"▁મુંબ":1496,"▁પાડ":1497,"▁કરતી":1498,"▁એકા":1499,"▁છુ":1500,"▁શક્ય":1501,"▁બાં":1502,"દુ":1503,"પણે":1504,"▁સલા":1505,"ઃ\n":1506,"▁પત્ની":1507,"્વ":1508,"▁15":1509,"ાંતિ":1510,"સાન":1511,"▁ઇન્":1512,"ગ્રી":1513,"▁સારા":1514,"▁છે?":1515,"▁મુશ્કે":1516,"▁બનાવી":1517,"▁વિકાસ":1518,"લાય":1519,"▁નેતા":1520,"▁એજ":1521,"▁સિવાય":1522,"ગીરી":1523,"ક્કી":1524,"ણને":1525,"▁સૂર":1526,"બલ":1527,"▁ઝા":1528,"▁મધ્ય":1529,"▁કલાક":1530,"▁12":1531,"િલ":1532,"ંતર":1533,"▁કાળ":1534,"▁નિષ્":1535,"ક,":1536,"▁કલા":1537,"કેટ":1538,"વાહી":1539,"ગ્રા":1540,"કામાં":1541,"મ,":1542,"▁સ્ક":1543,"▁અમારા":1544,"▁હૃ":1545,"▁ઘટા":1546,"▁હં":1547,"ોને":1548,"ચિ":1549,"▁મીડિયા":1550,"▁ક્યાં":1551,"▁નહી":1552,"▁બ્રા":1553,"▁શરીર":1554,"▁પહોંચી":1555,"▁મૃત્યુ":1556,"ાયેલા":1557,"▁મેચ":1558,"▁વહે":1559,"▁વધારો":1560,"▁ત્રી":1561,"▁રામ":1562,"▁ગુણ":1563,"▁વેપ":1564,"▁અક":1565,"િકે":1566,"▁વાયર":1567,"ફી":1568,"▁ઉત્તર":1569,"▁બનાવવા":1570,"▁નુક":1571,"▁આયો":1572,"▁રાહ":1573,"▁વિશેષ":1574,"ન્ને":1575,"▁ટ્રા":1576,"▁આત્મા":1577,"▁લક્ષ":1578,"▁કર્":1579,"▁ભાજપ":1580,"શિયલ":1581,"▁તાલુ":1582,"સ્તી":1583,"▁ટીમ":1584,"લર":1585,"લ્પ":1586,"▁બચ":1587,"▁ચૂક":1588,"ઓ,":1589,"▁ધરા":1590,"▁રહેશે.":1591,"▁શાળા":1592,"ળવા":1593,"▁દૃ":1594,"ંધી":1595,"▁હોવાનું":1596,"▁નં":1597,"▁મં":1598,"▁મૂક":1599,"વાસી":1600,"ારૂ":1601,"▁શોધ":1602,"▁જતા":1603,"!\n":1604,"▁તી":1605,"▁ટ્ર":1606,"કાત":1607,"સન":1608,"▁આરોપી":1609,"▁દુઃખ":1610,"▁હજુ":1611,"▁અગા":1612,"▁મારે":1613,"▁પ્રકાશ":1614,"▁ફ્":1615,"▁કરીએ":1616,"▁તેજ":1617,"▁પં":1618,"જરી":1619,"▁બધી":1620,"▁સ્વી":1621,"▁પાસેથી":1622,"▁પિતા":1623,"▁ભાષા":1624,"▁હી":1625,"રેન્દ્ર":1626,"ચન":1627,"મિક":1628,"▁હર":1629,"▁વન":1630,"ક્ષિ":1631,"▁પેટ":1632,"▁નક્કી":1633,"▁નાં":1634,"કાળ":1635,"▁ફરિયાદ":1636,"▁નહીં.":1637,"▁થોડા":1638,"ંચા":1639,"▁થતાં":1640,"િવર્":1641,"▁રજૂ":1642,"લને":1643,"▁૧૯":1644,"▁અતિ":1645,"▁છું.":1646,"યાં":1647,"સ્સા":1648,"▁મુદ્":1649,"▁આવેલ":1650,"▁હોવાથી":1651,"▁શબ્દ":1652,"સભા":1653,"▁મંત્રી":1654,"▁માટે,":1655,"▁તેા":1656,"ાવો":1657,"કમ":1658,"ત્ન":1659,"▁વિસ્તારમાં":1660,"▁પુરુ":1661,"નીય":1662,"▁રોકા":1663,"▁મેળવી":1664,"▁કરવાનો":1665,"તિહા":1666,"લેટ":1667,"▁દુનિયા":1668,"િસ":1669,"▁ગયે":1670,"▁શર":1671,"▁મહાન":1672,"▁રહેતા":1673,"▁રાખે":1674,"▁અનુભવ":1675,"▁હૃદય":1676,"▁મોર":1677,"▁મુલા":1678,"▁નહો":1679,"▁રહેલા":1680,"▁સ્પષ્ટ":1681,"▁આટ":1682,"▁પત્ર":1683,"▁૮":1684,"ષ્ણ":1685,"શ્રી":1686,"▁પ્રભુ":1687,"▁સત્ય":1688,"▁હોઈ":1689,"કારો":1690,"▁સમાજ":1691,"્યાય":1692,"▁કોઈપણ":1693,"▁લીધી":1694,"▁આઈ":1695,"જ્ઞા":1696,"ભે":1697,"▁ઉદ":1698,"બિ":1699,"▁દેશમાં":1700,"તંત્ર":1701,"જ્":1702,"વવામાં":1703,"્યો.":1704,"▁થશે":1705,"▁વીડિયો":1706,"▁કોર્":1707,"▁પ્રજા":1708,"▁વિક":1709,"ા.":1710,"▁કાઇ":1711,"્યું.":1712,"ઇલ":1713,"▁સંપ":1714,"▁દીધી":1715,"ંઘ":1716,"▁ભુ":1717,"ંદુ":1718,"▁ફોન":1719,"ઢી":1720,"▁ગ્ર":1721,"▁કવિ":1722,"▁પ્લા":1723,"વૃત્તિ":1724,"▁અત":1725,"▁પરથી":1726,"▁અભ્યાસ":1727,"ગાર":1728,"▁તારા":1729,"▁ખરે":1730,"▁૭":1731,"▁સુધ":1732,"દાય":1733,"ન્યા":1734,"▁જોડ":1735,"▁એન્":1736,"▁શિક્ષણ":1737,"▁ઘરમાં":1738,"▁અમારી":1739,"લય":1740,"રોધ":1741,"▁પ્રય":1742,"▁ઓછા":1743,"▁પુસ્ત":1744,"▁કેટલીક":1745,"ષણ":1746,"▁પ્રક્રિયા":1747,"ષ્ટ્રીય":1748,"લક":1749,"▁તરફથી":1750,"મતી":1751,"▁મજબ":1752,"▁ખર્ચ":1753,"▁સત્તા":1754,"▁રસ્તા":1755,"દર્શન":1756,"ંતા":1757,"▁સંસ્થા":1758,"▁નાખ":1759,"▁રાજકોટ":1760,"▁સવારે":1761,"મતા":1762,"ાવવા":1763,"ત,":1764,"▁દાખલ":1765,"▁ગુરુ":1766,"▁પ્રમુખ":1767,"▁પ્રકારના":1768,"▁તત્":1769,"▁હવા":1770,"▁પક":1771,"▁જિ":1772,"કિસ્તા":1773,"▁અગાઉ":1774,"▁હંમે":1775,"▁સિદ્ધ":1776,"▁સમાવેશ":1777,"▁કઈ":1778,"▁આક":1779,"▁!\n":1780,"▁બધું":1781,"▁સ્ટો":1782,"ખ્":1783,"▁સમાચાર":1784,"રાય":1785,"▁એલ":1786,"▁કરનાર":1787,"▁વિષય":1788,"▁ઋ":1789,"સ્થિતિ":1790,"▁કરવો":1791,"▁11":1792,"▁માગ":1793,"▁ગંભ":1794,"▁સરળ":1795,"▁પ્રત્યે":1796,"લાલ":1797,"▁ભય":1798,"▁લેવામાં":1799,"▁વાગ":1800,"▁દવા":1801,"▁ઉલ્લે":1802,"ઠે":1803,"▁સમયમાં":1804,"▁અના":1805,"▁સરકારે":1806,"▁દ્":1807,"ડું":1808,"▁હાલમાં":1809,"▁હુમ":1810,"ૃહ":1811,"▁આગામી":1812,"▁એન":1813,"▁નહિ.":1814,"▁મુંબઈ":1815,"કારક":1816,"કારા":1817,"▁પ્રયાસ":1818,"▁કામગીરી":1819,"▁પેાતાના":1820,"▁ગઇ":1821,"▁કહેવાય":1822,"▁ફક્ત":1823,"શાન":1824,"કલી":1825,"ૂં":1826,"▁હતુ":1827,"શ્વ":1828,"▁ઉમેદ":1829,"▁છે\n":1830,"▁બ્રહ":1831,"▁આવતી":1832,"▁ગમે":1833,"▁કમ":1834,"▁તા.":1835,"▁ઉલ્લેખ":1836,"▁ધારા":1837,"▁સૈ":1838,"▁૨૦":1839,"▁પંચ":1840,"▁મેળવવા":1841,"▁ગંભીર":1842,"▁સાત":1843,"▁આત્મ":1844,"▁મ્":1845,"▁મોત":1846,"▁પુરુષ":1847,"િકો":1848,"દરા":1849,"ભાર":1850,"▁નદી":1851,"▁થતી":1852,"▁જોડા":1853,"▁લેા":1854,"▁સ્વરૂપ":1855,"▁બાકી":1856,"▁વિષે":1857,"▁આઇ":1858,"▁સ્ટેશન":1859,"▁લાલ":1860,"▁મનુષ્ય":1861,"▁આખ":1862,"▁ગાય":1863,"▁દૂ":1864,"ર્ક":1865,"▁આપણી":1866,"ંડા":1867,"▁ત્યા":1868,"ને,":1869,"લ્સ":1870,"▁માલ":1871,"▁સપ્":1872,"▁નંબર":1873,"▁જાન":1874,"▁લાંબા":1875,"▁વર્ષની":1876,"▁કાર્યવાહી":1877,"▁એમાં":1878,"▁પ્રધાન":1879,"ર,":1880,"▁જૈ":1881,"▁હતાં.":1882,"▁૧૦":1883,"▁પાકિસ્તા":1884,"▁અત્યાર":1885,"▁પ્રવેશ":1886,"▁શ્રેષ્ઠ":1887,"▁ઉત્પ":1888,"▁ખેડૂ":1889,"ધન":1890,"▁ધરાવ":1891,"▁સમાન":1892,"▁રહ્યાં":1893,"ટક":1894,"ર્ગ":1895,"▁મુખ્યમંત્રી":1896,"▁કદા":1897,"▁ચુ":1898,"000":1899,"▁સિંહ":1900,"▁નજીક":1901,"▁વ્યવસ્થા":1902,"જનો":1903,"ટું":1904,"▁આંતર":1905,"રીને":1906,"▁હતાં":1907,"વાળી":1908,"ક્કસ":1909,"▁અવા":1910,"▁એવો":1911,"ઝી":1912,"▁પસાર":1913,"▁પોતે":1914,"થો":1915,"▁જાણવા":1916,"▁નિયમ":1917,"કટ":1918,"▁18":1919,"▁મગ":1920,"▁અમેરિ":1921,"▁ઑ":1922,"▁ઉચ્ચ":1923,"▁આશા":1924,"▁મેળવ":1925,"▁રોગ":1926,"સ્મા":1927,"▁હોય,":1928,"▁વસ":1929,"ક્શન":1930,"▁એટલા":1931,"ક્ષે":1932,"▁પ્રકારની":1933,"▁કરવાથી":1934,"▁પ્રગ":1935,"આરી":1936,"▁જેની":1937,"▁કરો.":1938,"▁સમુ":1939,"▁જાહેરા":1940,"▁ભૂમિ":1941,"▁કેટલા":1942,"શિયા":1943,"▁માણસ":1944,"▁ફૂ":1945,"બેન":1946,"▁જમા":1947,"પક":1948,"▁નાની":1949,"તરા":1950,"▁પામ":1951,"▁મિત્ર":1952,"▁કર્મચારી":1953,"▁કોંગ્રેસ":1954,"ઈએ":1955,"ન્સી":1956,"▁ઘે":1957,"▁હોવા":1958,"▁લીધા":1959,"▁તેટ":1960,"▁છીએ.":1961,"▁વિજય":1962,"▁કું":1963,"▁આસપાસ":1964,"▁વળ":1965,"....":1966,"▁ફી":1967,"્યા,":1968,"▁પૂર":1969,"▁ગ્રામ":1970,"▁બન્ને":1971,"▁પુરૂ":1972,"દના":1973,"▁અરજી":1974,"સભ":1975,"▁આવશે":1976,"▁જમીન":1977,"પૂર્વક":1978,"▁વાળ":1979,"▁ઘા":1980,"▁દક્ષિ":1981,"રિક":1982,"પથી":1983,"▁ચોક્કસ":1984,"ઇડ":1985,"▁કરશે.":1986,"▁આદ":1987,"વાઈ":1988,"યા,":1989,"▁હકી":1990,"▁ફળ":1991,"▁૯":1992,"તાર":1993,"▁મૂકી":1994,"▁સાંભળી":1995,"▁રચના":1996,"▁ઉપા":1997,"▁અડ":1998,"▁રોકાણ":1999,"▁લગા":2000,"▁આયોજન":2001,"▁બતા":2002,"▁પુન":2003,"▁બેઠક":2004,"▁કોર્ટ":2005,"ધે":2006,"▁ગુજરાતી":2007,"ઢા":2008,"▁ગુજરાતમાં":2009,"▁છો,":2010,"▁દિવસો":2011,"▁નજર":2012,"▁હાઈ":2013,"▁ક્ષેત્ર":2014,"▁અમને":2015,"▁રાષ્ટ્ર":2016,"▁ઉદા":2017,"▁જણાવી":2018,"▁કિંમત":2019,"▁સોશિયલ":2020,"▁નુકસાન":2021,"▁ગયા.":2022,"▁થયેલા":2023,"▁તને":2024,"▁અમુક":2025,"▁જુદા":2026,"ટિંગ":2027,"▁ખેડૂતો":2028,"ઉન":2029,"ળામાં":2030,"▁હતો,":2031,"શક":2032,"▁પરીક્ષા":2033,"જીના":2034,"▁ઓળખ":2035,"ડુ":2036,"▁વ્":2037,"પ્રધાન":2038,"ક્ષી":2039,"▁પુર":2040,"ડમાં":2041,"▁અગ":2042,"સ્થાન":2043,"▁પાછા":2044,"▁એટલું":2045,"▁આવેલી":2046,"િયે":2047,"▁ખુબ":2048,"▁સ્વામી":2049,"ન્ટર":2050,"▁200":2051,"▁સામા":2052,"લેન્ડ":2053,"▁બળ":2054,"▁હજી":2055,"▁કરવાના":2056,"▁જીત":2057,"▁શાહ":2058,"ઓનો":2059,"▁ચિંતા":2060,"ંપ":2061,"▁ડૉ":2062,"ર્ય":2063,"▁સાવ":2064,"ગઢ":2065,"▁વિધાન":2066,"▁વપરા":2067,"▁શિવ":2068,"▁બદલે":2069,"▁ભારતમાં":2070,"▁રિપોર્ટ":2071,"▁પોસ્ટ":2072,"▁30":2073,"ડની":2074,"▁આરોગ્ય":2075,"▁બીજ":2076,"▁તાપ":2077,"▁કહેવા":2078,"▁આર્થ":2079,"મ્બ":2080,"▁રુ":2081,"▁શરૂઆત":2082,"▁૧૮":2083,"▁અચ":2084,"▁યુદ્ધ":2085,"િમ":2086,"▁પ્રશ્ન":2087,"▁નરેન્દ્ર":2088,"▁કર્યાં":2089,"▁ત્યારબાદ":2090,"ફર":2091,"▁ગર્":2092,"▁મનમાં":2093,"▁સબ":2094,"▁અનુભ":2095,"▁મંગ":2096,"▁સરકારી":2097,"▁પૂરી":2098,"▁કહેવામાં":2099,"▁ઉજ":2100,"ત્સ":2101,"▁મંદિર":2102,"▁શૈ":2103,"▁પરિસ્થિતિ":2104,"▁મંત્ર":2105,"▁આત":2106,"▁શાંતિ":2107,"▁બાળક":2108,"▁ઔ":2109,"લિંગ":2110,"▁વિશા":2111,"ઈલ":2112,"નર":2113,"▁કરશે":2114,"▁નર":2115,"▁ત્રિ":2116,"કાં":2117,"▁યુન":2118,"▁ખરાબ":2119,"ણીએ":2120,"▁નું":2121,"▁ધીમે":2122,"▁તબ":2123,"વાદી":2124,"▁ટ્":2125,"▁કદાચ":2126,"પોરે":2127,"▁ધન":2128,"▁નોંધા":2129,"િયર":2130,"હરણ":2131,"કાની":2132,"હિત્ય":2133,"▁લીધો":2134,"ળમાં":2135,"▁ન્યૂ":2136,"▁સ્થાનિક":2137,"▁પ્રસંગ":2138,"દારો":2139,"કાન":2140,"▁તરત":2141,"▁કમિ":2142,"ંગ્":2143,"▁પુરા":2144,"▁શહેરમાં":2145,"▁આર્થિક":2146,"▁કમા":2147,"▁સ્ટા":2148,"વિધા":2149,"▁આપ્યો":2150,"મય":2151,"▁પામે":2152,"▁ઉં":2153,"▁સુધીમાં":2154,"▁મુલાકાત":2155,"▁ઓછી":2156,"તા.":2157,"▁ધરાવે":2158,"▁દિશા":2159,"▁થોડી":2160,"▁બનાવે":2161,"નાથ":2162,"▁માધ":2163,"ડામાં":2164,"▁ટૂ":2165,"▁આવું":2166,"▁બાર":2167,"ર્મા":2168,"▁સારું":2169,"▁લાગણી":2170,"▁બજાર":2171,"ભર":2172,"ળુ":2173,"▁હશે.":2174,"▁ઉપરથી":2175,"▁શકી":2176,"નલ":2177,"▁સમજી":2178,"▁જઇ":2179,"▁મોરબી":2180,"▁જાહેરાત":2181,"▁હાથમાં":2182,"▁આશ":2183,"▁બસ":2184,"વારો":2185,"▁શિક્ષ":2186,"ધ્":2187,"▁સાચ":2188,"▁ઝડપી":2189,"વડ":2190,"▁પ્રોજે":2191,"▁સૂર્ય":2192,"ંચી":2193,"શનલ":2194,"▁ખરેખર":2195,"▁ગૌ":2196,"▁અક્ષ":2197,"▁હત્યા":2198,"▁રાજ્યમાં":2199,"▁હતું,":2200,"ળું":2201,"▁મિનિ":2202,"▁પ્રી":2203,"ંધા":2204,"ાયું":2205,"▁ઉત્પાદ":2206,"કૃતિ":2207,"▁મ્યુ":2208,"▁સ્પર્":2209,"▁મિત્રો":2210,"▁સાહે":2211,"▁વાહ":2212,"▁માનવ":2213,"▁રાખવા":2214,"▁નામના":2215,"▁મજબૂત":2216,"▁રાહુ":2217,"▁નામે":2218,"▁ટેસ્ટ":2219,"▁પટેલ":2220,"▁હાજર":2221,"▁મુસા":2222,"▁આધારે":2223,"▁મળ્યા":2224,"ંડી":2225,"▁નગર":2226,"▁લાઈ":2227,"▁મોબા":2228,"નારી":2229,"▁ગૃહ":2230,"▁લોકોએ":2231,"▁તૈયારી":2232,"▁ઈન્ડ":2233,"ન્ત":2234,"▁અભિને":2235,"▁જંગ":2236,"▁14":2237,"▁ખેલા":2238,"જિ":2239,"ટિ":2240,"▁ગેર":2241,"▁ઈન્":2242,"જમાં":2243,"જની":2244,"▁ચમ":2245,"▁પૃથ્":2246,"▁કાયદા":2247,"▁કાઢી":2248,"▁વિસ્તારો":2249,"કોને":2250,"▁નોકરી":2251,"▁શબ્દો":2252,"▁અકસ્મા":2253,"▁નીતિ":2254,"▁25":2255,"▁જતાં":2256,"▁દર્શ":2257,"▁નમ":2258,"▁પરિણામ":2259,"યેા":2260,"કડા":2261,"નાના":2262,"▁બાંધ":2263,"▁સ્થળ":2264,"▁વિરુ":2265,"▁દેશના":2266,"▁રાશિ":2267,"▁નાગર":2268,"▁ધ્યાનમાં":2269,"▁ઉત્પન્ન":2270,"▁મંદિ":2271,"▁પરા":2272,"▁સિસ્ટ":2273,"▁ગ્રાહ":2274,"▁બહે":2275,"▁ઓછ":2276,"આઈ":2277,"▁પ્રયત્ન":2278,"▁ખરીદી":2279,"ડના":2280,"▁બનાવવામાં":2281,"▁રવિ":2282,"▁દર્શન":2283,"▁તેનાથી":2284,"બ્ધ":2285,"ષિ":2286,"ંકી":2287,"▁યુવતી":2288,"સ્થ્ય":2289,"સાઈ":2290,"▁વધાર":2291,"▁અહે":2292,"ક્સિ":2293,"▁પહેલી":2294,"્યોગ":2295,"▁આદિ":2296,"▁ઉદ્":2297,"▁સહાય":2298,"▁અધ્ય":2299,"ર્તિ":2300,"▁આપ્યું":2301,"ઉન્ટ":2302,"રસ":2303,"▁હિં":2304,"▁સલાહ":2305,"ળના":2306,"લ્લી":2307,"▁ઓપ":2308,"▁છોકરી":2309,"▁વિધાનસભા":2310,"ઠવા":2311,"▁સ્મ":2312,"ઓનું":2313,"▁રાત્રે":2314,"▁કરી.":2315,"▁સુવિધા":2316,"▁આપ્યા":2317,"▁દારૂ":2318,"▁50":2319,"જને":2320,"▁પ્રિય":2321,"વાહ":2322,"▁ઇન્ડ":2323,"▁ઉત્પાદન":2324,"જિક":2325,"સિટી":2326,"તામાં":2327,"▁છો.\n":2328,"ંબ":2329,"▁ફરજ":2330,"લાવી":2331,"▁સાહિત્ય":2332,"▁સંસ્ક":2333,"▁રાખવામાં":2334,"રોજ":2335,"સ્તિ":2336,"▁દીકરી":2337,"▁ઇચ્છા":2338,"વેલ":2339,"▁વર્ણ":2340,"▁લગાવ":2341,"▁રન":2342,"▁દેવા":2343,"▁હોસ્પિટલમાં":2344,"▁હાઇ":2345,"▁સફળ":2346,"વારી":2347,"દેશી":2348,"▁જમ":2349,"▁પડશે.":2350,"▁બદલ":2351,"▁મામલે":2352,"ઉં":2353,"▁હેતુ":2354,"▁નહીં,":2355,"▁જેટલા":2356,"▁મુક":2357,"તરમાં":2358,"▁મળશે.":2359,"▁અત્યારે":2360,"વ્યા":2361,"▁આંખ":2362,"▁જગ્યાએ":2363,"ભૂ":2364,"▁દેખાય":2365,"▁ધરી":2366,"▁ચંદ્ર":2367,"▁બ્ર":2368,"▁લાગ્યા":2369,"કામ":2370,"▁નિર્મા":2371,"▁બેંક":2372,"▁તિ":2373,"▁ચેા":2374,"▁ઉત્તમ":2375,"▁ફરીથી":2376,"▁ક્રા":2377,"▁કાંઈ":2378,"આર":2379,"▁વિરોધ":2380,"સદ":2381,"▁માંડ":2382,"▁જરા":2383,"લિયા":2384,"▁છે?\n":2385,"▁મુશ્કેલી":2386,"▁ગરી":2387,"સ્ટે":2388,"▁વડાપ્રધાન":2389,"▁ખરીદ":2390,"▁૧૨":2391,"જૂરી":2392,"▁એન્ડ":2393,"▁જિલ્લામાં":2394,"કૃ":2395,"▁કહ્યું,":2396,"લિત":2397,"▁જેવું":2398,"▁દૂધ":2399,"▁દેવામાં":2400,"ંકર":2401,"▁સાંભળ":2402,"ટની":2403,"કળ":2404,"દિક":2405,"રલ":2406,"▁આવશે.\n":2407,"▁ધારાસભ":2408,"દ્ધા":2409,"નામાં":2410,"▁ફેરફ":2411,"▁દક્ષિણ":2412,"▁ફોટો":2413,"વતી":2414,"▁કિસ્સા":2415,"સ્તવ":2416,"▁ધરપ":2417,"▁માનવામાં":2418,"▁સુરક્ષા":2419,"▁પરમા":2420,"▁મોટો":2421,"▁સન્":2422,"પ્રિય":2423,"▁ચાલે":2424,"▁પૃથ્વી":2425,"▁સ્વાસ્થ્ય":2426,"▁વિશ્વાસ":2427,"▁ફુ":2428,"સ્ય":2429,"▁રકમ":2430,"વીર":2431,"▁વિરુદ્ધ":2432,"▁પાડી":2433,"▁ક્રિયા":2434,"▁વડે":2435,"▁વર્ત":2436,"ઝન":2437,"▁સભા":2438,"▁મનો":2439,"િયમ":2440,"ોની":2441,"ન્ચ":2442,"નિંગ":2443,"▁થવાની":2444,"▁સફળતા":2445,"▁પુરૂષ":2446,"સ્કાર":2447,"▁ધરપકડ":2448,"▁તંત્ર":2449,"▁લોકોની":2450,"▁૧૫":2451,"▁ક્રિકે":2452,"▁બુદ્ધિ":2453,"▁હાર્":2454,"▁રહેવા":2455,"▁કાર્યક્ર":2456,"ૂળ":2457,"▁કિલો":2458,"▁એમને":2459,"▁મુસાફ":2460,"્યાન":2461,"▁પછી,":2462,"▁આથી":2463,"▁પ્રમાણ":2464,"▁કૌ":2465,"▁મેટ":2466,"▁કરો.\n":2467,"▁ધમ":2468,"▁પૂજા":2469,"▁ઠા":2470,"▁વિન":2471,"▁જોખ":2472,"▁બેસી":2473,"▁માની":2474,"સલ":2475,"▁ભવિ":2476,"▁13":2477,"▁નાશ":2478,"▁સ્થળે":2479,"▁અનિ":2480,"▁છોડ":2481,"▁તેવું":2482,"ર્વે":2483,"▁કુદર":2484,"▁પ્રાણી":2485,"લામાં":2486,"▁લઇને":2487,"▁0":2488,"▁નીકળી":2489,"▁વેપારી":2490,"▁જીવનમાં":2491,"ો,":2492,"▁તસ":2493,"▁વાર્તા":2494,"▁કબ":2495,"▁ભાગી":2496,"▁સામેલ":2497,"▁પ્રવૃત્તિ":2498,"▁વેબ":2499,"્રોલ":2500,"▁શુભ":2501,"ઝે":2502,"▁શકા":2503,"▁શકતા":2504,"▁વર્ષો":2505,"▁ક્યારેય":2506,"▁આખા":2507,"▁હંમેશા":2508,"▁કાંઇ":2509,"▁આંક":2510,"▁ભરે":2511,"▁ડાય":2512,"▁નિવે":2513,"▁રણ":2514,"▁પેાતાની":2515,"▁સર્વે":2516,"લેક":2517,"▁ઉપલ":2518,"▁નીકળ":2519,"▁વેચા":2520,"▁બોર્ડ":2521,"▁શીખ":2522,"▁એણે":2523,"યુક્ત":2524,"▁જતી":2525,"▁જાળ":2526,"▁ભવિષ્ય":2527,"▁કલ્":2528,"▁ગ્":2529,"▁આઠ":2530,"ંગી":2531,"કાને":2532,"▁તાર":2533,"ડતા":2534,"▁સુરત":2535,"▁ઉદાહરણ":2536,"▁ગતિ":2537,"▁કોલે":2538,"▁રસી":2539,"ર્ન":2540,"▁16":2541,"▁આપતા":2542,"▁પ્રભાવ":2543,"▁લોકોના":2544,"ંદર":2545,"રોમાં":2546,"હર":2547,"▁વિદ્યા":2548,"▁સામગ્રી":2549,"ચિત":2550,"ંદા":2551,"▁આપણને":2552,"▁24":2553,"▁હેાય":2554,"▁સ્થાપ":2555,"▁લખ્યું":2556,"ટેડ":2557,"▁તેમનું":2558,"્રીમ":2559,"▁કયા":2560,"જીએ":2561,"▁યુનિવર્":2562,"▁સવાર":2563,"▁વાતો":2564,"િકલ":2565,"સ્તે":2566,"નાની":2567,"▁આકર્ષ":2568,"વત":2569,"▁દુર્":2570,"▁માને":2571,"ન્દુ":2572,"▁બરા":2573,"ત્યા":2574,"▁અત્યંત":2575,"20":2576,"▁હાર":2577,"ડક":2578,"ત્ત્વ":2579,"▁૧૧":2580,"▁પદાર્થ":2581,"ઠ્":2582,"રૂપે":2583,"▁વાતાવ":2584,"▁એડ":2585,"સમ":2586,"▁વ્યક્ત":2587,"▁દીધા":2588,"▁દબા":2589,"▁શક્યતા":2590,"▁પાઠ":2591,"▁વાસ્તવ":2592,"ટ,":2593,"▁ખાં":2594,"▁સ્વીકાર":2595,"વલ":2596,"સ્ટ્રે":2597,"▁કૉ":2598,"▁ફિ":2599,"▁વર્ગ":2600,"ભાવના":2601,"▁ઘણું":2602,"દમ":2603,"પાલ":2604,"▁મૂલ":2605,"▁પ્રોજેક્ટ":2606,"ગ્રામ":2607,"▁વાતાવરણ":2608,"અલ":2609,"ઉન્ડ":2610,"▁ઝડપથી":2611,"વિત્ર":2612,"▁યાત્રા":2613,"મેન":2614,"▁પશ્ચ":2615,"▁અંગ્રે":2616,"લાઇ":2617,"▁ભૂલ":2618,"▁સામનો":2619,"▁ગુમા":2620,"▁મળ્યું":2621,"▁લાગુ":2622,"▁તક":2623,"▁ઉઠ":2624,"▁સ્ત":2625,"▁સભ્યો":2626,"▁ફ્રે":2627,"રી,":2628,"▁ગુરૂ":2629,"▁મના":2630,"તી.":2631,"▁સાય":2632,"▁ઍ":2633,"રીના":2634,"એક":2635,"ણના":2636,"▁અનુસાર,":2637,"દ્ય":2638,"▁તેલ":2639,"કાય":2640,"▁યુનિવર્સિટી":2641,"▁મળ્યો":2642,"▁ખાલી":2643,"▁સમર્થ":2644,"▁છોડી":2645,"▁હિંદુ":2646,"▁ભૂત":2647,"▁એક્ટ":2648,"પાલિ":2649,"▁પોતાનું":2650,"▁વસ્તુઓ":2651,"▁જ્ઞા":2652,"▁રાષ્ટ્રીય":2653,"▁મંડ":2654,"▁પાસ":2655,"▁નાણા":2656,"▁રેલ":2657,"▁કહેવું":2658,"▁આદેશ":2659,"પ્તિ":2660,"▁ડ્રા":2661,"▁જોઈએ.\n":2662,"▁જૂના":2663,"શને":2664,"▁જોકે,":2665,"▁બ્રહ્મ":2666,"ભૂત":2667,"▁માન્ય":2668,"▁વીજ":2669,"▁ઉપલબ્ધ":2670,"▁સાધુ":2671,"રૂં":2672,"▁નહિ,":2673,"▁બોલી":2674,"▁ઉર્":2675,"▁જવાબદારી":2676,"સ્થિત":2677,"▁17":2678,"શીલ":2679,"ડ,":2680,"▁સાબ":2681,"યન":2682,"▁લક્ષણ":2683,"▁ચાર્":2684,"ડવામાં":2685,"પ્રે":2686,"▁ખાનગી":2687,"▁મંજૂરી":2688,"▁ખુશ":2689,"▁શનિ":2690,"▁એમના":2691,"ાયેલી":2692,"એ,":2693,"▁વર્ષના":2694,"▁તાજે":2695,"ાયેલ":2696,"બાર":2697,"▁ગત":2698,"સ્ટર":2699,"▁અંદા":2700,"▁સહે":2701,"▁અખ":2702,"▁લખી":2703,"▁સંઘ":2704,"કિંગ":2705,"ડાઈ":2706,"▁ગરમ":2707,"▁ચાં":2708,"પાત્ર":2709,"▁હોવાની":2710,"▁પ્રાર":2711,"▁વધારા":2712,"કરો":2713,"▁સાહેબ":2714,"▁ઇતિહા":2715,"▁જોઈને":2716,"વી,":2717,"▁જશે.":2718,"તિમ":2719,"▁જળ":2720,"▁અજ":2721,"દ્ધતિ":2722,"▁દાન":2723,"▁મોકલ":2724,"▁સ્વાદ":2725,"▁ત્રણે":2726,"▁વિશાળ":2727,"▁જૈન":2728,"યોગી":2729,"▁ખેલાડી":2730,"▁ઐ":2731,"મદ":2732,"▁ભ્ર":2733,"▁રહેલી":2734,"▁તેઓએ":2735,"▁નિરા":2736,"▁ઘો":2737,"▁સદી":2738,"▁કરેલા":2739,"▁સાંજે":2740,"ઝને":2741,"▁જણાવ્યા":2742,"ઝો":2743,"▁ઓન":2744,"▁ઝી":2745,"▁મહત્વપૂર્ણ":2746,"▁જિલ્લાના":2747,"▁બતાવ":2748,"▁ઘટ":2749,"▁આવક":2750,"છે.":2751,"▁રાજકીય":2752,"▁વૃક્ષ":2753,"▁જયારે":2754,"▁યોજા":2755,"▁રાહુલ":2756,"ણીને":2757,"ક્રે":2758,"▁આશ્ર":2759,"લોજી":2760,"ચીન":2761,"▁ગુજરાતના":2762,"▁ખુશી":2763,"▁છૂ":2764,"▁ગાડી":2765,"થી,":2766,"▁માળ":2767,"▁વધે":2768,"▁શુદ્ધ":2769,"▁એમની":2770,"▁જાગ":2771,"▁છૂટ":2772,"▁સંબંધિત":2773,"બંધી":2774,"▁પાત્ર":2775,"ઠો":2776,"ભો":2777,"વળ":2778,"વિડ":2779,"ઝર":2780,"▁ભાજપના":2781,"▁માલિક":2782,"ક્ષિત":2783,"▁અધ્યક્ષ":2784,"ટલ":2785,"▁કરનારા":2786,"▁રહેશે":2787,"▁પવિત્ર":2788,"ગમ":2789,"▁તેમાંથી":2790,"▁પરત":2791,"▁અવાજ":2792,"▁ચિત્ર":2793,"▁બરાબર":2794,"▁અરે":2795,"▁નાખી":2796,"▁સ્વતંત્ર":2797,"▁સ્થિતિમાં":2798,"▁તબક્":2799,"તિક":2800,"▁પાપ":2801,"▁દીધું":2802,"હ્મ":2803,"▁માથા":2804,"▁ખેલ":2805,"▁આંખો":2806,"ગ્નિ":2807,"▁જેટલી":2808,"▁પસંદગી":2809,"▁કાપ":2810,"▁પહોંચા":2811,"તાએ":2812,"▁મંગળ":2813,"▁લાવ":2814,"ગરમાં":2815,"યક":2816,"▁પોતાને":2817,"▁ટેક":2818,"▁રાજ્યના":2819,"▁કાર્ડ":2820,"ડોદરા":2821,"▁કરી,":2822,"સાહ":2823,"દ્રા":2824,"▁મેડ":2825,",000":2826,"▁એક્":2827,"ટુ":2828,"ડાના":2829,"▁સપા":2830,"ંદગી":2831,"▁કાન":2832,"▁ત્યાંથી":2833,"▁કર્યું.":2834,"▁નજ":2835,"ાવવામાં":2836,"▁સૂચ":2837,"▁ઉભા":2838,"▁બેન્":2839,"ક્રમણ":2840,"▁ફિલ્મો":2841,"▁હકીકત":2842,"▁સામાજિક":2843,"▁પુષ્":2844,"▁મુશ્કેલ":2845,"સં":2846,"▁વ્યવસાય":2847,"▁લોકપ્રિય":2848,"▁સ્ના":2849,"▁સંગી":2850,"▁પગલે":2851,"▁ઓગ":2852,"શ્મી":2853,"▁મથ":2854,"રીમાં":2855,"▁ગ્રં":2856,"▁યોજ":2857,"▁વલ":2858,"▁એકવાર":2859,"▁ડિઝા":2860,"▁એક્સ":2861,"▁સ્મા":2862,"દાસ":2863,"▁સાબિત":2864,"ાનક":2865,"▁કાર્યક્રમ":2866,"▁જોઇએ.":2867,"▁વજન":2868,"પમાં":2869,"લેક્ટ":2870,"▁ભાવના":2871,"શ્યક":2872,"▁100":2873,"▁જુદી":2874,"▁પાલન":2875,"▁માટેની":2876,"▁પ્રમાણમાં":2877,"ષે":2878,"▁શહેરના":2879,"▁અઠવા":2880,"▁સરખા":2881,"▁ભિ":2882,"▁સંચા":2883,"▁ઘટાડો":2884,"▁એપ્ર":2885,"▁કંઇ":2886,"▁સારો":2887,"▁ગામમાં":2888,"▁ક્રો":2889,"પાન":2890,"ષ્ણુ":2891,"▁બાબત":2892,"▁ગ્રહ":2893,"જીને":2894,"▁પદ્ધતિ":2895,"▁ઉદ્યોગ":2896,"▁સમી":2897,"▁જાત":2898,"્યેા":2899,"▁કથા":2900,"▁શ્વા":2901,"▁અંતિમ":2902,"▁અટકા":2903,"▁રોક":2904,"▁ભારતના":2905,"▁વ્યવહાર":2906,"ઉટ":2907,"▁ક્રે":2908,"▁પર્વ":2909,"▁હાં":2910,"▁મિલ":2911,"▁સજા":2912,"▁સંભા":2913,"▁૧૪":2914,"▁ખ્યા":2915,"▁ખોરા":2916,"▁પોતાનો":2917,"▁કૈ":2918,"▁ખાતરી":2919,"▁સહિતના":2920,"વી.":2921,"બીજા":2922,"રાઈ":2923,"▁સંખ્યામાં":2924,"▁કૃષ્ણ":2925,"▁વિસ્તારોમાં":2926,"▁પ્રકૃતિ":2927,"▁હોસ્પિટલ":2928,"ણની":2929,"▁પહેર":2930,"આઇ":2931,"▁કન્":2932,"▁વર્ષમાં":2933,"શ.":2934,"▁છેઃ":2935,"▁ગુલા":2936,"▁કાગ":2937,"જીની":2938,"ચો":2939,"સૂ":2940,"યા.":2941,"ક્રિય":2942,"▁અંક":2943,"ંવાર":2944,"ઈન":2945,"▁પીએમ":2946,"▁શુક્ર":2947,"▁એટલી":2948,"▁આના":2949,"▁કેસમાં":2950,"▁મેને":2951,"▁રાજ્યો":2952,"થમિક":2953,"મ્સ":2954,"▁બિન":2955,"▁પ્રારંભ":2956,"▁મળતી":2957,"▁માંથી":2958,"▁આવીને":2959,"▁વારંવાર":2960,"ડીએ":2961,"ધ્ધ":2962,"ફળ":2963,"▁રમત":2964,"▁વિપ":2965,"▁ચૌ":2966,"▁શકે.":2967,"▁શરીરમાં":2968,"પત્ર":2969,"શાં":2970,"▁વિગ":2971,"▁દર્શા":2972,"▁રાખીને":2973,"▁વેપાર":2974,"▁યુવાન":2975,"▁વાહન":2976,"▁ભલે":2977,"▁કોણ":2978,"▁સવાલ":2979,"▁આચાર":2980,"▁ઉત":2981,"▁વર્ષથી":2982,"▁પ્રાથમિક":2983,"▁વડોદરા":2984,"લ્લ":2985,"સ્ત્રી":2986,"▁સેન્ટ":2987,"શય":2988,"▁ભક્તિ":2989,"કાલ":2990,"ફ્ટ":2991,"▁અચાનક":2992,"ટુંબ":2993,"તાથી":2994,"▁આવશ્યક":2995,"▁દરવા":2996,"▁ફેરફાર":2997,"▁પામી":2998,"▁ભાઇ":2999,"▁અગ્ર":3000,"સ્વ":3001,"▁કન્યા":3002,"▁બ્રાહ્મ":3003,"▁ખસે":3004,"▁શંકા":3005,"▁સ્પે":3006,"▁ડો.":3007,"▁વાયરલ":3008,"સ્તો":3009,"▁ભૂમિકા":3010,"▁મર્યા":3011,"▁પુત્રી":3012,"▁તેથી,":3013,"તૃ":3014,"▁ગ્રે":3015,"▁દિવસમાં":3016,"▁વિવે":3017,"ત્રિ":3018,"▁ભાગે":3019,"મથી":3020,"▁બર":3021,"▁ઉમ":3022,"▁આશ્ચ":3023,"▁ખેતી":3024,"▁નવે":3025,"▁બાબતે":3026,"▁મુદ્દા":3027,"▁સમુદ્ર":3028,"ણિ":3029,"▁ગણા":3030,"સ્સો":3031,"▁ચુક":3032,"▁પ્લે":3033,"▁પરે":3034,"ંતી":3035,"ડાની":3036,"▁થઈને":3037,"ળાં":3038,"▁લખે":3039,"લા,":3040,"▁એકબીજા":3041,"▁બીજો":3042,"▁નિયંત્ર":3043,"▁રાહત":3044,"▁કંઈક":3045,"ંપરા":3046,"▁21":3047,"▁રેકો":3048,"કુલ":3049,"▁થશે.\n":3050,"▁શ્રેણી":3051,"▁જવું":3052,"▁પરમ":3053,"જ્જ":3054,"▁આર્":3055,"▁હિન્દુ":3056,"▁ડિસે":3057,"શો.":3058,"કિત":3059,"▁ઘણાં":3060,"▁જાણો":3061,"ંજ":3062,"▁મેટા":3063,"રે,":3064,"રવ":3065,"▁અપે":3066,"લી,":3067,"ાનુ":3068,"▁ઓફિ":3069,"ની,":3070,"▁ઘેર":3071,"▁સ્થિત":3072,"▁જશે":3073,"ખ્યાત":3074,"વ્ર":3075,"ટીના":3076,"▁બિલ":3077,"▁અંધ":3078,"▁દૃષ્ટિ":3079,"ગલ":3080,"▁ચલાવ":3081,"▁જોયું":3082,"ન્ટરને":3083,"▁બ્રે":3084,"▁પી.":3085,"▁અદા":3086,"▁અહ":3087,"▁એપ":3088,"રાષ્ટ્ર":3089,"▁વાતચી":3090,"▁તપ":3091,"▁જરૂરિયા":3092,"્મી":3093,"▁વહી":3094,"ાર્મિક":3095,"▁કહ્યુ":3096,"લીને":3097,"▁જામન":3098,"▁થાય.":3099,"▁માનસિક":3100,"▁ફેસ":3101,"▁કોર્પોરે":3102,"ંખ":3103,"▁વિવાદ":3104,"▁સખ":3105,"▁લાગ્યા.":3106,"▁થયેલી":3107,"▁રાગ":3108,"▁જોર":3109,"▁આપવાની":3110,"ંદો":3111,"સ્ટો":3112,"▁આકાશ":3113,"▁આરામ":3114,"▁આફ":3115,"▁બુધ":3116,"ંસ":3117,"ઝિટ":3118,"▁પ્રદર્શન":3119,"▁મેા":3120,"રાન":3121,"▁થયા.":3122,"▁મિનિટ":3123,"દની":3124,"▁દાવો":3125,"▁કરાવી":3126,"▁સ.":3127,"▁નિશ્ચ":3128,"▁ફેબ":3129,"▁મોદીએ":3130,"▁ગ્રી":3131,"▁તરીકે,":3132,"ોના":3133,"▁રશિયા":3134,"▁અંતે":3135,"ત્તમ":3136,"▁ટુ":3137,"▁મોટાભાગ":3138,"▁કરું":3139,"▁શાંત":3140,"▁મુક્ત":3141,"▁જાણકારી":3142,"▁મહારાષ્ટ્ર":3143,"▁ધારણ":3144,"▁લાઇ":3145,"▁ઢા":3146,"ટરી":3147,"▁રજા":3148,"▁ઉકે":3149,"ફિક":3150,"ળાવ":3151,"ક્ટો":3152,"▁રેકોર્ડ":3153,"▁પ્રતિબંધ":3154,"ડી,":3155,"▁માતાપિ":3156,"▁ગરમી":3157,"જિત":3158,"ડીયા":3159,"▁એકદમ":3160,"▁શાક":3161,"▁અધિકાર":3162,"સ્ટા":3163,"▁પ્રિ":3164,"▁પણુ":3165,"▁સુપર":3166,"સિદ્ધ":3167,"ધો":3168,"વા,":3169,"▁ઉપાય":3170,"ેદ":3171,"▁પડશે":3172,"▁મ્હ":3173,"સ્વી":3174,"િકાર":3175,"▁દેશની":3176,"▁લડ":3177,"▁જણાય":3178,"▁શ્":3179,"▁વિદેશ":3180,"▁હાજરી":3181,"▁ન્યુ":3182,"િત્ય":3183,"▁એસ.":3184,"▁બ્રિ":3185,"▁ઉલ્લેખનીય":3186,"ણ,":3187,"▁અજા":3188,"▁આગે":3189,"▁લુ":3190,"ના,":3191,"▁નાણાં":3192,"▁આખી":3193,"▁વર્લ્ડ":3194,"▁કરતો":3195,"▁૧૭":3196,"જીવન":3197,"▁કરવાને":3198,"જ,":3199,"માની":3200,"▁લૂ":3201,"▁ા":3202,"▁પ્રશ":3203,"કારાત્મક":3204,"કન":3205,"▁સોમ":3206,"▁નિયમો":3207,"ણી,":3208,"▁ન્યાય":3209,"▁ક્યારેક":3210,"▁તેમનો":3211,"▁મિશ્ર":3212,"▁રાત":3213,"▁કલ્પના":3214,"▁ભણ":3215,"▁આયુ":3216,"▁માધ્ય":3217,"▁સગ":3218,"રેશન":3219,"▁નિક":3220,"▁કોલ":3221,"▁કદી":3222,"▁ભજ":3223,"▁ગામના":3224,"▁વર્તમાન":3225,"▁પરંપરા":3226,"લેા":3227,"▁કર્યો.":3228,"બુક":3229,"▁કેપ્":3230,"શભાઈ":3231,"▁બન્યા":3232,"▁પાટ":3233,"▁કોંગ્રેસના":3234,"▁વિદેશી":3235,"આત":3236,"▁કૂ":3237,"▁ભલા":3238,"શાહ":3239,"▁પુસ્તક":3240,"▁જાન્યુ":3241,"▁સુપ":3242,"ીક":3243,"▁શોધી":3244,"▁કચ્છ":3245,"▁સમયથી":3246,"▁કુમાર":3247,"▁અગ્નિ":3248,"▁૧૬":3249,"ઠું":3250,"નત":3251,"▁૧૩":3252,"▁સમયગા":3253,"▁પાડે":3254,"▁ચાહ":3255,"▁તારીખ":3256,"▁સરળતા":3257,"▁બધાં":3258,"▁1.":3259,"▁સેના":3260,"▁ક્લિક":3261,"▁નબ":3262,"▁દયા":3263,"લાઇન":3264,"ડીમાં":3265,"જી,":3266,"▁રીત":3267,"▁વીર":3268,"▁વિદ્યાર્થીઓ":3269,"▁ચારે":3270,"▁હોય.":3271,"રાના":3272,"▁લશ્":3273,"▁2022":3274,"▁દસ":3275,"પ્રદ":3276,"▁ધરાવતા":3277,"▁નિર":3278,"▁એમણે":3279,"▁પૈકી":3280,"▁ખીજા":3281,"એલ":3282,"▁તાલુકા":3283,"▁હસ":3284,"▁નામની":3285,"▁માર્ચ":3286,"▁લીધું":3287,"ળ,":3288,"ત્કાર":3289,"જારો":3290,"▁વચન":3291,"▁દૈ":3292,"▁ધાર્મિક":3293,"▁પંજા":3294,"▁અવિ":3295,"હેા":3296,"▁ધોરણ":3297,"▁પકડી":3298,"▁સ્ને":3299,"▁દરિયા":3300,"▁આશ્ચર્ય":3301,"▁40":3302,"▁ગૂ":3303,"▁રમા":3304,"▁દઈએ":3305,"▁દેખાવ":3306,"ભરમાં":3307,"▁મજા":3308,"▁તમારું":3309,"તાનું":3310,"તાઓ":3311,"થ્થ":3312,"▁પ્રેર":3313,"▁પ્રાચીન":3314,"શ,":3315,"રિયા":3316,"▁આંગ":3317,"લાસ":3318,"▁ત્રા":3319,"▁22":3320,"▁જાન્યુઆરી":3321,"ખંડ":3322,"▁તાલુકાના":3323,"▁વાગ્યા":3324,"▁અભિનેત્રી":3325,"ુનિક":3326,"જ્ય":3327,"▁જુઓ":3328,"▁દરમ્યાન":3329,"▁દ્વાર":3330,"રાની":3331,"▁મહિનામાં":3332,"▁જેઓ":3333,"▁સંતા":3334,"▁ઠે":3335,"ગમાં":3336,"▁શર્મા":3337,"▁પ્રગટ":3338,"▁બેઠા":3339,"▁ગુનો":3340,"શાળી":3341,"▁મંત્રા":3342,"▁વેચ":3343,"▁ગુણવ":3344,"▁ક્રિકેટ":3345,"▁જલ":3346,"▁સ્તર":3347,"▁યાદી":3348,"જનક":3349,"▁ગમ":3350,"▁ડ્ર":3351,"▁પેદા":3352,"▁ત્યાગ":3353,"▁પરિણામે":3354,"▁સભ્ય":3355,"▁બીજું":3356,"▁સિસ્ટમ":3357,"▁પ્રવાસ":3358,"▁દેવી":3359,"▁સ્વભાવ":3360,"લબ":3361,"▁આવવા":3362,"▁સાથ":3363,"▁વિગતો":3364,"▁ઉજવણી":3365,"▁માસ":3366,"વું.":3367,"માને":3368,"▁ટ્રાન્સ":3369,"▁થતું":3370,"કુમાર":3371,"▁અપા":3372,"▁તમારો":3373,"સિંગ":3374,"ઘુ":3375,"▁ડેટા":3376,"▁તાપમાન":3377,"▁પકડ":3378,"▁હુમલો":3379,"▁તાત્":3380,"▁ઉપયોગી":3381,"▁અમલ":3382,"લીમ":3383,"કાલે":3384,"▁રહેશે.\n":3385,"▁સ્થિર":3386,"▁સંપૂર્ણપણે":3387,"▁ધારાસભ્ય":3388,"▁કાર્યો":3389,"▁દેહ":3390,"▁ભેદ":3391,"▁દંડ":3392,"લાની":3393,"ડા,":3394,"ળાના":3395,"▁કરેલ":3396,"▁રૂપે":3397,"ૈયા":3398,"ાવ્યા":3399,"રોને":3400,"▁ભોગ":3401,"▁વિરા":3402,"▁સંભાવના":3403,"▁સફેદ":3404,"▁અદ":3405,"▁સાફ":3406,"ંદી":3407,"▁જઈને":3408,"▁તેનાં":3409,"▁સૂચના":3410,"▁ગઈ.":3411,"▁કુટુંબ":3412,"કીને":3413,"▁દુર":3414,"▁ફાયદા":3415,"રાં":3416,"▁સચ":3417,"▁સેવન":3418,"▁આશરે":3419,"▁રેલવે":3420,"લવા":3421,"ષી":3422,"ટીમાં":3423,"▁બજે":3424,"એ.":3425,"▁અફ":3426,"▁ચહેરા":3427,"▁મારો":3428,"▁ઘરની":3429,"▁વિધ":3430,"ઓથી":3431,"▁હરિ":3432,"▁સૌરાષ્ટ્ર":3433,"▁એનું":3434,"▁થયેલ":3435,"▁સપ્ટે":3436,"▁ભરી":3437,"▁મળતા":3438,"▁કોર્ટે":3439,"▁આધારિત":3440,"▁આભાર":3441,"▁કાળા":3442,"માના":3443,"▁સમજા":3444,"ભિ":3445,"વું,":3446,"▁મળીને":3447,"▁નિર્માણ":3448,"▁ઈશ્વર":3449,"▁ત્વ":3450,"કાએ":3451,"▁આરોપ":3452,"▁મતદાન":3453,"▁ખર":3454,"ટીને":3455,"▁અંતર્":3456,"▁ગામે":3457,"▁અલ્":3458,"▁ક્ષમતા":3459,"▁તાજેતરમાં":3460,"લ્યુ":3461,"▁ધર્":3462,"▁વાહનો":3463,"▁કોન્":3464,"ક્ષમ":3465,"૨૦":3466,"▁ઝો":3467,"▁પંડ":3468,"▁સમિતિ":3469,"મેટ":3470,"▁ટુક":3471,"▁ગયો.":3472,"▁ખીજી":3473,"સ્ટ્રી":3474,"▁કરશે.\n":3475,"▁દીધો":3476,"▁ટ્વિ":3477,"જિન":3478,"મું":3479,"▁નવું":3480,"▁લખા":3481,"▁પાતાના":3482,"▁ફાયર":3483,"▁અપેક્ષા":3484,"વાલો":3485,"▁લેતા":3486,"▁સક્રિય":3487,"▁બાળકોને":3488,"▁ઘણો":3489,"▁તો,":3490,"▁23":3491,"ઈને":3492,"▁વિચ":3493,"▁કરેલી":3494,"▁મૌ":3495,"▁વરસ":3496,"▁હુક":3497,"રેલી":3498,"▁નહીં.\n":3499,"▁વેચાણ":3500,"▁જામનગર":3501,"ન્ના":3502,"▁સન્માન":3503,"કર્તા":3504,"▁આવતાં":3505,"ળની":3506,"▁એપ્":3507,"▁પડ્યો":3508,"▁ઊંચા":3509,"▁પ્રશ્નો":3510,"ટને":3511,"▁ચલા":3512,"રિય":3513,"▁સાથે,":3514,"▁વિભા":3515,"▁પગલાં":3516,"દર્શ":3517,"▁ચૈ":3518,"▁ઉભી":3519,"▁કુદરતી":3520,"▁વૃદ્ધિ":3521,"મણી":3522,"▁પરિવર્":3523,"નિધિ":3524,"રાષ્ટ્રીય":3525,"▁પંચાય":3526,"▁આપીને":3527,"ફોર્મ":3528,"▁કૃપા":3529,"▁ગણે":3530,"▁છીએ,":3531,"▁ચર":3532,"▁નેટ":3533,"ઉન્":3534,"▁વાદ":3535,"▁વધુમાં":3536,"ંસા":3537,"▁સી.":3538,"▁ત્રીજા":3539,"▁મૈ":3540,"ાયલ":3541,"▁જાતિ":3542,"▁પુનઃ":3543,"▁વાસ્તવિક":3544,"ૂહ":3545,"▁રચ":3546,"▁શેઠ":3547,"▁ફેબ્રુ":3548,"▁સુધાર":3549,"▁સ્ટાફ":3550,"▁એકાઉન્ટ":3551,"▁કેન્દ":3552,"▁ફૂટ":3553,"▁કોરોનાના":3554,"ળીને":3555,"▁ઇચ્છ":3556,"પ્રદેશ":3557,"▁સંગઠ":3558,"ાવતા":3559,"▁હોત":3560,"▁આખરે":3561,"▁પર્યા":3562,"▁નિવેદન":3563,"▁ફેલા":3564,"તી,":3565,"▁મારું":3566,"▁કલ્યા":3567,"▁કચ":3568,"▁કર્યુ":3569,"▁શાસ્ત્ર":3570,"▁ચઢ":3571,"▁સરકારના":3572,"▁બિઝને":3573,"▁અધિકારીઓ":3574,"દમાં":3575,"▁રાજસ્થાન":3576,"▁સંપર્ક":3577,"▁સંસ્કૃતિ":3578,"ણ્ય":3579,"▁સઘ":3580,"▁પવન":3581,"▁દરરોજ":3582,"ગ્રહ":3583,"▁વાન":3584,"▁આધુનિક":3585,"પ્રા":3586,"▁જવાની":3587,"ત્સા":3588,"▁મૂર્તિ":3589,"▁જુલાઈ":3590,"▁અંતર્ગત":3591,"▁કચે":3592,"્રિક":3593,"▁સંશો":3594,"▁મીટર":3595,"યેલા":3596,"▁ઈચ્છા":3597,"▁પેલા":3598,"પુરા":3599,"▁પહોંચ્યા":3600,"▁રક્ષણ":3601,"▁શરુ":3602,"▁ચોરી":3603,"▁ફોર્મ":3604,"લમ":3605,"▁લેવાની":3606,"▁પ્લેટ":3607,"▁રાય":3608,"ંશ":3609,"▁સાધન":3610,"▁સાથી":3611,"▁સંદર્":3612,"મીટર":3613,"શાસ્ત્ર":3614,"▁પ્રસંગે":3615,"▁બાબતો":3616,"▁છે!":3617,"ૂમ":3618,"▁હળ":3619,"▁હવામાન":3620,"ણીના":3621,"▁ઉમેદવારો":3622,"▁અબ":3623,"▁જીતી":3624,"▁મળવા":3625,"ક્કર":3626,"કા,":3627,"▁ભવ્ય":3628,"▁જેણે":3629,"▁કોઈને":3630,"▁ખેા":3631,"મેલ":3632,"▁વાસ":3633,"▁પૂછ્યું":3634,"▁ન્યૂઝ":3635,"▁મરી":3636,"▁માયા":3637,"▁ગિ":3638,"▁આવ્યાં":3639,"▁ફેબ્રુઆરી":3640,"▁ટિ":3641,"▁દિવસોમાં":3642,"▁પોલીસને":3643,"▁સ્વચ્છ":3644,"▁પશ્ચિમ":3645,"▁થાય,":3646,"▁ખોરાક":3647,"ક્રો":3648,"▁સોસાય":3649,"▁અંતર":3650,"▁બ્રિટ":3651,"નોલોજી":3652,"▁સંભ":3653,"▁ટેક્":3654,"ષ્ટા":3655,"▁કેમકે":3656,"સ્ટી":3657,"ાર્ડ":3658,"▁અમેરિક":3659,"▁શારી":3660,"▁પાન":3661,"લીઝ":3662,"▁નાન":3663,"▁વિચારો":3664,"▁બેસ":3665,"▁મદદથી":3666,"કડી":3667,"▁આમાં":3668,"▁ડિગ્રી":3669,"▁તાત્કા":3670,"તક":3671,"સ્પે":3672,"▁ટિક":3673,"▁દિલ":3674,"▁રૂપા":3675,"▁દુખ":3676,"▁પાણીમાં":3677,"▁વાયુ":3678,"ંડો":3679,"▁હાય,":3680,"▁મ્યુનિ":3681,"▁ભાગમાં":3682,"▁ઠીક":3683,"ેલા":3684,"▁ગોઠ":3685,"▁સદા":3686,"▁માફ":3687,"યના":3688,"▁કેળ":3689,"▁દીકરા":3690,"▁સ્વપ્":3691,"શિષ્ટ":3692,"▁પાક":3693,"▁યુરો":3694,"વાં":3695,"▁છેઃ\n":3696,"ન્ડર":3697,"▁સંતો":3698,"▁આંતરરાષ્ટ્રીય":3699,"પદ":3700,"▁લાવવા":3701,"▁સંસાર":3702,"▁કાલે":3703,"૦૦૦":3704,"શિયન":3705,"▁દશ":3706,"▁રાવ":3707,"▁આકાર":3708,"▁ફટ":3709,"ૂક":3710,"▁ઓછું":3711,"થિ":3712,"▁હાવાથી":3713,"▁લાગ્યું":3714,"▁ચેર":3715,"▁નાય":3716,"▁કોવિડ":3717,"▁છું,":3718,"ાર્ટ":3719,"▁લક્ષ્મી":3720,"▁એરપોર્ટ":3721,"કોર":3722,"ધર":3723,"લીમાં":3724,"ક્ષણિક":3725,"▁મુસ્":3726,"તો.":3727,"▁વસ્તી":3728,"▁તહે":3729,"▁સાચી":3730,"▁જણાવે":3731,"▁કપડાં":3732,"▁કેન્દ્રીય":3733,"નથી":3734,"▁એ.":3735,"▁જેનો":3736,"▁સર્જ":3737,"ામાં":3738,"▁હાઉ":3739,"▁ભારતની":3740,"▁કમિશન":3741,"▁તસવી":3742,"▁માર્કેટ":3743,"▁રાષ્ટ્રપતિ":3744,"▁કલમ":3745,"▁ભરા":3746,"▁તૂ":3747,"ત્તર":3748,"▁ઉપસ્થિત":3749,"▁સંભવ":3750,"▁ગણાય":3751,"લાના":3752,"▁વૃદ્ધ":3753,"▁વ્યાજ":3754,"▁પ્રતિનિધિ":3755,"▁સ્થાને":3756,"ધાની":3757,"શની":3758,"▁છેવ":3759,"▁બેઠકો":3760,"▁ફાયદો":3761,"▁મશી":3762,"▁અભિન":3763,"▁ઉંમ":3764,"્રેસ":3765,"ફત":3766,"ત્રુ":3767,"▁સ્થળો":3768,"▁પ્રવ":3769,"ંદન":3770,"▁ટ્રાફિક":3771,"▁ખ્યાલ":3772,"▁મોટું":3773,"▁અર્જુ":3774,"લાઈન":3775,"▁સુપ્રીમ":3776,"▁માણુ":3777,"▁ટીવી":3778,"▁સૂત્રો":3779,"▁નિયમિત":3780,"▁નાગ":3781,"ગ્રસ્ત":3782,"▁સ્કૂ":3783,"▁ગરીબ":3784,"▁પડતા":3785,"▁મહારાજ":3786,"▁બગ":3787,"▁199":3788,"પજ":3789,"રીએ":3790,"▁રેડ":3791,"▁લાવી":3792,"▁ઇન":3793,"લોડ":3794,"ાવત":3795,"લોક":3796,"▁સહુ":3797,"▁જ્યો":3798,"▁બિલ્":3799,"▁ઊભા":3800,"▁ડું":3801,"▁રહે.":3802,"▁મળશે":3803,"મ્મી":3804,"▁ભોજન":3805,"▁સિવિ":3806,"▁મહેનત":3807,"▁સંગ્રહ":3808,"▁અર્થા":3809,"▁મકા":3810,"છે,":3811,"▁જૂથ":3812,"ગ્ન":3813,"▁તબી":3814,"અને":3815,"▁સહી":3816,"▁વિચારી":3817,"▁કાશ્મી":3818,"પલ":3819,"▁દાદા":3820,"▁ઈન્ડિયા":3821,"▁નાગરિક":3822,"▁સરે":3823,"જીત":3824,"▁ઊભી":3825,"▁થતો":3826,"ન્સર":3827,"ળાની":3828,"▁જોતા":3829,"▁માટેના":3830,"કૂળ":3831,"▁દાય":3832,"▁રહેતી":3833,"ૂડ":3834,"▁હેલ્":3835,"▁સમક્ષ":3836,"▁વાતચીત":3837,"▁કાપી":3838,"▁ચેક":3839,"▁સ્માર્ટ":3840,"ધ્યા":3841,"સ્વા":3842,"▁ઉમેર":3843,"▁અકસ્માત":3844,"લતા":3845,"▁ત્વચા":3846,"▁તદ્":3847,"▁સ્ટી":3848,"▁બાદમાં":3849,"▁ક્રિ":3850,"50":3851,"શનમાં":3852,"▁સરસ":3853,"▁૨૫":3854,"તું.":3855,"▁એજન્સી":3856,"▁ફેસબુક":3857,"▁વચ":3858,"▁નેશનલ":3859,"વિંદ":3860,"ચક":3861,"▁એનો":3862,"▁લોહી":3863,"▁કાણુ":3864,"▁થયાં":3865,"▁શારીરિક":3866,"▁સંક્રમણ":3867,"ીય":3868,"રત":3869,"વના":3870,"સંગ":3871,"▁ગીત":3872,"▁કાવ્ય":3873,"▁દેશો":3874,"ધુ":3875,"વાઇ":3876,"▁પંજાબ":3877,"▁રે,":3878,"▁ઉત્સ":3879,"▁કારણો":3880,"▁ગાંધીનગર":3881,"▁ઉમેદવાર":3882,"પ,":3883,"▁પથ":3884,"ણીની":3885,"▁ગયાં":3886,"▁જોખમ":3887,"▁જથ્":3888,"▁પીડા":3889,"કાર્":3890,"▁ડિઝાઇન":3891,"ડર":3892,"▁બચાવ":3893,"▁પ્રચાર":3894,"▁બ્રહ્":3895,"▁ગ્રુ":3896,"▁નિષ્ણા":3897,"▁હા,":3898,"ણામાં":3899,"▁શ્રદ્ધા":3900,"એન":3901,"▁આવ્યા.":3902,"▁ચક્ર":3903,"▁પાટી":3904,"▁માથ":3905,"▁હાથે":3906,"દેહ":3907,"▁સ્પર્ધા":3908,"શક્તિ":3909,"કૃત":3910,"▁જાતે":3911,"▁જોયા":3912,"ન્જ":3913,"▁સ્થાપના":3914,"ડિંગ":3915,"▁કયાં":3916,"▁આઉટ":3917,"સીને":3918,"▁૨૦૧":3919,"▁એવુ":3920,"લીન":3921,"▁મહિલાઓ":3922,"▁સપાટી":3923,"▁ભાવનગર":3924,"▁દબાણ":3925,"▁માટી":3926,"▁રહેવું":3927,"▁ઈજા":3928,"▁ઉત્પાદનો":3929,"િયાર":3930,"ણિક":3931,"▁એન્ટ":3932,"▁કઇ":3933,"▁નૈ":3934,"▁યુવા":3935,"▁પ્રોડ":3936,"▁વિકલ્પ":3937,"ંબા":3938,"▁વકી":3939,"▁ઉના":3940,"▁સરળતાથી":3941,"▁પાકિસ્તાન":3942,"▁અહી":3943,"▁દિશામાં":3944,"▁એફ":3945,"▁સારૂ":3946,"▁આવી.":3947,"▁યુવાનો":3948,"▁પરિવારના":3949,"લત":3950,"▁બંગા":3951,"▁સંબંધી":3952,"▁ઉતર":3953,"▁સહન":3954,"▁ટેક્સ":3955,"▁તીવ્ર":3956,"▁નોટ":3957,"▁સળ":3958,"તાહ":3959,"ાઈ":3960,"▁કે.":3961,"▁વાળા":3962,"▁આતંક":3963,"▁2.":3964,"▁વિધિ":3965,"▁વિગેરે":3966,"▁વિગત":3967,"▁નાણાકીય":3968,"▁ગુણવત્તા":3969,"▁નવો":3970,"▁જોતાં":3971,"▁મોડ":3972,"▁પલ":3973,"▁વ્યક્તિગત":3974,"▁નોંધપાત્ર":3975,"▁પ્રતી":3976,"▁સંકે":3977,"▁સદ્":3978,"▁પરિવ":3979,"પણું":3980,"ઇન્ટ":3981,"▁મરણ":3982,"▁અજાણ":3983,"ાનિ":3984,"રેજ":3985,"▁આપના":3986,"▁બીમારી":3987,"માલ":3988,"▁સંગીત":3989,"▁સન":3990,"▁બીજે":3991,"▁ઘણીવાર":3992,"યાત":3993,"ણીય":3994,"▁છોકરા":3995,"▁ફિલ્મમાં":3996,"▁ટાઈ":3997,"▁પ્રધાનમંત્રી":3998,"▁ગ્રંથ":3999,"▁અદ્":4000,"▁અહિ":4001,"પરછ":4002,"ચય":4003,"મણાં":4004,"▁તકલી":4005,"▁જોવામાં":4006,"લિકે":4007,"વ્યો":4008,"▁દસ્તા":4009,"▁મહત્ત્વ":4010,"▁મેચમાં":4011,"▁શિયા":4012,"▁વહીવ":4013,"▁તાત્કાલિક":4014,"▁કશું":4015,"હ્ય":4016,"માનો":4017,"રીઝ":4018,"▁જીલ્લા":4019,"▁શરૂઆતમાં":4020,"ઈડ":4021,"▁27":4022,"▁થોડો":4023,"▁૩૦":4024,"▁ભલામણ":4025,"▁દોષ":4026,"▁ન્":4027,"▁31":4028,"▁બજારમાં":4029,"લાને":4030,"દેસર":4031,"▁ઇતિહાસ":4032,"▁પૂર્વે":4033,"▁ઓછામાં":4034,"શમાં":4035,"▁વ્ર":4036,"▁અંબા":4037,"ફોન":4038,"ટેલ":4039,"▁મેદાન":4040,"▁પ્રકરણ":4041,"▁ધુ":4042,"▁પડતી":4043,"▁લોકડા":4044,"રા,":4045,"▁સરકારની":4046,"▁એથી":4047,"▁પથ્થ":4048,"▁લવ":4049,"▁કલે":4050,"▁ચૂંટણીમાં":4051,"રીની":4052,"▁વિજ્ઞાન":4053,"ડાવી":4054,"▁બેઠકમાં":4055,"▁મુજબ,":4056,"▁કોર્ટમાં":4057,"પણુ":4058,"▁કપૂર":4059,"▁ઇન્ડિયા":4060,"▁તૃ":4061,"▁ડિસેમ્બર":4062,"ણાવ":4063,"▁સલ":4064,"▁સુરક્ષિત":4065,"▁ઢો":4066,"▁ટ્રેન":4067,"▁રસપ્રદ":4068,"▁સદ":4069,"▁રૂપી":4070,"▁પેટ્રોલ":4071,"ક્ષેપ":4072,"ઝિટિવ":4073,"માત્ર":4074,"▁પ્રવાસી":4075,"▁ઇલેક્ટ":4076,"▁દસ્તાવે":4077,"▁વાણી":4078,"▁રાખો":4079,"અપ":4080,"મીન":4081,"▁ડૉ.":4082,"▁આપને":4083,"▁ક્ષેત્રમાં":4084,"▁ટ્વી":4085,"વતા":4086,"▁હિત":4087,"એફ":4088,"ડીના":4089,"ેા":4090,"▁પુછ":4091,"▁લાગ્યો":4092,"ંબુ":4093,"▁વિકેટ":4094,"ાંક":4095,"▁હોવી":4096,"▁ખેંચ":4097,"▁જોઈએ,":4098,"▁કૅ":4099,"ચ્છે":4100,"▁2020":4101,"▁પગાર":4102,"પ્પા":4103,"▁આય":4104,"▁કેવળ":4105,"રામાં":4106,"▁ભૂલી":4107,"▁મોટાભાગના":4108,"▁બહા":4109,"▁ફ્રી":4110,"▁કરાર":4111,"▁પેઢી":4112,"▁અંગ્રેજી":4113,"▁મુસ્લિ":4114,"▁ખંડ":4115,"▁26":4116,"▁મકાન":4117,"▁કેમે":4118,"વને":4119,"▁જગા":4120,"શું.":4121,"▁હતુ.":4122,"▁પાછી":4123,"▁આવો":4124,"▁ડર":4125,"વાનગી":4126,"▁ઝે":4127,"▁અઠવાડિયા":4128,"બળ":4129,"▁ફૂલ":4130,"કોની":4131,"▁ખાતર":4132,"▁જવાનો":4133,"પ્સ":4134,"▁એમ.":4135,"▁અસ્તિ":4136,"▁2019":4137,"▁માસ્ક":4138,"ાવ્યો":4139,"▁ક્રમ":4140,"▁ગણતરી":4141,"સ્ત્રો":4142,"▁વાપ":4143,"▁કથ":4144,"મતિ":4145,"▁કાળજી":4146,"દીપ":4147,"▁વાગ્યે":4148,"▁રક્ત":4149,"▁ગું":4150,"▁મેસે":4151,"▁ઉત્સાહ":4152,"ભૂમિ":4153,"▁સરદાર":4154,"▁યુવક":4155,"▁...":4156,"▁પૂરા":4157,"▁ડાઉન":4158,"▁સમસ્યાઓ":4159,"▁28":4160,"▁અપના":4161,"▁પોઝિટિવ":4162,"મંડ":4163,"▁ફ્ર":4164,"▁જુએ":4165,"ટ્ટ":4166,"સમા":4167,"▁પાડવામાં":4168,"▁બિઝનેસ":4169,"▁ફાઈ":4170,"▁સપ્ટેમ્બર":4171,"▁માથે":4172,"▁થવું":4173,"▁ધ્રુ":4174,"▁વૈજ્ઞાન":4175,"▁ઓક્ટો":4176,"▁લીલા":4177,"રાને":4178,"▁નીચ":4179,"▁પટેલે":4180,"▁ધમકી":4181,"બૂ":4182,"▁નહેા":4183,"▁વર્ષીય":4184,"▁બ્લ":4185,"▁ઉભ":4186,"▁પોલિ":4187,"▁2021":4188,"▁નાંખ":4189,"▁સોમવારે":4190,"▁વિશિષ્ટ":4191,"▁ધરવામાં":4192,"▁તાલીમ":4193,"▁પ્રાર્થ":4194,"કેશ":4195,"▁પાણીની":4196,"ધારણ":4197,"▁મીઠા":4198,"▁વર્ણન":4199,"▁સિવિલ":4200,"ધારી":4201,"▁વિકસ":4202,"પાર":4203,"▁પરવાનગી":4204,"▁આર.":4205,"▁ઓગસ્ટ":4206,"રેશ":4207,"▁મોહ":4208,"▁રસો":4209,"▁મોબાઈલ":4210,"▁કંપનીઓ":4211,"▁તદ્દન":4212,"ૃષ્ટિ":4213,"ચાવી":4214,"▁દિવસની":4215,"▁નજરે":4216,"▁શત્રુ":4217,"▁સાહ":4218,"▁જાડે":4219,"▁માં,":4220,"▁પરમાત્મા":4221,"રોની":4222,"ણા,":4223,"▁અસા":4224,"▁વાપર":4225,"▁આજ્ઞા":4226,"▁કેસો":4227,"ડાઇ":4228,"▁લોન":4229,"ચિત્ર":4230,"ડતી":4231,"▁મુનિ":4232,"▁ચાલો":4233,"▁કહીને":4234,"ચંદ્ર":4235,"ણાના":4236,"▁છું.\n":4237,"▁ગુપ્ત":4238,"સીએ":4239,"▁અસરકારક":4240,"▁ઉપદેશ":4241,"▁પક્ષી":4242,"તરણ":4243,"▁અપી":4244,"▁નાટ":4245,"સ્ટિક":4246,"▁વ્યાખ્યા":4247,"યી":4248,"▁લોકસ":4249,"▁આંદો":4250,"▁વિલ":4251,"▁કહેતા":4252,"▁સર્વિ":4253,"▁શ્વાસ":4254,"▁પાવર":4255,"સાઇ":4256,"▁વાયરસ":4257,"પૂર":4258,"▁પ્રકારે":4259,"▁ગોળી":4260,"સામાં":4261,"▁દર્દીઓ":4262,"▁કેર":4263,"લીએ":4264,"શાની":4265,"▁કહું":4266,"▁જોડે":4267,"▁વધારી":4268,"▁ટૂંક":4269,"▁કદ":4270,"▁એચ":4271,"ંધો":4272,"પ્રતિ":4273,"▁પ્રખ્યાત":4274,"▁થવાથી":4275,"સેસ":4276,"▁ઓવર":4277,"▁રહીને":4278,"▁ઓફિસ":4279,"▁બોલિવ":4280,"લીના":4281,"▁તેઓને":4282,"▁ત્રીજી":4283,"▁જાડેજા":4284,"▁સક્ષમ":4285,"▁ગભ":4286,"▁થે":4287,"▁જગત":4288,"▁સમૃ":4289,"▁કેટલાંક":4290,"▁શકીએ":4291,"વરણ":4292,"▁મોકલી":4293,"▁60":4294,"19":4295,"કતા":4296,"▁જોઇને":4297,"▁વીજળી":4298,"ાની":4299,"▁પાં":4300,"્યાં.":4301,"▁દુકા":4302,"▁,\n":4303,"▁ફાઇ":4304,"કું":4305,"▁મની":4306,"ડાને":4307,"▁મી.":4308,"▁નીકળે":4309,"▁છે,\n":4310,"▁મજ":4311,"રેટ":4312,"▁ખાવા":4313,"▁અમિત":4314,"▁અપડે":4315,"દાયક":4316,"▁કડક":4317,"▁સાથેના":4318,"લ્યા":4319,"ંગના":4320,"વારના":4321,"▁મમ્મી":4322,"વીએ":4323,"▁સિં":4324,"▁હિંમત":4325,"વે,":4326,"▁ઓફર":4327,"▁પ્રસન્ન":4328,"▁અમી":4329,"▁બાળકને":4330,"▁મહામારી":4331,"▁સ્ટાર":4332,"▁વિભાગના":4333,"▁વાંચી":4334,"▁સુધારા":4335,"ઢે":4336,"▁છતાં,":4337,"▁લાંબી":4338,"ડીયો":4339,"સાઇટ":4340,"▁પ્રગતિ":4341,"▁કરે,":4342,"▁ત્યારથી":4343,"▁એન્જિન":4344,"▁અમેરિકા":4345,"▁રમી":4346,"▁સંકળ":4347,"▁શાખા":4348,"▁સરકારને":4349,"▁આગાહી":4350,"કાવ":4351,"ષ્ઠા":4352,"▁રોગો":4353,"કરે":4354,"▁પ્રયોગ":4355,"ટ્ટી":4356,"પિત":4357,"▁વ્યક્તિને":4358,"▁રવિવારે":4359,"▁જવાનું":4360,"▁તેએ":4361,"▁લેવી":4362,"▁સ્વય":4363,"▁કોમ":4364,"ત્સવ":4365,"▁દર્શાવે":4366,"કલ્પ":4367,"ફિ":4368,"▁ઠેકા":4369,"સાની":4370,"▁સૂત્ર":4371,"રીયા":4372,"▁બદલી":4373,"▁મર્યાદા":4374,"▁જનતા":4375,"▁સંપત્તિ":4376,"▁અસ્તિત્વ":4377,"વેર":4378,"▁આદમી":4379,"▁રમે":4380,"▁હોમ":4381,"▁મેટ્રો":4382,"▁પડ્યા":4383,"▁રેખા":4384,"▁થયું.":4385,"▁મોબાઇલ":4386,"ડિટ":4387,"દિત":4388,"▁હોવું":4389,"▁આશી":4390,"▁૨૧":4391,"▁બહેન":4392,"▁પહેલે":4393,"▁ભરત":4394,"▁તત્ત્વ":4395,"▁હલ":4396,"▁વાય":4397,"લ્ટ":4398,"▁જાણીતા":4399,"લ્વે":4400,"▁વિરો":4401,"કોએ":4402,"▁મુદ્દે":4403,"▁આંકડા":4404,"▁લોકસભા":4405,"▁શખ્":4406,"▁રિલીઝ":4407,"▁મંગળવારે":4408,"▁સંભાળ":4409,"▁અણુ":4410,"▁દોડી":4411,"▁જોગ":4412,"▁વ્હા":4413,"▁પ્રસિદ્ધ":4414,"▁યુક્રે":4415,"▁હશે,":4416,"▁ફ્લો":4417,"▁જિંદગી":4418,"ઝિ":4419,"મૂ":4420,"▁ગયેલા":4421,"▁શુક્રવારે":4422,"પને":4423,"શનની":4424,"▁વેગ":4425,"▁શેા":4426,"▁લક્ષણો":4427,"▁ચાર્જ":4428,"કટર":4429,"▁ઉલ":4430,"▁કરે.":4431,"▁અલબ":4432,"▁જર":4433,"▁અમૃત":4434,"▁ખુલા":4435,"▁ભેગા":4436,"▁કલ્યાણ":4437,"માય":4438,"▁સધ":4439,"તરના":4440,"▁કરો,":4441,"▁મુકા":4442,"▁વહા":4443,"▁ચીન":4444,"▁કૃષિ":4445,"▁રાજકાર":4446,"▁યે":4447,"માથી":4448,"▁આટલી":4449,"▁લગાવી":4450,"▁નાર":4451,"▁સુના":4452,"▁રીતે,":4453,"▁પ્લાન્ટ":4454,"▁અહેવાલ":4455,"સારી":4456,"▁ઓસ્ટ્રે":4457,"▁માણસો":4458,"કવા":4459,"▁પ્રોત્સા":4460,"▁રૂપિયાની":4461,"▁ભરતી":4462,"▁ઉપરાંત,":4463,"ઝલ":4464,"▁સ્વસ્થ":4465,"▁પ્રેમી":4466,"સ્પતિ":4467,"▁અમદાવાદમાં":4468,"▁દુનિયામાં":4469,"▁મૂલ્ય":4470,"▁દરવાજા":4471,"▁જનરલ":4472,"▁પ્રાર્થના":4473,"ખુ":4474,"▁માઇ":4475,"▁ટીમે":4476,"▁ન્યા":4477,"▁કામમાં":4478,"▁સાધનો":4479,"▁મંત્રાલય":4480,"▁હમણાં":4481,"▁રાજે":4482,"▁પેઠે":4483,"▁દિવસથી":4484,"▁ભેટ":4485,"▁પ્રદાન":4486,"▁થોડું":4487,"▁સંબંધો":4488,"ંજન":4489,"દ,":4490,"રાશ":4491,"▁પૂરું":4492,"▁વૃત્તિ":4493,"▁૦":4494,"▁લોન્ચ":4495,"▁ભાવે":4496,"▁વિષ્ણુ":4497,"▁સેક્સ":4498,"▁પડયા":4499,"▁દિન":4500,"▁તારે":4501,"▁મસા":4502,"▁અભાવ":4503,"▁હસ્ત":4504,"▁રાણી":4505,"▁ઉપકરણ":4506,"▁યુનિ":4507,"▁આહાર":4508,"▁ડુ":4509,"▁માન્યતા":4510,"▁કેપ્ટન":4511,"▁પરના":4512,"રો,":4513,"▁સાંભળીને":4514,"▁ઔષ":4515,"શર":4516,"▁તળાવ":4517,"▁ધંધા":4518,"કોના":4519,"ત્તે":4520,"▁ઝુ":4521,"▁ઉંમર":4522,"▁જેવો":4523,"▁હરી":4524,"▁કોહ":4525,"▁રૂા.":4526,"ડ્":4527,"▁થકી":4528,"દીના":4529,"ગના":4530,"▁ભાગ્ય":4531,"▁નેતાઓ":4532,"▁માગે":4533,"▁પાત":4534,"ક્ષ્મ":4535,"▁ઓર":4536,"મિન":4537,"▁નવીન":4538,"▁સૈનિક":4539,"▁ટિકિટ":4540,"▁સાચા":4541,"▁આવે.":4542,"તિહાસિક":4543,"▁રજ":4544,"▁રજુ":4545,"▁ધીરે":4546,"▁ગંગા":4547,"▁શકાય.":4548,"▁આચાર્ય":4549,"▁તેનુ":4550,"▁યૂ":4551,"▁સીધી":4552,"▁ટોચ":4553,"▁મધ્યમ":4554,"▁બાપુ":4555,"▁બી.":4556,"▁જાય.":4557,"▁ઝાડ":4558,"▁એપ્લિકે":4559,"▁ઉતરી":4560,"ભુત":4561,"ર્વાદ":4562,"▁જેનાથી":4563,"ય,":4564,"▁રૂમ":4565,"▁જૂની":4566,"જલ":4567,"િતા":4568,"▁જલ્":4569,"▁હર્ષ":4570,"▁વાક":4571,"▁પેાતે":4572,"જીવ":4573,"હોલ":4574,"નારે":4575,"▁તે,":4576,"▁ફ્રા":4577,"▁ચાલ્યા":4578,"▁મું":4579,"▁મ્યુનિસિ":4580,"▁આને":4581,"લ્ય":4582,"▁ઉતાર":4583,"▁પ્રાણ":4584,"▁અવસ્થા":4585,"સ્ટ્ર":4586,"▁ત્રણેય":4587,"▁..":4588,"▁કેવા":4589,"્યુઅલ":4590,"▁હશે.\n":4591,"▁પ્રવાહ":4592,"▁સ્પી":4593,"▁વોર્ડ":4594,"▁પ્રત્યેક":4595,"ધું":4596,"▁નુ":4597,"▁વાઇ":4598,"▁આવ્યુ":4599,"▁૨૪":4600,"▁પરિવર્તન":4601,"▁એકાદ":4602,"ક્તો":4603,"▁સપ્તાહ":4604,"▁મુસાફરી":4605,"▁બુધવારે":4606,"▁આજના":4607,"ક્સી":4608,"▁વ્યાપક":4609,"મારે":4610,"▁ડ્રગ":4611,"▁હોટ":4612,"▁બદલા":4613,"▁મેનેજ":4614,"▁સપ":4615,"▁છી":4616,"ક્તા":4617,"▁જેનું":4618,"▁હેડ":4619,"▁લેખક":4620,"▁છેલ્લી":4621,"▁શખ":4622,"▁અર્થાત્":4623,"દાં":4624,"▁ઘડી":4625,"▁મોડે":4626,"▁સમાજના":4627,"▁ફાળ":4628,"▁અન્":4629,"▁વાઘ":4630,"સાથી":4631,"▁પામ્યા":4632,"▁મૃ":4633,"શનના":4634,"▁સંયુક્ત":4635,"પુરમાં":4636,"ગારી":4637,"વડે":4638,"▁સાથેની":4639,"▁કહ્યું.\n":4640,"▁આપેલી":4641,"▁સ્થાપિત":4642,"▁સત્ર":4643,"▁એવાં":4644,"▁ટાઇ":4645,"▁જવાબદાર":4646,"▁રહેલ":4647,"▁ઇન્ટરને":4648,"▁હુમલા":4649,"▁વિદ્":4650,"▁લોકોમાં":4651,"▁કંપનીના":4652,"▁ભિન્ન":4653,"ખું":4654,"▁બૉ":4655,"ન્તિ":4656,"▁દેશી":4657,"▁એમ્":4658,"વણ":4659,"▁કટ":4660,"▁એકત્ર":4661,"▁ચોક":4662,"▁નવેમ્બર":4663,"▁સેવ":4664,"▁આઝા":4665,"▁થવાના":4666,"▁શકશે":4667,"▁મેડિકલ":4668,"▁લડાઈ":4669,"શ્વાસ":4670,"ધ્ય":4671,"▁સાઇટ":4672,"▁ઉદય":4673,"▁જામ":4674,"▁2023":4675,"▁દ્રષ્ટિ":4676,"▁પદ્":4677,"▁નર્મ":4678,"▁હોવાના":4679,"▁વિશ્વમાં":4680,"▁ગર્ભ":4681,"▁અમેરિકન":4682,"સાથે":4683,"▁અનુસ":4684,"▁બજેટ":4685,"▁તકલીફ":4686,"▁જમ્":4687,"▁ઘેા":4688,"▁રસ્તો":4689,"▁ઉઠા":4690,"ાવ્યું":4691,"▁હોવાનો":4692,"ટિક":4693,"▁ગઢ":4694,"સક":4695,"▁પડશે.\n":4696,"▁કને":4697,"▁માછ":4698,"▁અમર":4699,"▁એકે":4700,"▁નિષ્ફળ":4701,"▁અગત્ય":4702,"▁સંબો":4703,"▁મુક્તિ":4704,"▁માંગે":4705,"▁આફ્રિ":4706,"ઈટ":4707,"▁બેડ":4708,"▁ચામ":4709,"▁સોંપ":4710,"▁મહિને":4711,"▁હજારો":4712,"▁બપોરે":4713,"▁ઉપરના":4714,"▁માંગો":4715,"▁માર્ગદર્શન":4716,"▁આંતરિક":4717,"ઇને":4718,"લીની":4719,"▁પુરી":4720,"િટલ":4721,"▁સંવે":4722,"▁ભાવમાં":4723,"દને":4724,"યલ":4725,"નીતિ":4726,"▁દુકાન":4727,"▁છાપ":4728,"▁પ્રદેશમાં":4729,"કૃષ્ણ":4730,"▁છેવટે":4731,"લેશન":4732,"▁વેબસાઇટ":4733,"ગરી":4734,"▁લાઇન":4735,"▁સુખી":4736,"ટીંગ":4737,"▁સંજય":4738,"▁મેન":4739,"▁વિદ્યાર્થીઓને":4740,"▁સમીક્ષા":4741,"▁હુકમ":4742,"▁અણ":4743,"▁મેક":4744,"▁રાખવી":4745,"▁35":4746,"▁મૂકવામાં":4747,"મલ":4748,"▁મલ્":4749,"▁બતાવી":4750,"▁નિર્મ":4751,"▁કરાઈ":4752,"▁જેટલું":4753,"▁કલાકમાં":4754,"▁જાતને":4755,"▁સ્ટેટ":4756,"▁નાગરિકો":4757,"પત":4758,"▁નિમિ":4759,"ઘાત":4760,"▁શાકભા":4761,"▁ઐતિહાસિક":4762,"વાડી":4763,"▁આરા":4764,"▁ગુના":4765,"ન્શન":4766,"▁એપ્રિલ":4767,"▁તસવીરો":4768,"યાન":4769,"▁આવેલું":4770,"▁કિંમ":4771,"▁કૃતિ":4772,"▁માતાપિતા":4773,"▁વિર":4774,"▁મિથ":4775,"ઠ્ઠી":4776,"પ્લે":4777,"ઇએ":4778,"વંત":4779,"▁અગર":4780,"▁વિટા":4781,"▁રહેવાની":4782,"યેલી":4783,"▁સુધીની":4784,"▁અપીલ":4785,"▁કાલ":4786,"▁રેલ્વે":4787,"▁અનુભવી":4788,"કાંઠા":4789,"▁મોંઘ":4790,"▁સ્કૂલ":4791,"ગન":4792,"▁કુશ":4793,"ર્ષિક":4794,"▁બધુ":4795,"▁ફોટા":4796,"▁બુક":4797,"▁સાગર":4798,"શ્વિક":4799,"વેલા":4800,"▁ડૂ":4801,"▁પેાતાને":4802,"▁અર્થે":4803,"▁મુલાકા":4804,"▁કર્મચારીઓ":4805,"▁પ્રેરણા":4806,"▁તાવ":4807,"▁કિલોમીટર":4808,"▁લાયક":4809,"▁તેટલા":4810,"▁તુર":4811,"▁ઊંચ":4812,"▁કમાણી":4813,"▁વાનગી":4814,"▁ભૌ":4815,"▁પાલિ":4816,"▁શરીરને":4817,"▁તલ":4818,"ુરુ":4819,"▁બન્યું":4820,"કોર્ટ":4821,"સીબ":4822,"▁ઊર્":4823,"▁ખાય":4824,"▁ઇજા":4825,"▁મળશે.\n":4826,"▁હકીક":4827,"▁હથ":4828,"્યો,":4829,"▁દોડ":4830,"▁અલબત્ત":4831,"▁ખાઈ":4832,"▁મુંબઇ":4833,"▁વધતા":4834,"▁જી.":4835,"▁ઊંઘ":4836,"▁ચાલતા":4837,"▁કરૂ":4838,"ર્મો":4839,"▁પ્રભા":4840,"▁રાત્રિ":4841,"▁પરિણામો":4842,"▁પૂછપરછ":4843,"▁ડ્રાઇ":4844,"દિવ":4845,"હાં":4846,"▁વિરૂ":4847,"ચંદ":4848,"ટીની":4849,"▁ઓલ":4850,"▁યુઝ":4851,"▁અનુકૂળ":4852,"મનાથ":4853,"▁પ્રકાશિત":4854,"વસ્થા":4855,"મા,":4856,"▁કંપનીએ":4857,"▁સંર":4858,"▁રાખવું":4859,"▁કેટલું":4860,"▁પ્રાપ્તિ":4861,"▁નેટવર્":4862,"▁સિક":4863,"▁બાઇ":4864,"▁નોંધી":4865,"▁ગયા,":4866,"▁નં.":4867,"▁માહ":4868,"▁થયુ":4869,"▁ઉકેલ":4870,"રાજા":4871,"▁વિતરણ":4872,"▁સમર્થન":4873,"વ,":4874,"▁વૈશ્વિક":4875,"ખ્ત":4876,"▁રદ":4877,"▁એકલા":4878,"▁તુર્":4879,"▁આટલા":4880,"▁સેટ":4881,"▁ડોલર":4882,"િકા":4883,"નામ":4884,"▁ચલાવી":4885,"▁બાઈ":4886,"▁વેક્સિ":4887,"▁સ્વાગત":4888,"પ્પ":4889,"▁યજ્ઞ":4890,"▁ડોક્ટર":4891,"▁શૂ":4892,"▁પાદ":4893,"▁કિશો":4894,"▁મહાત્મા":4895,"▁સુધારો":4896,"▁વિડીયો":4897,"ધામ":4898,"▁નહિં":4899,"▁હમે":4900,"▁મહી":4901,"▁કેશ":4902,"▁શાસ્ત્રી":4903,"▁ડી.":4904,"▁ઓપરેશન":4905,"▁વય":4906,"▁ચોમા":4907,"▁ખેડૂત":4908,"▁અગ્રણી":4909,"પંચ":4910,"▁રૂમમાં":4911,"▁દુશ્":4912,"▁સમાપ્ત":4913,"▁ઠંડી":4914,"▁સ્વર્ગ":4915,"▁મીઠું":4916,"▁કોરોનાની":4917,"▁કાગળ":4918,"▁આટલું":4919,"▁સ્નેહ":4920,"▁કરશો":4921,"્યો.\n":4922,"▁ભાગના":4923,"ખાણ":4924,"▁ડિસ્":4925,"▁ચિત્ત":4926,"▁45":4927,"મ્પ્યુ":4928,"રેક્ટર":4929,"▁રાજય":4930,"▁જેમણે":4931,"▁નીચેના":4932,"▁જાણીએ":4933,"તઃ":4934,"મસ":4935,"▁ચડ":4936,"▁સંજો":4937,"▁પરિષ":4938,"▁તીર્થ":4939,"ૃત્તિ":4940,"▁ફર્":4941,"કેશન":4942,"▁1,":4943,"▁છીએ.\n":4944,"▁વનસ્પતિ":4945,"▁પ્રશંસા":4946,"▁સવા":4947,"▁જડ":4948,"▁પાલ":4949,"▁માનવી":4950,"▁શ્રાવ":4951,"▁જ્":4952,"રાએ":4953,"▁વાર્ષિક":4954,"ટી,":4955,"▁થઈ.":4956,"▁૧.":4957,"▁ખુર":4958,"▁આવતું":4959,"▁કાર્યક્રમો":4960,"▁શૂટ":4961,"▁શિક્ષક":4962,"▁નહ":4963,"▁કાચ":4964,"▁મુસલ":4965,"▁હતાં.\n":4966,"▁સ્તરે":4967,"▁પ્લેટફોર્મ":4968,"▁મેસેજ":4969,"▁ટીકા":4970,"▁ઋષિ":4971,"▁ધણી":4972,"▁80":4973,"▁માપ":4974,"▁જાવ":4975,"▁2017":4976,"ધિક":4977,"▁લાય":4978,"▁પોર્ટ":4979,"▁અલી":4980,"▁શકું":4981,"▁કાર્યક્રમમાં":4982,"▁ભવ":4983,"▁યુગ":4984,"ભાવિક":4985,"▁પરિવહન":4986,"▁ડાઉનલોડ":4987,"▁શાન":4988,"ાંતર":4989,"▁કેમ્પ":4990,"િયત":4991,"▁સ્ત્રીઓ":4992,"▁ક્રેડિટ":4993,"▁ઓછો":4994,"▁સખત":4995,"નનો":4996,"શના":4997,"િની":4998,"▁કપા":4999,"▁જિન":5000,"▁ઘરના":5001,"પીએ":5002,"વિંગ":5003,"▁રજૂઆત":5004,"▁હંમેશાં":5005,"▁ટૂંકા":5006,"▁રાખવાની":5007,"બાજુ":5008,"▁બંધાર":5009,"▁વિનંતી":5010,"▁પત":5011,"▁છબી":5012,"▁ખડ":5013,"▁સુધીના":5014,"▁લાગી.":5015,"ાના":5016,"▁ફંડ":5017,"▁પાતાની":5018,"ષ્ક":5019,"▁નોંધાવી":5020,"▁સહયોગ":5021,"▁લાખો":5022,"સુખ":5023,"▁પાછળથી":5024,"રબ":5025,"▁વિકા":5026,"▁ઘૂ":5027,"▁સાંસદ":5028,"▁ધીર":5029,"▁નોંધાયા":5030,"▁જાળવી":5031,"▁પ્રયત્":5032,"▁સરેરાશ":5033,"ર્ડર":5034,"ત્વે":5035,"▁મૂકે":5036,"▁ઋતુ":5037,"નેટ":5038,"ંતિ":5039,"▁હનુ":5040,"લાએ":5041,"▁ધણા":5042,"▁અભિયાન":5043,"▁બનાવવાની":5044,"વૈ":5045,"▁દલી":5046,"▁મિલિયન":5047,"તૃત્વ":5048,"▁પાય":5049,"▁આર્ટ":5050,"▁સમયે,":5051,"▁છાતી":5052,"▁ભાષામાં":5053,"▁મચી":5054,"▁વપરાય":5055,"ધના":5056,"▁ભંગ":5057,"ાવર":5058,"▁વધીને":5059,"▁સંદર્ભ":5060,"▁ચેરમેન":5061,"30":5062,"યમ":5063,"▁પાંદ":5064,"▁વર્ક":5065,"▁પહોંચે":5066,"સ્પદ":5067,"▁૫૦":5068,"ભાં":5069,"▁રશિયન":5070,"ર્દી":5071,"▁વેસ્ટ":5072,"સૂર":5073,"▁પૌ":5074,"▁આપવાનું":5075,"દોષ":5076,"▁ઠેર":5077,"ણાની":5078,"▁કારણકે":5079,"▁નિર્દેશ":5080,"▁પરીક્ષણ":5081,"▁હેલ્થ":5082,"ક્ચર":5083,"▁કોશિ":5084,"લિન":5085,"▁કાયદો":5086,"▁ગ્રહણ":5087,"▁ઠેકાણે":5088,"ડને":5089,"▁જશે.\n":5090,"▁સૈન્ય":5091,"▁ધારી":5092,"▁બાંધી":5093,"▁સિદ્ધિ":5094,"▁બોલા":5095,"▁ખોટી":5096,"ખાન":5097,"ટિવ":5098,"▁વિમાન":5099,"▁ગામની":5100,"▁પ્રતિક્રિયા":5101,"▁સવ":5102,"▁સગા":5103,"▁ખર્":5104,"ન્ટ્સ":5105,"સીબી":5106,"▁વધુમાં,":5107,"▁3.":5108,"▁સાચું":5109,"▁ભૂતકાળ":5110,"રોએ":5111,"▁એકજ":5112,"▁ચાલતી":5113,"▁નુકશાન":5114,"▁આલ્":5115,"▁શરીરના":5116,"▁મંદિરમાં":5117,"ટાં":5118,"▁સાઉ":5119,"▁થવાનું":5120,"▁નાટક":5121,"▁સુગ":5122,"▁સેક":5123,"ણુ,":5124,"્યું,":5125,"ડીઓ":5126,"▁ભારતી":5127,"▁હાલત":5128,"છો":5129,"▁આદર્શ":5130,"▁પ્રતા":5131,"▁પાડવા":5132,"▁વાઈ":5133,"▁મહત્વની":5134,"▁ભયંકર":5135,"▁વધારવા":5136,"▁ગણી":5137,"▁હાડ":5138,"▁બાકીના":5139,"કોમાં":5140,"▁70":5141,"▁નૃ":5142,"▁ભવિષ્યમાં":5143,"▁ઓક્ટોબર":5144,"▁ભૂખ":5145,"▁તત્વો":5146,"▁તેવો":5147,"▁2018":5148,"ફતે":5149,"િયાના":5150,"▁જાણતા":5151,"નોને":5152,"▁ઇંગ્":5153,"▁સેન્ટર":5154,"▁બનેલી":5155,"▁સજ્જ":5156,"▁જારી":5157,"▁બેસા":5158,"▁હાર્દિક":5159,"▁ક્રી":5160,"▁વિરાટ":5161,"▁જ્યોતિ":5162,"▁ઓટો":5163,"દ્યા":5164,"લેશ":5165,"▁નજીકના":5166,"▁પાર્ટીના":5167,"▁ઉદ્દેશ":5168,"▁ઓસ્ટ્રેલિયા":5169,"નનું":5170,"▁રથ":5171,"ડી.":5172,"▁કેળવણી":5173,"▁જમ્મુ":5174,"▁ચેપ":5175,"▁રાશિના":5176,"▁આશીર્વાદ":5177,"હારી":5178,"ન્ટે":5179,"▁29":5180,"▁સરહ":5181,"▁યથ":5182,"ઇઝ":5183,"▁સોલ":5184,"▁અનંત":5185,"▁લઘુ":5186,"▁માંસ":5187,"▁બનાવ્યા":5188,"ટ્ટા":5189,"▁આદર":5190,"ક્કા":5191,"▁ઉંચા":5192,"વેલી":5193,"▁ગુજરાતની":5194,"▁રાજ્યની":5195,"▁ડુંગ":5196,"ંગે":5197,"▁પહેલેથી":5198,"▁તેમનાં":5199,"▁ચેત":5200,"▁હિંસા":5201,"▁વિરોધી":5202,"▁રાજીના":5203,"▁ખાર":5204,"▁મુકી":5205,"સાગર":5206,"ખાં":5207,"્યાત્મ":5208,"▁કક્ષા":5209,"▁તફ":5210,"▁મફત":5211,"▁લંબા":5212,"▁ભક્ત":5213,"▁નાખે":5214,"ક્ષક":5215,"▁જાઓ":5216,"▁વેદ":5217,"▁બ્રાન્ડ":5218,"િશ":5219,"▁કય":5220,"▁આચ":5221,"▁એસો":5222,"ન્દી":5223,"▁વિચિત્ર":5224,"▁એવોર્ડ":5225,"▁શનિવારે":5226,"▁મુસ્લિમ":5227,"▁સંસ્કાર":5228,"▁પૂર્":5229,"▁તેટલી":5230,"▁ગૌરવ":5231,"▁ક્રાઇ":5232,"▁ઉછ":5233,"▁સંતોષ":5234,"▁રક્ષા":5235,"લીઓ":5236,"▁૨૩":5237,"▁ગેસ":5238,"▁દિલ્હીમાં":5239,"▁ઉતારી":5240,"▁લશ્કર":5241,"▁ઓક્સિ":5242,"▁ઉપયોગમાં":5243,"▁જેમાંથી":5244,"▁ત્રાસ":5245,"▁ર્":5246,"▁વિસ":5247,"▁સતા":5248,"▁ખેંચી":5249,"લભ":5250,"▁તેણી":5251,"▁સ્કી":5252,"▁આવતો":5253,"પ્રાય":5254,"▁198":5255,"▁છતા":5256,"▁બાય":5257,"▁કારકિ":5258,"▁તેમા":5259,"▁ખુલ્લા":5260,"▁ભરવા":5261,"સ્ટાગ્રામ":5262,"▁અન્ન":5263,"્યામ":5264,"સુધી":5265,"▁મારફતે":5266,"▁કળા":5267,"નીએ":5268,"ંગલ":5269,"▁સ્વાભાવિક":5270,"▁ઢી":5271,"▁જોડાયેલા":5272,"ાઇ":5273,"▁ૐ":5274,"▁અશ્":5275,"▁ચિક":5276,"▁મોં":5277,"મીના":5278,"▁રહેવાસી":5279,"મિંગ":5280,"▁બચ્ચ":5281,"નિયર":5282,"▁વાવા":5283,"▁બાપ":5284,"▁વહેલી":5285,"▁અત્રે":5286,"▁દેશોમાં":5287,"▁દિગ્":5288,"▁લક્ષ્ય":5289,"દૂ":5290,"ળને":5291,"▁ખોલ":5292,"▁સ્ક્રી":5293,"▁પર્યાવરણ":5294,"▁નગરપાલિ":5295,"..\n":5296,"▁ઉ.":5297,"▁સુનિ":5298,"ાંચ":5299,"્યુટી":5300,"ચ્ચાર":5301,"▁૨૨":5302,"▁બધાને":5303,"▁જીવનની":5304,"▁શહેરી":5305,"ર્જી":5306,"▁મોડી":5307,"▁સીધા":5308,"▁જતો":5309,"સ્પર":5310,"▁ભરૂ":5311,"▁દોર":5312,"▁રાજાએ":5313,"▁દ્વિ":5314,"ાર્ટમેન્ટ":5315,"બહે":5316,"▁હાથી":5317,"▁જુના":5318,"▁મનુષ":5319,"▁સલમાન":5320,"ર્જ":5321,"િયાં":5322,"▁તોડી":5323,"▁ઈચ્છ":5324,"▁ફોર":5325,"▁અંગેની":5326,"▁જલ્દી":5327,"▁પરમાર":5328,"▁વધતી":5329,"▁વીસ":5330,"▁જથ્થો":5331,"▁વૉ":5332,"▁માહોલ":5333,"▁વેળા":5334,"ગામ":5335,"ભારી":5336,"▁ભાન":5337,"▁કારણુ":5338,"▁પ્રત્યક્ષ":5339,"▁શખ્સો":5340,"ધર્મ":5341,"▁દશા":5342,"▁લૉ":5343,"▁ગણવામાં":5344,"▁એવામાં":5345,"▁ગેરકાય":5346,"▁ધારાસભ્યો":5347,"યાત્રા":5348,"તોને":5349,"બદ્ધ":5350,"▁ટીમો":5351,"▁રસ્તે":5352,"▁સંતુ":5353,"▁મેઘ":5354,"▁બિહાર":5355,"▁સત્તાવાર":5356,"▁એપ્રિ":5357,"િયો":5358,"યાના":5359,"▁ધ્વ":5360,"▁જાપાન":5361,"▁હાલના":5362,"▁મહો":5363,"▁જીવા":5364,"▁સ્નાન":5365,"▁સુનાવણી":5366,"▁સીમા":5367,"▁સ્મૃતિ":5368,"ાયી":5369,"▁મોક":5370,"▁પુણ્ય":5371,"મિતા":5372,"▁હનુમાન":5373,"▁પ્રયાસો":5374,"▁ઓનલાઈન":5375,"▁મશીન":5376,"▁આતંકવાદી":5377,"ગાં":5378,"▁હરા":5379,"▁ભક્તો":5380,"▁મહાદેવ":5381,"▁તસવીર":5382,"▁અક્ષર":5383,"▁મિશ્રણ":5384,"▁અર્જુન":5385,"▁જ.":5386,"▁બાંધકામ":5387,"▁સબંધ":5388,"▁હારી":5389,"▁રખ":5390,"ન્સે":5391,"રૂપી":5392,"▁અનુમાન":5393,"▁રાજધાની":5394,"▁ચૂક્યા":5395,"▁નિશ્ચય":5396,"▁શ્વે":5397,"▁નર્મદા":5398,"કર્":5399,"▁ચૂકી":5400,"▁પરિવારજનો":5401,"▁જૂનાગઢ":5402,"▁વિસ્":5403,"▁રોકડ":5404,"▁પ્રસ્તા":5405,"▁કાઉન્":5406,"▁બાત":5407,"▁લો.":5408,"સિસ":5409,"▁નોંધાયો":5410,"▁પગલું":5411,"▁એન્ટી":5412,"▁પ્રમો":5413,"▁પાર્ક":5414,"▁વિશ્વના":5415,"▁આસપાસના":5416,"▁બારી":5417,"▁પાતે":5418,"▁વાગે":5419,"▁સમૂહ":5420,"▁મનને":5421,"▁છુટ":5422,"▁મહાનગર":5423,"ગ્રે":5424,"▁તણાવ":5425,"▁ક્લા":5426,"▁થઇને":5427,"▁તૂટી":5428,"▁વાળી":5429,"▁થશે,":5430,"ગણ":5431,"વરી":5432,"▁ભારતે":5433,"▁આવે,":5434,"▁મૃતદેહ":5435,"▁રાતે":5436,"સીપી":5437,"સ્તાન":5438,"▁ખેડૂતોને":5439,"▁અસ્થ":5440,"▁દરો":5441,"▁દાં":5442,"▁દીવ":5443,"મ્બરે":5444,"▁ઉર્ફે":5445,"▁હક":5446,"▁મહત્વનું":5447,"▁ક્યાંક":5448,"▁સંશોધન":5449,"▁તુર્કી":5450,"▁જર્મ":5451,"યાગ":5452,"દેવી":5453,"▁મામલો":5454,"ઈન્ટ":5455,"▁ત્":5456,"▁આપો":5457,"▁ઊંડા":5458,"▁માંગણી":5459,"▁પંડિત":5460,"▁નક":5461,"▁જોડી":5462,"▁ડિજ":5463,"▁કહીએ":5464,"લીપ":5465,"▁રહસ્ય":5466,"▁જૂન":5467,"▁પુરુષો":5468,"▁નબળા":5469,"▁કારકિર્દી":5470,"તલ":5471,"ર્સને":5472,"▁ગયું.":5473,"▁બ્લેક":5474,"▁જાય,":5475,"▁લાકડા":5476,"▁પ્રકારનું":5477,"▁અંદાજ":5478,"▁પ્રચ":5479,"ંદે":5480,"▁શકશે.":5481,"▁જવાના":5482,"▁હિમા":5483,"▁કરોડની":5484,"▁વાવાઝો":5485,"ર્ત":5486,"▁શિકાર":5487,"▁ઝઘ":5488,"ઝુ":5489,"ારામ":5490,"▁માણસા":5491,"▁પ્રિયંકા":5492,"▁કરાયો":5493,"દીને":5494,"▁ટેલિ":5495,"▁કવિતા":5496,"નાને":5497,"ર્ટે":5498,"▁ઉઠી":5499,"▁દીન":5500,"▁૨.":5501,"▁વરસા":5502,"▁જેવાં":5503,"▁નિત્ય":5504,"▁આપવી":5505,"લેખ":5506,"િયાત":5507,"▁જેલ":5508,"ાવિ":5509,"ટીસ":5510,"▁32":5511,"▁પાછો":5512,"▁સાસુ":5513,"▁ચહે":5514,"▁ડ્રો":5515,"▁માણસને":5516,"▁ડોઝ":5517,"▁રમતો":5518,"▁તેજસ્વી":5519,"▁સિદ્ધાંત":5520,"ત્તી":5521,"ડીંગ":5522,"▁અરજ":5523,"▁કોલેજ":5524,"▁ઇસ":5525,"▁સર્જા":5526,"▁શહેરની":5527,"ધીન":5528,"▁ઉત્તે":5529,"▁જીવનસાથી":5530,"▁આમંત્ર":5531,"▁જરૂરિયાત":5532,"▁સેવાઓ":5533,"▁કિસ્સામાં":5534,"▁પટ":5535,"ટેક":5536,"ટીએ":5537,"▁રહી.":5538,"▁દિલ્હીઃ":5539,"▁કર્ણા":5540,"▁છૂટા":5541,"▁નિયંત્રણ":5542,"પટ":5543,"▁પહા":5544,"સીના":5545,"▁શોધવા":5546,"ટિલ":5547,"▁નિશાન":5548,"▁ચર્ચામાં":5549,"ગીર":5550,"▁પડકાર":5551,"▁ઊંચી":5552,"▁આવ્યો.":5553,"▁ઑફ":5554,"▁સૃષ્ટિ":5555,"▁પોતાનાં":5556,"▁બનેલા":5557,"▁મનોર":5558,"▁ક્રોધ":5559,"▁સ્વપ્ન":5560,"!!":5561,"▁તત્વ":5562,"▁પ્રણા":5563,"ફુ":5564,"▁અવાર":5565,"▁દિક":5566,"▁ઘુ":5567,"▁નેતૃત્વ":5568,"▁રાખ્યા":5569,"▁સમાધાન":5570,"▁નાંખી":5571,"▁ખાંડ":5572,"▁સંજોગો":5573,"▁ચક":5574,"▁ધન્ય":5575,"▁૪૦":5576,"નગરમાં":5577,"▁સાંક":5578,"▁ઈંગ્":5579,"▁બનવા":5580,"▁અભિનેતા":5581,"▁પરંપરાગત":5582,"ધારા":5583,"▁એશિયા":5584,"▁ફિટ":5585,"▁પૂરો":5586,"▁દિવસના":5587,"▁ગણેશ":5588,"▁પપ્પા":5589,"▁વરિ":5590,"િયા,":5591,"▁શક્યા":5592,"ક્રમે":5593,"▁પરિચય":5594,"▁મરા":5595,"▁એસિ":5596,"▁યજ":5597,"▁બાબા":5598,"▁લાગતું":5599,"▁દુઃખી":5600,"▁બચાવવા":5601,"▁જ્ઞાતિ":5602,"▁સમયગાળા":5603,"શન્સ":5604,"▁આપની":5605,"▁બેન":5606,"સીની":5607,"▁અંગત":5608,"▁આજથી":5609,"▁છેક":5610,"સ્લા":5611,"▁શિષ્ય":5612,"▁લોકડાઉન":5613,"▁મેહ":5614,"▁મોટે":5615,"▁પડેલા":5616,"▁વરસાદની":5617,"સરા":5618,"▁ખિ":5619,"▁રિઝ":5620,"▁હૃદયમાં":5621,"▁ગુરુવારે":5622,"▁ધૂ":5623,"▁ઇન્દ્ર":5624,"▁પીડ":5625,"▁નિઃ":5626,"▁ઝડપ":5627,"▁આપણું":5628,"▁વર્તન":5629,"▁મંજ":5630,"▁વશ":5631,"મ્પ્યુટર":5632,"▁ખુરશી":5633,"વાળું":5634,"▁ફાર્":5635,"▁નારાય":5636,"▁સુરેન્દ્ર":5637,"▁ભરપૂર":5638,"▁મોટર":5639,"ા,":5640,"કો,":5641,"▁બાબતમાં":5642,"▁વલણ":5643,"ચાર્":5644,"▁બંગ":5645,"▁સ્પર્શ":5646,"▁સરખામણી":5647,"▁આણ":5648,"▁કરાવવા":5649,"▁ટુકડા":5650,"▁વ.":5651,"▁ચરણ":5652,"ાવું":5653,"▁ભાગ્યે":5654,"▁સ્વયં":5655,"વવાની":5656,"▁રત્ન":5657,"▁લગતી":5658,"▁ભીમ":5659,"▁ડ્રાઈ":5660,"ફ્રે":5661,"▁તેણીએ":5662,"▁પર,":5663,"▁પાણીના":5664,"▁સ્ટેશનમાં":5665,"▁કચેરી":5666,"▁છાં":5667,"ર્ગે":5668,"▁પણ,":5669,"▁આળ":5670,"▁શ્રુ":5671,"દીએ":5672,"▁ગોલ્ડ":5673,"▁ચીજ":5674,"ચલ":5675,"ડવાની":5676,"મનો":5677,"▁વહુ":5678,"▁સહકાર":5679,"▁સૂક્ષ્મ":5680,"▁ચમચી":5681,"▁બગી":5682,"▁આવૃત્તિ":5683,"▁અજાણ્યા":5684,"▁પથ્થર":5685,"▁વરિષ્ઠ":5686,"▁છેતર":5687,"▁સંદેશ":5688,"▁બોલાવ":5689,"વરમાં":5690,"▁કલેક":5691,"▁ચલ":5692,"હેરમાં":5693,"▁ટેબલ":5694,"સ્કૃતિ":5695,"▁હાલતમાં":5696,"▁ફૂલો":5697,"▁સાવચે":5698,"▁જેમને":5699,"ભાવે":5700,"પાઈ":5701,"િયલ":5702,"▁જીવનના":5703,"વ્યું":5704,"▁પડ્યું":5705,"▁કરી.\n":5706,"▁દિવાળી":5707,"ત.":5708,"▁પ્રવાહી":5709,"▁બાહ્ય":5710,"▁આગ્રહ":5711,"▁થયો.":5712,"▁માંગતા":5713,"▁આંદોલન":5714,"જું":5715,"પન":5716,"▁રાત્રી":5717,"▁સમર્":5718,"ડિઓ":5719,"▁પ્લાન":5720,"▁ડૉક્ટર":5721,"▁બ્લડ":5722,"લોટ":5723,"▁500":5724,"▁ડાયા":5725,"▁માથું":5726,"પિંગ":5727,"▁કસર":5728,"▁વપરાશક":5729,"▁વિભાગે":5730,"▁તકે":5731,"▁અજ્ઞાન":5732,"તાનો":5733,"▁છે.આ":5734,"યાની":5735,"▁જણાવવામાં":5736,"▁કલાકે":5737,"▁વળતર":5738,"▁સંઘર્ષ":5739,"નોમાં":5740,"▁વાચ":5741,"▁મેયર":5742,"▁કહ્યું.":5743,"▁વિધાનસભાની":5744,"▁કડ":5745,"▁ચાવ":5746,"▁શરીરની":5747,"▁પૂરતી":5748,"▁તન":5749,"▁આપશે.":5750,"▁હોઇ":5751,"▁મહત્તમ":5752,"▁શકતી":5753,"▁90":5754,"▁પ્લાસ્ટિક":5755,"▁સમુદાય":5756,"નાએ":5757,"નો,":5758,"▁ઇંચ":5759,"શ્ચિત":5760,"▁સંસદ":5761,"▁મેલ":5762,"▁ખળ":5763,"કાઈ":5764,"▁સહિતની":5765,"ંટી":5766,"હૂ":5767,"▁દોરી":5768,"▁સર્વિસ":5769,"હું":5770,"▁ઘી":5771,"ળી,":5772,"▁કહ્યુંઃ":5773,"▁એપ્લિકેશન":5774,"▁રહ્યો.":5775,"▁મૂળભૂત":5776,"ટીવ":5777,"▁ઝાં":5778,"▁બનાવીને":5779,"▁પ્રભાવિત":5780,"10":5781,"▁આવરી":5782,"દ્દી":5783,"▁દ્રવ્ય":5784,"▁નિવેદ":5785,"▁ટેકનોલોજી":5786,"▁ઇ.":5787,"▁કામના":5788,"▁સીટ":5789,"▁આશ્રય":5790,"પિયા":5791,"બ્યુ":5792,"▁મસ્ત":5793,"ન્ટા":5794,"▁સોં":5795,"▁સોના":5796,"▁વી.":5797,"▁વ્યાવ":5798,"▁ઓનલાઇન":5799,"▁આપતાં":5800,"▁માર્કે":5801,"▁પ્રોડક્ટ":5802,"જાવ":5803,"સ.":5804,"તાનાં":5805,"▁પાંડ":5806,"▁જણાવ્યુ":5807,"▁મનની":5808,"▁અભિપ્રાય":5809,"▁નિમણ":5810,"▁અમરેલી":5811,"▁હમ":5812,"▁ખં":5813,"▁આંગળી":5814,"▁શાનદાર":5815,"લાઇટ":5816,"▁હેમ":5817,"▁પટેલ,":5818,"▁ગ્રામ્ય":5819,"▁પાળ":5820,"▁સંવાદ":5821,"▁પોલીસની":5822,"▁જગતમાં":5823,"▁આજુ":5824,"▁ગીર":5825,"ાયુ":5826,"▁અંતઃ":5827,"ક્યુ":5828,"▁તે!":5829,"▁માત":5830,"▁ઉતાવ":5831,"▁જેલમાં":5832,"▁ડ્રે":5833,"ખાના":5834,"▁બતાવે":5835,"ઘટના":5836,"▁દરમિયાન,":5837,"▁જે.":5838,"▁આવનાર":5839,"▁કામો":5840,"▁નામથી":5841,"▁અધિ":5842,"▁વર્ષોથી":5843,"▁જસ્ટ":5844,"▁નાથ":5845,"▁જાગૃત":5846,"▁પ્રોત્સાહન":5847,"▁અલબત્ત,":5848,"▁અક્ષય":5849,"▁માફક":5850,"▁ઓક્સિજન":5851,"હત્યા":5852,"▁આપવાનો":5853,"▁કોન્ટ":5854,"▁નહિ.\n":5855,"▁હિન્દી":5856,"▁નવરા":5857,"▁સત્":5858,"ંગો":5859,"▁પુલ":5860,"વડી":5861,"▁ઘટી":5862,"▁ઘાયલ":5863,"▁ટાં":5864,"▁જીવે":5865,"શાહી":5866,"▁ઈ.":5867,"▁સંકેત":5868,"તુર":5869,"▁જાતના":5870,"▁જેટલો":5871,"▁અરવિંદ":5872,"▁ઉમેરો":5873,"▁સાર્":5874,"▁આવશે,":5875,"▁ખામી":5876,"▁ગયા.\n":5877,"▁૨૬":5878,"▁શ્રીલ":5879,"▁પુરવ":5880,"▁તહેવાર":5881,"▁નિયા":5882,"▁ખ્રિ":5883,"ક્ષુ":5884,"▁મુજ":5885,"ળા,":5886,"પરિ":5887,"▁પ્રોફે":5888,"▁ધરતી":5889,"ગની":5890,"ાને":5891,"▁બનીને":5892,"▁આંસુ":5893,"▁ટ્રસ્ટ":5894,"લસ":5895,"▁કમી":5896,"▁કિમી":5897,"▁આમ,":5898,"▁બેસીને":5899,"યત":5900,"▁છેલ્લે":5901,"▁કરશે,":5902,"ણાને":5903,"▁ઈન્ટરને":5904,"▁પડે.":5905,"▁ગઈકાલે":5906,"▁ઊર્જા":5907,"▁ચતુ":5908,"▁પર્ય":5909,"પાની":5910,"▁ઇન્ટર":5911,"▁પેપર":5912,"▁ચીફ":5913,"ચુ":5914,"▁ઝેર":5915,"▁ખુદ":5916,"▁ડોક્ટ":5917,"▁વ્હી":5918,"પથ":5919,"▁પરસ્પર":5920,"▁લાક":5921,"વિન":5922,"▁ખાતા":5923,"રિટી":5924,"▁અપમાન":5925,"▁ગામો":5926,"▁36":5927,"▁મધુ":5928,"▁શાકભાજી":5929,"▁ડિજિટલ":5930,"▁૨૮":5931,"▁સફર":5932,"ઝનમાં":5933,"▁બન્યો":5934,"▁હકીકતમાં":5935,"બ્રે":5936,"▁કેન્સર":5937,"લ્પો":5938,"▁ગુમાવી":5939,"ધક":5940,"ધરી":5941,"▁કરતું":5942,"▁કરવુ":5943,"▁યુએસ":5944,"▁વચ્ચેના":5945,"▁નવલક":5946,"▁શૈક્ષણિક":5947,"▁બચી":5948,"▁દવાઓ":5949,"ળીયા":5950,"▁કરોડો":5951,"જો.":5952,"રેલા":5953,"▁ફાયદાકારક":5954,"ન્ડે":5955,"▁આપનાર":5956,"▁સિટી":5957,"▁પાછું":5958,"▁માગણી":5959,"▁અવતાર":5960,"▁બાજુએ":5961,"▁મોકલવામાં":5962,"▁વહીવટી":5963,"▁પોઈન્ટ":5964,"▁ક્રાઈ":5965,"▁આકર્ષક":5966,"સ્વામી":5967,"વર્ડ":5968,"▁આંધ":5969,"વીસ":5970,"▁સંપર્":5971,"અલગ":5972,"▁પશ્ચિ":5973,"વારા":5974,"▁કેજરી":5975,"▁ગીતા":5976,"▁ફૂડ":5977,"▁યાદીમાં":5978,"▁કલેકટર":5979,"▁ખાખ":5980,"▁ક્ષેત્રે":5981,"▁તાં":5982,"▁સ્મરણ":5983,"▁બેન્ક":5984,"▁બ્રાહ્મણ":5985,"▁સંરક્ષણ":5986,"▁કરાયું":5987,"બાની":5988,"▁અમેરિકાના":5989,"ભ્ર":5990,"૧૯":5991,"▁પગલા":5992,"▁ધર્મના":5993,"▁પંથ":5994,"▁સહેજ":5995,"▁ગ્રુપ":5996,"વિક":5997,"▁રેસ્ટો":5998,"સણ":5999,"▁નારાજ":6000,"માન્ય":6001,"▁મુખ્યત્વે":6002,"▁ખોટું":6003,"▁અમેરિકામાં":6004,"▁નવલકથા":6005,"દુર":6006,"▁મૅ":6007,"▁કેબિ":6008,"▁રોહિત":6009,"▁કહા":6010,"ન્ક":6011,"▁ચળ":6012,"▁સ્કે":6013,"સીટી":6014,"▁દિવ્ય":6015,"પુરુ":6016,"▁વપરાશકર્તા":6017,"દ્દા":6018,"▁લીંબુ":6019,"▁રૂપમાં":6020,"▁નહોતી":6021,"એટ":6022,"▁બગા":6023,"પેન્દ્ર":6024,"▁અટક":6025,"સું":6026,"▁કસ્ટ":6027,"▁રહો":6028,"▁થયા,":6029,"▁મહારાજા":6030,"▁ધાતુ":6031,"▁પૃષ્ઠ":6032,"ઝની":6033,"જીભાઈ":6034,"▁બિંદુ":6035,"▁અલગઅલગ":6036,"▁પરિવારમાં":6037,"િત્ર":6038,"ાયર":6039,"▁સમજવા":6040,"▁આખું":6041,"▁પુરાવા":6042,"▁બ્રો":6043,"▁ઉંચ":6044,"▁સ્વિ":6045,"▁લાવે":6046,"▁હરિયા":6047,"▁કંટા":6048,"▁વસંત":6049,"▁કૌશ":6050,"તીના":6051,"▁ફરવા":6052,"▁નિષ્ણાતો":6053,"▁વણ":6054,"▁એવ":6055,"લ્લો":6056,"ંદુર":6057,"▁સમાર":6058,"▁4.":6059,"▁ઘટનાઓ":6060,"▁ગ્રાહકો":6061,"ન્તુ":6062,"▁કરીને,":6063,"▁ગુલાબ":6064,"▁વિવેક":6065,"▁તિર":6066,"▁રાજુ":6067,"ક્ષેત્ર":6068,"▁સંસ્કૃત":6069,"▁આની":6070,"▁બનાવો":6071,"▁ભીડ":6072,"▁રાજ્યોમાં":6073,"▁સપના":6074,"▁ફાં":6075,"▁આપવું":6076,"▁કંટ":6077,"રિત્ર":6078,"▁વિચારે":6079,"▁ગુન્":6080,"લોમાં":6081,"▁પેલી":6082,"▁વ્યસ્ત":6083,"▁શિક્ષા":6084,"▁મ્યુઝ":6085,"કં":6086,"▁વિડિઓ":6087,"▁હેન્ડ":6088,"▁ક્ષણ":6089,"▁મુદ્દો":6090,"વની":6091,"▁ક્વા":6092,"▁જટિલ":6093,"ર્ના":6094,"▁પેજ":6095,"▁કાર્યકરો":6096,"પુરના":6097,"▁દાખલા":6098,"▁દેખાઈ":6099,"▁અડધા":6100,"▁સંભવિત":6101,"▁માનતા":6102,"▁સર્વો":6103,"▁કેન્દ્રિત":6104,"▁લૂંટ":6105,"સુર":6106,"▁મલ":6107,"▁વિજે":6108,"▁પેટા":6109,"▁ક્લિ":6110,"▁અમારે":6111,"▁દોઢ":6112,"પછી":6113,"▁ટી.":6114,"▁મળેલી":6115,"▁મધુર":6116,"▁મતલબ":6117,"▁મેનેજર":6118,"▁કરુ":6119,"▁કિંગ":6120,"▁૨૦૦":6121,"▁સુવિધાઓ":6122,"▁ચેતવણી":6123,"▁સને":6124,"▁વંશ":6125,"સ્કો":6126,"▁સંક્રમ":6127,"▁કરવા,":6128,"▁કિરણ":6129,"▁કાર્યરત":6130,"▁સમાજમાં":6131,"હાન":6132,"▁કેને":6133,"▁ગ્રાહક":6134,"▁સમજે":6135,"▁ઈતિહા":6136,"▁શાસન":6137,"▁શ્રીમ":6138,"▁થાડા":6139,"▁હીરા":6140,"ઈ,":6141,"▁પુષ્ટિ":6142,"લથી":6143,"▁નકારાત્મક":6144,"▁કરીશું":6145,"▁કાળી":6146,"▁આંખે":6147,"▁શાળામાં":6148,"▁ફિલ્મોમાં":6149,"ઈની":6150,"બારી":6151,"▁બૅ":6152,"રાત":6153,"▁ટ્યુ":6154,"▁શામેલ":6155,"ન્સમાં":6156,"▁પ્રતિષ્ઠા":6157,"▁75":6158,"▁બાજુમાં":6159,"▁પદાર્થો":6160,"▁પ્રારંભિક":6161,"▁બરફ":6162,"▁પંચાયત":6163,"નમ":6164,"ષિત":6165,"▁દાંત":6166,"▁કારી":6167,"▁લેવાનું":6168,"▁કાયમ":6169,"સાં":6170,"▁કઠ":6171,"▁સપોર્ટ":6172,"▁શકે.\n":6173,"▁34":6174,"▁આપેલા":6175,"માટે":6176,"▁હ્ર":6177,"▁લંડ":6178,"▁ઉડ":6179,"▁સંત":6180,"▁ઠંડ":6181,"▁બ્રિટિશ":6182,"્યાત્મિક":6183,"ટણી":6184,"▁સ્વીકારી":6185,"▁શૂટિંગ":6186,"▁ભરૂચ":6187,"▁શ્રીલંકા":6188,"વાડ":6189,"▁ચકાસ":6190,"▁જાણીને":6191,"▁ટ્રક":6192,"▁શૈલી":6193,"▁વૈજ્ઞાનિક":6194,"▁રાંધ":6195,"▁વાવે":6196,"▁ધ્યે":6197,"▁નિરી":6198,"▁ટ્વિટર":6199,"ોએ":6200,"▁હૉ":6201,"▁વડી":6202,"▁ચું":6203,"▁ઇશ્વર":6204,"▁રહ્યા.":6205,"ડ્સ":6206,"▁પર્":6207,"વાયું":6208,"▁રાખતા":6209,"▁ઠરાવ":6210,"▁ટાળ":6211,"▁રાજકોટમાં":6212,"▁શ્રા":6213,"વેટ":6214,"▁કાયદેસર":6215,"▁ટોપ":6216,"▁દબ":6217,"▁દેવું":6218,"▁નીર":6219,"▁197":6220,"▁ન્હા":6221,"ઝ,":6222,"▁અજય":6223,"▁આક્ષેપ":6224,"▁પ્રસ્તુ":6225,"ડીની":6226,"▁રિસ":6227,"▁પત્રકાર":6228,"▁ઔર":6229,"▁પરેશાન":6230,"માએ":6231,"્રલ":6232,"લિકો":6233,"▁લાઇટ":6234,"ાર્ક":6235,"▁પડતાં":6236,"▁આપી.":6237,"▁સંસ્થાઓ":6238,"▁સ્નાયુ":6239,"ટાવી":6240,"▁તફાવત":6241,"▁એનાં":6242,"લેસ":6243,"▁ઇઝ":6244,"▁મધ્યપ્રદેશ":6245,"▁કમિશનર":6246,"▁તપા":6247,"રાગ":6248,"▁પડી.":6249,"▁તપાસમાં":6250,"▁કપડા":6251,"વૃત્ત":6252,"▁મ્હારા":6253,"▁નેટવર્ક":6254,"૨૨":6255,"સાહે":6256,"▁ચુકા":6257,"▁થએ":6258,"▁નીચા":6259,"▁પ્રતિભા":6260,"▁લાખની":6261,"▁અમદાવાદના":6262,"▁જલદી":6263,"▁જાે":6264,"▁ટન":6265,"▁મહુ":6266,"▁સેા":6267,"▁ક્વો":6268,"▁ઠંડા":6269,"બન":6270,"▁ગયુ":6271,"સ્મ":6272,"કોનો":6273,"▁રહેતો":6274,"▁આવ્યું.":6275,"▁સફાઈ":6276,"નારાય":6277,"▁ગ્રીન":6278,"▁સાક્ષી":6279,"સેન":6280,"▁છોડીને":6281,"▁વ્યક્તિએ":6282,"▁ઓફિસર":6283,"▁૧૦૦":6284,"▁૨૭":6285,"ટલી":6286,"▁મણિ":6287,"▁બેં":6288,"▁હાસ્ય":6289,"▁વર્ષનો":6290,"▁ભાગીદારી":6291,"▁આગેવાનો":6292,"▁ડ્રગ્સ":6293,"▁માસિક":6294,"▁તુલના":6295,"▁સંબંધમાં":6296,"▁વીડિયોમાં":6297,"▁કૌભાં":6298,"મક":6299,"▁કામે":6300,"▁જોઇએ.\n":6301,"ચાર્જ":6302,"ંકાર":6303,"▁વાતને":6304,"▁સમયની":6305,"▁દેખી":6306,"ળીના":6307,"▁ખસેડવામાં":6308,"▁કાટ":6309,"▁નિશા":6310,"ાયેલું":6311,"▁સર્જન":6312,"▁તબક્કામાં":6313,"▁નિશ્ચિત":6314,"▁અદ્ભુત":6315,"▁સંક્રમિત":6316,"મારા":6317,"વાળ":6318,"▁હળવા":6319,"▁કરીશ":6320,"રોહ":6321,"▁હિંદ":6322,"▁યોગદાન":6323,"▁વહેંચ":6324,"▁વિપરી":6325,"▁અખા":6326,"▁જાણુ":6327,"લિશ":6328,"▁અમારું":6329,"▁ખીલ":6330,"▁મહત્વના":6331,"▁દુર્ઘટના":6332,"િષ્ટ":6333,"ચાલ":6334,"લિટી":6335,"▁સીએમ":6336,"▁દેશને":6337,"▁હિસા":6338,"▁નસીબ":6339,"▁માઈ":6340,"▁કેદ":6341,"સ્પી":6342,"▁ખારા":6343,"▁જાતની":6344,"▁નિવાસ":6345,"પાત":6346,"▁સિંધ":6347,"બુલ":6348,"વાનુ":6349,"▁ઉદાર":6350,"▁દેતા":6351,"▁આત્માને":6352,"▁કેમેરા":6353,"▁ગાર્ડ":6354,"▁પ્રવા":6355,"▁વિસ્તારના":6356,"▁બ્લો":6357,"▁આજુબાજુ":6358,"▁સતી":6359,"▁જામીન":6360,"ન્ટિ":6361,"▁કોઇપણ":6362,"▁2016":6363,"વો.":6364,"▁દો.":6365,"▁સહજ":6366,"▁મારાં":6367,"▁વિદાય":6368,"▁મહેસા":6369,"▁જન્મે":6370,"કે,":6371,"ખાને":6372,"▁37":6373,"▁અપરા":6374,"▁આરંભ":6375,"▁સૂચવે":6376,"▁ચહેરો":6377,"રણે":6378,"▁સાડા":6379,"▁આવ્યે":6380,"▁વાતની":6381,"▁પ્રીતિ":6382,"▁સચિવ":6383,"▁નાયબ":6384,"સ્સે":6385,"▁સામેની":6386,"▁મુંબઈમાં":6387,"▁મેનેજમેન્ટ":6388,"▁મતે":6389,"▁લાવવામાં":6390,"દાની":6391,"▁જીંદગી":6392,"▁પેન":6393,"▁પેકે":6394,"▁2014":6395,"▁ધારણા":6396,"▁હતાં,":6397,"▁અશક":6398,"▁ગૃ":6399,"▁એકમાત્ર":6400,"▁સોમનાથ":6401,"બીર":6402,"▁નિર્દોષ":6403,"▁વિકલ્પો":6404,"▁વિરૂદ્ધ":6405,"▁અનો":6406,"▁નહા":6407,"નોની":6408,"▁પાયા":6409,"▁સુરતમાં":6410,"▁માર્યા":6411,"▁વાતાવરણમાં":6412,"▁જોરદાર":6413,"▁સખી":6414,"▁કાને":6415,"▁નિહા":6416,"▁કરાવે":6417,"▁અનાજ":6418,"૧૦":6419,"રાઇ":6420,"▁જુગાર":6421,"▁આધ્યાત્મિક":6422,"▁ચૂકવણી":6423,"▁મિથ્યા":6424,"▁કયારે":6425,"લિવ":6426,"▁રાજી":6427,"લોની":6428,"▁નીપજ":6429,"▁આગળની":6430,"લનો":6431,"▁પ્રાં":6432,"વેષ":6433,"▁ઉત્તરા":6434,"વવાનો":6435,"▁અવરોધ":6436,"▁આજની":6437,"▁નિકાસ":6438,"▁માંગી":6439,"▁હિસ્સો":6440,"▁મહેન્દ્ર":6441,"▁મીડિયામાં":6442,"▁આત્મહત્યા":6443,"▁પહોંચાડ":6444,"દક":6445,"▁દરે":6446,"ક્ષર":6447,"▁રોકી":6448,"ન્સની":6449,"▁મહેતા":6450,"▁ખર્ચે":6451,"▁અશો":6452,"લીક":6453,"▁શ્રીકૃષ્ણ":6454,"▁વ્રત":6455,"▁જહા":6456,"▁રાખ્યું":6457,"▁દેવતા":6458,"ગને":6459,"તરો":6460,"▁બંદ":6461,"▁કેપ":6462,"▁પ્રકા":6463,"▁નારી":6464,"▁કારમાં":6465,"▁મૂર્":6466,"▁કર્યા.":6467,"ઈના":6468,"દ્યોગ":6469,"▁તજ":6470,"▁અા":6471,"▁બપો":6472,"▁કેવું":6473,"▁સાધારણ":6474,"▁વેર":6475,"પ્રદાય":6476,"▁ટીમને":6477,"▁કરાયા":6478,"▁ઘાટ":6479,"▁કાશી":6480,"▁ઉપચાર":6481,"ઠ્ઠા":6482,"▁શણ":6483,"સાના":6484,"▁ક્ષેત્રો":6485,"▁સસ્પે":6486,"▁જંતુ":6487,"▁લાક્ષણિક":6488,"▁કિનારે":6489,"▁ચિહ":6490,"▁ભારતને":6491,"▁સાંજ":6492,"▁અતિશય":6493,"▁ગુણુ":6494,"▁આર્ય":6495,"પારી":6496,"ૂની":6497,"▁જ,":6498,"▁માગી":6499,"શેષ":6500,"▁તાકાત":6501,"▁વેદના":6502,"▁સોલંકી":6503,"▁ઉગ્ર":6504,"રમાંથી":6505,"▁ખોટા":6506,"લક્ષી":6507,"નેશ":6508,"▁ઉભો":6509,"▁જોશી":6510,"▁33":6511,"▁પતિને":6512,"▁કારણોસર":6513,"▁ઉન્ન":6514,"▁બોલાવી":6515,"▁ભૂતપૂર્વ":6516,"▁ઝેરી":6517,"▁પિત":6518,"▁ધે":6519,"▁કોચ":6520,"▁બેટિંગ":6521,"▁દુષ્ટ":6522,"દનશીલ":6523,"▁નક્ષ":6524,"▁અમલમાં":6525,"▁ખુલ્લી":6526,"▁ગીતો":6527,"▁જોડાયા":6528,"▁જઇને":6529,"બરે":6530,"▁અબ્":6531,"ટીન":6532,"ળાને":6533,"યેલ":6534,"▁મારવા":6535,"થુ":6536,"▁કૃત":6537,"▁વરા":6538,"▁કરાય":6539,"રેખ":6540,"▁પ્રતિમા":6541,"▁ચેાગ્ય":6542,"▁ભૌતિક":6543,"ડિય":6544,"▁તોડ":6545,"તાં,":6546,"વવાના":6547,"▁સારૂં":6548,"▁અવશ્ય":6549,"યાર":6550,"▁આખો":6551,"▁મારૂ":6552,"તેમ":6553,"▁કર્યું,":6554,"ડાએ":6555,"▁ભાષ":6556,"▁ઇમાર":6557,"▁શકે,":6558,"▁કામકા":6559,"▁ચારિત્ર":6560,"બજાર":6561,"▁જીએસ":6562,"▁શ્રમ":6563,"▁મગજ":6564,"ષભ":6565,"ુત":6566,"▁તળ":6567,"▁તંદુર":6568,"▁બળા":6569,"▁છે...":6570,"કેલા":6571,"▁હેરાન":6572,"▁જીવંત":6573,"▁પર્વત":6574,"મહ":6575,"▁દઈ":6576,"▁દલ":6577,"▁વાજ":6578,"▁કાવ":6579,"પોલિ":6580,"▁2015":6581,"કથા":6582,"▁પર્સ":6583,"વાયા":6584,"માંના":6585,"▁સ્કો":6586,"ટાઈ":6587,"મ્મદ":6588,"▁રાજાને":6589,"▁ધરાવતી":6590,"▁રોકાણકારો":6591,"▁સસાર":6592,"▁માફી":6593,"▁ભાજપે":6594,"▁ગ્લો":6595,"▁માંડી":6596,"▁શુભે":6597,"▁હાઉસ":6598,"▁વ્યાવસાય":6599,"એચ":6600,"▁આંચ":6601,"▁પ્રસાદ":6602,"▁સાઇ":6603,"દ્દ":6604,"વિઝન":6605,"દાને":6606,"▁મેદાનમાં":6607,"▁જવામાં":6608,"▁મમતા":6609,"લાત":6610,"▁કરોડના":6611,"▁કાઉન્સિ":6612,"એને":6613,"▁પેટ્રો":6614,"▁સ્વાદિષ્ટ":6615,"▁કન":6616,"▁કિલ્લા":6617,"ટેસ્ટ":6618,"ર્સની":6619,"▁ઘટનામાં":6620,"▁વિપક્ષ":6621,"▁સ્તુ":6622,"▁ડબલ":6623,"વિજય":6624,"▁બાળકી":6625,"પુત્ર":6626,"▁૩૧":6627,"▁પુષ્કળ":6628,"ગુરુ":6629,"▁હદ":6630,"▁વસુ":6631,"▁એવે":6632,"▁ઓર્ડર":6633,"▁ગોંડ":6634,"▁મર્યાદિત":6635,"▁વિક્રમ":6636,"▁કાકા":6637,"સી,":6638,"▁એટલો":6639,"▁5.":6640,"▁શહેરોમાં":6641,"▁ક્યાંય":6642,"ડલ":6643,"▁દીપ":6644,"▁દેશભરમાં":6645,"▁વિનય":6646,"▁ટેક્નોલોજી":6647,"▁ટ્વીટ":6648,"▁બૂ":6649,"▁બાયો":6650,"કાઉન્ટ":6651,"▁ભાષણ":6652,"નારને":6653,"▁જ્ઞાની":6654,"▁ઉર્જા":6655,"▁ખેલાડીઓ":6656,"▁છેા":6657,"▁નાસી":6658,"▁હોવાને":6659,"▁શાસ":6660,"એના":6661,"સરે":6662,"▁પ્રસાર":6663,"▁સંપા":6664,"▁તાલુકામાં":6665,"▁દૃઢ":6666,"▁સિને":6667,"▁બોલે":6668,"▁આતંકી":6669,"ર્જન":6670,"▁રહ્યુ":6671,"▁૩૫":6672,"▁ચોક્કસપણે":6673,"▁આંકડો":6674,"▁માટે.":6675,"▁બેક":6676,"▁પડતું":6677,"▁વોટર":6678,"▁રંગો":6679,"▁કિસ્સામાં,":6680,"ષ્ટાચાર":6681,"ટથી":6682,"▁અશુ":6683,"તિના":6684,"▁વાતા":6685,"▁આવનારા":6686,"▁તાજ":6687,"▁ચેમ્પ":6688,"જ્ઞાની":6689,"▁સ્વરૂપમાં":6690,"નવાર":6691,"▁સાઈ":6692,"▁પોરબ":6693,"ન્સ,":6694,"▁ટીમના":6695,"▁ઘટનાની":6696,"દર્શક":6697,"▁કંઇક":6698,"▁પ્રયત્નો":6699,"ગ,":6700,"ફિકે":6701,"ાવવાની":6702,"કૃષ્ટ":6703,"▁ખુલાસો":6704,"▁આપતી":6705,"▁દીઠ":6706,"▁પહેલાથી":6707,"▁6.":6708,"▁રસીકરણ":6709,"કૂ":6710,"▁કવ":6711,"▁ઘન":6712,"▁નિપજ":6713,"▁ઉપરની":6714,"▁કળ":6715,"્યા.\n":6716,"▁ઝું":6717,"▁યશ":6718,"▁ઓળખા":6719,"▁દૃષ્ટિએ":6720,"એશન":6721,"▁ઉલ્લ":6722,"ભાગે":6723,"પાઇ":6724,"▁બોક્સ":6725,"▁નોંધનીય":6726,"▁અવકાશ":6727,"▁પાર્ટન":6728,"દત":6729,"શ્યો":6730,"▁બચાવી":6731,"▁લહેર":6732,"▁લડાઇ":6733,"▁વિજ":6734,"▁ઉદ્ધ":6735,"▁ધિ":6736,"▁માનવું":6737,"લ્લાહ":6738,"▁મૂકીને":6739,"▁કોન્ફર":6740,"▁તબીબી":6741,"ટનો":6742,"▁રવાના":6743,"▁ઉચ્ચાર":6744,"▁ભાવિ":6745,"▁પ્રમાણે,":6746,"▁માણસે":6747,"ગુણ":6748,"▁સ્ટોક":6749,"▁હાઇવે":6750,"ગિ":6751,"▁આપવાના":6752,"▁નમૂ":6753,"▁કેસની":6754,"▁પરણ":6755,"િયાએ":6756,"▁રોલ":6757,"▁ક્રમે":6758,"▁તુલ":6759,"યતા":6760,"▁શંકર":6761,"▁હોવ":6762,"▁ગાળ":6763,"▁અવસાન":6764,"▁ગ્રાહકોને":6765,"▁દુખાવો":6766,"▁હથિયાર":6767,"▁કમ્":6768,"▁રિટ":6769,"▁દહા":6770,"▁ખાદ્ય":6771,"▁મેળવે":6772,"▁196":6773,"▁છુપ":6774,"▁નહી.":6775,"▁વેબસાઈ":6776,"▁લશ્કરી":6777,",૦૦૦":6778,"▁છિ":6779,"▁કાર્યા":6780,"ચાર્ય":6781,"▁વકીલ":6782,"લિયન":6783,"▁હટ":6784,"▁ઘટે":6785,"▁સંકટ":6786,"ન્ડો":6787,"▁બોટ":6788,"▁અનન્ય":6789,"▁દૈનિક":6790,"ચારા":6791,"▁કૂત":6792,"માળ":6793,"▁પરમે":6794,"▁સ્ત્રો":6795,"▁મળતાં":6796,"▁ભરેલી":6797,"▁બ્રેક":6798,"▁અભિનય":6799,"▁કરાયેલા":6800,"▁નખ":6801,"▁કરવામા":6802,"ચ્ચા":6803,"ણુના":6804,"▁અર્પણ":6805,"99":6806,"૩૦":6807,"▁પગે":6808,"▁લગતા":6809,"▁ઓળખી":6810,"▁અનામત":6811,"▁કલેક્ટર":6812,"▁અવારનવાર":6813,"▁સગી":6814,"નાઇ":6815,"▁અશ":6816,"▁ગુણા":6817,"▁રાખો.":6818,"▁ચોથા":6819,"▁સ્વામિ":6820,"▁પક્ષના":6821,"▁ઇલેક્ટ્રો":6822,"વમાં":6823,"શંકર":6824,"▁તકની":6825,"વાણી":6826,"▁માણે":6827,"▁રાણા":6828,"▁ડાન્સ":6829,"▁બેદર":6830,"▁પછીના":6831,"જો,":6832,"▁ડિસ્ટ":6833,"▁ખરીદવા":6834,"▁બગીચા":6835,"▁વખાણ":6836,"લ્ફ":6837,"▁પરિવારો":6838,"▁મૂડી":6839,"▁વ્યક્તિની":6840,"▁જોઇએ,":6841,"▁ફેરફારો":6842,"▁ઉઠાવી":6843,"22":6844,"અર":6845,"▁પૉ":6846,"▁મડ":6847,"ભાષા":6848,"▁કોંગ્રેસે":6849,"▁વધારાની":6850,"▁ટ્રી":6851,"▁પેટમાં":6852,"▁પરિવારને":6853,"▁અધિકારીએ":6854,"▁ધોરણે":6855,"▁૬૦":6856,"▁કોન્ટ્રા":6857,"▁સાર્વ":6858,"તરે":6859,"▁વગા":6860,"યાને":6861,"ંગ,":6862,"▁સંકલ":6863,"પાળ":6864,"તો,":6865,"▁વીમા":6866,"▁બદલાઈ":6867,"▁હાંસલ":6868,"▁સ્ક્રીન":6869,"વાલા":6870,"▁હાવા":6871,"▁વેચી":6872,"▁હેર":6873,"▁સમારોહ":6874,"▁પ્રકારનાં":6875,"▁વિશ્લે":6876,"▁રોકવા":6877,"▁નૃત્ય":6878,"▁સુવ":6879,"▁એટલુ":6880,"▁પીઠ":6881,"▁મતદારો":6882,"▁મનોરંજન":6883,"▁આસા":6884,"▁વડ":6885,"▁પહોંચ્યો":6886,"▁નવસારી":6887,"લો,":6888,"▁લગ્":6889,"▁સમૃદ્ધ":6890,"▁વાંકા":6891,"▁ચેનલ":6892,"▁અધિકારીઓએ":6893,"▁નમ્ર":6894,"▁સ્વરૂપે":6895,"▁રૂપિયાનો":6896,"▁સાંસ્કૃતિ":6897,"▁અનિલ":6898,"▁સ્વતંત્રતા":6899,"મ્ય":6900,"▁આપશે":6901,"▁વધવા":6902,"▁દરબાર":6903,"▁પ્રદેશના":6904,"▁કલાકારો":6905,"▁0.":6906,"▁સંવેદનશીલ":6907,"માર્ગ":6908,"▁બૌ":6909,"▁માબા":6910,"કાઓ":6911,"▁વાંધો":6912,"▁બેસ્ટ":6913,"▁પૂજ":6914,"▁ઈંચ":6915,"▁સોફ્ટ":6916,"▁શિખ":6917,"▁કીધા":6918,"▁પારિ":6919,"▁સલામતી":6920,"▁કલાકાર":6921,"▁દીધી.":6922,"▁યેા":6923,"▁ગવર્":6924,"વેન્ટ":6925,"▁પડયું":6926,"▁પોલીસના":6927,"▁તૈયારીઓ":6928,"▁જાગૃતિ":6929,"▁વિજેતા":6930,"▁માર્ગો":6931,"▁સલામત":6932,"▁યુરોપ":6933,"▁આવવાની":6934,"▁બેટ્સ":6935,"ન્સના":6936,"▁દર્દીઓને":6937,"ં,":6938,"ું,":6939,"▁દિલ્હીના":6940,"▁કુંડ":6941,"▁મિલકત":6942,"લ્લભ":6943,"▁મહાનગરપાલિ":6944,"પુરુષ":6945,"▁ઉડી":6946,"▁કાર્યકર્તા":6947,"▁બિલકુલ":6948,"▁સંભળા":6949,"▁સ્થળોએ":6950,"ંછ":6951,"▁મસ્":6952,"▁થવાનો":6953,"▁ચઢી":6954,"▁માટેનો":6955,"ક્રિ":6956,"▁ઘટનાસ્થ":6957,"▁આકૃતિ":6958,"18":6959,"મહા":6960,"નેશન":6961,"થીજ":6962,"▁નિવાર":6963,"▁કોઈની":6964,"▁પ્રસ્તુત":6965,"▁સના":6966,"▁ધ્યેય":6967,"▁ખની":6968,"▁ક્લબ":6969,"▁માર્ગે":6970,"▁ગાંધીએ":6971,"▁સ્ટોર":6972,"▁ઓળખવામાં":6973,"▁નિયંત્રિત":6974,"23":6975,"▁આપેલ":6976,"▁ફરીયા":6977,"▁લાઈફ":6978,"▁ફટકાર":6979,"મરા":6980,"વાયો":6981,"▁તેવામાં":6982,"્યું.\n":6983,"▁બેસે":6984,"▁સિરીઝ":6985,"▁ઈસ":6986,"▁ફોલો":6987,"▁ચાહકો":6988,"ટકા":6989,"ળીમાં":6990,"▁વ્યાપાર":6991,"▁શાળાના":6992,"▁એટલામાં":6993,"▁શખ્સ":6994,"થર":6995,"▁જ્યા":6996,"▁રાઉન્ડ":6997,"▁નિજ":6998,"પુર,":6999,"▁કણ":7000,"▁પંદર":7001,"વાલે":7002,"સીમાં":7003,"▁ખાળ":7004,"▁સેલ":7005,"ગુરૂ":7006,"▁સુપ્ર":7007,"▁સમસ્ત":7008,"▁ટર્":7009,"▁2,":7010,"▁નદીના":7011,"વાજ":7012,"▁ગુણો":7013,"▁યુ.":7014,"▁સ્ટ્રી":7015,"▁રાઠો":7016,"િયામાં":7017,"▁લેાકા":7018,"▁હાર્ટ":7019,"▁સંચાલન":7020,"પ્પણી":7021,"▁ધીરજ":7022,"▁નય":7023,"▁પ્રવે":7024,"▁નાક":7025,"▁300":7026,"બ્લિક":7027,"વુડ":7028,"▁મહિલાએ":7029,"▁ડોલ":7030,"નેા":7031,"▁નમા":7032,"▁ગાઢ":7033,"▁મિશન":7034,"▁ચાલવા":7035,"▁જન્મદિવ":7036,"▁ઓળખાય":7037,"▁અટકાવવા":7038,"▁અફઘ":7039,"ર્તન":7040,"▁પાઇ":7041,"▁નાખ્યા":7042,"▁લોકોનું":7043,"▁વ્યક્તિત્વ":7044,"▁ઉત્પત્તિ":7045,"▁પ્રવાસીઓ":7046,"▁ગભરા":7047,"▁જોગવાઈ":7048,"▁મ્યુનિસિપાલિ":7049,"▁કોશિશ":7050,"▁ઈન":7051,"ટોક":7052,"▁જવાથી":7053,"▁૩.":7054,"ભાગ્ય":7055,"▁150":7056,"▁બાઇક":7057,"▁ષ":7058,"ાય,":7059,"▁કોટ":7060,"▁નિમ":7061,"▁નિવૃત્તિ":7062,"▁ગુસ્સા":7063,"▁અંતમાં":7064,"▁દ્વારકા":7065,"▁જબર":7066,"▁મારુ":7067,"▁સાબર":7068,"રેા":7069,"▁અહીંથી":7070,"▁શેરી":7071,"૨૧":7072,"▁રજી":7073,"▁ના,":7074,"▁ફેંકી":7075,"▁સ્ટ્રે":7076,"▁પ્રસ્તાવ":7077,"▁વાવેતર":7078,"11":7079,"બ્રિ":7080,"મામ":7081,"સ્વતી":7082,"▁બેગ":7083,"▁પૂરે":7084,"▁અમારો":7085,"ફોર્":7086,"▁તેટલું":7087,"▁ચૌહા":7088,"▁સંપર્કમાં":7089,"▁સરો":7090,"વાળો":7091,"▁વારા":7092,"▁શાહે":7093,"▁પ્રમાણુ":7094,"▁ભગવ":7095,"▁વલસા":7096,"▁બાઈક":7097,"પત્":7098,"ક્ટે":7099,"▁જેવુ":7100,"▁શાહી":7101,"▁કર્યું.\n":7102,"ઘાટન":7103,"▁બનાસ":7104,"▁લિમિ":7105,"▁ક્યાંથી":7106,"▁આદિવાસી":7107,"▁મુશ્કેલીઓ":7108,"▁માછલી":7109,"વટ":7110,"શ્રા":7111,"▁તમ":7112,"▁રિવ":7113,"▁પ્રવર્":7114,"▁ખાને":7115,"▁લગાવવામાં":7116,"શાળા":7117,"▁પહેલો":7118,"▁ધામ":7119,"▁ઘેરા":7120,"▁કોર્પોરેશન":7121,"ધિકારી":7122,"ઝના":7123,"▁થવાને":7124,"▁ટું":7125,"▁દેવે":7126,"▁લેવું":7127,"▁ખાત્રી":7128,"▁જીવનને":7129,"▁એન.":7130,"▁ભરેલા":7131,"ત્યાદિ":7132,"▁વિટામિન":7133,"સાહેબ":7134,"સનો":7135,"મામાં":7136,"▁દમ":7137,"▁પહેલ":7138,"▁૨૯":7139,"▁વિસ્તૃત":7140,"▁દરેકને":7141,"▁મહિલાઓને":7142,"પિંડી":7143,"▁અંદાજે":7144,"▁સંબોધ":7145,"▁સુરેન્દ્રનગર":7146,"▁સાંસ્કૃતિક":7147,"▁સવાલો":7148,"▁રિક":7149,"▁બજા":7150,"▁શ્યામ":7151,"▁ચર્ચ":7152,"▁લેન્ડ":7153,"▁છુપા":7154,"▁આયુર્વે":7155,"▁માધ્યમથી":7156,"▁ચરબી":7157,"▁પદ્મ":7158,"ાર,":7159,"▁વસા":7160,"▁પોઇન્ટ":7161,"▁ઉપકાર":7162,"તોમાં":7163,"▁શેખ":7164,"▁અટકી":7165,"▁અશોક":7166,"▁થિયે":7167,"▁સાક્ષા":7168,"કાલીન":7169,"િયાને":7170,"પીના":7171,"▁કર્યો,":7172,"▁સારાં":7173,"વિધિ":7174,"તાન":7175,"▁સ્કોર":7176,"▁ઓવરમાં":7177,"▁સ્વર":7178,"▁સીબી":7179,"▁કર્યાં.":7180,"▁એન્ટ્રી":7181,"પડ":7182,"ફ્રા":7183,"▁શુક":7184,"▁ઉધ":7185,"▁બાથ":7186,"▁ટકી":7187,"▁વર્ષોમાં":7188,"▁સાંભળવા":7189,"▁એજન્ટ":7190,"પડી":7191,"▁રજિ":7192,"▁એકસાથે":7193,"▁સંયો":7194,"▁કરેલું":7195,"▁શકિત":7196,"▁માત્રામાં":7197,"▁યોગી":7198,"▁નગ":7199,"▁શિલ્":7200,"▁માવ":7201,"▁બાળકોના":7202,"▁આત્મવિ":7203,"▁કબજે":7204,"▁કરણ":7205,"▁ઇરા":7206,"નિકલ":7207,"▁રિસર્ચ":7208,"▁જીવી":7209,"▁સરખી":7210,"▁વખતમાં":7211,"▁કન્ટે":7212,"ફાન":7213,"હના":7214,"▁મારૂં":7215,"ન્સિ":7216,"▁વિઝા":7217,"વેસ્ટ":7218,"▁રહે,":7219,"ગાવી":7220,"વો,":7221,"▁રે.":7222,"▁ટકાનો":7223,"▁ટાપુ":7224,"▁સમજાવ":7225,"▁હકારાત્મક":7226,"▁ટેકો":7227,"▁મહેમાનો":7228,"▁રોજગાર":7229,"▁લીધી.":7230,"▁અહિં":7231,"▁મમ":7232,"નીના":7233,"▁માય":7234,"▁માનું":7235,"▁અર્ધ":7236,"▁દૃશ્ય":7237,"▁ચુકવણી":7238,"▁અદાણી":7239,"▁મેટ્રોપોલિ":7240,"▁બટા":7241,"▁પરો":7242,"▁માટેનું":7243,"▁પોષ":7244,"દીની":7245,"▁રહેતાં":7246,"▁થાય.\n":7247,"▁બાળકના":7248,"સ્વરૂપ":7249,"▁સાઉથ":7250,"▁કેટે":7251,"▁ઉપરો":7252,"ગીના":7253,"▁જુદાં":7254,"▁દિલીપ":7255,"મેન્ટમાં":7256,"▁દસ્તાવેજો":7257,"ફ્રેન્ડ":7258,"▁ક્યા":7259,"▁વસ્ત્ર":7260,"▁ખર્ચા":7261,"▁મેરી":7262,"્યાં,":7263,"પુરી":7264,"▁સાધના":7265,"▁મોદીના":7266,"▁લેખિત":7267,"▁છોકરીઓ":7268,"ભરી":7269,"વાડા":7270,"▁માસ્ટર":7271,"▁ભવન":7272,"▁ધનુ":7273,"▁48":7274,"▁સ્ત્રીને":7275,"▁સંગઠન":7276,"ટર્સ":7277,"સીન":7278,"▁સરસ્વતી":7279,"▁૧,":7280,"▁ઉત્કૃષ્ટ":7281,"▁બ્રહ્મા":7282,"▁ગેરકાયદેસર":7283,"▁પીડિત":7284,"ર્થી":7285,"ટેજ":7286,"▁રહિત":7287,"▁ત્યાંના":7288,"▁નીચેની":7289,"▁સોસાયટી":7290,"ટલા":7291,"▁ઉછા":7292,"▁પરંતુ,":7293,"ટર,":7294,"▁રૂપિયાના":7295,"▁જાણીતી":7296,"▁અર્થતંત્ર":7297,"▁વાયરસના":7298,"▁બ્રિજ":7299,"શનો":7300,"▁છે!\n":7301,"▁કરનારી":7302,"▁ફસ":7303,"▁કોઈક":7304,"પ્રસાદ":7305,"▁સીસીટી":7306,"શો.\n":7307,"....\n":7308,"▁વાંચવા":7309,"▁સંશોધ":7310,"▁તુરત":7311,"▁કંટ્રોલ":7312,"તીને":7313,"▁આપણાં":7314,"▁પોત":7315,"કુળ":7316,"▁નિમિત્તે":7317,"▁દલીલ":7318,"▁હવામાં":7319,"▁મશ":7320,"▁એસી":7321,"▁ખાવાથી":7322,"▁ચીજો":7323,"▁મૂલ્યાં":7324,"ટકી":7325,"ર્સે":7326,"▁હતે":7327,"▁પૂજ્ય":7328,"▁અધ્યાય":7329,"▁લગ્નની":7330,"▁આજનો":7331,"ધ્યાય":7332,"▁અછ":7333,"▁ઇંડા":7334,"શાસ્ત્રી":7335,"▁સુધીનો":7336,"▁પરિણી":7337,"▁ચેન":7338,"▁રસ્તામાં":7339,"▁ચલાવવા":7340,"▁આમંત્રણ":7341,"પાં":7342,"ડે,":7343,"▁નામનો":7344,"▁આવ્યા,":7345,"▁સિંહે":7346,"▁મેટ્રોપોલિટન":7347,"ખલ":7348,"▁હરાવ":7349,"▁રડ":7350,"▁રિયા":7351,"▁થવી":7352,"▁રાક્ષ":7353,"મી,":7354,"▁કહ્યા":7355,"▁કર્યો.\n":7356,"ફ્ટી":7357,"▁આઈપી":7358,"▁ઝોન":7359,"▁ડાયાબિ":7360,"▁વ્યાવસાયિક":7361,"▁સીસીટીવી":7362,"▁માતૃ":7363,"▁ખતરના":7364,"▁જાદુ":7365,"ભાગી":7366,"્સમાં":7367,"▁સુરતના":7368,"▁65":7369,"ટ્સએ":7370,"▁નોટિસ":7371,"લયે":7372,"દી,":7373,"▁કોઈએ":7374,"▁વ્યૂ":7375,"▁વિચાર્યું":7376,"▁અવર":7377,"ન્ટી":7378,"▁કારો":7379,"▁વ્યકિત":7380,"▁ક્લ":7381,"▁ચિંત":7382,"▁લાખથી":7383,"▁આનાથી":7384,"▁અઘ":7385,"▁છેડી":7386,"▁જાહેરમાં":7387,"▁પછીથી":7388,"પ્શન":7389,"મ્મ":7390,"▁અનુસર":7391,"▁શું?":7392,"▁વિચારણા":7393,"▁જીવતા":7394,"▁એકાએક":7395,"▁ફરજિયાત":7396,"ૂન":7397,"▁પચા":7398,"▁મચ્છ":7399,"▁મુકેશ":7400,"▁ગાળા":7401,"▁દાહો":7402,"▁પ્રેમમાં":7403,"▁ખરાખર":7404,"▁રમતા":7405,"▁પત્નીને":7406,"▁નરમ":7407,"▁વાપરી":7408,"▁ખતરનાક":7409,"ડકા":7410,"▁જપ્ત":7411,"▁અઢ":7412,"▁કરૂં":7413,"ન્મ":7414,"▁વિપુ":7415,"▁વિવાહ":7416,"▁ફળો":7417,"▁મિક્સ":7418,"▁પિતાને":7419,"▁આજકાલ":7420,"▁મંજૂર":7421,"▁શુભેચ્છા":7422,"વર્ષ":7423,"▁આનો":7424,"▁બલ":7425,"▁પૂજન":7426,"પ્રથમ":7427,"▁ફિલ્મના":7428,"▁રસ્તાઓ":7429,"▁સેન્ટ્રલ":7430,"દિન":7431,"▁માળા":7432,"▁ઉપવાસ":7433,"દાતા":7434,"▁કાઢે":7435,"▁બાળકોની":7436,"મરી":7437,"▁રક":7438,"▁ગંધ":7439,"▁ભરીને":7440,"▁ફેન્સ":7441,"▁42":7442,"▁વ્યક્તિઓ":7443,"▁સ્ટેન્ડ":7444,"▁વનડે":7445,"▁કર્મચારીઓને":7446,"▁હાઈવે":7447,"ન્થ":7448,"▁ડિરેક્ટર":7449,"▁સાંભળે":7450,"▁અધિકારીઓને":7451,"▁મહિનાની":7452,"▁અસંખ":7453,"▁નીકળ્યા":7454,"▁શૂન્ય":7455,"▁નારાયણ":7456,"▁ચેમ્પિયન":7457,"વ્":7458,"વ્યુ":7459,"▁છે..":7460,"▁એકઠા":7461,"▁કાફ":7462,"▁દુધ":7463,"▁થાક":7464,"યેાગ":7465,"▁લગાવ્યો":7466,"▁પ્રવૃત્તિઓ":7467,"ષેક":7468,"▁ભરો":7469,"▁પરની":7470,"▁હોટેલ":7471,"▁અન્યાય":7472,"▁લેાક":7473,"▁વૃક્ષો":7474,"▁કિશોર":7475,"▁વરસાદી":7476,"▁શહી":7477,"▁ભજન":7478,"▁ધારે":7479,"▁ઘઉં":7480,"▁જાગી":7481,"▁સ્ટુ":7482,"▁ઉંમરે":7483,"▁છેડ":7484,"▁રૃ":7485,"કાંડ":7486,"લેજ":7487,"▁કેટલો":7488,"▁વેપારીઓ":7489,"▁ઉલ્લંઘ":7490,"સન્સ":7491,"ર્ટર":7492,"▁શાં":7493,"▁ચંદ":7494,"▁આપું":7495,"જામ":7496,"▁નિદાન":7497,"જે.":7498,"▁મળવાની":7499,"▁મંદિરના":7500,"▁સંકળાયેલા":7501,"▁અસંખ્ય":7502,"ઇ,":7503,"૧૧":7504,"્યૂટ":7505,"▁ખરું":7506,"▁સિક્":7507,"મિર":7508,"▁સહકારી":7509,"▁ક્રાંતિ":7510,"▁વચ્ચેની":7511,"▁જવાબમાં":7512,"▁દેખરેખ":7513,"▁રાજકોટના":7514,"▁માર્કેટમાં":7515,"▁આયાત":7516,"▁માછી":7517,"▁ભટ્ટ":7518,"▁ચિત":7519,"▁પેઇન્ટ":7520,"▁સેમ":7521,"▁સમાધિ":7522,"▁ખીજ":7523,"▁ગેરહા":7524,"▁ભ્રષ્ટાચાર":7525,"▁સેકન્ડ":7526,"▁જસ્ટિસ":7527,"ટ્રા":7528,"▁બાવ":7529,"▁માતાના":7530,"▁લડી":7531,"▁અથડા":7532,"▁ડાંગ":7533,"▁પરમાણુ":7534,"ંટા":7535,"પક્ષ":7536,"બળો":7537,"▁ગુમ":7538,"▁પડશે,":7539,"▁દાવા":7540,"▁ફાઇન":7541,"ભેદ":7542,"▁ફુલ":7543,"▁એક્સપ્રે":7544,"▁પ્રતીક":7545,"40":7546,"બ્રા":7547,"▁શાર":7548,"▁ચડી":7549,"નું,":7550,"▁ઇંદ્ર":7551,"▁વ્યક્તિના":7552,"▁પાછલા":7553,"▁વિશ્વની":7554,"▁પિતાએ":7555,"▁ટ્રાન્સફર":7556,"▁કસરત":7557,"શ.\n":7558,"▁ો":7559,"▁આહ":7560,"▁એસે":7561,"▁પીએસ":7562,"▁38":7563,"▁માનવા":7564,"▁અવસર":7565,"શિપ":7566,"▁વિગતવાર":7567,"સથી":7568,"▁જયે":7569,"▁વુ":7570,"તિને":7571,"▁સેંક":7572,"▁બોટલ":7573,"▁ભેજ":7574,"▁મામલત":7575,"▁વિભાગમાં":7576,"▁આયોજિત":7577,"▁કુંભ":7578,"▁છેતરપિંડી":7579,"નારાયણ":7580,"જલિ":7581,"૨૩":7582,"▁આડ":7583,"યાએ":7584,"▁ખભા":7585,"વે.":7586,"▁સીટી":7587,"▁ટ્રેડ":7588,"▁અમદાવાદઃ":7589,"▁રોગચા":7590,"▁ગુસ્સે":7591,"▁પાણીનો":7592,"▁સૂચિ":7593,"▁બનતા":7594,"▁આરતી":7595,"▁આરોપીઓ":7596,"ંગ્લા":7597,"▁યુક્રેન":7598,"▁નાનો":7599,"▁ફેક્ટ":7600,"▁લગ્નના":7601,"▁ખેડુ":7602,"▁લિસ્ટ":7603,"▁ઇન્ટરનેટ":7604,"12":7605,"લનું":7606,"▁દળો":7607,"▁ટક્કર":7608,"▁ઇમ":7609,"▁સરપંચ":7610,"▁સમયસર":7611,"▁વધારાના":7612,"▁ઘટકો":7613,"▁દરવાજો":7614,"ત્વા":7615,"▁એકતા":7616,"▁વાલી":7617,"કી,":7618,"▁વેશ":7619,"▁પડવા":7620,"ાયેલો":7621,"▁૩૬":7622,"▁નહોતો":7623,"▁ગઇ.":7624,"▁મંડળ":7625,"▁બળાત્કાર":7626,"ંઝ":7627,"▁અ.":7628,"▁મચ":7629,"▁પોપ":7630,"દેશા":7631,"બાઈ":7632,"▁પ્રાઇ":7633,"▁માત્રા":7634,"▁ડેમ":7635,"▁કીધી":7636,"▁ભજવી":7637,"▁કાશ્મીર":7638,"▁સોંપી":7639,"નીને":7640,"▁દાર":7641,"મેા":7642,"▁અનુપ":7643,"▁હૈદરા":7644,"▁ટિપ્પણી":7645,"ઓ.":7646,"માન્ડ":7647,"▁આશિ":7648,"▁વર્ચ":7649,"નિર્":7650,"▁ક્રૂ":7651,"▁પ્રેસ":7652,"▁અંશ":7653,"▁અત્યા":7654,"▁અય":7655,"▁પ્રાઈ":7656,"▁જગતના":7657,"▁કાયમી":7658,"▁નદીમાં":7659,"▁તાપણુ":7660,"▁અભિનંદન":7661,"▁અપડેટ્સ":7662,"ઝમ":7663,"શભાઇ":7664,"▁વસે":7665,"▁ઉભે":7666,"▁!!":7667,"▁પાણીથી":7668,"▁બંનેને":7669,"બોલ":7670,"▁માલમ":7671,"▁નિરીક્ષણ":7672,"15":7673,"૫૦":7674,"▁કબ્":7675,"▁અરુ":7676,"જીમાં":7677,"▁દેશે":7678,"▁ઊભો":7679,"સ્થાને":7680,"▁ક્ષમા":7681,"▁લેાહી":7682,"ક્રા":7683,"▁અંડ":7684,"▁મોહન":7685,"▁દેવાની":7686,"શ્ચા":7687,"▁ઇન્સ":7688,"▁અનુક્રમે":7689,"▁માર્ક":7690,"▁ભાજપની":7691,"▁અટકાય":7692,"▁શક્તિશાળી":7693,"▁ગૌતમ":7694,"▁સમયના":7695,"▁આગમન":7696,"▁થઇ.":7697,"▁અંશે":7698,"▁પથારી":7699,"▁બોલિવૂડ":7700,"▁પાડો":7701,"▁મુર":7702,"▁રહેવાનું":7703,"ધાને":7704,"▁બીચ":7705,"▁બનશે.":7706,"▁જોડાઓ":7707,"▁કે\n":7708,"▁ભરાઈ":7709,"▁કાબુ":7710,"▁સંકલ્પ":7711,"▁લોકોનો":7712,"▁2000":7713,"▁મીન":7714,"▁ટી20":7715,"▁અદાલ":7716,"▁આયુષ્ય":7717,"▁અશક્ય":7718,"ઓનાં":7719,"▁બજ":7720,"▁લુક":7721,"▁સાદ":7722,"▁ઘડ":7723,"▁ચાવી":7724,"▁પ્રાણુ":7725,"▁પરિવારની":7726,"▁ફોટોગ્રા":7727,"▁વિદ્વાન":7728,"▁નક્ષત્ર":7729,"રન્ટ":7730,"▁પહેરે":7731,"મ્પે":7732,"▁સીધો":7733,"▁આવાં":7734,"▁વરસાદના":7735,"▁દુનિયાના":7736,"▁અકસ્માતમાં":7737,"▁ફુટ":7738,"▁સંદર્ભે":7739,"▁પાટીદાર":7740,"▁ઘટનાસ્થળે":7741,"▁પ્રકટ":7742,"▁પુખ્ત":7743,"▁પહેરી":7744,"▁બ્લોક":7745,"▁મોડલ":7746,"સૂરિ":7747,"▁આણંદ":7748,"ાયક":7749,"રેન":7750,"મીર":7751,"લિકા":7752,"▁55":7753,"▁શકાય.\n":7754,"▁બીજાને":7755,"▁ટ્રેક":7756,"▁રમવા":7757,"▁બહેનો":7758,"▁વાસ્તવમાં":7759,"ખરા":7760,"▁હૅ":7761,"▁દંપ":7762,"ન્ડા":7763,"▁બાલ":7764,"મીને":7765,"▁રાજ્યસભા":7766,"▁જેમની":7767,"▁સિદ્ધાં":7768,"▁બનાસકાંઠા":7769,"ઝમાં":7770,"▁ગર્વ":7771,"▁સર્ચ":7772,"▁કંપનીમાં":7773,"▁કાઢવામાં":7774,"▁લાંબો":7775,"સ્ટ્રેશન":7776,"▁વાક્ય":7777,"એની":7778,"▁ચપ":7779,"▁ઇસ્લા":7780,"▁કેટલાય":7781,"▁મારીને":7782,"રાજ્ય":7783,"▁ઓપન":7784,"▁કર્ણાટ":7785,"▁સ્તુતિ":7786,"જક":7787,"વાર,":7788,"▁કામદારો":7789,"ધારિત":7790,"▁છેલ્લાં":7791,"લાયન્સ":7792,"▁દૃષ્ટ":7793,"▁દર્શાવ":7794,"▁વિધવા":7795,"જી.":7796,"▁મેહુ":7797,"▁યુક્તિ":7798,"▁શક્યો":7799,"▁રિક્ષા":7800,"▁પુસ્તકો":7801,"▁રાજીનામું":7802,"▁એસિડ":7803,"▁તેણીને":7804,"રાવી":7805,"તીની":7806,"▁ખાવાનું":7807,"▁ઇન્સ્ટાગ્રામ":7808,"▁ફટકારી":7809,"▁અપડેટ":7810,"▁વેબસાઈટ":7811,"▁પચ":7812,"▁તમિ":7813,"▁ગળે":7814,"યામાં":7815,"સેના":7816,"વિદ્યા":7817,"▁શકતો":7818,"▁છોકરો":7819,"▁સ્વ.":7820,"▁સીલ":7821,"▁ભાગો":7822,"▁ગયો.\n":7823,"▁ઘટનાને":7824,"▁હાઈકોર્ટ":7825,"ભક્તિ":7826,"▁પળ":7827,"▁પરન્તુ":7828,"▁લેવાના":7829,"સીસી":7830,"▁દાસ":7831,"▁ફરતા":7832,"▁કંપનીની":7833,"શ્ર્":7834,"કર્ષ":7835,"લગ્ન":7836,"શૈ":7837,"માળા":7838,"▁સ્પોર્ટ":7839,"▁હોલ":7840,"▁મેના":7841,"▁લેપ":7842,"લોને":7843,"▁મળતું":7844,"▁દરખા":7845,"▁અનુવાદ":7846,"▁એનાથી":7847,"શ્યલ":7848,"▁યોજનાઓ":7849,"▁નહોતી.":7850,"▁એસોસિ":7851,"▁વિપરીત":7852,"કિક":7853,"▁પાવડ":7854,"ંગમાં":7855,"▁ધંધો":7856,"▁દીક્ષા":7857,"ર્સના":7858,"શ્રમ":7859,"▁બચત":7860,"▁તબક્કા":7861,"▁સુગંધ":7862,"મંદ":7863,"વવી":7864,"▁એલિ":7865,"લ્ક":7866,"િયાની":7867,"સાને":7868,"▁પરિચિત":7869,"▁પડો":7870,"▁છો?":7871,"▁કાર્યમાં":7872,"▁ટીમમાં":7873,"▁ચોંકા":7874,"▁પડેલી":7875,"▁સામ્રા":7876,"▁મૃતક":7877,"▁ઉદ્યો":7878,"▁વ્હે":7879,"▁નિરાશા":7880,"આપ":7881,"▁જતું":7882,"▁હિટ":7883,"જાત":7884,"▁ખાતામાં":7885,"▁રોડ,":7886,"▁મહોત્સવ":7887,"કુર":7888,"દારે":7889,"ધર્મો":7890,"▁અલ્પ":7891,"▁લેવાય":7892,"ગેટ":7893,"ઠાં":7894,"▁શૌ":7895,"▁ભણે":7896,"▁રેલી":7897,"▁બેઠેલા":7898,"▁મહિનાથી":7899,"▁ફ્લે":7900,"લ્લું":7901,"▁સેક્રે":7902,"▁નોંધણી":7903,"▁શરત":7904,"▁આકર્ષણ":7905,"વહાર":7906,"▁ગજ":7907,"કેલી":7908,"ક્ષ્":7909,"▁બાંગ્લા":7910,"▁ખાટા":7911,"▁ભૂપેન્દ્ર":7912,"▁ઢાં":7913,"▁લેખમાં":7914,"▁ડુંગળી":7915,"▁સંજોગોમાં":7916,"▁અંતઃકરણ":7917,"▁પ્રથા":7918,"લ્ટી":7919,"▁સમ્ય":7920,"▁જાઉં":7921,"▁રહો.":7922,"▁ઇમે":7923,"સિં":7924,"▁જાણવું":7925,"વ્યવસ્થા":7926,"▁ગયેલી":7927,"▁તબિયત":7928,"▁અબજ":7929,"▁નાગરિકોને":7930,"શાંત":7931,"▁તળે":7932,"▁સાથે.":7933,"▁ટ્રિ":7934,"▁સારુ":7935,"▁ગેા":7936,"▁હોસ્પિટલના":7937,"▁બેદરકારી":7938,"▁કમ્પ્યુટર":7939,"▁બજારો":7940,"▁શસ્ત્ર":7941,"▁કોને":7942,"▁મારાથી":7943,"▁ઢગ":7944,"▁નીતિન":7945,"▁ઠાકોર":7946,"▁એકબીજાને":7947,"▁હૈદરાબાદ":7948,"કંપ":7949,"▁ઉશ્કે":7950,"મી.":7951,"જે,":7952,"▁પડતો":7953,"▁ખેડા":7954,"▁7.":7955,"▁મૂકવા":7956,"▁જંગલમાં":7957,"▁કઠો":7958,"▁લંબ":7959,"▁દીપિ":7960,"પેા":7961,"▁મળી.":7962,"▁કરતા.":7963,"▁પિતાની":7964,"▁અર્થમાં":7965,"▁હજારથી":7966,"કાળમાં":7967,"▁પહેલીવાર":7968,"▁વિલંબ":7969,"▁કેના":7970,"▁ઉમર":7971,"મીએ":7972,"▁પેન્શન":7973,"▁કહો":7974,"▁કિ.":7975,"▁લાગતા":7976,"▁ફેડ":7977,"▁ગઈ.\n":7978,"▁પામેલા":7979,"▁વાંકાને":7980,"ઈમાં":7981,"▁નકલ":7982,"▁માસમાં":7983,"▁ભંડ":7984,"▁નિકાલ":7985,"નિષ":7986,"...\n":7987,"▁લાગ્યું.":7988,"▁વ્યાસ":7989,"▁આદિત્ય":7990,"▁સુધારવા":7991,"▁દ્રષ્ટિએ":7992,",5":7993,"બના":7994,"વડા":7995,"૧૮":7996,"▁હસ્તે":7997,"રેક્ટ":7998,"સ્ટિ":7999,"▁ઈરા":8000,"▁૪.":8001,"▁સ્ટાર્":8002,"દાયી":8003,"▁ચમક":8004,"▁સરહદ":8005,"▁મૂલ્યાંકન":8006,"ગ્યુ":8007,"નાત":8008,"સ્કે":8009,"▁સાપ":8010,"▁કાબૂ":8011,"▁મેળા":8012,"▁રહેશે,":8013,"▁રોષ":8014,"▁ફેરવી":8015,"ઝીલેન્ડ":8016,"▁ઇન્ડસ્ટ્રી":8017,"▁ન્યુઝ":8018,"આઉટ":8019,"૧૨":8020,"▁બસો":8021,"્યાને":8022,"▁નામો":8023,"▁હોય.\n":8024,"સ્તર":8025,"▁પૂછે":8026,"▁સ્વરૂ":8027,"▁મહિલાને":8028,"ગ્ગા":8029,"ઝેશન":8030,"▁સંચાલ":8031,"▁પાટણ":8032,"▁મુસલમાન":8033,"▁રિઝર્વ":8034,"સત્તા":8035,"વિટી":8036,"▁રાજપૂ":8037,"▁મીઠી":8038,"▁વિભાગની":8039,"▁ભાજપને":8040,"▁વપરાશ":8041,"▁પ્રાણીઓ":8042,"▁સગવડ":8043,"▁અફઘાનિ":8044,"તે,":8045,"મિશન":8046,"▁અહીંયા":8047,"▁અપહરણ":8048,"▁પેાતાનું":8049,"▁2013":8050,"▁પાકિસ્તાનના":8051,"▁બળતરા":8052,"▁ટ્વિટ":8053,"▁એન્ટિ":8054,"▁....":8055,"▁એક્ટર":8056,"▁હોવો":8057,"સેવ":8058,"▁બેટા":8059,"▁ગુસ્સો":8060,"▁નહોતું":8061,"▁ઉપાસના":8062,"▁ચમત્કાર":8063,"બ્ર":8064,"▁જના":8065,"▁મય":8066,"▁સાદા":8067,"પાના":8068,"▁જીભ":8069,"તોની":8070,"▁ખેતરમાં":8071,"▁ફેફ":8072,"ભાઈએ":8073,"▁ફાટી":8074,"▁પહોંચાડી":8075,"▁વૈજ્ઞાનિકો":8076,"▁કેાઇ":8077,"ન્દ્રા":8078,"▁જઈએ":8079,"▁કરવું.":8080,"▁ચૈત":8081,"▁વેક્સિન":8082,"▁પ્રતાપ":8083,"મળ":8084,"▁તેવુ":8085,"▁બર્":8086,"▁ભંડો":8087,"▁ઊઠ":8088,"▁મળે.":8089,"▁ચાલક":8090,"દર્શિ":8091,"▁પુત્રને":8092,"▁કાળમાં":8093,"▁પરિસ્થિતિમાં":8094,"▁વિસ્ફો":8095,"??":8096,"▁એળ":8097,"▁ભણી":8098,"વીજ":8099,"ર્ટિ":8100,"▁૩૩":8101,"વુ,":8102,"▁શીખી":8103,"▁કાઢવા":8104,"▁આતુર":8105,"▁હેતુથી":8106,"▁ગ્લાસ":8107,"▁રત્":8108,"▁ગડ":8109,"▁જોવાની":8110,"▁આપઘાત":8111,"▁પૂછી":8112,"પ્ટ":8113,"▁એમનું":8114,"▁હિંદી":8115,"રિસ":8116,"▁44":8117,"▁વિષયો":8118,"▁ગણિત":8119,"▁શરમ":8120,"મ્બરમાં":8121,"▁મહારાષ્ટ્રમાં":8122,"▁સંદર્ભમાં":8123,"રથી":8124,"ુ,":8125,"રે.":8126,"▁હેા":8127,"▁કુળ":8128,"▁ક્રૂર":8129,"▁બાળપણ":8130,"▁ચિત્":8131,"▁મ્હા":8132,"▁પ્રીમ":8133,"▁શબ્દોમાં":8134,"▁આવશ્યકતા":8135,"▁કોહલી":8136,"▁સુવર્ણ":8137,"▁મામલતદાર":8138,"બની":8139,"▁ચરિત્ર":8140,"લે,":8141,"▁બેટરી":8142,"▁લોખંડ":8143,"▁ઈન્ટર":8144,"▁સુધી,":8145,"▁ફોર્":8146,"▁ફરાર":8147,"▁ડેપ":8148,"▁૩૪":8149,"▁સ્ટ્રો":8150,"▁સુંદરતા":8151,"▁રુપિયા":8152,"ધૂ":8153,"બત":8154,"▁બં":8155,"ત્રણ":8156,"વાર્ય":8157,"મુખી":8158,"▁યાદવ":8159,"▁શિક્ષકો":8160,"▁સકારાત્મક":8161,"▁જળવા":8162,"▁અતી":8163,"▁આક્રમ":8164,"▁એમાંથી":8165,"▁ખતમ":8166,"જાના":8167,"▁નિધન":8168,"▁સંચાલિત":8169,"સમી":8170,"▁કષ્ટ":8171,"માર્":8172,"▁તણા":8173,"રાજે":8174,"▁પાપી":8175,"▁લેવાનો":8176,"્યુત":8177,"ચ્છી":8178,"▁રાખીએ":8179,"▁કિસાન":8180,"▁અભિવ":8181,"▁જોડાણ":8182,"▁સંતાન":8183,"▁મોડેલ":8184,"▁શણગાર":8185,"▁કવર":8186,"નામું":8187,"▁માણી":8188,"▁ગઠ":8189,"▁ખાઇ":8190,"▁શકતું":8191,"સ્તાનમાં":8192,"▁બનાવ્યું":8193,"▁ઘટાડવા":8194,"▁ગયેલ":8195,"▁સચિન":8196,"▁તકો":8197,"▁સમ્":8198,"▁સમ્રા":8199,"▁આવેલો":8200,"▁ચીનના":8201,"▁ત્રિવે":8202,"▁લખાણ":8203,"▁તંદુરસ્ત":8204,"દરી":8205,"નિય":8206,"▁પધાર":8207,"▁મકર":8208,"▁નંદ":8209,"સ્ત્રા":8210,"▁ઉઘ":8211,"▁ધૂમ":8212,"▁ઉત્સા":8213,"▁મેળવવામાં":8214,"▁સર્કલ":8215,"▁કોર્ટના":8216,"▁કાપડ":8217,"▁માણુસ":8218,"▁જથ્થા":8219,"પરી":8220,"▁અપ્ર":8221,"▁વાર્":8222,"▁લોટ":8223,"નાર,":8224,"શું.\n":8225,"▁દર્દીઓની":8226,"▁માઇક્રો":8227,"નસ":8228,"તાનુ":8229,"▁પ્રણ":8230,"▁સાજા":8231,"▁કાચા":8232,"▁હોટલ":8233,"▁ગુપ્":8234,"▁શિખર":8235,"▁ક્ષણે":8236,"▁૩૨":8237,"▁લખન":8238,"ગુજરા":8239,"▁ગુણધર્મો":8240,"▁માધ્યમ":8241,"▁સોંપવામાં":8242,"▁સુનિશ્ચિત":8243,"જન્ય":8244,"▁મણ":8245,"▁જોવાનું":8246,"▁કાઉ":8247,"હીન":8248,"▁ટ્રો":8249,"▁વર્ગો":8250,"▁ટેવ":8251,"▁ખુલ":8252,"▁ક્રુ":8253,"▁બિર":8254,"▁યથા":8255,"▁ભગવાનની":8256,"▁સપ્લાય":8257,"▁સભામાં":8258,"▁નબળી":8259,"▁બોલિવૂ":8260,"કલા":8261,"▁નૌ":8262,"લાજ":8263,"▁લખવામાં":8264,"▁વોટ":8265,"▁માળખા":8266,"ંથ":8267,"વત્":8268,"▁પદા":8269,"▁અમિતા":8270,"▁દહીં":8271,"સ્કર":8272,"▁કોફી":8273,"ારામાં":8274,"મોને":8275,"▁કિસ્સો":8276,"▁ફાઉન્":8277,"▁ગરબા":8278,"▁પક્ષો":8279,"▁મરજી":8280,"▁દ્રશ્ય":8281,"▁સાંભળ્યું":8282,"▁અંકુ":8283,"▁બિલ્ડિંગ":8284,"▁સ્માર્ટફોન":8285,"▁બૌદ્ધ":8286,"▁વિકે":8287,"વેરા":8288,"▁મેટી":8289,"▁પેસ્ટ":8290,"▁માંડે":8291,"▁વેરિ":8292,"▁ફેંક":8293,"▁હાલની":8294,"▁અભિગમ":8295,"▁કરાવવામાં":8296,"▁નિષ્ણાત":8297,"દ્યોગિક":8298,"જવા":8299,"નારો":8300,"▁મજૂ":8301,"ભાવી":8302,"શ્મા":8303,"▁બીમાર":8304,"▁કામની":8305,"▁બોલમાં":8306,"▁ચેન્ના":8307,"▁બનાવ્યો":8308,"▁જિલ્લાની":8309,"▁૪૫":8310,"▁લાભાર્થી":8311,"▁ફ્રેન્ડ":8312,"▁વેચવા":8313,"ડિયે":8314,"▁જર્":8315,"▁માખ":8316,"▁ધ્યાને":8317,"▁પાકિસ્તાની":8318,"▁જમણી":8319,"▁ગ્લે":8320,"▁આરામદાયક":8321,"ુલ":8322,"▁કલ્પ":8323,"કાંત":8324,"▁ભાભી":8325,"▁અમલી":8326,"▁મદદરૂપ":8327,"▁લાલચ":8328,"▁એપાર્ટમેન્ટ":8329,"ધમાં":8330,"શિંગ":8331,"▁સમે":8332,"▁ઘડિયા":8333,"▁ડબ્":8334,"▁સ્થાયી":8335,"▁લીંક":8336,"▁બહારના":8337,"▁મુસાફરો":8338,"દશા":8339,"▁મર્":8340,"▁નાનું":8341,"▁ઘણુ":8342,"ર્સમાં":8343,"▁બનાવવાનું":8344,"▁નવાઈ":8345,"▁નિર્ણયો":8346,"▁મગફ":8347,"▁અહેવાલો":8348,"▁ઇલેક્ટ્રિક":8349,"▁ચકાસણી":8350,"▁ઉપરોક્ત":8351,"▁વિપુલ":8352,"▁અની":8353,"▁અધી":8354,"▁વિડિયો":8355,"કોર્ટે":8356,"સીસ":8357,"▁નેત્ર":8358,"▁ગોળ":8359,"▁પ્રથમ,":8360,"▁પિતાના":8361,"▁પકડીને":8362,"▁અખંડ":8363,"▁સોસાયટીમાં":8364,"▁દુશ્મન":8365,"▁અઢી":8366,"નીની":8367,"▁રૉ":8368,"▁રિંગ":8369,"ક્ક":8370,"▁ફેશન":8371,"▁ફાળો":8372,"▁ગ્રામજનો":8373,"▁દુર્લભ":8374,"▁ઓફિસમાં":8375,"▁અંધકાર":8376,"▁દુકાનો":8377,"▁પાયે":8378,"યામ":8379,"▁સાલ":8380,"▁વર્તુ":8381,"▁દીવા":8382,"▁ડાબી":8383,"▁ત્યારપછી":8384,"▁લિંક":8385,"▁કાનૂની":8386,"▁લોકડાઉ":8387,"▁વિકસિત":8388,"▁સમર્પિત":8389,"તથી":8390,"બરૂ":8391,"ૂપ":8392,"લેટર":8393,"▁ઈમ":8394,"▁શકશે.\n":8395,"▁દુબ":8396,"▁નામનું":8397,"▁ત્રીજો":8398,"કાર્પણ":8399,"વવું":8400,"વાયેલા":8401,"▁હડતા":8402,"▁લખ્યા":8403,"▁લેટેસ્ટ":8404,"▁ગાળી":8405,"▁વિશ્વા":8406,"▁મોદીની":8407,"▁મહિનાના":8408,"હ,":8409,"▁તેજી":8410,"▁તાકી":8411,"▁પરિમા":8412,"કુમારી":8413,"▁બેઠે":8414,"▁ઈન્ડસ્ટ્રી":8415,"▁મ્હારી":8416,"▁આગેવાની":8417,"▁લંબાઈ":8418,"ંદર્ય":8419,"▁પતિએ":8420,"▁નહી,":8421,"▁મુકવામાં":8422,"▁ભ્રમ":8423,"21":8424,"તવ્ય":8425,"▁હજ":8426,"▁ભાવા":8427,"▁પેમેન્ટ":8428,"▁ચોરસ":8429,"▁કીધું":8430,"▁સમજાય":8431,"▁માગતા":8432,"▁ઉપાડી":8433,"▁ગર્લ":8434,"▁ઉમેર્યું":8435,"બડ":8436,"▁હસી":8437,"▁નકા":8438,"▁પ્રવી":8439,"▁ચઢા":8440,"વેદ":8441,"▁પેસે":8442,"▁શિવા":8443,"▁ચોખા":8444,"બોર્ડ":8445,"▁રસાય":8446,"▁શોધખો":8447,"▁શરતો":8448,"▁માલિકી":8449,"▁સમૃદ્ધિ":8450,"▁સામ્રાજ્ય":8451,"▁તવ":8452,"વાટ":8453,"▁રઘુ":8454,"▁વિધા":8455,"▁મેડી":8456,"▁આવે.\n":8457,"▁દુર્ગ":8458,"▁કુમા":8459,"▁સીતા":8460,"▁લાગ્યો.":8461,"▁કારણે,":8462,"▁અવય":8463,"▁જમીનમાં":8464,"▁પ્રજાને":8465,"▁લાઈન":8466,"▁કિસ્સાઓ":8467,"▁ઉલ્લંઘન":8468,"ઓમાંથી":8469,"▁સસ":8470,"▁વળે":8471,"▁કેરી":8472,"▁સ્પો":8473,"▁લાકડી":8474,"▁સેલિ":8475,"▁રેટ":8476,"▁ચેતન":8477,"▁પ્રકારનો":8478,"▁એલ.":8479,"▁અટકાવી":8480,"▁મ્યુનિસિપલ":8481,"▁જીએસટી":8482,"બાન":8483,"ભરના":8484,"▁વતી":8485,"▁ગુને":8486,"▁સૌને":8487,"▁ખુદા":8488,"▁ચોર":8489,"▁અપાર":8490,"▁માર્યો":8491,"▁ભેગ":8492,"▁અડધી":8493,"▁પાંદડા":8494,"ઇની":8495,"ુન":8496,"▁ધૂળ":8497,"▁પોષણ":8498,"▁લેશે.":8499,"▁સીમ":8500,"રુપ":8501,"▁પ્રતિબિ":8502,"▁બેઠી":8503,"▁ગ્રાઉન્ડ":8504,"▁લાઇફ":8505,"▁મોહમ્મદ":8506,"▁સ્પીડ":8507,"▁મહેસાણા":8508,"આઈએ":8509,"▁તીર":8510,"▁વતન":8511,"▁આપશે.\n":8512,"રૂમ":8513,"વારિક":8514,"▁ખોલી":8515,"▁વૈષ્ણ":8516,"▁રાજાના":8517,"▁બચવા":8518,"▁કોવિડ19":8519,"▁ન્યાયા":8520,"યને":8521,"▁વલ્લભ":8522,"▁રા.":8523,"▁વાં":8524,"▁વારે":8525,"▁બેઝ":8526,"ટાઇ":8527,"▁લાગતી":8528,"▁સર્જરી":8529,"▁દેખાતા":8530,"▁આકાશમાં":8531,"▁સમજાવી":8532,"▁ત્ય":8533,"▁અશ્વ":8534,"▁આજી":8535,"▁થનાર":8536,"▁લાકા":8537,"કાર્ય":8538,"▁પારસી":8539,"▁લિટર":8540,"▁પૈસાની":8541,"▁કોર્પોરેટ":8542,"▁તાજા":8543,"▁શાન્તિ":8544,"▁ભાગોમાં":8545,"▁મહાભાર":8546,"▁ધોધ":8547,"▁શેરબજાર":8548,"▁ભારતીયો":8549,"ખમ":8550,"દ્રો":8551,"હવા":8552,"▁આચર":8553,"▁એસ્ટે":8554,"▁કોડ":8555,"તેા":8556,"▁સુચના":8557,"▁દેસાઈ":8558,"▁પહેરીને":8559,"▁બાળકની":8560,"▁ભેળ":8561,"▁વૈરા":8562,"મ્પલ":8563,"▁સ્ટોરી":8564,"▁મેળવવાની":8565,"▁શાહરૂ":8566,"▁ગૃહમંત્રી":8567,"▁આશ્રમ":8568,"▁પરમેશ્વર":8569,"ચ,":8570,"ફળતા":8571,"▁પાઈ":8572,"▁આવડ":8573,"▁પહેાં":8574,"▁પૂરતા":8575,"▁એક્ટ્રેસ":8576,"▁યોજાઈ":8577,"▁ઉંમરના":8578,"ંડે":8579,"ધમ":8580,"બમાં":8581,"નાશ":8582,"▁નફા":8583,"▁ભયાન":8584,"▁સંસ":8585,"▁શાસ્ત્રો":8586,"▁દીકરો":8587,"▁તેઓની":8588,"ગ્ને":8589,"કડું":8590,"▁એકાંત":8591,"▁વિશાલ":8592,"▁જંગલ":8593,"▁સવારથી":8594,"ચાં":8595,"▁આવુ":8596,"▁લેતાં":8597,"વારની":8598,"▁શોમાં":8599,"▁નોંધવામાં":8600,"▁જણાવાયું":8601,"▁દારૂની":8602,"▁યોજવામાં":8603,"▁સમયગાળો":8604,"▁મંત્રાલયે":8605,"▁ફાઉન્ડે":8606,"ડિયમ":8607,"વદ":8608,"▁ક્રીમ":8609,"▁રહેલું":8610,"▁લેક":8611,"▁ઝર":8612,"▁ગાદી":8613,"▁જુલાઇ":8614,"▁શોખ":8615,"▁જગદી":8616,"▁મધ્યમાં":8617,"▁મૂક્યો":8618,"▁અંગ્રેજો":8619,"▁શંકાસ્પદ":8620,"▁એચ.":8621,"▁ખંભા":8622,"ગજ":8623,"ભાન":8624,"સરી":8625,"▁ગળા":8626,"▁પાચન":8627,"▁મુળ":8628,"કીંગ":8629,"▁સેલ્":8630,"▁દુષ્":8631,"સનીય":8632,"▁મોંઘવારી":8633,"▁નફો":8634,"▁દળ":8635,"▁દત્ત":8636,"દ્વારા":8637,"▁સે.":8638,"▁ભાગરૂપે":8639,"▁મેળવીને":8640,"▁બેઠો":8641,"▁અભિમાન":8642,"▁તારીખે":8643,"▁અનિવાર્ય":8644,"▁કાર્યાલય":8645,"ચ્યુ":8646,"▁કેઃ":8647,"▁વાસ્તે":8648,"▁દીપક":8649,"▁2012":8650,"ભૂતિ":8651,"▁ઔષધ":8652,"▁કુશળતા":8653,"વસ્તુ":8654,"▁પધ":8655,"▁જશે,":8656,"▁મિલ્":8657,"▁ગાર":8658,"▁ગિર":8659,"▁ફરે":8660,"લીસ":8661,"િયું":8662,"▁સેક્ટર":8663,"▁રિલાયન્સ":8664,"▁બદલાવ":8665,"ગ્ધ":8666,"▁વળી,":8667,"▁કુંવર":8668,"▁આદત":8669,"▁નિમણૂક":8670,"▁લડવા":8671,"ત્રિમ":8672,"▁સંબ":8673,"જીનું":8674,"▁ફિલ્મની":8675,"▁ફ્રેન્ચ":8676,"▁માળખું":8677,"▁મુદ્દાઓ":8678,"▁વિદેશમાં":8679,"▁ચામડી":8680,"કર્મી":8681,"ખ્ય":8682,"▁પતા":8683,"▁પછા":8684,"▁તડ":8685,"▁વિકાર":8686,"▁આપ્યું.":8687,"▁બેન્ડ":8688,"શ્ન":8689,"▁પીવા":8690,"લનાડુ":8691,"▁શીત":8692,"▁રોજગારી":8693,"▁કાઢીને":8694,"▁અજમા":8695,"▁હ્રદય":8696,"▁તારો":8697,"▁ઉકા":8698,"▁ઉઘા":8699,"▁વધશે.":8700,"▁સેવામાં":8701,"▁ઝટ":8702,"▁બિગ":8703,"શો,":8704,"▁બ્લે":8705,"▁પત્રમાં":8706,"▁કબજો":8707,"▁નિરાશ":8708,"▁વિચારા":8709,"▁ચલાવે":8710,"ઇના":8711,"લિય":8712,"▁ઃ":8713,"▁કપાસ":8714,"રીંગ":8715,"▁વિવા":8716,"રેખા":8717,"▁કરવા.":8718,"ડેલા":8719,"▁કટોક":8720,"નેજ":8721,"▁હઝર":8722,"▁દહે":8723,"▁સાગ":8724,"▁સ્ફ":8725,"▁સુન":8726,"▁પરિબળો":8727,"▁ચિન્":8728,"▁ધર્મની":8729,"▁પુનરાવ":8730,"▁યુદ્ધમાં":8731,"▁કોન્સ્ટે":8732,"▁ખ્રિસ્તી":8733,"▁પ્રદર્શ":8734,"▁રાધા":8735,"▁મેઘા":8736,"▁લેતી":8737,"▁આવી,":8738,"▁સિનિયર":8739,"પ્રકાશ":8740,"▁પીપ":8741,"▁સ્ટેજ":8742,"▁વ્યવસ્થિત":8743,"▁મસાલા":8744,"▁બાંગ્લાદેશ":8745,"▁જસ":8746,"▁બદા":8747,"▁નષ્ટ":8748,"કામના":8749,"▁મેગા":8750,"▁કરાઇ":8751,"▁ધોવા":8752,"▁હીરો":8753,"▁નાખવામાં":8754,"▁પાર્ટનર":8755,"ફ્રાસ્ટ્ર":8756,"જન્સી":8757,"વણુ":8758,"▁છત":8759,"▁લેશે":8760,"▁રૂટ":8761,"▁દરજ્":8762,"▁ઊતર":8763,"▁જાણું":8764,"▁મંદી":8765,"▁જોડાઈ":8766,"રિયલ":8767,"▁દાયકા":8768,"▁ઈંગ્લેન્ડ":8769,"▁અબ્દુ":8770,"▁શોધખોળ":8771,"પક્ષી":8772,"૧૫":8773,"▁આડે":8774,"ર્ભ":8775,"▁પ્રહ":8776,"તીમાં":8777,"ડીઝ":8778,"▁લેવલ":8779,"▁રોમાં":8780,"▁તરફે":8781,"▁૫.":8782,"▁પૂર્વક":8783,"▁સ્મિત":8784,"▁સવારના":8785,"▁ફ્લોર":8786,"▁સૈનિકો":8787,"▁વિશ્લેષણ":8788,"▁અભિવ્ય":8789,"સનું":8790,"▁મામા":8791,"▁પ્રાંત":8792,"▁વિશ્ર":8793,"▁વાડી":8794,"▁આવેલાં":8795,"▁ઈલેક્ટ":8796,"▁પડે,":8797,"▁કૃષ્":8798,"▁મુદ્દામાલ":8799,"▁ઉત્સવ":8800,"▁એન્જિનિયર":8801,"▁ડેપ્યુટી":8802,"▁નહે":8803,"▁ગણુ":8804,"▁ઉસ":8805,"▁રાસ":8806,"▁કારખા":8807,"▁પ્રેક્ટ":8808,"▁જીવને":8809,"▁જોડાયેલ":8810,"▁તબીબો":8811,"▁ટાઈમ":8812,"▁સરખામણીમાં":8813,"ભેર":8814,"▁પંચા":8815,"▁તારૂ":8816,"▁હ્યુ":8817,"▁હોટે":8818,"જીવી":8819,"યે,":8820,"▁સ્થિતિને":8821,"▁બાબુ":8822,"▁ગેટ":8823,"▁માતાને":8824,"▁કૃત્ય":8825,"▁કલર":8826,"▁ચુકી":8827,"▁ઔદ્યોગિક":8828,"▁અટકાયત":8829,"ંતે":8830,"શમ":8831,"▁ઉડા":8832,"▁ચુંબ":8833,"▁ટૂં":8834,"▁દિવ્યા":8835,"▁ઝૂ":8836,"ર્સ,":8837,"▁તેમાંના":8838,"▁વરસાદને":8839,"▁જગ્યાઓ":8840,"▁લક્ષ્મ":8841,"▁ઝીણી":8842,"▁મૌન":8843,"▁આઝાદી":8844,"▁પિતૃ":8845,"▁પારિવારિક":8846,"ગતિ":8847,"બેર":8848,"ૂતિ":8849,"▁મુલ":8850,"▁ટકાથી":8851,"ફાઈ":8852,"▁વળગી":8853,"▁લાઈક":8854,"▁રૈ":8855,"▁નળ":8856,"લાપ":8857,"લ્સને":8858,"▁જીતે":8859,"ડેક્સ":8860,"▁માંડીને":8861,"▁સિંગ":8862,"▁રાખવાનું":8863,"▁દુખા":8864,"▁195":8865,"▁પક્ષમાં":8866,"▁ચુસ્ત":8867,"▁બતાવવા":8868,"▁અનુભવે":8869,"▁મેડલ":8870,"▁એકત્રિત":8871,"ઢિ":8872,"▁પરસે":8873,"▁મેર":8874,"▁રાજનીતિ":8875,"▁સેને":8876,"▁પહેલું":8877,"▁લીડ":8878,"▁આવતીકાલે":8879,"▁રિપોર્ટમાં":8880,"▁દર્શાવી":8881,"▁રેસ્ટોરન્ટ":8882,"▁આત્મવિશ્વાસ":8883,"▁સરા":8884,"▁અળ":8885,"▁તે\n":8886,"▁નગરમાં":8887,"▁એકમ":8888,"▁વાટ":8889,"▁નાનાં":8890,"ડાયા":8891,"▁થઈ,":8892,"▁સિદ્ધા":8893,"▁વેલ":8894,"▁પરિણ":8895,"▁ગયાં.":8896,"્સ,":8897,"▁પ્લોટ":8898,"▁મહેશ":8899,"▁પાંચે":8900,"▁ગામડા":8901,"▁ઉત્પાદક":8902,"▁પ્રમોશન":8903,"ડન્ટ":8904,"પમેન્ટ":8905,"▁અલ્લાહ":8906,"▁માહા":8907,"▁પ્રાય":8908,"▁સુરેશ":8909,"દેવે":8910,"▁કુમારે":8911,"▁કેટલાં":8912,"▁સૌપ્રથમ":8913,"▁ડિલિવ":8914,"▁બનાવની":8915,"છે.\n":8916,"▁બનશે":8917,"▁વોટ્સએ":8918,"▁આઈ.":8919,"▁બાતમી":8920,"▁દરખાસ્ત":8921,"▁લોકાર્પણ":8922,"▁ડોકટ":8923,"▁કપિલ":8924,"▁વિનાશ":8925,"▁અંદરથી":8926,"▁જરૂરિયાતો":8927,"▁વાપરવા":8928,"▁ઉદ્યોગો":8929,"તમે":8930,"▁વનમાં":8931,"▁ફતે":8932,"ડાટ":8933,"▁જાતીય":8934,"▁લો.\n":8935,"▁માનસ":8936,"▁રૂપિયાનું":8937,"▁સત્યા":8938,"▁પાર્ટીમાં":8939,"▁મ્હે":8940,"▁પુષ્પ":8941,"ખાર":8942,"ડયા":8943,"▁પૅ":8944,"▁શ્રો":8945,"▁ઇત્યાદિ":8946,"▁બોલ્ડ":8947,"મિત્ર":8948,"▁હૈા":8949,"▁કરવી.":8950,"▁દર્દીને":8951,"▁ઓપરે":8952,"▁જ્યોતિષ":8953,"▁અમિતાભ":8954,"60":8955,"કનો":8956,"મણુ":8957,"▁વિનો":8958,"▁પાઉ":8959,"▁નિવૃત્ત":8960,"▁મોઢા":8961,"▁ઇચ્છે":8962,"સ્ટિટ":8963,"પ્ટર":8964,"▁ભેા":8965,"▁પટેલની":8966,"▁અઠવાડિયે":8967,"▁ચૈતન્ય":8968,"સતા":8969,"નાઈ":8970,"રીય":8971,"▁જેમા":8972,"▁વાસના":8973,"ણીમાં":8974,"સાસ":8975,"▁લીટર":8976,"▁બોલિંગ":8977,"▁પોલીસમાં":8978,"▁દિવાલ":8979,"▁ચિત્રો":8980,"▁કોરોનાને":8981,"▁પાર્કિંગ":8982,"▁બધે":8983,"▁કચરો":8984,"▁ઉછેર":8985,"▁ભયાનક":8986,"અમે":8987,"પસંદ":8988,"વાળાં":8989,"▁વયના":8990,"રીથી":8991,"▁લાંચ":8992,"▁ઘટીને":8993,"▁નિશાની":8994,"પીને":8995,"▁કુર":8996,"▁ઊભ":8997,"▁ક્રમમાં":8998,"▁મળેલ":8999,"▁અગાઉથી":9000,"▁ગ્રામ\n":9001,"▁તરતજ":9002,"▁એક્ટિવ":9003,"▁અવસ્થામાં":9004,"વય":9005,"▁મહેર":9006,"▁એકમો":9007,"▁રાખ્યો":9008,"બેક":9009,"▁ભગવાને":9010,"▁યુનિવર્સિટીના":9011,"▁માર્કેટિંગ":9012,"▁પાલિકા":9013,"▁પ્રચલિત":9014,"17":9015,"વવાનું":9016,"▁જયાં":9017,"▁હાઇડ":9018,"▁૩૭":9019,"▁ઉમેદવારી":9020,"▁ગોંડલ":9021,"▁નમૂના":9022,"▁તુલસી":9023,"૧૭":9024,"▁અસ્":9025,"▁શપથ":9026,"▁ઉંચી":9027,"▁શ્રી.":9028,"▁બિલા":9029,"કરાર":9030,"▁મોદીને":9031,"▁કલાકની":9032,"▁બતાવવામાં":9033,"▁સેક્રેટરી":9034,"તારા":9035,"બર્ગ":9036,"▁એડિ":9037,"▁પ્રેક્ષ":9038,"▁ક્ષત્ર":9039,"▁પ્રોગ્રામ":9040,"▁પાંચમા":9041,"▁ધીમી":9042,"▁ફ્લાઈ":9043,"▁ઇતિહાસમાં":9044,"▁વહીવટ":9045,"▁બહાદુર":9046,"ચૂ":9047,"પર્":9048,"રૂમમાં":9049,"▁મૂકો":9050,"▁કિનારા":9051,"▁બહારથી":9052,"▁ડેવલ":9053,"▁દર્શાવવામાં":9054,"▁મહારાષ્ટ્રના":9055,"▁ઊંચાઈ":9056,"▁તહેવારો":9057,"દ્દીન":9058,"▁ક્રાઈમ":9059,"▁કામકાજ":9060,"▁જયા":9061,"▁યુપી":9062,"▁પીવાથી":9063,"▁મીરા":9064,"▁પ્રતિજ્ઞા":9065,"▁બિમારી":9066,"▁અવગ":9067,"▁જણાવેલ":9068,"ફેક":9069,"▁ભુજ":9070,"▁હતુ.\n":9071,"▁રોગપ્રતિ":9072,"▁કાંઈક":9073,"▁ચારેય":9074,"▁ગેરહાજરી":9075,"ઢવા":9076,"મૂલ":9077,"▁કમર":9078,"▁છેડે":9079,"▁વસ્ત્રો":9080,"▁સુની":9081,"▁ડ્રેસ":9082,"▁ખેત":9083,"▁ફેલાઈ":9084,"▁મેળવો":9085,"▁ફાસ્ટ":9086,"▁મંદિરની":9087,"બહેન":9088,"▁દાવ":9089,"▁કેલ્":9090,"▁એકલી":9091,"▁નેગે":9092,"▁મારતા":9093,"▁થયું,":9094,"▁મહેમાન":9095,"મરજન્સી":9096,"▁જબરદ":9097,"▁શાહરૂખ":9098,"▁ી":9099,"▁વિ.":9100,"કીના":9101,"▁ભાડે":9102,"▁સિઝનમાં":9103,"▁બંધા":9104,"▁બ્લા":9105,"▁સહાયક":9106,"▁તસ્":9107,"▁હૂં":9108,"રીઓ":9109,"▁મુકે":9110,"▁બંનેએ":9111,"▁194":9112,"▁રંગી":9113,"▁શરદ":9114,"▁શિયાળામાં":9115,"▁નગરપાલિકા":9116,"કાઇ":9117,"ડેન્ટ":9118,"▁પેશા":9119,"▁ભૂકંપ":9120,"▁રિપ":9121,"▁52":9122,"સ્થાપિત":9123,"▁અવ્ય":9124,"▁બંનેની":9125,"▁હૈાય":9126,"▁સ્પષ્ટતા":9127,"▁નાખીને":9128,"▁ગુલામ":9129,"▁શ્રેણીમાં":9130,"▁વાદળી":9131,"▁ડૂબી":9132,"▁નિવેદનમાં":9133,"ધ્વ":9134,"્ડ":9135,"▁વજ":9136,"▁તેહ":9137,"▁એલા":9138,"▁એમે":9139,"યો.":9140,"▁સાથે.\n":9141,"▁ગુર":9142,"▁અનુરૂપ":9143,"▁સ્ત્રીએ":9144,"▁શ્રેય":9145,"▁સમાજની":9146,"▁અગાઉના":9147,"▁માધવ":9148,"▁હાર્ડ":9149,"ૈા":9150,"ન્તર":9151,"▁ફટા":9152,"▁સમજવું":9153,"▁ભગવાનને":9154,"▁આરોપીને":9155,"▁બાંધવામાં":9156,"▁સળગ":9157,"▁મનીષ":9158,"▁પ્રતિબિંબ":9159,"▁અને,":9160,"▁માતાની":9161,"▁સ્તન":9162,"▁દુષ્ક":9163,"▁સોનાના":9164,"▁અપાય":9165,"▁કરોડથી":9166,"▁ભગવાનના":9167,"▁ભાજપમાં":9168,"▁મહાનુ":9169,"કાંક્ષા":9170,"▁જંગલી":9171,"▁યુવતીને":9172,"▁કૉંગ્રે":9173,"▁દસ્તાવેજ":9174,"ણથી":9175,"▁શૃ":9176,"તીએ":9177,"▁ઉગા":9178,"▁રાસાય":9179,"્રાઈ":9180,"શામાં":9181,"▁હિતે":9182,"▁49":9183,"▁કાંઠે":9184,"▁સાંજના":9185,"▁ધરમ":9186,"એસ.":9187,"ટ્ટો":9188,"ખત":9189,"જરૂ":9190,"થના":9191,"ૌકિક":9192,"▁ઉજ્જ":9193,"કાશ્મી":9194,"▁સુદ":9195,"▁ખાવાની":9196,"જુરી":9197,"▁તુમ":9198,"▁મામલામાં":9199,"▁રમેશ":9200,"લક્ષ":9201,"▁ઞ":9202,"▁તલા":9203,"▁તૂટ":9204,"▁કેદી":9205,"નોના":9206,"▁ધરે":9207,"▁ફેક":9208,"▁ફિલ્મનું":9209,"▁એલર્ટ":9210,"▁નમસ્કાર":9211,"▁કુદરત":9212,"▁મજાક":9213,"▁ઈતિહાસ":9214,"કળા":9215,"બસ્ત":9216,"૧૪":9217,"▁હસ્તા":9218,"▁લગી":9219,"લીયા":9220,"▁ઉપલા":9221,"▁મુન":9222,"▁ટીમની":9223,"▁હિન્દ":9224,"▁ક્ષય":9225,"▁નિયમન":9226,"▁કોંગ્રેસને":9227,"હલ":9228,"▁કરીશ.":9229,"▁યુક્ત":9230,"મિટ":9231,"▁સૌંદર્ય":9232,"▁કૃત્રિમ":9233,"▁પાછળના":9234,"▁પુસ્તકા":9235,"▁મોરબીના":9236,"▁મકાનમાં":9237,"જાન":9238,"▁આસિ":9239,"વેા":9240,"ત્રિક":9241,"▁પાતાને":9242,"▁બેક્ટે":9243,"▁નેહા":9244,"દ્ધાં":9245,"▁કહે,":9246,"▁જવાને":9247,"ભાઈને":9248,"▁46":9249,"▁બુદ્ધ":9250,"શિયમ":9251,"▁કરવું,":9252,"▁પુરસ્કાર":9253,"▁થોડીવાર":9254,"▁માધ્યમિક":9255,"▁ફ્રન્ટ":9256,"▁પેકેજ":9257,"▁લગ્નમાં":9258,"▁કંગના":9259,"▁સજ્":9260,"▁હપ્":9261,"▁વાતે":9262,"ંતો":9263,"▁ગોર":9264,"▁400":9265,"▁તુજ":9266,"▁ઢાંક":9267,"▁બનાવવાનો":9268,"▁છૂટી":9269,"▁ચિહ્ન":9270,"▁જાં":9271,"▁આલિયા":9272,"ું.":9273,"▁બટન":9274,"▁એટી":9275,"ક્કો":9276,"▁ધર્મા":9277,"▁કોર":9278,"લ્લુ":9279,"▁લાવ્યા":9280,"▁બોય":9281,"ન્દર":9282,"▁બહુજ":9283,"▁માતાએ":9284,"▁બાંધે":9285,"▁દ્વેષ":9286,"▁ધર્મો":9287,"▁પંડ્યા":9288,"ગારે":9289,"▁દ્રા":9290,"દ્વાર":9291,"▁તમારૂં":9292,"▁શકશો.":9293,"▁બોન્ડ":9294,"▁ડેટ":9295,"શ્રુ":9296,"▁નિર્ધારિત":9297,"▁દિલ્હીની":9298,"▁ઇન્ટરનેશનલ":9299,"▁યથાવત":9300,"બરી":9301,"માઈ":9302,"▁પ્રબળ":9303,"▁1000":9304,"▁શિર":9305,"▁મનના":9306,"▁અંતરે":9307,"▁નહોતો.":9308,"▁નૈતિક":9309,"▁ધ્રુવ":9310,"કલ્પિક":9311,"કથી":9312,"▁પંક":9313,"▁આક્રમણ":9314,"▁મૉ":9315,"લાલે":9316,"▁પ્રહાર":9317,"▁પાથ":9318,"▁રાઈ":9319,"▁ઘસ":9320,"▁બાગ":9321,"▁દીવાલ":9322,"▁નોન":9323,"▁લાગ્યા,":9324,"▁પહેલાં,":9325,"▁ઘાસ":9326,"▁ધર્મે":9327,"▁સૂત્રોના":9328,"એમાં":9329,"▁સવિ":9330,"▁સત્સ":9331,"▁હરણ":9332,"▁વયે":9333,"તા.\n":9334,"▁પ્રભારી":9335,"ન્જર":9336,"▁ટાર્":9337,"▁કારણથી":9338,"▁સરકારમાં":9339,"▁43":9340,"▁સ્વાર્થ":9341,"▁૪૮":9342,"▁એકાગ્ર":9343,"લાયક":9344,"▁બદલવા":9345,"▁ચૌધ":9346,"▁ગૂગલ":9347,"▁પાંડે":9348,"▁અમીર":9349,"▁કુશળ":9350,"▁તર્ક":9351,"▁મકવા":9352,"▁વરુ":9353,"▁બાલા":9354,"ળાઈ":9355,"શાસ":9356,"▁જેમકે":9357,"▁મહાવીર":9358,"છેડા":9359,"▁નિષ્ફળતા":9360,"▁કથિત":9361,"▁પતંગ":9362,"▁ઝઘડો":9363,"દારા":9364,"▁કમન":9365,"▁સ્રો":9366,"▁રતન":9367,"▁ભટ્":9368,"▁કોષ":9369,"▁ઓર્ગે":9370,"દાના":9371,"▁ઇનિંગ":9372,"▁સોનિયા":9373,"▁તેઓના":9374,"▁ચોપ":9375,"▁ચીનની":9376,"▁72":9377,"▁ગેંગ":9378,"▁વિષયમાં":9379,"▁આર્મી":9380,"▁ઉપકરણો":9381,"▁ચિકન":9382,"▁પ્યાર":9383,"▁અસ્પ":9384,"▁મરે":9385,"સ્કી":9386,"▁ભાં":9387,"▁લાખા":9388,"ણાથી":9389,"મ્મત":9390,"ન્સને":9391,"▁કેન્દ્રમાં":9392,"▁જમણા":9393,"▁પ્રમાણપત્ર":9394,"▁વહ":9395,"▁એડવા":9396,"વીય":9397,"▁બાદશાહ":9398,"▁કોરોનાથી":9399,"વાળા,":9400,"▁શાળાઓ":9401,"▁ટ્રસ્ટી":9402,"▁લાગણીઓ":9403,"▁સ્કૂલમાં":9404,"બ્યુલ":9405,"પાર્ટમેન્ટ":9406,"શંક":9407,"વા.":9408,"▁એક્શન":9409,"ન્નુ":9410,"▁નારા":9411,"▁સંપ્રદાય":9412,"▁મેરે":9413,"▁મુદ્રા":9414,"સીબે":9415,"▁વેક્સી":9416,"▁કિડની":9417,"▁39":9418,"▁વિચારમાં":9419,"▁મળેલા":9420,"▁રોજિ":9421,"▁ડીઝલ":9422,"▁ઉમેરી":9423,"▁બોલ્યા":9424,"▁કલાકો":9425,"▁દુનિયાની":9426,"▁સ્પેશિયલ":9427,"▁સર્જાયો":9428,"▁નવરાત્રી":9429,"પત્ની":9430,"જ્યુ":9431,"▁કશી":9432,"▁છત્ર":9433,"મેર":9434,"▁રાતના":9435,"▁નાજ":9436,"સ્ટિંગ":9437,"▁તાલ":9438,"▁તાલિ":9439,"▁મહિમા":9440,"▁આરોપો":9441,"▁રંગના":9442,"▁કરવી,":9443,"▁પૂછવામાં":9444,"ભર્યા":9445,"▁સંભાળી":9446,"▁ગિરિ":9447,"▁જ્વા":9448,"▁છેકરા":9449,"▁લય":9450,"રીક":9451,"▁વિરામ":9452,"▁મેલી":9453,"ળીઓ":9454,"▁બોમ્બ":9455,"▁હવે,":9456,"▁લાગશે":9457,"▁દિવાલો":9458,"▁અભિષેક":9459,"▁ઘરેથી":9460,"▁મનુષ્યને":9461,"▁નોંધાઈ":9462,"▁રૂપીઆ":9463,"▁અસામાન્ય":9464,"▁પુરવઠા":9465,"▁દુષ્કર્મ":9466,"તત્ત્વ":9467,"ૃશ્ય":9468,"▁પઠા":9469,"▁શંક":9470,"▁રામાય":9471,"▁આપણો":9472,"▁કાના":9473,"▁કાયા":9474,"લ્વર":9475,"▁કરવાં":9476,"પુરૂ":9477,"▁હૈ,":9478,"▁કમળ":9479,"▁વર્ગના":9480,"▁રાજસ્થાનના":9481,"▁નિવારણ":9482,"▁દલિત":9483,"▁પાડીને":9484,"▁ત્યારે,":9485,"▁રેડિયો":9486,"▁પ્રેમની":9487,"▁2011":9488,"▁ઝડપે":9489,"▁માર્ગદર્શિ":9490,"▁મનાય":9491,"▁સદીમાં":9492,"▁પ્રતિનિધિત્વ":9493,"▁ઉનાળામાં":9494,"▁મુકાબ":9495,"▁બેટ્સમેન":9496,"▁વગ":9497,"▁એન્ટર":9498,"મેટા":9499,"▁સંમતિ":9500,"▁દ્વારા,":9501,"▁રેન્":9502,"યું.":9503,"▁શ્રીમતી":9504,"▁રાજાની":9505,"▁નાંખે":9506,"70":9507,"▁પ્રદૂ":9508,"▁ભડ":9509,"▁ઉપયાગ":9510,"સુમ":9511,"▁કર્તવ્ય":9512,"▁ફ્લાઇટ":9513,"▁પરીક્ષામાં":9514,"▁આંખમાં":9515,"▁નિર્માતા":9516,"▁અંગ્રેજ":9517,"▁જરુર":9518,"▁હમેશાં":9519,"▁આક્રમક":9520,"મહે":9521,"▁કંડ":9522,"▁બરો":9523,"▁માના":9524,"▁સાભ":9525,"▁ખેર":9526,"▁પાસા":9527,"▁વાંક":9528,"▁રીક્ષા":9529,"▁મૂંઝ":9530,"▁દા.":9531,"▁56":9532,"▁૮૦":9533,"▁ઠાકરે":9534,"▁સ્થાપન":9535,"સિંહે":9536,"ંશી":9537,"ઢુ":9538,"ધાં":9539,"ફના":9540,"▁તેર":9541,"▁પાચ":9542,"▁ધૈ":9543,"▁હોતી":9544,"▁આવકાર":9545,"▁લાશ":9546,"▁કારા":9547,"▁વધા":9548,"▁શકયા":9549,"▁ફેલાય":9550,"▁વગરના":9551,"▁ખાનની":9552,"▁તેવાં":9553,"▁2008":9554,"▁ક્રાઇમ":9555,"▁ઉત્તરાખંડ":9556,"અમ":9557,"▁કડી":9558,"▁આવાસ":9559,"▁વફા":9560,"▁વસાહ":9561,"▁સ્પા":9562,"▁થયા.\n":9563,"▁કોંગ્રેસની":9564,"▁મિત્રતા":9565,"▁કમિટી":9566,"▁ઇન્ડિયન":9567,"▁દીધા.":9568,"ધરા":9569,"પચાર":9570,"ફેર":9571,"▁મસ":9572,"▁ભત્રી":9573,"તિયા":9574,"કોટ":9575,"▁લેવાથી":9576,"શીપ":9577,"બંધન":9578,"▁શોર્ટ":9579,"▁લીધાં":9580,"▁શેષ":9581,"▁ફાઇલ":9582,"▁થયેા":9583,"▁ચુક્યા":9584,"▁સહીત":9585,"▁ઈન્ટરનેટ":9586,"25":9587,"ઇસ":9588,"▁જજ":9589,"▁નિદ્રા":9590,"ભાષ":9591,"▁સોનું":9592,"તરની":9593,"▁ક્લાસ":9594,"પેશ":9595,"▁અહીંના":9596,"▁ટોચના":9597,"▁થોડાક":9598,"▁ગ્રહો":9599,"▁હવાઈ":9600,"▁જાળવણી":9601,"▁ફર્નિ":9602,"▁પ્રોફેસર":9603,"▁ચુંટણી":9604,"▁શહીદ":9605,"▁નાઇટ":9606,"ાવતી":9607,"▁આવવું":9608,"સેલ":9609,"▁તાજી":9610,"▁પરિવારે":9611,"▁વિશેની":9612,"▁સર્વા":9613,"▁૪૪":9614,"▁શહેરો":9615,"▁ખુબજ":9616,"▁વાનગીઓ":9617,"▁પરિષદ":9618,"▁કૌભાંડ":9619,"ખારી":9620,"▁ક્યુ":9621,"▁થતુ":9622,"▁સ્વે":9623,"▁પાત્રો":9624,"▁કરીશું.":9625,"યુર":9626,"પ્રો":9627,"▁બનવાની":9628,"▁ક્રોસ":9629,"▁અંડર":9630,"▁અપૂર્વ":9631,"ણેા":9632,"▁લેનાર":9633,"▁ઈશ":9634,"▁કહેતાં":9635,"સિદ્ધિ":9636,"▁વીચાર":9637,"ભાઈ,":9638,"▁41":9639,"▁પ્લ":9640,"▁વૈકલ્પિક":9641,"▁પતિની":9642,"▁છાયા":9643,"▁જમાનામાં":9644,"▁હાઇકોર્ટ":9645,"▁કાળજીપૂર્વક":9646,"▁સાહસ":9647,"▁તલવાર":9648,"▁ડ્રાઈવર":9649,"▁વાવ":9650,"▁ખાડા":9651,"▁ઈચ્છે":9652,"▁પીળા":9653,"▁સ્ત્રીઓને":9654,"▁પ્રેમથી":9655,"▁ગયેા.":9656,"▁જોડાયેલી":9657,"▁સંસ્થાના":9658,"▁મોટાભાગની":9659,"▁ભૂતકાળમાં":9660,"▁વૈરાગ્ય":9661,"આને":9662,"ઝાર":9663,"▁કટા":9664,"▁રચે":9665,"▁એ,":9666,"▁દવે":9667,"▁ખતરો":9668,"ળીએ":9669,"જેક્શન":9670,"▁રાખવાનો":9671,"લિસ્ટ":9672,"▁રેસ":9673,"▁પીર":9674,"▁મીના":9675,"▁ભાગની":9676,"▁કરતા,":9677,"▁ફરક":9678,"▁ટ્રમ્પ":9679,"▁દીધું.":9680,"▁ઇંગ્લેન્ડ":9681,"▁દરોડા":9682,"▁ઝુંબે":9683,"▁રાસાયણિક":9684,"કનું":9685,"ય.":9686,"ળિયા":9687,"વામા":9688,"▁દારા":9689,"ંદના":9690,"▁ગુડ":9691,"બાના":9692,"▁લીલી":9693,"્સને":9694,"્સની":9695,"▁સૂચન":9696,"▁થયેલું":9697,"▁પટેલને":9698,"▁કહેવાય.":9699,"▁એમ્બ્યુલ":9700,"દું":9701,"ભવી":9702,"▁માટે.\n":9703,"િયસ":9704,"ણુને":9705,"▁જેમના":9706,"▁ચાલતાં":9707,"▁બહુમતી":9708,"ભવતી":9709,"▁પટેલના":9710,"▁સદીના":9711,"▁હાજરીમાં":9712,"▁પર્યાપ્ત":9713,"▁નીચલા":9714,"ર્નામેન્ટ":9715,"▁દાહોદ":9716,"૨૫":9717,"▁સાંધા":9718,"▁કાળે":9719,"▁આવ્યેા":9720,"▁ડગ":9721,"▁યુગમાં":9722,"▁ચીની":9723,"▁નીકળતા":9724,"▁યુવકે":9725,"▁ફરિયાદો":9726,"▁ઘોડા":9727,"▁અહંકાર":9728,"▁આલ્બ":9729,"▁મસ્જિ":9730,"ષણા":9731,"▁પછ":9732,"▁હસન":9733,"▁એકી":9734,"▁મીની":9735,"▁3,":9736,"▁પહોંચતા":9737,"શોભ":9738,"▁અમદાવાદની":9739,"▁ઈન્ડિયન":9740,"▁ધર્મને":9741,"▁પંથકમાં":9742,"▁નિંદા":9743,"▁લેવો":9744,"▁સેલ્સ":9745,"▁ચોખ્":9746,"▁પ્રતિષ્ઠ":9747,"બુદ્ધિ":9748,"▁મૈત્રી":9749,"▁સ્વચ્છતા":9750,"▁આફ્રિકા":9751,"▁ગવર્નર":9752,"▁સેંકડો":9753,"ખરી":9754,"નન":9755,"▁રનની":9756,"▁નિત":9757,"▁અને\n":9758,"રાજી":9759,"▁સાકાર":9760,"▁ખરૂં":9761,"▁સ્માર":9762,"▁મેરા":9763,"▁મળશે,":9764,"▁યંત્ર":9765,"▁ટાટા":9766,"▁8.":9767,"▁મહત્વનો":9768,"▁મનુષ્યા":9769,"▁શ્રુતિ":9770,"▁બંદો":9771,"▁કેક":9772,"▁આપત્તિ":9773,"▁નિબંધ":9774,"▁ઓલિ":9775,"▁ઓડિ":9776,"▁પેહે":9777,"▁૨,":9778,"▁અધિકારો":9779,"▁છુટા":9780,"▁આત્માની":9781,"▁ચલાવતા":9782,"▁અલ્ટ્રા":9783,"સંગત":9784,"▁ડ્રાઇવ":9785,"▁ચિકિ":9786,"▁ગુન્હા":9787,"▁પોતપો":9788,"▁પદે":9789,"▁સસ્તા":9790,"▁એપિ":9791,"▁માળે":9792,"▁આવવાનું":9793,"ળીની":9794,"▁લોકોનાં":9795,"પ્રમુખ":9796,"નિકે":9797,"▁આરોપીઓને":9798,"શ્રીએ":9799,"▁માનીએ":9800,"▁સાયકલ":9801,"▁રાજકારણ":9802,"▁ડિલિવરી":9803,"રમ":9804,"▁સૉ":9805,"▁મટી":9806,"▁ફાર":9807,"▁મહાર":9808,"બાઇ":9809,"▁કહેશે":9810,"મુક્ત":9811,"કર,":9812,"▁વાંચો":9813,"▁૧૯૪":9814,"▁ભરેલું":9815,"ઠ્ઠ":9816,"▁વિવેચન":9817,"▁હિસાબ":9818,"▁વલસાડ":9819,"80":9820,"ટ્યુ":9821,"▁નકલી":9822,"▁થય":9823,"▁વિઘ":9824,"▁વારો":9825,"▁ઉપજ":9826,"▁શુદ્ધિ":9827,"▁૩૮":9828,"સભર":9829,"▁કૉલ":9830,"▁ચલાવવામાં":9831,"▁બજેટમાં":9832,"▁જુનાગઢ":9833,"▁કેબિનેટ":9834,"સદો":9835,"▁છેડા":9836,"▁મંચ":9837,"▁વતની":9838,"▁ધાન":9839,"▁ધસી":9840,"▁ઈં":9841,"▁શિષ":9842,"▁રૂપાંતર":9843,"▁નિયત":9844,"વ્યૂ":9845,"▁ચૂંટણીના":9846,"▁લાભો":9847,"▁આત્માના":9848,"▁તત્પર":9849,"▁સમિતિના":9850,"▁અસાધારણ":9851,"▁એક્સપ્રેસ":9852,"▁અયો":9853,"▁ચતુર":9854,"▁નથી\n":9855,"▁મળતો":9856,"દારને":9857,"▁47":9858,"▁પંક્તિ":9859,"▁આશંકા":9860,"▁કચ્છમાં":9861,"▁હાડકાં":9862,"▁કેજરીવાલ":9863,"બ્રહ":9864,"ૉક":9865,"▁હાન":9866,"મેં":9867,"▁સુશોભ":9868,"▁સંચાર":9869,"▁ગુફા":9870,"▁વર્ષા":9871,"▁કોઈના":9872,"▁ખેલી":9873,"▁સીઝન":9874,"ર્મલ":9875,"▁શુષ્ક":9876,"▁ગ્રામી":9877,"▁પ્રક્રિયામાં":9878,"▁પાકિસ્તાનની":9879,"▁ઉત્સુક":9880,"▁સમારંભ":9881,"▁પોષક":9882,"▁પાડોશી":9883,"નેસ":9884,"▁અે":9885,"▁એનુ":9886,"▁ઉજા":9887,"સામ":9888,"▁રોય":9889,"▁પાસેના":9890,"▁સૂક":9891,"▁સ્ત્રીની":9892,"▁અડચ":9893,"▁સાયન્સ":9894,"▁અઠવાડિયામાં":9895,"▁કનેક્ટ":9896,"▁મસ્તક":9897,"૧૬":9898,"▁અન્ને":9899,"▁આયા":9900,"▁એમા":9901,"▁નરેશ":9902,"કાળે":9903,"▁કાજલ":9904,"▁કોમ્":9905,"વિજ્ઞાન":9906,"▁ગુજ":9907,"▁આવી.\n":9908,"સી.":9909,"▁માણસની":9910,"▁૭૦":9911,"▁સમુદ્રમાં":9912,"▁પાવડર":9913,"▁અથા":9914,"▁વાગી":9915,"▁હોઠ":9916,"▁સંડો":9917,"▁રહેલો":9918,"▁રાજન":9919,"▁જુવાન":9920,"▁ફેલાવ":9921,"▁૬.":9922,"▁દેખાતી":9923,"▁પ્રભુની":9924,"▁મેળવ્યા":9925,"▁પુરૂષા":9926,"▁પાદશાહ":9927,"▁જન્મદિવસ":9928,"સહ":9929,"સ્ર":9930,"▁સની":9931,"▁રચી":9932,"▁એલે":9933,"▁ગંદ":9934,"▁વિતા":9935,"▁વિક્ર":9936,"લીંગ":9937,"▁આપ્યો.":9938,"▁સુલતા":9939,"▁અધ્યા":9940,"દેશિક":9941,"▁દિનેશ":9942,"▁શોષણ":9943,"▁જૂથો":9944,"▁વૈભવ":9945,"▁ગેમ":9946,"▁અસમ":9947,"▁શ્રમિક":9948,"▁અડધો":9949,"▁સ્ત્રોત":9950,"નાઇટેડ":9951,"▁રોગપ્રતિકારક":9952,"16":9953,"ગરા":9954,"્યારા":9955,"▁વિહાર":9956,"▁સંક":9957,"પાને":9958,"▁આવેદન":9959,"▁વર્ગી":9960,"્યુ.":9961,"▁પડદા":9962,"▁ક્લે":9963,"સોર્ટ":9964,"▁યમ":9965,"▁વરસે":9966,"દેવને":9967,"▁ફ્લેટ":9968,"કૃતિક":9969,"▁મથક":9970,"▁ચૌધરી":9971,"▁સંભળ":9972,"▁સેવક":9973,"▁મલ્ટી":9974,"▁સસ્પેન્ડ":9975,"▁કડવા":9976,"વિચાર":9977,"▁મીટિંગ":9978,"મેન્ટિક":9979,"▁ઉત્તરપ્રદેશ":9980,"▁કર્તા":9981,"▁લાગ્યા.\n":9982,"મેટિક":9983,"▁વધારીને":9984,"▁નીપજ્યું":9985,"આમ":9986,"▁ખાવ":9987,"▁લાડ":9988,"ટીઓ":9989,"જીક":9990,"▁આગળના":9991,"▁૧૮૯":9992,"▁ગણાવી":9993,"▁પોલિસી":9994,"▁અશુભ":9995,"▁લિમિટેડ":9996,"મારો":9997,"▁છંદ":9998,"▁રસા":9999,"▁શરણ":10000,"રાણી":10001,"્યોર":10002,"જીભાઇ":10003,"▁મેષ":10004,"▁બેઉ":10005,"▁ભાત":10006,"યેલું":10007,"▁સોનાની":10008,"▁વીતી":10009,"ભાવસ્થા":10010,"▁મારફત":10011,"▁કર્મો":10012,"▁રોકાણકાર":10013,"▁શ્રાવણ":10014,"ઇંગ":10015,"સવા":10016,"▁રિયલ":10017,"▁નાસ્તો":10018,"▁સમયા":10019,"ષ્મા":10020,"▁સિંઘ":10021,"કરની":10022,"▁ગાંઠ":10023,"▁મુંબઈના":10024,"▁જોખમી":10025,"અન":10026,"ટલે":10027,"▁રડી":10028,"▁ધના":10029,"ટીક":10030,"▁ચાલતું":10031,"્યેા.":10032,"▁વોર":10033,"▁પકડવા":10034,"▁ગૃહસ્થ":10035,"ટિક્સ":10036,"▁ઈન્સ્ટાગ્રામ":10037,"▁વધારવામાં":10038,"▁દીકરીને":10039,"▁શકાશે.":10040,"▁2019માં":10041,"▁જમ્મુકાશ્મી":10042,"▁ગ્લોબલ":10043,"શ્રે":10044,"▁પરદેશી":10045,"▁ઊલ":10046,"▁ચોથી":10047,"▁મહાસ":10048,"વુ.":10049,"▁કંપનીને":10050,"▁ઓફી":10051,"▁અસલ":10052,"▁વિદ્યાર્થીઓએ":10053,"ઘાટ":10054,"▁પાડ્યા":10055,"▁ટ્રાય":10056,"▁સાચો":10057,"▁એક્સપ":10058,"▁વાતચીતમાં":10059,"▁સાવચેત":10060,"દગી":10061,"ષુ":10062,"હની":10063,"િરા":10064,"▁તટ":10065,"વાએ":10066,"▁વંચ":10067,"્રાઇ":10068,"▁યુનાઇટેડ":10069,"▁કામને":10070,"▁પ્રેસિ":10071,"કરને":10072,"▁ખીજે":10073,"મ્પિક":10074,"▁જિયો":10075,"▁મગજમાં":10076,"▁લગાડ":10077,"ધ્ધિ":10078,"પ્રાપ્તિ":10079,"▁મુલાકાતી":10080,"▁છુટકારો":10081,"▁મૂર્ખ":10082,"ખડ":10083,"▁હની":10084,"▁એડી":10085,"▁પાંખ":10086,"▁કાનમાં":10087,"▁સુખા":10088,"▁મેક્ષ":10089,"▁પૂ.":10090,"▁ગાલ":10091,"▁પ્રાદેશિક":10092,"▁દેશોના":10093,"▁પ્રોસે":10094,"▁વિદ્યુત":10095,"▁યુવકને":10096,"▁ચૂકવવા":10097,"▁પાઠવી":10098,"▁ડિસેમ્બરે":10099,"▁ભંડોળ":10100,"13":10101,"એથી":10102,"ફ્ર":10103,"▁સાથો":10104,"▁રાજીવ":10105,"▁જોયુ":10106,"▁ધેા":10107,"▁સંધિ":10108,"▁નિવાસી":10109,"ચેા":10110,"▁ગાળામાં":10111,"મિકા":10112,"▁ચોકી":10113,"▁તરફ,":10114,"▁ટાઇટ":10115,"▁ઘટાડે":10116,"શ્વરી":10117,"▁અનુભવો":10118,"▁બ્રિગે":10119,"▁ઇચ્છતા":10120,"▁સાવચેતી":10121,"▁અપરાધ":10122,"ગૃહ":10123,"નાન્સ":10124,"▁નકારી":10125,"▁દસ્ત":10126,"▁તોફા":10127,"▁પેલે":10128,"▁સોશ્યલ":10129,"▁દાગીના":10130,"▁યાર્":10131,"▁ગોહિ":10132,"▁મનસુખ":10133,"▁પ્રોટીન":10134,"▁ભારતનો":10135,"▁પ્રજાતિ":10136,"▁દુર્ગા":10137,"▁પચાસ":10138,"▁બંદોબસ્ત":10139,"મજ":10140,"શથી":10141,"હરા":10142,"માઇ":10143,"વાળુ":10144,"લેશ્વર":10145,"▁જાડા":10146,"સાઇડ":10147,"▁ઓમ":10148,"▁ઇટા":10149,"▁જીતુ":10150,"પી,":10151,"▁વાતનો":10152,"▁ઉત્ત":10153,"▁અપવાદ":10154,"▁ચીનમાં":10155,"▁બંનેના":10156,"▁વસ્તુને":10157,"▁કીર્તિ":10158,"▁સમાજને":10159,"▁મનુષ્યના":10160,"▁ક્ષેત્રોમાં":10161,"▁કેટેગ":10162,"કર્મ":10163,"લૂ":10164,"▁અજી":10165,"▁સાડી":10166,"▁આપ્યા.":10167,"સા,":10168,"▁ગાઈડ":10169,"▁ભાગને":10170,"▁બધાની":10171,"▁લખવા":10172,"▁આનદ":10173,"▁ગરીબી":10174,"▁કબૂલ":10175,"▁તારું":10176,"ઝોન":10177,"▁મ્યુનિ.":10178,"▁ડુંગર":10179,"14":10180,"▁રમણ":10181,"▁બ્રી":10182,"▁કારની":10183,"▁ઓથો":10184,"યે.":10185,"▁સિપા":10186,"પ્લો":10187,".....":10188,"્સના":10189,"▁તૈનાત":10190,"▁ટાઉન":10191,"ંચાઈ":10192,"▁તબક્કે":10193,"▁અહિંસા":10194,"▁તિરસ્કાર":10195,"▁યુરોપિયન":10196,"▁વાંકાનેર":10197,"દવ":10198,"બને":10199,"▁દઇ":10200,"▁ગ્રો":10201,"ંગાર":10202,"▁જાપાની":10203,"▁પેટે":10204,"▁ઝિ":10205,"▁આપીએ":10206,"▁હાથથી":10207,"▁પ્રતિભાવ":10208,"▁ગોવિંદ":10209,"ત્મ્ય":10210,"▁વૈદ્ય":10211,"▁સ્ત્રીના":10212,"▁પૃ.":10213,"▁ક્લાસિક":10214,"ઝરી":10215,"મ.":10216,"માસ":10217,"▁શૅ":10218,"▁ફ્યુ":10219,"▁નાચ":10220,"જામાં":10221,"▁શામ":10222,"▁જણાવવા":10223,"ન્દ્રિય":10224,"▁રંગની":10225,"▁અસત્ય":10226,"▁કલક":10227,"▁પાર્ટીએ":10228,"▁નાખવા":10229,"▁સાવધાન":10230,"▁યુવતીએ":10231,"▁ક્રિકેટર":10232,"▁તાજેતરના":10233,"▁સમયગાળામાં":10234,"ફ્રાસ્ટ્રક્ચર":10235,"એએ":10236,"ટૂ":10237,"ૂરી":10238,"▁પાયલ":10239,"▁અલા":10240,"▁હાવ":10241,"▁વિનિ":10242,"▁પાના":10243,"▁આપો.":10244,"▁ધંધ":10245,"▁દે.":10246,"▁ગુજાર":10247,"▁કહેા":10248,"▁બોડી":10249,"▁પ્રાકૃતિક":10250,"▁54":10251,"▁ડેસ્ક":10252,"▁ભરવામાં":10253,"▁મજબુત":10254,"▁નજીકથી":10255,"▁વસવાટ":10256,"ભર્યું":10257,"▁કોલેજમાં":10258,"▁ભ્રષ્ટ":10259,"▁જોરથી":10260,"▁મ્યુનિસિપાલિટી":10261,"આના":10262,"▁અવે":10263,"▁કરાયેલ":10264,"▁કેવ":10265,"▁ભગત":10266,"▁સંકો":10267,"કીએ":10268,"▁ટેન્ડર":10269,"▁જવાન":10270,"▁વ્યાપારી":10271,"▁ટાળવા":10272,"▁યુવરાજ":10273,"▁મેળવતા":10274,"▁વર્ગમાં":10275,"▁કોલકા":10276,"▁ઘેાડા":10277,"▁ડ્રાઇવર":10278,"▁વિનોદ":10279,"▁નાજુક":10280,"મનું":10281,"▁પબ્લિક":10282,"▁આરે":10283,"▁મોતી":10284,"▁લીગ":10285,"▁મનપસંદ":10286,"▁રૂપિયામાં":10287,"▁64":10288,"▁કરાશે.":10289,"શું,":10290,"▁મેળવ્યો":10291,"▁લખીને":10292,"▁શર્માએ":10293,"▁સંસારમાં":10294,"▁ખુલાસા":10295,"▁ચળવળ":10296,"જરૂરી":10297,"વ.":10298,"િના":10299,"▁સરી":10300,"▁આડા":10301,"▁કેવો":10302,"▁થવામાં":10303,"▁સ્મિ":10304,"▁કરે.\n":10305,"▁પેરે":10306,"સ્ટન્ટ":10307,"યોગ્ય":10308,"પ્રમા":10309,"ટોપ":10310,"▁દાણા":10311,"▁જેમ,":10312,"▁નવાં":10313,"▁લોકશાહી":10314,"કાર્ડ":10315,"▁જળા":10316,"▁જ્યુ":10317,"▁અસ્વ":10318,"▁નિકા":10319,"▁પહેા":10320,"▁લીમ":10321,"▁કુટું":10322,"▁પાણીને":10323,"કરના":10324,"▁પાર્થ":10325,"▁દીધુ":10326,"▁એજ્યુ":10327,"▁નરસિંહ":10328,"▁મનોજ":10329,"▁ડાયરેક્ટર":10330,"▁ગાડીમાં":10331,"▁આશ્ચર્યજનક":10332,"▁પ્રેરિત":10333,"▁ટ્યુબ":10334,"▁પ્રવીણ":10335,"▁અહુ":10336,"▁ખવડ":10337,"▁જોવું":10338,"▁વાડ":10339,"▁કોરિયા":10340,"▁આવવાના":10341,"▁સિંગલ":10342,"▁મિત્રા":10343,"▁બદલામાં":10344,"▁ખીજો":10345,"▁પતિના":10346,"▁યુવતીના":10347,"▁આંધ્ર":10348,"▁હઝરત":10349,"ડાય":10350,"ઢું":10351,"ોનો":10352,"ન્ટેડ":10353,"▁વિન્ડો":10354,"▁જોગી":10355,"▁કાંક":10356,"હિની":10357,"દારોને":10358,"▁સમજીને":10359,"▁હથિય":10360,"▁કાયદેસરની":10361,"▁મહાનુભાવ":10362,"દયા":10363,"▁મજૂરી":10364,"▁તે.":10365,"▁તેં":10366,"કારની":10367,"▁ગાળો":10368,"િંગ,":10369,"▁લઈએ":10370,"▁અન્યથા":10371,"▁ફર્યા":10372,"્રોન":10373,"▁શેડ":10374,"▁પિત્ત":10375,"▁સ્ટેટ્સ":10376,"▁કાંટા":10377,"▁જનતાને":10378,"▁અમેરિકાની":10379,"▁ઝોનમાં":10380,"▁શેાધ":10381,"▁રજુઆત":10382,"▁રોજિંદા":10383,"▁ગ્રામીણ":10384,"ચરણ":10385,"રર":10386,"▁એકર":10387,"▁સંમત":10388,"કાર,":10389,"▁બેલે":10390,"નિશ":10391,"▁વિસ્તારની":10392,"ફેક્ટ":10393,"▁95":10394,"▁દ્વી":10395,"શ્વરે":10396,"▁મ્હાર":10397,"▁પરાજય":10398,"▁રસોઈ":10399,"▁સિનેમા":10400,"▁પૂરેપૂ":10401,"▁અભિવ્યક્તિ":10402,"▁ટૂંકી":10403,"સ્યો":10404,"ાએ":10405,"▁નંગ":10406,"▁પ્રત":10407,"વીના":10408,"▁નિભાવ":10409,"▁ભાંગી":10410,"માનંદ":10411,"▁કહેવુ":10412,"▁ઊઠી":10413,"▁ચેડા":10414,"▁ધર્મમાં":10415,"▁પૂર્ણિ":10416,"▁૧૯૦":10417,"▁પ્રજાના":10418,"▁શાંતિથી":10419,"▁બોર્ડર":10420,"▁બ્રહ્માં":10421,"▁ફર્સ્ટ":10422,"▁હિમાલય":10423,"▁ચુકાદો":10424,"ક્ષ્ણ":10425,"ક્યો":10426,"▁સક":10427,"▁સદર":10428,"▁બલિ":10429,"વી.\n":10430,"▁સુવા":10431,"▁રહયા":10432,"▁ખાબ":10433,"▁ઇકો":10434,"▁ઇવેન્ટ":10435,"ભાઈના":10436,"▁ચૂપ":10437,"▁બનતી":10438,"▁બનવું":10439,"▁વિશ્વભરમાં":10440,"▁99":10441,"▁અભ્યાસમાં":10442,"▁સાહેબે":10443,"▁મથકે":10444,"▁પ્રોત્સાહિત":10445,"▁ફાળવણી":10446,"▁સંવેદના":10447,"▁મુલાકાતે":10448,"▁રિટર્ન":10449,"▁અછત":10450,",3":10451,"▁વટ":10452,"▁સામુ":10453,"ાય.":10454,"▁પાવ":10455,"▁ધો.":10456,"લેષ":10457,"▁સંધ્યા":10458,"સેક":10459,"મીની":10460,"▁ક્રિસ":10461,"ડોર":10462,"▁કોરોનાનો":10463,"▁અંગેના":10464,"▁કોઇને":10465,"▁પ્રયાગ":10466,"▁કઈક":10467,"િકારક":10468,"▁બંધારણ":10469,"▁છઠ્ઠા":10470,"▁આલ":10471,"▁મસ્તી":10472,"▁ઉચિત":10473,"શેા":10474,"▁નાસ્તા":10475,"ારી,":10476,"▁ઝાર":10477,"▁અનુષ્":10478,"▁66":10479,"▁આકર્ષિત":10480,"▁પ્રિન્ટ":10481,"▁પ્રવૃતિ":10482,"▁સંબોધન":10483,"▁હકીકતમાં,":10484,"▁દીપિકા":10485,"ન\n":10486,"હવે":10487,"ન્ડી":10488,"▁રામા":10489,"▁એકથી":10490,"▁આવવાથી":10491,"સાથ":10492,"▁રોમેન્ટિક":10493,"▁હિલ":10494,"▁ભૂલો":10495,"મુનિ":10496,"▁ગાંધીજી":10497,"▁સુખદ":10498,"▁ભાષાના":10499,"▁ગઇકાલે":10500,"▁ગરીબો":10501,"▁મેટલ":10502,"▁વાગ્યાથી":10503,"▁સપનું":10504,"▁શાસ્ત્રીય":10505,"▁ફાર્મ":10506,"▁રાત્રીના":10507,"ઉપ":10508,"ફ્યુ":10509,"▁પ્યા":10510,"▁અરિ":10511,"માંજ":10512,"▁મતિ":10513,"▁બચા":10514,"▁સ્ક્":10515,"▁બેલ":10516,"▁સિઝન":10517,"▁યુકે":10518,"▁મિલિ":10519,"▁તમારાં":10520,"▁ગોપાલ":10521,"▁વિસ્તરણ":10522,"▁થીમ":10523,"▁ઉપાડ":10524,"▁ગર્ભવતી":10525,"▁સઘળા":10526,"▁સૂત્રોએ":10527,"▁બગડી":10528,"▁ઉતાવળ":10529,"▁ઉન્નતિ":10530,"ઝિક":10531,"ફની":10532,"▁આભ":10533,"▁રક્ષ":10534,"રેસ્ટ":10535,"▁પોઝી":10536,"▁નિફ્ટી":10537,"સીંગ":10538,"તોના":10539,"િંગમાં":10540,"▁તેમનામાં":10541,"▁બહારની":10542,"▁ગામડાં":10543,"▁પૂરતું":10544,"▁શકાશે":10545,"▁આંખોમાં":10546,"▁મથકમાં":10547,"▁રાજકારણમાં":10548,"▁રાજેન્દ્ર":10549,"▁અયોધ્યા":10550,"▁પઢ":10551,"▁મટા":10552,"▁ભઠ્ઠી":10553,"▁ઉગ":10554,"કે.":10555,"ષ્ટી":10556,"▁રહેલાં":10557,"▁સહભાગી":10558,"▁85":10559,"▁ઉઠાવ":10560,"▁ગણાતા":10561,"▁જબરદસ્ત":10562,"મ્ર":10563,"▁બૈ":10564,"▁પાતા":10565,"▁જાપ":10566,"▁થઇ,":10567,"ધાન્ય":10568,"▁ખોદ":10569,"દુઃ":10570,"▁કાંઇક":10571,"▁શીખવા":10572,"▁રજપૂ":10573,"▁ધ્વનિ":10574,"ંકારા":10575,"▁બસમાં":10576,"▁ઉન":10577,"▁ઉંડા":10578,"▁દીલ":10579,"▁નોટો":10580,"▁ઊભે":10581,"▁૫૫":10582,"▁ડીઝ":10583,"▁ડીલ":10584,"▁વહેલા":10585,"▁અકબર":10586,"▁ઉદ્યોગપતિ":10587,"▁સિક્યો":10588,"▁ભંડાર":10589,"ોનું":10590,"▁મક્":10591,"▁માજી":10592,"▁ઉઠે":10593,"▁કોન્સ":10594,"નુસાર":10595,"વારથી":10596,"▁રાજકુમાર":10597,"▁સેન્સે":10598,"▁બોટા":10599,"▁પીસી":10600,"▁વચ્ચેનો":10601,"▁ઠાર":10602,"▁ગરદન":10603,"▁અમદાવાદ,":10604,"▁એનર્જી":10605,"▁અવાજે":10606,"▁કહેવાતા":10607,"▁સ્પોર્ટ્સ":10608,"▁ન્યાયાધી":10609,"તનું":10610,"▁અદ્ય":10611,"▁છે.તે":10612,"▁વિખ્યાત":10613,"▁આપવો":10614,"▁વધ્યા":10615,"દ્દે":10616,"▁લેખો":10617,"સ્ટાર":10618,"▁વેરા":10619,"▁પહેાંચ":10620,"▁હિમ":10621,"▁વખતે,":10622,"▁2010":10623,"▁૧૯૯":10624,"▁નાખવાની":10625,"▁સફળતાપૂર્વક":10626,"▁પાતળા":10627,"ખની":10628,"▁મગર":10629,"▁વિલાય":10630,"▁નામાં":10631,"▁ઉપસ્થિતિ":10632,"▁મુદત":10633,"▁અમૂલ":10634,"▁ટેપ":10635,"▁૫૪":10636,"▁જન્મા":10637,"▁નહોતું.":10638,"▁પ્રભુને":10639,"▁પક્ષીઓ":10640,"▁ડિસ્કાઉન્ટ":10641,"▁છૂટાછેડા":10642,"▁પોરબંદર":10643,"▁સરોવર":10644,"લૉ":10645,"ૅન્ડ":10646,"▁ગળામાં":10647,"▁ખટ":10648,"▁ખનિ":10649,"▁ફસા":10650,"▁નિરૂ":10651,"વિના":10652,"▁જીવો":10653,"શાહે":10654,"▁ભાગવ":10655,"▁શિલા":10656,"▁શ્રીરામ":10657,"▁બદલાય":10658,"▁સર્વત્ર":10659,"▁દેખાડ":10660,"▁બ્લુ":10661,"▁બ્રાન્ચ":10662,"▁આંદોલ":10663,"▁યૂઝ":10664,"ઉસ":10665,"પ્રી":10666,"૨૪":10667,"▁અષા":10668,"▁મલે":10669,"▁મથા":10670,"▁દંત":10671,"▁શ્વ":10672,"▁થનારા":10673,"▁ભ્રા":10674,"ડાથી":10675,"▁ખાલ":10676,"િલ્લો":10677,"▁દાદી":10678,"▁જુઓ,":10679,"▁ચેતના":10680,"▁53":10681,"પુટ":10682,"▁રસિક":10683,"▁લીધા.":10684,"▁2007":10685,"▁યોજાયેલી":10686,"▁અહુર":10687,"▁ભજવે":10688,"▁સ્વરૂપો":10689,"▁નેગેટિવ":10690,"એલા":10691,"ખમાં":10692,"જળ":10693,"નામા":10694,"▁હડ":10695,"▁પરદેશ":10696,"▁ફસાઈ":10697,"▁ખાદ":10698,"પૂજા":10699,"▁58":10700,"▁શોભા":10701,"▁જણાઈ":10702,"▁ભારતનું":10703,"▁૪૬":10704,"ફાઇ":10705,"▁પાર્ટીની":10706,"▁ગાયબ":10707,"▁ભાગીદાર":10708,"▁સૂચનો":10709,"▁નિર્મળ":10710,"▁સંકલન":10711,"▁બજાવતા":10712,"▁પડોશી":10713,"▁વોટ્સએપ":10714,"મૃત":10715,"▁તથ":10716,"▁લસણ":10717,"લ્ટા":10718,"▁ઉપાયો":10719,"સેવા":10720,"▁તેનામાં":10721,"▁રાખવાથી":10722,"▁પ્રતિસાદ":10723,"▁શરીરે":10724,"▁મહેન":10725,"વર્તી":10726,"▁હૃદયના":10727,"▁ખેડૂતોએ":10728,"▁સાયબર":10729,"▁સંકેતો":10730,"▁વિકાસના":10731,"છું":10732,"▁કસ":10733,"▁સશ":10734,"▁માક":10735,"રીતે":10736,"▁સ્કુ":10737,"લોકન":10738,"▁પીવાના":10739,"▁૩૯":10740,"▁સ્ટેડિય":10741,"▁ઘટાડ":10742,"▁પુસ્તકમાં":10743,"▁પ્રીફેક":10744,"▁250":10745,"▁મંદિરે":10746,"▁આગેવાન":10747,"▁ઘૂંટ":10748,"▁સનાતન":10749,"નંદ":10750,"▁સર્ટિ":10751,"▁અવન":10752,"▁આનું":10753,"▁રતિ":10754,"▁ગળ":10755,"ન્ગ":10756,"▁હતેા":10757,"જાતિ":10758,"▁લે.":10759,"▁પુત્રો":10760,"▁પેનલ":10761,"સરની":10762,"▁ડેબ":10763,"▁વ્યાપી":10764,"▁અંદરના":10765,"▁મતભેદ":10766,"▁બોલતા":10767,"▁યાદવે":10768,"▁હજારની":10769,"▁માર્ગમાં":10770,"▁પ્રકાશમાં":10771,"▁ગયેા":10772,"▁મ્હો":10773,"ંગ્લો":10774,"▁સ્થળાંતર":10775,"▁ઢોર":10776,"▁કેશવ":10777,"▁પ્રકાશન":10778,"ગર્ભ":10779,"ડન":10780,"પતા":10781,"▁પ્રિયા":10782,"લીવુડ":10783,"▁પોલ":10784,"સાધ":10785,"▁મોજ":10786,"▁નીલ":10787,"▁સેમિ":10788,"▁ભાગવત":10789,"▁ગોલ":10790,"▁વિનાના":10791,"▁ટ્રેન્ડ":10792,"▁સૂરજ":10793,"▁લોકપ્રિયતા":10794,"▁રૂપાણીએ":10795,"▁પુરવઠો":10796,"▁મ્યુઝિક":10797,"▁કોન્ફરન્સ":10798,"▁માણેક":10799,"▁થિયેટર":10800,"વશ":10801,"સ્પો":10802,"મેશન":10803,"▁જોયો":10804,"▁કાઠ":10805,"બામાં":10806,"▁ટેબ":10807,"વાળાને":10808,"પુરની":10809,"▁વગેરેના":10810,"▁પેટર્ન":10811,"▁હૃદયની":10812,"▁પાકિસ્તાનમાં":10813,"ધ્ધા":10814,"▁સેનાપતિ":10815,"▁અમેરિકી":10816,"▁સિંહા":10817,"▁અસ્તિત્વમાં":10818,"▁અસ્થિર":10819,"▁હિમાચલ":10820,"▁ફોટોગ્રાફ":10821,"યની":10822,"▁અભાવે":10823,"▁વખા":10824,"▁એહ":10825,"▁ફકત":10826,"▁ધણું":10827,"▁તેમ,":10828,"▁દેવો":10829,"વિષ":10830,"સીય":10831,"▁પેરા":10832,"▁બીએસ":10833,"▁ઝળ":10834,"▁કિસ":10835,"▁તરીકેની":10836,"▁આપે.":10837,"▁પ્રોગ્રા":10838,"▁લીધો.":10839,"▁વારવાર":10840,"▁રહ્યું.":10841,"▁જાણીતું":10842,"▁પાડતા":10843,"▁ભુલ":10844,"▁તત્ત્":10845,"▁અગ્રે":10846,"▁બોર્ડની":10847,"▁ચાંદી":10848,"સૂત્ર":10849,"▁તજવીજ":10850,"▁ખર્ચાળ":10851,"▁આશિષ":10852,"▁હાઇડ્રો":10853,"▁પ્રતિષ્ઠિત":10854,"વંશ":10855,"▁પસ્તા":10856,"▁ભાનુ":10857,"▁સુસંગત":10858,"▁ઉપે":10859,"▁રેતી":10860,"▁મિલી":10861,"▁વખતના":10862,"▁ડિવિઝન":10863,"▁67":10864,"▁બધો":10865,"▁વૈદિક":10866,"▁નવલ":10867,"▁કેન્દ્રો":10868,"ગુણુ":10869,"▁દ્રશ્યો":10870,"▁હોઈએ":10871,"▁એન્જી":10872,"▁શક્યતાઓ":10873,"▁સભ્યોની":10874,"▁કચ્છના":10875,"▁ડ્રાય":10876,"▁2017માં":10877,"▁સર્વોચ્ચ":10878,"▁સ્વામિનારાયણ":10879,"▁પુનરાવર્તન":10880,"▁બેક્ટેરિયા":10881,"સરમાં":10882,"▁આઇટ":10883,"▁હર્":10884,"ન્તા":10885,"▁ચણા":10886,"▁કોઠ":10887,"પેટ":10888,"પેડ":10889,"▁ફેમિ":10890,"▁રિટેલ":10891,"▁ફરમા":10892,"▁જગતને":10893,"▁જિલ્લાઓમાં":10894,"▁દેખાયા":10895,"▁કિંમતી":10896,"▁ત્રીસ":10897,"▁ચૂક્યો":10898,"▁પ્રભાવશાળી":10899,"▁નિરાકરણ":10900,"▁ઉમદા":10901,"▁જાડેજા,":10902,"▁દિગ્ગજ":10903,"▁ફરીયાદ":10904,"ગળ":10905,"લાકી":10906,"▁કોક":10907,"દીન":10908,"શાસન":10909,"▁સિમ":10910,"▁રૂૂ":10911,"▁હેલિકો":10912,"▁સોન":10913,"પર,":10914,"▁ડિપાર્ટમેન્ટ":10915,"▁મેળે":10916,"▁સૂકા":10917,"▁પેાતાનાં":10918,"▁સ્થાનમાં":10919,"▁થાડી":10920,"▁પક્ષની":10921,"▁ઘેરી":10922,"▁અનુભૂતિ":10923,"▁ન્યૂઝીલેન્ડ":10924,"▁વડોદરામાં":10925,"▁પ્રતિબંધિત":10926,"▁કયાંથી":10927,"▁તકેદારી":10928,"▁માબાપ":10929,"નિર્ભર":10930,"▁સવારી":10931,"તીત":10932,"▁બેભાન":10933,"સ્તાર":10934,"▁કામ,":10935,"▁નામ,":10936,"ળેા":10937,"▁4,":10938,"▁નોંધ્યું":10939,"▁લાખનો":10940,"▁મહિલાના":10941,"▁મહેલ":10942,"શ્ચિક":10943,"▁108":10944,"▁વગેરેની":10945,"▁આજરોજ":10946,"▁દીધો.":10947,"▁રશિયાના":10948,"▁ખિસ્સા":10949,"▁ગામોમાં":10950,"▁વર્ચ્યુઅલ":10951,"▁ફાઉન્ડેશન":10952,"▁ટાર્ગેટ":10953,"ખના":10954,"થલ":10955,"હરી":10956,"નાલ્ડ":10957,"▁વહન":10958,"▁તેણીના":10959,"▁શૉ":10960,"▁પાટા":10961,"▁વાસુ":10962,"▁ને?":10963,"નિટી":10964,"▁પીછો":10965,"શુલ":10966,"▁રાશિમાં":10967,"▁કિસ્સાઓમાં":10968,"▁સઘન":10969,"▁જીતીને":10970,"▁મોંઘી":10971,"▁ગેરકાયદે":10972,"▁ચકચાર":10973,"▁થાં":10974,"▁પર.":10975,"ારે,":10976,"▁ખાણ":10977,"▁ખાત":10978,"▁રેમ":10979,"▁રેસીપી":10980,"▁ક્વિ":10981,"ર્ટમ":10982,"▁હાથની":10983,"▁બદલો":10984,"▁નોંધવું":10985,"▁મદદની":10986,"▁અંદરની":10987,"▁કરાવ્યું":10988,"▁120":10989,"▁ટ્રાયલ":10990,"▁સિદ્ધાર્થ":10991,"▁આઇ.":10992,"▁સ્ટેશનના":10993,"▁જમવા":10994,"▁યોજાયો":10995,"▁પદ્ધતિઓ":10996,"▁અપાઈ":10997,"▁સ્ટીલ":10998,"▁અંબાણી":10999,"▁લોકસભાની":11000,"▁મંત્રાલયના":11001,"▁જ્હો":11002,"▁પ્રણામ":11003,"▁ખારાક":11004,"▁બપોરના":11005,"4માં":11006,"90":11007,"નાથી":11008,"▁લહે":11009,"▁સાવર":11010,"▁સંયમ":11011,"ંતરે":11012,"▁રોપ":11013,"▁પડવાની":11014,"▁મૂડ":11015,"▁પીતા":11016,"▁નામદાર":11017,"ત્વના":11018,"ક્સમાં":11019,"▁જગતની":11020,"▁૪૩":11021,"▁નેતાઓને":11022,"▁પ્રભુના":11023,"▁તિથિ":11024,"ઘે":11025,"શિક":11026,"સૈ":11027,"▁કઢ":11028,"▁જેએ":11029,"▁જોતી":11030,"▁સુત્રો":11031,"▁મેલે":11032,"▁નિયુક્ત":11033,"▁નેહ":11034,"▁રોયલ":11035,"હિર":11036,"ણુમાં":11037,"▁ખેલે":11038,"િંગની":11039,"▁શિખા":11040,"▁57":11041,"▁મોટાભાગે":11042,"▁ચીને":11043,"▁ભર્યું":11044,"▁અનત":11045,"▁દીધાં":11046,"▁ફરિયાદમાં":11047,"▁કેટલીકવાર":11048,"▁સ્મશાન":11049,"▁જર્મન":11050,"ઘો":11051,"યિક":11052,"ેશ":11053,"▁અપર":11054,"▁વાલ્":11055,"▁ધમા":11056,"▁કોમે":11057,"▁કોમ્પ્યુટર":11058,"▁મેથી":11059,"▁બાજી":11060,"▁સેગ":11061,"▁પ્રતિકાર":11062,"▁શીર્ષ":11063,"▁૫૦૦":11064,"▁મહારાજે":11065,"▁ઑન":11066,"▁અરજીઓ":11067,"▁સગર્":11068,"▁માથુ":11069,"▁વિકાસની":11070,"▁વેળાએ":11071,"ક્ષેત્રમાં":11072,"▁કોન્ટ્રાક્ટ":11073,"ખરે":11074,"ડમ":11075,"▁અમ્":11076,"▁બર્થ":11077,"▁ખસ":11078,"▁ચન્દ્ર":11079,"▁જે,":11080,"▁જોબ":11081,"▁બેરોજ":11082,"કીટ":11083,"▁રહેવાથી":11084,"▁પછીની":11085,"▁કહુ":11086,"▁દેશોની":11087,"▁જૂને":11088,"▁ભેગી":11089,"વ્યવહાર":11090,"▁પક્ષે":11091,"▁હળવદ":11092,"▁સધળા":11093,"વાસના":11094,"▁નર્":11095,"▁ભદ્ર":11096,"ટેશન":11097,"▁પણે":11098,"પીઠ":11099,"▁સર્ક":11100,"▁મહામંત્રી":11101,"▁સ્થિતિમાં,":11102,"▁અર્થવ્યવસ્થા":11103,"▁પત્નીએ":11104,"▁ઝાડા":11105,"▁નિષ્ઠા":11106,"▁ખેડૂતોના":11107,"▁બળવાન":11108,"▁જીતવા":11109,"▁પરાક્રમ":11110,"સ્તિક":11111,"▁ગુલાબી":11112,"▁પરેશાની":11113,"▁ગૂંચ":11114,"▁યુનિટ":11115,"▁સપ્તાહમાં":11116,"▁સમીક્ષાઓ":11117,"▁આરાધના":11118,"▁ચોંકાવ":11119,"પત્તિ":11120,"ભદ્ર":11121,"વિત":11122,"૮૦":11123,"▁તકરાર":11124,"▁માઉન્ટ":11125,"▁ખાવું":11126,"ક્ષમતા":11127,"▁મેવા":11128,"▁હાત":11129,"વું.\n":11130,"▁તાલા":11131,"▁સેનાના":11132,"▁ઊંડી":11133,"બ્સ":11134,"▁એસટી":11135,"▁જોડાય":11136,"▁કોલેજના":11137,"▁દાયકામાં":11138,"▁દોષિત":11139,"▁વિસર્જન":11140,"▁દીવસ":11141,"▁પોરબંદ":11142,"▁ચિંતન":11143,"▁ફર્નિચર":11144,"ભય":11145,"▁રખા":11146,"▁કર.":11147,"▁કરશો.":11148,"▁શર્ટ":11149,"▁ગટર":11150,"▁ફૅ":11151,"▁તોફાન":11152,"▁સિક્કા":11153,"▁પીરસ":11154,"▁લાગશે.":11155,"▁પ્રેશર":11156,"▁સ્ટાર્ટ":11157,"▁ધોની":11158,"▁ઘટાડી":11159,"▁આઇફોન":11160,"▁કોર્પોરેટર":11161,"▁સ્પર્ધામાં":11162,"▁બેસાડી":11163,"▁સોફ્ટવેર":11164,"▁પ્રદર્શિત":11165,"▁ક્ષત્રિય":11166,"▁માર્ગદર્શિકા":11167,"▁અદ્યતન":11168,"અલી":11169,"ચ્યા":11170,"ચર્સ":11171,"દત્ત":11172,"ભવન":11173,"૧૩":11174,"▁પલા":11175,"▁સસરા":11176,"▁અષ્ટ":11177,"▁આઘાત":11178,"▁નિકો":11179,"▁કેસર":11180,"▁ખારી":11181,"બાગ":11182,"▁લીક":11183,"▁મિની":11184,"▁કિશન":11185,"▁લાખના":11186,"▁કોંગ્રેસમાં":11187,"▁9.":11188,"▁આસન":11189,"▁પુરુષા":11190,"▁એલર્જી":11191,"▁કાયદાકીય":11192,"▁પૃથ્વીના":11193,"▁ટુકડાઓ":11194,"▁બ્લોગ":11195,"ફાય":11196,"૧.":11197,"▁જવુ":11198,"▁આમાંથી":11199,"▁કોર્સ":11200,"▁સુધા":11201,"▁સુશાંત":11202,"▁બેટ":11203,"▁રહેતું":11204,"▁એમનાં":11205,"▁જાય.\n":11206,"▁51":11207,"▁ફિલ્મને":11208,"▁ફાઈલ":11209,"▁બુલ":11210,"▁અસરો":11211,"દેવના":11212,"▁ઇન્સ્પે":11213,"▁જીત્યા":11214,"▁ચૌદ":11215,"▁લખેલા":11216,"▁દરિયાઈ":11217,"▁સેલ્ફી":11218,"▁ઊભું":11219,"પદી":11220,"વરા":11221,"▁કસો":11222,"▁કબુલ":11223,"▁અષ":11224,"▁મચાવી":11225,"▁દન":11226,"▁લલિત":11227,"ક્લ":11228,"▁આપ્યુ":11229,"સેા":11230,"▁બીન":11231,"▁પ્રાધાન્ય":11232,"▁આપી,":11233,"▁ચોપરા":11234,"▁મન,":11235,"▁કરોડનું":11236,"▁ટ્રેનિંગ":11237,"▁શાળાઓમાં":11238,"▁આરોપીની":11239,"▁અગિયાર":11240,"▁ચાંદ":11241,"▁કાર્યોમાં":11242,"▁ધુમા":11243,"▁વ્હીલ":11244,"▁સમ્રાટ":11245,"▁કોન્સ્ટેબલ":11246,"જનમાં":11247,"થન":11248,"મણા":11249,"▁પારે":11250,"▁હસ્તી":11251,"▁કરના":11252,"લાંગ":11253,"▁લતા":11254,"▁રાકેશ":11255,"ન્ટલ":11256,"▁શાસક":11257,"▁હેત":11258,"▁શેક":11259,"▁ડાઇ":11260,"▁વોલ્યુ":11261,"▁અકસ્માતની":11262,"▁બિનજરૂરી":11263,"લ્યુશન":11264,"▁નાનપણ":11265,"▁ઇનકાર":11266,"▁વાઘેલા":11267,"આની":11268,"ઈઓ":11269,"છુ":11270,"▁પારા":11271,"▁બૂમ":11272,"▁લૂં":11273,"ટેલા":11274,"▁ધબ":11275,"▁ધડા":11276,"ટીશ":11277,"સેટ":11278,"પાટ":11279,"▁ઓ.":11280,"▁પેક":11281,"યેલો":11282,"▁પરિપૂર્ણ":11283,"▁ડેરી":11284,"સ્પર્":11285,"▁વૃશ્ચિક":11286,"▁શોધમાં":11287,"▁ચીજવસ્તુ":11288,"▁કેબિને":11289,"▁રાઠોડ":11290,"▁પ્રેક્ટિસ":11291,"▁હાનિકારક":11292,"ટરમાં":11293,"નવી":11294,"વલ્લી":11295,"▁પંત":11296,"▁સમાં":11297,"વાત":11298,"▁એનિ":11299,"લ્સ,":11300,"ડાનું":11301,"▁લેખા":11302,"્યુલર":11303,"▁યાત્રી":11304,"વાયત":11305,"▁ભાવથી":11306,"▁૪૨":11307,"▁સમજતા":11308,"▁કોલેજો":11309,"▁અદભૂત":11310,"▁ગોઠવી":11311,"▁આતંકવાદ":11312,"▁કર્ણાટક":11313,"▁થએલા":11314,"▁કાઉન્સિલ":11315,"ફિકેશન":11316,"ણનો":11317,"સલા":11318,"▁રગ":11319,"સ્તાં":11320,"▁આપવાથી":11321,"▁આપવાને":11322,"▁પો.":11323,"જાને":11324,"▁બોસ":11325,"▁સર્જના":11326,"મણિ":11327,"કલ્યા":11328,"▁ટ્રેનમાં":11329,"ભીત":11330,"▁સ્ટોપ":11331,"▁ખેડૂતોની":11332,"▁સબંધી":11333,"▁ઓરડામાં":11334,"▁સર્જાઈ":11335,"ચક્ર":11336,"યૂ":11337,"ના\n":11338,"▁છંટ":11339,"▁નાત":11340,"દામાં":11341,"તાં.":11342,"ડેલી":11343,"પી.":11344,"▁ઊતરી":11345,"▁વરસી":11346,"▁અધિકૃત":11347,"▁વિશ્વસનીય":11348,"ણાંક":11349,"▁મામલા":11350,"▁ઝાલા":11351,"▁સુધારે":11352,"▁યુનિયન":11353,"▁ગુમાવ":11354,"▁એક્સચે":11355,"▁2022માં":11356,"▁નિરંતર":11357,"▁લીધું.":11358,"▁પ્રવક્તા":11359,"▁જીલ્લામાં":11360,"▁પ્રચંડ":11361,"▁લંડન":11362,"▁બપોર":11363,"▁સ્ટ્રીટ":11364,"▁અત્યાચાર":11365,"▁અમલીકરણ":11366,"પં":11367,"▁આદુ":11368,"▁બટ":11369,"ન્તી":11370,"કાથી":11371,"▁વાંસ":11372,"▁લાજ":11373,"યુગ":11374,"▁રેટિંગ":11375,"▁વાતમાં":11376,"▁જવાહર":11377,"ર્થ્ય":11378,"▁જાણવાની":11379,"સ્તાનના":11380,"▁જીવનશૈ":11381,"▁સૂઈ":11382,"દેવની":11383,"▁વિશેષતા":11384,"........":11385,"▁હાઈકોર્ટે":11386,"▁પુરવાર":11387,"▁ઉદ્ઘાટન":11388,"▁યોજાશે.":11389,"▁સંભળાવ":11390,"▁ઈજાગ્રસ્ત":11391,"▁હોટલમાં":11392,"▁હૉસ્પિટ":11393,"▁એસ્ટેટ":11394,"▁હથિયારો":11395,"▁કારે":11396,"માતા":11397,"▁તર્":11398,"▁પાળે":11399,"▁રામે":11400,"▁કાલા":11401,"લેણ":11402,"▁સમજૂ":11403,"▁ખાતું":11404,"▁યુધિ":11405,"▁પડયા.":11406,"▁સીટો":11407,"પર્ય":11408,"▁શિશુ":11409,"▁માર્ચે":11410,"▁પહોંચવા":11411,"▁પગમાં":11412,"▁પ્રોપર્":11413,"▁ટકાના":11414,"▁કીધે":11415,"▁નિર્ભર":11416,"▁એસપી":11417,"▁મંત્રીએ":11418,"▁મુંબઈઃ":11419,"▁બીજાં":11420,"▁જર્મની":11421,"▁જપ":11422,"▁હાનિ":11423,"▁પ્રદ":11424,"▁આપતો":11425,"▁આપનારા":11426,"▁સંસ્":11427,"▁બાઉ":11428,"▁ઝૂં":11429,"▁દાસી":11430,"▁ખૂણે":11431,"▁શિવાય":11432,"▁ચોંકી":11433,"ક્સ,":11434,"▁મનથી":11435,"▁યોજી":11436,"▁આરબી":11437,"▁પ્રજાપતિ":11438,"▁રાજકોટની":11439,"▁હુમલામાં":11440,"▁મુખ્યમંત્રીએ":11441,"▁રુચિ":11442,"▁સાચુ":11443,"▁મુસાફરોને":11444,"▁ફેબ્રુઆરીએ":11445,"▁ટાઇમ":11446,"ભ્રમણ":11447,"પુરૂષ":11448,"▁એપિસો":11449,"ગરો":11450,"▁મા,":11451,"▁કેલ":11452,"સ્ડ":11453,"▁ભરાય":11454,"▁જેતે":11455,"▁સાથેનો":11456,"▁ખાતાં":11457,"▁પુરો":11458,"▁હેલ્પ":11459,"▁અનુયા":11460,"તરફ":11461,"▁બાદ,":11462,"▁ટેકરી":11463,"▁શિંદે":11464,"▁બનાવતા":11465,"શુદ્ધ":11466,"▁છુ.":11467,"ક્ષેપો":11468,"▁વળાંક":11469,"▁યુનિવર્સિટીમાં":11470,"▁પાસપોર્ટ":11471,"▁સન્માનિત":11472,"▁યુવાનોને":11473,"▁રાજેશ":11474,"▁હસ્તાક્ષર":11475,"અે":11476,"વરે":11477,"સગઢ":11478,"િતી":11479,"૪૦":11480,"▁પય":11481,"▁છત્તી":11482,"▁કરિ":11483,"▁જોવી":11484,"િકારી":11485,"ધીને":11486,"▁ઇન્ટ":11487,"▁ચોકડી":11488,"▁જીવનનો":11489,"▁અવશેષ":11490,"▁થાકી":11491,"▁ઇન્સ્ટો":11492,"▁વિધાનસભામાં":11493,"▁તારણ":11494,"▁અવિરત":11495,"▁હોત.":11496,"▁ઠંડુ":11497,"▁ડાયાબિટી":11498,",4":11499,"માણિક":11500,"વાડે":11501,"તાપૂર્વક":11502,"રાદ":11503,"▁ઉપનિષ":11504,"▁પેટી":11505,"▁૧\n":11506,"▁ગાથા":11507,"હાની":11508,"▁મિલક":11509,"શી,":11510,"ુકુ":11511,"મુના":11512,"▁સભાન":11513,"▁કરાવ્યો":11514,"▁નાખ્યો":11515,"▁આખરી":11516,"▁ભૂમિકામાં":11517,"▁સાવધાની":11518,"▁ઉજવવામાં":11519,"▁રણવીર":11520,"▁મજૂર":11521,"ંય":11522,"જત":11523,"▁અપૂર્ણ":11524,"લાદ":11525,"▁ઘણે":11526,"▁સંકુ":11527,"▁સમિટ":11528,"▁મેહે":11529,"▁મેગે":11530,"પાલન":11531,"ટા,":11532,"▁રીતિ":11533,"▁જણાવતા":11534,"▁આગલા":11535,"▁હાથમાંથી":11536,"▁કાંતિ":11537,"▁વૈશા":11538,"▁દિલ્હી,":11539,"▁લેખન":11540,"▁યોજનામાં":11541,"▁૧૯૩":11542,"▁જંગી":11543,"▁વ્યવસાયિક":11544,"▁ખસેડ":11545,"▁વચમાં":11546,"▁એપ્રિલે":11547,"▁ચૌહાણ":11548,"▁વંચિત":11549,"ગમત":11550,"કેતુ":11551,"વિષ્ટ":11552,"▁વર્થ":11553,"▁તા,":11554,"▁ઈમાર":11555,"▁ત્યાંની":11556,"જન,":11557,"નારની":11558,"▁વૃષભ":11559,"▁સંબંધોમાં":11560,"▁ગાંધીનગરમાં":11561,"▁દુનિયાને":11562,"▁સ્પષ્ટપણે":11563,"▁નિયમોનું":11564,"▁સમજાવે":11565,"▁મહત્ત્વની":11566,"▁બચ્ચન":11567,"▁સંતુલન":11568,"▁વાજબી":11569,"▁તકનીકી":11570,"▁તમિલનાડુ":11571,"▁કટોકટી":11572,"પચારિક":11573,"ઘી":11574,"વાયુ":11575,"▁મટે":11576,"લીશ":11577,"રોનો":11578,"▁રહેવાના":11579,"▁સોજો":11580,"▁શોપિંગ":11581,"ળો,":11582,"▁તુલા":11583,"▁સ્પિન":11584,"▁ભાઈઓ":11585,"▁ફીટ":11586,"▁ક્ષેત્રના":11587,"▁સ્ટાઇ":11588,"▁શકાતી":11589,"▁સેનાએ":11590,"▁કિંમતમાં":11591,"▁તુરંત":11592,"▁ઉદ્દેશ્ય":11593,"▁દલપત":11594,"▁સાબરમતી":11595,"▁પંકજ":11596,"ચમાં":11597,"▁છવાઈ":11598,"▁મ.":11599,"▁બ્યુ":11600,"▁નાગા":11601,"▁મુદ":11602,"▁ઓરિ":11603,"્યાં.\n":11604,"▁ગુલ":11605,"▁ખાટી":11606,"▁કહેવાથી":11607,"▁રેન્જ":11608,"▁સોની":11609,"▁પીએ":11610,"▁ત્યાંજ":11611,"▁ટેમ્":11612,"▁જવાય":11613,"▁તરફના":11614,"▁યોગે":11615,"▁ડાબા":11616,"▁અરસામાં":11617,"▁દુઃખા":11618,"▁કાર્બન":11619,"ારૂપ":11620,"▁હૃદયને":11621,"▁પામ્યો":11622,"▁અધ્યયન":11623,"▁મુશ્કેલીમાં":11624,"▁એડવો":11625,"▁લડત":11626,"▁પંજાબના":11627,"▁અશ્વિ":11628,"▁બંન્ને":11629,"હારે":11630,"ો.\n":11631,"▁પત્રો":11632,"▁સચિ":11633,"▁અક્":11634,"▁મણી":11635,"ાવન":11636,"▁સમર":11637,"કારના":11638,"▁નથી?":11639,"▁રેશ":11640,"▁કુવા":11641,"▁ક્લો":11642,"▁સૌર":11643,"▁અભય":11644,"▁મળે,":11645,"▁વ્યક્તિનું":11646,"▁ગઈ,":11647,"▁મહિલાની":11648,"▁કરોડનો":11649,"▁વિના,":11650,"▁દર્દીના":11651,"▁૭૫":11652,"▁વસૂલ":11653,"▁કર્મચારીઓની":11654,"▁માંડવી":11655,"ષેધ":11656,"▁વિપક્ષી":11657,"▁પરમાર,":11658,"▁કેજરીવાલે":11659,"▁અસ્વસ્થ":11660,"ંબર":11661,"▁મંગા":11662,"▁વત":11663,"▁આપણુ":11664,"▁કાઠી":11665,"▁તમાકુ":11666,"▁નેપા":11667,"▁કહેવાની":11668,"પ્રભુ":11669,"▁વખતની":11670,"▁વરરાજા":11671,"▁થયેલો":11672,"▁જીવલેણ":11673,"▁રંગે":11674,"▁ગરમા":11675,"▁ગાયકવા":11676,"▁૯૦":11677,"▁2009":11678,"▁પુરૂષો":11679,"▁અખબાર":11680,"▁માથાના":11681,"▁ગ્રંથા":11682,"▁પહેરવા":11683,"▁બિલ્ડીંગ":11684,"▁ઉમેરવામાં":11685,"▁ઉભું":11686,"▁અગત્યનું":11687,"▁સ્કીમ":11688,"▁યજમ":11689,"▁અઢાર":11690,"પતી":11691,"ૃા":11692,"▁પળે":11693,"▁સાર્થ":11694,"▁તિલ":11695,"▁સાઇન":11696,"મે,":11697,"▁સુભાષ":11698,"▁સેલે":11699,"નિકા":11700,"શીએ":11701,"▁પીડિ":11702,"▁આવ્યા.\n":11703,"▁ફોજ":11704,"▁ચિંતિ":11705,"▁બધાએ":11706,"▁ટ્રેડિંગ":11707,"▁ઘરમાંથી":11708,"▁કદાપિ":11709,"▁ગર્ભા":11710,"▁કાશ્મીરમાં":11711,"▁પુછપરછ":11712,"મંડળ":11713,"▁ગોળીબાર":11714,"▁યુઝર્સ":11715,"▁શ્રીમદ્":11716,"▁અથડામણ":11717,"ખ,":11718,"▁રવી":11719,"▁માપદ":11720,"્યાના":11721,"▁લાદ":11722,"▁બાપા":11723,"▁ભાંગ":11724,"▁વર્તે":11725,"▁સેટિંગ":11726,"શાલ":11727,"▁બીબી":11728,"▁કહેવત":11729,"▁મહિનો":11730,"ડો,":11731,"▁બંધન":11732,"▁ટકા,":11733,"▁જણાતા":11734,"વર્ધન":11735,"▁દર્દીઓના":11736,"▁શકાતું":11737,"▁બોર્ડના":11738,"▁સ્થિરતા":11739,"▁અદૃશ્ય":11740,"▁સૌરાષ્ટ્રમાં":11741,"▁શ્રદ્ધાળુ":11742,"▁ગુંદર":11743,"▁અનોખી":11744,"ંમત":11745,"કશન":11746,"જવર":11747,"દરે":11748,"મિયા":11749,"વસ":11750,"▁આસ્થા":11751,"▁તેડી":11752,"▁માસની":11753,"▁સાદી":11754,"▁સાનુ":11755,"નોએ":11756,"કોમ":11757,"▁ટાવર":11758,"▁ખેંચા":11759,"▁દિવા":11760,"▁પાછાં":11761,"▁જ્યાંથી":11762,"▁કરાવ્યા":11763,"ન્યાસ":11764,"▁વાર્તાઓ":11765,"▁વ્યવસાયમાં":11766,"▁સૌરાષ્ટ્રના":11767,"▁પૂછ્યું.\n":11768,"▁બિલ્ડ":11769,"▁છોકરાઓ":11770,"▁આઝાદ":11771,",6":11772,"ળક":11773,"▁સજ":11774,"▁આભારી":11775,"▁દ્રો":11776,"▁વિલા":11777,"▁જેત":11778,"▁પાવન":11779,"▁રામના":11780,"▁મોતને":11781,"ારા,":11782,"▁દુલ્":11783,"લિપ":11784,"▁જાણ્યા":11785,"▁મારામારી":11786,"▁અપલોડ":11787,"▁પ્રસરી":11788,"▁પાડ્યો":11789,"▁ઇન્સ્ટિટ":11790,"▁અહેવા":11791,"▁શ્વેત":11792,"▁ઉછાળો":11793,"▁ગર્લફ્રેન્ડ":11794,"▁એજ્યુકેશન":11795,"▁સર્જનાત્મક":11796,",7":11797,"૬૦":11798,"▁અહા":11799,"▁રખે":11800,"▁દષ્ટિ":11801,"▁લિંગ":11802,"▁સાકર":11803,"▁ઉન્":11804,"▁ફ્રો":11805,"▁ટંકારા":11806,"▁રહેવાનો":11807,"▁ઇં":11808,"▁જાણવામાં":11809,"ર્ષિ":11810,"▁અધિકારીઓની":11811,"▁બોલર":11812,"▁આટલો":11813,"▁ઇચ્છિત":11814,"▁સાઉદી":11815,"▁ખોલવામાં":11816,"▁નારાજગી":11817,"24":11818,"ગસ":11819,"▁બલ્":11820,"▁સાથેજ":11821,"▁ઇક્":11822,"▁રીંગ":11823,"▁માંહે":11824,"▁તથાપિ":11825,"ભાઈની":11826,"▁આવ્યો.\n":11827,"▁ઠપ":11828,"▁દેખાવા":11829,"▁નિષ્ક્રિય":11830,"▁૧૯૭":11831,"હરચના":11832,"▁લખ્યું,":11833,"▁પાસવર્ડ":11834,"▁મથુ":11835,"▁હસતાં":11836,"▁જાતિના":11837,"▁બંગાળ":11838,"▁ડોલરની":11839,"▁પેસેન્જર":11840,"ભક્ત":11841,"વયે":11842,"ાજ":11843,"▁તસ્ક":11844,"▁અરૂ":11845,"▁માહી":11846,"ટેક્ટ":11847,"▁ફૉ":11848,"▁કોમેન્ટ":11849,"▁હો,":11850,"્યોને":11851,"▁ઘરને":11852,"▁કારના":11853,"▁હતી\n":11854,"▁યુએ":11855,"હિણી":11856,"▁વેલે":11857,"▁દેશનું":11858,"▁ટેન્":11859,"▁ફેસ્ટ":11860,"બેલ":11861,"▁ટાળી":11862,"▁ગુજરાતને":11863,"▁ગાંધીને":11864,"▁દીધે":11865,"▁ત્રિશુલ":11866,"▁આર્કિ":11867,"કન્યા":11868,"હ્":11869,"▁સખ્યા":11870,"્યમ":11871,"▁રજની":11872,"▁વારમાં":11873,"▁વાંધા":11874,"▁નીચી":11875,"▁મળ્યો.":11876,"પીએસ":11877,"▁વધુને":11878,"ક્રાંતિ":11879,"મોલ":11880,"▁રાજ્યપાલ":11881,"▁પાણી,":11882,"▁વિચારવા":11883,"▁દો.\n":11884,"▁જેટલાં":11885,"▁પ્રક્રિયાઓ":11886,"▁મેળવ્યું":11887,"▁ચાંદીના":11888,"▁સ્વયંસેવ":11889,"▁ખળભ":11890,"▁ચિંતિત":11891,"પણા":11892,"▁પમા":11893,"▁અદ્ર":11894,"▁છપ":11895,"▁આધીન":11896,"▁કેબલ":11897,"▁ઉધા":11898,"▁ઇસ્ત":11899,"પ્લા":11900,"▁એમનો":11901,"▁ગાજર":11902,"▁રેગ્યુ":11903,"▁યાને":11904,"▁પાણીનું":11905,"ક્ટરમાં":11906,"▁લીધુ":11907,"▁મહિલાઓની":11908,"▁સમજણ":11909,"▁સંખ્યાબંધ":11910,"▁અટલ":11911,"▁શરૂઆતના":11912,"શ્વત":11913,"▁ગાયક":11914,"મૂર્તિ":11915,"▁રાત્રિના":11916,"▁થાંભ":11917,"કમા":11918,"ફટ":11919,"▁પું":11920,"▁પની":11921,"▁પચી":11922,"▁છરી":11923,"▁નયન":11924,"લાભ":11925,"ન્સિંગ":11926,"▁એક,":11927,"▁ધસ":11928,"▁લાવીને":11929,"મીક":11930,"▁ઓઝા":11931,"▁ઓમિક":11932,"▁જીવવા":11933,"▁મળ્યા.":11934,"▁વેકેશન":11935,"▁એમજ":11936,"▁રેફ":11937,"▁ડિપો":11938,"▁પ્રેમના":11939,"બેને":11940,"વિધ્ય":11941,"ફેક્શન":11942,"▁કર્મી":11943,"▁હરકત":11944,"▁સુધારી":11945,"▁સાતમા":11946,"▁પૂરતો":11947,"▁એક્ટિ":11948,"▁સંચાલક":11949,"▁ગ્રેજ્યુ":11950,"▁ગ્રીક":11951,"▁ડિસ્પ્લે":11952,"▁શ્રુત":11953,"▁સંસદમાં":11954,"▁લાક્ષણિકતા":11955,"▁પર્સનલ":11956,"ન.":11957,"પત્રો":11958,"▁ન.":11959,"▁વાચક":11960,"▁નાયક":11961,"▁સં.":11962,"ળાએ":11963,"ળાટ":11964,"પરંતુ":11965,"▁માણસના":11966,"▁ડોકટર":11967,"▁ભર્યા":11968,"દિપ":11969,"▁ઘરનું":11970,"લયમાં":11971,"▁એટલુંજ":11972,"▁૧૮૮":11973,"▁સ્વાસ્થ્યને":11974,"▁રમતગમત":11975,"▁સમર્પણ":11976,"▁ઈન્ટરનેશનલ":11977,"▁સંપાદન":11978,"▁કઠોર":11979,"▁વિસ્ફોટ":11980,"▁સમયાંતરે":11981,"▁એક્સપર્ટ":11982,"વૈયા":11983,"▁સત્કાર":11984,"▁તરે":11985,"▁ભગા":11986,"▁ઉર":11987,"▁તેમનુ":11988,"▁પોઝિ":11989,"▁ટૅ":11990,"▁હાવી":11991,"પાક":11992,"▁પેશી":11993,"▁ચાહે":11994,"▁રોકડા":11995,"▁શકે?":11996,"ણુની":11997,"▁અનુકરણ":11998,"▁સામેના":11999,"▁..\n":12000,"▁અવલોકન":12001,"▁ખોટો":12002,"▁રૂપિયાથી":12003,"▁68":12004,"▁વસ્તુની":12005,"▁ભરવાની":12006,"મર્યા":12007,"▁કર્ક":12008,"▁નાંખ્યા":12009,"▁નહોતા.":12010,"▁ક્રિયાઓ":12011,"▁મેટાં":12012,"▁માથામાં":12013,"▁મૈં":12014,"▁બીજેપી":12015,"▁કનેક્શન":12016,"▁ડૂબ":12017,"▁પાંદડાં":12018,"ક્યુમેન્ટ":12019,"▁કાફલો":12020,"▁અંકુશ":12021,"▁ળ":12022,"વાળે":12023,"▁જરુ":12024,"▁બંદર":12025,"▁નઈ":12026,"▁કેન":12027,"▁પ્રસા":12028,"રોડ":12029,"▁બેબી":12030,"▁વર્તા":12031,"▁સિલિ":12032,"ગામી":12033,"નિસ":12034,"▁દીર્":12035,"▁તરુ":12036,"તુ,":12037,"▁પહોંચ્યા.":12038,"▁શકાય,":12039,"▁ગેલે":12040,"▁હૈ.":12041,"▁સ્વીકારે":12042,"▁રજૂઆ":12043,"▁પત્રકારો":12044,"▁મોબાઈ":12045,"▁દર્શકો":12046,"▁સેન્ટરમાં":12047,"▁રૂપાણી":12048,"▁ઉલટી":12049,"▁કોહલીએ":12050,"મહારા":12051,"▁બ્લાસ્ટ":12052,"▁સબ્":12053,"▁એલો":12054,"ર્નિંગ":12055,"▁ગાયો":12056,"▁લટક":12057,"▁ખજ":12058,"ક્સેસ":12059,"▁ચડા":12060,"▁નામને":12061,"▁લાકે":12062,"▁શકશો":12063,"ત્યાર":12064,"જનિક":12065,"▁શેટ્ટી":12066,"▁ચાલકે":12067,"▁કેમિકલ":12068,"▁193":12069,"▁અરવલ્લી":12070,"ખોર":12071,"▁પદવી":12072,"▁ટ્રાન્":12073,"▁શરૂઆતથી":12074,"▁ખરેખર,":12075,"▁વિરોધમાં":12076,"▁સ્પેસ":12077,"▁2018માં":12078,"▁છેાડી":12079,"▁વ્યૂહરચના":12080,"ને\n":12081,"▁આકરા":12082,"સ્મિક":12083,"▁વાસ્તુ":12084,"લેમ":12085,"▁ટાય":12086,"▁સીડી":12087,"જો.\n":12088,"▁વિચારવાનો":12089,"▁દિને":12090,"▁59":12091,"▁શોક":12092,"▁કંઈપણ":12093,"▁બનાવવાના":12094,"▁માધુ":12095,"▁સગાં":12096,"▁અફવા":12097,"▁સંતુલિત":12098,"▁વપરાશકર્તાઓ":12099,"▁જન્મેલા":12100,"▁ફેક્ટરી":12101,"ગારો":12102,"પું":12103,"▁જબ":12104,"▁અજ્ઞા":12105,"તિ,":12106,"▁પાવા":12107,"▁પાલી":12108,"▁કાલિ":12109,"▁કોં":12110,"રો.":12111,"▁જામી":12112,"▁કારને":12113,"▁તાલી":12114,"▁છો?\n":12115,"▁કિરી":12116,"▁ખુલ્લું":12117,"▁રિસોર્ટ":12118,"▁ફરતી":12119,"▁બિરાજ":12120,"▁હાય.":12121,"▁ખોટ":12122,"▁પંપ":12123,"▁દિવસોથી":12124,"▁ડૉક્ટ":12125,"▁કબૂ":12126,"▁પ્રવાસન":12127,"▁ઇજાગ્રસ્ત":12128,"▁વિરૂધ્ધ":12129,"▁રથયાત્રા":12130,"▁આચરણ":12131,"▁અવરજવર":12132,"▁પોઝીટીવ":12133,"જ્યારે":12134,"ટકે":12135,"યંત્ર":12136,"▁કદર":12137,"▁બૃહ":12138,"્યાની":12139,"▁સુમ":12140,"જા,":12141,"સે,":12142,"▁મોટાં":12143,"▁બીસીસી":12144,"▁શક્યું":12145,"▁ભૂકં":12146,"▁શ્રીજી":12147,"▁દર્દ":12148,"▁કંપનીઓએ":12149,"▁વસ્તુઓને":12150,"▁છાલ":12151,"▁હશે?":12152,"▁ગૃહસ્થા":12153,"▁વેપારમાં":12154,"▁પ્રકરણમાં":12155,"▁ધ્વજ":12156,"ભ્યા":12157,"િસ્ટ":12158,"▁નક્કર":12159,"ર્જર":12160,"▁માટા":12161,"▁લલ":12162,"▁લ્યુ":12163,"▁ખસી":12164,"▁ચંદન":12165,"▁રાધે":12166,"▁જોડીને":12167,"▁કોબી":12168,"િત,":12169,"▁મેક્સ":12170,"▁ઇશ":12171,"▁બીલ":12172,"▁જાણ્યું":12173,"▁રાજ્યને":12174,"▁62":12175,"▁ગણપતિ":12176,"▁પાછળની":12177,"▁૧૯૫":12178,"▁સમુદ":12179,"▁બાંધકા":12180,"▁મુકવા":12181,"▁ઠાકો":12182,"▁ખુશીથી":12183,"▁નિકળ":12184,"ભિન્ન":12185,"▁ઉદ્ધવ":12186,"▁સાબરકાંઠા":12187,"▁એસોસિએશન":12188,"▁સિક્યોરિટી":12189,"▁ઇસ્તંબુ":12190,"ગટ":12191,"ગાન":12192,"ણક":12193,"યમાં":12194,"▁કમો":12195,"▁કપૂ":12196,"્યના":12197,"▁શ્યા":12198,"સ્થી":12199,"▁ભટક":12200,"▁પાછે":12201,"▁રાષ્ટ":12202,"▁સુખે":12203,"વિયે":12204,"લોના":12205,"▁રાખવો":12206,"▁ખેદ":12207,"▁ચેટ":12208,"▁પ્રોસેસ":12209,"▁જૂદા":12210,"▁અસરગ્રસ્ત":12211,"▁યાદગાર":12212,"▁વાંચન":12213,"▁બાજુના":12214,"▁તીક્ષ્ણ":12215,"▁કવિએ":12216,"▁ત્યાગી":12217,"▁દારૂના":12218,"▁બિલિયન":12219,"ૂહિક":12220,"▁પોર્ટલ":12221,"▁વિશ્ર્વ":12222,"▁ગંદકી":12223,"!!\n":12224,"ઠુ":12225,"બિન":12226,"▁સસ્ત":12227,"▁કરિય":12228,"▁કરાયેલી":12229,"તાપ":12230,"▁ગાર્":12231,"▁ગદ્ય":12232,"રાથી":12233,"▁ખલે":12234,"▁ઉંઘ":12235,"વેશન":12236,"ાવવાનો":12237,"▁હોર્મો":12238,"▁હોસ્પી":12239,"▁હામ":12240,"▁લોડ":12241,"▁કહેતી":12242,"▁રહી,":12243,"▁સામેથી":12244,"▁દિપક":12245,"ાયેલાં":12246,"▁શરદી":12247,"▁સાચવી":12248,"▁૧૫૦":12249,"▁જાળવવા":12250,"▁સભ્યોને":12251,"▁પ્રશાંત":12252,"▁જુઓ.":12253,"▁પરિણામે,":12254,"▁સંબંધીઓ":12255,"▁દુકાનમાં":12256,"▁સંકળાયેલ":12257,"▁જ્વેલ":12258,"▁નેતૃત્વમાં":12259,"▁મરાઠી":12260,"▁યેાગ્ય":12261,"શઃ":12262,"▁આશ્વાસ":12263,"▁સાન":12264,"▁સ્ક્ર":12265,"▁રાઉ":12266,"▁કાજ":12267,"કારણ":12268,"▁ટર્મ":12269,"▁કહેવાનું":12270,"ખીને":12271,"▁પડે.\n":12272,"▁પગની":12273,"▁બીજાની":12274,"▁અંજામ":12275,"▁પાછળનું":12276,"▁ચર્ચાઓ":12277,"▁સિવાયના":12278,"િકોણ":12279,"▁પૂરક":12280,"▁પરિસ્થિતિને":12281,"▁સાહિત્યમાં":12282,"પ્રેમી":12283,"▁લખેલું":12284,"▁રાખો.\n":12285,"▁જગાએ":12286,"▁ધંધામાં":12287,"▁મહાનગરપાલિકા":12288,"▁હતેા.":12289,"▁લક્ષ્મણ":12290,"▁છંટકાવ":12291,"▁છત્તીસગઢ":12292,"▁એડવોકેટ":12293,"2માં":12294,"એ.\n":12295,"ચની":12296,"ટિન":12297,"▁તસ્વી":12298,"નેરી":12299,"▁હટાવી":12300,"ન્ધ":12301,"▁ઉણ":12302,"▁રાશી":12303,"▁નાબૂ":12304,"▁નાઈટ":12305,"▁રહે.\n":12306,"▁રીપોર્ટ":12307,"ન્ટની":12308,"▁હેરા":12309,"લિયો":12310,"▁ચેમ્બર":12311,"▁શેરમાં":12312,"▁સાંભળતા":12313,"▁સામૂહિક":12314,"▁વૈવિધ્ય":12315,"▁78":12316,"▁સત્તાવાળા":12317,"▁બાકીની":12318,"▁ખેલ્યા":12319,"▁વ્યાખ્યાન":12320,"▁વાંચીને":12321,"▁છિદ્ર":12322,"▁વિકેટે":12323,"૨,":12324,"▁કવા":12325,"▁સાધી":12326,"▁પાગલ":12327,"▁વાલ":12328,"▁નિધિ":12329,"▁મોડા":12330,"▁લેવાને":12331,"▁ખાવી":12332,"▁શાન્ત":12333,"ચા,":12334,"▁કુમ":12335,"▁ખેતર":12336,"▁ચિર":12337,"▁પાર્વતી":12338,"▁બેઠાં":12339,"▁૪૭":12340,"▁સામ્ય":12341,"તમંદ":12342,"▁લક્ષ્યાં":12343,"▁સાંભળ્યા":12344,"▁પ્રમાણિક":12345,"▁ઉમટી":12346,"▁મ્હને":12347,"▁પરિવહ":12348,"▁કક્ષાએ":12349,"▁યુધિષ્ઠ":12350,"ચકિત":12351,"બલી":12352,"વૉ":12353,"શિવ":12354,"▁છલ":12355,"▁દવાની":12356,"▁ગાન":12357,"▁ઉક":12358,"▁ચંચ":12359,"જાએ":12360,"▁નિપુ":12361,"્રેટ":12362,"▁તાણ":12363,"▁સેન્સર":12364,"▁રૂઢિ":12365,"ગાહ":12366,"▁કહેલા":12367,"▁છોડવા":12368,"મિલ":12369,"ન્યૂ":12370,"▁પ્રાકૃત":12371,"▁જણાયું":12372,"▁તરફ્":12373,"▁મદન":12374,"▁થયેલાં":12375,"▁10.":12376,"▁વિવિધતા":12377,"એસપી":12378,"▁ગાંધીની":12379,"▁દ્રારા":12380,"▁ઇન્ડેક્સ":12381,"બિંદુ":12382,"▁કરનારને":12383,"▁હત્યાના":12384,"▁ગતિવિધિ":12385,"▁અંગ્રેજીમાં":12386,"▁મિથુન":12387,"▁કબ્જે":12388,"▁સુનીલ":12389,"▁ફેસ્ટિવ":12390,"45":12391,"ઘ્":12392,"જારી":12393,"વાસમાં":12394,"▁અરી":12395,"▁માઇલ":12396,"ંગત":12397,"▁હોળી":12398,"▁સમન્":12399,"▁ટૉ":12400,"ટામાં":12401,"▁ગુનામાં":12402,"▁લેબ":12403,"▁ખાધા":12404,"▁ઝવે":12405,"▁દોસ્ત":12406,"ટ્સે":12407,"▁બોલ્યો":12408,"▁શક્તિને":12409,"▁એલસીબી":12410,"▁૧૦૮":12411,"▁સબસ્ક":12412,"▁સૂર્યના":12413,"▁વાદળ":12414,"કુંડ":12415,"▁નિમિત્ત":12416,"▁બુકિંગ":12417,"▁ઊંચું":12418,"▁લાકડાના":12419,"▁ઉત્તેજન":12420,"▁દિકરી":12421,"▁ફસાયેલા":12422,"▁તરફેણમાં":12423,"લક્ષ્મી":12424,"આમાં":12425,"ઈઝ":12426,"ડતાં":12427,"ધિકાર":12428,"ૂફ":12429,"▁સજાવ":12430,"▁છૅ":12431,"ન્નાથ":12432,"▁પણ્":12433,"▁ફ્રિ":12434,"▁ફગાવી":12435,"▁ધરમાં":12436,"▁હા.":12437,"સીમ":12438,"▁લીટી":12439,"મોટા":12440,"▁ચેરી":12441,"▁યાર":12442,"▁ઘણીજ":12443,"ડિટી":12444,"ગોળ":12445,"▁૪૯":12446,"▁77":12447,"▁વોશિંગ":12448,"▁માંગુ":12449,"▁મોરબીમાં":12450,"▁ઠાકુર":12451,"▁જાન્યુઆરીએ":12452,"▁ધિક્":12453,"▁ઝારખંડ":12454,"1.":12455,"▁સચો":12456,"▁અજબ":12457,"▁અયોગ્ય":12458,"▁છાવ":12459,"▁ભળી":12460,"▁કોની":12461,"▁કોવિ":12462,"▁સુરે":12463,"▁ઉપયા":12464,"▁લેવ":12465,"▁ઇંદ":12466,"▁પેશ":12467,"▁સિમેન્ટ":12468,"ન્ડિ":12469,"સિહ":12470,"▁મિસ":12471,"▁ફાટ":12472,"▁ગયો,":12473,"▁કપલ":12474,"▁ગયું.\n":12475,"▁વિકસા":12476,"▁વિકૃતિ":12477,"▁ભયભીત":12478,"▁ગર્ભાવસ્થા":12479,"▁બગીચામાં":12480,"▁રંગીન":12481,"▁સાથોસાથ":12482,"ચમ":12483,"૧,":12484,"માદ":12485,"▁અગી":12486,"▁બળી":12487,"તાબ":12488,"▁નાદ":12489,"▁વધશે":12490,"▁લેકે":12491,"નાં,":12492,"▁રહી.\n":12493,"▁મિશ્રા":12494,"▁ત્યાંસુધી":12495,"▁પ્રા.":12496,"▁સહયોગી":12497,"▁બિચારા":12498,"▁જગત્":12499,"▁600":12500,"▁સામર્થ્ય":12501,"▁સમજાવવા":12502,"▁ચૂંટણીની":12503,"▁કમલ":12504,"▁થોડીક":12505,"▁સ્તંભ":12506,"▁બાબતોમાં":12507,"▁મેન્યુ":12508,"▁ઝુંબેશ":12509,"જલી":12510,"▁કડા":12511,"▁પારો":12512,"▁અતુ":12513,"▁વચના":12514,"ર્મી":12515,"▁ગં":12516,"▁જોષી":12517,"દાએ":12518,"▁ખાધ":12519,"▁ઝગ":12520,"▁પડયો":12521,"▁સીઝ":12522,"▁પ્રાણા":12523,"▁શેરોમાં":12524,"▁ટકાઉ":12525,"▁63":12526,"▁ડીવી":12527,"▁સંગ્ર":12528,"▁વિદ્યાર્થીઓની":12529,"▁૬૫":12530,"▁પ્રત્યેની":12531,"▁ક્રિકેટમાં":12532,"▁અંકિત":12533,"▁નિકળી":12534,"▁દૈવી":12535,"▁અર્થાત":12536,"▁મોંઘા":12537,"▁જગદીશ":12538,"▁પ્રદૂષણ":12539,"કૉ":12540,"બાયો":12541,"હ્ન":12542,"▁સલ્":12543,"▁જરાય":12544,"▁છેલ્લો":12545,"નીત":12546,"▁કરજ":12547,"▁દશે":12548,"▁ગઝ":12549,"▁ગૂં":12550,"▁કેાઈ":12551,"કાદ":12552,"કાશી":12553,"▁મળ્યાં":12554,"શાક":12555,"▁મિ.":12556,"▁સોર્સ":12557,"▁ચેન્ન":12558,"▁વિચારને":12559,"▁ચાલ્યું":12560,"▁ડોક્યુમેન્ટ":12561,"જ્જુ":12562,"▁હતુ,":12563,"▁જોડાવા":12564,"▁જાનથી":12565,"▁પોસ્ટમો":12566,"▁ન્યૂન":12567,"▁માનવતા":12568,"▁બેંકના":12569,"▁ઘોષણા":12570,"▁પ્રશ્નોના":12571,"▁વિચારીને":12572,"▁જીલ્લાના":12573,"▁વ્હાઇટ":12574,"▁ચલણ":12575,"▁સમારોહમાં":12576,"▁ઇન્સ્યુ":12577,"ગુજરાત":12578,"1માં":12579,"▁િ":12580,"▁આબો":12581,"▁હારા":12582,"▁મલિક":12583,"▁દઉં":12584,"▁કેચ":12585,"▁ફિલ":12586,"▁નાળ":12587,"▁આવકમાં":12588,"સ્ટ્રો":12589,"િલ્ડ":12590,"▁ઈન્દ":12591,"▁રાખો,":12592,"ખાઈ":12593,"▁વ્યકત":12594,"▁ક્ષમ":12595,"▁લાગે.":12596,"ણોમાં":12597,"▁શબ્દના":12598,"▁આખુ":12599,"▁આશય":12600,"▁માનીને":12601,"▁ઉતરે":12602,"▁મૂલ્યવાન":12603,"છોડ":12604,"▁કૌશલ્ય":12605,"▁હેન્ડલ":12606,"▁પાઇપ":12607,"▁કારોબારી":12608,"▁નિરૂપણ":12609,"▁જરુરી":12610,"▁સયા":12611,"▁નસ":12612,"▁દઇએ":12613,"રાણિક":12614,"કાવી":12615,"▁એકને":12616,"રોલ":12617,"▁જાએ":12618,"સાહિત્ય":12619,"▁બેંગ્લો":12620,"નિષ્ઠ":12621,"▁સોનુ":12622,"▁ટીપાં":12623,"▁ડિફે":12624,"▁ખોર":12625,"▁કંપનીઓને":12626,"▁ગેહ":12627,"▁યોજનાનો":12628,"▁કરાવવાની":12629,"▁વિકાસને":12630,"▁રવિવાર":12631,"▁પહોંચાડવા":12632,"▁ફાયરિંગ":12633,"▁શાસ્ત્રમાં":12634,"▁ઉમેદવારોને":12635,"▁પર્યંત":12636,"▁ચિહ્":12637,"▁ઇલેક્ટ્રોનિક":12638,"▁ષડ":12639,"▁દેવેન્દ્ર":12640,"▁દંપતી":12641,"▁ઈમરાન":12642,"▁દિવ્યાંગ":12643,"▁ઓલિમ્પિક":12644,"શત":12645,"▁પવાર":12646,"વાતા":12647,"▁જસદ":12648,"▁આજીવન":12649,"▁આક્ષેપો":12650,"▁વળવા":12651,"▁રડવા":12652,"▁બજાવ":12653,"▁ખરૂ":12654,"▁માટેજ":12655,"▁ધૃ":12656,"▁કોમ્પ":12657,"તેજ":12658,"▁ઘટક":12659,"ણાએ":12660,"▁લેશ":12661,"ન્ડર્ડ":12662,"▁પરિભ્રમણ":12663,"▁ચેલે":12664,"▁સાંસદો":12665,"▁ક્ષેત્રની":12666,"આરપી":12667,"▁અંધાર":12668,"▁કાપીને":12669,"▁કેસોમાં":12670,"▁ઢગલા":12671,"▁ધોધમાર":12672,"હ્યા":12673,"▁આંત":12674,"▁ઉષા":12675,"▁ઉપલે":12676,"▁ડરી":12677,"▁વધવાની":12678,"▁સિલ્વર":12679,"▁રાખવાના":12680,"ખા,":12681,"ખાનામાં":12682,"ચાલી":12683,"▁મિલન":12684,"▁દિવસનો":12685,"▁વિચારધારા":12686,"▁કરતાં,":12687,"▁મદ્રા":12688,"▁અપક્ષ":12689,"▁તેવીજ":12690,"▁વિદ્યાર્થીઓના":12691,"▁કાર્તિક":12692,"▁આત્મનિર્ભર":12693,"▁શૈલીમાં":12694,"▁પ્રસંગો":12695,"▁લાઈટ":12696,"▁એક્સેસ":12697,"▁જામનગરમાં":12698,"▁વાસ્તવિકતા":12699,"▁હરાવી":12700,"▁દહાડે":12701,"▁મશરૂ":12702,"ત્યારે":12703,"હારો":12704,"▁કતલ":12705,"માર્ક":12706,"્યારી":12707,"▁મફ":12708,"▁બળવા":12709,"કાવ્ય":12710,"▁ધેર":12711,"▁વધ્યો":12712,"દીય":12713,"▁રોમન":12714,"▁ઈસુ":12715,"▁ગાઠ":12716,"લુએ":12717,"▁અપાવ":12718,"▁નિષ્ણાં":12719,"▁કરીએ.":12720,"▁અતિથિ":12721,"▁રાખેલ":12722,"▁લેાકાને":12723,"▁મનુષ્યની":12724,"▁કાયદાની":12725,"કૃષ્":12726,"▁સંતાનો":12727,"▁વિધાર્થી":12728,"▁ફાઈનલ":12729,"ડ્ડ":12730,"▁એકાદશી":12731,"▁ઘેાડી":12732,"▁મેકઅપ":12733,"▁હેલિકોપ્ટર":12734,"આએ":12735,"ચું":12736,"ધ,":12737,"▁ાય":12738,"▁કળી":12739,"▁અસ્ત":12740,"ારના":12741,"▁રણુ":12742,"▁દ્વ":12743,"▁દખલ":12744,"▁ગજે":12745,"ણે,":12746,"મ્બે":12747,"▁વરસની":12748,"▁ચાલ્યો":12749,"▁કંપનીઓના":12750,"▁થયો.\n":12751,"▁૫૨":12752,"▁ડોનાલ્ડ":12753,"રાજની":12754,"▁વગરની":12755,"▁નજીકમાં":12756,"▁ઓળખાણ":12757,"▁નિર્ણયને":12758,"▁નેતાઓએ":12759,"▁લગાવ્યા":12760,"▁દરિયામાં":12761,"▁કથન":12762,"▁જયેશ":12763,"▁પ્રાઈવેટ":12764,"▁કન્ટ":12765,"▁જ્યાર":12766,"▁આત્":12767,"▁આલેખ":12768,"▁નટ":12769,"▁પાઘ":12770,"▁રાઘ":12771,"િક,":12772,"દા,":12773,"▁કહેલું":12774,"▁સીન":12775,"▁મીલ":12776,"▁ખુલી":12777,"▁યંગ":12778,"▁નોંધાયેલા":12779,"▁છતાંય":12780,"▁મધ્યે":12781,"▁૫૬":12782,"ચરલ":12783,"▁ફરિયાદી":12784,"▁નહોતા":12785,"▁કાઇને":12786,"▁ગ્રન્થ":12787,"▁ધમધ":12788,"▁શકાશે.\n":12789,"▁મોકલવા":12790,"▁સરખામ":12791,"▁ગમતું":12792,"▁સર્જાય":12793,"▁બંગાળમાં":12794,"▁અપનાવી":12795,"ધ્યક્ષ":12796,"▁વિકાસમાં":12797,"▁પ્રીમિયમ":12798,"▁સત્સંગ":12799,"▁અનુષ્કા":12800,"▁મક્કમ":12801,"▁સચોટ":12802,"ઈંગ":12803,"ફાં":12804,"▁તેણીની":12805,"▁ગય":12806,"▁સાચે":12807,"▁ફફ":12808,"▁પામતા":12809,"જાની":12810,"▁બેનર":12811,"વિવાદ":12812,"▁દરકાર":12813,"▁દુની":12814,"▁મિસા":12815,"▁વાત,":12816,"વરણીય":12817,"▁મહાસભા":12818,"▁ડેડ":12819,"▁સમજાયું":12820,"▁વિભાગને":12821,"▁વાંચે":12822,"▁બારણું":12823,"▁ગ્રેડ":12824,"▁ટોચની":12825,"▁ઉમેરો.":12826,"▁ઘડિયાળ":12827,"▁અસ્પષ્ટ":12828,"▁જ્વાળા":12829,"▁એમ્બ્યુલન્સ":12830,"▁રચા":12831,"▁પ્રમ":12832,"▁કોપી":12833,"▁સુભ":12834,"ાં,":12835,"ંડમાં":12836,"▁સીરીઝ":12837,"પોર":12838,"▁કાર્યને":12839,"▁દિલમાં":12840,"▁પ્રકારો":12841,"▁ફરીને":12842,"▁માણવા":12843,"રાજને":12844,"▁અસલી":12845,"▁સમસ્યાને":12846,"▁લીધે,":12847,"▁આરોપીએ":12848,"▁જિને":12849,"▁જીત્યો":12850,"▁રિપોર્ટ્સ":12851,"લેાક":12852,"ચ્છેદ":12853,"▁યજમાન":12854,"▁પશ્ચિમી":12855,"▁ક્વાર્ટ":12856,"▁સાર્વજનિક":12857,"▁સાક્ષાત્કાર":12858,"▁પ્રાઇવેટ":12859,"▁મેડીકલ":12860,"શબ્":12861,"▁કફ":12862,"વાન્":12863,"▁નડિયા":12864,"▁શૂર":12865,"▁ભૈ":12866,"▁ચ્":12867,"▁સુકા":12868,"▁સંદેશા":12869,"▁મુકીને":12870,"સામે":12871,"શ્નર":12872,"▁રહેવુ":12873,"▁ઈનિંગ":12874,"▁ચેકિંગ":12875,"▁બીજાના":12876,"▁લાગેલા":12877,"વાળાએ":12878,"ભાઇએ":12879,"▁વગેરેને":12880,"▁જ્ઞાનની":12881,"▁શ્રવણ":12882,"▁દ્રષ્ટ":12883,"▁૮.":12884,"▁સ્ટાન્ડર્ડ":12885,"▁તૈયારીમાં":12886,"▁ઐશ્વર":12887,"▁નાનકડા":12888,"▁પ્રોડક્શન":12889,"▁કોમ્યુ":12890,"▁અશ્વિન":12891,"▁સુલતાન":12892,"૭માં":12893,"▁ક૨":12894,"▁કટિ":12895,"▁પટ્ટા":12896,"▁જહે":12897,"▁મણુ":12898,"▁પ્રત્યા":12899,"▁થર":12900,"▁ખંજ":12901,"▁સ્લે":12902,"▁હોસ્ટે":12903,"▁જાગે":12904,"▁લે,":12905,"▁લેખે":12906,"પ્પુ":12907,"▁કહાની":12908,"▁પડ્યો.":12909,"▁લાગ્યાં.":12910,"▁ઊપ":12911,"▁સરકારનો":12912,"▁પ્રતિક":12913,"▁ક્ષુ":12914,"▁ફિલ્મી":12915,"▁પ્રોટો":12916,"▁ખીન્ન":12917,"▁આંખા":12918,"શ્ચિ":12919,"▁ઢે":12920,"▁જયંતી":12921,"▁નિર્ણાયક":12922,"▁વાળને":12923,"▁નારદ":12924,"▁અગત્યની":12925,"▁મંજુર":12926,"▁બગાડ":12927,"▁વારાણ":12928,"▁કતાર":12929,"▁બહિ":12930,"▁હોલ્ડ":12931,"▁મોકો":12932,"લોલ":12933,"▁કરેલાં":12934,"▁ઈમરજન્સી":12935,"જનની":12936,"ળેલા":12937,"▁કર્યા,":12938,"▁બાળકોમાં":12939,"ફામ":12940,"▁98":12941,"▁લાગી.\n":12942,"▁પત્નીની":12943,"▁મૃત્યુના":12944,"▁ઋણ":12945,"▁મુંબઈની":12946,"▁ચુપ":12947,"▁એન્ડ્રો":12948,"▁ગ્લા":12949,"▁પરિવર્ત":12950,"▁બહાને":12951,"▁ડાયાબિટીસ":12952,"▁તોફાની":12953,"ગથી":12954,"દલ":12955,"પદે":12956,"શયો":12957,"હરિ":12958,"▁કવી":12959,"▁માનુ":12960,"▁ભકિત":12961,"ન્હા":12962,"▁ચક્કર":12963,"▁કરીના":12964,"▁કાલી":12965,"તેલા":12966,"▁ઘરો":12967,"▁ટાયર":12968,"▁વેઠ":12969,"સરથી":12970,"▁દાળ":12971,"▁ટેલી":12972,"▁પ્રેમને":12973,"▁મારામાં":12974,"▁ઉમેરા":12975,"▁ધર્મનું":12976,"તંત્ર્ય":12977,"જિકલ":12978,"▁લાઇક":12979,"▁સઘળી":12980,"▁2021માં":12981,"ફુલ":12982,"▁આજુબાજુના":12983,"▁અબ્દુલ":12984,"▁વેક્સીન":12985,"▁સેન્સેક્સ":12986,",8":12987,"શ્યામ":12988,"▁તદન":12989,"▁મતા":12990,"રીયલ":12991,"▁પાને":12992,"▁ના.":12993,"▁ધ્ર":12994,"ટાના":12995,"▁આગમ":12996,"છાયા":12997,"▁ફોનમાં":12998,"▁પ્રતિબદ્ધ":12999,"▁ટ્રેક્ટર":13000,"પિતા":13001,"▁મજબૂ":13002,"▁ફ્રેમ":13003,"▁વ્યવહારમાં":13004,"▁રસોડામાં":13005,"▁અન્વયે":13006,"▁એપ્રિલના":13007,"▁ક્વાર્ટર":13008,"▁તળિયે":13009,"▁અરુણ":13010,"▁સરખામણીએ":13011,",9":13012,"ંઢ":13013,"ચાય":13014,"ફિટ":13015,"બર્ટ":13016,"૭,":13017,"▁સ્ર":13018,"▁જખ":13019,"▁પાકને":13020,"▁વાંદ":13021,"ાનંદ":13022,"▁સંધ":13023,"▁ઉપદ્ર":13024,"▁લોકલ":13025,"વિકા":13026,"▁ઇનામ":13027,"▁રાજવી":13028,"હિતા":13029,"મિની":13030,"▁૨\n":13031,"▁દાતા":13032,"▁ભાવો":13033,"▁મનપા":13034,"▁બોલ્યો.\n":13035,"▁ભાઈ,":13036,"▁તિવારી":13037,"▁નવેમ્બરે":13038,"▁વિભાજિત":13039,"▁પંચાયતના":13040,"▁જાડેજાએ":13041,"▁રજિસ્ટ્રેશન":13042,"▁રાજપૂત":13043,"▁ચેન્નાઈ":13044,"▁માખણ":13045,"26":13046,"28":13047,"ન્યુ":13048,"ૂંક":13049,"▁સસ્તી":13050,"▁અરો":13051,"ટેન":13052,"▁કાવ્યા":13053,"▁સમીર":13054,"▁હતા\n":13055,"▁મુકામ":13056,"▁ઓઇલ":13057,"▁પુત્રા":13058,"ગીય":13059,"▁યુવાને":13060,"હાસ":13061,"▁અધમ":13062,"▁જુની":13063,"વાથી,":13064,"▁રિલેશન":13065,"▁નોંધાયું":13066,"▁દૂરથી":13067,"▁સ્થાના":13068,"▁લાગી,":13069,"▁મેચની":13070,"▁રાજકોટ,":13071,"▁સ્ટોરેજ":13072,"▁એલચી":13073,"▁કાયદાના":13074,"▁ગતિશીલ":13075,"▁સ્થાપત્ય":13076,"▁ભ્રમણ":13077,"▁ઉદ્યોગમાં":13078,"▁ઢાળ":13079,"▁ભેદભાવ":13080,"▁રાજસ્થાનમાં":13081,"▁મૃતદેહને":13082,"▁ટાંકી":13083,"▁સિંધુ":13084,"▁આશ્વાસન":13085,"પાર્":13086,"પાંચ":13087,"વધ":13088,"હાય":13089,"▁તજી":13090,"▁અન્ત":13091,"▁અશ્રુ":13092,"▁આા":13093,"▁બારો":13094,"▁ઉડાવી":13095,"▁પરનો":13096,"▁એકએક":13097,"ાંને":13098,"દીક":13099,"સ્તાની":13100,"▁૩,":13101,"▁જૂનના":13102,"▁વ્યાકરણ":13103,"▁88":13104,"▁જ્ઞાનના":13105,"▁ઘટાડા":13106,"▁મોરચા":13107,"▁૨૦૨૦":13108,"▁શિવસે":13109,"▁નોકરીમાં":13110,"▁છૂટક":13111,"▁વડોદરાના":13112,"▁દયાળુ":13113,"▁રમાઈ":13114,"▁પ્રવચન":13115,"▁બિહારના":13116,"▁સ્વિમિંગ":13117,"કક્ષા":13118,"ટનું":13119,"હારા":13120,"▁પટ્ટી":13121,"▁મલાઈ":13122,"▁એરો":13123,"▁ચટણી":13124,"▁ઉપપ્રમુખ":13125,"▁મુદા":13126,"▁રોટલી":13127,"▁થઈ.\n":13128,"▁બોર":13129,"મોહન":13130,"▁કારણસર":13131,"▁ખૂણા":13132,"▁બનાવટી":13133,"▁પગથ":13134,"▁પાંચમી":13135,"▁ભીષણ":13136,"વર્ક":13137,"▁ભાઈને":13138,"▁અનાદિ":13139,"▁હત્યાનો":13140,"▁દર્શના":13141,"▁સલાહકાર":13142,"▁સંસ્કરણ":13143,"▁દબાવી":13144,"▁સ્વીકારવામાં":13145,"▁પહોંચાડે":13146,"▁બ્રિટીશ":13147,"▁નાનકડી":13148,"▁યથાર્થ":13149,"▁સાંકળ":13150,"▁ધિરા":13151,"▁ભરોસો":13152,"ણંદ":13153,"હને":13154,"ોર":13155,"▁કઢા":13156,"▁પશ્ચા":13157,"નાન":13158,"▁બાર્":13159,"▁કેલિ":13160,"▁લક્":13161,"▁સાળ":13162,"▁પાકી":13163,"ત્તાની":13164,"▁વાણિ":13165,"લ્સમાં":13166,"▁વધ્યું":13167,"▁નેક":13168,"▁ઈસ્લા":13169,"▁આજે,":13170,"▁મુખે":13171,"▁યૌ":13172,"▁મનન":13173,"▁ઘટનાના":13174,"▁લખ્યો":13175,"▁73":13176,"▁કપમાં":13177,"▁એનાયત":13178,"▁જયંતિ":13179,"▁જ્ઞાન,":13180,"▁પ્રજાસત્તા":13181,"▁બારડો":13182,"▁રણબીર":13183,"▁બતાવ્યું":13184,"▁પૌરાણિક":13185,"▁પહાડ":13186,"▁ઉદ્ધાર":13187,"▁ડેવલપમેન્ટ":13188,"▁ચિકિત્સા":13189,"▁અનુયાયી":13190,",0":13191,"ક્રી":13192,"ટમેન્ટ":13193,"હત":13194,"્યમાં":13195,"▁એશિયન":13196,"▁લારી":13197,"▁સુત":13198,"▁સંવત":13199,"▁ડેર":13200,"▁ઇજને":13201,"▁ને,":13202,"▁જીન":13203,"▁માંદગી":13204,"બાજી":13205,"▁અનુરોધ":13206,"ંકુ":13207,"▁કિમ":13208,"▁સ્વરે":13209,"▁સમાવિષ્ટ":13210,"▁ક્રૂડ":13211,"▁સુરતની":13212,"▁વારસા":13213,"▁વ્યાધિ":13214,"▁સ્થાપક":13215,"▁પતિપત્ની":13216,"ટ્ટર":13217,"▁આધે":13218,"▁જગ્યામાં":13219,"▁દેખાતું":13220,"▁સુધર":13221,"જનોને":13222,"▁સામાજીક":13223,"▁શાહરુ":13224,"▁મંગલ":13225,"▁સૂર્યની":13226,"▁અહેમદ":13227,"▁સુધારણા":13228,"▁ચોકલેટ":13229,"▁દુર્ગંધ":13230,"બ,":13231,"ાથી":13232,"▁સારે":13233,"▁આણી":13234,"▁નૂર":13235,"▁દં":13236,"ર્શિયલ":13237,"▁શસ્ત્રો":13238,"યાપ":13239,"▁જેનાં":13240,"મેળ":13241,"▁કોસ્ટ":13242,"▁સાથેસાથે":13243,"ધીમે":13244,"▁મોડું":13245,"▁વર્ઝન":13246,"▁સરવે":13247,"▁ભૂગર્ભ":13248,"બેરી":13249,"▁ડેવિડ":13250,"▁પડી,":13251,"▁કરાતા":13252,"▁માતાનું":13253,"▁83":13254,"▁આરોપીઓની":13255,"▁પ્રભુત્વ":13256,"▁મિત્રને":13257,"▁શૈલેષ":13258,"▁પ્રીતમ":13259,"▁મંદિરો":13260,"સંબંધ":13261,"▁ધર્માં":13262,"▁ચઢે":13263,"▁હળદર":13264,"▁સંગ્રહિત":13265,"▁કલેક્શન":13266,"ગાંઠ":13267,"ન્ટાઇન":13268,"▁પ્રોપર્ટી":13269,"ગતા":13270,"ડાવ":13271,"્ય,":13272,"▁મત્ર":13273,"નીક":13274,"▁માસના":13275,"▁વિખ":13276,"લીટ":13277,"▁પાઉન્ડ":13278,"▁આપ્યાં":13279,"▁સંદીપ":13280,"▁નિવ":13281,"▁દેવાના":13282,"્યુલ":13283,"▁સેનાની":13284,"શાના":13285,"ક્રિટ":13286,"▁નોટીસ":13287,"લિની":13288,"યું,":13289,"▁દાવે":13290,"▁શકો.":13291,"▁રાખીને,":13292,"▁પત્થ":13293,"▁જિજ્ઞા":13294,"▁ફીચર":13295,"▁સબસિ":13296,"▁આતશ":13297,"▁ગુરૂવારે":13298,"▁શરીરમાંથી":13299,"▁ખરચ":13300,"▁કચેરીમાં":13301,"▁પંજાબમાં":13302,"▁વિટામિ":13303,"▁આપોઆપ":13304,"▁તસ્વીર":13305,"▁માક્ષ":13306,"▁માલુ":13307,"▁થવુ":13308,"▁વિતાવ":13309,"▁વિધે":13310,"▁પરવા":13311,"▁ફૈ":13312,"▁કાક":13313,"▁કોષ્ટ":13314,"▁મોક્ષ":13315,"▁રહા":13316,"▁રાખું":13317,"▁કુતરા":13318,"▁ઊં":13319,"▁ક્રમાં":13320,"ધારણુ":13321,"▁શીખ્યા":13322,"▁લાગે,":13323,"▁માહિતી,":13324,"▁ધરવા":13325,"▁અનિયમ":13326,"▁અસહ્ય":13327,"▁ઉદ્યા":13328,"▁સ્ટાફે":13329,"▁મિનિટમાં":13330,"▁ચાર્ટ":13331,"▁હસતા":13332,"▁વાહનોની":13333,"▁કઠિન":13334,"▁પ્રવાસે":13335,"ણનું":13336,"થાન":13337,"▁આકાંક્ષા":13338,"▁શત":13339,"વીન":13340,"▁એકલ":13341,"▁જોધ":13342,"▁લાલા":13343,"▁લાલ,":13344,"▁ઉપજા":13345,"ષ્મ":13346,"યુ.":13347,"્યુ,":13348,"▁થાયછે.":13349,"▁સિગ્ન":13350,"બાલ":13351,"▁ગાળાના":13352,"▁સમાવે":13353,"▁રહ્યા,":13354,"રિન":13355,"▁સૂપ":13356,"▁૫૩":13357,"સિંહના":13358,"▁પૂર્વજો":13359,"▁શ્રદ્ધાં":13360,"▁દ્રઢ":13361,"▁સલામ":13362,"▁આકસ્મિક":13363,"▁પુનર્":13364,"▁ટ્રાન્સપોર્ટ":13365,"▁અંબાજી":13366,"▁રાજયમાં":13367,"▁વૈષ્ણવ":13368,"▁તટસ્થ":13369,"▁સ્ટેડિયમમાં":13370,"ઉદ":13371,"બસ":13372,"હક":13373,"▁પડા":13374,"▁મક":13375,"▁રને":13376,"▁એટેક":13377,"▁પ્રદીપ":13378,"▁પરણી":13379,"▁પર્યાય":13380,"મેને":13381,"ાવવાનું":13382,"▁ઈન્દ્ર":13383,"▁નોટિ":13384,"▁સોદા":13385,"▁સીઝનમાં":13386,"▁પ્રામાણિક":13387,"પરથી":13388,"▁ખૂબજ":13389,"▁વસ્તુઓની":13390,"▁ડીગ્રી":13391,"▁સ્થાનિકો":13392,"▁ટ્રેનો":13393,"▁શેરડી":13394,"▁દુનિયાભરમાં":13395,"▁11.":13396,"▁સૈય":13397,"▁રુબે":13398,"▁અક્ષરો":13399,"▁સાંભળતાં":13400,"▁જોખમમાં":13401,"▁ભૂલથી":13402,"▁બતાવ્યા":13403,"▁પાલનપુર":13404,"▁પ્લેન":13405,"▁પરેશ":13406,"▁કચરા":13407,"▁ગણાય.":13408,"▁ઉંમરમાં":13409,"▁મુસ્લિમો":13410,"▁ગઢવી":13411,"▁અનુપમ":13412,"▁સાર્થક":13413,"▁અદ્રશ્ય":13414,"▁મંત":13415,"▁માલા":13416,"▁સાસ":13417,"ન્ચે":13418,"લી.":13419,"▁વાકે":13420,"▁વાટા":13421,"ણીયા":13422,"▁સરનામું":13423,"▁મીર":13424,"▁થયાં.":13425,"▁યાદો":13426,"▁રિવાજ":13427,"▁પ્રતિકૂળ":13428,"▁76":13429,"▁700":13430,"▁માંગતો":13431,"▁જમીનની":13432,"▁બદલે,":13433,"▁હેાય,":13434,"▁પ્રોજેક્ટ્સ":13435,"▁પૂછ્યું,":13436,"▁સદ્ગુ":13437,"▁સમારકામ":13438,"▁દરબારમાં":13439,"▁માતૃભાષા":13440,"75":13441,"મ્યા":13442,"▁છપા":13443,"▁આધા":13444,"▁સ્ત્ર":13445,"▁પાનાં":13446,"▁ધૃત":13447,"▁કોણે":13448,"▁ટૂર":13449,"▁મોઢે":13450,"વિસ્તાર":13451,"▁ઈમે":13452,"નિક્સ":13453,"▁ઉપર,":13454,"સર,":13455,"▁ટેલિકો":13456,"જુદા":13457,"▁ક્ષતિ":13458,"▁વિસ્તારમાંથી":13459,"▁પાર્ટીને":13460,"શ્રીના":13461,"▁શાહ,":13462,"▁ગ્રેટ":13463,"▁અલ્પેશ":13464,"▁૨૦૧૯":13465,"▁દ્વિતીય":13466,"▁જળવાઈ":13467,"ંજા":13468,"માસિક":13469,"વાવ":13470,"▁હસીને":13471,"▁વદ":13472,"▁સાઇડ":13473,"▁વિક્ષેપ":13474,"▁ધ્રા":13475,"ણીઓ":13476,"▁હોબા":13477,"કારને":13478,"વિઝ":13479,"▁તાપી":13480,"▁સેમ્પલ":13481,"▁રૂબરૂ":13482,"ત્રીસ":13483,"વો.\n":13484,"▁કુટુ":13485,"▁અધિન":13486,"▁ખુલ્લો":13487,"▁ચિત્રા":13488,"▁વારસ":13489,"▁મૃતકના":13490,"ણોને":13491,"▁જનક":13492,"▁હોસ્પિટલોમાં":13493,"▁દિલ્લી":13494,"▁નજીકની":13495,"▁કાર્બો":13496,"▁ચુડા":13497,"▁લગાવીને":13498,"▁પ્રોજેકટ":13499,"વ્યાપી":13500,"▁બ્રહ્મચર":13501,"▁અખિલ":13502,"▁અજિત":13503,"▁માલિકો":13504,"▁બ્રેડ":13505,"▁પ્રતિનિધિઓ":13506,"▁નિવેદનો":13507,"▁મધ્યપ્રદેશના":13508,"▁તુલનામાં":13509,"▁અવગણના":13510,"▁કેટેગરીમાં":13511,"▁સર્ટિફિકે":13512,"સર્":13513,"▁સખ્ત":13514,"▁આભા":13515,"▁નર્સ":13516,"▁ગઝલ":13517,"▁સાસર":13518,"▁ઉચા":13519,"▁એકંદ":13520,"▁એકલો":13521,"્યોદય":13522,"જીનો":13523,"▁દેખે":13524,"▁ભાગા":13525,"ાર્થે":13526,"નિર્મા":13527,"▁બનાવા":13528,"▁કાર્યકારી":13529,"▁ગુજરાન":13530,"▁જૂનો":13531,"▁થયું.\n":13532,"▁અંતરમાં":13533,"શિયાર":13534,"▁પ્રેમ,":13535,"▁શરણે":13536,"▁પંચમહા":13537,"▁નાણાંકીય":13538,"▁બંગાળના":13539,"▁કરુણ":13540,"▁કિસ્સાઓમાં,":13541,"▁પોસ્ટમોર્ટમ":13542,"જ.":13543,"મકી":13544,"લ.":13545,"▁નર્વ":13546,"▁ગધે":13547,"▁ખરો":13548,"▁કોસ્":13549,"▁જાની":13550,"▁ટર્ન":13551,"▁બેફામ":13552,"▁લોકે":13553,"વિર":13554,"▁મળવાથી":13555,"▁શાહિ":13556,"▁રિમાન્ડ":13557,"▁જગન્નાથ":13558,"▁અલૌકિક":13559,"▁ડેમો":13560,"ન્નર":13561,"▁થયો,":13562,"▁સર્વને":13563,"▁સમસ્યાનો":13564,"▁દ્રૌ":13565,"▁દ્રાવ":13566,"▁ઘટાડવામાં":13567,"▁શરીરનું":13568,"▁ચૂકવી":13569,"▁ચૂકવવામાં":13570,"▁૧૯૬":13571,"▁વિકટ":13572,"▁ઋષ":13573,"▁યુદ્ધના":13574,"▁અહેસાસ":13575,"▁મંડળી":13576,"▁આશ્ચર્યચકિત":13577,"▁અપાવી":13578,"▁ચૈા":13579,"▁વર્કશો":13580,"▁સીબીઆઈ":13581,"▁કાઉન્ટર":13582,"શ્રેષ્ઠ":13583,"▁ઑનલાઇન":13584,"3માં":13585,"અર્":13586,"▁મત્સ":13587,"▁મયુર":13588,"તાબેન":13589,"▁કેહે":13590,"▁ચં":13591,"વેલું":13592,"▁હોતા":13593,"પાઠ":13594,"પાદન":13595,"▁ભાજન":13596,"▁ભાદર":13597,"▁કરેલો":13598,"▁પેલો":13599,"▁વેરિય":13600,"▁વધુની":13601,"▁હેવી":13602,"ટરની":13603,"▁પીવાનું":13604,"િટિ":13605,"નારના":13606,"▁રહ્યો.\n":13607,"▁વ્યાપ":13608,"▁વગેરે.":13609,"▁ધોઈ":13610,"▁સુખની":13611,"▁ચાલીને":13612,"▁પ્રદેશની":13613,"▁ટીમનો":13614,"▁કરીએ,":13615,"▁પ્રજાની":13616,"▁તત્કાલીન":13617,"▁કામગીરીમાં":13618,"▁પામ્યા.":13619,"▁ઉત્પાદનમાં":13620,"▁પ્રકૃતિના":13621,"▁રમાયેલી":13622,"▁સંયોજન":13623,"▁સ્ફટિક":13624,"▁જહેમત":13625,"▁અનિયમિત":13626,"મથ":13627,"વતાં":13628,"સૌ":13629,"૨૮":13630,"▁પતન":13631,"▁તરૂ":13632,"▁આડી":13633,"▁લસ":13634,"▁જોઉં":13635,"કોઈ":13636,"▁હોં":13637,"લ્સના":13638,"▁સંલગ્ન":13639,"▁મુકત":13640,"▁રહેણાંક":13641,"▁પુજા":13642,"સ્ટ્રા":13643,"▁રાજકુમારી":13644,"▁રોશની":13645,"▁લીન":13646,"▁રેસ્ક":13647,"▁બોગસ":13648,"મિનિ":13649,"▁સીએ":13650,"▁સીએન":13651,"▁કાર્યકાળ":13652,"▁ચાલતો":13653,"▁પાર્કમાં":13654,"▁સ્ટેશને":13655,"▁આંશિક":13656,"્રિજ":13657,"રાજસિંહ":13658,"▁ગાંધીના":13659,"▁વહેતી":13660,"▁ઔપચારિક":13661,"▁ધીમેધીમે":13662,"ભૂષણ":13663,"▁જ્યોર્જ":13664,"▁સ્માર્ટફો":13665,"▁તૃપ્તિ":13666,"▁લડાઈમાં":13667,"▁બોલાવવામાં":13668,"▁કંટાળી":13669,"બ્રહ્મ":13670,"▁સિપાહી":13671,"ઓવર":13672,"▁જશ":13673,"▁આનુ":13674,"▁હક્ક":13675,"▁ર૦":13676,"ર્ષા":13677,"લામ":13678,"▁ગલ":13679,"▁લક":13680,"▁લટકા":13681,"▁પ્રવિ":13682,"▁ચડે":13683,"▁જેમ્સ":13684,"▁પાળી":13685,"▁પાશ્ચા":13686,"▁એકંદર":13687,"ંગની":13688,"▁સુગર":13689,"▁જાગ્ર":13690,"▁વેન્ટિ":13691,"▁શકય":13692,"▁આવ્યો,":13693,"દારની":13694,"▁આનન્દ":13695,"▁૭.":13696,"▁ઉપાધ્યાય":13697,"▁યુનિય":13698,"પ્રેમ":13699,"▁લાવવાની":13700,"▁જામનગરના":13701,"▁રચાયેલ":13702,"▁લાયસન્સ":13703,"▁લાકડાં":13704,"▁કસ્ટડીમાં":13705,"▁બજારોમાં":13706,"▁આવેદનપત્ર":13707,"▁કોંક્રિટ":13708,"ઝાન":13709,"દૃ":13710,"▁પતી":13711,"▁જવ":13712,"▁આણુ":13713,"▁આમિર":13714,"▁ગગ":13715,"▁ચાય":13716,"ંગુ":13717,"▁સુશી":13718,"િવર":13719,"▁ગાઇડ":13720,"▁દરદી":13721,"▁દીવાન":13722,"▁વીરા":13723,"▁કાર્યક્ષમતા":13724,"▁ચેતા":13725,"▁વિચારતા":13726,"▁અવસરે":13727,"▁બનશે.\n":13728,"▁વ્યવસ":13729,"▁74":13730,"▁84":13731,"▁લેવાયો":13732,"▁પ્રશ્નના":13733,"▁ધાર્યું":13734,"▁પૃથ":13735,"▁ચૂક્યું":13736,"▁નંબરે":13737,"▁ગાયને":13738,"લેન્ડર":13739,"▁ઉત્પાદકો":13740,"▁ટેસ્ટમાં":13741,"▁સાહિત્યના":13742,"▁સવારમાં":13743,"▁ડિઝાઇ":13744,"▁અટકાવે":13745,"▁સ્નેહી":13746,"▁અપેક્ષાએ":13747,"▁શરુઆત":13748,"કાવવાની":13749,"▁શ્રાદ્ધ":13750,"▁લખનૌ":13751,"▁મગફળી":13752,"▁સજ્જન":13753,"દ્રુ":13754,"▁તણી":13755,"▁હંગા":13756,"▁વક્ત":13757,"ની\n":13758,"▁ગળું":13759,"▁લઉં":13760,"▁પ્રાયો":13761,"રીન":13762,"▁ખતા":13763,"તિની":13764,"▁કોથ":13765,"ડાઓ":13766,"▁નિગ":13767,"▁વધતાં":13768,"▁કહેર":13769,"સિન":13770,"▁દિવસને":13771,"▁ગ્રાન્ટ":13772,"▁થાઇ":13773,"▁વિદ્યાર્થ":13774,"▁લીધેલા":13775,"▁બ્રાઉ":13776,"▁વસતા":13777,"▁શિવલિંગ":13778,"▁બનાવેલા":13779,"▁ગુમાવ્યા":13780,"▁બોલીવુ":13781,"▁સંઘના":13782,"▁કાર્યક્રમનું":13783,"▁સંગઠનો":13784,"શાસ્ત્રના":13785,"▁મીઠાઈ":13786,"▁ગોલ્ડન":13787,"▁વજ્ર":13788,"▁ગેહલો":13789,"ૉન":13790,"▁પટા":13791,"▁નરે":13792,"▁નમન":13793,"તિમાં":13794,"▁એકઠી":13795,"▁વાચા":13796,"ાવતાં":13797,"▁ઘરોમાં":13798,"▁દે,":13799,"િયારા":13800,"જેક્ટ":13801,"▁મૂત્ર":13802,"▁સીરિ":13803,"▁જુનિયર":13804,"તુ.":13805,"▁ખુશા":13806,"▁ચેન્જ":13807,"▁ભૂખ્યા":13808,"▁થોડે":13809,"▁વૃત્તા":13810,"▁સ્પ્રે":13811,"▁અરબી":13812,"▁ટોલ":13813,"▁ટોસ":13814,"▁પૂછવા":13815,"▁એનસીપી":13816,"▁વસૂ":13817,"▁તારક":13818,"▁મંડળના":13819,"▁અજાય":13820,"▁વિવેકાન":13821,"▁એકબીજાની":13822,"▁પ્રિન્સ":13823,"▁શ્લો":13824,"▁ઉમેદવારોની":13825,"▁સાહસિક":13826,"▁મૃગ":13827,"▁સિક્યુ":13828,"▁રહેવાસીઓ":13829,"▁સંતુષ્ટ":13830,"▁ટેલિવિઝન":13831,"▁કેનાલ":13832,"▁બિલાડી":13833,"▁કપૂરે":13834,"થને":13835,"થની":13836,"સિયે":13837,"▁સપ્ત":13838,"ારની":13839,"▁થનારી":13840,"કાયા":13841,"▁નાખો":13842,"લ્સની":13843,"▁મોનિ":13844,"▁દેશે.":13845,"▁લેઇ":13846,"ગીત":13847,"▁સેફ":13848,"▁સેન્ડ":13849,"▁વેતન":13850,"▁રેસિ":13851,"▁સ્વૈ":13852,"▁સૌની":13853,"▁ડિરે":13854,"ચીને":13855,"ળે,":13856,"▁અવલ":13857,"▁સમજ્યા":13858,"▁86":13859,"▁રંગમાં":13860,"ફેલ":13861,"▁યુવકની":13862,"▁પત્નિ":13863,"▁કરાવતા":13864,"▁ધરાવતો":13865,"▁મગન":13866,"▁મિત્રોને":13867,"સમૂહ":13868,"▁એક્ઝિક":13869,"▁જોયું.":13870,"▁સ્પર્ધાત્મક":13871,"▁દલીલો":13872,"▁શ્વેતા":13873,"▁અસ્થિ":13874,"▁હમણા":13875,"▁બેંકો":13876,"▁ઉત્સાહી":13877,"ચૂંટ":13878,"▁દ્રાક્ષ":13879,"▁કમોસમી":13880,"સંપ":13881,"▁હૂ":13882,"▁બહો":13883,"▁બસ,":13884,"▁ખન":13885,"ક્સે":13886,"ક્ટના":13887,"કાનું":13888,"▁પાદુ":13889,"▁હોદ્દે":13890,"▁આવરણ":13891,"રોગ":13892,"▁મેકલ":13893,"▁નિષેધ":13894,"▁ઓર્":13895,"▁લેશે.\n":13896,"▁સિધ્ધ":13897,"▁સ્થૂલ":13898,"▁સીમમાં":13899,"▁સૌમ્ય":13900,"▁ખુલ્લે":13901,"▁ડિસ્ક":13902,"▁યત્ન":13903,"મુખે":13904,"▁મનહર":13905,"ગોલિક":13906,"ફોડ":13907,"▁ટ્રેલર":13908,"▁પારદર્શક":13909,"▁૬૪":13910,"▁સારવારમાં":13911,"▁12.":13912,"▁માલૂમ":13913,"▁ઉપાધિ":13914,"▁કર્યાં,":13915,"▁ડાયમંડ":13916,"▁સમીકરણ":13917,"▁કૈલા":13918,"▁ફ્રાન્સ":13919,"▁બોલાચાલી":13920,"▁મોકલે":13921,"▁કિંગ્સ":13922,"▁દહાડા":13923,"▁આયુર્વેદ":13924,"▁શેરબજારમાં":13925,"▁અહેવાલમાં":13926,"ઉડ":13927,"ચને":13928,"હમ":13929,"લાલને":13930,"ટેબલ":13931,"▁એકની":13932,"▁હોતું":13933,"▁લાકડું":13934,"▁પોપટ":13935,"▁મુની":13936,"▁દેશા":13937,"▁પેન્ટ":13938,"▁રાજપુ":13939,"▁ઈન્સ":13940,"▁વ્યર્થ":13941,"▁બન્યા.":13942,"▁ટોપી":13943,"સિંહને":13944,"▁મનાઈ":13945,"▁રજાઓ":13946,"▁ઉમેદવારોએ":13947,"▁દીકરાને":13948,"▁ફેસબુક,":13949,"▁ઉત્તેજના":13950,"▁છાંટ":13951,"સ્ટિક્સ":13952,"▁ફટાકડા":13953,"▁સગર્ભા":13954,"▁ડિપોઝિટ":13955,"અનુ":13956,"▁આયોગ":13957,"▁આકરી":13958,"નીંગ":13959,"▁કરતે":13960,"▁કરવો.":13961,"▁ઉષ્ણ":13962,"▁કામા":13963,"▁સુદર":13964,"▁ઉપયેાગ":13965,"▁બાહુ":13966,"▁હાહા":13967,"શ્કરી":13968,"▁ખાટ":13969,"▁ઇલે":13970,"લોએ":13971,"ડેડ":13972,"▁શાશ્વત":13973,"▁હેન":13974,"પ્રિ":13975,"▁સમયને":13976,"▁સમાગમ":13977,"▁કંઠ":13978,"▁દાઢી":13979,"▁આપે,":13980,"▁બનવાનું":13981,"▁ગ્રાન્ડ":13982,"▁સ્થાનો":13983,"▁અસુર":13984,"એમસી":13985,"▁ઓળખે":13986,"▁સમાચાર,":13987,"▁ગુજરાતીમાં":13988,"▁ટેસ્ટિંગ":13989,"▁મૂલ્યો":13990,"▁આશ્રમમાં":13991,"▁વરસ્યો":13992,"▁બેસવા":13993,"▁પ્રવર્ત":13994,"▁અમૂલ્ય":13995,"▁ફેમિલી":13996,"▁ટેલિકોમ":13997,"9.":13998,"ખિક":13999,"ઘર":14000,"ચરિત્ર":14001,"ભવે":14002,"▁સ્રી":14003,"▁આદર્":14004,"▁વૅ":14005,"▁વણા":14006,"▁વઢવા":14007,"▁રબર":14008,"▁ગળી":14009,"▁ભારી":14010,"ટેલિ":14011,"ંગધ":14012,"િક્ર":14013,"▁નાકરી":14014,"▁ધવન":14015,"▁મેલા":14016,"▁બાજ":14017,"▁બાળા":14018,"▁મોસ્કો":14019,"▁ડહા":14020,"▁ભાડું":14021,"▁ઓઈલ":14022,"▁ખાવામાં":14023,"▁ગાદીએ":14024,"▁હેક્ટર":14025,"▁પડવાથી":14026,"▁હવેથી":14027,"બ્ધિ":14028,"▁દિવાન":14029,"ચ્છિક":14030,"નગર,":14031,"▁સ્કિન":14032,"▁લક્ષણા":14033,"▁બળજબ":14034,"▁૧૮૫":14035,"▁તારાં":14036,"▁સાધુએ":14037,"▁યોજાનાર":14038,"▁સમિતિની":14039,"▁સ્કૂલના":14040,"▁2020માં":14041,"▁ફાળવવામાં":14042,"▁નવરાત્રિ":14043,"▁કાબૂમાં":14044,"▁દરજ્જો":14045,"▁પેશાબ":14046,"▁દંતકથા":14047,"ંમદ":14048,"કતો":14049,"કડાં":14050,"ટ્રે":14051,"ફ્યૂ":14052,"ષાય":14053,"૬,":14054,"▁કનુ":14055,"▁પટના":14056,"▁હારે":14057,"ની.":14058,"▁ગમતી":14059,"▁વિરલ":14060,"તિત":14061,"િયાનો":14062,"▁નિહ":14063,"પાણી":14064,"▁ઓડિયો":14065,"▁લેનારા":14066,"યુ,":14067,"▁જીએ":14068,"▁પેસ":14069,"મ્પર":14070,"▁રહીએ":14071,"▁આપી.\n":14072,"▁સુરત,":14073,"▁વ્યવહારો":14074,"▁સમજવામાં":14075,"▁મંજુરી":14076,"▁પંખી":14077,"▁પ્રભુએ":14078,"▁પ્લાનિંગ":14079,"▁દારૂનો":14080,"▁કૉલે":14081,"▁નાણામંત્રી":14082,"▁એપલ":14083,"▁આયુષ":14084,"▁નિકટ":14085,"▁ગિફ્ટ":14086,"▁ઇંગ્લ":14087,"▁લૉકડા":14088,"▁મરાઠા":14089,"▁2014માં":14090,"▁રિપબ્લિક":14091,"ઉં.":14092,"ગિત":14093,"દૂત":14094,"વર્ટ":14095,"વાતી":14096,"▁આત્મક":14097,"રાનું":14098,"▁લું":14099,"▁સાબુ":14100,"▁આપા":14101,"▁સંસાધ":14102,"▁ઉપરી":14103,"▁મુર્":14104,"ારીયા":14105,"▁ભાસ":14106,"યુકત":14107,"▁રાખશે":14108,"▁વેરાવ":14109,"મ્બા":14110,"▁કેટલેક":14111,"બીએ":14112,"▁કિર":14113,"વવાને":14114,"▁યાર્ડ":14115,"▁વરદાન":14116,"▁૩૦૦":14117,"▁જીવતી":14118,"▁સંગ્રા":14119,"▁ખાનને":14120,"▁જમીનના":14121,"▁ઉદઘાટન":14122,"▁સિંહના":14123,"......":14124,"▁અવિના":14125,"▁હાઉસિંગ":14126,"▁દાદાશ્રી":14127,"▁હલકા":14128,"▁ઔષધી":14129,"▁સહયોગથી":14130,"▁પ્રણાલી":14131,"▁રેસ્ટોરાં":14132,"▁અટકળો":14133,"▁દુષ્કાળ":14134,"પક્ષીય":14135,"▁ઇન્સ્ટોલ":14136,"▁દંપતિ":14137,"દરમાં":14138,"▁સટ્ટા":14139,"▁નગરી":14140,"▁ગગન":14141,"િકી":14142,"▁આપતું":14143,"▁કાલ્પ":14144,"▁મેરેજ":14145,"▁મુઝ":14146,"▁ઇલા":14147,"▁રીઝ":14148,"શાને":14149,"▁શાહુ":14150,"▁દુકાને":14151,"▁હેક":14152,"ંડના":14153,"▁મીણ":14154,"▁ખૂન":14155,"બેડ":14156,"▁બનાવવી":14157,"▁નોંધઃ":14158,"▁સ્ટેશનો":14159,"▁ટકાવી":14160,"▁મધમા":14161,"▁નિર્દે":14162,"ફેટે":14163,"▁દેખાડી":14164,"▁પ્રક્રિયાને":14165,"▁દક્ષિણમાં":14166,"▁જરાક":14167,"▁અરે,":14168,"▁પરમહ":14169,"▁ડ્રોન":14170,"▁વેરિઅ":14171,"▁ખળભળાટ":14172,"ગ્યા":14173,"▁કબા":14174,"▁જનાર":14175,"▁અપરિ":14176,"લાઇડ":14177,"▁ખચ":14178,"તિન":14179,"▁એકસર":14180,"િકરણ":14181,"ટીકલ":14182,"સાએ":14183,"▁ઓહ":14184,"▁રાજ્યા":14185,"▁મળવાનું":14186,"બાપુ":14187,"▁કુછ":14188,"વનમાં":14189,"▁ઉત્તરમાં":14190,"વર,":14191,"▁હિર":14192,"મુક્ષુ":14193,"ભાઇ,":14194,"▁યુવકો":14195,"▁દર્દીની":14196,"▁ખર્ચમાં":14197,"▁180":14198,"▁ઑફિ":14199,"▁હસમુખ":14200,"▁ફ્રાં":14201,"▁લઘુત્તમ":14202,"▁આમંત્રિત":14203,"એટલે":14204,"▁ગુન્હો":14205,"▁નિહાળી":14206,"▁પીએસઆઇ":14207,"▁પદાધિકારી":14208,"▁કમનસીબે":14209,"▁દસ્તુર":14210,"▁કિરીટ":14211,"5માં":14212,"ટિકલ":14213,"▁માઈલ":14214,"▁કેટર":14215,"ન્શિયલ":14216,"કોલ":14217,"▁મેડિ":14218,"▁ઓક":14219,"▁ઓરે":14220,"▁મહંત":14221,"▁નીવડ":14222,"▁ગાઉ":14223,"લિઝ":14224,"▁પડકારો":14225,"જોય":14226,"▁જીવનનું":14227,"▁પગથી":14228,"▁ખીલે":14229,"▁જૂદી":14230,"▁પ્લો":14231,"▁ભેં":14232,"▁વસ્તુના":14233,"▁અધિકારીને":14234,"▁વિશ્વને":14235,"▁ઘાતક":14236,"▁બાળકનું":14237,"▁દીકરીના":14238,"▁છૂટકારો":14239,"▁ખસેડી":14240,"▁પુનઃસ્થાપિત":14241,"▁પોલિસ":14242,"▁સિંહો":14243,"▁નિર્મલા":14244,"▁આલ્કો":14245,"▁બાતમીના":14246,"બ્રેરી":14247,"▁સ્ટુડિયો":14248,"▁ફાઇનલમાં":14249,"▁લેપટોપ":14250,"▁પરિમાણો":14251,"▁સેલિબ્રિ":14252,"▁પહેાંચી":14253,"▁વોલ્યુમ":14254,"ખિત":14255,"તકી":14256,"શલ":14257,"સમુ":14258,"▁દય":14259,"▁સાહિ":14260,"ટેલી":14261,"▁આવિ":14262,"▁તમારૂ":14263,"ંચન":14264,"સ્ટન":14265,"▁સહાનુ":14266,"બેનને":14267,"▁સર્જી":14268,"▁તુને":14269,"▁ખરીદે":14270,"▁દેખાઇ":14271,"▁પુત્રવ":14272,"▁આઈપીએ":14273,"▁તત્કાળ":14274,"▁પંચે":14275,"▁ગંભીરતાથી":14276,"▁બેંકમાં":14277,"▁સાહેબ,":14278,"▁માતાપિતાને":14279,"▁યુરોપમાં":14280,"▁ઉભય":14281,"▁વિરમ":14282,"▁ભૌગોલિક":14283,"▁દરોડો":14284,"▁સફરજન":14285,"▁બજાવી":14286,"▁ધૈર્ય":14287,"▁શ્રદ્ધાંજલિ":14288,"ઓફ":14289,"ક.":14290,"બરો":14291,"૨માં":14292,"▁કવાયત":14293,"યા.\n":14294,"▁પાત્રા":14295,"▁આવડે":14296,"ટી.":14297,"ડાઉન":14298,"▁બેર":14299,"▁લેડી":14300,"ગીને":14301,"શાળામાં":14302,"▁શકતાં":14303,"▁કે,\n":14304,"▁રહ્યા.\n":14305,"બેટ":14306,"▁ગોઠવા":14307,"▁બાબતની":14308,"▁ખાનના":14309,"▁મૂળમાં":14310,"▁બાજુ,":14311,"▁ઇન્વેસ્ટ":14312,"▁સૂરિ":14313,"▁કાળના":14314,"▁પિતાનું":14315,"▁પ્રશ્નનો":14316,"વ્રત":14317,"▁આંગણ":14318,"▁જુલાઈના":14319,"▁ઓગસ્ટના":14320,"▁પ્રોડક્ટ્સ":14321,"▁પ્રવેશી":14322,"▁અસમર્થ":14323,"▁રુબેલ્સને":14324,"આન":14325,"ઇન્":14326,"ચિવ":14327,"મડ":14328,"▁સત્વ":14329,"▁ત.":14330,"▁એ\n":14331,"▁માજ":14332,"▁ગલી":14333,"▁થવો":14334,"▁એકના":14335,"▁વાસી":14336,"▁આપનું":14337,"▁સુલે":14338,"▁બેત્રણ":14339,"▁લેવડ":14340,"▁યુટ્યુ":14341,"▁મહાસાગર":14342,"▁પગના":14343,"▁અંતરા":14344,"▁સંબંધોને":14345,"▁ધર્મ,":14346,"▁સ્ટ્ર":14347,"▁કર્મના":14348,"▁પ્રદેશ,":14349,"▁હેઠળના":14350,"▁પાડવાની":14351,"▁ટ્રાવેલ":14352,"▁ભયથી":14353,"▁કેટલાએક":14354,"▁2006":14355,"▁માથાનો":14356,"▁નજરમાં":14357,"▁તાપમાનમાં":14358,"▁વ્રજ":14359,"▁વ્હાલા":14360,"▁ઋતુમાં":14361,"▁ચાવડા":14362,"▁આઈપીએલ":14363,"▁ઉત્સાહિત":14364,"▁ટ્રોફી":14365,"▁આસિસ્ટન્ટ":14366,"▁કટાક્ષ":14367,"▁રોકાણકારોને":14368,"બત્તી":14369,"સકે":14370,"▁તંગી":14371,"▁ગમી":14372,"▁લૈ":14373,"વીશ":14374,"▁ચશ્મા":14375,"કાન્ત":14376,"▁કાપે":14377,"▁ટચ":14378,"▁તોડીને":14379,"▁લેબો":14380,"▁ચાગ્ય":14381,"▁કેટરીના":14382,"પેક્ષ":14383,"▁લાગ્યાં":14384,"▁કાર્યક્ષમ":14385,"▁ડિરેક્ટ":14386,"▁સ્વાતંત્ર્ય":14387,"▁બનતું":14388,"▁મારવામાં":14389,"▁સ્ટેડિયમ":14390,"▁ચૂંટણીને":14391,"▁મહારાજના":14392,"▁મામલાની":14393,"▁બાજુથી":14394,"▁ભાઈએ":14395,"યાં,":14396,"▁દીધી.\n":14397,"▁સ્વરૂપને":14398,"▁સિંહ,":14399,"▁બન્નેને":14400,"▁શિવસેના":14401,"▁૧૮૭":14402,"▁કિલોગ્રામ":14403,"▁આવ્યાં.":14404,"▁ઓક્ટોબરે":14405,"▁ગોળીઓ":14406,"▁ઇમરાન":14407,"▁ફેડરેશન":14408,"▁અડચણ":14409,"2.":14410,"કપ":14411,"ૅન":14412,"▁સકળ":14413,"▁જડી":14414,"▁માદા":14415,"લીલા":14416,"▁કાનુ":14417,"▁ધાં":14418,"ષ્ણા":14419,"્રીક":14420,"▁માંડી.":14421,"▁ઈલાજ":14422,"▁નોર્થ":14423,"▁પરિબળ":14424,"▁ઊડી":14425,"▁ઠરા":14426,"▁પાછુ":14427,"▁પાર્ટ":14428,"▁જીવિત":14429,"▁ગણો":14430,"▁સર્વથા":14431,"▁કમિશ્નર":14432,"▁હિંસક":14433,"▁તિરા":14434,"▁તિજો":14435,"▁ફેબ્રિક":14436,"▁દરિયાકિ":14437,"▁વાસણ":14438,"▁બહાદુ":14439,"▁સાઇટ્સ":14440,"▁પાલિકાના":14441,"▁ઘૂસી":14442,"ગણતરી":14443,"▁ગઠબંધન":14444,"▁શિવાજી":14445,"▁વિનિમય":14446,"રસના":14447,"▁કદના":14448,"વાનાં":14449,"્યની":14450,"▁પ્રશિ":14451,"▁ધડ":14452,"હી,":14453,"▁નીવડે":14454,"▁સેક્ટરમાં":14455,"▁વેડ":14456,"▁દરદ":14457,"▁કાર્યસ્થ":14458,"▁થયાના":14459,"▁સૂચિત":14460,"▁નોંધ્યો":14461,"કુમા":14462,"કિસ":14463,"▁મતદાર":14464,"▁સૂર્યા":14465,"▁સત્તામાં":14466,"▁પરાક્ર":14467,"▁રણનીતિ":14468,"▁ઉકેલવા":14469,"▁કૃપાથી":14470,"▁નારંગી":14471,"▁ક્વોલિ":14472,"મંદિર":14473,"▁હૂંફા":14474,"▁સ્મારક":14475,"▁ષડયંત્ર":14476,"ધને":14477,"ુએ":14478,"▁સત્તર":14479,"▁વસ્ત્રા":14480,"▁એપી":14481,"▁છે.અ":14482,"▁ભૃ":14483,"▁સાતે":14484,"▁સ્મર":14485,"▁પણ.":14486,"▁વાળો":14487,"▁સુઈ":14488,"▁પોટે":14489,"▁જાળી":14490,"▁ભાડા":14491,"▁ઇન્દ":14492,"વારમાં":14493,"▁તાત":14494,"▁રોશન":14495,"પ્ટો":14496,"મ્મર":14497,"▁શાખ":14498,"▁વાતથી":14499,"▁અંગો":14500,"▁શેરો":14501,"▁શેઠે":14502,"▁પડી.\n":14503,"▁અન્યા":14504,"▁ઘરેલુ":14505,"▁વાયરસની":14506,"▁જોડવામાં":14507,"▁પ્રશ્નકર્તા":14508,"▁તંત્રની":14509,"▁પ્રમાણભૂત":14510,"▁ઍક્સેસ":14511,"▁આવકવેરા":14512,"▁સપાટ":14513,"▁લખેલી":14514,"▁કૂદ":14515,"▁ચૈત્ર":14516,"▁તપાસી":14517,"▁બોયફ્રેન્ડ":14518,"▁ધર્મેન્દ્ર":14519,"▁સમજૂતી":14520,"▁કાલ્પનિક":14521,"ગિક":14522,"મણે":14523,"▁અબુ":14524,"▁અકાઉન્ટ":14525,"▁હદે":14526,"▁વંદન":14527,"▁કરચ":14528,"▁કરત":14529,"મેક":14530,"▁પા.":14531,"▁જોન":14532,"▁કાળો":14533,"▁લાઠી":14534,"▁બેચે":14535,"▁સુધીનું":14536,"ન્ડિંગ":14537,"▁છોટા":14538,"▁પીવાની":14539,"▁ક્ધ":14540,"▁કાર્યકર":14541,"▁ટેટૂ":14542,"▁બનાવમાં":14543,"▁પ્રોટી":14544,"▁૫૮":14545,"▁ભગવંત":14546,"▁190":14547,"▁બનેલું":14548,"એસએ":14549,"▁લિયો":14550,"▁નિષ્કર્ષ":14551,"▁મૂક્યા":14552,"▁વિજયભાઈ":14553,"▁બનાવેલ":14554,"▁વિધાનસભાના":14555,"▁આંખના":14556,"▁જવાબદારીઓ":14557,"▁મિશ્રિત":14558,"▁કાશ્મીરના":14559,"▁બેસાડ":14560,"▁ઇન્ટરવ્યૂ":14561,"▁સંભળાય":14562,"▁સમન્વય":14563,"આ,":14564,"કક્ષ":14565,"ગણી":14566,"તમા":14567,"થ,":14568,"શરી":14569,"િણી":14570,"▁કબીર":14571,"માયા":14572,"વાયેલી":14573,"▁જશો":14574,"▁કરવે":14575,"▁પ્રક":14576,"▁જો,":14577,"▁મેમ્બર":14578,"▁દેતી":14579,"▁વધતું":14580,"▁પુર્વ":14581,"▁પેહ":14582,"▁યુધ્ધ":14583,"▁જુદું":14584,"▁નહિં.":14585,"▁તેથીજ":14586,"▁ડિસ":14587,"▁વિચારવું":14588,"ભાવથી":14589,"▁અહીંની":14590,"▁પ્રોટે":14591,"▁થોડાં":14592,"▁ઠો":14593,"▁ટકાની":14594,"▁લગ્નને":14595,"▁નીકળવા":14596,"▁97":14597,"ટ્સ,":14598,"▁હોવાથી,":14599,"▁ગ્રૂ":14600,"▁110":14601,"▁ત્રિમાસિક":14602,"▁યાત્રાળુ":14603,"▁તેલંગા":14604,"▁પુષ્પા":14605,"▁ફાઇનલ":14606,"▁એસોસિએ":14607,"▁હડતાળ":14608,"▁ખનિજ":14609,"દશ":14610,"▁એલ્":14611,"▁દઈને":14612,"▁કેા":14613,"▁પ્રૌ":14614,"▁ખદ":14615,"▁ડ્યુટી":14616,"દીઠ":14617,"દાસ્પદ":14618,"▁ખાઈને":14619,"લોગ":14620,"▁પુર્ણ":14621,"▁નીમ":14622,"▁ચાસ":14623,"▁મળ્યું.":14624,"▁ઈઝ":14625,"હાલ":14626,"▁મનમા":14627,"પુર્ણ":14628,"▁ટકાવારી":14629,"▁કીટ":14630,"▁વૈભવી":14631,"▁ધીમા":14632,"▁લેવાતા":14633,"સિંહજી":14634,"▁ધાડા":14635,"▁૧૯૮":14636,"▁નાખ્યું":14637,"▁સિંહની":14638,"▁સિસ્ટમમાં":14639,"▁જમવાનું":14640,"▁ઉઠાવ્યો":14641,"▁મ્હારે":14642,"▁ફેબ્રુઆરીના":14643,"▁ખેંચે":14644,"▁જાઓ.":14645,"▁ઝાંખી":14646,"▁નિયામક":14647,"▁લાક્ષણિકતાઓ":14648,"▁ફેફસાં":14649,"▁સત્યાગ્રહ":14650,"▁બોટાદ":14651,"કૂટ":14652,"ચિક":14653,"૧\n":14654,"▁આછા":14655,"ારમાં":14656,"▁હીર":14657,"▁મતો":14658,"▁રવા":14659,"▁તેલના":14660,"▁નતા":14661,"▁શમ":14662,"સ્થે":14663,"કેલ":14664,"ડીપી":14665,"યોજિત":14666,"▁રાજયના":14667,"▁રોલમાં":14668,"▁શકયતા":14669,"▁ફેન":14670,"▁ચૂર્ણ":14671,"▁ચીઝ":14672,"▁પ્લસ":14673,"▁મહિલાઓના":14674,"▁61":14675,"▁૫૭":14676,"▁ઢળી":14677,"▁વોલ્":14678,"▁વગેરેમાં":14679,"▁કેન્દ્રની":14680,"▁પશુપાલ":14681,"▁પાકિસ્તાને":14682,"▁સિંહને":14683,"▁નરેન્દ્રભાઈ":14684,"▁ગૃહમાં":14685,"▁અનિશ્ચિત":14686,"▁નીકળ્યો":14687,"▁ફ્રેન્":14688,"▁સૂચક":14689,"ડીએફ":14690,"▁શ્લોક":14691,"▁સોસાયટીના":14692,"▁ભરાયા":14693,"▁રમેશભાઈ":14694,"▁ફિટનેસ":14695,"▁અજ્ઞાત":14696,"▁પાશ્ચાત્ય":14697,"200":14698,"ંક્શન":14699,"ચ્યુઅલ":14700,"ધિર":14701,"▁પાયો":14702,"▁સભવ":14703,"▁સગીર":14704,"માંની":14705,"▁મટ":14706,"▁બજર":14707,"▁કોમો":14708,"▁સંયોગ":14709,"▁જાતો":14710,"કીની":14711,"▁લોસ":14712,"▁મળ્યુ":14713,"▁સ્વદેશી":14714,"ત્વની":14715,"▁શિસ્ત":14716,"▁વિચારસર":14717,"▁દિગ":14718,"▁ગોળા":14719,"▁ખોલવા":14720,"▁ખીલી":14721,"્યે,":14722,"▁શીખે":14723,"▁મહેલમાં":14724,"સ્કૃત":14725,"▁વોલ":14726,"▁વોટ્સે":14727,"▁અસરથી":14728,"લાઈથી":14729,"ગુપ્ત":14730,"▁ચિંતામાં":14731,"▁ઈન્ડિ":14732,"શાસ્ત્રમાં":14733,"▁ફ્રાય":14734,"▁અધિક્ષક":14735,"▁મ્યુઝિયમ":14736,"▁ગાર્ડન":14737,"▁નિપજ્યું":14738,"▁શિલ્પા":14739,"▁સ્ટાર્સ":14740,"▁લખનઉ":14741,"▁શીર્ષક":14742,"▁કસોટી":14743,"વંશી":14744,"હાનિ":14745,"૪,":14746,"▁ક્યાર":14747,"▁કબુ":14748,"માણ":14749,"▁જઠ":14750,"▁આખે":14751,"▁વટા":14752,"▁નડ":14753,"▁લપે":14754,"▁લવિંગ":14755,"▁રામન":14756,"▁કાચી":14757,"▁કાલાવ":14758,"▁આવનારી":14759,"▁મેમરી":14760,"▁ટક":14761,"▁કરવાનુ":14762,"ષ્કાર":14763,"▁ખાદી":14764,"▁સિઝ":14765,"▁વર્ષનું":14766,"▁ઝપા":14767,"▁ઝલક":14768,"▁હેરિ":14769,"▁સોદો":14770,"▁સોનલ":14771,"▁પીને":14772,"▁લાગવા":14773,"▁જવાબો":14774,"▁શ્રીકૃષ્":14775,"▁પહોચ":14776,"▁ક્ષી":14777,"▁દોસ્તી":14778,"▁ચીસ":14779,"▁લગ્નજીવન":14780,"▁87":14781,"▁થાઈ":14782,"▁દેવભૂમિ":14783,"▁વિદ્યાર્થીની":14784,"▁૬૩":14785,"▁રમવાની":14786,"▁યુવતીઓ":14787,"▁હેતુઓ":14788,"▁પૃથ્વીની":14789,"▁મનોમન":14790,"▁અનિષ્ટ":14791,"▁ઉદાહરણો":14792,"▁ઓગસ્ટે":14793,"▁આયર્":14794,"▁વાપરે":14795,"▁પાતળી":14796,"▁વાઘે":14797,"▁દોડધામ":14798,"▁ટેલિગ્રામ":14799,"▁કસ્ટમ":14800,"▁સાર્વત્રિક":14801,"▁મહાભારત":14802,"▁પ્રીફેકચર":14803,"▁ઉપેક્ષા":14804,"મૈ":14805,"▁ઉડ્ડ":14806,"મેશ":14807,"▁એકપણ":14808,"િયાનમાં":14809,"▁મોસમ":14810,"મીમાં":14811,"▁મહર્ષિ":14812,"િયન્સ":14813,"▁પેર":14814,"બીન":14815,"બીના":14816,"▁પ્રાતઃ":14817,"▁પોલીસકર્મી":14818,"▁દિમા":14819,"▁ક્ષણો":14820,"▁બનાવતી":14821,"મણું":14822,"▁કાંઠા":14823,"▁વિસ્તારને":14824,"▁બાબતને":14825,"▁વોચ":14826,"▁ગુજરાત,":14827,"▁વાંચતા":14828,"▁ઝાપ":14829,"▁મધ્યસ્થ":14830,"▁વીડિયોને":14831,"▁નદીઓ":14832,"▁પોસ્ટર":14833,"▁દૂધમાં":14834,
[...]
