{
  "version": "1.0",
  "truncation": null,
  "padding": null,
  "added_tokens": [
    {
      "id": 0,
      "content": "<pad>",
      "single_word": false,
      "lstrip": false,
      "rstrip": false,
      "normalized": false,
      "special": true
    },
    {
      "id": 1,
      "content": "<unk>",
      "single_word": false,
      "lstrip": false,
      "rstrip": false,
      "normalized": false,
      "special": true
    },
    {
      "id": 2,
      "content": "<s>",
      "single_word": false,
      "lstrip": false,
      "rstrip": false,
      "normalized": false,
      "special": true
    },
    {
      "id": 3,
      "content": "</s>",
      "single_word": false,
      "lstrip": false,
      "rstrip": false,
      "normalized": false,
      "special": true
    },
    {
      "id": 4,
      "content": "<mask>",
      "single_word": false,
      "lstrip": false,
      "rstrip": false,
      "normalized": false,
      "special": true
    }
  ],
  "normalizer": {
    "type": "NFKC"
  },
  "pre_tokenizer": {
    "type": "Metaspace",
    "replacement": "▁",
    "prepend_scheme": "always",
    "split": true
  },
  "post_processor": null,
  "decoder": {
    "type": "Metaspace",
    "replacement": "▁",
    "prepend_scheme": "always",
    "split": true
  },
  "model": {
    "type": "BPE",
    "dropout": null,
    "unk_token": "<unk>",
    "continuing_subword_prefix": null,
    "end_of_word_suffix": null,
    "fuse_unk": false,
    "byte_fallback": false,
    "ignore_merges": false,
    "vocab": {
      "<pad>": 0,
      "<unk>": 1,
      "<s>": 2,
      "</s>": 3,
      "<mask>": 4,
      "\t": 5,
      "\n": 6,
      "!": 7,
      ",": 8,
      ".": 9,
      "0": 10,
      "1": 11,
      "2": 12,
      "3": 13,
      "4": 14,
      "5": 15,
      "6": 16,
      "7": 17,
      "8": 18,
      "9": 19,
      "?": 20,
      "ઁ": 21,
      "ં": 22,
      "ઃ": 23,
      "અ": 24,
      "આ": 25,
      "ઇ": 26,
      "ઈ": 27,
      "ઉ": 28,
      "ઊ": 29,
      "ઋ": 30,
      "ઌ": 31,
      "ઍ": 32,
      "એ": 33,
      "ઐ": 34,
      "ઑ": 35,
      "ઓ": 36,
      "ઔ": 37,
      "ક": 38,
      "ખ": 39,
      "ગ": 40,
      "ઘ": 41,
      "ઙ": 42,
      "ચ": 43,
      "છ": 44,
      "જ": 45,
      "ઝ": 46,
      "ઞ": 47,
      "ટ": 48,
      "ઠ": 49,
      "ડ": 50,
      "ઢ": 51,
      "ણ": 52,
      "ત": 53,
      "થ": 54,
      "દ": 55,
      "ધ": 56,
      "ન": 57,
      "પ": 58,
      "ફ": 59,
      "બ": 60,
      "ભ": 61,
      "મ": 62,
      "ય": 63,
      "ર": 64,
      "઱": 65,
      "લ": 66,
      "ળ": 67,
      "વ": 68,
      "શ": 69,
      "ષ": 70,
      "સ": 71,
      "હ": 72,
      "઼": 73,
      "ઽ": 74,
      "ા": 75,
      "િ": 76,
      "ી": 77,
      "ુ": 78,
      "ૂ": 79,
      "ૃ": 80,
      "ૄ": 81,
      "ૅ": 82,
      "૆": 83,
      "ે": 84,
      "ૈ": 85,
      "ૉ": 86,
      "ો": 87,
      "ૌ": 88,
      "્": 89,
      "ૐ": 90,
      "૟": 91,
      "ૠ": 92,
      "ૢ": 93,
      "૦": 94,
      "૧": 95,
      "૨": 96,
      "૩": 97,
      "૪": 98,
      "૫": 99,
      "૬": 100,
      "૭": 101,
      "૮": 102,
      "૯": 103,
      "૰": 104,
      "૱": 105,
      "ૹ": 106,
      "▁": 107,
      "▁ક": 108,
      "મા": 109,
      "▁પ": 110,
      "▁સ": 111,
      "▁ત": 112,
      "ને": 113,
      "વા": 114,
      "ના": 115,
      "્ય": 116,
      "▁જ": 117,
      "▁અ": 118,
      "▁છ": 119,
      "▁આ": 120,
      "્ર": 121,
      "માં": 122,
      "ાર": 123,
      "▁છે": 124,
      "▁હ": 125,
      "▁મ": 126,
      "▁વ": 127,
      "ું": 128,
      "ની": 129,
      "▁ર": 130,
      "▁તે": 131,
      "▁બ": 132,
      "▁કર": 133,
      "તા": 134,
      "▁એ": 135,
      "▁ન": 136,
      "▁છે.": 137,
      "▁દ": 138,
      "ર્": 139,
      "થી": 140,
      "લા": 141,
      "▁શ": 142,
      "▁અને": 143,
      "▁મા": 144,
      "▁ગ": 145,
      "▁કે": 146,
      "્યા": 147,
      "રા": 148,
      "▁લ": 149,
      "▁પ્ર": 150,
      "▁થ": 151,
      "સ્": 152,
      "▁ભ": 153,
      "યા": 154,
      "રી": 155,
      "▁સા": 156,
      "વી": 157,
      "ક્": 158,
      "▁ખ": 159,
      "ન્": 160,
      "▁વિ": 161,
      "ટે": 162,
      "તી": 163,
      "▁ઉ": 164,
      "▁ચ": 165,
      "હે": 166,
      "ાય": 167,
      "▁પર": 168,
      "નો": 169,
      "વે": 170,
      "▁જે": 171,
      "▁સ્": 172,
      "▁પણ": 173,
      "મે": 174,
      ".\n": 175,
      "તિ": 176,
      "કા": 177,
      "▁ફ": 178,
      "▁રા": 179,
      "ત્ર": 180,
      "લી": 181,
      "▁પા": 182,
      "નું": 183,
      "ત્": 184,
      "▁એક": 185,
      "રે": 186,
      "▁માટે": 187,
      "શે": 188,
      "ંગ": 189,
      "▁જો": 190,
      "▁વા": 191,
      "▁કરી": 192,
      "િક": 193,
      "▁આપ": 194,
      "વામાં": 195,
      "▁કા": 196,
      "્યું": 197,
      "▁ના": 198,
      "▁ધ": 199,
      "હી": 200,
      "ારે": 201,
      "કે": 202,
      "ણી": 203,
      "ણે": 204,
      "કો": 205,
      "▁કો": 206,
      "▁હત": 207,
      "ાવ": 208,
      "લે": 209,
      "ડી": 210,
      "▁આવ": 211,
      "▁તેમ": 212,
      "્યો": 213,
      "▁હો": 214,
      "લ્": 215,
      "તે": 216,
      "▁લા": 217,
      "▁છે.\n": 218,
      "▁સુ": 219,
      "▁ઘ": 220,
      "ટી": 221,
      "ાન": 222,
      "થે": 223,
      "િયા": 224,
      "ક્ષ": 225,
      "▁સં": 226,
      "ડા": 227,
      "યો": 228,
      "▁સમ": 229,
      "જી": 230,
      "િત": 231,
      "ાં": 232,
      "▁સાથે": 233,
      "રો": 234,
      "કાર": 235,
      "▁છે,": 236,
      "▁પો": 237,
      "ધી": 238,
      "▁જા": 239,
      "▁કાર": 240,
      "▁ઉપ": 241,
      "▁હતી": 242,
      "▁મે": 243,
      "▁બા": 244,
      "રૂ": 245,
      "▁નથી": 246,
      "▁ટ": 247,
      "ંદ": 248,
      "▁હતા": 249,
      "▁મુ": 250,
      "ણા": 251,
      "▁કરવા": 252,
      "ંત": 253,
      "જા": 254,
      "સા": 255,
      "સે": 256,
      "▁નિ": 257,
      "▁મો": 258,
      "▁દે": 259,
      "▁ડ": 260,
      "▁તો": 261,
      "્યારે": 262,
      "ષ્": 263,
      "ભા": 264,
      "▁બે": 265,
      "ળી": 266,
      "▁વધ": 267,
      "ારી": 268,
      "કી": 269,
      "થા": 270,
      "મી": 271,
      "▁હા": 272,
      "▁લો": 273,
      "દ્": 274,
      "પા": 275,
      "▁ભા": 276,
      "▁1": 277,
      "▁ઓ": 278,
      "▁આવે": 279,
      "વિ": 280,
      "્યાં": 281,
      "દા": 282,
      "દી": 283,
      "▁મહ": 284,
      "▁તમા": 285,
      "તાં": 286,
      "શ્": 287,
      "વું": 288,
      "▁રહ": 289,
      "▁લે": 290,
      "▁રહે": 291,
      "▁ગુ": 292,
      "્રી": 293,
      "ટા": 294,
      "▁આવી": 295,
      "નુ": 296,
      "િવ": 297,
      "યુ": 298,
      "ંચ": 299,
      "સી": 300,
      "▁વર્": 301,
      "્રે": 302,
      "ંધ": 303,
      "ો.": 304,
      "▁ખા": 305,
      "▁ઇ": 306,
      "▁હોય": 307,
      "છી": 308,
      "સ્ત": 309,
      "્રા": 310,
      "લો": 311,
      "ળા": 312,
      "▁જી": 313,
      "▁પુ": 314,
      "ડે": 315,
      "▁હતું": 316,
      "▁2": 317,
      "▁ને": 318,
      "િય": 319,
      "જે": 320,
      "શન": 321,
      "▁રી": 322,
      "▁કરે": 323,
      "ાર્": 324,
      "તો": 325,
      "▁ની": 326,
      "્યુ": 327,
      "▁પે": 328,
      "▁સર": 329,
      "▁કરવામાં": 330,
      "▁રાજ": 331,
      "વાર": 332,
      "સ્ટ": 333,
      "યે": 334,
      "ગી": 335,
      "દે": 336,
      "▁તા": 337,
      "▁માં": 338,
      "શે.": 339,
      "▁ચા": 340,
      "▁તેના": 341,
      "▁પૂ": 342,
      "▁થઈ": 343,
      "▁થાય": 344,
      "▁મળ": 345,
      "ધા": 346,
      "▁પછી": 347,
      "▁હતી.": 348,
      "▁રો": 349,
      "▁સે": 350,
      "ચ્": 351,
      "ન્ટ": 352,
      "▁તમે": 353,
      "શા": 354,
      "ારા": 355,
      "▁લોકો": 356,
      "વાની": 357,
      "ગે": 358,
      "નાં": 359,
      "▁સિ": 360,
      "પ્": 361,
      "્વા": 362,
      "▁બી": 363,
      "▁તેને": 364,
      "િલ્": 365,
      "માન": 366,
      "▁રીતે": 367,
      "પી": 368,
      "હીં": 369,
      "▁૧": 370,
      "▁પોતા": 371,
      "▁યુ": 372,
      "▁ઈ": 373,
      "દ્ધ": 374,
      "▁રૂ": 375,
      "ષ્ટ": 376,
      "▁શકે": 377,
      "▁કોઈ": 378,
      "..": 379,
      "બા": 380,
      "▁રાખ": 381,
      "હિ": 382,
      "ગા": 383,
      "▁વર્ષ": 384,
      "▁વે": 385,
      "▁એમ": 386,
      "નિ": 387,
      "▁કહે": 388,
      "રમાં": 389,
      "▁કહ": 390,
      "ખા": 391,
      "▁શક": 392,
      "ત્રી": 393,
      "▁કામ": 394,
      "ચે": 395,
      "▁સુધી": 396,
      "▁પહે": 397,
      "▁દ્વા": 398,
      "ંતુ": 399,
      "▁દ્વારા": 400,
      "▁ત્યારે": 401,
      "મ્": 402,
      "ણુ": 403,
      "▁એટ": 404,
      "▁હતા.": 405,
      "▁દિવ": 406,
      "ન્ડ": 407,
      "▁સ્થ": 408,
      "▁ગા": 409,
      "ચાર": 410,
      "▁ઝ": 411,
      "▁પરંતુ": 412,
      "▁હું": 413,
      "▁વધુ": 414,
      "▁લી": 415,
      "▁તેની": 416,
      "▁દર": 417,
      "▁વ્ય": 418,
      "ગર": 419,
      "▁શા": 420,
      "▁કે,": 421,
      "▁બના": 422,
      "▁દુ": 423,
      "સિ": 424,
      "ક્ર": 425,
      "▁દી": 426,
      "ેર": 427,
      "▁ઉપર": 428,
      "▁નો": 429,
      "લિ": 430,
      "રણ": 431,
      "ચા": 432,
      "માંથી": 433,
      "વો": 434,
      "હા": 435,
      "▁પરિ": 436,
      "▁પડ": 437,
      "▁હે": 438,
      "હો": 439,
      "▁રે": 440,
      "મને": 441,
      "▁ભાર": 442,
      "▁રહી": 443,
      "▁નથી.": 444,
      "▁બો": 445,
      "▁ખે": 446,
      "▁છો": 447,
      "▁મિ": 448,
      "ક્તિ": 449,
      "ટર": 450,
      "▁મૂ": 451,
      "યોગ": 452,
      "▁કુ": 453,
      "▁ઉત્": 454,
      "▁અનુ": 455,
      "▁હતો.": 456,
      "▁વાત": 457,
      "શી": 458,
      "નમાં": 459,
      "▁કહ્યું": 460,
      "મિ": 461,
      "પ્ર": 462,
      "ન્દ": 463,
      "ર્ણ": 464,
      "▁કેટ": 465,
      "▁હવે": 466,
      "ંક": 467,
      "▁સો": 468,
      "▁તથા": 469,
      "▁જોઈ": 470,
      "બી": 471,
      "▁તેઓ": 472,
      "▁જ્યારે": 473,
      "▁પી": 474,
      "▁સમય": 475,
      "▁અથ": 476,
      "ન્ય": 477,
      "▁તર": 478,
      "▁ત્યાં": 479,
      "▁જીવ": 480,
      "મો": 481,
      "▁ગયા": 482,
      "ંડ": 483,
      "તર": 484,
      "બર": 485,
      "ર્વ": 486,
      "▁ક્": 487,
      "યું": 488,
      "સર": 489,
      "▁પોલી": 490,
      "▁કિ": 491,
      "▁સ્વ": 492,
      "ારો": 493,
      "▁અથવા": 494,
      "ૂર": 495,
      "▁હતો": 496,
      "▁સી": 497,
      "▁સમા": 498,
      "▁નહીં": 499,
      "પે": 500,
      "▁સામે": 501,
      "▁પ્રા": 502,
      "▁સહ": 503,
      "ુર": 504,
      "▁અમ": 505,
      "વાનું": 506,
      "▁20": 507,
      "ુક": 508,
      "▁!": 509,
      "પો": 510,
      "▁પાસે": 511,
      "ત્ય": 512,
      "ર્ટ": 513,
      "▁જણ": 514,
      "્ઞ": 515,
      "સો": 516,
      "હાર": 517,
      "▁જાય": 518,
      "▁કં": 519,
      "જન": 520,
      "▁અમે": 521,
      "ટો": 522,
      "▁સૌ": 523,
      "▁લગ": 524,
      "▁રહ્યા": 525,
      "▁લાગ": 526,
      "▁વખ": 527,
      "▁મી": 528,
      "ખી": 529,
      "િંગ": 530,
      "તમાં": 531,
      "▁દેશ": 532,
      "▁જરૂ": 533,
      "▁શું": 534,
      "▁દા": 535,
      "▁બાદ": 536,
      "▁?": 537,
      "ન્સ": 538,
      "િટ": 539,
      "લું": 540,
      "▁૨": 541,
      "જરા": 542,
      "▁વી": 543,
      "▁નામ": 544,
      "▁કાર્ય": 545,
      "▁પહેલા": 546,
      "▁અધ": 547,
      "▁કરીને": 548,
      "તું": 549,
      "▁તેમના": 550,
      "▁એટલે": 551,
      "પૂ": 552,
      "▁અભ": 553,
      "▁તમારા": 554,
      "લમાં": 555,
      "▁ટે": 556,
      "▁ઊ": 557,
      "▁ભાગ": 558,
      "▁કરો": 559,
      "ર્મ": 560,
      "▁જવા": 561,
      "▁ત્ર": 562,
      "વર": 563,
      "▁જુ": 564,
      "લુ": 565,
      "▁થયા": 566,
      "હુ": 567,
      "વવા": 568,
      "▁શરૂ": 569,
      "જુ": 570,
      "▁મળી": 571,
      "▁કારણ": 572,
      "રુ": 573,
      "સ્થ": 574,
      "▁,": 575,
      "દેશ": 576,
      "▁મહિ": 577,
      "▁ટી": 578,
      "▁ગુજરા": 579,
      "▁3": 580,
      "ત્વ": 581,
      "▁જણાવ": 582,
      "▁હિ": 583,
      "▁આગ": 584,
      "▁આવ્યા": 585,
      "ઓને": 586,
      "▁આપી": 587,
      "વાદ": 588,
      "શે.\n": 589,
      "▁નહિ": 590,
      "ંભ": 591,
      "તુ": 592,
      "્સ": 593,
      "▁તરી": 594,
      "▁ખૂ": 595,
      "▁હતું.": 596,
      "▁લઈ": 597,
      "▁માન": 598,
      "▁દિવસ": 599,
      "▁કરતા": 600,
      "▁મને": 601,
      "▁કારણે": 602,
      "પર": 603,
      "▁ખુ": 604,
      "▁કર્યો": 605,
      "▁ચે": 606,
      "▁થઇ": 607,
      "▁શિ": 608,
      "લાક": 609,
      "▁તરીકે": 610,
      "બ્": 611,
      "ક્ષા": 612,
      "▁આજે": 613,
      "▁સરકાર": 614,
      "્રો": 615,
      "ક્ત": 616,
      "▁ભૂ": 617,
      "ર્થ": 618,
      "▁બાળ": 619,
      "છા": 620,
      "હેર": 621,
      "00": 622,
      "▁ફે": 623,
      "જો": 624,
      "▁તેથી": 625,
      "▁તરફ": 626,
      "▁જાણ": 627,
      "ડો": 628,
      "નાર": 629,
      "▁પ્રમા": 630,
      "ન્દ્ર": 631,
      "ૃત": 632,
      "▁ચો": 633,
      "▁ફો": 634,
      "▁પોલીસ": 635,
      "▁ડિ": 636,
      "▁શ્રી": 637,
      "વાથી": 638,
      "▁હાથ": 639,
      "▁યા": 640,
      "રિ": 641,
      "સ્તા": 642,
      "▁ચૂ": 643,
      "▁મુખ": 644,
      "▁.": 645,
      "▁પાણી": 646,
      "▁મેળ": 647,
      "▁તેમણે": 648,
      "▁પોતાના": 649,
      "▁તેમને": 650,
      "ઠા": 651,
      "▁માત્ર": 652,
      "સાર": 653,
      "ભાઈ": 654,
      "વાન": 655,
      "▁અંગ": 656,
      "▁પ્રતિ": 657,
      "ચી": 658,
      "▁પ્રે": 659,
      "િતિ": 660,
      "ટના": 661,
      "▁અન્ય": 662,
      "તના": 663,
      "ંત્ર": 664,
      "▁કર્યું": 665,
      "▁પહો": 666,
      "▁રાજ્ય": 667,
      "ળે": 668,
      "▁ખૂબ": 669,
      "▁રૂપ": 670,
      "▁ફર": 671,
      "▁રિ": 672,
      "▁જોઈએ": 673,
      "દર": 674,
      "▁મારા": 675,
      "▁ક્ર": 676,
      "▁વિચાર": 677,
      "▁મારી": 678,
      "▁જેમ": 679,
      "▁દરમ": 680,
      "થમ": 681,
      "▁વર": 682,
      "નની": 683,
      "▁આવ્યો": 684,
      "▁ય": 685,
      "▁વિશે": 686,
      "ક્સ": 687,
      "▁તમને": 688,
      "વાય": 689,
      "મુ": 690,
      "વારે": 691,
      "▁બિ": 692,
      "▁દિ": 693,
      "ક્ટ": 694,
      "વાના": 695,
      "▁5": 696,
      "▁ગો": 697,
      "ગ્ર": 698,
      "▁તેણે": 699,
      "નના": 700,
      "મમાં": 701,
      "સ્થા": 702,
      "બે": 703,
      "▁દર્": 704,
      "▁તેમની": 705,
      "ાયે": 706,
      "દાર": 707,
      "▁સૂ": 708,
      "બંધ": 709,
      "પની": 710,
      "ક્ષણ": 711,
      "▁પડે": 712,
      "▁સાર": 713,
      "કર": 714,
      "▁પહોંચ": 715,
      "પણ": 716,
      "િયાન": 717,
      "▁શો": 718,
      "▁માર્": 719,
      "જના": 720,
      "▁શુ": 721,
      "પાસ": 722,
      "જબ": 723,
      "▁જોવા": 724,
      "▁ચિ": 725,
      "▁વિસ્ત": 726,
      "ચ્ચે": 727,
      "▁આવ્યું": 728,
      "▁ક્ષ": 729,
      "મત": 730,
      "▁ભાવ": 731,
      "▁ઉપયોગ": 732,
      "વાનો": 733,
      "રેક": 734,
      "▁એવા": 735,
      "▁વચ્ચે": 736,
      "્મ": 737,
      "જ્ઞ": 738,
      "▁સર્": 739,
      "ધાન": 740,
      "▁4": 741,
      "▁આપણે": 742,
      "▁કરતાં": 743,
      "ર્સ": 744,
      "▁છું": 745,
      "▁જગ": 746,
      "▁જરૂર": 747,
      "▁તમામ": 748,
      "▁અમા": 749,
      "▁જેમાં": 750,
      "▁રહ્યો": 751,
      "▁તેમજ": 752,
      "ીએ": 753,
      "ર્ડ": 754,
      "દો": 755,
      "▁તેમાં": 756,
      "કરી": 757,
      "▁ફિલ્": 758,
      "ભાવ": 759,
      "▁મુખ્ય": 760,
      "▁યો": 761,
      "▁મળે": 762,
      "▁બહાર": 763,
      "▁સૌથી": 764,
      "▁આપે": 765,
      "ખ્યા": 766,
      "રોના": 767,
      "▁થી": 768,
      "▁બની": 769,
      "▁ગઈ": 770,
      "▁તૈ": 771,
      "▁દરમિયાન": 772,
      "▁બદ": 773,
      "ંટ": 774,
      "▁જણાવ્યું": 775,
      "▁વ્યક્તિ": 776,
      "▁બનાવ": 777,
      "તાના": 778,
      "▁અવ": 779,
      "▁ઘણા": 780,
      "▁દરેક": 781,
      "ંત્રી": 782,
      "▁હતી.\n": 783,
      "▁નોંધ": 784,
      "▁અલ": 785,
      "શો": 786,
      "▁ડે": 787,
      "મના": 788,
      "▁મન": 789,
      "▁અહીં": 790,
      "▁બધા": 791,
      "છે": 792,
      "ધાર": 793,
      "▁પ્રો": 794,
      "▁પ્રકાર": 795,
      "લના": 796,
      "પુ": 797,
      "િલ્લા": 798,
      "▁પગ": 799,
      "▁સ્વા": 800,
      "▁મહા": 801,
      "▁ઠ": 802,
      "▁શકાય": 803,
      "▁લીધ": 804,
      "▁થો": 805,
      "▁પ્રથમ": 806,
      "▁વિશ્": 807,
      "▁ત્રણ": 808,
      "▁આગળ": 809,
      "▁એવી": 810,
      "▁કરવાની": 811,
      "પ્ત": 812,
      "▁મદ": 813,
      "▁વિદ": 814,
      "▁તમારી": 815,
      "▁અપ": 816,
      "▁શે": 817,
      "ત્મ": 818,
      "▁કર્યા": 819,
      "▁કોરોના": 820,
      "▁૩": 821,
      "▁વધારે": 822,
      "▁પેા": 823,
      "▁પોતાની": 824,
      "▁તૈય": 825,
      "રના": 826,
      "લ્લા": 827,
      "▁બંધ": 828,
      "સના": 829,
      "▁અધિક": 830,
      "ન્ન": 831,
      "શિ": 832,
      "▁જિલ્લા": 833,
      "▁ફા": 834,
      "ંને": 835,
      "▁કેટલાક": 836,
      "▁બન": 837,
      "▁છીએ": 838,
      "▁દો": 839,
      "ખે": 840,
      "▁ખો": 841,
      "જાર": 842,
      "▁હાય": 843,
      "સમાં": 844,
      "સુ": 845,
      "સ્તુ": 846,
      "કુ": 847,
      "▁આરો": 848,
      "શુ": 849,
      "▁હુ": 850,
      "▁સુર": 851,
      "્ન": 852,
      "જર": 853,
      "?\n": 854,
      "▁શકો": 855,
      "સ્પ": 856,
      "લિક": 857,
      "પૂર્ણ": 858,
      "▁છતાં": 859,
      "દન": 860,
      "▁ચાલ": 861,
      "▁શરી": 862,
      "▁થયે": 863,
      "▁જોઇ": 864,
      "તની": 865,
      "▁ઘણી": 866,
      "ડિ": 867,
      "▁પિ": 868,
      "ત્રો": 869,
      "▁નથી,": 870,
      "▁પડી": 871,
      "▁ખી": 872,
      "▁પ્રમાણે": 873,
      "▁અનેક": 874,
      "▁ધ્યા": 875,
      "▁મોટા": 876,
      "વુ": 877,
      "ડિયા": 878,
      "ભાગ": 879,
      "ળો": 880,
      "ત્તિ": 881,
      "▁ચી": 882,
      "▁બીજા": 883,
      "▁પાર્": 884,
      "▁કંપની": 885,
      "▁વાર": 886,
      "▁જીવન": 887,
      "▁માર": 888,
      "▁નવા": 889,
      "▁વિષ": 890,
      "▁ગયો": 891,
      "▁આમ": 892,
      "▁શી": 893,
      "▁જેવા": 894,
      "▁ફરી": 895,
      "▁થયો": 896,
      "▁પાછ": 897,
      "ૃતિ": 898,
      "▁કેમ": 899,
      "રૂપ": 900,
      "▁થયું": 901,
      "તાની": 902,
      "્યે": 903,
      "▁જૂ": 904,
      "િન": 905,
      "▁બંને": 906,
      "ંહ": 907,
      "▁વખતે": 908,
      "▁સફ": 909,
      "▁પ્": 910,
      "ષા": 911,
      "▁ડા": 912,
      "▁આપવામાં": 913,
      "▁નિય": 914,
      "▁માણ": 915,
      "માન્ય": 916,
      "▁દૂર": 917,
      "ઓની": 918,
      "▁ભે": 919,
      "▁ઓફ": 920,
      "▁ચાર": 921,
      "▁તુ": 922,
      "મણ": 923,
      "▁લાખ": 924,
      "▁ઘટના": 925,
      "િર": 926,
      "દર્": 927,
      "ંદર": 928,
      "▁મહે": 929,
      "્રહ": 930,
      "▁વ્યવ": 931,
      "▁ટકા": 932,
      "▁અં": 933,
      "લાં": 934,
      "▁અંગે": 935,
      "▁રૂપિયા": 936,
      "▁સ્ટે": 937,
      "▁એવું": 938,
      "▁મદદ": 939,
      "ચના": 940,
      "વાસ": 941,
      "▁ખાસ": 942,
      "કલ": 943,
      "▁કાં": 944,
      "પના": 945,
      "▁વ્યા": 946,
      "▁6": 947,
      "▁મહિલા": 948,
      "▁કહી": 949,
      "સાદ": 950,
      "▁રહ્યું": 951,
      "▁વૃ": 952,
      "▁અંત": 953,
      "ન,": 954,
      "▁બેઠ": 955,
      "▁સ્પ": 956,
      "▁ગ્રા": 957,
      "જૂ": 958,
      "▁જ્યાં": 959,
      "વિધ": 960,
      "▁કરા": 961,
      "ત્ત": 962,
      "ગેરે": 963,
      "નારા": 964,
      "્યાર": 965,
      "ગો": 966,
      "▁સ્થિતિ": 967,
      "વેશ": 968,
      "મન": 969,
      "▁લાગે": 970,
      "▁ભર": 971,
      "▁મધ": 972,
      "ષ્ય": 973,
      "▁ટા": 974,
      "▁નવી": 975,
      "▁સામાન્ય": 976,
      "▁આં": 977,
      "▁સમયે": 978,
      "▁રોજ": 979,
      "ત્તા": 980,
      "▁કી": 981,
      "ચર": 982,
      "ગત": 983,
      "▁વખત": 984,
      "ચ્છ": 985,
      "દિ": 986,
      "▁ડો": 987,
      "સ્ક": 988,
      "▁નીચે": 989,
      "▁બુ": 990,
      "▁વિસ્તાર": 991,
      "▁જણા": 992,
      "▁જવાબ": 993,
      "▁આવા": 994,
      "દાન": 995,
      "વાને": 996,
      "▁ભાજ": 997,
      "▁તપાસ": 998,
      "▁વસ્તુ": 999,
      "▁સાંભ": 1000,
      "સંદ": 1001,
      "ઓમાં": 1002,
      "ૂત": 1003,
      "▁સહિત": 1004,
      "રાવ": 1005,
      "▁પાંચ": 1006,
      "મેન્ટ": 1007,
      "માર": 1008,
      "▁જ્ઞ": 1009,
      "▁ભારત": 1010,
      "પુર": 1011,
      "શે,": 1012,
      "કમાં": 1013,
      "▁૫": 1014,
      "દ્ધિ": 1015,
      "▁બહુ": 1016,
      "▁૪": 1017,
      "▁હાલ": 1018,
      "કિ": 1019,
      "▁ગાં": 1020,
      "▁હતા.\n": 1021,
      "વાળા": 1022,
      "ધિ": 1023,
      "▁વૈ": 1024,
      "ભવ": 1025,
      "▁19": 1026,
      "▁ઢ": 1027,
      "ળતા": 1028,
      "▁બાબ": 1029,
      "▁સામ": 1030,
      "કાશ": 1031,
      "ર્ષ": 1032,
      "▁મુજબ": 1033,
      "ત્મા": 1034,
      "▁ભગ": 1035,
      "▁સાધ": 1036,
      "▁ગે": 1037,
      "કારી": 1038,
      "▁બીજી": 1039,
      "ંગ્રે": 1040,
      "▁માહિ": 1041,
      "તીય": 1042,
      "▁સમજ": 1043,
      "મની": 1044,
      "▁બધ": 1045,
      "▁ધર": 1046,
      "બો": 1047,
      "લ,": 1048,
      "▁યોગ": 1049,
      "યર": 1050,
      "કરણ": 1051,
      "▁ઘર": 1052,
      "▁સાં": 1053,
      "▁અલગ": 1054,
      "▁ઉપરા": 1055,
      "▁જેટ": 1056,
      "▁લઇ": 1057,
      "▁સ્ત્રી": 1058,
      "▁મૃત": 1059,
      "કસ": 1060,
      "શ્ર": 1061,
      "▁ડી": 1062,
      "ષ્ઠ": 1063,
      "શિય": 1064,
      "▁ખરી": 1065,
      "▁લખ": 1066,
      "ૂટ": 1067,
      "▁આર": 1068,
      "▁અર": 1069,
      "▁પૈ": 1070,
      "▁પસંદ": 1071,
      "સની": 1072,
      "▁માહિતી": 1073,
      "▁કપ": 1074,
      "▁7": 1075,
      "ઝા": 1076,
      "▁સારી": 1077,
      "▁પરિવાર": 1078,
      "વણી": 1079,
      "▁તૈયાર": 1080,
      "▁નવ": 1081,
      "▁સંબંધ": 1082,
      "▁માતા": 1083,
      "નને": 1084,
      "▁હતો.\n": 1085,
      "ુંબ": 1086,
      "▁ધી": 1087,
      "▁જઈ": 1088,
      "ફો": 1089,
      "...": 1090,
      "ચિ": 1091,
      "માં,": 1092,
      "ષ્ટ્ર": 1093,
      "૦૦": 1094,
      "▁ગણ": 1095,
      "▁ધર્મ": 1096,
      "ાર્થી": 1097,
      "ં.": 1098,
      "▁કાય": 1099,
      "▁શબ્": 1100,
      "▁નિર્": 1101,
      "જય": 1102,
      "▁જેના": 1103,
      "▁અર્": 1104,
      "▁સ્થાન": 1105,
      "▁ચૂંટ": 1106,
      "ભાઇ": 1107,
      "▁10": 1108,
      "ત્રા": 1109,
      "▁ત્યાર": 1110,
      "ઓના": 1111,
      "▁ઉપરાંત": 1112,
      "▁કાઢ": 1113,
      "▁કોઇ": 1114,
      "નિક": 1115,
      "વ્ય": 1116,
      "▁જાહેર": 1117,
      "▁અસર": 1118,
      "▁વો": 1119,
      "વન": 1120,
      "▁નીક": 1121,
      "▁ઉમે": 1122,
      "ડવા": 1123,
      "લની": 1124,
      "▁ગુજરાત": 1125,
      "▁લઈને": 1126,
      "▁કૃ": 1127,
      "▁મંદ": 1128,
      "પોર્ટ": 1129,
      "▁તેનું": 1130,
      "▁બાળકો": 1131,
      "પરા": 1132,
      "ઇન": 1133,
      "▁જન્": 1134,
      "▁રાજા": 1135,
      "ગ્": 1136,
      "▁વિશ્વ": 1137,
      "તન": 1138,
      "▁કેવી": 1139,
      "▁એને": 1140,
      "▁દિવસે": 1141,
      "▁જેથી": 1142,
      "વીને": 1143,
      "▁ખાતે": 1144,
      "▁થા": 1145,
      "▁એના": 1146,
      "▁ચૂંટણી": 1147,
      "ટમાં": 1148,
      "▁મેં": 1149,
      "લાઈ": 1150,
      "▁વગેરે": 1151,
      "▁અધિકારી": 1152,
      "▁રાખી": 1153,
      "▁મોદી": 1154,
      "ઓએ": 1155,
      "્રિ": 1156,
      "▁વિવિધ": 1157,
      "▁લેવા": 1158,
      ",\n": 1159,
      "ાયો": 1160,
      "▁વરસાદ": 1161,
      "▁પ્રેમ": 1162,
      "▁8": 1163,
      "દાવાદ": 1164,
      "▁પહેલાં": 1165,
      "▁ઝડ": 1166,
      "ંકા": 1167,
      "▁કોંગ્રે": 1168,
      "▁ટ્રે": 1169,
      "હિત": 1170,
      "▁કરોડ": 1171,
      "▁201": 1172,
      "▁સંગ": 1173,
      "▁જરૂરી": 1174,
      "▁સ્થા": 1175,
      "મંત્રી": 1176,
      "▁લગ્ન": 1177,
      "ભુ": 1178,
      "ણો": 1179,
      "▁જય": 1180,
      "સ્યા": 1181,
      "▁નથી.\n": 1182,
      "▁સર્વ": 1183,
      "ણું": 1184,
      "્યા.": 1185,
      "▁બને": 1186,
      "▁મત": 1187,
      "▁અભિ": 1188,
      "▁સત": 1189,
      "ખો": 1190,
      "▁લોકોને": 1191,
      "▁વિના": 1192,
      "▁વિદ્ય": 1193,
      "કાસ": 1194,
      "્રુ": 1195,
      "તાને": 1196,
      "ણાં": 1197,
      "▁રંગ": 1198,
      "▁અમદાવાદ": 1199,
      "▁પટે": 1200,
      "લન": 1201,
      "તાવ": 1202,
      "થ્": 1203,
      "હન": 1204,
      "▁મહત્વ": 1205,
      "▁જન": 1206,
      "▁જેવી": 1207,
      "▁.\n": 1208,
      "▁પાછળ": 1209,
      "▁જાણી": 1210,
      "દય": 1211,
      "ીર": 1212,
      "▁શ્રે": 1213,
      "કના": 1214,
      "▁અન": 1215,
      "▁લાભ": 1216,
      "ષ્ટિ": 1217,
      "▁ગર": 1218,
      "▁દેવ": 1219,
      "સ્પિટ": 1220,
      "▁હૈ": 1221,
      "▁આજ": 1222,
      "▁શહેર": 1223,
      "એસ": 1224,
      "▁હતા,": 1225,
      "▁કરવું": 1226,
      "▁ફિલ્મ": 1227,
      "▁આન": 1228,
      "▁સ્ટ": 1229,
      "ચારી": 1230,
      "કડ": 1231,
      "તરી": 1232,
      "દ્ર": 1233,
      "▁પક્ષ": 1234,
      "રાજ": 1235,
      "▁રસ": 1236,
      "▁ટો": 1237,
      "લર": 1238,
      "પિ": 1239,
      "▁મોટી": 1240,
      "કની": 1241,
      "તમ": 1242,
      "▁ધો": 1243,
      "કારે": 1244,
      "▁શરીર": 1245,
      "ભગ": 1246,
      "▁લાં": 1247,
      "▁અર્થ": 1248,
      "▁દિલ્": 1249,
      "▁જગ્યા": 1250,
      "▁સેવા": 1251,
      "▁ભારતીય": 1252,
      "▁આધ": 1253,
      "▁હતી,": 1254,
      "ફા": 1255,
      "ફે": 1256,
      "્યૂ": 1257,
      "▁તેવી": 1258,
      "▁વિદ્યાર્થી": 1259,
      "▁આવતા": 1260,
      "ગ્ય": 1261,
      "▁યુવ": 1262,
      "▁મહિના": 1263,
      "ણમાં": 1264,
      "▁અનુસાર": 1265,
      "▁અત્ય": 1266,
      "ાર્થ": 1267,
      "હેરા": 1268,
      "▁તેનો": 1269,
      "ક્ટર": 1270,
      "▁ગાંધી": 1271,
      "▁તું": 1272,
      "▁હોસ્પિટ": 1273,
      "ઇટ": 1274,
      "▁ધ્યાન": 1275,
      "▁કુલ": 1276,
      "▁ખેડ": 1277,
      "શું": 1278,
      "▁નિર્ણ": 1279,
      "▁9": 1280,
      "▁દેખ": 1281,
      "▁પરિણા": 1282,
      "બુ": 1283,
      "મર": 1284,
      "▁ઉત્પા": 1285,
      "▁દુઃ": 1286,
      "કત": 1287,
      "ડીને": 1288,
      "▁આપણા": 1289,
      "▁પોલીસે": 1290,
      "ાંત": 1291,
      "▁કેટલી": 1292,
      "▁પતિ": 1293,
      "▁અસ": 1294,
      "ટ્": 1295,
      "્રીય": 1296,
      "▁ખરા": 1297,
      "▁શેર": 1298,
      "▁પ્રયા": 1299,
      "▁અંદર": 1300,
      "▁દિલ્હી": 1301,
      "▁સુખ": 1302,
      "▁જેને": 1303,
      "▁છેલ્લા": 1304,
      "▁મહારા": 1305,
      "મ્પ": 1306,
      "▁જોઇએ": 1307,
      "લ્ડ": 1308,
      "▁સું": 1309,
      "ઠી": 1310,
      "▁વધી": 1311,
      "▁એની": 1312,
      "શ્વર": 1313,
      "▁લોક": 1314,
      "▁કરવી": 1315,
      "▁મર": 1316,
      "▁લગભગ": 1317,
      "શ્ય": 1318,
      "▁પ્રાપ્ત": 1319,
      "▁પાર": 1320,
      "▁પરી": 1321,
      "▁202": 1322,
      "ચ્છા": 1323,
      "▁ચર્": 1324,
      "▁જ્ઞાન": 1325,
      "▁આવેલા": 1326,
      "▁જમી": 1327,
      "▁દાખ": 1328,
      "▁બોલ": 1329,
      "▁પ્રસ": 1330,
      "▁સમગ્ર": 1331,
      "▁હતું.\n": 1332,
      "સને": 1333,
      "કને": 1334,
      "▁ભી": 1335,
      "▁માંગ": 1336,
      "▁હજાર": 1337,
      "કાના": 1338,
      "▁પૂર્વ": 1339,
      "▁થતા": 1340,
      "ખર": 1341,
      "▁પદ": 1342,
      "▁વિભાગ": 1343,
      "મુખ": 1344,
      "▁પ્રશ્": 1345,
      "ક્રિયા": 1346,
      "▁રાજકો": 1347,
      "▁સમસ્યા": 1348,
      "▁શહે": 1349,
      "નિયા": 1350,
      "ડિયો": 1351,
      "જ્ઞાન": 1352,
      "▁ચાલી": 1353,
      "ંગા": 1354,
      "▁ઘરે": 1355,
      "ત્રે": 1356,
      "▁યાદ": 1357,
      "▁જોકે": 1358,
      "વૃ": 1359,
      "▁સંખ્યા": 1360,
      "તા,": 1361,
      "▁રમ": 1362,
      "▁ક્યારે": 1363,
      "સિંહ": 1364,
      "િયન": 1365,
      "▁પત્": 1366,
      "વાલ": 1367,
      "નગર": 1368,
      "▁મામ": 1369,
      "▁નજી": 1370,
      "કરા": 1371,
      "▁છા": 1372,
      "▁વગર": 1373,
      "એમ": 1374,
      "▁પશુ": 1375,
      "▁સંપૂર્ણ": 1376,
      "▁ગયું": 1377,
      "ઘા": 1378,
      "▁૬": 1379,
      "સાય": 1380,
      "▁વળી": 1381,
      "▁પૂછ": 1382,
      "શ્કે": 1383,
      "▁કર્મ": 1384,
      "▁ધા": 1385,
      "▁લેખ": 1386,
      "બાદ": 1387,
      "રામ": 1388,
      "▁ઓળ": 1389,
      "ભી": 1390,
      "લાવ": 1391,
      "▁શ્ર": 1392,
      "▁ખાન": 1393,
      "વર્": 1394,
      "▁દેખા": 1395,
      "ચ્ચ": 1396,
      "▁આગા": 1397,
      "▁ચાલુ": 1398,
      "કીય": 1399,
      "▁ફેર": 1400,
      "▁અટ": 1401,
      "▁જોઈએ.": 1402,
      "ંદ્ર": 1403,
      "▁લાગી": 1404,
      "▁ખર્": 1405,
      "▁ભગવાન": 1406,
      "▁યોગ્ય": 1407,
      "▁કેન્દ્ર": 1408,
      "▁નિર્ણય": 1409,
      "▁આપવા": 1410,
      "▁જન્મ": 1411,
      "▁ભારે": 1412,
      "▁ફાય": 1413,
      "▁દીધ": 1414,
      "ન્ટર": 1415,
      "ૂલ": 1416,
      "▁ગી": 1417,
      "▁માર્ગ": 1418,
      "▁પુત્ર": 1419,
      "ક્રમ": 1420,
      "ર્તા": 1421,
      "▁કેસ": 1422,
      "▁મૂળ": 1423,
      "ડાં": 1424,
      "▁લિ": 1425,
      "સિક": 1426,
      "▁કરવાનું": 1427,
      "પતિ": 1428,
      "▁મનુ": 1429,
      "▁અભ્યા": 1430,
      "▁હશે": 1431,
      "▁શક્તિ": 1432,
      "ફ્": 1433,
      "▁તારી": 1434,
      "▁તમારે": 1435,
      "▁લીધે": 1436,
      "▁જાણે": 1437,
      "▁આનંદ": 1438,
      "▁ગામ": 1439,
      "▁થવા": 1440,
      "▁યોજના": 1441,
      "ટન": 1442,
      "▁એસ": 1443,
      "▁?\n": 1444,
      "▁બ્": 1445,
      "▁નાના": 1446,
      "▁એર": 1447,
      "કેટ": 1448,
      "▁ફરિયા": 1449,
      "▁વાંચ": 1450,
      "▁હેઠ": 1451,
      "ત્મક": 1452,
      "▁પાર્ટી": 1453,
      "▁બાજુ": 1454,
      "આત": 1455,
      "▁કલ": 1456,
      "લ્લે": 1457,
      "▁સભ": 1458,
      "▁કંઈ": 1459,
      "▁ક્ષે": 1460,
      "ગુ": 1461,
      "▁ઇન્": 1462,
      "▁વડા": 1463,
      "▁કરાવ": 1464,
      "▁પ્રત્ય": 1465,
      "બલ": 1466,
      "▁પ્રદેશ": 1467,
      "▁પૂર્ણ": 1468,
      "▁આવશે.": 1469,
      "▁એજ": 1470,
      "▁દ્ર": 1471,
      "▁કાઈ": 1472,
      "▁ભાઈ": 1473,
      "▁આસ": 1474,
      "▁સલા": 1475,
      "▁પૃ": 1476,
      "▁પાડ": 1477,
      "▁સારા": 1478,
      "▁હેઠળ": 1479,
      "▁ચર્ચા": 1480,
      "▁તેવા": 1481,
      "▁15": 1482,
      "▁સુંદર": 1483,
      "પૂર્વ": 1484,
      "દારી": 1485,
      "▁સારવાર": 1486,
      "▁કલાક": 1487,
      "મ્બર": 1488,
      "▁અમારા": 1489,
      "તને": 1490,
      "▁સતત": 1491,
      "▁છો.": 1492,
      "▁રોડ": 1493,
      "▁કાર્": 1494,
      "▁કલા": 1495,
      "▁ધાર": 1496,
      "▁થશે.": 1497,
      "▁ભો": 1498,
      "▁પૈસા": 1499,
      "▁નહી": 1500,
      "ઃ\n": 1501,
      "▁વર્ષે": 1502,
      "▁રામ": 1503,
      "▁બ્રા": 1504,
      "▁આધાર": 1505,
      "સ,": 1506,
      "▁મીડિયા": 1507,
      "▁એકા": 1508,
      "દુ": 1509,
      "▁કિં": 1510,
      "▁મુંબ": 1511,
      "ક્કી": 1512,
      "ગીરી": 1513,
      "▁ખબર": 1514,
      "િલ": 1515,
      "ચન": 1516,
      "▁12": 1517,
      "▁ગુણ": 1518,
      "મારી": 1519,
      "▁મુશ્કે": 1520,
      "રું": 1521,
      "▁છુ": 1522,
      "▁છે?": 1523,
      "▁વહે": 1524,
      "▁કરતી": 1525,
      "▁બનાવી": 1526,
      "ોમાં": 1527,
      "▁ઘટા": 1528,
      "▁બાં": 1529,
      "▁દર્દી": 1530,
      "કામાં": 1531,
      "▁કાળ": 1532,
      "ગ્રા": 1533,
      "વાહી": 1534,
      "પણે": 1535,
      "ંતર": 1536,
      "સાન": 1537,
      "▁લક્ષ": 1538,
      "સ્ત્ર": 1539,
      "▁સિવાય": 1540,
      "▁શક્ય": 1541,
      "▁નેતા": 1542,
      "ટ્સ": 1543,
      "▁પહોંચી": 1544,
      "▁ક્યાં": 1545,
      "ક,": 1546,
      "ણને": 1547,
      "▁તાલુ": 1548,
      "ાયેલા": 1549,
      "▁વિકાસ": 1550,
      "શિયલ": 1551,
      "લાય": 1552,
      "યાં": 1553,
      "▁ઝા": 1554,
      "▁નિષ્": 1555,
      "▁આયો": 1556,
      "▁સ્ક": 1557,
      "▁આરોપી": 1558,
      "કારો": 1559,
      "દેવ": 1560,
      "્વ": 1561,
      "ગ્રી": 1562,
      "ાંતિ": 1563,
      "િકે": 1564,
      "▁આત્મા": 1565,
      "▁વધારો": 1566,
      "▁હં": 1567,
      "▁ટીમ": 1568,
      "ન્ને": 1569,
      "▁મૂક": 1570,
      "▁મૃત્યુ": 1571,
      "ંદા": 1572,
      "▁હી": 1573,
      "▁વેપ": 1574,
      "▁રૂ.": 1575,
      "ળવા": 1576,
      "▁મધ્ય": 1577,
      "▁હૃ": 1578,
      "▁ત્રી": 1579,
      "▁વાયર": 1580,
      "▁અગા": 1581,
      "સ્તી": 1582,
      "ફી": 1583,
      "િકો": 1584,
      "▁પત્ની": 1585,
      "મ,": 1586,
      "▁અક": 1587,
      "▁ધરા": 1588,
      "▁ભાજપ": 1589,
      "▁રાહ": 1590,
      "▁મેચ": 1591,
      "▁જતા": 1592,
      "▁હર": 1593,
      "▁રહેશે.": 1594,
      "▁શાળા": 1595,
      "▁બનાવવા": 1596,
      "▁પાસેથી": 1597,
      "▁નુક": 1598,
      "▁કર્": 1599,
      "▁બચ": 1600,
      "▁ટ્રા": 1601,
      "▁વિશેષ": 1602,
      "▁મં": 1603,
      "▁મુદ્": 1604,
      "▁ઉત્તર": 1605,
      "લ્પ": 1606,
      "▁મારે": 1607,
      "▁સૂર": 1608,
      "કાત": 1609,
      "▁ટ્ર": 1610,
      "▁હજુ": 1611,
      "ારૂ": 1612,
      "▁ચૂક": 1613,
      "▁નાં": 1614,
      "▁થતાં": 1615,
      "▁આવેલ": 1616,
      "▁પિતા": 1617,
      "▁પં": 1618,
      "▁વન": 1619,
      "▁રજૂ": 1620,
      "▁નક્કી": 1621,
      "▁નં": 1622,
      "▁બધી": 1623,
      "▁મંત્રી": 1624,
      "વાસી": 1625,
      "▁દૃ": 1626,
      "લને": 1627,
      "▁થોડા": 1628,
      "જરી": 1629,
      "ઓ,": 1630,
      "▁સમાજ": 1631,
      "▁ફ્": 1632,
      "▁તી": 1633,
      "▁દુઃખ": 1634,
      "▁તેજ": 1635,
      "▁નહીં.": 1636,
      "▁પંચ": 1637,
      "▁ભાષા": 1638,
      "▁હોવાનું": 1639,
      "▁શોધ": 1640,
      "▁કરીએ": 1641,
      "સ્સા": 1642,
      "▁પ્રકાશ": 1643,
      "ંધી": 1644,
      "!\n": 1645,
      "▁કરવાનો": 1646,
      "▁તેા": 1647,
      "▁નહો": 1648,
      "▁સ્વી": 1649,
      "ાવો": 1650,
      "સભા": 1651,
      "્યાય": 1652,
      "▁વિસ્તારમાં": 1653,
      "િસ": 1654,
      "કમ": 1655,
      "▁રહેલા": 1656,
      "▁અતિ": 1657,
      "▁મોર": 1658,
      "▁ઉદ": 1659,
      "▁હોવાથી": 1660,
      "રેન્દ્ર": 1661,
      "▁પેટ": 1662,
      "ત્ન": 1663,
      "મિક": 1664,
      "▁પુરુ": 1665,
      "▁ફરિયાદ": 1666,
      "▁આઈ": 1667,
      "▁છું.": 1668,
      "લેટ": 1669,
      "▁શબ્દ": 1670,
      "િવર્": 1671,
      "▁મેળવી": 1672,
      "ક્ષિ": 1673,
      "▁રાજકોટ": 1674,
      "▁ગયે": 1675,
      "▁કાઇ": 1676,
      "જ્ઞા": 1677,
      "▁શર": 1678,
      "ચિત": 1679,
      "ળમાં": 1680,
      "▁પ્રભુ": 1681,
      "▁માટે,": 1682,
      "▁સંપ": 1683,
      "▁મહાન": 1684,
      "▁થશે": 1685,
      "▁રહેતા": 1686,
      "▁મુલા": 1687,
      "▁આટ": 1688,
      "લય": 1689,
      "સન": 1690,
      "▁પત્ર": 1691,
      "▁સવારે": 1692,
      "નીય": 1693,
      "▁તારા": 1694,
      "્યું.": 1695,
      "▁સ્પષ્ટ": 1696,
      "▁પુસ્ત": 1697,
      "▁દેશમાં": 1698,
      "▁અભ્યાસ": 1699,
      "▁સત્ય": 1700,
      "▁કવિ": 1701,
      "▁ગ્ર": 1702,
      "વવામાં": 1703,
      "ંદુ": 1704,
      "ષણ": 1705,
      "દાય": 1706,
      "▁લીધી": 1707,
      "▁હોઈ": 1708,
      "ઇલ": 1709,
      "▁શિક્ષણ": 1710,
      "▁વીડિયો": 1711,
      "▁અમારી": 1712,
      "▁સપ્": 1713,
      "શ્રી": 1714,
      "▁દુનિયા": 1715,
      "▁જોડ": 1716,
      "▁રાખે": 1717,
      "દર્શન": 1718,
      "▁પ્રજા": 1719,
      "રોધ": 1720,
      "ભે": 1721,
      "▁પામ": 1722,
      "કારા": 1723,
      "▁અગાઉ": 1724,
      "▁ફોન": 1725,
      "▁૧૯": 1726,
      "ષ્ટ્રીય": 1727,
      "▁પ્રય": 1728,
      "▁પ્રમુખ": 1729,
      "તંત્ર": 1730,
      "▁દીધી": 1731,
      "▁સમાચાર": 1732,
      "▁મજબ": 1733,
      "તિહા": 1734,
      "▁એલ": 1735,
      "▁સિદ્ધ": 1736,
      "▁હૃદય": 1737,
      "ઢી": 1738,
      "▁૮": 1739,
      "▁પરથી": 1740,
      "▁સુધ": 1741,
      "▁નાખ": 1742,
      "▁એન્": 1743,
      "▁પ્લા": 1744,
      "ષ્ણ": 1745,
      "્યો.": 1746,
      "▁વાગ": 1747,
      "જ્": 1748,
      "▁અનુભવ": 1749,
      "▁કોઈપણ": 1750,
      "▁લેા": 1751,
      "▁વિક": 1752,
      "▁સંસ્થા": 1753,
      "▁દાખલ": 1754,
      "▁રોકા": 1755,
      "▁અત": 1756,
      "ડું": 1757,
      "▁માગ": 1758,
      "વૃત્તિ": 1759,
      "▁કોર્": 1760,
      "ા.": 1761,
      "▁તરફથી": 1762,
      "▁કેટલીક": 1763,
      "▁બ્રહ": 1764,
      "▁૭": 1765,
      "▁આગામી": 1766,
      "▁તત્": 1767,
      "▁ઘરમાં": 1768,
      "▁પક": 1769,
      "બિ": 1770,
      "▁ભુ": 1771,
      "▁અના": 1772,
      "▁પ્રક્રિયા": 1773,
      "▁સરકારે": 1774,
      "ન્યા": 1775,
      "ાવવા": 1776,
      "ંઘ": 1777,
      "▁હુમ": 1778,
      "▁કરનાર": 1779,
      "▁હંમે": 1780,
      "▁વિષે": 1781,
      "▁ખરે": 1782,
      "▁બાકી": 1783,
      "કિસ્તા": 1784,
      "▁રસ્તા": 1785,
      "ગાર": 1786,
      "▁સમાવેશ": 1787,
      "▁પેાતાના": 1788,
      "▁સત્તા": 1789,
      "દરા": 1790,
      "▁કઈ": 1791,
      "ત,": 1792,
      "ંતા": 1793,
      "રની": 1794,
      "▁ગંભ": 1795,
      "▁પ્રકારના": 1796,
      "▁કરવો": 1797,
      "▁પ્રત્યે": 1798,
      "▁ઓછા": 1799,
      "કલી": 1800,
      "ૃહ": 1801,
      "▁લેવામાં": 1802,
      "▁પ્રયાસ": 1803,
      "▁ગુરુ": 1804,
      "▁કામગીરી": 1805,
      "▁ધારા": 1806,
      "▁માલ": 1807,
      "ઠે": 1808,
      "▁કહેવાય": 1809,
      "▁ભય": 1810,
      "▁ઉલ્લે": 1811,
      "ંચા": 1812,
      "ર્ક": 1813,
      "▁નદી": 1814,
      "ખ્": 1815,
      "▁ખર્ચ": 1816,
      "▁મોત": 1817,
      "▁ખેડૂ": 1818,
      "▁જમીન": 1819,
      "શ્વ": 1820,
      "▁હવા": 1821,
      "▁ગઇ": 1822,
      "▁અમેરિ": 1823,
      "શાન": 1824,
      "▁જાન": 1825,
      "▁!\n": 1826,
      "▁સાત": 1827,
      "▁દ્": 1828,
      "લક": 1829,
      "મતી": 1830,
      "▁બધું": 1831,
      "▁ગંભીર": 1832,
      "▁મુંબઈ": 1833,
      "સ્થિતિ": 1834,
      "▁ગમે": 1835,
      "ધન": 1836,
      "▁દવા": 1837,
      "▁હતુ": 1838,
      "▁સરળ": 1839,
      "▁કાર્યવાહી": 1840,
      "▁સમયમાં": 1841,
      "▁11": 1842,
      "મતા": 1843,
      "તરા": 1844,
      "કારક": 1845,
      "▁છે\n": 1846,
      "▁જિ": 1847,
      "▁પુરુષ": 1848,
      "▁મ્": 1849,
      "▁ઉલ્લેખ": 1850,
      "લાલ": 1851,
      "▁નહિ.": 1852,
      "▁૨૦": 1853,
      "▁આવતી": 1854,
      "▁તા.": 1855,
      "▁મેળવવા": 1856,
      "▁18": 1857,
      "▁ત્યા": 1858,
      "▁હાલમાં": 1859,
      "ંડા": 1860,
      "▁એમાં": 1861,
      "▁આપણી": 1862,
      "▁મુખ્યમંત્રી": 1863,
      "▁વર્ષની": 1864,
      "▁હતાં.": 1865,
      "▁સ્ટો": 1866,
      "▁આક": 1867,
      "▁પ્રધાન": 1868,
      "રીને": 1869,
      "વાળી": 1870,
      "ક્શન": 1871,
      "▁થતી": 1872,
      "લ્સ": 1873,
      "▁સૈ": 1874,
      "▁આત્મ": 1875,
      "ટું": 1876,
      "▁ઉત્પ": 1877,
      "....": 1878,
      "▁ગાય": 1879,
      "▁પાકિસ્તા": 1880,
      "▁નજીક": 1881,
      "▁જોડા": 1882,
      "▁વિષય": 1883,
      "▁એન": 1884,
      "▁ફક્ત": 1885,
      "▁શ્રેષ્ઠ": 1886,
      "ટક": 1887,
      "▁સમાન": 1888,
      "▁નંબર": 1889,
      "▁રહ્યાં": 1890,
      "▁આખ": 1891,
      "▁ચુ": 1892,
      "ભાર": 1893,
      "▁કમ": 1894,
      "▁આઇ": 1895,
      "▁વ્યવસ્થા": 1896,
      "▁અત્યાર": 1897,
      "થો": 1898,
      "ર્ગ": 1899,
      "જનો": 1900,
      "▁આશા": 1901,
      "▁ધરાવ": 1902,
      "ક્ષે": 1903,
      "▁લાંબા": 1904,
      "ઝી": 1905,
      "▁હતાં": 1906,
      "▁ઑ": 1907,
      "▁લાલ": 1908,
      "▁૧૦": 1909,
      "▁મગ": 1910,
      "ંપ": 1911,
      "▁સ્વરૂપ": 1912,
      "▁પ્રવેશ": 1913,
      "▁મનુષ્ય": 1914,
      "▁પ્રકારની": 1915,
      "▁એવો": 1916,
      "કટ": 1917,
      "બેન": 1918,
      "રિક": 1919,
      "▁નિયમ": 1920,
      "▁ફૂ": 1921,
      "▁દૂ": 1922,
      "▁ઉચ્ચ": 1923,
      "▁વળ": 1924,
      "▁વિજય": 1925,
      "▁કદા": 1926,
      "▁ફી": 1927,
      "▁સ્ટેશન": 1928,
      "▁વસ": 1929,
      "▁અમને": 1930,
      "▁પસાર": 1931,
      "▁જાણવા": 1932,
      "▁જાહેરા": 1933,
      "▁આંતર": 1934,
      "000": 1935,
      "▁કોર્ટ": 1936,
      "▁ગ્રામ": 1937,
      "▁સિંહ": 1938,
      "આરી": 1939,
      "સ્મા": 1940,
      "▁મંદિર": 1941,
      "▁કર્મચારી": 1942,
      "▁પોતે": 1943,
      "▁કરો.": 1944,
      "નર": 1945,
      "▁ખેડૂતો": 1946,
      "ને,": 1947,
      "▁માણસ": 1948,
      "▁ઉમેદ": 1949,
      "▁મેળવ": 1950,
      "▁એટલા": 1951,
      "▁ભૂમિ": 1952,
      "▁બન્ને": 1953,
      "▁ઋ": 1954,
      "▁જમા": 1955,
      "ન્સી": 1956,
      "્યા,": 1957,
      "▁કેટલા": 1958,
      "▁રોગ": 1959,
      "▁લગા": 1960,
      "▁સમુ": 1961,
      "▁પૂર": 1962,
      "▁કું": 1963,
      "▁મૂકી": 1964,
      "▁અવા": 1965,
      "▁હોય,": 1966,
      "▁આયોજન": 1967,
      "▁અડ": 1968,
      "ળના": 1969,
      "▁કરશે.": 1970,
      "સ્થાન": 1971,
      "ઇડ": 1972,
      "▁કરવાથી": 1973,
      "▁સાંભળી": 1974,
      "▁તને": 1975,
      "▁ગુજરાતમાં": 1976,
      "▁આદ": 1977,
      "સભ": 1978,
      "શક": 1979,
      "ક્કસ": 1980,
      "ળામાં": 1981,
      "▁પુરૂ": 1982,
      "▁નાની": 1983,
      "▁છીએ.": 1984,
      "ઈએ": 1985,
      "▁તેટ": 1986,
      "િયે": 1987,
      "▁ઘા": 1988,
      "▁પ્રગ": 1989,
      "▁સોશિયલ": 1990,
      "▁મિત્ર": 1991,
      "▁ટૂ": 1992,
      "▁હોવા": 1993,
      "▁રાષ્ટ્ર": 1994,
      "▁પુન": 1995,
      "▁ઘે": 1996,
      "▁ઉપા": 1997,
      "▁અરજી": 1998,
      "▁આસપાસ": 1999,
      "રાય": 2000,
      "▁હકી": 2001,
      "યા,": 2002,
      "તાર": 2003,
      "પક": 2004,
      "▁કરવાના": 2005,
      "વાઈ": 2006,
      "▁પરીક્ષા": 2007,
      "ફર": 2008,
      "▁બતા": 2009,
      "દના": 2010,
      "પૂર્વક": 2011,
      "િયર": 2012,
      "▁શાહ": 2013,
      "▁જણાવી": 2014,
      "▁દક્ષિ": 2015,
      "▁જુદા": 2016,
      "▁યુદ્ધ": 2017,
      "ટિંગ": 2018,
      "▁ગુજરાતી": 2019,
      "▁નજર": 2020,
      "▁લીધા": 2021,
      "▁પોસ્ટ": 2022,
      "▁એટલું": 2023,
      "▁શિવ": 2024,
      "પથી": 2025,
      "▁ઓળખ": 2026,
      "▁રાશિ": 2027,
      "▁આવશે": 2028,
      "▁થયેલા": 2029,
      "ોને": 2030,
      "▁નર": 2031,
      "▁ક્ષેત્ર": 2032,
      "▁અગ": 2033,
      "▁જેની": 2034,
      "ઉન": 2035,
      "ક્ષી": 2036,
      "ડમાં": 2037,
      "▁કર્યાં": 2038,
      "▁ગયા.": 2039,
      "▁હતો,": 2040,
      "▁જૈ": 2041,
      "▁નુકસાન": 2042,
      "▁દિવસો": 2043,
      "▁ઉદા": 2044,
      "▁ફળ": 2045,
      "ડની": 2046,
      "▁200": 2047,
      "▁રચના": 2048,
      "▁હજી": 2049,
      "▁ત્યારબાદ": 2050,
      "▁અમુક": 2051,
      "▁કોંગ્રેસ": 2052,
      "ઓનો": 2053,
      "▁સરકારી": 2054,
      "▁ભારતમાં": 2055,
      "▁કિંમત": 2056,
      "▁આવેલી": 2057,
      "ડુ": 2058,
      "ગઢ": 2059,
      "▁હાઈ": 2060,
      "▁ચોક્કસ": 2061,
      "શિયા": 2062,
      "▁૯": 2063,
      "મ્બ": 2064,
      "▁મનમાં": 2065,
      "▁વપરા": 2066,
      "▁સ્વામી": 2067,
      "▁છો,": 2068,
      "▁સાવ": 2069,
      "ઢા": 2070,
      "▁પુર": 2071,
      "જીના": 2072,
      "▁પૂરી": 2073,
      "▁સામા": 2074,
      "▁કહેવા": 2075,
      "લેન્ડ": 2076,
      "▁ખુબ": 2077,
      "ંકી": 2078,
      "▁ન્યૂ": 2079,
      "▁બદલે": 2080,
      "▁કરશે": 2081,
      "▁બળ": 2082,
      "▁જીત": 2083,
      "પ્રધાન": 2084,
      "▁મંગ": 2085,
      "▁વ્": 2086,
      "▁શરૂઆત": 2087,
      "▁અચ": 2088,
      "બાઈ": 2089,
      "▁રિપોર્ટ": 2090,
      "ભૂ": 2091,
      "▁નોંધા": 2092,
      "▁આરોગ્ય": 2093,
      "ધે": 2094,
      "જિ": 2095,
      "▁શહેરમાં": 2096,
      "▁પ્રશ્ન": 2097,
      "▁ગર્": 2098,
      "▁30": 2099,
      "▁રોકાણ": 2100,
      "▁ચિંતા": 2101,
      "▁કહેવામાં": 2102,
      "▁પામે": 2103,
      "કાં": 2104,
      "▁લીધો": 2105,
      "▁ટ્": 2106,
      "દારો": 2107,
      "▁નું": 2108,
      "▁સબ": 2109,
      "ંગ્": 2110,
      "▁બીજ": 2111,
      "▁ધન": 2112,
      "▁પરિસ્થિતિ": 2113,
      "▁નરેન્દ્ર": 2114,
      "▁સમજી": 2115,
      "▁યુન": 2116,
      "▁આપ્યો": 2117,
      "▁ખરાબ": 2118,
      "▁પાછા": 2119,
      "▁બાળક": 2120,
      "▁પુરા": 2121,
      "ંડી": 2122,
      "▁તાપ": 2123,
      "▁રુ": 2124,
      "▁વિધાન": 2125,
      "▁તબ": 2126,
      "▁હતું,": 2127,
      "▁આશ": 2128,
      "▁ઓછી": 2129,
      "▁આર્થ": 2130,
      "▁રાજ્યમાં": 2131,
      "શનલ": 2132,
      "કાની": 2133,
      "▁ડૉ": 2134,
      "ર,": 2135,
      "હરણ": 2136,
      "વાદી": 2137,
      "▁મંત્ર": 2138,
      "▁તરત": 2139,
      "▁થોડી": 2140,
      "લિંગ": 2141,
      "વડ": 2142,
      "▁મોરબી": 2143,
      "▁પ્રસંગ": 2144,
      "▁ધરાવે": 2145,
      "હિત્ય": 2146,
      "કાન": 2147,
      "ંધા": 2148,
      "▁ઉજ": 2149,
      "▁બેઠક": 2150,
      "પોરે": 2151,
      "▁વાળ": 2152,
      "▁શૈ": 2153,
      "મય": 2154,
      "નાથ": 2155,
      "▁લાઈ": 2156,
      "▁સુધીમાં": 2157,
      "▁નોકરી": 2158,
      "ાયું": 2159,
      "▁કદાચ": 2160,
      "વેલ": 2161,
      "▁જાહેરાત": 2162,
      "▁રવિ": 2163,
      "▁શકી": 2164,
      "▁ત્રિ": 2165,
      "▁કાયદા": 2166,
      "▁માધ": 2167,
      "▁મુલાકાત": 2168,
      "▁સ્ટા": 2169,
      "▁પટેલ": 2170,
      "▁ધીમે": 2171,
      "ત્સ": 2172,
      "્યોગ": 2173,
      "▁૧૮": 2174,
      "નલ": 2175,
      "▁કમિ": 2176,
      "▁હાજર": 2177,
      "▁આધારે": 2178,
      "▁આત": 2179,
      "ડામાં": 2180,
      "ણીએ": 2181,
      "▁રાખવા": 2182,
      "વિધા": 2183,
      "▁નગર": 2184,
      "▁સ્પર્": 2185,
      "▁વાહ": 2186,
      "▁ગેર": 2187,
      "▁વિસ્તારો": 2188,
      "▁સૂર્ય": 2189,
      "▁સ્થાનિક": 2190,
      "તા.": 2191,
      "▁આર્થિક": 2192,
      "▁જઇ": 2193,
      "▁સાહે": 2194,
      "ધ્": 2195,
      "▁હત્યા": 2196,
      "▁બજાર": 2197,
      "▁બસ": 2198,
      "▁લોકોએ": 2199,
      "▁શાંતિ": 2200,
      "▁બાર": 2201,
      "▁ગૌ": 2202,
      "▁નામના": 2203,
      "▁શિક્ષ": 2204,
      "ટિ": 2205,
      "▁ઉત્પાદ": 2206,
      "▁હાથમાં": 2207,
      "▁આવું": 2208,
      "▁કાઢી": 2209,
      "▁દિશા": 2210,
      "▁ખરેખર": 2211,
      "▁14": 2212,
      "▁સારું": 2213,
      "▁હશે.": 2214,
      "▁કમા": 2215,
      "▁ટેસ્ટ": 2216,
      "▁ઉં": 2217,
      "▁પ્રોજે": 2218,
      "આઈ": 2219,
      "▁ઉત્પાદન": 2220,
      "▁ઈન્ડ": 2221,
      "ર્મા": 2222,
      "ર્તિ": 2223,
      "ંચી": 2224,
      "▁ગૃહ": 2225,
      "▁તૈયારી": 2226,
      "ળુ": 2227,
      "ઠવા": 2228,
      "▁માનવ": 2229,
      "▁મજબૂત": 2230,
      "▁ઉત્પન્ન": 2231,
      "▁ચમ": 2232,
      "▁નામે": 2233,
      "▁બહે": 2234,
      "ભર": 2235,
      "કોને": 2236,
      "▁રાત્રે": 2237,
      "▁અભિને": 2238,
      "▁25": 2239,
      "▁નાગર": 2240,
      "ળું": 2241,
      "▁ઉદ્": 2242,
      "▁નીતિ": 2243,
      "નારી": 2244,
      "▁અકસ્મા": 2245,
      "▁ઇન્ડ": 2246,
      "સાઈ": 2247,
      "▁મિનિ": 2248,
      "▁સિસ્ટ": 2249,
      "▁જતાં": 2250,
      "▁મળ્યા": 2251,
      "▁રાહુ": 2252,
      "▁દેશના": 2253,
      "▁ઉપરથી": 2254,
      "જમાં": 2255,
      "▁ઓછ": 2256,
      "▁ઔ": 2257,
      "▁અક્ષ": 2258,
      "▁આપ્યા": 2259,
      "▁સાચ": 2260,
      "યેા": 2261,
      "▁ખેલા": 2262,
      "જની": 2263,
      "▁ઝડપી": 2264,
      "▁મિત્રો": 2265,
      "▁ચંદ્ર": 2266,
      "▁હાઇ": 2267,
      "▁પ્રયત્ન": 2268,
      "▁કરી.": 2269,
      "▁આપ્યું": 2270,
      "▁વિરુ": 2271,
      "નાના": 2272,
      "▁તેનાથી": 2273,
      "▁વિશા": 2274,
      "▁બ્ર": 2275,
      "▁હાર્": 2276,
      "▁ઓપ": 2277,
      "કાળ": 2278,
      "▁ગ્રાહ": 2279,
      "▁મુસા": 2280,
      "▁રાખવામાં": 2281,
      "▁સહાય": 2282,
      "▁મ્યુ": 2283,
      "▁શબ્દો": 2284,
      "▁બનાવે": 2285,
      "વારો": 2286,
      "▁છે?\n": 2287,
      "રલ": 2288,
      "▁ઈન્": 2289,
      "વ્યા": 2290,
      "▁આદિ": 2291,
      "▁તિ": 2292,
      "▁અધ્ય": 2293,
      "▁દર્શન": 2294,
      "સ્ટે": 2295,
      "▁રન": 2296,
      "▁પરિણામ": 2297,
      "▁ક્રિયા": 2298,
      "ષિ": 2299,
      "▁પૃથ્": 2300,
      "▁બનાવવામાં": 2301,
      "▁દર્શ": 2302,
      "વાહ": 2303,
      "▁કાંઈ": 2304,
      "ડના": 2305,
      "▁સભા": 2306,
      "▁હિં": 2307,
      "▁ઉત્તમ": 2308,
      "▁યુવતી": 2309,
      "▁સ્થળ": 2310,
      "▁દારૂ": 2311,
      "▁પહેલી": 2312,
      "▁ફરજ": 2313,
      "▁વધાર": 2314,
      "ક્સિ": 2315,
      "▁સલાહ": 2316,
      "સદ": 2317,
      "▁અનુભ": 2318,
      "▁સફળ": 2319,
      "▁ખરીદી": 2320,
      "ઉં": 2321,
      "▁સાહિત્ય": 2322,
      "▁જંગ": 2323,
      "▁બાંધ": 2324,
      "▁ધ્યાનમાં": 2325,
      "▁જગ્યાએ": 2326,
      "ંબ": 2327,
      "▁દેવામાં": 2328,
      "▁અહે": 2329,
      "બ્ધ": 2330,
      "▁દેવા": 2331,
      "ઓનું": 2332,
      "સિટી": 2333,
      "કૃતિ": 2334,
      "ટની": 2335,
      "તરમાં": 2336,
      "તામાં": 2337,
      "▁લાગ્યા": 2338,
      "િકલ": 2339,
      "▁એન્ડ": 2340,
      "ૂં": 2341,
      "દિક": 2342,
      "▁મામલે": 2343,
      "સ્થ્ય": 2344,
      "▁દીકરી": 2345,
      "લ્લી": 2346,
      "▁નમ": 2347,
      "▁હેતુ": 2348,
      "▁બદલ": 2349,
      "લિયા": 2350,
      "▁વિરોધ": 2351,
      "વીર": 2352,
      "આર": 2353,
      "▁કાર્યક્ર": 2354,
      "નિંગ": 2355,
      "▁50": 2356,
      "▁જેટલા": 2357,
      "▁ધારાસભ": 2358,
      "▁વિધાનસભા": 2359,
      "▁કહ્યું,": 2360,
      "▁આવશે.\n": 2361,
      "▁લગાવ": 2362,
      "▁પરા": 2363,
      "▁સાંભળ": 2364,
      "▁લાગણી": 2365,
      "▁વર્ણ": 2366,
      "▁અત્યારે": 2367,
      "શ્ચિ": 2368,
      "▁તંત્ર": 2369,
      "▁છોકરી": 2370,
      "▁સુવિધા": 2371,
      "જને": 2372,
      "લાવી": 2373,
      "▁ચેા": 2374,
      "▁ફેરફ": 2375,
      "▁કાંઇ": 2376,
      "ઉન્ટ": 2377,
      "▁મળશે.": 2378,
      "પકડ": 2379,
      "▁પાડી": 2380,
      "▁નાશ": 2381,
      "▁જમ": 2382,
      "▁પ્રી": 2383,
      "વારી": 2384,
      "ૂળ": 2385,
      "▁જરા": 2386,
      "▁ખરીદ": 2387,
      "▁વર્ત": 2388,
      "▁નહીં,": 2389,
      "▁સુરક્ષા": 2390,
      "▁દક્ષિણ": 2391,
      "▁ક્રા": 2392,
      "▁રકમ": 2393,
      "લિત": 2394,
      "▁0": 2395,
      "▁કિસ્સા": 2396,
      "▁જિલ્લામાં": 2397,
      "સ્તવ": 2398,
      "ઝન": 2399,
      "▁કૌ": 2400,
      "ન્ત": 2401,
      "રસ": 2402,
      "▁મુક": 2403,
      "નામાં": 2404,
      "▁મુશ્કેલી": 2405,
      "▁બેસી": 2406,
      "▁પડશે.": 2407,
      "▁હોસ્પિટલમાં": 2408,
      "▁કોલે": 2409,
      "▁છો.\n": 2410,
      "વતી": 2411,
      "▁ધરપકડ": 2412,
      "ંકર": 2413,
      "કડા": 2414,
      "▁સર્વે": 2415,
      "▁કૉ": 2416,
      "▁સ્મ": 2417,
      "▁માંડ": 2418,
      "▁૧૨": 2419,
      "રોજ": 2420,
      "જૂરી": 2421,
      "સ્ય": 2422,
      "▁વિશ્વાસ": 2423,
      "▁થવાની": 2424,
      "▁આથી": 2425,
      "▁વિરુદ્ધ": 2426,
      "▁લોકોની": 2427,
      "▁મોટો": 2428,
      "▁બોર્ડ": 2429,
      "▁રહેવા": 2430,
      "▁ધરી": 2431,
      "▁13": 2432,
      "▁સફળતા": 2433,
      "▁છોડ": 2434,
      "દ્ધા": 2435,
      "કળ": 2436,
      "સ્કાર": 2437,
      "▁ડાય": 2438,
      "▁મેટ": 2439,
      "▁પરમા": 2440,
      "▁વડે": 2441,
      "▁નીકળી": 2442,
      "દેશી": 2443,
      "ઝે": 2444,
      "પ્રિય": 2445,
      "▁પુરૂષ": 2446,
      "▁પછી,": 2447,
      "▁તાર": 2448,
      "▁બુદ્ધિ": 2449,
      "▁ઠા": 2450,
      "▁પ્રાણી": 2451,
      "▁વડાપ્રધાન": 2452,
      "▁બેંક": 2453,
      "▁પેાતાની": 2454,
      "ચય": 2455,
      "▁જેવું": 2456,
      "▁સંસ્ક": 2457,
      "▁આંક": 2458,
      "▁મનો": 2459,
      "▁નિર્મા": 2460,
      "▁પ્રવૃત્તિ": 2461,
      "▁માની": 2462,
      "▁ફરીથી": 2463,
      "▁દેખાય": 2464,
      "યુક્ત": 2465,
      "▁ક્રિકે": 2466,
      "▁આખા": 2467,
      "▁માનવામાં": 2468,
      "▁શુભ": 2469,
      "▁જીવનમાં": 2470,
      "કૃ": 2471,
      "લેક": 2472,
      "▁વર્ષો": 2473,
      "▁તેવું": 2474,
      "્યાન": 2475,
      "▁તસ": 2476,
      "▁શીખ": 2477,
      "▁નિવે": 2478,
      "ઠ્": 2479,
      "▁ચાલે": 2480,
      "▁ગરી": 2481,
      "▁પ્રભાવ": 2482,
      "▁સન્": 2483,
      "▁કિલો": 2484,
      "કામ": 2485,
      "▁આંખ": 2486,
      "▁સ્થળે": 2487,
      "▁પ્રમાણ": 2488,
      "▁કરો.\n": 2489,
      "▁કબ": 2490,
      "▁હંમેશા": 2491,
      "▁ક્યારેય": 2492,
      "▁દૂધ": 2493,
      "િયમ": 2494,
      "▁ફોટો": 2495,
      "▁સ્વાસ્થ્ય": 2496,
      "કાને": 2497,
      "▁સાય": 2498,
      "▁જાળ": 2499,
      "▁ઇચ્છા": 2500,
      "▁વિન": 2501,
      "▁૧૫": 2502,
      "▁વાતો": 2503,
      "▁પૃથ્વી": 2504,
      "▁ફુ": 2505,
      "▁માને": 2506,
      "▁વેપારી": 2507,
      "સલ": 2508,
      "▁સુરત": 2509,
      "ન્ચ": 2510,
      "▁ભવિ": 2511,
      "▁સવાર": 2512,
      "સ્ટ્રે": 2513,
      "▁જોખ": 2514,
      "▁નીકળ": 2515,
      "ડતા": 2516,
      "▁શકતા": 2517,
      "▁પ્રિય": 2518,
      "ત્રિ": 2519,
      "લામાં": 2520,
      "સ્તિ": 2521,
      "▁ધમ": 2522,
      "▁બરા": 2523,
      "▁વેચા": 2524,
      "▁સામેલ": 2525,
      "લ્ય": 2526,
      "▁એમને": 2527,
      "▁24": 2528,
      "▁લોકોના": 2529,
      "▁એક્ટ": 2530,
      "▁ફિ": 2531,
      "▁અનિ": 2532,
      "▁16": 2533,
      "▁સભ્યો": 2534,
      "▁પૂજા": 2535,
      "▁ભરે": 2536,
      "▁લઇને": 2537,
      "▁યુનિવર્": 2538,
      "▁મંદિ": 2539,
      "નાની": 2540,
      "▁રણ": 2541,
      "જિક": 2542,
      "ર્વે": 2543,
      "ોની": 2544,
      "▁પદાર્થ": 2545,
      "▁ગતિ": 2546,
      "્રોલ": 2547,
      "▁તક": 2548,
      "▁એણે": 2549,
      "▁મુસાફ": 2550,
      "લાઇ": 2551,
      "▁મળ્યું": 2552,
      "20": 2553,
      "તી.": 2554,
      "ંગી": 2555,
      "▁ભાગી": 2556,
      "રૂપે": 2557,
      "▁ઉદાહરણ": 2558,
      "▁હેાય": 2559,
      "▁રસી": 2560,
      "▁વાર્તા": 2561,
      "ડક": 2562,
      "▁ભવિષ્ય": 2563,
      "▁હિંદુ": 2564,
      "ભાવના": 2565,
      "મેન": 2566,
      "ત્યા": 2567,
      "સ્તે": 2568,
      "▁ચાં": 2569,
      "ડ,": 2570,
      "▁વિદ્યા": 2571,
      "▁આઠ": 2572,
      "▁કયા": 2573,
      "હર": 2574,
      "▁દીધા": 2575,
      "ઉન્ડ": 2576,
      "▁સ્થાપ": 2577,
      "▁આપણને": 2578,
      "▁ઘણું": 2579,
      "▁ખાલી": 2580,
      "▁તેમનું": 2581,
      "ન્દુ": 2582,
      "મદ": 2583,
      "▁ઉપલ": 2584,
      "▁વાસ્તવ": 2585,
      "▁આપતા": 2586,
      "▁ડ્રા": 2587,
      "▁જોકે,": 2588,
      "▁કુદર": 2589,
      "▁જિલ્લાના": 2590,
      "▁પાઠ": 2591,
      "▁વર્ગ": 2592,
      "ો,": 2593,
      "▁કલ્": 2594,
      "▁પ્રોજેક્ટ": 2595,
      "્રીમ": 2596,
      "રોમાં": 2597,
      "છે.": 2598,
      "▁સમર્થ": 2599,
      "દમ": 2600,
      "જીએ": 2601,
      "▁રાષ્ટ્રીય": 2602,
      "▁શકા": 2603,
      "અલ": 2604,
      "▁૧૧": 2605,
      "વલ": 2606,
      "▁ગુમા": 2607,
      "▁બ્રહ્મ": 2608,
      "▁ખાં": 2609,
      "▁મંડ": 2610,
      "વી,": 2611,
      "▁દુર્": 2612,
      "▁લખ્યું": 2613,
      "ર્ન": 2614,
      "ગ્રામ": 2615,
      "સમ": 2616,
      "એક": 2617,
      "▁અત્યંત": 2618,
      "▁કહેવું": 2619,
      "દ્ધતિ": 2620,
      "▁17": 2621,
      "▁યુનિવર્સિટી": 2622,
      "▁પાસ": 2623,
      "પાલિ": 2624,
      "બાર": 2625,
      "ભૂત": 2626,
      "રી,": 2627,
      "ટેડ": 2628,
      "▁ગ્": 2629,
      "▁વ્યક્ત": 2630,
      "ડવામાં": 2631,
      "▁સામનો": 2632,
      "પાલ": 2633,
      "▁ગુરૂ": 2634,
      "જિત": 2635,
      "▁સ્ત": 2636,
      "▁પોતાનું": 2637,
      "ટ,": 2638,
      "▁મોકલ": 2639,
      "પ્તિ": 2640,
      "▁ફ્રે": 2641,
      "▁જૂના": 2642,
      "વત": 2643,
      "▁લાગુ": 2644,
      "▁માન્ય": 2645,
      "▁શનિ": 2646,
      "▁સ્વીકાર": 2647,
      "▁વાતાવ": 2648,
      "▁અખ": 2649,
      "ત્ત્વ": 2650,
      "▁દબા": 2651,
      "▁તેઓએ": 2652,
      "▁મળ્યો": 2653,
      "▁ઝડપથી": 2654,
      "▁ઉઠ": 2655,
      "▁ઉર્": 2656,
      "▁મના": 2657,
      "▁સામગ્રી": 2658,
      "▁વાતાવરણ": 2659,
      "▁ખુશ": 2660,
      "એ,": 2661,
      "▁એડ": 2662,
      "વિત્ર": 2663,
      "▁દાન": 2664,
      "▁નિરા": 2665,
      "▁હાર": 2666,
      "▁તાજે": 2667,
      "સ્થિત": 2668,
      "▁શક્યતા": 2669,
      "▁ભાવના": 2670,
      "▁ઍ": 2671,
      "▁મહત્વપૂર્ણ": 2672,
      "ાયેલ": 2673,
      "▁આશ્": 2674,
      "▁નહિ,": 2675,
      "▁જોઈએ.\n": 2676,
      "રને": 2677,
      "▁યાત્રા": 2678,
      "▁કાપ": 2679,
      "▁અરે": 2680,
      "▁સંઘ": 2681,
      "▁આકર્ષ": 2682,
      "▁વધારા": 2683,
      "ણના": 2684,
      "▁જવાબદારી": 2685,
      "હ્મ": 2686,
      "▁અંગ્રે": 2687,
      "▁અનુસાર,": 2688,
      "ાયેલી": 2689,
      "▁જોઈને": 2690,
      "▁લક્ષણ": 2691,
      "▁ગત": 2692,
      "રીના": 2693,
      "▁સાંજે": 2694,
      "કિંગ": 2695,
      "▁આદેશ": 2696,
      "▁તેલ": 2697,
      "▁છોડી": 2698,
      "કરો": 2699,
      "ડોદરા": 2700,
      "▁વેબ": 2701,
      "▁ભરા": 2702,
      "▁રાજકીય": 2703,
      "▁ઘટ": 2704,
      "▁જાત": 2705,
      "▁રહેશે": 2706,
      "▁ભૂલ": 2707,
      "▁વર્ષના": 2708,
      "▁જણાવ્યા": 2709,
      "▁પશ્ચિ": 2710,
      "▁શુદ્ધ": 2711,
      "▁લાવ": 2712,
      "ડાઈ": 2713,
      "ણીને": 2714,
      "▁એમના": 2715,
      "પ્રે": 2716,
      "▁રહેલી": 2717,
      "▁ભૂત": 2718,
      "▁ખેલ": 2719,
      "કાય": 2720,
      "▁પ્રાર": 2721,
      "▁કર્યું.": 2722,
      "▁જતી": 2723,
      "▁મેડ": 2724,
      "▁ગુજરાતના": 2725,
      "▁ઓન": 2726,
      "▁નાખી": 2727,
      "▁સાહેબ": 2728,
      "▁કરી,": 2729,
      "દ્ય": 2730,
      "▁માલિક": 2731,
      "ટુ": 2732,
      "▁પસંદગી": 2733,
      "▁ગરમ": 2734,
      "▁રેલ": 2735,
      "▁ગ્રં": 2736,
      "▁જ્ઞા": 2737,
      "શને": 2738,
      "▁સદી": 2739,
      "રૂં": 2740,
      "ક્ષિત": 2741,
      "▁મંજૂરી": 2742,
      "▁અધ્યક્ષ": 2743,
      "▁ઉપલબ્ધ": 2744,
      "▁બોલી": 2745,
      "▁બરાબર": 2746,
      "▁હોવાની": 2747,
      "▁કાર્યક્રમ": 2748,
      "▁પગલે": 2749,
      "▁અઠવા": 2750,
      "ભો": 2751,
      "▁આશ્ર": 2752,
      "▁નાણા": 2753,
      "▁વિવે": 2754,
      "▁કરનારા": 2755,
      "પાત્ર": 2756,
      "શીલ": 2757,
      "ગરમાં": 2758,
      "પમાં": 2759,
      "▁અંદા": 2760,
      "▁100": 2761,
      "▁ત્યાંથી": 2762,
      "નેટ": 2763,
      "▁વ્યવહાર": 2764,
      "વળ": 2765,
      "▁ઐ": 2766,
      "▁યોજ": 2767,
      "તિમ": 2768,
      "▁સાબ": 2769,
      "▁ચાર્": 2770,
      "▁સંગી": 2771,
      "ઝને": 2772,
      "▁યોજા": 2773,
      "▁ઉદ્યોગ": 2774,
      "▁ઇતિહા": 2775,
      "રીમાં": 2776,
      "▁આવક": 2777,
      "▁સ્પે": 2778,
      "સ્ટર": 2779,
      "▁કેન્દ": 2780,
      "▁કરેલા": 2781,
      "▁સાધુ": 2782,
      "▁કાગ": 2783,
      "વિડ": 2784,
      "▁રાજ્યના": 2785,
      "તાએ": 2786,
      "▁સહે": 2787,
      "▁એક્": 2788,
      "▁સ્મા": 2789,
      "▁પરત": 2790,
      "▁લખી": 2791,
      "ઝો": 2792,
      "▁સ્થિતિમાં": 2793,
      "▁પદ્ધતિ": 2794,
      "▁ઉભા": 2795,
      "▁ખુશી": 2796,
      "▁દીધું": 2797,
      "▁જળ": 2798,
      "▁અવાજ": 2799,
      "▁છૂટ": 2800,
      "▁ખેલાડી": 2801,
      "▁છૂ": 2802,
      "સૂ": 2803,
      "▁એક્સ": 2804,
      "▁વજન": 2805,
      "થી,": 2806,
      "▁સપા": 2807,
      "▁ખાનગી": 2808,
      "▁વિશાળ": 2809,
      "ઉટ": 2810,
      "▁નજ": 2811,
      "▁પોતાને": 2812,
      "ગ્નિ": 2813,
      "ગમ": 2814,
      "▁ચિત્ર": 2815,
      "▁બતાવ": 2816,
      "▁જયારે": 2817,
      "▁વલ": 2818,
      "▁વસ્તુઓ": 2819,
      "▁જશે.": 2820,
      "▁તેથી,": 2821,
      "▁મળતી": 2822,
      "▁ગ્રહ": 2823,
      "▁ટેક": 2824,
      "▁મુશ્કેલ": 2825,
      "▁ગાડી": 2826,
      "▁જાગ": 2827,
      "▁એપ્ર": 2828,
      "ાનક": 2829,
      "▁રોક": 2830,
      "▁હકીકત": 2831,
      "યોગી": 2832,
      "▁સંચા": 2833,
      "ડાના": 2834,
      "દાસ": 2835,
      "ષ્ણુ": 2836,
      "▁મંગળ": 2837,
      "▁ભ્ર": 2838,
      "▁નિશ્": 2839,
      "▁પવિત્ર": 2840,
      "▁અટકા": 2841,
      "▁એમની": 2842,
      "▁વડોદરા": 2843,
      "▁પાત્ર": 2844,
      "▁ઘટાડો": 2845,
      "▁સ્વાદ": 2846,
      "▁સારો": 2847,
      "▁ત્રણે": 2848,
      "▁ગામમાં": 2849,
      "▁પામી": 2850,
      "▁પુષ્": 2851,
      "▁જેટલી": 2852,
      "▁સંખ્યામાં": 2853,
      "▁રાહુલ": 2854,
      "બીજા": 2855,
      "▁પાલન": 2856,
      "▁ભાજપના": 2857,
      "▁ખાતરી": 2858,
      "▁અંક": 2859,
      "▁વધે": 2860,
      "▁પહોંચા": 2861,
      "ાવવામાં": 2862,
      "સાહ": 2863,
      "▁ક્રો": 2864,
      "▁વીજ": 2865,
      "▁જુદી": 2866,
      "ચીન": 2867,
      "▁બેન્": 2868,
      "લોજી": 2869,
      "ચો": 2870,
      "બંધી": 2871,
      "▁વૃક્ષ": 2872,
      "ફ્ટ": 2873,
      "▁કોણ": 2874,
      "▁સંબંધિત": 2875,
      "▁વિસ્તારોમાં": 2876,
      "સં": 2877,
      "▁બ્રાહ્મ": 2878,
      "▁શહેરના": 2879,
      "તિક": 2880,
      "ટલ": 2881,
      "યક": 2882,
      "▁મેને": 2883,
      "્યેા": 2884,
      "ચર્ય": 2885,
      "વી.": 2886,
      "▁તબક્": 2887,
      "▁વાહન": 2888,
      "▁કાન": 2889,
      "▁સહિતના": 2890,
      "ક્રિય": 2891,
      "લેક્ટ": 2892,
      "▁સ્વતંત્ર": 2893,
      "▁તેમાંથી": 2894,
      "▁સંભા": 2895,
      "મ્સ": 2896,
      "શ્મી": 2897,
      "▁ઓગ": 2898,
      "▁સરખા": 2899,
      "▁ડિઝા": 2900,
      "▁ભલે": 2901,
      "ઠો": 2902,
      "▁ખેતી": 2903,
      "▁જોઇએ.": 2904,
      "▁મિલ": 2905,
      "▁હાં": 2906,
      "▁ઝી": 2907,
      "▁લોકપ્રિય": 2908,
      "▁એકવાર": 2909,
      "યન": 2910,
      "▁આવીને": 2911,
      "▁સ્ના": 2912,
      "કાલ": 2913,
      "ંદગી": 2914,
      "▁સામાજિક": 2915,
      "▁દર્શા": 2916,
      "▁વ્યવસાય": 2917,
      "ળાં": 2918,
      "▁પાપ": 2919,
      "▁સૂચ": 2920,
      "▁શુક્ર": 2921,
      "▁માથા": 2922,
      "▁ઘો": 2923,
      "▁કેસમાં": 2924,
      "▁પ્રમાણમાં": 2925,
      "▁આંખો": 2926,
      "ઝર": 2927,
      "▁પ્રદર્શન": 2928,
      "▁ભારતના": 2929,
      "▁ફિલ્મો": 2930,
      "્રેડ": 2931,
      "▁એટલી": 2932,
      "▁રાખીને": 2933,
      "ંવાર": 2934,
      "▁સાબિત": 2935,
      "ઇક": 2936,
      "▁કન્": 2937,
      "▁વર્ષમાં": 2938,
      "▁ચૌ": 2939,
      "▁ખ્યા": 2940,
      "લ્લ": 2941,
      "▁સમી": 2942,
      "▁ભિ": 2943,
      "▁ન્યાય": 2944,
      "▁બાબત": 2945,
      "▁જામન": 2946,
      "▁અંતિમ": 2947,
      "▁ફેરફાર": 2948,
      "કુલ": 2949,
      "▁પહેર": 2950,
      "▁કૈ": 2951,
      "▁પોતાનો": 2952,
      "આઇ": 2953,
      "▁યુવાન": 2954,
      "શય": 2955,
      "▁વારંવાર": 2956,
      "ઈન": 2957,
      "▁ડો.": 2958,
      "▁માંથી": 2959,
      "ણની": 2960,
      "▁ખોરા": 2961,
      "▁અચાનક": 2962,
      "▁જોયું": 2963,
      "▁એકબીજા": 2964,
      "▁આર્": 2965,
      "દ્રા": 2966,
      "▁સવાલ": 2967,
      "સ્તો": 2968,
      "તાથી": 2969,
      ",000": 2970,
      "▁બિન": 2971,
      "▁માળ": 2972,
      "ડીએ": 2973,
      "▁ગુલા": 2974,
      "▁પર્વ": 2975,
      "ક્રે": 2976,
      "▁વહી": 2977,
      "લા,": 2978,
      "યા.": 2979,
      "▁માટેની": 2980,
      "▁મુદ્દા": 2981,
      "▁ખસે": 2982,
      "▁મથ": 2983,
      "રાષ્ટ્ર": 2984,
      "▁શંકા": 2985,
      "રાન": 2986,
      "▁વિપ": 2987,
      "ક્રમણ": 2988,
      "▁આના": 2989,
      "લી,": 2990,
      "▁રાજ્યો": 2991,
      "▁વીર": 2992,
      "▁એસ.": 2993,
      "પાન": 2994,
      "વું.": 2995,
      "જ,": 2996,
      "▁વેપાર": 2997,
      "ધ્ધ": 2998,
      "ક્ટો": 2999,
      "▁ઘેર": 3000,
      "▁અગ્ર": 3001,
      "▁પ્રારંભ": 3002,
      "▁જૈન": 3003,
      "ાર્મિક": 3004,
      "▁વર્ષથી": 3005,
      "્મી": 3006,
      "▁કરતો": 3007,
      "▁કાર્ડ": 3008,
      "▁શ્વા": 3009,
      "▁કંઈક": 3010,
      "કતા": 3011,
      "▁21": 3012,
      "જીને": 3013,
      "▁સજા": 3014,
      "ષે": 3015,
      "▁વચન": 3016,
      "મથી": 3017,
      "▁બાબતે": 3018,
      "▁ભાગે": 3019,
      "▁દરવા": 3020,
      "▁ભૂમિકા": 3021,
      "ંપરા": 3022,
      "▁નવે": 3023,
      "▁જોર": 3024,
      "ગલ": 3025,
      "▁દિવસમાં": 3026,
      "શ.": 3027,
      "ાનુ": 3028,
      "▁થશે.\n": 3029,
      "▁ઘણાં": 3030,
      "▁થઈને": 3031,
      "▁કરાવી": 3032,
      "▁રમત": 3033,
      "વ્ર": 3034,
      "▁કુમાર": 3035,
      "▁વિગ": 3036,
      "▁આકાશ": 3037,
      "▁મેટા": 3038,
      "ડાની": 3039,
      "▁હોસ્પિટલ": 3040,
      "સ્વ": 3041,
      "▁મેા": 3042,
      "વા,": 3043,
      "▁ઉમ": 3044,
      "શાં": 3045,
      "કિત": 3046,
      "તૃ": 3047,
      "▁માનસિક": 3048,
      "▁શરીરમાં": 3049,
      "િત્ય": 3050,
      "▁ભાઇ": 3051,
      "▁અંતે": 3052,
      "રવ": 3053,
      "▁પ્રતિબંધ": 3054,
      "▁દૃષ્ટિ": 3055,
      "▁આવશ્ય": 3056,
      "▁ઓફિ": 3057,
      "▁વિદ્યાર્થીઓ": 3058,
      "ટીના": 3059,
      "▁હિન્દુ": 3060,
      "▁ઉકે": 3061,
      "ંદો": 3062,
      "▁બીજો": 3063,
      "▁શ્રેણી": 3064,
      "જીની": 3065,
      "ફળ": 3066,
      "▁કથા": 3067,
      "▁૧૪": 3068,
      "ંતી": 3069,
      "▁ચલાવ": 3070,
      "▁અદા": 3071,
      "▁કોલ": 3072,
      "▁પુત્રી": 3073,
      "▁ગામના": 3074,
      "▁મોદીએ": 3075,
      "▁ગણા": 3076,
      "▁વાતચી": 3077,
      "▁અજ": 3078,
      "ત્તમ": 3079,
      "ટુંબ": 3080,
      "▁નિયંત્ર": 3081,
      "▁સખ": 3082,
      "▁રાગ": 3083,
      "▁કૃષ્ણ": 3084,
      "▁મર્યા": 3085,
      "▁કૂ": 3086,
      "▁કહ્યુ": 3087,
      "▁અંધ": 3088,
      "▁પરે": 3089,
      "▁પીએમ": 3090,
      "સ્ટો": 3091,
      "▁વાયરલ": 3092,
      "સ્સો": 3093,
      "પત્ર": 3094,
      "સ્ટા": 3095,
      "▁આફ": 3096,
      "થમિક": 3097,
      "▁હાજરી": 3098,
      "▁મહેન": 3099,
      "રિયા": 3100,
      "▁ઉત": 3101,
      "▁ન્યુ": 3102,
      "શો.": 3103,
      "▁મોટાભાગ": 3104,
      "▁છેઃ": 3105,
      "કારાત્મક": 3106,
      "▁આગે": 3107,
      "▁વિવાદ": 3108,
      "લીને": 3109,
      "▁ટુ": 3110,
      "દની": 3111,
      "ણ,": 3112,
      "▁જશે": 3113,
      "▁ભક્તિ": 3114,
      "▁એપ": 3115,
      "▁બિલ": 3116,
      "▁ઢા": 3117,
      "▁કરવાને": 3118,
      "સ્ત્રી": 3119,
      "▁દાવો": 3120,
      "▁પ્લે": 3121,
      "▁લડ": 3122,
      "▁આચાર": 3123,
      "સિદ્ધ": 3124,
      "▁પ્રાથમિક": 3125,
      "▁આપવાની": 3126,
      "ું,": 3127,
      "▁જરૂરિયા": 3128,
      "▁શકે.": 3129,
      "▁થયેલી": 3130,
      "▁મુક્ત": 3131,
      "▁ચુક": 3132,
      "▁પ્રેર": 3133,
      "▁પણુ": 3134,
      "▁એકદમ": 3135,
      "▁ડિસે": 3136,
      "▁પડશે": 3137,
      "ઝિટ": 3138,
      "▁આરામ": 3139,
      "▁ા": 3140,
      "▁તાલુકાના": 3141,
      "▁કર્યો.": 3142,
      "▁દેશની": 3143,
      "▁પ્રકૃતિ": 3144,
      "▁શરૂઆ": 3145,
      "▁જાન્યુ": 3146,
      "માની": 3147,
      "િકાર": 3148,
      "▁જાણકારી": 3149,
      "▁રાત": 3150,
      "▁લુ": 3151,
      "▁ફેબ": 3152,
      "કુમાર": 3153,
      "▁મ્હ": 3154,
      "જ્જ": 3155,
      "વું,": 3156,
      "▁લખે": 3157,
      "▁માધ્ય": 3158,
      "▁આખી": 3159,
      "▁નબ": 3160,
      "▁તાલુકા": 3161,
      "ડી,": 3162,
      "ખ્યાત": 3163,
      "▁ભણ": 3164,
      "▁અપે": 3165,
      "ોના": 3166,
      "ંસ": 3167,
      "▁કન્યા": 3168,
      "▁પરંપરા": 3169,
      "▁રજા": 3170,
      "▁થયેલ": 3171,
      "ંજ": 3172,
      "▁સગ": 3173,
      "▁દસ": 3174,
      "ંખ": 3175,
      "▁પ્રિ": 3176,
      "▁સમુદ્ર": 3177,
      "▁રેકો": 3178,
      "▁ગ્રી": 3179,
      "▁ધાર્મિક": 3180,
      "▁નહે": 3181,
      "▁મહારાષ્ટ્ર": 3182,
      "▁ઇન્ટર": 3183,
      "શાહ": 3184,
      "▁અધિકાર": 3185,
      "▁ફેસ": 3186,
      "▁શ્": 3187,
      "કાલે": 3188,
      "▁સોમ": 3189,
      "▁દૈ": 3190,
      "▁રાહત": 3191,
      "સ્વી": 3192,
      "ફિક": 3193,
      "▁લશ્": 3194,
      "▁શોધી": 3195,
      "▁જણાય": 3196,
      "▁થયા.": 3197,
      "▁તારીખ": 3198,
      "▁ભજ": 3199,
      "▁બન્યા": 3200,
      "ણિ": 3201,
      "▁અજા": 3202,
      "ેદ": 3203,
      "▁બર": 3204,
      "▁શાક": 3205,
      "▁સ.": 3206,
      "▁અહ": 3207,
      "▁સ્થિત": 3208,
      "▁તરીકે,": 3209,
      "રેશન": 3210,
      "▁1.": 3211,
      "રે,": 3212,
      "એલ": 3213,
      "શભાઈ": 3214,
      "ડીયા": 3215,
      "▁40": 3216,
      "▁હરિ": 3217,
      "▁ધારણ": 3218,
      "▁દેવી": 3219,
      "▁મિનિટ": 3220,
      "▁કદી": 3221,
      "▁બુધ": 3222,
      "▁પી.": 3223,
      "▁અગ્નિ": 3224,
      "▁નિર": 3225,
      "▁જાન્યુઆરી": 3226,
      "▁સિસ્ટમ": 3227,
      "▁ધરાવતા": 3228,
      "▁ઠે": 3229,
      "રાની": 3230,
      "▁પ્રશ": 3231,
      "▁સુપ": 3232,
      "▁ભોગ": 3233,
      "લાસ": 3234,
      "▁હુક": 3235,
      "▁વર્તમાન": 3236,
      "▁ખીજા": 3237,
      "▁૧૬": 3238,
      "▁મિશ્ર": 3239,
      "માને": 3240,
      "ના,": 3241,
      "▁જાણો": 3242,
      "▁લાગ્યા.": 3243,
      "▁વર્લ્ડ": 3244,
      "ણી,": 3245,
      "▁જેઓ": 3246,
      "▁ઉલ્લેખનીય": 3247,
      "▁કાર્યો": 3248,
      "▁દેખાવ": 3249,
      "▁ચાહ": 3250,
      "▁નિયમો": 3251,
      "▁ગરમી": 3252,
      "▁પકડી": 3253,
      "લેા": 3254,
      "ત્કાર": 3255,
      "▁ક્યારેક": 3256,
      "▁આંગ": 3257,
      "▁૧૩": 3258,
      "▁હસ": 3259,
      "▁ભલા": 3260,
      "▁પુસ્તક": 3261,
      "▁લાઇ": 3262,
      "▁કોર્પોરે": 3263,
      "▁ઉપાય": 3264,
      "▁22": 3265,
      "એ.": 3266,
      "▁દરિયા": 3267,
      "▁રેકોર્ડ": 3268,
      "▁ત્યાગ": 3269,
      "ટરી": 3270,
      "થ્થ": 3271,
      "▁અપા": 3272,
      "ીક": 3273,
      "ઘુ": 3274,
      "પ્રદ": 3275,
      "▁કરેલ": 3276,
      "▁પાટ": 3277,
      "▁આશ્ચર્ય": 3278,
      "કન": 3279,
      "▁રહેશે.\n": 3280,
      "▁કેપ્": 3281,
      "▁બધાં": 3282,
      "▁તેમનો": 3283,
      "▁દઈએ": 3284,
      "ભરમાં": 3285,
      "▁ટ્રાન્સ": 3286,
      "▁સમયથી": 3287,
      "▁વાગ્યા": 3288,
      "▁દરમ્યાન": 3289,
      "તાનું": 3290,
      "▁રીત": 3291,
      "▁સાથ": 3292,
      "સિંગ": 3293,
      "▁સુપર": 3294,
      "▁અમલ": 3295,
      "▁કોંગ્રેસના": 3296,
      "જારો": 3297,
      "જીવ": 3298,
      "▁લગ્": 3299,
      "▁ત્રા": 3300,
      "▁તેનાં": 3301,
      "▁તળ": 3302,
      "▁અફ": 3303,
      "▁પૈકી": 3304,
      "▁ચારે": 3305,
      "▁પંજા": 3306,
      "▁ખેા": 3307,
      "▁ડ્ર": 3308,
      "ળ,": 3309,
      "▁જલ": 3310,
      "રોને": 3311,
      "ઈને": 3312,
      "જનક": 3313,
      "ંદી": 3314,
      "▁લૂ": 3315,
      "▁યાદી": 3316,
      "ની,": 3317,
      "▁દ્વાર": 3318,
      "▁ક્લિક": 3319,
      "▁ગુણવ": 3320,
      "▁હુમલો": 3321,
      "લાઇન": 3322,
      "▁પરમ": 3323,
      "રાં": 3324,
      "▁વિભા": 3325,
      "▁ધોરણ": 3326,
      "▁તમારું": 3327,
      "▁પરિણામે": 3328,
      "▁સંભાવના": 3329,
      "શ,": 3330,
      "▁સ્વભાવ": 3331,
      "▁એપ્": 3332,
      "▁સૌરાષ્ટ્ર": 3333,
      "▁સ્તર": 3334,
      "▁ફાયદા": 3335,
      "▁માતાપિ": 3336,
      "▁શાંત": 3337,
      "▁જાતિ": 3338,
      "▁ભેદ": 3339,
      "▁કલ્પના": 3340,
      "ડીમાં": 3341,
      "જી,": 3342,
      "▁થતું": 3343,
      "▁હોય.": 3344,
      "▁થાય.": 3345,
      "▁નિક": 3346,
      "ગમાં": 3347,
      "▁મંત્રા": 3348,
      "ધો": 3349,
      "▁વિદેશ": 3350,
      "▁પેદા": 3351,
      "▁ક્રિકેટ": 3352,
      "▁પ્રવાસ": 3353,
      "્રિક": 3354,
      "▁દયા": 3355,
      "▁પાડે": 3356,
      "▁પડ્યો": 3357,
      "ુનિક": 3358,
      "▁ગઈ.": 3359,
      "▁મહિનામાં": 3360,
      "▁માર્ચ": 3361,
      "▁પકડ": 3362,
      "▁તપ": 3363,
      "ન્સર": 3364,
      "▁જામનગર": 3365,
      "▁કરું": 3366,
      "▁સરળતા": 3367,
      "લબ": 3368,
      "કીને": 3369,
      "▁૧૭": 3370,
      "▁પુનઃ": 3371,
      "▁સેના": 3372,
      "નિધિ": 3373,
      "▁ક્ષમતા": 3374,
      "▁જઈને": 3375,
      "તાઓ": 3376,
      "▁આયુ": 3377,
      "▁સાફ": 3378,
      "▁અમેરિક": 3379,
      "▁સૂચના": 3380,
      "ાવ્યા": 3381,
      "▁સંતા": 3382,
      "ડા,": 3383,
      "▁પંચાય": 3384,
      "▁સેન્ટ": 3385,
      "▁કોર્ટે": 3386,
      "▁બેઠા": 3387,
      "▁હળ": 3388,
      "▁સપ્ટે": 3389,
      "▁ચહેરા": 3390,
      "લીમ": 3391,
      "ટીને": 3392,
      "▁ગૂ": 3393,
      "▁ગુનો": 3394,
      "▁2022": 3395,
      "▁ડેટા": 3396,
      "▁સમયગા": 3397,
      "▁નામની": 3398,
      "▁પ્રગટ": 3399,
      "▁ગ્રે": 3400,
      "લાની": 3401,
      "▁ગામે": 3402,
      "જ્ય": 3403,
      "▁ટિ": 3404,
      "ખંડ": 3405,
      "શાળી": 3406,
      "▁અંતર્": 3407,
      "▁નાણાં": 3408,
      "▁આવવા": 3409,
      "ષી": 3410,
      "▁સભ્ય": 3411,
      "▁એમણે": 3412,
      "▁ફૂટ": 3413,
      "સ્ટ્રી": 3414,
      "▁સમજા": 3415,
      "▁તો,": 3416,
      "બુક": 3417,
      "▁દંડ": 3418,
      "▁વિદેશી": 3419,
      "▁તાત્": 3420,
      "▁ઈચ્છા": 3421,
      "▁પ્રાચીન": 3422,
      "▁આવતાં": 3423,
      "▁દેહ": 3424,
      "▁અવિ": 3425,
      "▁બ્રિ": 3426,
      "રાના": 3427,
      "▁મળતા": 3428,
      "ળાના": 3429,
      "▁કૃપા": 3430,
      "ઓથી": 3431,
      "ન્ડર": 3432,
      "▁મજા": 3433,
      "કાએ": 3434,
      "▁વિગતો": 3435,
      "▁અભિનેત્રી": 3436,
      "▁ગમ": 3437,
      "ટીમાં": 3438,
      "▁રૂપે": 3439,
      "▁તાજેતરમાં": 3440,
      "ૂહ": 3441,
      "▁મૈ": 3442,
      "▁કચ્છ": 3443,
      "▁સ્ને": 3444,
      "▁વાસ": 3445,
      "▁ઉજવણી": 3446,
      "▁સંગઠ": 3447,
      "▁સક્રિય": 3448,
      "તી,": 3449,
      "▁ધર્": 3450,
      "તાહ": 3451,
      "▁આશરે": 3452,
      "▁માસ": 3453,
      "▁લીધું": 3454,
      "▁શર્મા": 3455,
      "▁કચ": 3456,
      "▁મળીને": 3457,
      "જિન": 3458,
      "▁પૂછ્યું": 3459,
      "▁23": 3460,
      "▁કરેલી": 3461,
      "▁રમા": 3462,
      "▁ટ્વિ": 3463,
      "▁એનું": 3464,
      "▁બાળકોને": 3465,
      "▁ચલા": 3466,
      "▁મારો": 3467,
      "▁વાહનો": 3468,
      "▁બ્રે": 3469,
      "▁પ્રશ્નો": 3470,
      "સર્": 3471,
      "▁ચર": 3472,
      "▁સ્થિર": 3473,
      "▁ખીજી": 3474,
      "▁કચે": 3475,
      "રેલી": 3476,
      "▁ધારાસભ્ય": 3477,
      "▁રશિયા": 3478,
      "ણ્ય": 3479,
      "▁પાતાના": 3480,
      "દર્શ": 3481,
      "લવા": 3482,
      "▁સઘ": 3483,
      "▁ભરી": 3484,
      "▁આરોપ": 3485,
      "▁વાદ": 3486,
      "▁સંપૂર્ણપણે": 3487,
      "▁હોત": 3488,
      "▁સફેદ": 3489,
      "છે,": 3490,
      "ળની": 3491,
      "▁વિચ": 3492,
      "▁મૌ": 3493,
      "ઈલ": 3494,
      "▁આપીને": 3495,
      "▁કાળા": 3496,
      "▁રાજસ્થાન": 3497,
      "મેટ": 3498,
      "▁વેચાણ": 3499,
      "▁વેચ": 3500,
      "ઠું": 3501,
      "▁રચ": 3502,
      "ત્સા": 3503,
      "લ્યુ": 3504,
      "▁જવું": 3505,
      "▁દુર": 3506,
      "▁કરશે.\n": 3507,
      "▁જવાની": 3508,
      "નામ": 3509,
      "▁સમિતિ": 3510,
      "▁નહીં.\n": 3511,
      "▁ચૈ": 3512,
      "▁જુઓ": 3513,
      "▁બજે": 3514,
      "▁કુટુંબ": 3515,
      "▁કોરોનાના": 3516,
      "કડી": 3517,
      "▁ટુક": 3518,
      "▁રાય": 3519,
      "લમ": 3520,
      "▁વિરા": 3521,
      "▁દીધો": 3522,
      "રિય": 3523,
      "▁કલ્યા": 3524,
      "▁રેલવે": 3525,
      "▁અદ": 3526,
      "મણી": 3527,
      "કર્તા": 3528,
      "▁પગલાં": 3529,
      "▁વાસ્તવિક": 3530,
      "▁સરકારના": 3531,
      "▁ફેલા": 3532,
      "▁સી.": 3533,
      "▁સન્માન": 3534,
      "▁પાણીમાં": 3535,
      "ગ્રહ": 3536,
      "▁બ્રિટ": 3537,
      "▁નિવેદન": 3538,
      "▁મારું": 3539,
      "▁સાધન": 3540,
      "▁ઉભી": 3541,
      "▁વાન": 3542,
      "▁ઝો": 3543,
      "▁નિર્માણ": 3544,
      "▁વધુમાં": 3545,
      "▁આખરે": 3546,
      "▁સર્જ": 3547,
      "માના": 3548,
      "ટને": 3549,
      "▁અબ": 3550,
      "ૂમ": 3551,
      "▁સંદર્": 3552,
      "ક્કર": 3553,
      "ળીને": 3554,
      "▁મુસ્": 3555,
      "▁વરસ": 3556,
      "▁વૃદ્ધિ": 3557,
      "▁સચ": 3558,
      "▁મૂર્તિ": 3559,
      "▁હવામાન": 3560,
      "ક્ષમ": 3561,
      "▁લેતા": 3562,
      "રાષ્ટ્રીય": 3563,
      "ભિ": 3564,
      "▁અધિકારીઓ": 3565,
      "વાં": 3566,
      "ાવતા": 3567,
      "▁સંશો": 3568,
      "દમાં": 3569,
      "▁સંપર્ક": 3570,
      "▁તમારો": 3571,
      "▁આભાર": 3572,
      "▁તાપમાન": 3573,
      "▁બીજું": 3574,
      "▁નેટ": 3575,
      "ંસા": 3576,
      "▁આધારિત": 3577,
      "▁મોબાઈ": 3578,
      "▁સાથે,": 3579,
      "▁કુદરતી": 3580,
      "▁પોલીસને": 3581,
      "▁રક્ષણ": 3582,
      "૦૦૦": 3583,
      "▁ઇચ્છ": 3584,
      "▁મતદાન": 3585,
      "▁ન્યૂઝ": 3586,
      "▁આવ્યાં": 3587,
      "▁ઘરની": 3588,
      "▁ચઢ": 3589,
      "▁યુરો": 3590,
      "▁વૃદ્ધ": 3591,
      "▁નવું": 3592,
      "ૈયા": 3593,
      "▁વિધ": 3594,
      "▁સુધાર": 3595,
      "▁અંતર્ગત": 3596,
      "▁ગયો.": 3597,
      "▁જેણે": 3598,
      "▁અપેક્ષા": 3599,
      "ાર્ડ": 3600,
      "▁સ્ટાફ": 3601,
      "▁આધુનિક": 3602,
      "▁ઉપયોગી": 3603,
      "▁રૂપા": 3604,
      "▁શેઠ": 3605,
      "▁કપડાં": 3606,
      "▁એ.": 3607,
      "લાના": 3608,
      "▁મરી": 3609,
      "▁છે!": 3610,
      "▁બિઝને": 3611,
      "▁જીતી": 3612,
      "▁ફેબ્રુ": 3613,
      "▁એકાઉન્ટ": 3614,
      "▁પ્લેટ": 3615,
      "▁ફટ": 3616,
      "થિ": 3617,
      "યેલા": 3618,
      "ક્રો": 3619,
      "▁ત્રીજા": 3620,
      "પ્રદેશ": 3621,
      "▁ઊંચા": 3622,
      "▁માયા": 3623,
      "▁ખર": 3624,
      "▁હાઉ": 3625,
      "▁માર્કેટ": 3626,
      "▁ચેર": 3627,
      "▁કર્યુ": 3628,
      "ધર": 3629,
      "્રેસ": 3630,
      "▁કોન્": 3631,
      "૨૦": 3632,
      "▁માફ": 3633,
      "▁સાથી": 3634,
      "▁ચોરી": 3635,
      "▁ફાયર": 3636,
      "▁શારી": 3637,
      "▁કાલે": 3638,
      "▁પહોંચ્યા": 3639,
      "ન્ના": 3640,
      "▁કેન્દ્રીય": 3641,
      "▁લક્ષ્મી": 3642,
      "▁રાષ્ટ્રપતિ": 3643,
      "▁છીએ,": 3644,
      "▁બેઠકો": 3645,
      "ફોર્મ": 3646,
      "▁પાક": 3647,
      "▁બાબતો": 3648,
      "શની": 3649,
      "પદ": 3650,
      "▁નાય": 3651,
      "▁આકાર": 3652,
      "▁પેલા": 3653,
      "▁મોટું": 3654,
      "▁સંસાર": 3655,
      "▁સંભવ": 3656,
      "▁છું,": 3657,
      "પ્રા": 3658,
      "▁કેળ": 3659,
      "▁ત્વ": 3660,
      "▁ટિક": 3661,
      "ષ્ટા": 3662,
      "ાયલ": 3663,
      "▁લાવવા": 3664,
      "▁અંતર": 3665,
      "નથી": 3666,
      "▁તૂ": 3667,
      "▁કેમકે": 3668,
      "▁પ્રસંગે": 3669,
      "▁લેવાની": 3670,
      "▁ઇન": 3671,
      "તક": 3672,
      "▁બેસ": 3673,
      "▁મદદથી": 3674,
      "▁વકી": 3675,
      "▁ઘણો": 3676,
      "▁ભાગમાં": 3677,
      "ણીના": 3678,
      "મીટર": 3679,
      "▁જુલાઈ": 3680,
      "▁પ્રતિનિધિ": 3681,
      "વાલો": 3682,
      "▁સેવન": 3683,
      "▁કોઈને": 3684,
      "▁પંડ": 3685,
      "▁ઈશ્વર": 3686,
      "ાર્ટ": 3687,
      "▁મહેનત": 3688,
      "લીમાં": 3689,
      "▁હાવાથી": 3690,
      "▁નોટ": 3691,
      "▁પરિવર્": 3692,
      "▁સ્વચ્છ": 3693,
      "▁રેડ": 3694,
      "▁નાગરિકો": 3695,
      "▁ગોઠ": 3696,
      "▁લાગ્યું": 3697,
      "▁છેઃ\n": 3698,
      "▁મળવા": 3699,
      "▁ઉપસ્થિત": 3700,
      "▁ખોરાક": 3701,
      "▁વય": 3702,
      "ત્રુ": 3703,
      "▁ફેબ્રુઆરી": 3704,
      "▁સહી": 3705,
      "▁આઉટ": 3706,
      "ઉન્": 3707,
      "▁સાચી": 3708,
      "▁ફાયદો": 3709,
      "લતા": 3710,
      "▁બિલ્": 3711,
      "▁પાન": 3712,
      "▁દિવસોમાં": 3713,
      "▁લખા": 3714,
      "લિકે": 3715,
      "▁તાત્કા": 3716,
      "લીઝ": 3717,
      "▁સંતો": 3718,
      "▁ડિગ્રી": 3719,
      "▁ભોજન": 3720,
      "▁છેવ": 3721,
      "ગ્રસ્ત": 3722,
      "▁મકા": 3723,
      "▁શરુ": 3724,
      "▁સ્પર્ધા": 3725,
      "▁બ્રહ્": 3726,
      "શિયન": 3727,
      "શાસ્ત્ર": 3728,
      "લાઈન": 3729,
      "▁ગીત": 3730,
      "▁મશી": 3731,
      "પુરા": 3732,
      "▁ઠીક": 3733,
      "▁અકસ્માત": 3734,
      "▁સમક્ષ": 3735,
      "▁દુખ": 3736,
      "▁સદા": 3737,
      "▁ફોર્મ": 3738,
      "નોલોજી": 3739,
      "▁લોહી": 3740,
      "▁ટેક્": 3741,
      "▁અભિન": 3742,
      "▁સ્કૂ": 3743,
      "▁જથ્": 3744,
      "ેલા": 3745,
      "▁આમાં": 3746,
      "▁ઓછું": 3747,
      "▁શાસ્ત્ર": 3748,
      "▁વિચારો": 3749,
      "ામાં": 3750,
      "▁પાટી": 3751,
      "▁ભારતની": 3752,
      "▁સંભ": 3753,
      "▁અલ્": 3754,
      "મેલ": 3755,
      "પજ": 3756,
      "▁એજન્સી": 3757,
      "▁જણાવે": 3758,
      "▁કમિશન": 3759,
      "ાવત": 3760,
      "▁પર્યા": 3761,
      "▁પશ્ચિમ": 3762,
      "▁આંતરરાષ્ટ્રીય": 3763,
      "▁દિલ": 3764,
      "ક્ષણિક": 3765,
      "▁મ્યુનિ": 3766,
      "▁જોતા": 3767,
      "▁અમેરિકા": 3768,
      "શિષ્ટ": 3769,
      "▁એનો": 3770,
      "▁ઈન્ડિયા": 3771,
      "▁બાદમાં": 3772,
      "▁દશ": 3773,
      "▁એરપોર્ટ": 3774,
      "▁વિચારી": 3775,
      "કૂળ": 3776,
      "▁વાયુ": 3777,
      "ંદન": 3778,
      "પ્પા": 3779,
      "▁તસવી": 3780,
      "▁માટી": 3781,
      "▁દાદા": 3782,
      "▁બગ": 3783,
      "સ્ટી": 3784,
      "▁સ્વપ્": 3785,
      "▁ઊભા": 3786,
      "સીને": 3787,
      "▁વાગ્યે": 3788,
      "▁સિવિ": 3789,
      "ંશ": 3790,
      "▁સ્થળો": 3791,
      "▁ભવ્ય": 3792,
      "▁દરરોજ": 3793,
      "▁ક્રિ": 3794,
      "▁જેનો": 3795,
      "▁નેશનલ": 3796,
      "ંડો": 3797,
      "થુ": 3798,
      "ૂક": 3799,
      "ૂડ": 3800,
      "▁બચાવ": 3801,
      "▁સ્માર્ટ": 3802,
      "▁થાય,": 3803,
      "▁રહેતી": 3804,
      "▁નિયમિત": 3805,
      "▁ડું": 3806,
      "સ્વા": 3807,
      "જીત": 3808,
      "▁ગણાય": 3809,
      "▁સંસ્કૃતિ": 3810,
      "▁થતો": 3811,
      "▁તીવ્ર": 3812,
      "રીએ": 3813,
      "ચક": 3814,
      "▁રાવ": 3815,
      "▁નાન": 3816,
      "▁તદ્": 3817,
      "▁મીટર": 3818,
      "ડિંગ": 3819,
      "▁મહારાજ": 3820,
      "▁ટીવી": 3821,
      "▁કોવિડ": 3822,
      "ળાની": 3823,
      "ધુ": 3824,
      "▁પીડા": 3825,
      "વિંદ": 3826,
      "▁નાગ": 3827,
      "▁સુપ્રીમ": 3828,
      "ડર": 3829,
      "▁ઉમેર": 3830,
      "▁વ્યાજ": 3831,
      "તો.": 3832,
      "▁જ્યો": 3833,
      "▁એફ": 3834,
      "▁સ્થાપના": 3835,
      "▁વહીવ": 3836,
      "▁ગાંધીનગર": 3837,
      "▁માણુ": 3838,
      "▁કાપી": 3839,
      "▁ઉમેદવારો": 3840,
      "▁ગિ": 3841,
      "▁સહન": 3842,
      "કોર": 3843,
      "▁199": 3844,
      "▁હાથે": 3845,
      "▁કાણુ": 3846,
      "▁મળશે": 3847,
      "▁તહે": 3848,
      "▁શારીરિક": 3849,
      "દેહ": 3850,
      "ધ્યા": 3851,
      "▁વાતચીત": 3852,
      "ગ્ન": 3853,
      "▁સૂત્રો": 3854,
      "▁સ્થાને": 3855,
      "▁યુવાનો": 3856,
      "ન્જ": 3857,
      "▁ઊભી": 3858,
      "▁અર્થા": 3859,
      "તું.": 3860,
      "▁ગ્રુ": 3861,
      "રાઈ": 3862,
      "▁ગરીબ": 3863,
      "▁સરસ": 3864,
      "ધાની": 3865,
      "▁સપાટી": 3866,
      "▁દીકરા": 3867,
      "▁થયાં": 3868,
      "▁મરણ": 3869,
      "લોડ": 3870,
      "▁તબી": 3871,
      "▁ચેક": 3872,
      "▁ભાવનગર": 3873,
      "▁સરકારની": 3874,
      "▁પથ": 3875,
      "▁સંગીત": 3876,
      "50": 3877,
      "▁કંઇ": 3878,
      "▁હાય,": 3879,
      "▁ગ્રંથ": 3880,
      "▁કાશ્મી": 3881,
      "▁સહુ": 3882,
      "ચંદ્ર": 3883,
      "▁પડતા": 3884,
      "▁લાવી": 3885,
      "▁વચ": 3886,
      "▁ઉતર": 3887,
      "▁શ્રદ્ધા": 3888,
      "▁પાછી": 3889,
      "▁કારણો": 3890,
      "સીએ": 3891,
      "▁ટ્રેન": 3892,
      "▁દાય": 3893,
      "▁ટ્રાફિક": 3894,
      "▁અદ્": 3895,
      "▁પ્રાર્થ": 3896,
      "▁આવ્યા.": 3897,
      "▁એવુ": 3898,
      "▁ગયાં": 3899,
      "▁જાતે": 3900,
      "▁કલમ": 3901,
      "શક્તિ": 3902,
      "▁રહેવું": 3903,
      "▁દસ્તા": 3904,
      "કોની": 3905,
      "▁સોસાય": 3906,
      "શનમાં": 3907,
      "▁મહિલાઓ": 3908,
      "▁દોષ": 3909,
      "▁કલે": 3910,
      "▁ડર": 3911,
      "▁હિત": 3912,
      "▁બંગા": 3913,
      "ણામાં": 3914,
      "સંગ": 3915,
      "મણાં": 3916,
      "▁હા,": 3917,
      "▁૨૫": 3918,
      "રત": 3919,
      "▁પરિવારના": 3920,
      "▁સપ્તાહ": 3921,
      "▁લવ": 3922,
      "મ્મી": 3923,
      "▁મોડ": 3924,
      "▁દબાણ": 3925,
      "▁વિકેટ": 3926,
      "કાર્": 3927,
      "અને": 3928,
      "ીય": 3929,
      "▁સંગ્રહ": 3930,
      "▁કશું": 3931,
      "▁મુસ્લિ": 3932,
      "▁શરૂઆતમાં": 3933,
      "▁અઠવાડિયા": 3934,
      "ણીની": 3935,
      "▁પલ": 3936,
      "▁ટાઈ": 3937,
      "▁ખ્યાલ": 3938,
      "▁વસ્તી": 3939,
      "▁સારૂ": 3940,
      "▁પ્રચાર": 3941,
      "સ્પે": 3942,
      "▁બીજે": 3943,
      "▁જોયા": 3944,
      "▁વિકલ્પ": 3945,
      "અપ": 3946,
      "▁રહે.": 3947,
      "▁ચૂંટણીમાં": 3948,
      "▁ટેક્સ": 3949,
      "▁પ્રવ": 3950,
      "ાનિ": 3951,
      "ફત": 3952,
      "વાઇ": 3953,
      "▁પંજાબ": 3954,
      "▁પ્રતી": 3955,
      "▁વિગત": 3956,
      "▁જોતાં": 3957,
      "ત્તર": 3958,
      "એન": 3959,
      "▁રસો": 3960,
      "▁મોબા": 3961,
      "▁વ્યક્તિગત": 3962,
      "પરછ": 3963,
      "▁અર્જુ": 3964,
      "▁ગુણવત્તા": 3965,
      "▁હેલ્": 3966,
      "ાઈ": 3967,
      "જીવન": 3968,
      "પલ": 3969,
      "▁સલ": 3970,
      "▁ગણે": 3971,
      "▁પાકિસ્તાન": 3972,
      "▁સળ": 3973,
      "ણાવ": 3974,
      "▁થોડો": 3975,
      "લોક": 3976,
      "▁પડતી": 3977,
      "▁કોર્ટમાં": 3978,
      "▁વાળા": 3979,
      "▁દસ્તાવે": 3980,
      "▁આપના": 3981,
      "▁બજારમાં": 3982,
      "િયાર": 3983,
      "લત": 3984,
      "▁જોખમ": 3985,
      "▁એન્ટ": 3986,
      "▁કે.": 3987,
      "▁વિજ્ઞાન": 3988,
      "▁ડોલર": 3989,
      "▁કૅ": 3990,
      "▁વિગેરે": 3991,
      "▁સરે": 3992,
      "કાવ": 3993,
      "▁ચક્ર": 3994,
      "▁26": 3995,
      "રેજ": 3996,
      "▁યુવા": 3997,
      "▁જૂથ": 3998,
      "▁સંક્રમણ": 3999,
      "▁કપૂર": 4000,
      "▁ફેસબુક": 4001,
      "લાને": 4002,
      "▁ભવ": 4003,
      "ક્ષેપ": 4004,
      "નોને": 4005,
      "ણિક": 4006,
      "▁સદ્": 4007,
      "▁માટેના": 4008,
      "▁ખાતર": 4009,
      "દીપ": 4010,
      "▁૨૦૧": 4011,
      "▁આવી.": 4012,
      "▁27": 4013,
      "▁ગણતરી": 4014,
      "▁અજાણ": 4015,
      "▁ધુ": 4016,
      "▁સંકે": 4017,
      "▁વિધિ": 4018,
      "▁મુજબ,": 4019,
      "▁ઈજા": 4020,
      "▁દેશો": 4021,
      "▁છોકરા": 4022,
      "▁સુરક્ષિત": 4023,
      "▁પક્ષી": 4024,
      "▁આતંક": 4025,
      "▁રસપ્રદ": 4026,
      "લીન": 4027,
      "રા,": 4028,
      "▁ઉના": 4029,
      "▁ફ્રી": 4030,
      "▁એમ.": 4031,
      "▁ખેંચ": 4032,
      "▁ત્વચા": 4033,
      "▁વ્ર": 4034,
      "▁નૈ": 4035,
      "▁મહત્ત્વ": 4036,
      "▁સ્ટી": 4037,
      "▁જોઈએ,": 4038,
      "▁ટ્વી": 4039,
      "▁બદલી": 4040,
      "▁પટેલે": 4041,
      "▁ખંડ": 4042,
      "વાનગી": 4043,
      "▁રાજય": 4044,
      "▁પ્રોડ": 4045,
      "▁અમી": 4046,
      "▁લોકસ": 4047,
      "કૃત": 4048,
      "▁થે": 4049,
      "▁બેઠકમાં": 4050,
      "માલ": 4051,
      "▁લોકડા": 4052,
      "▁દિશામાં": 4053,
      "▁મકાન": 4054,
      "▁મેચમાં": 4055,
      "▁નવો": 4056,
      "▁ડિઝાઇન": 4057,
      "▁સદ": 4058,
      "▁જગા": 4059,
      "▁કેવળ": 4060,
      "▁ઘણીવાર": 4061,
      "▁ઇન્ડિયા": 4062,
      "▁નાંખ": 4063,
      "▁કયાં": 4064,
      "▁આપને": 4065,
      "▁પ્રકરણ": 4066,
      "ટ્ટ": 4067,
      "▁નાટ": 4068,
      "▁2021": 4069,
      "▁ઇતિહાસ": 4070,
      "▁ઓક્ટો": 4071,
      "▁નાણાકીય": 4072,
      "▁આય": 4073,
      "▁વિકસ": 4074,
      "▁કેસો": 4075,
      "▁નિષ્ણા": 4076,
      "▁ઉંમર": 4077,
      "▁મોટાભાગના": 4078,
      "▁ક્રમ": 4079,
      "▁પાણીની": 4080,
      "▁શિયા": 4081,
      "▁નોંધપાત્ર": 4082,
      "હ્ય": 4083,
      "▁થવું": 4084,
      "ઈડ": 4085,
      "▁બહા": 4086,
      "▁કાવ્ય": 4087,
      "▁તૃ": 4088,
      "▁પથ્થ": 4089,
      "માત્ર": 4090,
      "▁આવશ્યક": 4091,
      "▁વાપર": 4092,
      "▁સરળતાથી": 4093,
      "▁અંગ્રેજી": 4094,
      "▁ઓછામાં": 4095,
      "▁અહિ": 4096,
      "▁તેઓને": 4097,
      "▁ધરવામાં": 4098,
      "ાવ્યો": 4099,
      "▁૩૦": 4100,
      "▁ભલામણ": 4101,
      "▁સન": 4102,
      "▁ડિસેમ્બર": 4103,
      "પ,": 4104,
      "▁નહેા": 4105,
      "▁ન્": 4106,
      "કેશ": 4107,
      "ણીય": 4108,
      "▁મેસે": 4109,
      "▁મેદાન": 4110,
      "પ્સ": 4111,
      "▁કાળજી": 4112,
      "ડાવી": 4113,
      "ચ્છે": 4114,
      "▁ક્ષેત્રમાં": 4115,
      "પણુ": 4116,
      "▁2.": 4117,
      "એફ": 4118,
      "▁ઉપકરણ": 4119,
      "▁સરદાર": 4120,
      "ાંક": 4121,
      "મંડ": 4122,
      "▁ઇલેક્ટ": 4123,
      "▁જોવામાં": 4124,
      "▁ઉમેદવાર": 4125,
      "▁પરવાનગી": 4126,
      "▁તાત્કાલિક": 4127,
      "▁વાણી": 4128,
      "▁લીલા": 4129,
      "પાર": 4130,
      "બૂ": 4131,
      "▁અંબા": 4132,
      "▁જાડે": 4133,
      "▁સેવ": 4134,
      "▁કઇ": 4135,
      "▁આવો": 4136,
      "શું.": 4137,
      "▁31": 4138,
      "▁જીલ્લા": 4139,
      "▁આજ્ઞા": 4140,
      "▁હતુ.": 4141,
      "▁અમિત": 4142,
      "ભૂમિ": 4143,
      "ડીના": 4144,
      "▁પરિવ": 4145,
      "▁અપી": 4146,
      "▁પેઢી": 4147,
      "▁પ્રધાનમંત્રી": 4148,
      "▁સપ્ટેમ્બર": 4149,
      "▁પોઝિટ": 4150,
      "▁આર.": 4151,
      "ાની": 4152,
      "શમાં": 4153,
      "તરણ": 4154,
      "▁સંબંધી": 4155,
      "▁કંપનીઓ": 4156,
      "યાત": 4157,
      "કા,": 4158,
      "▁પાં": 4159,
      "▁ડાઉન": 4160,
      "ટેલ": 4161,
      "▁ભૂલી": 4162,
      "રીઝ": 4163,
      "ધારણ": 4164,
      "▁યુવક": 4165,
      "બળ": 4166,
      "▁મુદ્દે": 4167,
      "▁આંકડા": 4168,
      "▁અહી": 4169,
      "▁બાળકને": 4170,
      "▁પ્રકારે": 4171,
      "▁28": 4172,
      "▁ફ્ર": 4173,
      "ચાવી": 4174,
      "▁પ્રાર્થના": 4175,
      "રીની": 4176,
      "▁મોહ": 4177,
      "▁પૂરા": 4178,
      "▁પુછ": 4179,
      "▁મોકલી": 4180,
      "▁રાખો": 4181,
      "▁સિવિલ": 4182,
      "પણું": 4183,
      "▁ઉભ": 4184,
      "કું": 4185,
      "દેસર": 4186,
      "▁અસરકારક": 4187,
      "▁તકલી": 4188,
      "▁આગાહી": 4189,
      "▁એથી": 4190,
      "▁શત્રુ": 4191,
      "▁જગત": 4192,
      "▁ચાલો": 4193,
      "▁ઉત્સાહ": 4194,
      "રોની": 4195,
      "▁શકીએ": 4196,
      "▁નજરે": 4197,
      "▁જનરલ": 4198,
      "▁કેમે": 4199,
      "▁જાડેજા": 4200,
      "▁અસા": 4201,
      "▁પ્રવાસી": 4202,
      "▁રહીને": 4203,
      "▁સાહ": 4204,
      "▁સધ": 4205,
      "નનો": 4206,
      "▁એપ્લિકે": 4207,
      "▁વિલ": 4208,
      "▁કડક": 4209,
      "▁ગોળી": 4210,
      "▁પૂર્વે": 4211,
      "▁ઉંમ": 4212,
      "▁પાડવામાં": 4213,
      "▁આંદો": 4214,
      "▁કહીને": 4215,
      "▁લોકસભા": 4216,
      "▁મોબાઈલ": 4217,
      "▁વાપ": 4218,
      "▁ધમકી": 4219,
      "▁મૂલ્ય": 4220,
      "▁સર્વિ": 4221,
      "રામાં": 4222,
      "વના": 4223,
      "▁નિશા": 4224,
      "▁જુએ": 4225,
      "▁વધારી": 4226,
      "▁ફૂલ": 4227,
      "▁ઓવર": 4228,
      "▁ડૉ.": 4229,
      "▁ઉપદેશ": 4230,
      "સ્ત્રો": 4231,
      "▁એચ": 4232,
      "▁અસ્તિ": 4233,
      "▁વિશિષ્ટ": 4234,
      "સ્ટિક": 4235,
      "▁ફિલ્મમાં": 4236,
      "▁ટૂંક": 4237,
      "▁ઉત્પાદનો": 4238,
      "ણા,": 4239,
      "▁રમી": 4240,
      "▁ફાઈ": 4241,
      "ડતી": 4242,
      "▁સમૃ": 4243,
      "▁પોલિ": 4244,
      "ઝિ": 4245,
      "ણાના": 4246,
      "▁ઝે": 4247,
      "▁વર્ણન": 4248,
      "▁બીમારી": 4249,
      "▁પેઠે": 4250,
      "▁તદ્દન": 4251,
      "▁રમે": 4252,
      "કરે": 4253,
      "▁ઈન્ટર": 4254,
      "ચિત્ર": 4255,
      "▁વાય": 4256,
      "▁મુનિ": 4257,
      "▁સરકારને": 4258,
      "▁બોલિવ": 4259,
      "▁રવિવારે": 4260,
      "▁2020": 4261,
      "▁પોઝિટિવ": 4262,
      "▁વ્યક્તિને": 4263,
      "▁જોઇને": 4264,
      "મતિ": 4265,
      "▁સોમવારે": 4266,
      "▁લાગ્યો": 4267,
      "▁પામ્યા": 4268,
      "રીયા": 4269,
      "▁બિઝનેસ": 4270,
      "વીએ": 4271,
      "સેસ": 4272,
      "▁ઓગસ્ટ": 4273,
      "▁પ્રોત્સા": 4274,
      "▁વર્ષીય": 4275,
      "ઇઝ": 4276,
      "▁હોવી": 4277,
      "રાને": 4278,
      "▁ટીમે": 4279,
      "▁જનતા": 4280,
      "▁થવાથી": 4281,
      "▁કથ": 4282,
      "▁વિરો": 4283,
      "▁અપડે": 4284,
      "▁મની": 4285,
      "▁કામમાં": 4286,
      "લ્યા": 4287,
      "▁તાલીમ": 4288,
      "વ્યો": 4289,
      "▁તારે": 4290,
      "▁કેર": 4291,
      "▁અપના": 4292,
      "▁શખ": 4293,
      "▁પ્રસિદ્ધ": 4294,
      "▁થયું.": 4295,
      "▁કૃષિ": 4296,
      "▁લેવી": 4297,
      "▁ઢો": 4298,
      "લીના": 4299,
      "▁ગભ": 4300,
      "▁નીચ": 4301,
      "▁જોગ": 4302,
      "રેટ": 4303,
      "▁હિંમત": 4304,
      "19": 4305,
      "▁માં,": 4306,
      "ઢે": 4307,
      "▁કોમ": 4308,
      "▁બ્લ": 4309,
      "▁વૈજ્ઞાન": 4310,
      "દાયક": 4311,
      "▁એન્જિન": 4312,
      "ધારી": 4313,
      "▁60": 4314,
      "માથી": 4315,
      "▁માથે": 4316,
      "▁સુધારા": 4317,
      "▁વિભાગના": 4318,
      "▁ઠેકા": 4319,
      "▁છું.\n": 4320,
      "ફોન": 4321,
      "▁મહામારી": 4322,
      "્યાં.": 4323,
      "▁સંપત્તિ": 4324,
      "▁હશે,": 4325,
      "ડાને": 4326,
      "▁પગાર": 4327,
      "લીએ": 4328,
      "▁સમસ્યાઓ": 4329,
      "▁યે": 4330,
      "▁નીકળે": 4331,
      "▁ધ્રુ": 4332,
      "મીન": 4333,
      "સામાં": 4334,
      "▁પાવર": 4335,
      "▁જોડે": 4336,
      "મૂ": 4337,
      "▁હુકમ": 4338,
      "ગન": 4339,
      "▁મુકા": 4340,
      "▁જવાનું": 4341,
      "વતા": 4342,
      "▁કદ": 4343,
      "▁ત્રીજી": 4344,
      "▁તેએ": 4345,
      "રાધ": 4346,
      "વેર": 4347,
      "▁દર્શાવે": 4348,
      "▁ઝુ": 4349,
      "▁ચાર્જ": 4350,
      "▁પેટ્રોલ": 4351,
      "ઇન્ટ": 4352,
      "▁અમદાવાદમાં": 4353,
      "વડે": 4354,
      "▁કહું": 4355,
      "▁બાઈ": 4356,
      "▁મોડે": 4357,
      "▁પડ્યા": 4358,
      "▁કરે,": 4359,
      "▁કેટલાંક": 4360,
      "સમા": 4361,
      "પૂર": 4362,
      "▁રક્ત": 4363,
      "▁હમણાં": 4364,
      "▁મીઠા": 4365,
      "▁ફાઇ": 4366,
      "▁સંકળ": 4367,
      "▁અમૃત": 4368,
      "▁મોબાઇલ": 4369,
      "સારી": 4370,
      "▁દિવસની": 4371,
      "▁સ્ટાર": 4372,
      "▁ઉપરાંત,": 4373,
      "▁2019": 4374,
      "▁તેનુ": 4375,
      "સ્પતિ": 4376,
      "▁ખુલા": 4377,
      "▁રાજે": 4378,
      "▁લગાવી": 4379,
      "▁રીતે,": 4380,
      "▁અગર": 4381,
      "▁મમ્મી": 4382,
      "▁પ્રવાહ": 4383,
      "વે,": 4384,
      "ંધો": 4385,
      "▁સાધનો": 4386,
      "કોએ": 4387,
      "▁રજુ": 4388,
      "▁ત્યારથી": 4389,
      "▁દુનિયામાં": 4390,
      "▁દરવાજા": 4391,
      "▁શાખા": 4392,
      "ઘાત": 4393,
      "▁લોન": 4394,
      "▁સક્ષમ": 4395,
      "▁ખાવા": 4396,
      "▁વાઇ": 4397,
      "▁ભરત": 4398,
      "▁આદમી": 4399,
      "રેશ": 4400,
      "▁સિં": 4401,
      "કટર": 4402,
      "▁છતાં,": 4403,
      "▁મૂલ": 4404,
      "▁ઓસ્ટ્રે": 4405,
      "ઇને": 4406,
      "▁ભેટ": 4407,
      "▁લાંબી": 4408,
      "▁નાર": 4409,
      "▁સાથેના": 4410,
      "ફિ": 4411,
      "પને": 4412,
      "▁પવન": 4413,
      "▁અમેરિકન": 4414,
      "▁,\n": 4415,
      "▁સેન્ટર": 4416,
      "▁તત્ત્વ": 4417,
      "▁સેક્સ": 4418,
      "ડીયો": 4419,
      "▁સુના": 4420,
      "▁વાયરસ": 4421,
      "ભુત": 4422,
      "ત્સવ": 4423,
      "▁પરમાત્મા": 4424,
      "▁જાણીતા": 4425,
      "▁સંબંધો": 4426,
      "▁બહેન": 4427,
      "વારના": 4428,
      "▁દુકા": 4429,
      "▁સાંભળીને": 4430,
      "▁રૂમ": 4431,
      "▁હોવું": 4432,
      "▁મેટ્રો": 4433,
      "▁બી.": 4434,
      "▁પ્રગતિ": 4435,
      "દીના": 4436,
      "▁ગયેલા": 4437,
      "▁પ્રસન્ન": 4438,
      "▁સંભાળ": 4439,
      "▁કરે.": 4440,
      "▁સાચા": 4441,
      "▁મર્યાદા": 4442,
      "▁સંયુક્ત": 4443,
      "▁રાજકાર": 4444,
      "▁ધંધા": 4445,
      "▁કલ્યાણ": 4446,
      "મારે": 4447,
      "કેશન": 4448,
      "ગના": 4449,
      "દિત": 4450,
      "▁લક્ષણો": 4451,
      "▁શ્વાસ": 4452,
      "ંબુ": 4453,
      "ેા": 4454,
      "▁હલ": 4455,
      "▁આને": 4456,
      "ઇએ": 4457,
      "▁વિષ્ણુ": 4458,
      "▁રૂપી": 4459,
      "ખાન": 4460,
      "▁ઉલ": 4461,
      "▁ભરતી": 4462,
      "માનો": 4463,
      "▁દર્દીઓ": 4464,
      "પ્રતિ": 4465,
      "▁ધીરે": 4466,
      "ંગના": 4467,
      "▁ઉતાર": 4468,
      "▁૨૧": 4469,
      "▁૨૪": 4470,
      "કલ્પ": 4471,
      "▁નવેમ્બર": 4472,
      "▁ઠંડી": 4473,
      "શર": 4474,
      "▁કરો,": 4475,
      "▁મેનેજ": 4476,
      "▁માન્યતા": 4477,
      "▁પ્રયોગ": 4478,
      "▁ખેડૂત": 4479,
      "▁સમાજના": 4480,
      "ક્તો": 4481,
      "તરના": 4482,
      "▁થોડું": 4483,
      "▁એકત્ર": 4484,
      "▁ઉત્સ": 4485,
      "▁ફંડ": 4486,
      "▁જવાનો": 4487,
      "▁ચોક": 4488,
      "સાની": 4489,
      "▁શકાય.": 4490,
      "હોલ": 4491,
      "▁વ્યાખ્યા": 4492,
      "મું": 4493,
      "▁પૂરું": 4494,
      "▁આચાર્ય": 4495,
      "▁જી.": 4496,
      "મનાથ": 4497,
      "▁કરાર": 4498,
      "▁પહેલે": 4499,
      "▁ફ્રા": 4500,
      "▁આશી": 4501,
      "▁ઓફિસ": 4502,
      "▁સ્વય": 4503,
      "▁અવસ્થા": 4504,
      "પિત": 4505,
      "ઠ્ઠી": 4506,
      "▁યુનિ": 4507,
      "▁પાદ": 4508,
      "▁પાત": 4509,
      "▁ઓફર": 4510,
      "▁ગુપ્ત": 4511,
      "▁કુશ": 4512,
      "ય,": 4513,
      "▁કેપ્ટન": 4514,
      "▁કટ": 4515,
      "▁હર્ષ": 4516,
      "▁અલબ": 4517,
      "ૃષ્ટિ": 4518,
      "▁રેખા": 4519,
      "▁વાંચી": 4520,
      "ખુ": 4521,
      "લ્ટ": 4522,
      "▁તુર": 4523,
      "▁વૃત્તિ": 4524,
      "ટ્ટી": 4525,
      "▁પ્રેમી": 4526,
      "▁બન્યું": 4527,
      "▁આટલી": 4528,
      "ડ્": 4529,
      "▁પ્રખ્યાત": 4530,
      "્યુઅલ": 4531,
      "▁સંબો": 4532,
      "▁શુક્રવારે": 4533,
      "▁વ્યાપક": 4534,
      "▁પ્રાણ": 4535,
      "▁મંગળવારે": 4536,
      "ઇમ": 4537,
      "▁હેડ": 4538,
      "▁વિશ્વમાં": 4539,
      "▁અસ્તિત્વ": 4540,
      "▁માસ્ક": 4541,
      "▁ડી.": 4542,
      "▁રોગો": 4543,
      "પંચ": 4544,
      "▁કહેતા": 4545,
      "કોના": 4546,
      "▁અહેવાલ": 4547,
      "▁રૂપિયાની": 4548,
      "▁ડ્રગ": 4549,
      "▁કને": 4550,
      "▁ગું": 4551,
      "▁રાણી": 4552,
      "▁સ્વસ્થ": 4553,
      "▁રૂા.": 4554,
      "યી": 4555,
      "▁ઓર": 4556,
      "▁આવે.": 4557,
      "▁કેવા": 4558,
      "▁મજ": 4559,
      "યાન": 4560,
      "▁જવાબદાર": 4561,
      "▁મંત્રાલય": 4562,
      "▁પ્રાપ્તિ": 4563,
      "▁મું": 4564,
      "▁બપોરે": 4565,
      "નારે": 4566,
      "▁અનુસ": 4567,
      "▁મસા": 4568,
      "▁ફ્લો": 4569,
      "દાં": 4570,
      "▁હરી": 4571,
      "▁હુમલા": 4572,
      "▁સપ": 4573,
      "▁કરાઈ": 4574,
      "▁માર્ગદર્શન": 4575,
      "▁ઉતરી": 4576,
      "▁નવીન": 4577,
      "▁એપ્રિલ": 4578,
      "▁દેશી": 4579,
      "▁કલાકમાં": 4580,
      "▁મહી": 4581,
      "▁એમ્": 4582,
      "▁દોડી": 4583,
      "▁ચીન": 4584,
      "દ,": 4585,
      "▁પેાતે": 4586,
      "▁અપીલ": 4587,
      "ક્તા": 4588,
      "▁પરના": 4589,
      "▁તલ": 4590,
      "▁જાય.": 4591,
      "▁હનુ": 4592,
      "▁ટિકિટ": 4593,
      "▁વહા": 4594,
      "▁મેડિકલ": 4595,
      "▁ઇજા": 4596,
      "▁અભાવ": 4597,
      "▁૦": 4598,
      "▁વીજળી": 4599,
      "▁પ્રદાન": 4600,
      "▁પડશે.\n": 4601,
      "▁મી.": 4602,
      "▁જર": 4603,
      "▁ન્યા": 4604,
      "▁ભાગ્ય": 4605,
      "▁આવ્યુ": 4606,
      "▁વ્હા": 4607,
      "▁છેવટે": 4608,
      "▁મૂકવામાં": 4609,
      "વરણ": 4610,
      "▁કાલ": 4611,
      "▁મૃ": 4612,
      "▁શખ્": 4613,
      "▁અણુ": 4614,
      "કાંઠા": 4615,
      "▁રજૂઆત": 4616,
      "▁ભાવે": 4617,
      "▁મ્યુનિસિ": 4618,
      "▁પ્લાન્ટ": 4619,
      "ત્તે": 4620,
      "▁હોવાના": 4621,
      "સાથે": 4622,
      "ંજન": 4623,
      "▁સમીક્ષા": 4624,
      "િતા": 4625,
      "▁સિક": 4626,
      "▁જેનાથી": 4627,
      "▁ભેગા": 4628,
      "કવા": 4629,
      "▁નુ": 4630,
      "રો,": 4631,
      "ડને": 4632,
      "▁જેવો": 4633,
      "ષ્ઠા": 4634,
      "વને": 4635,
      "▁વાક": 4636,
      "▁પ્રેરણા": 4637,
      "▁ચાલ્યા": 4638,
      "▁નર્મ": 4639,
      "▁ટોચ": 4640,
      "▁ઉકેલ": 4641,
      "▁રસ્તો": 4642,
      "રાશ": 4643,
      "▁લોકોમાં": 4644,
      "હાં": 4645,
      "િકા": 4646,
      "▁પદ્": 4647,
      "▁રિલીઝ": 4648,
      "▁ઉઠા": 4649,
      "▁મુક્તિ": 4650,
      "▁સાથેની": 4651,
      "▁35": 4652,
      "▁શેા": 4653,
      "▁પૂછપરછ": 4654,
      "▁છેલ્લી": 4655,
      "▁જાતને": 4656,
      "▁ફાળ": 4657,
      "▁જિંદગી": 4658,
      "માય": 4659,
      "ન્શન": 4660,
      "▁મેક": 4661,
      "▁આજના": 4662,
      "▁...": 4663,
      "▁લોન્ચ": 4664,
      "▁ભાવમાં": 4665,
      "▁અલી": 4666,
      "▁દિવસથી": 4667,
      "▁વિદ્": 4668,
      "▁વિદ્યાર્થીઓને": 4669,
      "▁માગે": 4670,
      "▁ઘૂ": 4671,
      "ટીંગ": 4672,
      "પુરમાં": 4673,
      "▁માણસો": 4674,
      "▁ફર્": 4675,
      "▁કર્મચારીઓ": 4676,
      "▁એકાદ": 4677,
      "▁હોવાનો": 4678,
      "▁પ્રત્યેક": 4679,
      "▁છી": 4680,
      "▁છે,\n": 4681,
      "▁મુસાફરી": 4682,
      "▁ત્રણેય": 4683,
      "▁હશે.\n": 4684,
      "▁સમાપ્ત": 4685,
      "▁આહાર": 4686,
      "▁આપેલી": 4687,
      "▁નિષ્ફળ": 4688,
      "▁કાર્યક્રમમાં": 4689,
      "▁ભિન્ન": 4690,
      "▁હજારો": 4691,
      "▁સેટ": 4692,
      "▁શકશે": 4693,
      "▁ખાઈ": 4694,
      "▁અમર": 4695,
      "નીતિ": 4696,
      "▁સ્પી": 4697,
      "▁સ્થાપિત": 4698,
      "▁રાખવી": 4699,
      "▁જૂની": 4700,
      "▁વોર્ડ": 4701,
      "▁2023": 4702,
      "▁અર્થે": 4703,
      "▁હાર્દિક": 4704,
      "▁બૉ": 4705,
      "ાના": 4706,
      "▁જડ": 4707,
      "▁હસ્ત": 4708,
      "▁નોંધાયા": 4709,
      "▁જમ્": 4710,
      "મિન": 4711,
      "▁બાપુ": 4712,
      "▁કાચ": 4713,
      "▁નિમિ": 4714,
      "▁રાશિના": 4715,
      "ક્ષ્મ": 4716,
      "▁ડુ": 4717,
      "િટલ": 4718,
      "દને": 4719,
      "▁મધ્યમ": 4720,
      "▁પડયા": 4721,
      "▁ખડ": 4722,
      "ઝલ": 4723,
      "લેશન": 4724,
      "▁નેટવર્": 4725,
      "વણ": 4726,
      "▁થકી": 4727,
      "▁ભાગના": 4728,
      "▁જેનું": 4729,
      "▁મળશે.\n": 4730,
      "▁માછ": 4731,
      "યેલી": 4732,
      "▁૧.": 4733,
      "▁પુરી": 4734,
      "▁અણ": 4735,
      "▁ગંગા": 4736,
      "▁થવાના": 4737,
      "▁કોહ": 4738,
      "▁વિરૂ": 4739,
      "▁રે,": 4740,
      "▁બુધવારે": 4741,
      "▁વિતરણ": 4742,
      "ધું": 4743,
      "વસ્થા": 4744,
      "▁આઝા": 4745,
      "્યાત્મ": 4746,
      "▁વાઘ": 4747,
      "▁ચામ": 4748,
      "▁રાત્રિ": 4749,
      "▁અનુકૂળ": 4750,
      "▁દુકાન": 4751,
      "▁એવાં": 4752,
      "▁રહેલ": 4753,
      "▁બધુ": 4754,
      "▁રહેવાની": 4755,
      "▁ગયા,": 4756,
      "▁ઊંચ": 4757,
      "▁અન્": 4758,
      "▁ચેત": 4759,
      "સ્ટ્ર": 4760,
      "▁જેટલું": 4761,
      "ાવ્યું": 4762,
      "▁વેગ": 4763,
      "▁સૂત્ર": 4764,
      "▁કિંમ": 4765,
      "▁સૈનિક": 4766,
      "ગારી": 4767,
      "▁હોટ": 4768,
      "▁યૂ": 4769,
      "▁લડાઈ": 4770,
      "મસ": 4771,
      "▁બુક": 4772,
      "▁ગઢ": 4773,
      "ચંદ": 4774,
      "ર્વાદ": 4775,
      "▁મેન": 4776,
      "▁કાર્યક્રમો": 4777,
      "▁ફોટા": 4778,
      "▁લેખક": 4779,
      "▁વાનગી": 4780,
      "▁સંજય": 4781,
      "સાઇટ": 4782,
      "▁મહાત્મા": 4783,
      "▁માઇ": 4784,
      "▁મુલાકા": 4785,
      "▁કિલોમીટર": 4786,
      "▁એકે": 4787,
      "▁તળાવ": 4788,
      "▁બતાવી": 4789,
      "તિહાસિક": 4790,
      "▁સખત": 4791,
      "▁પોર્ટ": 4792,
      "▁સીધી": 4793,
      "▁ચિત્ત": 4794,
      "ખાં": 4795,
      "30": 4796,
      "▁શરીરને": 4797,
      "ખાણ": 4798,
      "▁છીએ.\n": 4799,
      "▁માપ": 4800,
      "▁ગુના": 4801,
      "▁બદલા": 4802,
      "દિવ": 4803,
      "રેક્ટર": 4804,
      "▁માથ": 4805,
      "▁આટલા": 4806,
      "સીબ": 4807,
      "▁દોડ": 4808,
      "▁રજ": 4809,
      "▁જામ": 4810,
      "▁આફ્રિ": 4811,
      "▁મુંબઇ": 4812,
      "▁સોંપ": 4813,
      "ન્તિ": 4814,
      "પ્પ": 4815,
      "▁નેતાઓ": 4816,
      "ંતિ": 4817,
      "▁નિશ્ચય": 4818,
      "▁ડુંગ": 4819,
      "▁ઓલ": 4820,
      "▁દિન": 4821,
      "▁વધતા": 4822,
      "▁માંગે": 4823,
      "પ્લે": 4824,
      "▁યુઝ": 4825,
      "▁કિશો": 4826,
      "▁હાથી": 4827,
      "્યો,": 4828,
      "▁રદ": 4829,
      "ખું": 4830,
      "▁શિક્ષક": 4831,
      "▁એકલા": 4832,
      "▁અગ્રણી": 4833,
      "▁પાલિ": 4834,
      "લ્વે": 4835,
      "▁કહ્યું.\n": 4836,
      "▁રૂમમાં": 4837,
      "▁પરિણામો": 4838,
      "▁જલ્": 4839,
      "▁વનસ્પતિ": 4840,
      "▁જેમણે": 4841,
      "ુરુ": 4842,
      "▁ડ્રાઇ": 4843,
      "▁તસવીરો": 4844,
      "▁સત્ર": 4845,
      "▁યુગ": 4846,
      "▁દ્રષ્ટિ": 4847,
      "▁લાયક": 4848,
      "▁કૃતિ": 4849,
      "સાથી": 4850,
      "▁ચાલતા": 4851,
      "્યો.\n": 4852,
      "▁શાકભા": 4853,
      "ક્સી": 4854,
      "▁મહિને": 4855,
      "▁કાગળ": 4856,
      "ર્દી": 4857,
      "▁ઊંઘ": 4858,
      "▁ઘરના": 4859,
      "રબ": 4860,
      "▁મલ્": 4861,
      "▁અગત્ય": 4862,
      "▁વહેલી": 4863,
      "▁વિનંતી": 4864,
      "▁હથ": 4865,
      "▁વેક્સિ": 4866,
      "ટિવ": 4867,
      "▁અર્થાત્": 4868,
      "▁કંપનીના": 4869,
      "▁આંતરિક": 4870,
      "શ્વિક": 4871,
      "વાડી": 4872,
      "▁બેસા": 4873,
      "▁તકલીફ": 4874,
      "કોર્ટ": 4875,
      "▁મોંઘ": 4876,
      "▁નાગરિક": 4877,
      "▁સ્ત્રીઓ": 4878,
      "સુખ": 4879,
      "▁થઈ.": 4880,
      "▁ગર્ભ": 4881,
      "▁હતાં.\n": 4882,
      "▁કેન્સર": 4883,
      "▁લં": 4884,
      "▁બજેટ": 4885,
      "▁નૃ": 4886,
      "▁માહ": 4887,
      "▁તુર્": 4888,
      "ખ્ત": 4889,
      "સક": 4890,
      "▁સંવે": 4891,
      "▁સ્કૂલ": 4892,
      "મલ": 4893,
      "▁હમે": 4894,
      "પીએ": 4895,
      "▁શકું": 4896,
      "વ,": 4897,
      "▁અલબત્ત": 4898,
      "▁સિદ્ધિ": 4899,
      "▁પ્રયત્": 4900,
      "▁છાપ": 4901,
      "▁ઝાડ": 4902,
      "▁આવતું": 4903,
      "▁તેટલા": 4904,
      "▁સંજો": 4905,
      "▁હકીક": 4906,
      "▁ઉ.": 4907,
      "▁આર્ટ": 4908,
      "રજ": 4909,
      "▁જ્": 4910,
      "▁નોંધી": 4911,
      "▁પેાતાને": 4912,
      "ડાઇ": 4913,
      "▁મૂકે": 4914,
      "▁સ્ટેટ": 4915,
      "▁શનિવારે": 4916,
      "▁ઓછો": 4917,
      "▁દલી": 4918,
      "▁તત્વો": 4919,
      "મા,": 4920,
      "યલ": 4921,
      "▁સંદર્ભ": 4922,
      "▁આટલું": 4923,
      "▁પરિષ": 4924,
      "▁ઊર્": 4925,
      "▁ચેરમેન": 4926,
      "▁શૂટ": 4927,
      "▁રથ": 4928,
      "▁સાંસદ": 4929,
      "▁પ્રદેશમાં": 4930,
      "▁નં.": 4931,
      "▁29": 4932,
      "▁45": 4933,
      "ધ્ય": 4934,
      "▁આપવાનું": 4935,
      "▁પ્રભા": 4936,
      "▁વિડીયો": 4937,
      "▁ધારાસભ્યો": 4938,
      "કૃષ્ણ": 4939,
      "ર્ડર": 4940,
      "▁હોમ": 4941,
      "▁આવેલું": 4942,
      "ભાં": 4943,
      "▁પાર્ટીના": 4944,
      "▁સ્વાગત": 4945,
      "▁પરિવર્તન": 4946,
      "▁મેસેજ": 4947,
      "▁શૂ": 4948,
      "ાંતર": 4949,
      "▁દ્રવ્ય": 4950,
      "▁ડૂ": 4951,
      "▁ચોમા": 4952,
      "▁સુખી": 4953,
      "▁ગ્રહણ": 4954,
      "▁બેડ": 4955,
      "▁ઓપરેશન": 4956,
      "▁રાખવું": 4957,
      "▁વૈશ્વિક": 4958,
      "રૂપી": 4959,
      "▁કપા": 4960,
      "▁ચલાવી": 4961,
      "▁સુધારો": 4962,
      "ટીની": 4963,
      "વેલા": 4964,
      "ફતે": 4965,
      "▁રાજાએ": 4966,
      "વિંગ": 4967,
      "▁ચડ": 4968,
      "▁કેટલું": 4969,
      "▁બંધાર": 4970,
      "▁કારણકે": 4971,
      "▁જુના": 4972,
      "ષ્ક": 4973,
      "▁જર્મ": 4974,
      "▁ટીકા": 4975,
      "ણાની": 4976,
      "▁ઐતિહાસિક": 4977,
      "▁મચી": 4978,
      "▁મંદિરમાં": 4979,
      "▁માંગો": 4980,
      "▁વાવા": 4981,
      "▁ધણા": 4982,
      "▁વેળા": 4983,
      "▁ખાય": 4984,
      "▁એપ્લિકેશન": 4985,
      "▁ઘડી": 4986,
      "▁કોરોનાની": 4987,
      "વૈ": 4988,
      "▁નિર્મ": 4989,
      "▁પ્રશંસા": 4990,
      "▁ઉપરના": 4991,
      "▁સમર્થન": 4992,
      "ગરી": 4993,
      "▁હાલત": 4994,
      "▁કારકિ": 4995,
      "▁તે,": 4996,
      "▁શાન": 4997,
      "▁હનુમાન": 4998,
      "▁ઉદય": 4999,
      "રાજા": 5000,
      "▁ઘેા": 5001,
      "▁લઘુ": 5002,
      "ટાં": 5003,
      "▁માનવી": 5004,
      "▁કાયદો": 5005,
      "▁ઓસ્ટ્રેલિયા": 5006,
      "શના": 5007,
      "▁ઉદ્દેશ": 5008,
      "▁અનુભવી": 5009,
      "▁ક્રેડ": 5010,
      "▁જોડી": 5011,
      "▁થયુ": 5012,
      "▁જાળવી": 5013,
      "▁કેમ્પ": 5014,
      "▁પ્રતા": 5015,
      "▁1,": 5016,
      "▁ગુજરાતની": 5017,
      "▁ખોટી": 5018,
      "મ્પ્યુ": 5019,
      "ન્દી": 5020,
      "લીની": 5021,
      "▁સેક": 5022,
      "▁ભાષામાં": 5023,
      "▁નિર્દેશ": 5024,
      "▁ઓટો": 5025,
      "▁પાછળથી": 5026,
      "▁બાંધી": 5027,
      "▁લક્ષ્ય": 5028,
      "▁..": 5029,
      "ર્મો": 5030,
      "રોએ": 5031,
      "▁મિલિયન": 5032,
      "ભારી": 5033,
      "▁કરશો": 5034,
      "▁નાટક": 5035,
      "▁જાણીએ": 5036,
      "લિન": 5037,
      "▁સ્તરે": 5038,
      "▁સાગર": 5039,
      "▁સહયોગ": 5040,
      "▁જિન": 5041,
      "ધામ": 5042,
      "▁ખેંચી": 5043,
      "▁ટૂંકા": 5044,
      "▁પાતાની": 5045,
      "ટી,": 5046,
      "▁શરીરના": 5047,
      "▁દિલ્હીમાં": 5048,
      "▁ડોક્ટર": 5049,
      "▁લાગી.": 5050,
      "▁રાખવાની": 5051,
      "▁અન્ન": 5052,
      "▁પરીક્ષણ": 5053,
      "▁ઠેકાણે": 5054,
      "▁સંર": 5055,
      "▁198": 5056,
      "▁યુક્રે": 5057,
      "▁નીચેના": 5058,
      "ર્ષિક": 5059,
      "િની": 5060,
      "▁80": 5061,
      "▁થવાનું": 5062,
      "▁વિર": 5063,
      "િશ": 5064,
      "ન્ટે": 5065,
      "▁કેશ": 5066,
      "▁કરૂ": 5067,
      "▁બનાવ્યા": 5068,
      "▁પ્રકાશિત": 5069,
      "▁સવ": 5070,
      "▁ધણી": 5071,
      "▁અંગેની": 5072,
      "▁વેસ્ટ": 5073,
      "▁હંમેશાં": 5074,
      "▁૫૦": 5075,
      "▁પૌ": 5076,
      "▁નજીકના": 5077,
      "ત્વે": 5078,
      "▁સાઇટ": 5079,
      "▁વિરોધી": 5080,
      "સીના": 5081,
      "▁કારણુ": 5082,
      "તૃત્વ": 5083,
      "▁કંપનીએ": 5084,
      "સ્પદ": 5085,
      "▁મુકી": 5086,
      "▁સુધીની": 5087,
      "્યું,": 5088,
      "▁મારફતે": 5089,
      "▁રક્ષા": 5090,
      "▁ભૌ": 5091,
      "▁ઉછ": 5092,
      "▁જશે.\n": 5093,
      "▁સમયે,": 5094,
      "યાત્રા": 5095,
      "▁ડાઉનલોડ": 5096,
      "▁જારી": 5097,
      "▁યથ": 5098,
      "ભાવિક": 5099,
      "▁નોંધાવી": 5100,
      "▁વધારવા": 5101,
      "▁સ્નેહ": 5102,
      "બહે": 5103,
      "▁પાય": 5104,
      "સીપી": 5105,
      "▁મુસ્લિમ": 5106,
      "▁ગેસ": 5107,
      "▁છાતી": 5108,
      "ધિક": 5109,
      "▁માતાપિતા": 5110,
      "ઈટ": 5111,
      "▁મુસલ": 5112,
      "▁દુશ્": 5113,
      "▁ખોલ": 5114,
      "નનું": 5115,
      "▁નહ": 5116,
      "બાજુ": 5117,
      "▁પહોંચે": 5118,
      "▁ભરવા": 5119,
      "▁જોડાયેલા": 5120,
      "▁વધીને": 5121,
      "પત": 5122,
      "▁બાકીના": 5123,
      "▁લશ્કર": 5124,
      "▁આદર": 5125,
      "ક્ચર": 5126,
      "▁સરેરાશ": 5127,
      "▁સ્વર્ગ": 5128,
      "સુધી": 5129,
      "▁એકજ": 5130,
      "▁સુધીના": 5131,
      "્યામ": 5132,
      "▁ઠેર": 5133,
      "કોમાં": 5134,
      "▁વધુમાં,": 5135,
      "▁જીવા": 5136,
      "▁તાવ": 5137,
      "સ્ટાગ્રામ": 5138,
      "▁કેળવણી": 5139,
      "▁છતા": 5140,
      "▁સુગ": 5141,
      "▁તૂટી": 5142,
      "▁પાલ": 5143,
      "▁વિકા": 5144,
      "▁ઓક્ટોબર": 5145,
      "▁પુણ્ય": 5146,
      "▁મૃતદેહ": 5147,
      "▁તેમા": 5148,
      "▁ઇંગ્": 5149,
      "▁પ્રતિક્રિયા": 5150,
      "▁લાખો": 5151,
      "▁હરા": 5152,
      "▁જથ્થો": 5153,
      "▁ક્રેડિટ": 5154,
      "▁બધાને": 5155,
      "લાએ": 5156,
      "▁પ્લેટફોર્મ": 5157,
      "▁પરિવહન": 5158,
      "બદ્ધ": 5159,
      "▁સગા": 5160,
      "▁તફ": 5161,
      "▁ભવિષ્યમાં": 5162,
      "▁સુનાવણી": 5163,
      "▁ભંગ": 5164,
      "▁કોલેજ": 5165,
      "▁સીધા": 5166,
      "▁મોં": 5167,
      "▁લાય": 5168,
      "▁હેલ્થ": 5169,
      "▁વેબસાઇટ": 5170,
      "▁પપ્પા": 5171,
      "શનના": 5172,
      "▁જ.": 5173,
      "▁ભક્ત": 5174,
      "▁ખુર": 5175,
      "▁સોના": 5176,
      "ન્ટ્સ": 5177,
      "▁માહોલ": 5178,
      "ટિક": 5179,
      "▁એવોર્ડ": 5180,
      "▁બચ્ચ": 5181,
      "▁ડિસ્": 5182,
      "▁જમ્મુ": 5183,
      "▁સંશોધન": 5184,
      "▁પત": 5185,
      "લેશ": 5186,
      "▁વિટા": 5187,
      "જલ": 5188,
      "▁ભાન": 5189,
      "▁૨૨": 5190,
      "▁આલ્": 5191,
      "▁ક્રે": 5192,
      "ચ્ચાર": 5193,
      "ટીએ": 5194,
      "▁વાવાઝો": 5195,
      "▁સાચું": 5196,
      "વંત": 5197,
      "▁આવતો": 5198,
      "▁રસ્તે": 5199,
      "▁વિમાન": 5200,
      "▁શ્રાવ": 5201,
      "▁કારકિર્દી": 5202,
      "ંગલ": 5203,
      "▁સૈન્ય": 5204,
      "▁જાવ": 5205,
      "▁કોશિ": 5206,
      "▁ખેડૂતોને": 5207,
      "યમ": 5208,
      "▁ડ્રાઈ": 5209,
      "▁વરસાદની": 5210,
      "▁થશે,": 5211,
      "ાંચ": 5212,
      "▁કક્ષા": 5213,
      "▁વાર્ષિક": 5214,
      "▁છબી": 5215,
      "▁જેમાંથી": 5216,
      "દોષ": 5217,
      "▁નર્મદા": 5218,
      "▁તેટલી": 5219,
      "▁અશ્": 5220,
      "▁વિચિત્ર": 5221,
      "▁ઉપયોગમાં": 5222,
      "▁તણાવ": 5223,
      "▁સ્ક્રી": 5224,
      "▁નાંખી": 5225,
      "ળને": 5226,
      "▁લૉ": 5227,
      "▁ગોલ્ડ": 5228,
      "તઃ": 5229,
      "મિંગ": 5230,
      "▁ઇંચ": 5231,
      "▁દોર": 5232,
      "નિયર": 5233,
      "▁જાઓ": 5234,
      "▁નોંધાયો": 5235,
      "▁ધારી": 5236,
      "▁બારી": 5237,
      "▁ચાલતી": 5238,
      "▁ઓનલાઈન": 5239,
      "▁આદર્શ": 5240,
      "▁ગણવામાં": 5241,
      "▁તસવીર": 5242,
      "▁સાઉ": 5243,
      "▁ભયંકર": 5244,
      "▁તેવો": 5245,
      "▁બ્રાન્ડ": 5246,
      "▁સરહ": 5247,
      "▁રશિયન": 5248,
      "▁ખુલ્લા": 5249,
      "▁જાણતા": 5250,
      "મિતા": 5251,
      "▁વરસા": 5252,
      "દૂ": 5253,
      "▁ફાર્": 5254,
      "▁મોડી": 5255,
      "મીના": 5256,
      "▁સગી": 5257,
      "▁ગણી": 5258,
      "▁નગરપાલિ": 5259,
      "▁ચૂકી": 5260,
      "▁પહેલેથી": 5261,
      "▁બોલા": 5262,
      "▁વપરાય": 5263,
      "▁રેલ્વે": 5264,
      "▁3.": 5265,
      "▁બનવા": 5266,
      "છો": 5267,
      "ાવર": 5268,
      "▁રાતે": 5269,
      "▁તોડી": 5270,
      "▁આપો": 5271,
      "▁નાખે": 5272,
      "▁મોક": 5273,
      "ાઇ": 5274,
      "▁દશા": 5275,
      "દ્દી": 5276,
      "▁કમાણી": 5277,
      "ક્ષક": 5278,
      "▁અત્રે": 5279,
      "▁શ્રમ": 5280,
      "▁પાણીના": 5281,
      "વેલી": 5282,
      "▁જ્યોતિ": 5283,
      "▁ઉત્તે": 5284,
      "▁શાસ્ત્રી": 5285,
      "▁ભારતી": 5286,
      "▁તેમનાં": 5287,
      "▁દરો": 5288,
      "▁ધ્વ": 5289,
      "▁ડોઝ": 5290,
      "નીએ": 5291,
      "▁પાડવા": 5292,
      "▁વાઈ": 5293,
      "▁2017": 5294,
      "▁દાં": 5295,
      "▁સમૂહ": 5296,
      "▁સહકાર": 5297,
      "▁પાંદ": 5298,
      "▁વિશ્વના": 5299,
      "▁સતા": 5300,
      "▁શક્યા": 5301,
      "▁દેશોમાં": 5302,
      "▁રાજ્યની": 5303,
      "▁સમાધાન": 5304,
      "ાર્ટમેન્ટ": 5305,
      "▁મહાનગર": 5306,
      "▁જૂનાગઢ": 5307,
      "▁મહત્વનું": 5308,
      "▁માંગણી": 5309,
      "▁બ્લેક": 5310,
      "▁જલ્દી": 5311,
      "થ્યા": 5312,
      "▁નબળા": 5313,
      "ન્સે": 5314,
      "▁વાગે": 5315,
      "▁ભરૂ": 5316,
      "ગામ": 5317,
      "▁સેવાઓ": 5318,
      "માર્": 5319,
      "▁70": 5320,
      "▁મહત્વની": 5321,
      "▁કિસ્સામાં": 5322,
      "હારી": 5323,
      "િયત": 5324,
      "▁નહિં": 5325,
      "▁ખાર": 5326,
      "ડીઓ": 5327,
      "▁અભિયાન": 5328,
      "્યુટી": 5329,
      "▁પુરુષો": 5330,
      "રાએ": 5331,
      "દ્યા": 5332,
      "▁બનાવવાની": 5333,
      "▁2018": 5334,
      "▁ઉતારી": 5335,
      "▁જતો": 5336,
      "સાગર": 5337,
      "▁જીવનની": 5338,
      "ક્કા": 5339,
      "▁આચ": 5340,
      "▁સોલ": 5341,
      "▁મહો": 5342,
      "▁ટેલિ": 5343,
      "▁વિરાટ": 5344,
      "▁લાઇન": 5345,
      "▁રખ": 5346,
      "▁ચરણ": 5347,
      "▁ગયું.": 5348,
      "કર્": 5349,
      "▁ભક્તો": 5350,
      "▁આશીર્વાદ": 5351,
      "▁કરાયો": 5352,
      "▁ચેપ": 5353,
      "▁સ્વાભાવિક": 5354,
      "▁ૐ": 5355,
      "▁વીસ": 5356,
      "▁વાળી": 5357,
      "▁પરિવારજનો": 5358,
      "▁જેલ": 5359,
      "!!": 5360,
      "યાના": 5361,
      "▁કય": 5362,
      "િયાત": 5363,
      "▁ગૌરવ": 5364,
      "▁સ્નાન": 5365,
      "▁મીઠું": 5366,
      "પન": 5367,
      "▁ચલ": 5368,
      "▁વપરાશક": 5369,
      "▁આણ": 5370,
      "▁વર્ક": 5371,
      "શાહી": 5372,
      "▁અનુમાન": 5373,
      "સ્તાન": 5374,
      "▁આસપાસના": 5375,
      "▁મોટર": 5376,
      "▁છુટ": 5377,
      "▁હાડ": 5378,
      "▁ફોર": 5379,
      "▁ત્રાસ": 5380,
      "નાને": 5381,
      "સ્પર": 5382,
      "▁નુકશાન": 5383,
      "▁દ્વિ": 5384,
      "િયાં": 5385,
      "▁૨૩": 5386,
      "▁સમુદાય": 5387,
      "▁અરજ": 5388,
      "▁યજ્ઞ": 5389,
      "▁બાય": 5390,
      "▁મનુષ": 5391,
      "▁પગલું": 5392,
      "▁જેવાં": 5393,
      "▁ક્રોધ": 5394,
      "લભ": 5395,
      "▁સત્તાવાર": 5396,
      "▁જેલમાં": 5397,
      "▁દિગ્": 5398,
      "▁નિયંત્રણ": 5399,
      "▁સંદેશ": 5400,
      "▁બિહાર": 5401,
      "તોને": 5402,
      "શનની": 5403,
      "▁બાત": 5404,
      "▁સલમાન": 5405,
      "▁ઈ.": 5406,
      "▁ક્યાંક": 5407,
      "▁અભિનેતા": 5408,
      "▁પાછો": 5409,
      "▁ટીમો": 5410,
      "▁રાજીના": 5411,
      "▁કળા": 5412,
      "▁પરમાર": 5413,
      "▁પૂર્": 5414,
      "▁રહસ્ય": 5415,
      "ંગે": 5416,
      "▁ઉર્ફે": 5417,
      "લીઓ": 5418,
      "▁જૂન": 5419,
      "▁સુનિ": 5420,
      "▁કસર": 5421,
      "▁પ્રચ": 5422,
      "▁કલાકે": 5423,
      "▁સજ્જ": 5424,
      "▁રહેવાસી": 5425,
      "▁મામલો": 5426,
      "▁ગઈકાલે": 5427,
      "▁ઉંચા": 5428,
      "▁વિસ્": 5429,
      "▁ભારતે": 5430,
      "▁ઋષિ": 5431,
      "પ્રાય": 5432,
      "▁બાબતમાં": 5433,
      "▁ટેબલ": 5434,
      "▁મશીન": 5435,
      "▁આતંકવાદી": 5436,
      "▁ગેરકાય": 5437,
      "▁પાતે": 5438,
      "▁રાજધાની": 5439,
      "િયો": 5440,
      "▁વધતી": 5441,
      "▁છૂટા": 5442,
      "▁મનને": 5443,
      "▁ભૂખ": 5444,
      "▁સીમા": 5445,
      "વવાની": 5446,
      "▁અનંત": 5447,
      "▁હિમા": 5448,
      "ર્ટે": 5449,
      "▁પ્રણા": 5450,
      "▁પ્રસ્તા": 5451,
      "▁તીર્થ": 5452,
      "▁તેજસ્વી": 5453,
      "▁આમંત્ર": 5454,
      "▁ઈચ્છ": 5455,
      "ાવિ": 5456,
      "▁વેદ": 5457,
      "▁ઝઘ": 5458,
      "સ્લા": 5459,
      "▁અક્ષર": 5460,
      "▁ઈંગ્": 5461,
      "ણાને": 5462,
      "▁જાય,": 5463,
      "▁એપ્રિ": 5464,
      "▁એસો": 5465,
      "▁દિલ્હીઃ": 5466,
      "▁આગ્રહ": 5467,
      "ંદે": 5468,
      "▁ઢી": 5469,
      "▁હેર": 5470,
      "ડી.": 5471,
      "▁સંસ્કાર": 5472,
      "▁લાગતું": 5473,
      "▁નક": 5474,
      "મ્બરે": 5475,
      "▁નિશાન": 5476,
      "સાના": 5477,
      "▁ક્લા": 5478,
      "લાઇટ": 5479,
      "▁મફત": 5480,
      "▁સવા": 5481,
      "▁મરા": 5482,
      "▁માંસ": 5483,
      "▁પરંપરાગત": 5484,
      "▁અજ્ઞાન": 5485,
      "▁રાખ્યા": 5486,
      "ણુ,": 5487,
      "ર્જી": 5488,
      "▁કહીએ": 5489,
      "▁ચૂક્યા": 5490,
      "▁માણસને": 5491,
      "▁ઉઠી": 5492,
      "▁આપણું": 5493,
      "▁સંતોષ": 5494,
      "ગાં": 5495,
      "સાઇ": 5496,
      "▁મેઘ": 5497,
      "▁ગામની": 5498,
      "▁ઊંડા": 5499,
      "િયલ": 5500,
      "▁બાપ": 5501,
      "▁સંતુ": 5502,
      "▁500": 5503,
      "▁પાર્ક": 5504,
      "▁સત્": 5505,
      "▁ડ્રો": 5506,
      "િયાના": 5507,
      "▁૨.": 5508,
      "▁પ્રયાસો": 5509,
      "▁સર્જા": 5510,
      "▁શ્વે": 5511,
      "▁શિષ્ય": 5512,
      "▁હક": 5513,
      "▁દિવસના": 5514,
      "▁સિદ્ધાંત": 5515,
      "▁વિભાગે": 5516,
      "ાયી": 5517,
      "▁પહા": 5518,
      "ભૂતિ": 5519,
      "▁નિત્ય": 5520,
      "પાઈ": 5521,
      "▁બનેલી": 5522,
      "▁વળતર": 5523,
      "▁ઓક્સિ": 5524,
      "▁હિન્દી": 5525,
      "▁સંઘર્ષ": 5526,
      "સૂર": 5527,
      "▁શખ્સો": 5528,
      "▁હાલતમાં": 5529,
      "▁શોધવા": 5530,
      "▁ર્": 5531,
      "▁કવિતા": 5532,
      "ટેક": 5533,
      "▁રોકડ": 5534,
      "▁કહા": 5535,
      "▁સ્વપ્ન": 5536,
      "▁થયો.": 5537,
      "▁કર્ણા": 5538,
      "▁બાંધકામ": 5539,
      "▁નિરી": 5540,
      "▁ખાતા": 5541,
      "▁વરિ": 5542,
      "દેવી": 5543,
      "▁શિકાર": 5544,
      "▁ચીજ": 5545,
      "▁અંદાજ": 5546,
      "▁પીડ": 5547,
      "સિસ": 5548,
      "▁આપની": 5549,
      "▁થઇને": 5550,
      "▁મિશ્રણ": 5551,
      "ત.": 5552,
      "▁નેતૃત્વ": 5553,
      "▁પોતાનાં": 5554,
      "▁સંજોગો": 5555,
      "▁પણ,": 5556,
      "▁સ્કી": 5557,
      "▁દિવાળી": 5558,
      "યાની": 5559,
      "▁કાઉન્": 5560,
      "▁જરૂરિયાત": 5561,
      "▁મોકલવામાં": 5562,
      "▁હાલના": 5563,
      "▁દીવ": 5564,
      "▁તુર્કી": 5565,
      "ધર્મ": 5566,
      "▁ચક": 5567,
      "▁વ.": 5568,
      "▁ઘી": 5569,
      "ર્ત": 5570,
      "▁ચર્ચામાં": 5571,
      "િયા,": 5572,
      "▁લોકડાઉન": 5573,
      "▁લો.": 5574,
      "ક્રમે": 5575,
      "ખાના": 5576,
      "▁આવે,": 5577,
      "ગની": 5578,
      "બાની": 5579,
      "સીની": 5580,
      "▁સાસુ": 5581,
      "વાળું": 5582,
      "▁એવામાં": 5583,
      "▁બનેલા": 5584,
      "▁નારાજ": 5585,
      "▁ઋતુ": 5586,
      "▁ખળ": 5587,
      "▁ઑફ": 5588,
      "સીબી": 5589,
      "▁પ્રોત્સાહન": 5590,
      "▁ધન્ય": 5591,
      "ળી,": 5592,
      "▁શહેરી": 5593,
      "▁પ્લાન": 5594,
      "ડવાની": 5595,
      "ચુ": 5596,
      "▁તાં": 5597,
      "▁બોલાવ": 5598,
      "ર્સને": 5599,
      "▁ગ્રામ્ય": 5600,
      "▁પડેલા": 5601,
      "▁આપનાર": 5602,
      "▁આપશે.": 5603,
      "સિડ": 5604,
      "▁ઔષ": 5605,
      "▁સર્વિસ": 5606,
      "ૃત્તિ": 5607,
      "▁જે.": 5608,
      "▁પ્રભાવિત": 5609,
      "ફુ": 5610,
      "ાવું": 5611,
      "▁અમારે": 5612,
      "▁મેહ": 5613,
      "▁પડ્યું": 5614,
      "▁પંથ": 5615,
      "..\n": 5616,
      "▁વલણ": 5617,
      "▁પ્રમો": 5618,
      "ધીન": 5619,
      "વ્યું": 5620,
      "કાઈ": 5621,
      "▁ઝડપ": 5622,
      "▁ફિટ": 5623,
      "▁ચેતવણી": 5624,
      "▁વરિષ્ઠ": 5625,
      "▁પૂરો": 5626,
      "ત્તી": 5627,
      "▁વહુ": 5628,
      "ટ્ટા": 5629,
      "ડીંગ": 5630,
      "▁દુઃખી": 5631,
      "▁સંપર્": 5632,
      "જું": 5633,
      "▁જ્ઞાતિ": 5634,
      "▁પટેલ,": 5635,
      "▁માગણી": 5636,
      "▁અર્જુન": 5637,
      "▁પ્રકારનું": 5638,
      "ન્સમાં": 5639,
      "▁ગુરુવારે": 5640,
      "▁તકે": 5641,
      "▁કચેરી": 5642,
      "▁અમરેલી": 5643,
      "▁અંગત": 5644,
      "▁મનોર": 5645,
      "▁માફક": 5646,
      "▁ધૂ": 5647,
      "▁આવનાર": 5648,
      "રિત્ર": 5649,
      "▁જવાના": 5650,
      "ર્જ": 5651,
      "▁ખિ": 5652,
      "▁પોલીસની": 5653,
      "▁વિવેક": 5654,
      "ડિઓ": 5655,
      "10": 5656,
      "હત્યા": 5657,
      "▁ઇસ": 5658,
      "▁આવ્યો.": 5659,
      "▁તેણી": 5660,
      "▁મહાદેવ": 5661,
      "ટિલ": 5662,
      "▁અમેરિકામાં": 5663,
      "▁ડાયા": 5664,
      "બારી": 5665,
      "▁રહી.": 5666,
      "▁મોટે": 5667,
      "▁વી.": 5668,
      "▁પર્યાવરણ": 5669,
      "ઝુ": 5670,
      "પિંગ": 5671,
      "▁ચહે": 5672,
      "લેખ": 5673,
      "વરમાં": 5674,
      "▁ગીર": 5675,
      "▁32": 5676,
      "નગરમાં": 5677,
      "કાળમાં": 5678,
      "▁નહિ.\n": 5679,
      "કો,": 5680,
      "▁વૉ": 5681,
      "▁જેટલો": 5682,
      "▁આપવી": 5683,
      "▁ગામો": 5684,
      "▁સાવચે": 5685,
      "▁વહીવટી": 5686,
      "તાનાં": 5687,
      "▁કલેક": 5688,
      "▁કરાવવા": 5689,
      "▁મધુ": 5690,
      "▁મંજ": 5691,
      "▁બચાવવા": 5692,
      "▁પથ્થર": 5693,
      "▁સર્વો": 5694,
      "▁શહેરની": 5695,
      "▁વપરાશકર્તા": 5696,
      "ભાવે": 5697,
      "▁ખામી": 5698,
      "હું": 5699,
      "▁એવ": 5700,
      "▁સામાન": 5701,
      "▁બ્રાહ્મણ": 5702,
      "▁મહત્તમ": 5703,
      "▁બાળકી": 5704,
      "નાએ": 5705,
      "▁આપતાં": 5706,
      "▁મૂળભૂત": 5707,
      "▁ડિજ": 5708,
      "▁બેન": 5709,
      "▁જીવનના": 5710,
      "▁અપમાન": 5711,
      "▁છાં": 5712,
      "ક્યુ": 5713,
      "▁ડ્રે": 5714,
      "▁ક્રી": 5715,
      "▁પરિચય": 5716,
      "જો.": 5717,
      "▁આશ્રય": 5718,
      "▁ઘટી": 5719,
      "ટીસ": 5720,
      "▁પ્રત્યક્ષ": 5721,
      "▁સ્પર્શ": 5722,
      "▁ખાંડ": 5723,
      "ા,": 5724,
      "▁અવાર": 5725,
      "▁ત્": 5726,
      "▁ગયા.\n": 5727,
      "▁તત્વ": 5728,
      "▁કહ્યું.": 5729,
      "▁માર્કે": 5730,
      "▁વર્ષોથી": 5731,
      "ંટી": 5732,
      "▁કરી.\n": 5733,
      "▁વર્તન": 5734,
      "▁શકશે.": 5735,
      "ટણી": 5736,
      "▁દિક": 5737,
      "દીને": 5738,
      "▁હૃદયમાં": 5739,
      "▁અસ્થ": 5740,
      "▁હિંદ": 5741,
      "▁માંગતા": 5742,
      "શ્ચિત": 5743,
      "▁વિધાનસભાની": 5744,
      "▁અજાણ્યા": 5745,
      "જાવ": 5746,
      "▁પાળ": 5747,
      "▁અધિ": 5748,
      "▁પ્લાસ્ટિક": 5749,
      "ધારા": 5750,
      "▁મેયર": 5751,
      "▁આજથી": 5752,
      "ચલ": 5753,
      "▁હારી": 5754,
      "મ્પ્યુટર": 5755,
      "▁ખં": 5756,
      "▁હેમ": 5757,
      "▁ઓનલાઇન": 5758,
      "▁ટાં": 5759,
      "▁રહો": 5760,
      "▁સરખામણી": 5761,
      "▁આંદોલન": 5762,
      "▁આળ": 5763,
      "▁કરોડની": 5764,
      "▁બતાવે": 5765,
      "▁લાક": 5766,
      "▁સ્ટેશનમાં": 5767,
      "▁સ્વયં": 5768,
      "▁લાકડા": 5769,
      "▁શાનદાર": 5770,
      "▁૨૮": 5771,
      "▁ચીફ": 5772,
      "▁નિવેદ": 5773,
      "ાને": 5774,
      "▁આંગળી": 5775,
      "▁ઇન્દ્ર": 5776,
      "▁ટેકનોલોજી": 5777,
      "▁જહા": 5778,
      "તાનો": 5779,
      "▁ઉત્તરા": 5780,
      "▁પ્રોફે": 5781,
      "▁એશિયા": 5782,
      "▁ચમચી": 5783,
      "▁સ્મૃતિ": 5784,
      "▁ખુદ": 5785,
      "યણ": 5786,
      "તલ": 5787,
      "▁દિવ્ય": 5788,
      "▁પોઈ": 5789,
      "▁ઘુ": 5790,
      "▁બન્યો": 5791,
      "▁ટ્રસ્ટ": 5792,
      "▁પ્રવાહી": 5793,
      "▁સોં": 5794,
      "▁૪૦": 5795,
      "▁માનતા": 5796,
      "▁બનાવીને": 5797,
      "▁પુરાવા": 5798,
      "▁સંકેત": 5799,
      "▁પડકાર": 5800,
      "▁કરતું": 5801,
      "ટીવ": 5802,
      "▁આવશે,": 5803,
      "▁ઘાયલ": 5804,
      "▁ભરપૂર": 5805,
      "ાયુ": 5806,
      "▁આંસુ": 5807,
      "▁જીવનસાથી": 5808,
      "ન્ડે": 5809,
      "ગણ": 5810,
      "▁નિઃ": 5811,
      "ધરી": 5812,
      "મક": 5813,
      "▁મેલ": 5814,
      "સરા": 5815,
      "▁અંતઃ": 5816,
      "▁ગ્રાહકો": 5817,
      "▁શાસન": 5818,
      "▁નારાય": 5819,
      "▁ધાતુ": 5820,
      "પટ": 5821,
      "તીના": 5822,
      "▁સમયગાળા": 5823,
      "▁રાત્રી": 5824,
      "▁સ્કે": 5825,
      "▁વ્યાવ": 5826,
      "▁કેને": 5827,
      "▁૨૬": 5828,
      "▁આંધ": 5829,
      "ન્તુ": 5830,
      "▁કડ": 5831,
      "લોટ": 5832,
      "▁શકતી": 5833,
      "▁દરમિયાન,": 5834,
      "પિયા": 5835,
      "▁સહિતની": 5836,
      "▁રાજકોટમાં": 5837,
      "▁બ્રિટિશ": 5838,
      "બ્યુ": 5839,
      "▁હેન્ડ": 5840,
      "▁હીરા": 5841,
      "▁સમર્": 5842,
      "▁મનની": 5843,
      "ઘટના": 5844,
      "▁અમેરિકાના": 5845,
      "▁છેતર": 5846,
      "▁આની": 5847,
      "▁પેપર": 5848,
      "▁નિમણ": 5849,
      "▁મિથ્યા": 5850,
      "૧૯": 5851,
      "પુરના": 5852,
      "▁બૅ": 5853,
      "▁કેન્દ્રિત": 5854,
      "▁આજુ": 5855,
      "▁આપવાનો": 5856,
      "રિટી": 5857,
      "▁જેમને": 5858,
      "▁પેલી": 5859,
      "▁માથું": 5860,
      "▁વશ": 5861,
      "▁કંટ": 5862,
      "▁આક્ષેપ": 5863,
      "▁વડી": 5864,
      "▁માત": 5865,
      "▁મહુ": 5866,
      "▁પડે.": 5867,
      "▁છે.આ": 5868,
      "સીટી": 5869,
      "ક્ષેત્ર": 5870,
      "▁સંસદ": 5871,
      "▁છેક": 5872,
      "▁કામે": 5873,
      "▁નહોતી": 5874,
      "પરિ": 5875,
      "▁દીન": 5876,
      "▁સોમનાથ": 5877,
      "▁રત્ન": 5878,
      "▁સંત": 5879,
      "ફ્રે": 5880,
      "▁સબંધ": 5881,
      "▁બગી": 5882,
      "▁સાક્ષી": 5883,
      "▁એન્ટી": 5884,
      "▁ચાવ": 5885,
      "▁કરાયું": 5886,
      "▁હોઇ": 5887,
      "▁કરીને,": 5888,
      "▁ચતુ": 5889,
      "▁પેજ": 5890,
      "▁જણાવવામાં": 5891,
      "▁કૌશ": 5892,
      "▁કોન્ટ": 5893,
      "▁ડૉક્ટર": 5894,
      "▁મસ્ત": 5895,
      "▁જાપાન": 5896,
      "▁હિંસા": 5897,
      "ાર્જ": 5898,
      "▁બેસીને": 5899,
      "▁તન": 5900,
      "▁અલબત્ત,": 5901,
      "▁રેસ્ટો": 5902,
      "વરી": 5903,
      "▁ઉતાવ": 5904,
      "▁ઊર્જા": 5905,
      "▁આવરી": 5906,
      "▁ઊંચી": 5907,
      "▁36": 5908,
      "▁શ્રીમ": 5909,
      "▁વિચારે": 5910,
      "▁સમાજમાં": 5911,
      "▁90": 5912,
      "્યાત્મિક": 5913,
      "▁વ્હી": 5914,
      "તુર": 5915,
      "ળા,": 5916,
      "▁માણસા": 5917,
      "લસ": 5918,
      "સ્વામી": 5919,
      "▁રિઝ": 5920,
      "▁દોરી": 5921,
      "▁અભિપ્રાય": 5922,
      "િત્ર": 5923,
      "▁રોકાણકારો": 5924,
      "▁વાચ": 5925,
      "▁પૂરતી": 5926,
      "▁સુરેન્દ્ર": 5927,
      "મનો": 5928,
      "▁ચિક": 5929,
      "▁જીવે": 5930,
      "શાની": 5931,
      "▁નવરા": 5932,
      "▁કલેકટર": 5933,
      "▁સૂક્ષ્મ": 5934,
      "▁પરસ્પર": 5935,
      "▁ટુકડા": 5936,
      "શન્સ": 5937,
      "▁હમ": 5938,
      "▁અડધા": 5939,
      "માએ": 5940,
      "યાગ": 5941,
      "▁દવાઓ": 5942,
      "▁વણ": 5943,
      "▁ટ્વિટર": 5944,
      "▁નામથી": 5945,
      "▁હકીકતમાં": 5946,
      "▁છેલ્લે": 5947,
      "▁નકારાત્મક": 5948,
      "▁ઇ.": 5949,
      "પથ": 5950,
      "▁ખોટું": 5951,
      "▁ઘટનાઓ": 5952,
      "▁બાહ્ય": 5953,
      "▁અરવિંદ": 5954,
      "▁કસ્ટ": 5955,
      "ક્ષુ": 5956,
      "▁4.": 5957,
      "તાં,": 5958,
      "▁મહેતા": 5959,
      "▁શાળામાં": 5960,
      "▁શિક્ષા": 5961,
      "▁ક્રાઈ": 5962,
      "▁યુએસ": 5963,
      "▁જલદી": 5964,
      "▁મુદ્દો": 5965,
      "▁વાવે": 5966,
      "રાગ": 5967,
      "અલગ": 5968,
      "▁ચું": 5969,
      "▁બનીને": 5970,
      "▁ઠંડ": 5971,
      "▁સમજવા": 5972,
      "▁રમતો": 5973,
      "▁સંભવિત": 5974,
      "▁કહ્યુંઃ": 5975,
      "▁પુલ": 5976,
      "▁ઝાં": 5977,
      "ાર્ક": 5978,
      "▁રૂપમાં": 5979,
      "▁કમી": 5980,
      "▁ધર્મના": 5981,
      "▁કાર્યકરો": 5982,
      "દ્યોગ": 5983,
      "▁ઠરાવ": 5984,
      "▁ક્ષેત્રે": 5985,
      "મ્મદ": 5986,
      "▁પરિવારમાં": 5987,
      "▁પર,": 5988,
      "▁કરીશું": 5989,
      "શ્વાસ": 5990,
      "▁આખું": 5991,
      "▁ગુમાવી": 5992,
      "▁કઠ": 5993,
      "▁197": 5994,
      "ડીની": 5995,
      "▁ઇશ્વર": 5996,
      "▁આમ,": 5997,
      "▁સ્વિ": 5998,
      "▁શકે.\n": 5999,
      "▁આપવું": 6000,
      "▁પ્રાં": 6001,
      "▁અવતાર": 6002,
      "▁ટાઇ": 6003,
      "સ્કૃતિ": 6004,
      "▁કારી": 6005,
      "▁મુજ": 6006,
      "હૂ": 6007,
      "▁વચ્ચેના": 6008,
      "▁ભાગ્યે": 6009,
      "▁પદાર્થો": 6010,
      "▁ચળ": 6011,
      "▁કરવુ": 6012,
      "▁અમદાવાદના": 6013,
      "▁સાંક": 6014,
      "▁અટક": 6015,
      "▁નાયબ": 6016,
      "▁મેનેજર": 6017,
      "▁કામો": 6018,
      "▁પર્ય": 6019,
      "▁રહ્યો.": 6020,
      "▁કાયમ": 6021,
      "▁સંરક્ષણ": 6022,
      "ંદુર": 6023,
      "સ્કો": 6024,
      "સું": 6025,
      "▁ખ્રિ": 6026,
      "ન્ક": 6027,
      "▁સાઈ": 6028,
      "▁કિમી": 6029,
      "▁કરશે,": 6030,
      "▁ઉંચ": 6031,
      "▁દેખાઈ": 6032,
      "▁ફૂલો": 6033,
      "▁ખુરશી": 6034,
      "▁સીટ": 6035,
      "▁જણાવ્યુ": 6036,
      "▁કૌભાં": 6037,
      "▁મતલબ": 6038,
      "▁ફૂડ": 6039,
      "▁પ્રારંભિક": 6040,
      "▁સંસ્કૃત": 6041,
      "▁ઓક્સિજન": 6042,
      "▁અશો": 6043,
      "▁આખો": 6044,
      "▁શૈક્ષણિક": 6045,
      "ંગો": 6046,
      "▁ધરતી": 6047,
      "▁બંગ": 6048,
      "▁રાજુ": 6049,
      "▁પુરવ": 6050,
      "દ્દા": 6051,
      "▁કરોડો": 6052,
      "▁દાંત": 6053,
      "▁ક્વો": 6054,
      "▁ઝેર": 6055,
      "ળીયા": 6056,
      "▁પુષ્ટિ": 6057,
      "▁ફાયદાકારક": 6058,
      "▁બાજુએ": 6059,
      "▁પર્": 6060,
      "લીપ": 6061,
      "▁લાવવામાં": 6062,
      "▁કરવામા": 6063,
      "▁ગ્રીન": 6064,
      "▁વ્યસ્ત": 6065,
      "ઝની": 6066,
      "પાની": 6067,
      "▁રહ્યા.": 6068,
      "પુરુ": 6069,
      "▁અલગઅલગ": 6070,
      "હેરમાં": 6071,
      "▁પંચાયત": 6072,
      "▁વિડિઓ": 6073,
      "▁પરેશાન": 6074,
      "▁પ્રોડક્ટ": 6075,
      "▁આર્ય": 6076,
      "નો,": 6077,
      "▁પ્રીતિ": 6078,
      "▁કંટા": 6079,
      "▁૨૭": 6080,
      "ટાવી": 6081,
      "▁જાે": 6082,
      "▁કેદ": 6083,
      "સુર": 6084,
      "જીભાઈ": 6085,
      "દીએ": 6086,
      "નોમાં": 6087,
      "▁જન્મે": 6088,
      "▁બિંદુ": 6089,
      "લકથા": 6090,
      "▁કાર્યરત": 6091,
      "▁બાજુમાં": 6092,
      "▁આરંભ": 6093,
      "▁બ્લડ": 6094,
      "રાત": 6095,
      "▁આધ્યાત્મિક": 6096,
      "▁જસ્ટ": 6097,
      "યત": 6098,
      "▁ચકાસ": 6099,
      "વની": 6100,
      "▁પાંડ": 6101,
      "▁સૃષ્ટિ": 6102,
      "રેલા": 6103,
      "વડી": 6104,
      "▁સંવાદ": 6105,
      "▁પેટા": 6106,
      "▁થયા,": 6107,
      "▁ખારા": 6108,
      "ાયર": 6109,
      "▁શાકભાજી": 6110,
      "લિકો": 6111,
      "▁મહેસા": 6112,
      "▁આંખે": 6113,
      "▁સુવિધાઓ": 6114,
      "▁મુખ્યત્વે": 6115,
      "વર્ડ": 6116,
      "▁વિજે": 6117,
      "▁ટ્રક": 6118,
      "▁તહેવાર": 6119,
      "▁છોડીને": 6120,
      "▁અજય": 6121,
      "▁હરિયા": 6122,
      "▁બગા": 6123,
      "▁ગ્રુપ": 6124,
      "ષિત": 6125,
      "▁પ્રસાર": 6126,
      "▁પ્રવા": 6127,
      "▁પટ": 6128,
      "▁કરવા,": 6129,
      "▁ડ્રગ્સ": 6130,
      "▁સફર": 6131,
      "નેશનલ": 6132,
      "ારામ": 6133,
      "▁કોચ": 6134,
      "▁વિરૂદ્ધ": 6135,
      "ષભ": 6136,
      "▁તેણીએ": 6137,
      "▁આપેલા": 6138,
      "વીસ": 6139,
      "▁પગલા": 6140,
      "ઝનમાં": 6141,
      "ખાને": 6142,
      "▁ક્ષણ": 6143,
      "▁ઉમેરો": 6144,
      "▁સતી": 6145,
      "▁બ્રો": 6146,
      "▁સંક્રમ": 6147,
      "▁અબ્": 6148,
      "▁દેખી": 6149,
      "▁તપાસમાં": 6150,
      "સી,": 6151,
      "૨૨": 6152,
      "▁કામના": 6153,
      "▁અમલમાં": 6154,
      "▁કરીશ": 6155,
      "▁ઈંચ": 6156,
      "▁વિસ્તારના": 6157,
      "નમ": 6158,
      "▁જાગૃત": 6159,
      "લથી": 6160,
      "▁તપા": 6161,
      "લ્પો": 6162,
      "લિટી": 6163,
      "▁આગેવાનો": 6164,
      "▁યાદીમાં": 6165,
      "▁ગુન્": 6166,
      "▁આત્મહત્યા": 6167,
      "▁ડિજિટલ": 6168,
      "▁નવલકથા": 6169,
      "▁2016": 6170,
      "▁સહેજ": 6171,
      "▁રાજ્યોમાં": 6172,
      "▁જાતના": 6173,
      "▁થાડા": 6174,
      "▁બાબા": 6175,
      "▁જગતમાં": 6176,
      "▁ખેડુ": 6177,
      "▁આવ્યું.": 6178,
      "▁દુષ્ટ": 6179,
      "▁મહારાજા": 6180,
      "▁34": 6181,
      "▁વસંત": 6182,
      "▁સાર્": 6183,
      "▁સ્વીકારી": 6184,
      "સાં": 6185,
      "▁સને": 6186,
      "▁સપના": 6187,
      "પેન્દ્ર": 6188,
      "▁કર્યા.": 6189,
      "▁ટી.": 6190,
      "▁કાળી": 6191,
      "▁નાથ": 6192,
      "▁મધુર": 6193,
      "▁તિર": 6194,
      "લીક": 6195,
      "▁જાતની": 6196,
      "વિન": 6197,
      "વો.": 6198,
      "▁જટિલ": 6199,
      "▁વિજ": 6200,
      "▁રાખતા": 6201,
      "▁અદ્ભુત": 6202,
      "▁કરાયા": 6203,
      "▁લંડ": 6204,
      "▁ઉડ": 6205,
      "▁શ્રીલ": 6206,
      "▁પાછું": 6207,
      "▁બ્લો": 6208,
      "▁ભરૂચ": 6209,
      "ધક": 6210,
      "▁નખ": 6211,
      "▁શ્રુ": 6212,
      "▁ગીતા": 6213,
      "▁નેટવર્ક": 6214,
      "▁સુરતમાં": 6215,
      "▁બેન્ક": 6216,
      "▁માઈ": 6217,
      "કોનો": 6218,
      "▁મળેલી": 6219,
      "ંકાર": 6220,
      "મારા": 6221,
      "▁ધ્યે": 6222,
      "▁હેરાન": 6223,
      "▁તે!": 6224,
      "▁લાવે": 6225,
      "▁રહેતો": 6226,
      "▁બચી": 6227,
      "▁નિવાસ": 6228,
      "▁પડતાં": 6229,
      "લોમાં": 6230,
      "▁37": 6231,
      "▁બેં": 6232,
      "▁કરાવે": 6233,
      "▁જોરદાર": 6234,
      "▁બાયો": 6235,
      "▁નહા": 6236,
      "▁ભીડ": 6237,
      "▁સમાર": 6238,
      "▁દોઢ": 6239,
      "▁નસીબ": 6240,
      "▁નીચા": 6241,
      "▁ક્લિ": 6242,
      "▁ખસેડવામાં": 6243,
      "▁પર્વત": 6244,
      "▁નિશ્ચિત": 6245,
      "વિક": 6246,
      "▁અક્ષય": 6247,
      "પ્રદાય": 6248,
      "▁કમિશનર": 6249,
      "▁હાસ્ય": 6250,
      "▁તુલ": 6251,
      "▁દાખલા": 6252,
      "▁રોહિત": 6253,
      "▁ગણેશ": 6254,
      "▁સમજે": 6255,
      "વાયું": 6256,
      "લિવ": 6257,
      "હાન": 6258,
      "કેલા": 6259,
      "▁મૂર્": 6260,
      "▁સીએમ": 6261,
      "▁૩૧": 6262,
      "▁ગુલાબ": 6263,
      "▁બનાવો": 6264,
      "▁સેા": 6265,
      "સણ": 6266,
      "ળાને": 6267,
      "▁આકર્ષક": 6268,
      "▁વિપરી": 6269,
      "▁નીપજ": 6270,
      "▁વાતને": 6271,
      "▁તફાવત": 6272,
      "ાવવાની": 6273,
      "વાયા": 6274,
      "ફિકે": 6275,
      "▁બેગ": 6276,
      "▁હાઉસ": 6277,
      "ભ્ર": 6278,
      "▁કાને": 6279,
      "▁આવ્યે": 6280,
      "▁શરીરની": 6281,
      "કં": 6282,
      "▁રાજી": 6283,
      "▁તાકાત": 6284,
      "▁નિષ્ણાતો": 6285,
      "▁માસિક": 6286,
      "▁ટોપ": 6287,
      "ઠ્ઠા": 6288,
      "▁શૂટિંગ": 6289,
      "▁લેવાનું": 6290,
      "▁જાણીને": 6291,
      "▁કલેક્ટર": 6292,
      "▁ક્વા": 6293,
      "▁મસ્": 6294,
      "▁ઉદાર": 6295,
      "▁કર્યું,": 6296,
      "▁સંક્રમિત": 6297,
      "▁ઠંડા": 6298,
      "▁નહી.": 6299,
      "▁વકીલ": 6300,
      "હ્ન": 6301,
      "▁બળા": 6302,
      "વૃત્ત": 6303,
      "▁લાખની": 6304,
      "▁તજ": 6305,
      "▁મ્હારા": 6306,
      "▁મતે": 6307,
      "▁મારાં": 6308,
      "▁75": 6309,
      "▁સાડા": 6310,
      "▁ચુકા": 6311,
      "ર્ના": 6312,
      "▁દીપ": 6313,
      "▁સંબંધમાં": 6314,
      "▁લૂંટ": 6315,
      "▁માગી": 6316,
      "▁ફરવા": 6317,
      "▁ભાગીદારી": 6318,
      "▁પીઠ": 6319,
      "▁નોંધનીય": 6320,
      "વારા": 6321,
      "ડાએ": 6322,
      "▁કરુ": 6323,
      "▁પંડિત": 6324,
      "ન્ટા": 6325,
      "▁કૃત": 6326,
      "▁રવાના": 6327,
      "લ્ફ": 6328,
      "▁પ્રતિભા": 6329,
      "ચ્ચા": 6330,
      "▁આત્માને": 6331,
      "રણે": 6332,
      "▁કિનારે": 6333,
      "▁પૃષ્ઠ": 6334,
      "▁ગાળ": 6335,
      "▁શખ્સ": 6336,
      "▁ગભરા": 6337,
      "▁પોરબ": 6338,
      "▁યોગદાન": 6339,
      "ઝ,": 6340,
      "▁સફાઈ": 6341,
      "▁લગતી": 6342,
      "▁ખાખ": 6343,
      "વેષ": 6344,
      "દાની": 6345,
      "▁અવરોધ": 6346,
      "▁તબક્કામાં": 6347,
      "લિશ": 6348,
      "▁ન્હા": 6349,
      "▁મૅ": 6350,
      "ન્ટિ": 6351,
      "ડ્સ": 6352,
      "▁ઓર્ડર": 6353,
      "થીજ": 6354,
      "▁પડી.": 6355,
      "▁ભાજપે": 6356,
      "▁રાજાને": 6357,
      "▁મીડિયામાં": 6358,
      "▁શણ": 6359,
      "▁માંગી": 6360,
      "ોએ": 6361,
      "▁કારમાં": 6362,
      "▁ભાષ": 6363,
      "લેસ": 6364,
      "▁હાંસલ": 6365,
      "▁દેતા": 6366,
      "▁સિટી": 6367,
      "▁યુ.": 6368,
      "સેન": 6369,
      "ડિય": 6370,
      "▁કેપ": 6371,
      "▁ફાં": 6372,
      "▁ફિલ્મોમાં": 6373,
      "▁સંસ્થાઓ": 6374,
      "ચાલ": 6375,
      "ઈ,": 6376,
      "કે,": 6377,
      "▁અમારું": 6378,
      "્રલ": 6379,
      "▁૨૦૦": 6380,
      "▁ખોટા": 6381,
      "▁ડોક્ટ": 6382,
      "▁પેકે": 6383,
      "▁૧૦૦": 6384,
      "▁શ્રા": 6385,
      "▁પ્રિયંકા": 6386,
      "ળીના": 6387,
      "ન્સના": 6388,
      "લ્લો": 6389,
      "▁વર્ષનો": 6390,
      "▁રાંધ": 6391,
      "્યુબ": 6392,
      "▁અવકાશ": 6393,
      "▁તુલના": 6394,
      "▁જોઇએ.\n": 6395,
      "▁ભીમ": 6396,
      "▁અવશ્ય": 6397,
      "▁રાખ્યું": 6398,
      "▁ઓફિસર": 6399,
      "▁પ્રયત્નો": 6400,
      "દુર": 6401,
      "▁મારવા": 6402,
      "રમાંથી": 6403,
      "▁છે...": 6404,
      "▁ધિ": 6405,
      "▁રોલ": 6406,
      "▁વીડિયોમાં": 6407,
      "▁કેસની": 6408,
      "સ્સે": 6409,
      "▁33": 6410,
      "▁હતાં,": 6411,
      "▁ગ્રાહક": 6412,
      "▁દુર્ઘટના": 6413,
      "લક્ષી": 6414,
      "▁કલાકારો": 6415,
      "▁ગાર્ડ": 6416,
      "▁બોલે": 6417,
      "▁મેનેજમેન્ટ": 6418,
      "▁માર્યા": 6419,
      "▁સાધારણ": 6420,
      "▁ચારિત્ર": 6421,
      "▁મગજ": 6422,
      "▁પુષ્કળ": 6423,
      "▁આજુબાજુ": 6424,
      "▁હૉ": 6425,
      "▁હળવા": 6426,
      "તરો": 6427,
      "▁ગૃ": 6428,
      "▁ઇઝ": 6429,
      "▁ઔર": 6430,
      "યાર": 6431,
      "▁ટન": 6432,
      "▁સામેની": 6433,
      "▁પ્રકા": 6434,
      "▁યશ": 6435,
      "▁સુવ": 6436,
      "▁ટીમને": 6437,
      "એટ": 6438,
      "▁કપડા": 6439,
      "▁ઉન્ન": 6440,
      "▁અર્પણ": 6441,
      "▁તંદુર": 6442,
      "▁ભૂતપૂર્વ": 6443,
      "▁અશુ": 6444,
      "▁સાંજ": 6445,
      "▁કોઇપણ": 6446,
      "▁કાયદેસર": 6447,
      "ડલ": 6448,
      "▁આપી.": 6449,
      "▁જોડાયા": 6450,
      "▁કિરણ": 6451,
      "▁મણિ": 6452,
      "દ્દ": 6453,
      "યના": 6454,
      "▁નિર્દોષ": 6455,
      "▁હ્ર": 6456,
      "નીને": 6457,
      "▁હિસા": 6458,
      "▁રોકી": 6459,
      "▁એકમાત્ર": 6460,
      "ક્ષર": 6461,
      "બુલ": 6462,
      "▁વહેંચ": 6463,
      "ઝિક": 6464,
      "▁કેજરી": 6465,
      "ન્ડો": 6466,
      "અર": 6467,
      "▁પ્રસાદ": 6468,
      "▁બેક": 6469,
      "▁વ્યક્તિએ": 6470,
      "▁ઘાટ": 6471,
      "▁જામીન": 6472,
      "▁196": 6473,
      "ઈની": 6474,
      "▁કાટ": 6475,
      "▁સપોર્ટ": 6476,
      "▁સાબર": 6477,
      "▁કાર્યા": 6478,
      "▁પત્રકાર": 6479,
      "▁દહા": 6480,
      "▁લાક્ષણિક": 6481,
      "▁જીંદગી": 6482,
      "લિબ": 6483,
      "▁શાસ": 6484,
      "▁શિલ્": 6485,
      "▁બપો": 6486,
      "▁મહત્વના": 6487,
      "▁તાલુકામાં": 6488,
      "ગ્રે": 6489,
      "▁શકે,": 6490,
      "▁વેર": 6491,
      "વાનુ": 6492,
      "▁દેશને": 6493,
      "▁પહોંચાડ": 6494,
      "▁ઘન": 6495,
      "▁ગીતો": 6496,
      "▁અનામત": 6497,
      "▁શૈલી": 6498,
      "▁ડબલ": 6499,
      "▁સર્જન": 6500,
      "▁અતિશય": 6501,
      "▁જાગી": 6502,
      "▁શામેલ": 6503,
      "▁માનવું": 6504,
      "▁2014": 6505,
      "▁વ્રત": 6506,
      "▁વિક્રમ": 6507,
      "ૂની": 6508,
      "▁ગુણુ": 6509,
      "▁મધ્યપ્રદેશ": 6510,
      "12": 6511,
      "ભાગે": 6512,
      "▁ઘટનામાં": 6513,
      "▁પ્રસ્તુ": 6514,
      "▁વખાણ": 6515,
      "▁જાણુ": 6516,
      "▁કયારે": 6517,
      "▁પોઈન્ટ": 6518,
      "▁ઉર્જા": 6519,
      "▁સના": 6520,
      "▁ગયુ": 6521,
      "▁નારી": 6522,
      "▁સોફ્ટ": 6523,
      "▁લાઈફ": 6524,
      "▁સલામતી": 6525,
      "▁કેમેરા": 6526,
      "▁સારૂં": 6527,
      "માંના": 6528,
      "▁સંયો": 6529,
      "બન": 6530,
      "▁ગ્લો": 6531,
      "ટલી": 6532,
      "▁અશક": 6533,
      "▁મમતા": 6534,
      "▁આપતી": 6535,
      "પારી": 6536,
      "▁એનાં": 6537,
      "ન્ટી": 6538,
      "▁કેબિ": 6539,
      "▁પહોંચ્યો": 6540,
      "▁આપશે": 6541,
      "▁વાતની": 6542,
      "▁બેસે": 6543,
      "▁દુધ": 6544,
      "▁અટકાવવા": 6545,
      "▁બ્રેક": 6546,
      "▁વ્યાવસાય": 6547,
      "▁ઉચ્ચાર": 6548,
      "▁હિસ્સો": 6549,
      "▁સંચાલન": 6550,
      "લનો": 6551,
      "▁સલામત": 6552,
      "િષ્ટ": 6553,
      "▁વરા": 6554,
      "▁ઝૂ": 6555,
      "એચ": 6556,
      "▁મૂકીને": 6557,
      "ર્સની": 6558,
      "▁આગળની": 6559,
      "બીર": 6560,
      "▁જવામાં": 6561,
      "▁દો.": 6562,
      "▁કેવું": 6563,
      "▁સહજ": 6564,
      "▁હાઇવે": 6565,
      "વેટ": 6566,
      "▁ભાવિ": 6567,
      "▁બરફ": 6568,
      "સ્પી": 6569,
      "વિઝન": 6570,
      "▁ખાદ્ય": 6571,
      "િયાએ": 6572,
      "▁ઘટનાની": 6573,
      "▁કારણોસર": 6574,
      "▁અનો": 6575,
      "લાત": 6576,
      "પુત્ર": 6577,
      "▁ટ્રી": 6578,
      "▁આજની": 6579,
      "▁આદિવાસી": 6580,
      "▁દબ": 6581,
      "પુર,": 6582,
      "એલા": 6583,
      "▁ટાળ": 6584,
      "ગને": 6585,
      "હના": 6586,
      "▁પેન": 6587,
      "▁જીવંત": 6588,
      "યાને": 6589,
      "પાત": 6590,
      "પાળ": 6591,
      "ાયેલું": 6592,
      "માર્ગ": 6593,
      "વાણી": 6594,
      "▁માણસે": 6595,
      "▁ઓળખા": 6596,
      "▁કિંગ": 6597,
      "▁વંશ": 6598,
      "▁ઉભો": 6599,
      "▁સ્મરણ": 6600,
      "ંટા": 6601,
      "▁બોટ": 6602,
      "વાજ": 6603,
      "▁ડાન્સ": 6604,
      "▁જ,": 6605,
      "સ્મ": 6606,
      "▁દીઠ": 6607,
      "▁વિદાય": 6608,
      "▁કન્ટે": 6609,
      "▁વાજ": 6610,
      "▁તોડ": 6611,
      "▁બોલાવી": 6612,
      "▁ક્ષેત્રો": 6613,
      "▁સચિવ": 6614,
      "▁ચહેરો": 6615,
      "સર્ચ": 6616,
      "▁મલ": 6617,
      "▁મુંબઈમાં": 6618,
      "▁ધારણા": 6619,
      "▁વાતાવરણમાં": 6620,
      "મી,": 6621,
      "વેન્ટ": 6622,
      "ચાર્ય": 6623,
      "▁પ્રતિષ્ઠા": 6624,
      "▁કન": 6625,
      "▁અંતમાં": 6626,
      "નારને": 6627,
      "▁કિલ્લા": 6628,
      "▁ઉગ્ર": 6629,
      "▁ઉપચાર": 6630,
      "▁ભારતને": 6631,
      "▁દસ્તાવેજો": 6632,
      ",૦૦૦": 6633,
      "ષો": 6634,
      "▁જંતુ": 6635,
      "▁કરાય": 6636,
      "પછી": 6637,
      "▁સોલંકી": 6638,
      "▁અશ": 6639,
      "▁રસીકરણ": 6640,
      "શંકર": 6641,
      "▁ગોંડ": 6642,
      "▁ખુલ્લી": 6643,
      "▁સ્નાયુ": 6644,
      "▁ચેનલ": 6645,
      "▁ચલાવવા": 6646,
      "▁નિહા": 6647,
      "▁0.": 6648,
      "▁દઈ": 6649,
      "▁પરિવારો": 6650,
      "▁પરિવારને": 6651,
      "ચાર્જ": 6652,
      "▁દાહો": 6653,
      "▁વ્યાપાર": 6654,
      "▁ચેાગ્ય": 6655,
      "▁સિને": 6656,
      "▁રોકવા": 6657,
      "▁વિકલ્પો": 6658,
      "▁ધરાવતી": 6659,
      "▁તબીબી": 6660,
      "▁એટલો": 6661,
      "▁રાક્ષ": 6662,
      "▁દરબાર": 6663,
      "▁આંચ": 6664,
      "▁રજી": 6665,
      "▁બેટિંગ": 6666,
      "▁પાર્ટન": 6667,
      "▁સમયની": 6668,
      "▁આપવાના": 6669,
      "▁નૃત્ય": 6670,
      "▁આવૃત્તિ": 6671,
      "▁હોવ": 6672,
      "▁લાઇટ": 6673,
      "▁ઈતિહા": 6674,
      "▁વસુ": 6675,
      "૧૦": 6676,
      "▁લેાકા": 6677,
      "▁વૈજ્ઞાનિક": 6678,
      "▁હટ": 6679,
      "કથા": 6680,
      "▁સમૃદ્ધ": 6681,
      "▁પરમે": 6682,
      "▁પગે": 6683,
      "▁લોકોનું": 6684,
      "▁કામકા": 6685,
      "હ્": 6686,
      "▁સંપા": 6687,
      "▁પેટ્રો": 6688,
      "ર્ય": 6689,
      "▁કલર": 6690,
      "▁વિપક્ષ": 6691,
      "▁૩.": 6692,
      "▁પછીના": 6693,
      "▁દુખાવો": 6694,
      "▁અવસાન": 6695,
      "▁માફી": 6696,
      "▁સંવેદન": 6697,
      "▁ઈસ": 6698,
      "▁ટ્વીટ": 6699,
      "▁બૂ": 6700,
      "નેશ": 6701,
      "▁બાઈક": 6702,
      "▁ગવર્": 6703,
      "▁ખુલાસો": 6704,
      "ં,": 6705,
      "▁સુપ્ર": 6706,
      "▁150": 6707,
      "▁અશોક": 6708,
      "▁કળ": 6709,
      "▁પાઇ": 6710,
      "▁જોશી": 6711,
      "▁વગા": 6712,
      "▁દેશભરમાં": 6713,
      "▁અમારો": 6714,
      "બરે": 6715,
      "રેખ": 6716,
      "▁રહ્યુ": 6717,
      "▁શ્રીલંકા": 6718,
      "▁માબા": 6719,
      "▁તાજ": 6720,
      "▁શહેરોમાં": 6721,
      "▁મિલકત": 6722,
      "કૂ": 6723,
      "▁સ્કો": 6724,
      "▁ભાષણ": 6725,
      "▁મહાનગરપાલિ": 6726,
      "▁દિલ્હીના": 6727,
      "▁દૈનિક": 6728,
      "▁લીંબુ": 6729,
      "▁નવસારી": 6730,
      "સન્સ": 6731,
      "▁કવ": 6732,
      "▁મેદાનમાં": 6733,
      "▁કરાયેલા": 6734,
      "▁કીધા": 6735,
      "▁ખર્ચે": 6736,
      "▁રાઉન્ડ": 6737,
      "▁ઓર્": 6738,
      "▁સંભળ": 6739,
      "મહા": 6740,
      "▁કણ": 6741,
      "▁મારૂ": 6742,
      "▁શુભે": 6743,
      "▁પક્ષના": 6744,
      "▁શ્રીકૃષ્ણ": 6745,
      "▁અનાજ": 6746,
      "▁મેળવે": 6747,
      "▁ઝેરી": 6748,
      "ક્રિ": 6749,
      "રથી": 6750,
      "ફાન": 6751,
      "▁મર્યાદિત": 6752,
      "▁સંકટ": 6753,
      "▁ટીમના": 6754,
      "▁શાહે": 6755,
      "▁ફરીયા": 6756,
      "▁આંકડો": 6757,
      "▁દૃઢ": 6758,
      "▁દૃષ્ટિએ": 6759,
      "▁5.": 6760,
      "▁યેા": 6761,
      "▁કમ્": 6762,
      "▁પાયા": 6763,
      "▁નાખ્યા": 6764,
      "ર્સના": 6765,
      "▁આતંકી": 6766,
      "▁યોગી": 6767,
      "▁યજ": 6768,
      "▁વેચી": 6769,
      "▁ધોરણે": 6770,
      "ગ,": 6771,
      "દક": 6772,
      "લોની": 6773,
      "▁સ્વરૂપે": 6774,
      "▁વીમા": 6775,
      "▁કોન્ટ્રા": 6776,
      "▁મળતાં": 6777,
      "▁સિંધ": 6778,
      "▁વ્યક્તિની": 6779,
      "▁ચૂકવણી": 6780,
      "સ.": 6781,
      "▁બંદ": 6782,
      "▁કિસ્સામાં,": 6783,
      "ગુરુ": 6784,
      "એને": 6785,
      "▁દેવું": 6786,
      "દત": 6787,
      "વ્": 6788,
      "▁વલસા": 6789,
      "▁સ્ક્રીન": 6790,
      "ઇ,": 6791,
      "▁બિલકુલ": 6792,
      "▁ખરીદવા": 6793,
      "▁લશ્કરી": 6794,
      "શ્રા": 6795,
      "▁દેવતા": 6796,
      "▁ક્યાંય": 6797,
      "▁પ્રદેશના": 6798,
      "વાલા": 6799,
      "યેલ": 6800,
      "નોની": 6801,
      "▁આવવાની": 6802,
      "▁નિપજ": 6803,
      "▁અભિનય": 6804,
      "▁વાવેતર": 6805,
      "▁ફેંકી": 6806,
      "▁ઉદ્ધ": 6807,
      "▁વેદના": 6808,
      "▁ડાંગ": 6809,
      "મહ": 6810,
      "ણુના": 6811,
      "▁કોન્ફર": 6812,
      "▁શુક": 6813,
      "▁વધારાની": 6814,
      "▁છેા": 6815,
      "▁એવે": 6816,
      "રોહ": 6817,
      "▁ખીલ": 6818,
      "▁પોલીસના": 6819,
      "▁વિશ્લે": 6820,
      "ગુણ": 6821,
      "▁જઇને": 6822,
      "વાડ": 6823,
      "▁ઝું": 6824,
      "22": 6825,
      "▁નિકાસ": 6826,
      "▁કુંડ": 6827,
      "▁કરોડના": 6828,
      "▁સસાર": 6829,
      "▁આવનારા": 6830,
      "▁મેરી": 6831,
      "▁દીધી.": 6832,
      "▁નમા": 6833,
      "નેશન": 6834,
      "▁જીએસ": 6835,
      "▁માટેનો": 6836,
      "▁અા": 6837,
      "▁માટે.": 6838,
      "▁કાવ": 6839,
      "▁ધે": 6840,
      "▁ધીરજ": 6841,
      "▁સ્વાદિષ્ટ": 6842,
      "ળીમાં": 6843,
      "▁મૂડી": 6844,
      "▁યુરોપ": 6845,
      "▁ના,": 6846,
      "વિજય": 6847,
      "▁બોક્સ": 6848,
      "▁નમ્ર": 6849,
      "▁ખેલાડીઓ": 6850,
      "▁ગાંધીએ": 6851,
      "તાન": 6852,
      "▁માંડી": 6853,
      "▁સાધના": 6854,
      "▁નાસી": 6855,
      "▁નિયા": 6856,
      "સરે": 6857,
      "▁૩૫": 6858,
      "દર્શક": 6859,
      "▁બનાસ": 6860,
      "▁ક્રમે": 6861,
      "ટેજ": 6862,
      "▁પતિને": 6863,
      "▁સ્થળોએ": 6864,
      "જ્ઞાની": 6865,
      "▁સૂચવે": 6866,
      "એના": 6867,
      "▁મર્": 6868,
      "દાને": 6869,
      "▁રાખો.": 6870,
      "▁રંગો": 6871,
      "▁ચોથા": 6872,
      "નવાર": 6873,
      "▁ટર્": 6874,
      "▁ઇરા": 6875,
      "▁સંબોધ": 6876,
      "▁પૂજ": 6877,
      "▁ઓળખી": 6878,
      "▁ઘેરા": 6879,
      "▁પ્રતિમા": 6880,
      "99": 6881,
      "▁ફટકાર": 6882,
      "▁જાગૃતિ": 6883,
      "▁મિશન": 6884,
      "▁એન.": 6885,
      "▁ભૌતિક": 6886,
      "▁બજા": 6887,
      "સાહે": 6888,
      "▁ઉઠાવી": 6889,
      "▁અહીંથી": 6890,
      "▁માળા": 6891,
      "▁વાતા": 6892,
      "▁બાઇક": 6893,
      "▁પ્રકારનાં": 6894,
      "રેા": 6895,
      "ધાને": 6896,
      "ભાગ્ય": 6897,
      "▁સંપર્કમાં": 6898,
      "▁પહેલાથી": 6899,
      "▁પડતું": 6900,
      "▁શંકર": 6901,
      "ટકી": 6902,
      "▁કાકા": 6903,
      "િયામાં": 6904,
      "▁કાશી": 6905,
      "▁હોવાને": 6906,
      "શાળા": 6907,
      "માળ": 6908,
      "▁પિત": 6909,
      "▁માય": 6910,
      "▁લેન્ડ": 6911,
      "▁પ્રમાણે,": 6912,
      "▁અફઘ": 6913,
      "▁કારો": 6914,
      "વાડા": 6915,
      "પોલિ": 6916,
      "▁તૈયારીઓ": 6917,
      "▁મચ": 6918,
      "ટોક": 6919,
      "▁રિવ": 6920,
      "▁વેબસાઈ": 6921,
      "▁સીબી": 6922,
      "▁સમજાવ": 6923,
      "▁પ્રસ્તાવ": 6924,
      "▁ઘટે": 6925,
      "▁કાર્યકર્તા": 6926,
      "▁ધામ": 6927,
      "▁સ્વરૂપમાં": 6928,
      "▁પૉ": 6929,
      "▁કરેલું": 6930,
      "▁ટેકો": 6931,
      "▁ઉડી": 6932,
      "▁રહિત": 6933,
      "▁માછલી": 6934,
      "▁તેવામાં": 6935,
      "▁300": 6936,
      "▁ઘટનાસ્થ": 6937,
      "▁અધિકારીએ": 6938,
      "મરા": 6939,
      "▁ગાઢ": 6940,
      "▁કોઈની": 6941,
      "▁નિરીક્ષણ": 6942,
      "▁તકની": 6943,
      "▁છિ": 6944,
      "▁રજિ": 6945,
      "▁વિસ્તૃત": 6946,
      "▁ઉલ્લ": 6947,
      "▁નમૂ": 6948,
      "▁ઉપરની": 6949,
      "▁ઓળખવામાં": 6950,
      "લો,": 6951,
      "લિયન": 6952,
      "્સમાં": 6953,
      "▁આદિત્ય": 6954,
      "્યા.\n": 6955,
      "▁સુરતના": 6956,
      "▁વરસાદી": 6957,
      "▁પડયું": 6958,
      "ત્યાદિ": 6959,
      "▁હથિયાર": 6960,
      "▁બગીચા": 6961,
      "ર્ટર": 6962,
      "▁વિજેતા": 6963,
      "એશન": 6964,
      "▁કૂત": 6965,
      "▁સંકલ": 6966,
      "▁બદલાઈ": 6967,
      "▁લહેર": 6968,
      "▁સ્ત્રો": 6969,
      "▁ઓળખાય": 6970,
      "▁નહોતો": 6971,
      "▁ભરેલી": 6972,
      "▁વાંચવા": 6973,
      "▁ધનુ": 6974,
      "▁કર્યો,": 6975,
      "▁જોઇએ,": 6976,
      "▁એકસાથે": 6977,
      "▁તેટલું": 6978,
      "▁સ્તુ": 6979,
      "▁પહેલો": 6980,
      "જો,": 6981,
      "▁નીચેની": 6982,
      "▁ફેરફારો": 6983,
      "▁કરણ": 6984,
      "▁2,": 6985,
      "▁હાવા": 6986,
      "▁ગુણો": 6987,
      "▁એટલામાં": 6988,
      "▁ડિસ્ટ": 6989,
      "▁કાઉન્સિ": 6990,
      "▁ઈન": 6991,
      "▁વાંધો": 6992,
      "▁ખાને": 6993,
      "▁નગ": 6994,
      "▁શેખ": 6995,
      "▁6.": 6996,
      "▁આપેલ": 6997,
      "પ્પણી": 6998,
      "બજાર": 6999,
      "દીની": 7000,
      "▁સંગઠન": 7001,
      "▁નાક": 7002,
      "▁લગ્નની": 7003,
      "ગાવી": 7004,
      "તિના": 7005,
      "▁લેાક": 7006,
      "▁અવારનવાર": 7007,
      "18": 7008,
      "▁સરપંચ": 7009,
      "▁માધ્યમથી": 7010,
      "ચારા": 7011,
      "નાઇ": 7012,
      "▁એસે": 7013,
      "▁જવાથી": 7014,
      "▁વધવા": 7015,
      "▁બેસ્ટ": 7016,
      "▁બચાવી": 7017,
      "ફોર્": 7018,
      "▁એકઠા": 7019,
      "▁માર્કેટમાં": 7020,
      "ષ્ટાચાર": 7021,
      "ન્સની": 7022,
      "ટેસ્ટ": 7023,
      "▁જોગવાઈ": 7024,
      "▁હદ": 7025,
      "▁અધિકારીઓએ": 7026,
      "▁ક્રૂ": 7027,
      "▁લેવું": 7028,
      "▁કંઇક": 7029,
      "▁લગાવવામાં": 7030,
      "૨૧": 7031,
      "માટે": 7032,
      "▁નક્ષ": 7033,
      "▁રૂપિયાનો": 7034,
      "▁કલાકાર": 7035,
      "▁બેદર": 7036,
      "ગિ": 7037,
      "▁દાર": 7038,
      "▁બેટ્સ": 7039,
      "▁ટેક્નોલોજી": 7040,
      "▁તમ": 7041,
      "▁સ્વામિ": 7042,
      "▁સાઇ": 7043,
      "▁સેલ": 7044,
      "▁ચેમ્પ": 7045,
      "▁વોટર": 7046,
      "રાજ્ય": 7047,
      "▁ફેડ": 7048,
      "વિધિ": 7049,
      "▁ચૌહા": 7050,
      "▁નિવાર": 7051,
      "▁સ્ત્રીને": 7052,
      "▁જીવનને": 7053,
      "▁રાઠો": 7054,
      "▁માટેનું": 7055,
      "▁વખતમાં": 7056,
      "▁અનિલ": 7057,
      "▁કોશિશ": 7058,
      "▁પચા": 7059,
      "બ્લિક": 7060,
      "▁છુપ": 7061,
      "ટલા": 7062,
      "▁સાંભળે": 7063,
      "નિકલ": 7064,
      "▁વાંકા": 7065,
      "▁ઉપકાર": 7066,
      "▁એસી": 7067,
      "▁રડ": 7068,
      "▁મનોરંજન": 7069,
      "કાઉન્ટ": 7070,
      "▁અટકી": 7071,
      "▁બટા": 7072,
      "▁થવાને": 7073,
      "▁થિયે": 7074,
      "▁ખાળ": 7075,
      "▁ટ્રાન્સફર": 7076,
      "▁દ્વારકા": 7077,
      "▁કસરત": 7078,
      "શ્યો": 7079,
      "▁જુગાર": 7080,
      "▁અંદાજે": 7081,
      "ષક": 7082,
      "▁લંબાઈ": 7083,
      "ટથી": 7084,
      "▁ચાલવા": 7085,
      "પીના": 7086,
      "▁અઢ": 7087,
      "▁ગુણા": 7088,
      "▁જીવી": 7089,
      "▁શ્યામ": 7090,
      "▁જાદુ": 7091,
      "▁આણંદ": 7092,
      "વર્ષ": 7093,
      "▁સાક્ષા": 7094,
      "▁ભરેલા": 7095,
      "▁નિજ": 7096,
      "▁જુદાં": 7097,
      "▁સાર્વ": 7098,
      "ગુરૂ": 7099,
      "▁રહેતાં": 7100,
      "▁પરમાણુ": 7101,
      "વાળો": 7102,
      "▁ઉધ": 7103,
      "વેસ્ટ": 7104,
      "▁સાંભળવા": 7105,
      "▁દલીલ": 7106,
      "▁રક": 7107,
      "▁ઇમાર": 7108,
      "▁હોટેલ": 7109,
      "▁ફોલો": 7110,
      "▁ચરબી": 7111,
      "▁નોટિસ": 7112,
      "▁૨૯": 7113,
      "▁આસા": 7114,
      "▁આપણાં": 7115,
      "▁નદીના": 7116,
      "▁ફળો": 7117,
      "દાતા": 7118,
      "ટકા": 7119,
      "યને": 7120,
      "વમાં": 7121,
      "▁દરે": 7122,
      "▁કર્યાં.": 7123,
      "▁કર્યું.\n": 7124,
      "તેમ": 7125,
      "▁એટલુ": 7126,
      "મામાં": 7127,
      "▁વડ": 7128,
      "▁ત્યાંના": 7129,
      "▁માર્ગે": 7130,
      "▁સ્ટોક": 7131,
      "▁કર્યો.\n": 7132,
      "વાળ": 7133,
      "▁માણે": 7134,
      "▁મહેન્દ્ર": 7135,
      "▁છુપા": 7136,
      "▁થવાનો": 7137,
      "▁સખી": 7138,
      "▁લેપ": 7139,
      "તીને": 7140,
      "▁લિમિ": 7141,
      "▁શાળાના": 7142,
      "▁ચાહકો": 7143,
      "▁આમંત્રણ": 7144,
      "▁ડિરેક્ટર": 7145,
      "▁ઉત્પત્તિ": 7146,
      "▁ગ્રાહકોને": 7147,
      "▁સ્વતંત્રતા": 7148,
      "▁ષ": 7149,
      "▁સિક્": 7150,
      "▁મહિનાની": 7151,
      "લ્લભ": 7152,
      "▁અખા": 7153,
      "▁અર્ધ": 7154,
      "નીના": 7155,
      "▁કોઈએ": 7156,
      "▁હાર્ટ": 7157,
      "▁પીડિત": 7158,
      "▁છે..": 7159,
      "▁મળવાની": 7160,
      "▁દમ": 7161,
      "▁મંદિરના": 7162,
      "ઝના": 7163,
      "▁48": 7164,
      "▁ચઢી": 7165,
      "▁સ્પોર્ટ": 7166,
      "▁ગુસ્સા": 7167,
      "▁બાળકોના": 7168,
      "ન્સ,": 7169,
      "▁જન્મદિવ": 7170,
      "ફ્રા": 7171,
      "▁શું?": 7172,
      "▁ટ્રેડ": 7173,
      "▁દાવા": 7174,
      "▁નામનો": 7175,
      "▁માર્ગો": 7176,
      "▁લાખથી": 7177,
      "▁તુરત": 7178,
      "▁ક્યાંથી": 7179,
      "▁એન્ટ્રી": 7180,
      "▁જવાબમાં": 7181,
      "▁અનન્ય": 7182,
      "▁રિસર્ચ": 7183,
      "મ્ય": 7184,
      "▁હિંદી": 7185,
      "▁કંટ્રોલ": 7186,
      "બના": 7187,
      "કુળ": 7188,
      "▁આરા": 7189,
      "ભાગી": 7190,
      "▁સમારોહ": 7191,
      "▁ભગવ": 7192,
      "▁સંવેદનશીલ": 7193,
      "▁પરંતુ,": 7194,
      "▁એકાએક": 7195,
      "થર": 7196,
      "▁પ્રવર્": 7197,
      "ભાષા": 7198,
      "▁સમયસર": 7199,
      "▁સ્ટુ": 7200,
      "▁નરમ": 7201,
      "▁તાપણુ": 7202,
      "યતા": 7203,
      "▁લુક": 7204,
      "23": 7205,
      "▁ચોક્કસપણે": 7206,
      "▁જ્યા": 7207,
      "▁ઓવરમાં": 7208,
      "▁એજન્ટ": 7209,
      "▁નીર": 7210,
      "▁ફાઇન": 7211,
      "▁સમસ્ત": 7212,
      "▁પિતાએ": 7213,
      "્યૂટ": 7214,
      "▁એકતા": 7215,
      "▁2015": 7216,
      "▁ભટ્ટ": 7217,
      "િયાને": 7218,
      "ંછ": 7219,
      "્યું.\n": 7220,
      "▁સીસીટી": 7221,
      "▁માછી": 7222,
      "▁ક્લ": 7223,
      "▁ખની": 7224,
      "▁સેકન્ડ": 7225,
      "▁કોંગ્રેસે": 7226,
      "▁અછ": 7227,
      "▁રસ્તામાં": 7228,
      "ર્સે": 7229,
      "▁જાણીતી": 7230,
      "▁મતદારો": 7231,
      "▁સાંસ્કૃતિ": 7232,
      "▁પરન્તુ": 7233,
      "▁વ્યકિત": 7234,
      "▁ક્યા": 7235,
      "▁અઘ": 7236,
      "▁બદા": 7237,
      "▁રાણા": 7238,
      "▁સંભળા": 7239,
      "માન્ડ": 7240,
      "પિંડી": 7241,
      "કૃષ્ટ": 7242,
      "ર્તન": 7243,
      "▁સિરીઝ": 7244,
      "▁વ્યૂ": 7245,
      "ઝમ": 7246,
      "▁પરણ": 7247,
      "મ્પે": 7248,
      "▁મોહન": 7249,
      "▁સારાં": 7250,
      "ઘાટન": 7251,
      "નેા": 7252,
      "▁લગતા": 7253,
      "15": 7254,
      "▁બાળકના": 7255,
      "▁ડુંગળી": 7256,
      "▁ઉપવાસ": 7257,
      "▁કેટલાય": 7258,
      "▁સવાલો": 7259,
      "▁મડ": 7260,
      "▁પહેલ": 7261,
      "તરે": 7262,
      "પ્રથમ": 7263,
      "▁ટાપુ": 7264,
      "▁થવી": 7265,
      "▁અર્થતંત્ર": 7266,
      "▁મ્યુનિસિપાલિ": 7267,
      "▁સાઉથ": 7268,
      "▁દેવે": 7269,
      "▁રમવા": 7270,
      "▁ઇંડા": 7271,
      "લયે": 7272,
      "▁વ્યક્તિત્વ": 7273,
      "▁દરેકને": 7274,
      "▁વિશ્વની": 7275,
      "▁બળાત્કાર": 7276,
      "▁કિસ્સાઓમાં": 7277,
      "▁સર્ચ": 7278,
      "▁પારિ": 7279,
      "રાણ": 7280,
      "▁ટકી": 7281,
      "▁બ્રહ્મા": 7282,
      "▁અદાલ": 7283,
      "ખરા": 7284,
      "▁ગર્વ": 7285,
      "▁રહેવાનું": 7286,
      "જક": 7287,
      "શનો": 7288,
      "▁જબર": 7289,
      "ાય,": 7290,
      "▁ચીજો": 7291,
      "▁કાયમી": 7292,
      "▁દૃશ્ય": 7293,
      "લનું": 7294,
      "▁હકારાત્મક": 7295,
      "▁નોંધણી": 7296,
      "▁કહ્યા": 7297,
      "▁ટકાનો": 7298,
      "▁સીસીટીવી": 7299,
      "▁સ્કોર": 7300,
      "▁કેટલો": 7301,
      "▁કોર્પોરેશન": 7302,
      "▁ચેન": 7303,
      "▁પુસ્તકો": 7304,
      "▁સંકલ્પ": 7305,
      "▁બૌ": 7306,
      "▁સ્ટેન્ડ": 7307,
      "▁કરનારી": 7308,
      "▁લેાહી": 7309,
      "▁નદીમાં": 7310,
      "▁અકસ્માતમાં": 7311,
      "▁માત્રા": 7312,
      "વો,": 7313,
      "▁પ્રવૃત્તિઓ": 7314,
      "▁ભરીને": 7315,
      "▁ધારે": 7316,
      "▁વેપારીઓ": 7317,
      "્યાં,": 7318,
      "▁પવ": 7319,
      "સીમાં": 7320,
      "▁બનતા": 7321,
      "▁સામ્રા": 7322,
      "ટનો": 7323,
      "▁રિક": 7324,
      "▁નિદાન": 7325,
      "▁પ્રેસ": 7326,
      "▁ભરાઈ": 7327,
      "▁દર્દીઓને": 7328,
      "▁પાટીદાર": 7329,
      "મંદ": 7330,
      "▁પોત": 7331,
      "▁લિસ્ટ": 7332,
      "▁અહિં": 7333,
      "▁વ્યક્તિઓ": 7334,
      "▁પ્રોટી": 7335,
      "વાલે": 7336,
      "....\n": 7337,
      "▁મશ": 7338,
      "કાલીન": 7339,
      "▁અવર": 7340,
      "▁ચિંત": 7341,
      "ઈના": 7342,
      "▁પર્સ": 7343,
      "▁રોગચા": 7344,
      "▁કબજે": 7345,
      "સ્ટ્રેશન": 7346,
      "▁વ્યક્તિના": 7347,
      "ધિકારી": 7348,
      "▁ક્લબ": 7349,
      "વુ,": 7350,
      "▁બાબુ": 7351,
      "ષેક": 7352,
      "ભરી": 7353,
      "▁મારૂં": 7354,
      "▁ઉશ્કે": 7355,
      "▁શાહી": 7356,
      "▁છેલ્લાં": 7357,
      "નિય": 7358,
      "▁રાજકોટના": 7359,
      "▁રહે,": 7360,
      "▁લિંક": 7361,
      "▁અંડ": 7362,
      "ાર,": 7363,
      "▁સૂચિ": 7364,
      "▁રસ્તાઓ": 7365,
      "જીમાં": 7366,
      "▁છે!\n": 7367,
      "સીન": 7368,
      "▁પાણીનો": 7369,
      "▁શિવા": 7370,
      "▁ખીજ": 7371,
      "ન્મ": 7372,
      "▁પરની": 7373,
      "▁મિક્સ": 7374,
      "▁ગુમ": 7375,
      "▁આનાથી": 7376,
      "▁વાયરસના": 7377,
      "▁ઉંમરે": 7378,
      "ભક્તિ": 7379,
      "▁ગુસ્સે": 7380,
      "▁મહિલાઓને": 7381,
      "▁આયુષ્ય": 7382,
      "▁જીવતા": 7383,
      "▁ખાત્રી": 7384,
      "શામાં": 7385,
      "▁ડેમ": 7386,
      "▁ખર્ચા": 7387,
      "▁સંશોધ": 7388,
      "▁વરસાદના": 7389,
      "40": 7390,
      "▁પોપ": 7391,
      "▁પોઇન્ટ": 7392,
      "▁મુકેશ": 7393,
      "▁!!": 7394,
      "ન્સિ": 7395,
      "▁અનુપ": 7396,
      "▁આવાં": 7397,
      "▁છોકરીઓ": 7398,
      "મેા": 7399,
      "▁ઇન્ટરનેટ": 7400,
      "▁કેરી": 7401,
      "▁મોદીના": 7402,
      "પ્શન": 7403,
      "▁પ્રીમ": 7404,
      "કર્મી": 7405,
      "▁સિંહે": 7406,
      "▁૬૦": 7407,
      "▁ફરજિયાત": 7408,
      "▁ફટકારી": 7409,
      "▁સીટી": 7410,
      "▁મચ્છ": 7411,
      "ગીના": 7412,
      "▁શુભેચ્છા": 7413,
      "▁સેન્ટ્રલ": 7414,
      "વવાનો": 7415,
      "▁આત્મવિ": 7416,
      "▁પદ્મ": 7417,
      "લ્ક": 7418,
      "જામ": 7419,
      "▁મહોત્સવ": 7420,
      "▁પ્રવાસીઓ": 7421,
      "શ્ચ": 7422,
      "▁65": 7423,
      "કાઓ": 7424,
      "એની": 7425,
      "▁પેટમાં": 7426,
      "શ.\n": 7427,
      "▁છેડી": 7428,
      "▁ફેન્સ": 7429,
      "▁લીધી.": 7430,
      "ટાઈ": 7431,
      "▁પ્રેમમાં": 7432,
      "વુડ": 7433,
      "બાઇ": 7434,
      "▁કાઢવા": 7435,
      "▁જ્ઞાની": 7436,
      "▁બેઠેલા": 7437,
      "▁અન્યાય": 7438,
      "▁સ્ટ્રી": 7439,
      "▁ડાયાબિ": 7440,
      "સ્વતી": 7441,
      "▁મેટ્રોપોલિ": 7442,
      "દ્યોગિક": 7443,
      "▁ઘઉં": 7444,
      "શો.\n": 7445,
      "▁બાળકોની": 7446,
      "▁મૂલ્યાં": 7447,
      "▁ઊભો": 7448,
      "જલિ": 7449,
      "▁નિકાલ": 7450,
      "▁વનડે": 7451,
      "▁ો": 7452,
      "▁સરખી": 7453,
      "▁ગાળા": 7454,
      "▁નિયંત્રિત": 7455,
      "ટર્સ": 7456,
      "▁સસ્પે": 7457,
      "▁આજકાલ": 7458,
      "▁બ્રિજ": 7459,
      "▁હવામાં": 7460,
      "▁કોઈક": 7461,
      "▁વર્ષોમાં": 7462,
      "▁પ્રાણુ": 7463,
      "▁અમદાવાદઃ": 7464,
      "▁પ્રસ્તુત": 7465,
      "▁સંકળાયેલા": 7466,
      "વીજ": 7467,
      "▁ભેજ": 7468,
      "વાયો": 7469,
      "પાઇ": 7470,
      "▁ફોર્": 7471,
      "▁38": 7472,
      "▁કીધી": 7473,
      "▁કર્મચારીઓને": 7474,
      "▁બાથ": 7475,
      "નારાયણ": 7476,
      "▁મંજૂર": 7477,
      "▁બનાસકાંઠા": 7478,
      "▁ઇમ": 7479,
      "▁ઈરા": 7480,
      "▁ગજ": 7481,
      "▁બાળપણ": 7482,
      "૩૦": 7483,
      "▁નિમ": 7484,
      "▁અથડા": 7485,
      "છે.\n": 7486,
      "વ્યવસ્થા": 7487,
      "રન્ટ": 7488,
      "▁મુશ્કેલીઓ": 7489,
      "પક્ષ": 7490,
      "▁વિસ": 7491,
      "▁થાય.\n": 7492,
      "ફ્રેન્ડ": 7493,
      "▁હિટ": 7494,
      "તોમાં": 7495,
      "▁રિટ": 7496,
      "▁પરો": 7497,
      "▁રોજગાર": 7498,
      "▁આરોપીઓ": 7499,
      "▁સિદ્ધાં": 7500,
      "▁પ્રાણીઓ": 7501,
      "▁કરૂં": 7502,
      "ફ્ટી": 7503,
      "▁પંદર": 7504,
      "▁પૂરે": 7505,
      "શાસ્ત્રી": 7506,
      "▁ડેપ": 7507,
      "▁માનું": 7508,
      "યાએ": 7509,
      "▁સ્વ.": 7510,
      "▁ઉદ્યો": 7511,
      "▁અનુવાદ": 7512,
      "▁સાંસ્કૃતિક": 7513,
      "▁ફરાર": 7514,
      "▁વ્યાવસાયિક": 7515,
      "મેન્ટમાં": 7516,
      "▁હતે": 7517,
      "▁સભામાં": 7518,
      "ટ્સએ": 7519,
      "▁આકૃતિ": 7520,
      "▁આયોજિત": 7521,
      "▁કોને": 7522,
      "▁દેખરેખ": 7523,
      "▁લેખિત": 7524,
      "▁લગાવ્યો": 7525,
      "▁ખરાખર": 7526,
      "▁શહી": 7527,
      "જે.": 7528,
      "▁શેરી": 7529,
      "▁અવસર": 7530,
      "▁ફોટોગ્રા": 7531,
      "▁ઇલેક્ટ્રો": 7532,
      "▁વાલી": 7533,
      "▁૪.": 7534,
      "સ્વરૂપ": 7535,
      "▁મેટ્રોપોલિટન": 7536,
      "▁વધારાના": 7537,
      "વાર,": 7538,
      "▁આવ્યા,": 7539,
      "▁અપડેટ": 7540,
      "ધ્યાય": 7541,
      "માળા": 7542,
      "▁ચંદ": 7543,
      "તો,": 7544,
      "▁રોડ,": 7545,
      "▁નીકળ્યા": 7546,
      "▁સુરેન્દ્રનગર": 7547,
      "▁ફસ": 7548,
      "▁જાહેરમાં": 7549,
      "▁પામેલા": 7550,
      "▁બોલિવૂડ": 7551,
      "▁આડ": 7552,
      "▁ભજન": 7553,
      "▁બેટા": 7554,
      "▁પછીથી": 7555,
      "સથી": 7556,
      "▁અધિકારીઓને": 7557,
      "▁લાગ્યું.": 7558,
      "▁આગમન": 7559,
      "▁બહેનો": 7560,
      "ંઝ": 7561,
      "▁આપઘાત": 7562,
      "▁આઈપી": 7563,
      "૧૧": 7564,
      "▁વસા": 7565,
      "▁કાબુ": 7566,
      "▁ફેક્ટ": 7567,
      "▁સુવર્ણ": 7568,
      "▁માત્રામાં": 7569,
      "▁કાઢવામાં": 7570,
      "▁બોટલ": 7571,
      "▁ટિપ્પણી": 7572,
      "▁ધ્યેય": 7573,
      "િયાની": 7574,
      "▁પડેલી": 7575,
      "વડા": 7576,
      "▁છેડ": 7577,
      "▁ગંધ": 7578,
      "▁ઇન્સ્ટાગ્રામ": 7579,
      "▁પ્રતાપ": 7580,
      "ગ્યુ": 7581,
      "▁પ્રવે": 7582,
      "▁કિશોર": 7583,
      "▁કેટે": 7584,
      "વે.": 7585,
      "વવાના": 7586,
      "▁અબજ": 7587,
      "▁પ્રાઈ": 7588,
      "▁પિતાને": 7589,
      "ુત": 7590,
      "▁ટું": 7591,
      "▁ઝોન": 7592,
      "▁ખરું": 7593,
      "▁જપ્ત": 7594,
      "▁લડી": 7595,
      "▁ઉપરો": 7596,
      "▁નિવૃત્તિ": 7597,
      "ભાઈએ": 7598,
      "▁પ્રતીક": 7599,
      "▁રમેશ": 7600,
      "▁દુનિયાના": 7601,
      "▁એક્સપ્રે": 7602,
      "▁કાર્યમાં": 7603,
      "▁મંડળ": 7604,
      "▁અધ્યાય": 7605,
      "હ,": 7606,
      "▁વાસ્તવમાં": 7607,
      "▁સોસાયટી": 7608,
      "▁ગેરકાયદેસર": 7609,
      "▁ભાગો": 7610,
      "ક્ટે": 7611,
      "▁પાવડ": 7612,
      "▁પરિવારની": 7613,
      "▁વાપરી": 7614,
      "▁ન્યાયા": 7615,
      "▁તડ": 7616,
      "▁જેવુ": 7617,
      "▁ઘડ": 7618,
      "▁ક્ષમા": 7619,
      "▁ગઈ.\n": 7620,
      "▁માસ્ટર": 7621,
      "▁કોટ": 7622,
      "▁લડાઇ": 7623,
      "▁તમિ": 7624,
      "જી.": 7625,
      "▁આજનો": 7626,
      "▁ગળે": 7627,
      "મામ": 7628,
      "▁ઉછા": 7629,
      "ગેટ": 7630,
      "▁વિગતવાર": 7631,
      "પાં": 7632,
      "બ્રે": 7633,
      "નું,": 7634,
      "સ્થાને": 7635,
      "પુરુષ": 7636,
      "▁આરતી": 7637,
      "▁પ્રમાણુ": 7638,
      "▁થાક": 7639,
      "▁સેમ": 7640,
      "▁બાવ": 7641,
      "▁મારીને": 7642,
      "▁માતાના": 7643,
      "લેજ": 7644,
      "▁ફિલ્મના": 7645,
      "▁ઘટકો": 7646,
      "▁પ્રથા": 7647,
      "પુરી": 7648,
      "▁નહોતી.": 7649,
      "ંગ્લા": 7650,
      "૫૦": 7651,
      "▁હરાવ": 7652,
      "▁નકલ": 7653,
      "▁વિપુ": 7654,
      "▁૧,": 7655,
      "▁દીક્ષા": 7656,
      "▁મારાથી": 7657,
      "▁ઢાં": 7658,
      "▁દરવાજો": 7659,
      "▁ચરિત્ર": 7660,
      "▁સ્વર": 7661,
      "▁ગયો.\n": 7662,
      "▁ઓપન": 7663,
      "▁મોડલ": 7664,
      "▁ફુલ": 7665,
      "▁દલ": 7666,
      "▁નહોતું": 7667,
      "રે.": 7668,
      "▁વિચાર્યું": 7669,
      "સનો": 7670,
      "▁55": 7671,
      "▁આયુર્વે": 7672,
      "▁પ્રકટ": 7673,
      "▁દેવાની": 7674,
      "ડિયે": 7675,
      "વ્યુ": 7676,
      "▁ચોપ": 7677,
      "▁ખાવાથી": 7678,
      "▁ક્રાંતિ": 7679,
      "▁માનવા": 7680,
      "▁યોજનાઓ": 7681,
      "▁એકબીજાને": 7682,
      "▁અનુસર": 7683,
      "▁મામલત": 7684,
      "▁સંચાલ": 7685,
      "દિન": 7686,
      "જાત": 7687,
      "ઝમાં": 7688,
      "▁લોકોનો": 7689,
      "ંગમાં": 7690,
      "▁ટ્રો": 7691,
      "▁ટીમમાં": 7692,
      "▁ગેા": 7693,
      "▁વિભાગમાં": 7694,
      "▁કાપડ": 7695,
      "▁ઘટનાસ્થળે": 7696,
      "▁વસે": 7697,
      "▁મારુ": 7698,
      "કાંત": 7699,
      "▁કાઢે": 7700,
      "વહાર": 7701,
      "▁ભરો": 7702,
      "▁કુંભ": 7703,
      "ચ્યુ": 7704,
      "▁દળો": 7705,
      "▁પાડો": 7706,
      "▁હોલ": 7707,
      "▁ગઇ.": 7708,
      "▁સ્ટોર": 7709,
      "▁કેન્દ્રો": 7710,
      "▁વેશ": 7711,
      "▁અનુક્રમે": 7712,
      "▁સમયના": 7713,
      "રાઇ": 7714,
      "▁વિદ્વાન": 7715,
      "▁પડવા": 7716,
      "▁ફેશન": 7717,
      "▁હજ": 7718,
      "ત્વા": 7719,
      "▁ઇસ્લા": 7720,
      "દારે": 7721,
      "જે,": 7722,
      "▁આરાધ": 7723,
      "▁મેના": 7724,
      "▁બાઇ": 7725,
      "ધારિત": 7726,
      "▁ટ્રેક": 7727,
      "▁તળે": 7728,
      "▁માવ": 7729,
      "▁અખંડ": 7730,
      "▁કર્ણાટ": 7731,
      "▁જતું": 7732,
      "શ્યલ": 7733,
      "▁વિભાગની": 7734,
      "▁હાઈવે": 7735,
      "▁આયાત": 7736,
      "▁સરસ્વતી": 7737,
      "▁છેતરપિંડી": 7738,
      "બ્ર": 7739,
      "▁બીચ": 7740,
      "▁42": 7741,
      "▁પુત્રને": 7742,
      "વિટી": 7743,
      "▁અપહરણ": 7744,
      "▁એનાથી": 7745,
      "▁જમીનમાં": 7746,
      "▁વિનય": 7747,
      "▁સપ્લાય": 7748,
      "▁જોડાઓ": 7749,
      "▁ચાવી": 7750,
      "▁રે.": 7751,
      "દાયી": 7752,
      "▁નિમિત્તે": 7753,
      "▁ચર્ચ": 7754,
      "ન્દ્રા": 7755,
      "ાયેલો": 7756,
      "▁કબ્": 7757,
      "▁મય": 7758,
      "▁માતૃ": 7759,
      "▁મહિલાએ": 7760,
      "▁વૈરા": 7761,
      "▁ઘટાડવા": 7762,
      "▁પથારી": 7763,
      "▁મમ": 7764,
      "▁વસ્ત્ર": 7765,
      "▁બલ": 7766,
      "▁યુક્તિ": 7767,
      "▁ચાલક": 7768,
      "પ્રસાદ": 7769,
      "શૈ": 7770,
      "▁સંદર્ભે": 7771,
      "▁લેવાય": 7772,
      "▁આવશ્યકતા": 7773,
      "મીએ": 7774,
      "પત્": 7775,
      "▁શૌ": 7776,
      "ક્ષ્": 7777,
      "મિર": 7778,
      "▁વૃક્ષો": 7779,
      "▁પાણીથી": 7780,
      "▁હૈદરા": 7781,
      "ભેદ": 7782,
      "ગતિ": 7783,
      "▁આનો": 7784,
      "▁પાકિસ્તાનના": 7785,
      "▁કૉંગ્રે": 7786,
      "▁ચેમ્પિયન": 7787,
      "રેન": 7788,
      "▁ચુકવણી": 7789,
      "▁ટક્કર": 7790,
      "▁વપરાશ": 7791,
      "▁લાગતા": 7792,
      "▁એલ.": 7793,
      "▁અભિનંદન": 7794,
      "ટર,": 7795,
      "▁વચ્ચેની": 7796,
      "▁હેા": 7797,
      "▁ક્રૂર": 7798,
      "11": 7799,
      "ચ્યુઅલ": 7800,
      "સેના": 7801,
      "સ્તર": 7802,
      "▁પરિચિત": 7803,
      "રાવી": 7804,
      "▁બેટરી": 7805,
      "▁ગેરહા": 7806,
      "▁અદાણી": 7807,
      "▁ગ્રાઉન્ડ": 7808,
      "▁અત્યા": 7809,
      "▁ઉલ્લંઘ": 7810,
      "▁પાટણ": 7811,
      "▁અપડેટ્સ": 7812,
      "▁તેણીને": 7813,
      "▁રા.": 7814,
      "▁હાઈકોર્ટ": 7815,
      "▁મોહમ્મદ": 7816,
      "▁ચિત": 7817,
      "▁રેલી": 7818,
      "▁સેક્રે": 7819,
      "▁શિખ": 7820,
      "▁વોટ": 7821,
      "▁ફ્લે": 7822,
      "▁નય": 7823,
      "▁બીજાને": 7824,
      "▁અશક્ય": 7825,
      "▁રહેશે,": 7826,
      "▁શૂન્ય": 7827,
      "▁નારાયણ": 7828,
      "▁કોફી": 7829,
      "▁વિપરીત": 7830,
      "▁જયે": 7831,
      "▁ચડી": 7832,
      "વાટ": 7833,
      "▁મેહુ": 7834,
      "્સ,": 7835,
      "▁ન્યુઝ": 7836,
      "▁રૃ": 7837,
      "▁વુ": 7838,
      "▁રિયા": 7839,
      "▁બજ": 7840,
      "▁પહેરી": 7841,
      "▁ભડ": 7842,
      "▁ફરતા": 7843,
      "▁ઉમર": 7844,
      "▁હોય.\n": 7845,
      "▁પૂછે": 7846,
      "▁વિટામિન": 7847,
      "▁એલિ": 7848,
      "મરી": 7849,
      "▁ભ્રષ્ટાચાર": 7850,
      "દરી": 7851,
      "▁સકારાત્મક": 7852,
      "▁એસિડ": 7853,
      "▁ગ્રામજનો": 7854,
      "▁મોડેલ": 7855,
      "▁પરિણી": 7856,
      "▁સારુ": 7857,
      "▁ગરબા": 7858,
      "▁શબ્દોમાં": 7859,
      "▁કપાસ": 7860,
      "▁વ્યાસ": 7861,
      "▁સોંપી": 7862,
      "▁બનશે.": 7863,
      "▁ભજવી": 7864,
      "પ્ટ": 7865,
      "▁સ્વરૂ": 7866,
      "▁રમતા": 7867,
      "▁સામ્રાજ્ય": 7868,
      "▁પડશે,": 7869,
      "▁સ્ટ્રે": 7870,
      "▁જર્": 7871,
      "ૂન": 7872,
      "▁નાનો": 7873,
      "લે,": 7874,
      "શિપ": 7875,
      "▁જથ્થા": 7876,
      "▁અંદ": 7877,
      "ૂપ": 7878,
      "▁દંપ": 7879,
      "▁સંજોગોમાં": 7880,
      "...\n": 7881,
      "▁લખન": 7882,
      "લિકા": 7883,
      "▁ઓફિસમાં": 7884,
      "▁વૈજ્ઞાનિકો": 7885,
      "લોને": 7886,
      "▁બંનેને": 7887,
      "બોલ": 7888,
      "▁પહેરે": 7889,
      "▁ચૈત": 7890,
      "બની": 7891,
      "▁છો?": 7892,
      "▁અંશે": 7893,
      "▁હજારથી": 7894,
      "▁અફઘાનિ": 7895,
      "▁જળવા": 7896,
      "▁પરિસ્થિતિમાં": 7897,
      "▁નમસ્કાર": 7898,
      "▁હોવો": 7899,
      "▁7.": 7900,
      "▁આપું": 7901,
      "▁જાઉં": 7902,
      "▁ઇલેક્ટ્રિક": 7903,
      "કંપ": 7904,
      "▁મળી.": 7905,
      "▁ઘટનાને": 7906,
      "▁માખ": 7907,
      "▁નીતિન": 7908,
      "▁અય": 7909,
      "પેા": 7910,
      "▁મકર": 7911,
      "તથી": 7912,
      "બરૂ": 7913,
      "યેાગ": 7914,
      "▁પુખ્ત": 7915,
      "▁શકિત": 7916,
      "▁અલ્લા": 7917,
      "▁ભાજપને": 7918,
      "▁દર્શાવ": 7919,
      "ઈમાં": 7920,
      "▁ઉભે": 7921,
      "▁ઉત્સા": 7922,
      "▁ચિન્": 7923,
      "▁પહેલીવાર": 7924,
      "બળો": 7925,
      "▁શાં": 7926,
      "વવી": 7927,
      "▁કાફ": 7928,
      "▁રાજ્યસભા": 7929,
      "▁મુર": 7930,
      "▁માઇક્રો": 7931,
      "▁પોરબંદર": 7932,
      "▁સુધીનો": 7933,
      "▁૩૬": 7934,
      "▁તબિયત": 7935,
      "▁ઇન્ડસ્ટ્રી": 7936,
      "ઓનાં": 7937,
      "દેશા": 7938,
      "▁ફેંક": 7939,
      "યામાં": 7940,
      "▁આશિ": 7941,
      "▁પાછલા": 7942,
      "▁સુગંધ": 7943,
      "આપ": 7944,
      "વટ": 7945,
      "▁રાજપૂ": 7946,
      "▁ચમક": 7947,
      "▁ખતરના": 7948,
      "▁ચોંકા": 7949,
      "▁બર્": 7950,
      "▁ભેળ": 7951,
      "▁લેખમાં": 7952,
      "▁કે\n": 7953,
      "ંગ,": 7954,
      "▁પત્નીને": 7955,
      "વા.": 7956,
      "▁આલિયા": 7957,
      "▁ભાજપની": 7958,
      "▁ખોલી": 7959,
      "▁અબ્દુ": 7960,
      "▁સાજા": 7961,
      "▁ધૂમ": 7962,
      "▁ખાવાનું": 7963,
      "કેલી": 7964,
      "▁બાલ": 7965,
      "▁દરખા": 7966,
      "▁મહેમાનો": 7967,
      "▁અંતઃકરણ": 7968,
      "બ્રા": 7969,
      "વેરા": 7970,
      "▁ગયેલી": 7971,
      "તીની": 7972,
      "▁બં": 7973,
      "▁કામદારો": 7974,
      "▁વેરિ": 7975,
      "▁વિસ્ફો": 7976,
      "▁અમિતા": 7977,
      "નિર્": 7978,
      "સ્ટિ": 7979,
      "▁રહેલું": 7980,
      "▁થઇ.": 7981,
      "▁રૂપિયાના": 7982,
      "ઓ.": 7983,
      "▁વાક્ય": 7984,
      "▁વ્હે": 7985,
      "▁વેબસાઈટ": 7986,
      "▁તાજા": 7987,
      "▁કરવું.": 7988,
      "▁નફો": 7989,
      "▁માર્ક": 7990,
      "▁અટકાય": 7991,
      "સર્જન": 7992,
      "▁પક્ષો": 7993,
      "▁રાજીનામું": 7994,
      "▁મેડલ": 7995,
      "▁કુળ": 7996,
      "▁કામની": 7997,
      "▁પેાતાનું": 7998,
      "વાયેલા": 7999,
      "▁શક્તિશાળી": 8000,
      "▁અર્થમાં": 8001,
      "▁નૌ": 8002,
      "▁સાદ": 8003,
      "▁ખતમ": 8004,
      "રેક્ટ": 8005,
      "▁ફાટી": 8006,
      "▁ધ્યાને": 8007,
      "વિદ્યા": 8008,
      "▁રેટ": 8009,
      "▁વિકસિત": 8010,
      "▁ગુસ્સો": 8011,
      "ડે,": 8012,
      "▁પ્રતિબિ": 8013,
      "▁ઔદ્યોગિક": 8014,
      "શાંત": 8015,
      "▁મજૂ": 8016,
      "▁માણી": 8017,
      "▁રાખીએ": 8018,
      "▁વિષયો": 8019,
      "▁અભિવ": 8020,
      "▁નકા": 8021,
      "મી.": 8022,
      "▁પેસે": 8023,
      "▁શક્યો": 8024,
      "▁ખતરનાક": 8025,
      "▁શસ્ત્ર": 8026,
      "સાને": 8027,
      "▁મળતું": 8028,
      "▁આગેવાની": 8029,
      "▁રહો.": 8030,
      "▁હૅ": 8031,
      "▁મેટી": 8032,
      "▁શકતો": 8033,
      "▁ઈમ": 8034,
      "ક્રા": 8035,
      "▁બાંગ્લા": 8036,
      "ાયક": 8037,
      "▁કંપનીમાં": 8038,
      "▁પોષણ": 8039,
      "▁ખાઇ": 8040,
      "▁લિટર": 8041,
      "▁વિલંબ": 8042,
      "મિત": 8043,
      "સીસ": 8044,
      "▁મૃતક": 8045,
      "▁મહિનાથી": 8046,
      "ખલ": 8047,
      "૧૨": 8048,
      "▁લાંબો": 8049,
      "▁સંદર્ભમાં": 8050,
      "સમી": 8051,
      "▁કષ્ટ": 8052,
      "▁તેઓની": 8053,
      "▁હાર્ડ": 8054,
      "▁સંચાલિત": 8055,
      "▁સમ્ય": 8056,
      "▁વિચારણા": 8057,
      "▁બિગ": 8058,
      "સીસી": 8059,
      "▁પૂજ્ય": 8060,
      "▁રોષ": 8061,
      "દારા": 8062,
      "▁ટ્રિ": 8063,
      "▁સીધો": 8064,
      "▁આતુર": 8065,
      "▁જસ્ટિસ": 8066,
      "ડેક્સ": 8067,
      "ગ્ધ": 8068,
      "કી,": 8069,
      "▁દેશે": 8070,
      "ર્ટિ": 8071,
      "આઉટ": 8072,
      "▁ટ્વિટ": 8073,
      "▁ટી20": 8074,
      "▁કંપનીની": 8075,
      "મ્બરમાં": 8076,
      "▁મુસલમાન": 8077,
      "સત્તા": 8078,
      "▁ખાતામાં": 8079,
      "▁કહો": 8080,
      "▁મ્હા": 8081,
      "▁કઠો": 8082,
      "કાર્ય": 8083,
      "▁બોલમાં": 8084,
      "▁બેઠી": 8085,
      "▁2013": 8086,
      "▁ધોધ": 8087,
      "▁તીર": 8088,
      "▁હાલની": 8089,
      "જવા": 8090,
      "સેવ": 8091,
      "▁ક્ષણે": 8092,
      "કુર": 8093,
      "▁કાશ્મીર": 8094,
      "▁સુલતા": 8095,
      "▁નેત્ર": 8096,
      "▁44": 8097,
      "▁પાકિસ્તાની": 8098,
      "હીન": 8099,
      "▁ભાભી": 8100,
      "દી,": 8101,
      "▁પૂજન": 8102,
      "▁પડો": 8103,
      "▁અસંખ": 8104,
      "▁એસોસિ": 8105,
      "▁ઉત્કૃષ્ટ": 8106,
      "▁કાચા": 8107,
      "▁હેતુથી": 8108,
      "ંથ": 8109,
      "મ્મ": 8110,
      "▁પીએસ": 8111,
      "▁અશ્વ": 8112,
      "▁ત્રિવે": 8113,
      "▁ભણી": 8114,
      "▁રિલાય": 8115,
      "▁ગયેલ": 8116,
      "▁ચમત્કાર": 8117,
      "▁સગવડ": 8118,
      "▁જઈએ": 8119,
      "સિં": 8120,
      "▁દુબ": 8121,
      "તાનુ": 8122,
      "▁કાબૂ": 8123,
      "▁લોટ": 8124,
      "▁શીખી": 8125,
      "શ્ર્": 8126,
      "▁માતાને": 8127,
      "કર્ષ": 8128,
      "▁હોટલ": 8129,
      "લ્ટી": 8130,
      "▁ખેડા": 8131,
      "▁એપાર્ટમેન્ટ": 8132,
      "▁અપ્ર": 8133,
      "▁ડબ્": 8134,
      "▁૩૨": 8135,
      "▁મહિલાને": 8136,
      "21": 8137,
      "▁રિક્ષા": 8138,
      "▁ચીનના": 8139,
      "▁ગૌતમ": 8140,
      "▁હૈદરાબાદ": 8141,
      "▁નામો": 8142,
      "▁અઢી": 8143,
      "▁અલ્પ": 8144,
      "▁બજારો": 8145,
      "▁મેળા": 8146,
      "જાના": 8147,
      "▁ગોળ": 8148,
      "▁અસંખ્ય": 8149,
      "▁પૂછી": 8150,
      "▁હોસ્પિટલના": 8151,
      "▁દાસ": 8152,
      "▁પાપી": 8153,
      "૧૮": 8154,
      "▁પ્રકારનો": 8155,
      "▁મુદ્દાઓ": 8156,
      "▁ઉસ": 8157,
      "▁નાનું": 8158,
      "▁લાઇફ": 8159,
      "▁ચલાવે": 8160,
      "▁ખભા": 8161,
      "▁માર્યો": 8162,
      "▁ફેરવી": 8163,
      "▁ભયાન": 8164,
      "▁શિખર": 8165,
      "▁સવારથી": 8166,
      "લાજ": 8167,
      "કાંડ": 8168,
      "▁કોડ": 8169,
      "ચ્છી": 8170,
      "▁મીઠી": 8171,
      "▁પકડીને": 8172,
      "▁ચકાસણી": 8173,
      "▁ધૂળ": 8174,
      "▁દુષ્ક": 8175,
      "▁ટેવ": 8176,
      "▁જેમની": 8177,
      "▁રાજાના": 8178,
      "▁બેદરકારી": 8179,
      "▁દૃષ્ટ": 8180,
      "બત": 8181,
      "▁પચ": 8182,
      "વારની": 8183,
      "▁તંદુરસ્ત": 8184,
      ",5": 8185,
      "▁ડેપ્યુટી": 8186,
      "▁જના": 8187,
      "શ્રમ": 8188,
      "▁સરો": 8189,
      "મીર": 8190,
      "▁લંબ": 8191,
      "▁એક્ટ્રેસ": 8192,
      "્યાને": 8193,
      "▁માધ્યમ": 8194,
      "▁નાનાં": 8195,
      "▁ઊઠ": 8196,
      "▁શણગાર": 8197,
      "▁ઉપાસના": 8198,
      "▁તસ્": 8199,
      "▁નિધન": 8200,
      "▁195": 8201,
      "પરી": 8202,
      "▁કેાઇ": 8203,
      "▁લેતાં": 8204,
      "▁સમાધિ": 8205,
      "▁બાળકની": 8206,
      "▁અહીંયા": 8207,
      "▁એક્ટર": 8208,
      "▁સીતા": 8209,
      "▁અડધી": 8210,
      "▁એળ": 8211,
      "▁ઉપાડી": 8212,
      "▁હસ્તે": 8213,
      "તિને": 8214,
      "તેા": 8215,
      "▁મૂકવા": 8216,
      "▁ભંડો": 8217,
      "▁સુધારવા": 8218,
      "▁જોવાની": 8219,
      "▁લેવાના": 8220,
      "▁ઇંદ્ર": 8221,
      "▁અમલી": 8222,
      "▁કમ્પ્યુટર": 8223,
      "▁સૌને": 8224,
      "▁લગ્નના": 8225,
      "▁મ્યુનિસિપલ": 8226,
      "શું.\n": 8227,
      "▁ગઠ": 8228,
      "કોર્ટે": 8229,
      "ભરના": 8230,
      "▁વિશ્વા": 8231,
      "▁મુન": 8232,
      "▁ખેતરમાં": 8233,
      "▁ભૂપેન્દ્ર": 8234,
      "▁વતન": 8235,
      "▁તાકી": 8236,
      "▁એન્ટિ": 8237,
      "સૂરિ": 8238,
      "▁ધંધો": 8239,
      "▁જીભ": 8240,
      "▁ત્રીજો": 8241,
      "ગજ": 8242,
      "ઠાં": 8243,
      "▁પેન્શન": 8244,
      "▁સ્ટ્રો": 8245,
      "▁મૂલ્યાંકન": 8246,
      "પ્રકાશ": 8247,
      "▁શિક્ષકો": 8248,
      "▁એક્ટિવ": 8249,
      "▁રિઝર્વ": 8250,
      "▁પદા": 8251,
      "▁વતી": 8252,
      "દર્શિ": 8253,
      "▁આહ": 8254,
      "▁કિ.": 8255,
      "▁લેટેસ્ટ": 8256,
      "▁કોર્ટના": 8257,
      "▁કલ્પ": 8258,
      "▁અધી": 8259,
      "▁યોજવામાં": 8260,
      "▁ઉડા": 8261,
      "▁ડ્રેસ": 8262,
      "▁ગુપ્": 8263,
      "▁સૌંદર": 8264,
      "▁સાંભળ્યું": 8265,
      "▁ક્રાઇ": 8266,
      "એસ.": 8267,
      "▁એકાંત": 8268,
      "▁તબક્કા": 8269,
      "▁સોંપવામાં": 8270,
      "પમેન્ટ": 8271,
      "કિક": 8272,
      "▁સીલ": 8273,
      "▁નિરાશ": 8274,
      "▁બાતમી": 8275,
      "▁ચઢા": 8276,
      "તે,": 8277,
      "▁માલમ": 8278,
      "▁લખવામાં": 8279,
      "▁જગતના": 8280,
      "▁શકાય.\n": 8281,
      "▁ઈંગ્લેન્ડ": 8282,
      "??": 8283,
      "શિંગ": 8284,
      "▁જિલ્લાની": 8285,
      "▁શરતો": 8286,
      "▁સરહદ": 8287,
      "▁ભાડે": 8288,
      "▁પાચન": 8289,
      "▁આચર": 8290,
      "▁બનશે": 8291,
      "▁મદદરૂપ": 8292,
      "▁હસી": 8293,
      "▁આવેલો": 8294,
      "▁નબળી": 8295,
      "▁તકો": 8296,
      "લ્લું": 8297,
      "▁પ્રોગ્રામ": 8298,
      "▁માણુસ": 8299,
      "ઓમાંથી": 8300,
      "▁વાર્": 8301,
      "▁પિતાની": 8302,
      "▁દીકરો": 8303,
      "▁ફુટ": 8304,
      "▁પછા": 8305,
      "▁ઉઘ": 8306,
      "▁સહકારી": 8307,
      "▁કરાવવામાં": 8308,
      "▁અઠવાડિયે": 8309,
      "▁બિલ્ડિંગ": 8310,
      "▁રુપિયા": 8311,
      "▁ચપ": 8312,
      "▁કરવા.": 8313,
      "▁પડતો": 8314,
      "▁આકર્ષણ": 8315,
      "▁વિનો": 8316,
      "▁ફાળો": 8317,
      "▁એકમો": 8318,
      "▁શકતું": 8319,
      "▁કૃત્ય": 8320,
      "▁ભગવાનની": 8321,
      "▁સ્માર્ટફોન": 8322,
      "▁નામનું": 8323,
      "▁194": 8324,
      "▁શોધખો": 8325,
      "▁કવર": 8326,
      "▁ડાબી": 8327,
      "▁એલર્ટ": 8328,
      "બેર": 8329,
      "▁માસમાં": 8330,
      "▁દ્રષ્ટિએ": 8331,
      "વાર્ય": 8332,
      "નીની": 8333,
      "▁દિલીપ": 8334,
      "▁ગડ": 8335,
      "વાળાં": 8336,
      "▁ગુને": 8337,
      "▁આવી,": 8338,
      "▁આરામદાયક": 8339,
      "▁ભંડ": 8340,
      "▁કાઉ": 8341,
      "રૂમ": 8342,
      "▁રઘુ": 8343,
      "▁દહે": 8344,
      "▁પાર્કિંગ": 8345,
      "▁ગેંગ": 8346,
      "▁આજી": 8347,
      "ત્રણ": 8348,
      "▁વર્ગો": 8349,
      "મિશન": 8350,
      "▁મ્હારી": 8351,
      "▁ખ્રિસ્તી": 8352,
      "▁કમર": 8353,
      "▁થનાર": 8354,
      "▁સમજાય": 8355,
      "▁સ્ટોરી": 8356,
      "નવી": 8357,
      "શેષ": 8358,
      "▁લીંક": 8359,
      "▁૩૩": 8360,
      "▁ગ્લાસ": 8361,
      "▁લેવલ": 8362,
      "▁ભાગરૂપે": 8363,
      "▁હિંદુસ્તા": 8364,
      "▁સંતાન": 8365,
      "▁મળે.": 8366,
      "▁કોહલી": 8367,
      "▁મહેસાણા": 8368,
      "ડયા": 8369,
      "▁શકશે.\n": 8370,
      "▁સુનિશ્ચિત": 8371,
      "▁મામલતદાર": 8372,
      "▁દહીં": 8373,
      "▁બચત": 8374,
      "▁જીવને": 8375,
      "▁દેખાતા": 8376,
      "વવું": 8377,
      "▁રિંગ": 8378,
      "▁સેંક": 8379,
      "▁જગદી": 8380,
      "▁નક્ષત્ર": 8381,
      "▁તારૂ": 8382,
      "▁ઘણુ": 8383,
      "▁સ્તુતિ": 8384,
      "▁રાજનીતિ": 8385,
      "▁સ્પેશિયલ": 8386,
      "▁શરમ": 8387,
      "લગ્ન": 8388,
      "▁ખુદા": 8389,
      "્યાના": 8390,
      "શ્ચા": 8391,
      "▁લેક": 8392,
      "▁૪૫": 8393,
      "▁તેમાંના": 8394,
      "▁મહેશ": 8395,
      "▁અતી": 8396,
      "▁વાસના": 8397,
      "▁2000": 8398,
      "▁ચિત્રો": 8399,
      "▁ઊભ": 8400,
      "▁સ્ટાર્": 8401,
      "▁મેળવવાની": 8402,
      "▁યથા": 8403,
      "▁૩૪": 8404,
      "▁કાળમાં": 8405,
      "▁પાયે": 8406,
      "▁સચિન": 8407,
      "▁મસ્જિ": 8408,
      "▁અંધકાર": 8409,
      "▁પંચા": 8410,
      "ચાં": 8411,
      "▁દીપિ": 8412,
      "▁ગયાં.": 8413,
      "▁વેક્સિન": 8414,
      "▁પધાર": 8415,
      "▁ખુલ": 8416,
      "▁મોદીની": 8417,
      "▁નાગરિકોને": 8418,
      "▁સુચના": 8419,
      "▁એમનું": 8420,
      "▁પારસી": 8421,
      "ંતે": 8422,
      "▁સિંગ": 8423,
      "▁છોકરો": 8424,
      "▁પુષ્પ": 8425,
      "▁મહારાષ્ટ્રમાં": 8426,
      "દ્રો": 8427,
      "▁લેવાનો": 8428,
      "▁ઇન્સ": 8429,
      "▁વારે": 8430,
      "▁બનાવ્યો": 8431,
      "▁શંકાસ્પદ": 8432,
      "કલા": 8433,
      "▁સસ": 8434,
      "▁બળતરા": 8435,
      "નાત": 8436,
      "નિષ": 8437,
      "▁નિરાશા": 8438,
      "▁લેશે.": 8439,
      "▁મહિનાના": 8440,
      "▁વાંકાને": 8441,
      "▁આડે": 8442,
      "▁પટેલની": 8443,
      "▁માગતા": 8444,
      "▁આશ્રમ": 8445,
      "▁દુષ્કર્મ": 8446,
      "▁ચાઇ": 8447,
      "બહેન": 8448,
      "▁મહેર": 8449,
      "▁પૂ.": 8450,
      "▁વિવાહ": 8451,
      "વસ્તુ": 8452,
      "▁નગરમાં": 8453,
      "▁સંસ": 8454,
      "▁૫.": 8455,
      "▁ગણુ": 8456,
      "▁બચવા": 8457,
      "▁બતાવવા": 8458,
      "▁અટકાવી": 8459,
      "▁કૃષ્": 8460,
      "▁કેના": 8461,
      "▁દાવ": 8462,
      "ન્થ": 8463,
      "▁આપશે.\n": 8464,
      "▁કરાઇ": 8465,
      "▁વળગી": 8466,
      "▁ચેતન": 8467,
      "▁બિલા": 8468,
      "▁કુશળતા": 8469,
      "▁અરુ": 8470,
      "▁માલિકી": 8471,
      "▁બોલિવૂ": 8472,
      "▁નિર્ણયો": 8473,
      "▁મરજી": 8474,
      "▁ક્રાઈમ": 8475,
      "ભાવી": 8476,
      "▁સમે": 8477,
      "▁જશે,": 8478,
      "▁હીરો": 8479,
      "▁દ્રશ્ય": 8480,
      "▁જોવાનું": 8481,
      "▁બનાવવાનું": 8482,
      "▁મૂક્યો": 8483,
      "▁ઓપરે": 8484,
      "▁કાર્યાલય": 8485,
      "ણીમાં": 8486,
      "▁એમાંથી": 8487,
      "▁જંગલ": 8488,
      "▁પીવા": 8489,
      "▁દુર્ગ": 8490,
      "▁અપાર": 8491,
      "ઢિ": 8492,
      "▁નંદ": 8493,
      "બોર્ડ": 8494,
      "▁ઘટીને": 8495,
      "▁પ્રદર્શ": 8496,
      "▁ભયાનક": 8497,
      "▁સાદા": 8498,
      "નામું": 8499,
      "▁ઃ": 8500,
      "▁માળખા": 8501,
      "યામ": 8502,
      "ઝીલેન્ડ": 8503,
      "▁પરમેશ્વર": 8504,
      "ારામાં": 8505,
      "ડાયા": 8506,
      "▁પરિણ": 8507,
      "▁પૈસાની": 8508,
      "▁લક્ષ્મ": 8509,
      "▁સાપ": 8510,
      "▁ફ્રેન્ડ": 8511,
      "▁કાનૂની": 8512,
      "▁એન્જિનિયર": 8513,
      "ર્થી": 8514,
      "▁તારીખે": 8515,
      "▁દર્શાવી": 8516,
      "▁બાગ": 8517,
      "▁પીપ": 8518,
      "▁ભારતીયો": 8519,
      "ફળતા": 8520,
      "▁તણા": 8521,
      "▁વર્તુ": 8522,
      "▁શાર": 8523,
      "▁શોમાં": 8524,
      "▁વલ્લભ": 8525,
      "કાથી": 8526,
      "▁વિડિયો": 8527,
      "તીમાં": 8528,
      "▁સમ્": 8529,
      "▁સ્ત્રીએ": 8530,
      "▁જુલાઇ": 8531,
      "▁તેવુ": 8532,
      "▁ખાટા": 8533,
      "▁મુકવામાં": 8534,
      "▁બનાવ્યું": 8535,
      "▁મેળવીને": 8536,
      "મુખી": 8537,
      "▁બંનેએ": 8538,
      "જુરી": 8539,
      "▁શીત": 8540,
      "▁લાલચ": 8541,
      "▁અહેવાલો": 8542,
      "▁મીન": 8543,
      "▁કરતા.": 8544,
      "▁મંદી": 8545,
      "▁મગફ": 8546,
      "▁સમર્પિત": 8547,
      "▁દર્દીઓની": 8548,
      "▁આકાશમાં": 8549,
      "▁રત્": 8550,
      "▁સ્પો": 8551,
      "▁ઈલેક્ટ": 8552,
      "▁ડેવલ": 8553,
      "▁વરસાદને": 8554,
      "▁દુર્લભ": 8555,
      "▁દેસાઈ": 8556,
      "▁લોકડાઉ": 8557,
      "▁સમૃદ્ધિ": 8558,
      "▁માંડે": 8559,
      "▁ઢગ": 8560,
      "▁પહોંચાડી": 8561,
      "▁લગી": 8562,
      "▁નહી,": 8563,
      "▁છત": 8564,
      "▁મંત્રાલયે": 8565,
      "▁શોધખોળ": 8566,
      "વત્": 8567,
      ".....": 8568,
      "▁હ્યુ": 8569,
      "▁મેળવવામાં": 8570,
      "▁યુદ્ધમાં": 8571,
      "▁રાધા": 8572,
      "▁બહારના": 8573,
      "ગ્ગા": 8574,
      "▁જાં": 8575,
      "રિયલ": 8576,
      "ર્સમાં": 8577,
      "▁લાકડી": 8578,
      "▁મહાભાર": 8579,
      "મળ": 8580,
      "▁નાખવામાં": 8581,
      "ઝેશન": 8582,
      "▁વિઝા": 8583,
      "સાસ": 8584,
      "▁વિપુલ": 8585,
      "▁અભિમાન": 8586,
      "▁વાં": 8587,
      "▁લેશે": 8588,
      "▁પાર્ટીમાં": 8589,
      "▁હડતા": 8590,
      "▁નેગે": 8591,
      "▁યુક્રેન": 8592,
      "▁વળે": 8593,
      "▁જોડાણ": 8594,
      "▁જમણી": 8595,
      "▁પહેલું": 8596,
      "▁સર્જરી": 8597,
      "▁મહાવીર": 8598,
      "તમે": 8599,
      "▁પધ": 8600,
      "▁વિકે": 8601,
      "▁રેસ્ટોરન્ટ": 8602,
      "▁કોરોનાને": 8603,
      "▁પ્રજાને": 8604,
      "▁પ્રણ": 8605,
      "ક્ક": 8606,
      "▁સુધી,": 8607,
      "▁પૂરતા": 8608,
      "▁માર્કેટિંગ": 8609,
      "▁અસ્": 8610,
      "▁કિસ્સો": 8611,
      "▁ચોખા": 8612,
      "▁લોખંડ": 8613,
      "▁જણાવાયું": 8614,
      "▁દાહોદ": 8615,
      "▁તુલસી": 8616,
      "ખાર": 8617,
      "તવ્ય": 8618,
      "ધૂ": 8619,
      "▁તુજ": 8620,
      "ર્સ,": 8621,
      "▁લેતી": 8622,
      "▁ચૈતન્ય": 8623,
      "ૈા": 8624,
      "૨૩": 8625,
      "▁પરિમા": 8626,
      "▁લાગ્યો.": 8627,
      "▁લડવા": 8628,
      "▁ગૃહમંત્રી": 8629,
      "▁ઉત્સવ": 8630,
      "▁અભિવ્ય": 8631,
      "▁પળ": 8632,
      "▁આવે.\n": 8633,
      "▁સહાયક": 8634,
      "આઈએ": 8635,
      "▁પહેરીને": 8636,
      "▁સમજાવી": 8637,
      "▁કથિત": 8638,
      "▁છેકરા": 8639,
      "▁લખ્યા": 8640,
      "▁દરજ્": 8641,
      "▁વૈષ્ણ": 8642,
      "▁એચ.": 8643,
      "ચૂ": 8644,
      "▁તે\n": 8645,
      "સ્ટિટ": 8646,
      "▁400": 8647,
      "▁આવાસ": 8648,
      "▁પૃ.": 8649,
      "▁દલિત": 8650,
      "▁થઈ,": 8651,
      "▁આક્રમ": 8652,
      "▁ક્રુ": 8653,
      "▁તર્ક": 8654,
      "▁મુળ": 8655,
      "તોની": 8656,
      "▁આરોપીને": 8657,
      "▁એકત્રિત": 8658,
      "▁ત્ય": 8659,
      "▁તેજી": 8660,
      "▁ભણે": 8661,
      "▁ઇમે": 8662,
      "▁રસાય": 8663,
      "▁સ્મિત": 8664,
      "▁અ.": 8665,
      "▁પડે,": 8666,
      "▁ચોર": 8667,
      "▁ફિલ્મની": 8668,
      "▁સ્થિતિને": 8669,
      "▁વિધવા": 8670,
      "▁ઉઘા": 8671,
      "ુ,": 8672,
      "▁સુન": 8673,
      "શાસ": 8674,
      "▁દીવા": 8675,
      "▁રંગી": 8676,
      "▁લગ્નમાં": 8677,
      "▁અમિતાભ": 8678,
      "ુલ": 8679,
      "▁કટોક": 8680,
      "▁ફતે": 8681,
      "▁સમાજની": 8682,
      "▁અગાઉના": 8683,
      "▁શરદ": 8684,
      "▁નિષ્ણાત": 8685,
      "▁પ્રતિજ્ઞા": 8686,
      "▁ઉમેર્યું": 8687,
      "▁અવસ્થામાં": 8688,
      "▁ઈન્ડસ્ટ્રી": 8689,
      "▁સ્થાયી": 8690,
      "▁મહિમા": 8691,
      "▁તેહ": 8692,
      "▁કેઃ": 8693,
      "▁વિધા": 8694,
      "▁વહીવટ": 8695,
      "▁વિશ્લેષણ": 8696,
      "વારિક": 8697,
      "ૉક": 8698,
      "▁સાથે.": 8699,
      "▁નિવૃત્ત": 8700,
      "▁કારણે,": 8701,
      "▁સર્જાયો": 8702,
      "▁પ્રાંત": 8703,
      "▁ખેત": 8704,
      "▁પુસ્તકા": 8705,
      "▁દારૂની": 8706,
      "▁અનિવાર્ય": 8707,
      "ખ્ય": 8708,
      "લૅ": 8709,
      "▁કબજો": 8710,
      "▁મેર": 8711,
      "▁બીમાર": 8712,
      "▁દુકાનો": 8713,
      "વાળા,": 8714,
      "▁ધર્મની": 8715,
      "▁કિસાન": 8716,
      "પણા": 8717,
      "પેશ": 8718,
      "▁ક્રમમાં": 8719,
      "▁જોડાયેલ": 8720,
      "▁જંગલમાં": 8721,
      "▁ઉગા": 8722,
      "▁રાસ": 8723,
      "▁વેલ": 8724,
      "▁સૌપ્રથમ": 8725,
      "▁બ્લોક": 8726,
      "▁દુશ્મન": 8727,
      "▁શોખ": 8728,
      "▁આઝાદી": 8729,
      "▁સેક્રેટરી": 8730,
      "ળીઓ": 8731,
      "▁હૈા": 8732,
      "▁ઉદ્યોગો": 8733,
      "▁મુસાફરો": 8734,
      "▁વૈરાગ્ય": 8735,
      "▁કેક": 8736,
      "▁ડિલિવ": 8737,
      "▁અભિગમ": 8738,
      "▁છેડે": 8739,
      "▁બ્લા": 8740,
      "પસંદ": 8741,
      "▁ધરે": 8742,
      "ડીઝ": 8743,
      "▁ભાવા": 8744,
      "▁સુંદરતા": 8745,
      "▁યોજાઈ": 8746,
      "ખમ": 8747,
      "ગારે": 8748,
      "▁ખંભા": 8749,
      "બડ": 8750,
      "▁કેદી": 8751,
      "▁લાકા": 8752,
      "▁ઇત્યાદિ": 8753,
      "▁મોંઘવારી": 8754,
      "▁પાર્ટનર": 8755,
      "▁એલે": 8756,
      "લિસ્ટ": 8757,
      "▁બૌદ્ધ": 8758,
      "▁ઉપરોક્ત": 8759,
      "▁પ્રભારી": 8760,
      "જીવી": 8761,
      "નેજ": 8762,
      "▁ગામડા": 8763,
      "▁ઉલ્લંઘન": 8764,
      "નાઈ": 8765,
      "પાના": 8766,
      "▁પ્રેક્ટ": 8767,
      "રૂમમાં": 8768,
      "▁યુપી": 8769,
      "▁ગાદી": 8770,
      "કર,": 8771,
      "▁પિતાના": 8772,
      "▁પેસ્ટ": 8773,
      "▁ભાગોમાં": 8774,
      "ડિયમ": 8775,
      "▁જીતે": 8776,
      "▁સેવામાં": 8777,
      "▁લાઈન": 8778,
      "ભેર": 8779,
      "▁ક્ષય": 8780,
      "▁કોર્પોરેટ": 8781,
      "▁ગિર": 8782,
      "▁તરફે": 8783,
      "▁મનોજ": 8784,
      "નસ": 8785,
      "સ્ત્રા": 8786,
      "▁સ્વાર્થ": 8787,
      "▁આઈ.": 8788,
      "▁શપથ": 8789,
      "▁સુની": 8790,
      "▁મળેલ": 8791,
      "▁પૂર્વક": 8792,
      "▁ઠાકોર": 8793,
      "મણુ": 8794,
      "કીંગ": 8795,
      "▁બેઠે": 8796,
      "સનીય": 8797,
      "ઇસ": 8798,
      "▁પેમેન્ટ": 8799,
      "▁શરત": 8800,
      "▁જોડાઈ": 8801,
      "▁નિમણૂક": 8802,
      "▁પ્રતિબિંબ": 8803,
      "▁સજ્": 8804,
      "▁ઇન્ડિયન": 8805,
      "પડ": 8806,
      "દ્ધાં": 8807,
      "▁યાર્": 8808,
      "▁ટાટા": 8809,
      "▁મ્હે": 8810,
      "▁ઉકા": 8811,
      "▁વજ": 8812,
      "લાપ": 8813,
      "▁પ્રહ": 8814,
      "▁પરિબળો": 8815,
      "▁ગર્લ": 8816,
      "ડાટ": 8817,
      "▁ઇચ્છે": 8818,
      "▁બેઠો": 8819,
      "ત્રિમ": 8820,
      "▁મિલ્": 8821,
      "▁શાળાઓ": 8822,
      "▁આવુ": 8823,
      "▁સેક્ટર": 8824,
      "લનાડુ": 8825,
      "▁ભેા": 8826,
      "▁અંદરથી": 8827,
      "▁ઉનાળામાં": 8828,
      "કળા": 8829,
      "▁પરસે": 8830,
      "▁ઉત્પાદક": 8831,
      "▁ચિત્": 8832,
      "▁ધીમી": 8833,
      "▁2012": 8834,
      "▁હૈ,": 8835,
      "▁આવતીકાલે": 8836,
      "દ્દીન": 8837,
      "▁ઇતિહાસમાં": 8838,
      "▁એકમ": 8839,
      "▁રાખવાનું": 8840,
      "▁ક્રીમ": 8841,
      "▁કિડની": 8842,
      "▁સવારના": 8843,
      "▁પાઈ": 8844,
      "▁મધ્યમાં": 8845,
      "▁ઇટા": 8846,
      "▁વેચવા": 8847,
      "ગર્": 8848,
      "▁પ્રદૂ": 8849,
      "▁સાલ": 8850,
      "ગ્ને": 8851,
      "▁ધર્મે": 8852,
      "ચ,": 8853,
      "▁વધશે.": 8854,
      "ફાની": 8855,
      "▁કાઢીને": 8856,
      "▁સરખામણીમાં": 8857,
      "▁જેમા": 8858,
      "▁નવાઈ": 8859,
      "▁લાભાર્થી": 8860,
      "▁રિપોર્ટમાં": 8861,
      "ખત": 8862,
      "▁નગરપાલિકા": 8863,
      "▁એક્શન": 8864,
      "▁કરવી.": 8865,
      "▁મહારાષ્ટ્રના": 8866,
      "▁ઝર": 8867,
      "ધના": 8868,
      "ળીએ": 8869,
      "સિસ્ટ": 8870,
      "▁મણ": 8871,
      "▁વિવેચન": 8872,
      "▁પ્રહાર": 8873,
      "▁સાયન્સ": 8874,
      "▁કોલકા": 8875,
      "ભાન": 8876,
      "લેટર": 8877,
      "લીયા": 8878,
      "▁માંડીને": 8879,
      "▁બોન્ડ": 8880,
      "સ્ટેટ": 8881,
      "▁પૅ": 8882,
      "વદ": 8883,
      "▁સ્ટેજ": 8884,
      "▁વળી,": 8885,
      "▁પ્લોટ": 8886,
      "▁અંડર": 8887,
      "ધર્મો": 8888,
      "▁સ્તન": 8889,
      "ગીર": 8890,
      "▁ઝટ": 8891,
      "▁કલાકની": 8892,
      "▁ઇનિંગ": 8893,
      "કામના": 8894,
      "ત્રિક": 8895,
      "▁જગ્યાઓ": 8896,
      "▁ફર્નિ": 8897,
      "▁નકલી": 8898,
      "લાન": 8899,
      "મીને": 8900,
      "▁હવે,": 8901,
      "નાર,": 8902,
      "▁પાંદડા": 8903,
      "ંશી": 8904,
      "▁કહે,": 8905,
      "▁રોજગારી": 8906,
      "▁ઉમેરી": 8907,
      "▁ગણિત": 8908,
      "▁કરવું,": 8909,
      "▁કુશળ": 8910,
      "▁દરખાસ્ત": 8911,
      "કનો": 8912,
      "▁રાખ્યો": 8913,
      "▁સ્પીડ": 8914,
      "▁નળ": 8915,
      "કીના": 8916,
      "▁ગેટ": 8917,
      "હવા": 8918,
      "તા.\n": 8919,
      "▁અંશ": 8920,
      "મહે": 8921,
      "રાજે": 8922,
      "▁લાગશે": 8923,
      "▁લાગ્યા,": 8924,
      "▁અપરાધ": 8925,
      "ગુજરા": 8926,
      "▁તરતજ": 8927,
      "▁રોમાં": 8928,
      "મ્પલ": 8929,
      "▁જુનાગઢ": 8930,
      "▁ભેગ": 8931,
      "▁વાપરવા": 8932,
      "વણુ": 8933,
      "લ્સને": 8934,
      "▁મેડી": 8935,
      "િયું": 8936,
      "▁સોનું": 8937,
      "જેક્શન": 8938,
      "▁શાહરૂ": 8939,
      "▁જીએસટી": 8940,
      "▁લાંચ": 8941,
      "▁ભૂકંપ": 8942,
      "▁ચોરસ": 8943,
      "▁ગુલામ": 8944,
      "▁અજમા": 8945,
      "▁લખાણ": 8946,
      "▁તલવાર": 8947,
      "૧૫": 8948,
      "શ્મા": 8949,
      "્સની": 8950,
      "▁કરવી,": 8951,
      "કથી": 8952,
      "પર્": 8953,
      "ફાઈ": 8954,
      "▁વિશ્ર": 8955,
      "▁નાખીને": 8956,
      "સ્કે": 8957,
      "▁પહેાં": 8958,
      "▁શાસ્ત્રો": 8959,
      "▁જવાને": 8960,
      "▁43": 8961,
      "▁તારો": 8962,
      "બાના": 8963,
      "▁મુદ્દામાલ": 8964,
      "▁સંબ": 8965,
      "▁ફેલાઈ": 8966,
      "▁દસ્તાવેજ": 8967,
      "યે,": 8968,
      "પીને": 8969,
      "▁પંથકમાં": 8970,
      "▁39": 8971,
      "▁નિત": 8972,
      "▁ઘાસ": 8973,
      "▁કોવિડ19": 8974,
      "▁વાસ્તે": 8975,
      "▁ગાંઠ": 8976,
      "▁બાંગ્લાદેશ": 8977,
      "▁ફાઉન્": 8978,
      "ઠ્ઠ": 8979,
      "જરૂ": 8980,
      "▁જાતીય": 8981,
      "▁અનુભવે": 8982,
      "▁પ્રમાણપત્ર": 8983,
      "▁એટી": 8984,
      "ન્જર": 8985,
      "▁પાથ": 8986,
      "▁જાણવું": 8987,
      "બર્ગ": 8988,
      "▁ટાર્": 8989,
      "▁હોટે": 8990,
      "▁ક્ષત્ર": 8991,
      "▁પાછળના": 8992,
      "▁ચુસ્ત": 8993,
      "▁ઉછેર": 8994,
      "લીસ": 8995,
      "▁બોલ્ડ": 8996,
      "▁લાગતી": 8997,
      "▁લાઈક": 8998,
      "▁સ્પષ્ટતા": 8999,
      "▁સત્સ": 9000,
      "▁સર્કલ": 9001,
      "▁ગ્રામી": 9002,
      "▁ભાજપમાં": 9003,
      "ટ્સએપ": 9004,
      "વય": 9005,
      "▁પટેલના": 9006,
      "સાહેબ": 9007,
      "▁માના": 9008,
      "▁જોયો": 9009,
      "▁જાણું": 9010,
      "25": 9011,
      "▁આવવું": 9012,
      "▁ઈશ": 9013,
      "▁પ્રતિનિધિત્વ": 9014,
      "▁સિનિયર": 9015,
      "▁જેમકે": 9016,
      "▁આત્મવિશ્વાસ": 9017,
      "▁જસ": 9018,
      "કાશ્મી": 9019,
      "▁1000": 9020,
      "▁તાલ": 9021,
      "▁બાદશાહ": 9022,
      "17": 9023,
      "▁અળ": 9024,
      "▁ભૂતકાળ": 9025,
      "▁46": 9026,
      "કાર્પણ": 9027,
      "તીએ": 9028,
      "▁2011": 9029,
      "▁વિકાર": 9030,
      "▁પેઇન્ટ": 9031,
      "▁રિલાયન્સ": 9032,
      "▁મામા": 9033,
      "▁ટાઈમ": 9034,
      "▁સાડી": 9035,
      "▁રામાય": 9036,
      "રુપ": 9037,
      "▁દ્વેષ": 9038,
      "▁વિવા": 9039,
      "▁બેન્ડ": 9040,
      "શ્રુ": 9041,
      "▁અંકુ": 9042,
      "▁આવડ": 9043,
      "▁પ્રથમ,": 9044,
      "ક્કો": 9045,
      "▁આપ્યું.": 9046,
      "▁સુરેશ": 9047,
      "▁બિમારી": 9048,
      "▁નોંધવામાં": 9049,
      "▁બનાવવાનો": 9050,
      "▁શ્રો": 9051,
      "▁મકાનમાં": 9052,
      "▁સૌંદર્ય": 9053,
      "પ્ટર": 9054,
      "▁શકશો.": 9055,
      "ન્ડા": 9056,
      "▁ચુકી": 9057,
      "દશા": 9058,
      "બ્રિ": 9059,
      "▁દિવ્યા": 9060,
      "થુન": 9061,
      "▁પ્યાર": 9062,
      "▁ભટ્": 9063,
      "▁ધર્મા": 9064,
      "▁કોર": 9065,
      "▁આવેલાં": 9066,
      "▁મનસુખ": 9067,
      "▁ફાસ્ટ": 9068,
      "▁પારિવારિક": 9069,
      "▁રૈ": 9070,
      "▁બસો": 9071,
      "નોના": 9072,
      "▁ફરે": 9073,
      "▁શ્રેય": 9074,
      "▁તવ": 9075,
      "▁મૌન": 9076,
      "▁ટકાથી": 9077,
      "▁પટેલને": 9078,
      "▁ચામડી": 9079,
      "▁થોડીવાર": 9080,
      "▁ઉપકરણો": 9081,
      "▁નિવેદનમાં": 9082,
      "▁ગવર્નર": 9083,
      "▁પતા": 9084,
      "▁ફ્રેન્ચ": 9085,
      "▁વસ્ત્રો": 9086,
      "▁પ્રેમથી": 9087,
      "▁પ્રતિષ્ઠ": 9088,
      "▁વિચારા": 9089,
      "▁નષ્ટ": 9090,
      "▁પેશા": 9091,
      "▁....": 9092,
      "▁તટ": 9093,
      "▁ડ્રાઈવર": 9094,
      "▁ઉજ્જ": 9095,
      "▁નારા": 9096,
      "▁ગુજ": 9097,
      "▁યાદવ": 9098,
      "▁ફ્લાઈ": 9099,
      "ખરી": 9100,
      "ધાં": 9101,
      "▁મીની": 9102,
      "▁સાયકલ": 9103,
      "વીય": 9104,
      "▁ક્લાસ": 9105,
      "▁ઢાંક": 9106,
      "▁પુનરાવ": 9107,
      "▁નાઇટ": 9108,
      "▁નિષ્ફળતા": 9109,
      "▁કડી": 9110,
      "▁સંપ્રદાય": 9111,
      "▁વનમાં": 9112,
      "▁કુર": 9113,
      "અમે": 9114,
      "▁વિ.": 9115,
      "▁ગળા": 9116,
      "રીંગ": 9117,
      "સીબે": 9118,
      "▁ઝિ": 9119,
      "▁પ્રબળ": 9120,
      "▁ચારેય": 9121,
      "શો,": 9122,
      "▁બ્લે": 9123,
      "▁તમારૂં": 9124,
      "▁રૂપિયાનું": 9125,
      "▁કૌભાંડ": 9126,
      "લક્ષ": 9127,
      "સરી": 9128,
      "▁એકલી": 9129,
      "પ્રમુખ": 9130,
      "▁ઠાકરે": 9131,
      "▁સાથે.\n": 9132,
      "▁પોલીસમાં": 9133,
      "▁તુમ": 9134,
      "▁કલાકો": 9135,
      "▁માહા": 9136,
      "▁ગાર": 9137,
      "▁ખેર": 9138,
      "જીનું": 9139,
      "▁મૂકો": 9140,
      "▁મેરે": 9141,
      "મુક્ત": 9142,
      "▁થયું,": 9143,
      "▁પરીક્ષામાં": 9144,
      "▁ઇંગ્લેન્ડ": 9145,
      "૧૭": 9146,
      "▁ઘરેથી": 9147,
      "▁પ્રવી": 9148,
      "▁સ્રો": 9149,
      "▁એડિ": 9150,
      "▁પ્રમોશન": 9151,
      "▁આદત": 9152,
      "▁આંખમાં": 9153,
      "▁યુનિવર્સિટીના": 9154,
      "▁દ્રા": 9155,
      "▁દિવાલ": 9156,
      "▁શેરબજાર": 9157,
      "▁કુંવર": 9158,
      "▁છૂટી": 9159,
      "▁જરૂરિયાતો": 9160,
      "ફ્રાસ્ટ્ર": 9161,
      "સતા": 9162,
      "▁કશી": 9163,
      "▁પાઉ": 9164,
      "▁દીપક": 9165,
      "▁પ્રેક્ષ": 9166,
      "▁માતાએ": 9167,
      "▁અટકાયત": 9168,
      "બરી": 9169,
      "મૂલ": 9170,
      "▁ઞ": 9171,
      "▁જજ": 9172,
      "▁કરતા,": 9173,
      "▁કોલેજમાં": 9174,
      "ૃશ્ય": 9175,
      "▁પાલિકા": 9176,
      "▁શાન્તિ": 9177,
      "▁બધે": 9178,
      "▁આર્મી": 9179,
      "▁વ્યવસ્થિત": 9180,
      "▁અભિષેક": 9181,
      "▁લાશ": 9182,
      "▁બોય": 9183,
      "▁કિનારા": 9184,
      "▁જેમના": 9185,
      "▁મળેલા": 9186,
      "▁પાદશાહ": 9187,
      "▁હ્રદય": 9188,
      "કરને": 9189,
      "▁બહારથી": 9190,
      "▁કહેતાં": 9191,
      "▁અવગ": 9192,
      "▁પઢ": 9193,
      "▁ભગવાનને": 9194,
      "16": 9195,
      "▁કચરો": 9196,
      "▁રોજિ": 9197,
      "▁માળખું": 9198,
      "▁ચૂપ": 9199,
      "▁ગોર": 9200,
      "▁અઠવાડિયામાં": 9201,
      "▁ચુંટણી": 9202,
      "▁ગોંડલ": 9203,
      "ંડે": 9204,
      "બમાં": 9205,
      "▁ગુણધર્મો": 9206,
      "▁ગ્લે": 9207,
      "▁ફાઉન્ડે": 9208,
      "▁ચેન્ના": 9209,
      "80": 9210,
      "▁વયના": 9211,
      "▁રાજકારણ": 9212,
      "▁બદલાવ": 9213,
      "▁ભગવાનના": 9214,
      "▁કેન્દ્રમાં": 9215,
      "▁જાળવણી": 9216,
      "▁કોન્સ્ટે": 9217,
      "ધમાં": 9218,
      "▁સાગ": 9219,
      "▁સાંજના": 9220,
      "▁દરોડા": 9221,
      "▁પ્રોફેસર": 9222,
      "▁ધસી": 9223,
      "▁પાંડે": 9224,
      "▁છત્ર": 9225,
      "▁ઝડપે": 9226,
      "▁ફેફ": 9227,
      "▁56": 9228,
      "▁રાજાની": 9229,
      "▁મહત્વનો": 9230,
      "▁તલા": 9231,
      "▁દળ": 9232,
      "▁પીર": 9233,
      "▁પત્રમાં": 9234,
      "▁સોસાયટીમાં": 9235,
      "▁એ,": 9236,
      "્યાની": 9237,
      "બસ્ત": 9238,
      "▁પીળા": 9239,
      "▁મનુષ્યને": 9240,
      "▁અહીંના": 9241,
      "ડેલા": 9242,
      "▁વાવ": 9243,
      "મોને": 9244,
      "▁સૈનિકો": 9245,
      "▁બિર": 9246,
      "▁બનાવની": 9247,
      "▁પાંચમા": 9248,
      "▁જ્યોતિષ": 9249,
      "▁મંદિરની": 9250,
      "▁એડવા": 9251,
      "▁રસોઈ": 9252,
      "▁સળગ": 9253,
      "ાજ": 9254,
      "▁ગ્રો": 9255,
      "▁લાવ્યા": 9256,
      "મિટ": 9257,
      "▁ટીમની": 9258,
      "▁પતિએ": 9259,
      "યું.": 9260,
      "▁અવ્ય": 9261,
      "▁ત્યારપછી": 9262,
      "▁એપિ": 9263,
      "ભાવસ્થા": 9264,
      "▁દીધા.": 9265,
      "▁કોરોનાથી": 9266,
      "કુમારી": 9267,
      "▁વિનાશ": 9268,
      "▁કરીશું.": 9269,
      "▁તેઓના": 9270,
      "▁ઉંમરના": 9271,
      "▁ગુર": 9272,
      "▁મામલામાં": 9273,
      "▁જોડાયેલી": 9274,
      "▁ક્રાઇમ": 9275,
      "થના": 9276,
      "્ડ": 9277,
      "▁તૂટ": 9278,
      "▁કરવાં": 9279,
      "▁રિપ": 9280,
      "▁કડવા": 9281,
      "▁માતાની": 9282,
      "▁બોલિંગ": 9283,
      "▁વર્ગના": 9284,
      "સી.": 9285,
      "▁માધવ": 9286,
      "▁સૂચન": 9287,
      "▁ચતુર": 9288,
      "▁સ્ત્રીઓને": 9289,
      "▁અહંકાર": 9290,
      "▁સે.": 9291,
      "▁બાલા": 9292,
      "▁વાડી": 9293,
      "▁સાવર": 9294,
      "શ્રીએ": 9295,
      "▁અપાય": 9296,
      "કાઇ": 9297,
      "સાઇડ": 9298,
      "▁કૃત્રિમ": 9299,
      "▁વિદેશમાં": 9300,
      "▁યથાવત": 9301,
      "▁તાલા": 9302,
      "▁ચિહ્ન": 9303,
      "ભવતી": 9304,
      "▁બોલ્યા": 9305,
      "▁મનીષ": 9306,
      "▁આવકાર": 9307,
      "▁માનસ": 9308,
      "પુરૂ": 9309,
      "ટ્રા": 9310,
      "▁અંગ્રેજો": 9311,
      "▁સદીમાં": 9312,
      "▁માધ્યમિક": 9313,
      "▁લય": 9314,
      "▁કારખા": 9315,
      "▁દુષ્": 9316,
      "કરાર": 9317,
      "▁મોઢા": 9318,
      "▁હૈાય": 9319,
      "▁પતંગ": 9320,
      "્યારા": 9321,
      "▁ઘસ": 9322,
      "▁નેહા": 9323,
      "▁પેટે": 9324,
      "ન્સને": 9325,
      "▁પ્રચલિત": 9326,
      "▁૩૭": 9327,
      "▁પરિષદ": 9328,
      "ન્ગ": 9329,
      "▁સરકારમાં": 9330,
      "▁આશંકા": 9331,
      "▁રનની": 9332,
      "▁મોઢ": 9333,
      "▁વિચારમાં": 9334,
      "▁મોરબીના": 9335,
      "▁પેકેજ": 9336,
      "▁યંત્ર": 9337,
      "▁કેટલાં": 9338,
      "છેડા": 9339,
      "▁ટોચના": 9340,
      "▁પાતાને": 9341,
      "▁ચૌધ": 9342,
      "પક્ષી": 9343,
      "▁વધા": 9344,
      "▁રેન્": 9345,
      "▁જણાવેલ": 9346,
      "▁દત્ત": 9347,
      "▁પ્રેમની": 9348,
      "▁ફરમા": 9349,
      "લૂ": 9350,
      "▁નિદ્રા": 9351,
      "▁પેહે": 9352,
      "▁અડચ": 9353,
      "▁ગ્લોબલ": 9354,
      "▁અની": 9355,
      "▁શિલા": 9356,
      "▁મુકાબ": 9357,
      "▁કોરિયા": 9358,
      "▁શિષ": 9359,
      "▁મનના": 9360,
      "▁ડગ": 9361,
      "જન્સી": 9362,
      "▁ભુજ": 9363,
      "રીક": 9364,
      "▁47": 9365,
      "▁ડૂબી": 9366,
      "▁નાજ": 9367,
      "▁રેસ": 9368,
      "લ્લુ": 9369,
      "▁રેડિયો": 9370,
      "▁સત્યા": 9371,
      "▁માનીએ": 9372,
      "મેં": 9373,
      "ંદના": 9374,
      "▁લેનાર": 9375,
      "▁કીધું": 9376,
      "▁અગાઉથી": 9377,
      "▁વાદળી": 9378,
      "▁મેઘા": 9379,
      "▁કપિલ": 9380,
      "▁મંચ": 9381,
      "▁ચીની": 9382,
      "વ્યૂ": 9383,
      "▁ટ્રમ્પ": 9384,
      "▁સરા": 9385,
      "▁બુદ્ધ": 9386,
      "▁નૈતિક": 9387,
      "▁ી": 9388,
      "વેદ": 9389,
      "▁કારણથી": 9390,
      "▁બહુજ": 9391,
      "▁વાતે": 9392,
      "▁ગુફા": 9393,
      "▁નોન": 9394,
      "▁૬.": 9395,
      "▁સંસ્થાના": 9396,
      "▁પચાસ": 9397,
      "▁ગાળામાં": 9398,
      "▁શ્રી.": 9399,
      "ટ્ટો": 9400,
      "▁પૂછવામાં": 9401,
      "▁નિશાની": 9402,
      "▁હસ્તા": 9403,
      "દાના": 9404,
      "▁બોમ્બ": 9405,
      "▁મેળવો": 9406,
      "▁સંભાળી": 9407,
      "▁પિતૃ": 9408,
      "▁નમૂના": 9409,
      "▁ફટા": 9410,
      "▁હિતે": 9411,
      "▁રાજેશ": 9412,
      "▁જબરદ": 9413,
      "વવાનું": 9414,
      "૧૪": 9415,
      "▁વિદ્યાર્થીઓએ": 9416,
      "▁પક્ષમાં": 9417,
      "▁કરના": 9418,
      "▁મુકે": 9419,
      "▁રાજન": 9420,
      "▁આપણો": 9421,
      "▁ફ્લાઇટ": 9422,
      "▁ફ્લોર": 9423,
      "ાએ": 9424,
      "▁કામકાજ": 9425,
      "▁કમન": 9426,
      "▁જ્યુ": 9427,
      "▁શકયા": 9428,
      "▁કીર્તિ": 9429,
      "▁ખાનની": 9430,
      "▁બતાવવામાં": 9431,
      "▁એકી": 9432,
      "▁ઓલિ": 9433,
      "▁યુવકે": 9434,
      "▁એડી": 9435,
      "▁ભાં": 9436,
      "ાવતી": 9437,
      "સ્થાપિત": 9438,
      "▁છુટા": 9439,
      "▁જયાં": 9440,
      "દેવે": 9441,
      "▁પીવાથી": 9442,
      "તારા": 9443,
      "▁રતન": 9444,
      "▁લાખા": 9445,
      "બ્યુલ": 9446,
      "▁સ્માર": 9447,
      "▁રેશ": 9448,
      "▁માણસની": 9449,
      "▁પઠા": 9450,
      "▁હાઇડ": 9451,
      "▁ઈન્ડિયન": 9452,
      "▁કરે.\n": 9453,
      "▁સિલિ": 9454,
      "તરની": 9455,
      "▁ચીનની": 9456,
      "▁મોટાભાગની": 9457,
      "▁માજી": 9458,
      "▁રીક્ષા": 9459,
      "▁ગેમ": 9460,
      "▁ઝઘડો": 9461,
      "▁શાહરૂખ": 9462,
      "ળિયા": 9463,
      "રાજી": 9464,
      "▁ધૈ": 9465,
      "▁મુલ": 9466,
      "▁ભગવાને": 9467,
      "કડું": 9468,
      "ષણા": 9469,
      "▁લો.\n": 9470,
      "▁લોકાર્પણ": 9471,
      "▁ઊતર": 9472,
      "▁સ્થાપન": 9473,
      "ઝાર": 9474,
      "મેટા": 9475,
      "વિજ્ઞાન": 9476,
      "્સના": 9477,
      "▁નિર્ધારિત": 9478,
      "▁ગેરહાજરી": 9479,
      "દ્વાર": 9480,
      "▁નહોતો.": 9481,
      "▁વાંક": 9482,
      "▁રૂપાંતર": 9483,
      "▁શોર્ટ": 9484,
      "▁ઇન્ટરનેશનલ": 9485,
      "▁સમયગાળો": 9486,
      "▁રાજસ્થાનના": 9487,
      "▁ઓડિ": 9488,
      "▁કહેવુ": 9489,
      "▁કામને": 9490,
      "▁કંડ": 9491,
      "▁આપ્યો.": 9492,
      "▁ચુક્યા": 9493,
      "▁સેવક": 9494,
      "રીય": 9495,
      "▁રોય": 9496,
      "ન્દર": 9497,
      "▁હાઇકોર્ટ": 9498,
      "▁લીડ": 9499,
      "▁થયેા": 9500,
      "▁ખાવ": 9501,
      "▁વસવાટ": 9502,
      "▁ફર્નિચર": 9503,
      "સ્કી": 9504,
      "▁સિઝનમાં": 9505,
      "▁મનાય": 9506,
      "▁મજાક": 9507,
      "▁ગ્રામીણ": 9508,
      "▁વહ": 9509,
      "▁મેગા": 9510,
      "▁નોંધાઈ": 9511,
      "▁કહેા": 9512,
      "▁ખાલ": 9513,
      "▁પેલે": 9514,
      "▁ન્યાયાધી": 9515,
      "▁ઇશ": 9516,
      "▁ગોપાલ": 9517,
      "▁ટ્યુબ": 9518,
      "્યુત": 9519,
      "▁કુમારે": 9520,
      "્સને": 9521,
      "▁તહેવારો": 9522,
      "▁બદલવા": 9523,
      "▁મસાલા": 9524,
      "જાન": 9525,
      "બેક": 9526,
      "▁નાખવા": 9527,
      "▁ઓર્ગે": 9528,
      "છું": 9529,
      "▁રૂટ": 9530,
      "▁સ્કૂલમાં": 9531,
      "ધરા": 9532,
[...]
