{"<pad>":0,"<mask>":1,"<unk>":2,"<bos>":3,"<eos>":4,"<user>":5,"<assistant>":6,"0":7,"1":8,"2":9,"3":10,"4":11,"5":12,"6":13,"7":14,"8":15,"9":16,"ઁ":17,"ં":18,"ઃ":19,"અ":20,"આ":21,"ઇ":22,"ઈ":23,"ઉ":24,"ઊ":25,"ઋ":26,"ઍ":27,"એ":28,"ઐ":29,"ઑ":30,"ઓ":31,"ઔ":32,"ક":33,"ખ":34,"ગ":35,"ઘ":36,"ઙ":37,"ચ":38,"છ":39,"જ":40,"ઝ":41,"ઞ":42,"ટ":43,"ઠ":44,"ડ":45,"ઢ":46,"ણ":47,"ત":48,"થ":49,"દ":50,"ધ":51,"ન":52,"પ":53,"ફ":54,"બ":55,"ભ":56,"મ":57,"ય":58,"ર":59,"લ":60,"ળ":61,"વ":62,"શ":63,"ષ":64,"સ":65,"હ":66,"઼":67,"ા":68,"િ":69,"ી":70,"ુ":71,"ૂ":72,"ૃ":73,"ૅ":74,"ે":75,"ૈ":76,"ૉ":77,"ો":78,"ૌ":79,"્":80,"ૐ":81,"ૠ":82,"૦":83,"૧":84,"૨":85,"૩":86,"૪":87,"૫":88,"૬":89,"૭":90,"૮":91,"૯":92,"▁":93,"▁ક":94,"મા":95,"▁પ":96,"▁સ":97,"વા":98,"્ય":99,"ના":100,"ને":101,"્ર":102,"માં":103,"▁ત":104,"ાર":105,"▁આ":106,"▁છ":107,"▁જ":108,"▁અ":109,"▁છે":110,"▁હ":111,"▁મ":112,"▁વ":113,"ની":114,"▁ર":115,"ું":116,"▁બ":117,"▁કર":118,"ર્":119,"તા":120,"▁લ":121,"▁દ":122,"▁ન":123,"▁એ":124,"▁શ":125,"થી":126,"▁તે":127,"્ટ":128,"▁અને":129,"▁ગ":130,"▁કે":131,"▁મા":132,"રા":133,"▁હત":134,"લા":135,"્યા":136,"નો":137,"યા":138,"▁પ્ર":139,"ન્":140,"▁ભ":141,"િક":142,"રી":143,"વી":144,"હે":145,"▁સા":146,"▁થ":147,"ટે":148,"ક્":149,"▁પર":150,"સ્":151,"▁ચ":152,"▁ફ":153,"▁વિ":154,"મે":155,"▁ઉ":156,"િત":157,"ાય":158,"લી":159,"▁ખ":160,"▁રા":161,"▁આવ":162,"નું":163,"ંગ":164,"્યું":165,"ત્ર":166,"શે":167,"▁પણ":168,"▁કો":169,"ાવ":170,"કો":171,"વામાં":172,"▁સ્":173,"રે":174,"ાન":175,"્યો":176,"કે":177,"▁જે":178,"િયા":179,"યો":180,"લ્":181,"ત્":182,"▁કરી":183,"▁ટ":184,"▁માટે":185,"▁પા":186,"તી":187,"ેશ":188,"કા":189,"હી":190,"▁ડ":191,"ધી":192,"તિ":193,"રો":194,"▁ના":195,"ારે":196,"લે":197,"▁એક":198,"▁વા":199,"ણી":200,"▁પો":201,"ક્ષ":202,"▁આપ":203,"▁હતી":204,"▁સુ":205,"▁મો":206,"▁સં":207,"▁હો":208,"▁સમ":209,"▁જો":210,"ામ":211,"ડી":212,"સે":213,"ણે":214,"▁ઘ":215,"તે":216,"▁તેમ":217,"▁લો":218,"થે":219,"▁તો":220,"ટી":221,"કાર":222,"્રી":223,"▁કાર":224,"▁ધ":225,"જી":226,"ાદ":227,"ન્ટ":228,"▁બે":229,"ડા":230,"▁સાથે":231,"▁વર્":232,"▁મે":233,"▁ઓ":234,"વે":235,"ાં":236,"▁હતો":237,"▁હતું":238,"દી":239,"ાઈ":240,"▁વધ":241,"▁હતા":242,"▁રહે":243,"▁જા":244,"જા":245,"ંદ":246,"સ્ટ":247,"ંધ":248,"▁મુ":249,"િવ":250,"િય":251,"ારી":252,"▁મળ":253,"▁મહ":254,"્યારે":255,"ંત":256,"ંચ":257,"▁રહ":258,"▁લા":259,"સી":260,"્રે":261,"ન્ડ":262,"મ્":263,"▁ભાર":264,"▁કરવા":265,"ાલ":266,"▁ઈ":267,"શ્":268,"▁આવી":269,"કી":270,"▁રો":271,"દા":272,"▁સ્થ":273,"▁કરવામાં":274,"યુ":275,"લો":276,"ાસ":277,"વાર":278,"જે":279,"▁નિ":280,"▁ઉપ":281,"શન":282,"િલ્":283,"્યુ":284,"▁તમા":285,"તો":286,"▁લોકો":287,"▁ગુ":288,"ભા":289,"સા":290,"મી":291,"રૂ":292,"▁કોઈ":293,"બર":294,"ણા":295,"વિ":296,"▁પૂ":297,"પી":298,"▁રાજ":299,"▁સિ":300,"▁વર્ષ":301,"▁નથી":302,"▁શકે":303,"▁અન":304,"પ્ર":305,"ાળ":306,"▁સામે":307,"ડો":308,"ગર":309,"▁થઈ":310,"▁ઇ":311,"▁ભા":312,"સ્ત":313,"ંત્ર":314,"વું":315,"▁સર":316,"િલ":317,"દ્":318,"▁લે":319,"િટ":320,"ન્દ":321,"▁ટે":322,"િંગ":323,"▁આવે":324,"ેર":325,"પો":326,"વાદ":327,"છી":328,"▁સુધી":329,"▁યુ":330,"▁યો":331,"▁બો":332,"▁રૂ":333,"▁કહ":334,"વાની":335,"▁વધુ":336,"ેટ":337,"▁જી":338,"સ્થ":339,"િતિ":340,"▁સમય":341,"્વા":342,"ર્ટ":343,"ણાવ":344,"▁માં":345,"દેશ":346,"▁હોય":347,"▁સે":348,"▁કહ્યું":349,"▁નો":350,"રમાં":351,"ીએ":352,"▁ખા":353,"▁પોતા":354,"▁દિવ":355,"▁પોલી":356,"ચ્":357,"▁પછી":358,"વો":359,"▁ને":360,"ટા":361,"▁ઝ":362,"▁ડિ":363,"માન":364,"▁દ્વા":365,"ાર્":366,"▁દ્વારા":367,"▁પુ":368,"▁ભારત":369,"ક્ટ":370,"હીં":371,"ન્દ્ર":372,"ધાન":373,"▁બના":374,"▁૧":375,"▁દર":376,"ગી":377,"▁ચૂ":378,"ષ્ટ":379,"મો":380,"તાં":381,"▁જણાવ":382,"હો":383,"▁વ્ય":384,"▁લગ":385,"▁પહે":386,"▁રહી":387,"સો":388,"▁રી":389,"ન્સ":390,"ારો":391,"ચે":392,"ંટ":393,"▁પડ":394,"▁સો":395,"ેલા":396,"▁આગ":397,"▁સ્ટ":398,"ંક":399,"▁ત્યારે":400,"ોડ":401,"▁કામ":402,"▁ની":403,"મ્બર":404,"▁રહ્યા":405,"પ્":406,"ંતુ":407,"▁બા":408,"▁અમ":409,"▁૨":410,"▁પરિ":411,"હિત":412,"▁રાખ":413,"વાનો":414,"▁દે":415,"સિ":416,"▁તેના":417,"▁બી":418,"નમાં":419,"▁બાદ":420,"્રા":421,"▁પરંતુ":422,"પા":423,"▁અધ":424,"▁હા":425,"ર્ણ":426,"▁શ્રી":427,"▁મી":428,"ુલ":429,"માંથી":430,"જરા":431,"ચાર":432,"બી":433,"▁ટી":434,"▁વે":435,"▁દેશ":436,"ધા":437,"રણ":438,"▁મહિ":439,"્યાં":440,"રને":441,"▁શક":442,"▁કરે":443,"▁રીતે":444,"▁માત્ર":445,"્સ":446,"શિ":447,"▁લી":448,"ુક":449,"▁કહે":450,"રની":451,"બા":452,"▁લઈ":453,"દરા":454,"િસ્":455,"▁સરકાર":456,"▁જણાવ્યું":457,"ંટણી":458,"▁કારણે":459,"ુર":460,"દ્ધ":461,"▁મળી":462,"દાવાદ":463,"▁રે":464,"ંડ":465,"▁જ્યારે":466,"▁તેની":467,"▁ચૂંટણી":468,"જપ":469,"▁પોલીસ":470,"▁ગુજરા":471,"વારે":472,"િન":473,"ંપ":474,"▁મોદી":475,"િકા":476,"▁દી":477,"▁કર્યો":478,"▁અનુ":479,"▁કા":480,"▁સર્":481,"તીય":482,"બંધ":483,"રસ":484,"▁નહીં":485,"ગે":486,"▁હે":487,"ડોદરા":488,"▁દિવસ":489,"▁પહેલા":490,"્રો":491,"પૂ":492,"▁સૌ":493,"▁વાત":494,"િયાન":495,"ળી":496,"▁કાર્ય":497,"ષ્":498,"▁સી":499,"▁થાય":500,"યું":501,"રના":502,"્રેસ":503,"રીકે":504,"▁આવ્યું":505,"પ્રધાન":506,"▁હવે":507,"વાથી":508,"▁કેટ":509,"▁તરીકે":510,"▁તેઓ":511,"વાનું":512,"હાર":513,"રફ":514,"ક્તિ":515,"▁દરમ":516,"▁બચ":517,"ડાપ્રધાન":518,"ટના":519,"ક્સ":520,"▁પાસે":521,"▁તેને":522,"▁સમા":523,"▁ખાતે":524,"ારીઓ":525,"વાના":526,"ર્ચ":527,"▁બનાવ":528,"▁તમે":529,"સર":530,"▁ભારતીય":531,"▁શરૂ":532,"▁તા":533,"▁ભાજપ":534,"નિ":535,"ાંધી":536,"નગર":537,"▁પાર":538,"▁બન":539,"▁ફે":540,"▁રોજ":541,"મને":542,"▁અમે":543,"▁ફો":544,"રુ":545,"▁રૂપ":546,"▁રિ":547,"મુ":548,"મેન્ટ":549,"▁ટકા":550,"ઈએ":551,"▁દરમિયાન":552,"▁આપી":553,"▁ગયા":554,"્ષ":555,"▁આવ્યો":556,"લમાં":557,"ંત્રી":558,"▁ચો":559,"▁બેઠ":560,"▁આજે":561,"▁આવ્યા":562,"▁ફિલ્":563,"ંભ":564,"ારા":565,"થા":566,"▁કિ":567,"▁છો":568,"પાસ":569,"▁કરતા":570,"વર":571,"સાર":572,"દાર":573,"▁જાહે":574,"લિ":575,"▁પહો":576,"▁પે":577,"ડે":578,"ચ્ચે":579,"્ટી":580,"▁વખ":581,"ભાઈ":582,"જન":583,"ગા":584,"▁વચ્ચે":585,"▁ત્ર":586,"▁એટ":587,"▁સ્થિતિ":588,"▁દુ":589,"▁અંગ":590,"તર":591,"શા":592,"▁વિક":593,"ત્વ":594,"ર્સ":595,"ાયો":596,"▁ફર":597,"ઓને":598,"▁ગાંધી":599,"વન":600,"ક્ર":601,"▁પહોંચ":602,"સભા":603,"ખ્ય":604,"લાક":605,"▁મૂ":606,"▁કોંગ":607,"▁તેમના":608,"▁રહેશે":609,"▁ડિસે":610,"▁ઉત્":611,"▁તેમણે":612,"ટો":613,"જો":614,"ળા":615,"ામી":616,"▁અભ":617,"▁થશે":618,"ર્વ":619,"▁આરો":620,"પે":621,"▁તમારા":622,"▁કરોડ":623,"ગ્ર":624,"તમાં":625,"▁વિસ્ત":626,"▁માન":627,"ખ્યા":628,"િર":629,"▁રૂપિયા":630,"ૂર":631,"યોગ":632,"▁રાજ્ય":633,"▁પોતાની":634,"▁નોંધ":635,"પ્ટ":636,"ક્ષા":637,"▁સૌથી":638,"▁ગો":639,"શો":640,"▁રહ્યો":641,"▁કરીને":642,"ર્ડ":643,"જુ":644,"▁ડિસેમ્બર":645,"▁તરફ":646,"▁મુખ્ય":647,"▁વરસ":648,"ર્મ":649,"▁મંદ":650,"▁ભૂ":651,"▁લાખ":652,"રેન્દ્ર":653,"યે":654,"▁પક્ષ":655,"ર્થ":656,"▁જાણ":657,"િલ્હી":658,"▁યોજા":659,"સવ":660,"▁જેમાં":661,"▁યા":662,"▁થયો":663,"▁અન્ય":664,"▁વી":665,"▁કર્યું":666,"દે":667,"▁પી":668,"જબ":669,"શ્ચ":670,"ંહ":671,"▁અમદાવાદ":672,"ખા":673,"નની":674,"▁થયા":675,"નના":676,"▁બની":677,"ભગ":678,"ફે":679,"▁નામ":680,"▁કોંગ્રેસ":681,"▁ભાવ":682,"ગ્ય":683,"ૃત":684,"▁૨૦":685,"ફળ":686,"ંપની":687,"▁કારણ":688,"મિ":689,"ક્ત":690,"પર":691,"▁હિ":692,"્યાર":693,"▁તમામ":694,"દો":695,"▁ક્ર":696,"▁મહે":697,"▁આવશે":698,"ીને":699,"▁સુર":700,"▁પ્રદેશ":701,"▁વરસાદ":702,"શ્વ":703,"▁ચા":704,"▁છેઆ":705,"▁પાટ":706,"▁જરૂ":707,"▁જન":708,"▁ઘટના":709,"ત્સવ":710,"▁વાંચ":711,"▁લોક":712,"▁તેમની":713,"ંને":714,"શી":715,"▁કંપની":716,"▁નરેન્દ્ર":717,"▁અંગે":718,"▁સંબંધ":719,"▁જવા":720,"ાઇ":721,"▁લગભગ":722,"થમ":723,"જાર":724,"▁જોવા":725,"જના":726,"▁વડાપ્રધાન":727,"▁તપાસ":728,"▁અધિક":729,"▁ડો":730,"▁ઉમે":731,"▁કર્યા":732,"▁વડોદરા":733,"▁થી":734,"▁દિલ્હી":735,"▁ફિલ્મ":736,"▁રાશિ":737,"પણ":738,"ડિયા":739,"▁ચાલ":740,"▁ઓફ":741,"▁બદ":742,"ન્સી":743,"▁સ્થાન":744,"▁હું":745,"▁કરો":746,"▁વ્યક્તિ":747,"▁પ્રો":748,"▁એમ":749,"▁બાળ":750,"▁અથ":751,"▁થઇ":752,"લ્લે":753,"ડિ":754,"▁પાટિલ":755,"▁ટેન્ટ":756,"▁નેતા":757,"▁બંને":758,"▁શો":759,"▁મહિલા":760,"ડવા":761,"▁મેળ":762,"તું":763,"▁જુ":764,"્લા":765,"પોર્ટ":766,"▁શા":767,"ીત":768,"▁જાય":769,"▁વિશે":770,"લું":771,"▁હાલ":772,"▁ગઈ":773,"▁સહિત":774,"▁પોતાના":775,"▁કુ":776,"નીય":777,"▁ઉપરા":778,"▁લાગ":779,"વાય":780,"દાન":781,"ટર":782,"ુમ":783,"ષ્ટ્ર":784,"િલ્લા":785,"▁રહ્યું":786,"બ્":787,"▁પાણી":788,"▁પ્રતિ":789,"▁સ્વ":790,"િસ":791,"▁રાહ":792,"ઠા":793,"એસ":794,"બે":795,"▁જોઈએ":796,"ેશન":797,"▁ખૂ":798,"કર":799,"મુખ":800,"▁આગામી":801,"▁કેસ":802,"▁ગયો":803,"▁પાર્ટી":804,"▁મત":805,"▁ત્રણ":806,"▁તેમને":807,"▁પગ":808,"▁ચે":809,"▁તેણે":810,"▁મેચ":811,"ફો":812,"તના":813,"▁વાંચો":814,"૦૦":815,"▁બંધ":816,"▁કરવાની":817,"કરી":818,"▁ટીમ":819,"▁બહાર":820,"▁અથવા":821,"▁દર્":822,"▁ત્યાં":823,"ુંબ":824,"જૂ":825,"લ્લા":826,"▁ગ્ર":827,"ાત્":828,"▁તમારી":829,"▁માર્":830,"▁શહે":831,"લ્લેખ":832,"▁અર":833,"▁સુધીમાં":834,"ત્રી":835,"▁નવી":836,"▁જૂ":837,"▁આપવામાં":838,"▁જિલ્લા":839,"▁પરિવાર":840,"લિક":841,"તાના":842,"ભાવ":843,"છા":844,"▁હાથ":845,"સ્પ":846,"▁વધી":847,"▁ખે":848,"▁સમયે":849,"્લે":850,"▁ઊ":851,"મંત્રી":852,"પુ":853,"▁પોલીસે":854,"જર":855,"▁આધ":856,"સ્થા":857,"▁તમને":858,"▁જાહેર":859,"▁અનુસાર":860,"▁અપ":861,"▁વિસ્તાર":862,"▁ડે":863,"▁પ્રા":864,"પૂર્ણ":865,"▁ધ્યા":866,"▁એટલે":867,"▁વિવાદ":868,"▁શું":869,"ધો":870,"િસ્તા":871,"▁ખુ":872,"▁પ્રમુખ":873,"▁ઉપરાંત":874,"ચા":875,"▁મંદિર":876,"▁થો":877,"િયન":878,"▁વિદ":879,"હા":880,"વાન":881,"▁મદ":882,"▁નાગર":883,"▁અલ":884,"મત":885,"▁ટ્રે":886,"▁તથા":887,"▁ખૂબ":888,"▁ખો":889,"▁તેમજ":890,"▁ઉમેદ":891,"▁દા":892,"વાસ":893,"▁મોટા":894,"પ્ટે":895,"▁કેટલાક":896,"▁નાગરિક":897,"ગ્યા":898,"ોમાં":899,"▁બિ":900,"લ્ડ":901,"▁સાં":902,"▁ઉપયોગ":903,"▁મહત્વ":904,"▁૩":905,"રાજ":906,"▁ક્ષ":907,"ઝન":908,"▁તૈ":909,"્રીય":910,"▁ઉપર":911,"પુર":912,"▁પૂર":913,"▁સર્જ":914,"▁સપ્ટે":915,"ભાગ":916,"ઓની":917,"▁પ્રમા":918,"▁ભાગ":919,"▁પ્રથમ":920,"બો":921,"▁ફરી":922,"સ્થિતિ":923,"▁મિ":924,"સિટી":925,"▁ભર":926,"▁વ્યવ":927,"▁ઉલ્લેખ":928,"▁સૂ":929,"ઓમાં":930,"કડ":931,"વાલ":932,"કીય":933,"▁પ્રવ":934,"▁મદદ":935,"બાદ":936,"▁શેર":937,"▁સ્પ":938,"▁કર્":939,"િયલ":940,"હિતી":941,"િતા":942,"નાર":943,"▁સાર":944,"▁સ્વા":945,"▁નવા":946,"▁સહ":947,"▁અહીં":948,"▁થયું":949,"ર્ષ":950,"▁લઈને":951,"ચન":952,"નાં":953,"▁ચી":954,"▁ઘણા":955,"▁માહિતી":956,"▁સપ્ટેમ્બર":957,"▁વિશ્વ":958,"ાળા":959,"▁અત":960,"▁સિંહ":961,"મક":962,"કારી":963,"▁કરશે":964,"▁વો":965,"રિ":966,"સ્તા":967,"દર્":968,"અમ":969,"▁બેઠક":970,"▁તંત્ર":971,"▁નિર્ણ":972,"માર":973,"▁ધર":974,"▁નિય":975,"▁રણ":976,"કલ":977,"▁પાંચ":978,"ાર્થી":979,"▁મળે":980,"નિક":981,"▁અફ":982,"્રીન":983,"▁ગાંધીનગર":984,"▁મહિના":985,"▁સમિતિ":986,"▁તૈય":987,"▁વખતે":988,"ગત":989,"▁જનતા":990,"▁મારી":991,"▁ઠ":992,"▁મેને":993,"જય":994,"▁બન્યા":995,"▁ફાય":996,"▁પડી":997,"▁મુજબ":998,"લર":999,"▁બાબ":1000,"▁ફરિયા":1001,"ડ્":1002,"▁ચાર":1003,"▁કુલ":1004,"▁સત":1005,"▁લેખ":1006,"▁બોટ":1007,"મ્પ":1008,"▁આરોપી":1009,"ખ્યાત":1010,"વણી":1011,"ક્ષ્":1012,"▁દો":1013,"ખી":1014,"▁પ્રે":1015,"▁ય":1016,"▁પાક":1017,"▁અમેર":1018,"▁ઝડ":1019,"મમાં":1020,"શ્રી":1021,"રાવ":1022,"▁તેમાં":1023,"દર":1024,"▁જેના":1025,"▁રન":1026,"▁વિદ્ય":1027,"લના":1028,"ત્તિ":1029,"▁શકાય":1030,"▁માંગ":1031,"અમદાવાદ":1032,"જ્":1033,"▁મામ":1034,"▁કોર્":1035,"ાવી":1036,"▁જવાબ":1037,"સ્પિટ":1038,"▁દિ":1039,"ેરક":1040,"લાઈ":1041,"રેક":1042,"ટક":1043,"▁વધારે":1044,"ીએમ":1045,"▁અં":1046,"▁ઈન્ડ":1047,"નુ":1048,"▁તેથી":1049,"▁લોકોને":1050,"ડિયો":1051,"▁મોટી":1052,"ળો":1053,"ાયી":1054,"ટીના":1055,"▁કેન્દ્ર":1056,"પ્ત":1057,"વડોદરા":1058,"▁કોણ":1059,"ચી":1060,"ઓએ":1061,"▁જેમ":1062,"▁ગુજરાત":1063,"ર્મા":1064,"▁મને":1065,"▁લોકસભા":1066,"શ્ચિત":1067,"્ન":1068,"ાવો":1069,"પાલ":1070,"ાનદાર":1071,"સાય":1072,"ારીઓએ":1073,"સ્યા":1074,"ધ્ય":1075,"▁અનેક":1076,"▁પ્રખ્યાત":1077,"▁જાે":1078,"▁મુખ્યમંત્રી":1079,"ત્તા":1080,"▁મેનેજ":1081,"▁મૃત":1082,"આઈ":1083,"▁શાનદાર":1084,"ૂટ":1085,"આરી":1086,"▁વિદ્યાર્થી":1087,"▁ટો":1088,"▁મળશે":1089,"▁બીજી":1090,"▁ગે":1091,"ારંભ":1092,"િક્ષ":1093,"▁હોસ્પિટ":1094,"▁રામ":1095,"▁કોઈપણ":1096,"ઠળ":1097,"ૂત":1098,"▁મુંબ":1099,"▁નિર્ણય":1100,"િં":1101,"▁પાછ":1102,"ચ્છ":1103,"▁હુમ":1104,"▁જરૂર":1105,"▁હેઠળ":1106,"▁રહેવું":1107,"▁પ્રારંભ":1108,"▁ખરી":1109,"▁રોકા":1110,"▁ઉલ્લેખનીય":1111,"▁ત્યાર":1112,"▁ગણ":1113,"▁ગામ":1114,"▁બનાવી":1115,"▁૪":1116,"તુ":1117,"▁ઝી":1118,"▁બીજા":1119,"▁સમસ્યા":1120,"▁કરતાં":1121,"ંકા":1122,"પતિ":1123,"વારો":1124,"▁પ્રકાર":1125,"▁છું":1126,"રણો":1127,"▁કપ":1128,"નને":1129,"▁મોત":1130,"▁ગુજરાતી":1131,"▁મીડિયા":1132,"▁દરેક":1133,"▁અલગ":1134,"એશન":1135,"▁બ્ર":1136,"▁ગ્રીન":1137,"▁છેલ્લા":1138,"▁જીવન":1139,"▁ગા":1140,"▁દિવસે":1141,"જીક":1142,"▁લખ":1143,"▁મેનેજમેન્ટ":1144,"વિધ":1145,"▁ખાસ":1146,"ત્રો":1147,"સ્તક":1148,"ર્ક":1149,"▁આગળ":1150,"▁સફળ":1151,"▁આમ":1152,"તમ":1153,"▁ધ્યાન":1154,"ાત્મા":1155,"▁યોજના":1156,"▁ડી":1157,"તાવ":1158,"▁વખત":1159,"▁મહાત્મા":1160,"મણ":1161,"ઓના":1162,"▁તેનો":1163,"ળે":1164,"▁ચાલી":1165,"▁પક્ષના":1166,"▁એસો":1167,"▁મોદીની":1168,"ભાર":1169,"▁ઘણી":1170,"મારી":1171,"ીર":1172,"રનેટ":1173,"▁વર્ષે":1174,"▁હશે":1175,"▁પાકિસ્તા":1176,"▁પટે":1177,"મિક":1178,"▁યોજાશે":1179,"▁રોકાણ":1180,"▁પ્રયા":1181,"સંદ":1182,"્યૂ":1183,"▁અસર":1184,"આમ":1185,"▁જીત":1186,"▁દૂર":1187,"▁બુ":1188,"▁ઘટા":1189,"▁ભારે":1190,"▁વસા":1191,"▁નજીક":1192,"▁આવેલા":1193,"▁શે":1194,"▁ધો":1195,"▁પૈ":1196,"▁હરી":1197,"▁લેખક":1198,"▁યુવ":1199,"▁ચર્ચ":1200,"▁સર્જાયો":1201,"▁ખાન":1202,"ત્રીએ":1203,"માન્ય":1204,"▁છતાં":1205,"▁ફરિયાદ":1206,"▁અંદ":1207,"▁જેવા":1208,"▁સમિટ":1209,"્યુચ":1210,"▁નિશ્ચિત":1211,"ગો":1212,"નારા":1213,"▁મુદ્":1214,"▁પુસ્તક":1215,"▁૫":1216,"સ્થિતિમાં":1217,"▁માતા":1218,"▁બોલ":1219,"▁બચવા":1220,"▁અવ":1221,"િમ":1222,"ાયે":1223,"▁એન":1224,"વાહી":1225,"▁યોગ્ય":1226,"▁જય":1227,"▁જીવ":1228,"▁વિસ્તારમાં":1229,"▁સ્થાયી":1230,"▁માર":1231,"કારો":1232,"▁ઍ":1233,"▁લડવા":1234,"▁સમિતિના":1235,"▁વિભાગ":1236,"▁એવી":1237,"ટમાં":1238,"▁આજ":1239,"▁કોર્ટ":1240,"▁પૂર્વ":1241,"ખો":1242,"▁અરજી":1243,"કારે":1244,"▁નરેન્દ્રભાઈ":1245,"▁કાય":1246,"હન":1247,"▁આપે":1248,"▁ટેન્ડ":1249,"▁વધારો":1250,"▁પસંદ":1251,"▁સ્ક":1252,"લની":1253,"▁કરવાનો":1254,"ફેક્ટ":1255,"▁મારા":1256,"▁શીત":1257,"▁ટ્ર":1258,"▁અમેરિકા":1259,"ત્ની":1260,"▁હોવાનું":1261,"▁યાદ":1262,"વડાપ્રધાન":1263,"રલ":1264,"ણો":1265,"▁મંત્રી":1266,"▁ધાર":1267,"▁છીએ":1268,"▁જોકે":1269,"સદ":1270,"▁રોડ":1271,"વાનાં":1272,"▁ગાંધીનગરના":1273,"▁બેઠકો":1274,"▁વર્ઝન":1275,"▁ઝીરો":1276,"ધંધ":1277,"▁પડે":1278,"▁શુ":1279,"▁એવું":1280,"વેદ":1281,"▁જેટ":1282,"▁મિસ્":1283,"▁૨૦૨":1284,"શિયલ":1285,"▁બાળકો":1286,"વડોદરાના":1287,"ચના":1288,"▁હરીશ":1289,"િને":1290,"નિયા":1291,"▁પૂરની":1292,"▁ચર્ચા":1293,"▁એર":1294,"▁આર":1295,"▁સામ":1296,"ધું":1297,"પોનો":1298,"▁લઇ":1299,"▁ફ્યુચ":1300,"▁મેળવ":1301,"ણમાં":1302,"▁શીતલ":1303,"▁ભગ":1304,"▁સતત":1305,"▁સભ":1306,"ાયેલા":1307,"▁ઉપસ્થિતિમાં":1308,"▁કાર્યવાહી":1309,"▁જ્યાં":1310,"▁પ્રેરક":1311,"▁લાચાર":1312,"▁વૈ":1313,"▁તરા":1314,"ડ્ઝ":1315,"ેત્ર":1316,"▁ફેન્સી":1317,"▁ઈફેક્ટ":1318,"▁પૂરથી":1319,"▁સિટીના":1320,"▁ભારતમાં":1321,"▁વ્યા":1322,"ાવે":1323,"▁મિસ્ત્રીએ":1324,"મોચન":1325,"▁વસાવી":1326,"▁વડાપ્રધાનશ્રી":1327,"▁નાગરિકે":1328,"▁મહેતાના":1329,"▁વિમોચન":1330,"▁યોજાવાનો":1331,"▁બચીને":1332,"સાન":1333,"▁ઍન્ડ":1334,"ંતર":1335,"▁વિવિધ":1336,"શિએશન":1337,"▁એસોશિએશન":1338,"ઉત્સવ":1339,"▁વર્ડ્ઝ":1340,"▁તરાપા":1341,"યક્ષ":1342,"ગાઉ":1343,"▁વર્ઝનનું":1344,"▁ટેન્ડરને":1345,"▁રહેવાનાં":1346,"▁એક્ષ્":1347,"▁અફવાથી":1348,"▁પાટિલનું":1349,"વરિક":1350,"▁પ્રમાણે":1351,"્વ":1352,"▁મેવરિક":1353,"રણોત્સવ":1354,"ાદારીઓએ":1355,"▁અધયક્ષ":1356,"▁ટેન્ટસિટી":1357,"▁રણઉત્સવ":1358,"▁કોણરણોત્સવ":1359,"▁ઉલ્લેખનીયઆમ":1360,"▁સર્જાયોધંધ":1361,"▁ફ્યુચરનેટ":1362,"▁વર્ડ્ઝઅમદાવાદ":1363,"▁એક્ષ્પોનો":1364,"▁ટેન્ટસિટીવડોદરાના":1365,"▁સર્જાયોધંધાદારીઓએ":1366,"ગ્":1367,"િકેટ":1368,"▁પહોંચી":1369,"▁અનુભ":1370,"▁બહ":1371,"▁વિરો":1372,"▁સામાન્ય":1373,"▁વીડિયો":1374,"ષ્ટ્રીય":1375,"▁પ્રત":1376,"▁શકો":1377,"▁એક્સ":1378,"એમ":1379,"▁લાં":1380,"▁પડશે":1381,"▁પોસ્ટ":1382,"્લ":1383,"વાઈ":1384,"▁જન્":1385,"▁મં":1386,"રાત":1387,"ણામ":1388,"ચર":1389,"જરી":1390,"સુ":1391,"ગણ":1392,"▁બને":1393,"▁આપણે":1394,"▁જરૂરી":1395,"▁જગ્યા":1396,"ત્રા":1397,"સ્ક":1398,"▁સવારે":1399,"▁આઈ":1400,"લ્સ":1401,"▁શિ":1402,"▁જેથી":1403,"▁વાય":1404,"કાત":1405,"▁મુંબઈ":1406,"▁લગ્ન":1407,"▁પરી":1408,"▁સંબંધિત":1409,"ંઘ":1410,"▁વિધાન":1411,"કમ":1412,"▁લાભ":1413,"પકડ":1414,"શ્કે":1415,"▁કોઇ":1416,"કુ":1417,"ખલ":1418,"આર":1419,"▁હોવાથી":1420,"ુકા":1421,"▁જઈ":1422,"▁જાન":1423,"ણાં":1424,"ાવવા":1425,"▁ઉત્તર":1426,"▁સંપ":1427,"પોરે":1428,"▁પરથી":1429,"▁નં":1430,"▁તૈયાર":1431,"▁આવતા":1432,"▁ધરપકડ":1433,"બ્ર":1434,"તન":1435,"▁ખર્ચ":1436,"શું":1437,"▁પાછળ":1438,"▁ઘરે":1439,"▁સંખ્યા":1440,"▁શરી":1441,"▁ઇન્ડ":1442,"યેલા":1443,"મના":1444,"▁આદ":1445,"િત્ર":1446,"હિ":1447,"▁સલા":1448,"▁અગાઉ":1449,"▁ગર":1450,"▁પં":1451,"સમાં":1452,"▁કલાક":1453,"્યતા":1454,"બલ":1455,"▁ગયું":1456,"▁વિધાનસભા":1457,"▁કર્મ":1458,"ંદ્ર":1459,"▁વૃ":1460,"▁પાસેથી":1461,"▁હાઈ":1462,"▁સ્થા":1463,"▁લેવા":1464,"રોના":1465,"▁પતિ":1466,"તરી":1467,"▁તેનું":1468,"▁કેટલી":1469,"▁આપવા":1470,"ગીરી":1471,"▁રજૂ":1472,"▁શિક્ષ":1473,"▁ઉમેદવારો":1474,"્લો":1475,"મર":1476,"▁ગંભ":1477,"મતા":1478,"▁નવ":1479,"ંધી":1480,"િયર":1481,"▁બેંક":1482,"▁જેવી":1483,"આત":1484,"▁ડા":1485,"▁ચૂક":1486,"▁જોઈ":1487,"▁સમગ્ર":1488,"▁લિ":1489,"વાદી":1490,"ઝા":1491,"▁સરકારે":1492,"ઝરા":1493,"લાવ":1494,"▁સત્તા":1495,"ન્જ":1496,"ક્ટર":1497,"▁હજાર":1498,"ક્શન":1499,"ડીને":1500,"▁કિં":1501,"િવર્":1502,"▁હત્યા":1503,"થ્":1504,"▁રાહુલ":1505,"▁૬":1506,"▁ભો":1507,"▁એસ":1508,"ૃત્તિ":1509,"કેટ":1510,"▁પેટ":1511,"▁તેવી":1512,"સ્થાન":1513,"▁આપ્યો":1514,"શનલ":1515,"▁બધા":1516,"▁રહેતા":1517,"▁નુક":1518,"▁મંગ":1519,"▁ભારતના":1520,"▁વિદેશ":1521,"▁ક્રિકેટ":1522,"▁સામેલ":1523,"▁આત":1524,"▁જશે":1525,"▁સંગ":1526,"▁ક્યારે":1527,"ક્ષણ":1528,"બુ":1529,"▁પ્રયાસ":1530,"▁ઘર":1531,"ષ્ઠ":1532,"▁સારવાર":1533,"▁ગંભીર":1534,"▁૭":1535,"▁પરિણામ":1536,"▁મુશ્કે":1537,"▁સુધ":1538,"▁આસ":1539,"ૂલ":1540,"▁એવા":1541,"શિયા":1542,"▁કલ":1543,"▁રિપોર્ટ":1544,"▁જણા":1545,"કાશ":1546,"▁કેમ":1547,"▁જાહેરાત":1548,"ગુ":1549,"▁મધ્ય":1550,"▁કાર્":1551,"▁પૂર્ણ":1552,"▁કરવો":1553,"▁પ્લે":1554,"▁ઓળ":1555,"▁વેપ":1556,"▁પટેલ":1557,"▁નોકરી":1558,"પક્ષ":1559,"▁લાગે":1560,"હાસ":1561,"દારી":1562,"▁પાડ":1563,"ાવવામાં":1564,"ક્ટો":1565,"જ્ઞ":1566,"▁અક":1567,"▁કર્મચ":1568,"▁વર્ષની":1569,"▁કાઢ":1570,"▁આયો":1571,"▁મજબ":1572,"▁વર્લ્ડ":1573,"▁વાર":1574,"▁હજુ":1575,"સના":1576,"ર્ન":1577,"ોને":1578,"▁રહેલા":1579,"▁વિચાર":1580,"▁પંચ":1581,"▁મુલા":1582,"વીને":1583,"▁જમી":1584,"▁એજ":1585,"▁મન":1586,"વેશ":1587,"ેશજી":1588,"▁દીધી":1589,"દર્શન":1590,"ગ્રી":1591,"▁સિવાય":1592,"▁બજાર":1593,"▁ક્ષેત્ર":1594,"▁રાષ્ટ્ર":1595,"▁ધી":1596,"સ્મા":1597,"મન":1598,"▁ઇન્":1599,"▁ત્યારબાદ":1600,"સિંહ":1601,"▁કરતી":1602,"તિહાસ":1603,"▁મહારા":1604,"▁કહી":1605,"▁સૂર":1606,"▁વિકાસ":1607,"મ્બ":1608,"ટ્સ":1609,"▁જન્મ":1610,"▁પૂછ":1611,"▁રાશિફળ":1612,"▁૧૦":1613,"▁તાલ":1614,"▁કૃ":1615,"▁તારી":1616,"્યક્ષ":1617,"સિક":1618,"▁પત્ની":1619,"▁અભ્યા":1620,"ક્ષિ":1621,"▁પીએમ":1622,"કોટ":1623,"▁મતદાન":1624,"ફર":1625,"પના":1626,"પ્રી":1627,"▁ટ્રા":1628,"▁એલ":1629,"▁સારી":1630,"▁સ્ટો":1631,"▁દાખલ":1632,"▁કરવી":1633,"▁ફોન":1634,"▁શિવ":1635,"▁કરવાનું":1636,"▁નિવેદ":1637,"ન્ટર":1638,"▁યુન":1639,"▁થોડા":1640,"▁રવિ":1641,"▁નુકસાન":1642,"▁તરફથી":1643,"▁સોશિયલ":1644,"▁મહત્વપૂર્ણ":1645,"▁ફેર":1646,"▁મંત્ર":1647,"પૂર્વ":1648,"▁ચાલુ":1649,"▁પિતા":1650,"▁શ્ર":1651,"રામ":1652,"વાસી":1653,"▁સમાચાર":1654,"▁અત્યાર":1655,"▁ઉજ":1656,"▁ઓપ":1657,"ૂડ":1658,"▁સુરક્ષા":1659,"શ્વાસ":1660,"▁ટેસ્ટ":1661,"▁કં":1662,"▁પસાર":1663,"▁મોટો":1664,"▁ધરાવ":1665,"▁નીક":1666,"▁ખેડ":1667,"▁કામગીરી":1668,"▁પૈસા":1669,"▁અધિકારી":1670,"▁સુરત":1671,"ગઢ":1672,"નલ":1673,"ઘા":1674,"▁૧૯":1675,"▁નહો":1676,"▁દેશમાં":1677,"▁કરવું":1678,"▁શાં":1679,"ફી":1680,"થો":1681,"ન્ચ":1682,"▁પરીક્ષા":1683,"▁દેવ":1684,"▁ભગવાન":1685,"▁સરકારી":1686,"▁પુત્ર":1687,"▁થતા":1688,"▁ગુરુ":1689,"ેડ":1690,"સ્તુ":1691,"▁અધ્યક્ષ":1692,"▁મામલે":1693,"રિયા":1694,"▁મંદિ":1695,"લાઇ":1696,"▁સમાવેશ":1697,"સ્થ્ય":1698,"▁ભાજપના":1699,"▁કરીએ":1700,"▁જાણી":1701,"▁લીધી":1702,"▁ચૂંટણીમાં":1703,"▁લીધો":1704,"▁નક્":1705,"કલી":1706,"▁આવા":1707,"્યુઆરી":1708,"▁અહે":1709,"▁પાલ":1710,"કની":1711,"▁કમિ":1712,"▁મેં":1713,"િયમ":1714,"▁પ્રવૃત્તિ":1715,"▁યોગ":1716,"▁મળ્યા":1717,"▁શુભ":1718,"ત્રે":1719,"▁અધિકારીઓ":1720,"લિયા":1721,"▁સ્વાસ્થ્ય":1722,"▁હુમલા":1723,"▁સફળતા":1724,"ષણ":1725,"ુપ":1726,"▁મેળવી":1727,"▁લેવામાં":1728,"▁પ્લા":1729,"▁નંબર":1730,"ક્ષિણ":1731,"▁તબ":1732,"▁અંત":1733,"▁સંપૂર્ણ":1734,"▁મોદીએ":1735,"કસ":1736,"▁ફી":1737,"▁એકા":1738,"▁જાન્યુઆરી":1739,"▁ચંદ્ર":1740,"▁ત્રી":1741,"▁ચિં":1742,"▁વિરોધ":1743,"▁કેવી":1744,"ારોમાં":1745,"▁પ્રસ":1746,"▁શર":1747,"▁કાર્યક્ર":1748,"▁ઓછા":1749,"▁ઝડપી":1750,"તની":1751,"▁ખેલા":1752,"ધન":1753,"▁એવો":1754,"▁દેખ":1755,"▁અકસ્મા":1756,"જેત":1757,"ંકી":1758,"ુક્ર":1759,"▁કલા":1760,"▁૮":1761,"▁આત્":1762,"▁રાજકીય":1763,"▁શર્મા":1764,"▁નિષ્":1765,"▁જેને":1766,"▁રમ":1767,"દ્ધિ":1768,"િકલ":1769,"ષ્ણ":1770,"▁વ્યક્ત":1771,"▁ચિંતા":1772,"▁પહેલાં":1773,"▁શાહ":1774,"રોમાં":1775,"▁આં":1776,"▁દર્શ":1777,"ન્ન":1778,"▁આવક":1779,"▁આધારે":1780,"▁ઉત્પ":1781,"તંત્ર":1782,"▁થવા":1783,"▁અર્થ":1784,"▁દાવો":1785,"▁નિર્":1786,"▁નક્કી":1787,"ગણેશજી":1788,"બિત":1789,"જાબ":1790,"▁દુનિયા":1791,"િક્સ":1792,"▁તાલુકા":1793,"▁ઈન્":1794,"▁કેસમાં":1795,"▁ક્":1796,"દારો":1797,"▁જતા":1798,"ર્થિક":1799,"્રોલ":1800,"▁રાજ્યો":1801,"ઉન્ટ":1802,"નાથ":1803,"યેલી":1804,"▁સેવા":1805,"▁વિકેટ":1806,"ાસભ":1807,"▁કોર્ટે":1808,"▁પ્રેમ":1809,"▁ખેલાડી":1810,"▁મજબૂત":1811,"▁સોના":1812,"▁એક્ટ":1813,"▁આવેલી":1814,"▁નીચે":1815,"▁અભ્યાસ":1816,"▁કેટલીક":1817,"▁આશ":1818,"▁ઘરમાં":1819,"▁વિના":1820,"તાર":1821,"▁વહે":1822,"▁શનિ":1823,"▁રાખો":1824,"▁હાલમાં":1825,"▁સ્પષ્ટ":1826,"લેન્ડ":1827,"▁૯":1828,"▁સ્થિતિમાં":1829,"વારી":1830,"▁એન્ડ":1831,"દીપ":1832,"▁થવાની":1833,"▁ખરા":1834,"ષ્ય":1835,"▁ધારાસભ":1836,"▁આર્થિક":1837,"દય":1838,"▁લોકોના":1839,"એલ":1840,"ાત્મક":1841,"▁દેશો":1842,"▁ઓક્ટો":1843,"▁સલાહ":1844,"▁માર્ગ":1845,"પ્તા":1846,"▁બહુ":1847,"▁અર્":1848,"▁દાર":1849,"▁બજે":1850,"▁મળ્યો":1851,"મિત":1852,"▁વિરુ":1853,"ફ્ટ":1854,"▁શ્રે":1855,"▁ઈન્ડિયા":1856,"▁દેશના":1857,"રાશ":1858,"નંદ":1859,"ફિક":1860,"ભાવના":1861,"▁પદ":1862,"લાય":1863,"▁ઉઠ":1864,"▁દક્ષિણ":1865,"ઓનો":1866,"▁સમજ":1867,"▁સભ્યો":1868,"▁ઓળખ":1869,"▁જાળ":1870,"▁એપ્ર":1871,"જનો":1872,"▁હવા":1873,"▁કોરોના":1874,"▁હોવાની":1875,"▁સંસ્થા":1876,"▁હોવા":1877,"▁કરવાથી":1878,"▁સ્થાનિક":1879,"▁યુદ્ધ":1880,"ધિ":1881,"▁અમા":1882,"▁ભાઈ":1883,"▁હતાં":1884,"ાઈલ":1885,"▁સાત":1886,"▁માર્ચ":1887,"ાવ્યો":1888,"▁કોલ":1889,"▁આંક":1890,"▁વિજય":1891,"▁સાબિત":1892,"▁ઉમેદવાર":1893,"▁આદેશ":1894,"▁બંગ":1895,"્યે":1896,"કને":1897,"▁મંગળ":1898,"▁લોકોએ":1899,"▁વન":1900,"ઉટ":1901,"▁કરા":1902,"▁આધાર":1903,"▁અસ":1904,"▁રકમ":1905,"▁મેડ":1906,"જીના":1907,"▁ઢ":1908,"▁મુલાકાત":1909,"ળતા":1910,"ચ્ચ":1911,"▁વ્યવસાય":1912,"▁હાજર":1913,"▁બુધ":1914,"િટી":1915,"ગેરે":1916,"▁ફટ":1917,"▁ભી":1918,"▁મૃત્યુ":1919,"▁ફા":1920,"▁ગુજરાતમાં":1921,"લ્પ":1922,"▁રાજસ્થાન":1923,"▁સૈ":1924,"▁નિક":1925,"વલ":1926,"▁ભરતી":1927,"▁તાજેત":1928,"લુ":1929,"▁છેઅ":1930,"ડીએ":1931,"▁દિવસો":1932,"જિ":1933,"ટ્ટ":1934,"ધે":1935,"ભી":1936,"▁હતુ":1937,"ખ્":1938,"▁નાણા":1939,"▁બોર્ડ":1940,"ઉન્ડ":1941,"▁તારીખ":1942,"▁કૌ":1943,"▁કમા":1944,"▁સામનો":1945,"▁પગલે":1946,"▁મેચમાં":1947,"▁માણ":1948,"▁કોંગ્રેસના":1949,"▁આરોપ":1950,"▁હોસ્પિટલમાં":1951,"▁મળ્યું":1952,"▁ભે":1953,"▁આપ્યું":1954,"ક્રિયા":1955,"ધાર":1956,"તાવરણ":1957,"ગસ્ટ":1958,"▁ડાય":1959,"▁નવે":1960,"▁મર":1961,"▁ડ્ર":1962,"ાયું":1963,"▁લીધા":1964,"દ્યો":1965,"▁જણાવ્યા":1966,"▁મૂક":1967,"▁વ્યવસ્થા":1968,"▁વાતાવરણ":1969,"▁રાષ્ટ્રીય":1970,"▁આંતર":1971,"ૃતિ":1972,"જમાં":1973,"▁ડોલર":1974,"કમાં":1975,"▁મિલ":1976,"▁શક્યતા":1977,"ૃહ":1978,"કોને":1979,"દીમાં":1980,"▁ફાઇ":1981,"▁સમર્થ":1982,"▁વિરુદ્ધ":1983,"કોર્ડ":1984,"▁વર્ષમાં":1985,"▁વિશેષ":1986,"પ્રીમ":1987,"▁કિલો":1988,"ંગા":1989,"▁જાત":1990,"કારાત્મક":1991,"▁ધર્મ":1992,"▁ગુનો":1993,"ાળો":1994,"સની":1995,"▁પ્રવેશ":1996,"▁મહા":1997,"ટિંગ":1998,"▁પહેલી":1999,"કારક":2000,"નિંગ":2001,"આઇ":2002,"▁ઓવ":2003,"▁અભિને":2004,"ધ્":2005,"▁વિચ":2006,"▁જમીન":2007,"▁સંભાવના":2008,"▁લાગી":2009,"▁રાખી":2010,"▁કિંમત":2011,"ન્દ્રીય":2012,"તરા":2013,"▁નજર":2014,"▁નાખ":2015,"▁ગ્રા":2016,"▁વગેરે":2017,"▁રાત્રે":2018,"▁માનવામાં":2019,"▁થતાં":2020,"સ્તી":2021,"ધુ":2022,"મદ":2023,"▁પત્ર":2024,"▁નીતિ":2025,"▁નોટ":2026,"રું":2027,"▁રેકોર્ડ":2028,"શ્ચિમ":2029,"લ્લી":2030,"▁લોકોની":2031,"▁ઓછ":2032,"ચાલ":2033,"ાળી":2034,"જૂરી":2035,"▁શોધ":2036,"ઝી":2037,"▁પંજાબ":2038,"▁સમયમાં":2039,"▁ઓફિસ":2040,"શ્મી":2041,"▁બેન્":2042,"સ્ટ્રે":2043,"▁વાગ્યા":2044,"નર":2045,"ક્રે":2046,"▁તબક્":2047,"▁ધન":2048,"ખંડ":2049,"▁બનાવવામાં":2050,"▁ઉત્પાદ":2051,"▁સ્વી":2052,"▁શરૂઆત":2053,"▁અંદર":2054,"▁શુક્ર":2055,"▁જાણવા":2056,"▁ડેટ":2057,"મિકા":2058,"કના":2059,"▁રાશિના":2060,"▁જિલ્લામાં":2061,"▁કોર્પોરે":2062,"▁હાર":2063,"▁કહેવામાં":2064,"૨૦":2065,"્રષ્ટ":2066,"▁સોમ":2067,"▁રેલ":2068,"ભર":2069,"▁ન્યા":2070,"▁પ્રધાન":2071,"▁યોજ":2072,"▁થયેલા":2073,"ધ્યા":2074,"ૂતો":2075,"▁હાઇ":2076,"▁પ્રક્રિયા":2077,"▁પરત":2078,"▁દર્દી":2079,"ડમાં":2080,"▁કેપ્ટ":2081,"▁દુર્":2082,"▁ઘટી":2083,"▁એક્સપ":2084,"▁બાકી":2085,"ુદ":2086,"એક":2087,"▁લાંબા":2088,"▁જોડ":2089,"▁મુશ્કેલી":2090,"▁ગઇ":2091,"▁ધરી":2092,"▁ઉં":2093,"ઠવા":2094,"▁ઝડપ":2095,"▁યાત્રા":2096,"વિધા":2097,"▁મૂળ":2098,"ષા":2099,"▁ગત":2100,"▁કર્મચારીઓ":2101,"▁વર્ષના":2102,"▁રસ્તા":2103,"ભાઇ":2104,"▁કાર્યો":2105,"▁આસપાસ":2106,"▁હુમલો":2107,"▁આક":2108,"▁ખરાબ":2109,"▁મોટ":2110,"▁વિપક્ષ":2111,"અલ":2112,"▁આવતી":2113,"▁મહારાષ્ટ્ર":2114,"▁ગઠ":2115,"▁સાવ":2116,"▁ટૂ":2117,"▁શી":2118,"▁પ્રોજે":2119,"▁રંગ":2120,"▁વસ્તુ":2121,"▁મોકલ":2122,"▁ડિગ્રી":2123,"▁માગ":2124,"▁શાંતિ":2125,"▁આનંદ":2126,"▁ખરીદી":2127,"▁લક્ષ":2128,"▁બદલ":2129,"કિ":2130,"ઇટ":2131,"▁ફેરફ":2132,"▁ઓછી":2133,"▁હૈ":2134,"▁બદલે":2135,"વાળા":2136,"▁ઓન":2137,"પુરા":2138,"▁શક્તિ":2139,"પલ":2140,"▁વિષ":2141,"▁બિલ":2142,"▁કાયદા":2143,"મની":2144,"▁જગ":2145,"▁જોખ":2146,"▁જોઇ":2147,"▁ઘટાડો":2148,"▁સારા":2149,"▁ભારતની":2150,"લાં":2151,"▁સ્થળ":2152,"▁ઓક્ટોબર":2153,"▁બાજુ":2154,"▁આત્મ":2155,"▁ઓગસ્ટ":2156,"▁ઉકે":2157,"વવામાં":2158,"▁શાળા":2159,"▁સ્ટેશ":2160,"શાન":2161,"ાયક":2162,"▁વધીને":2163,"રૂપ":2164,"▁લાઈ":2165,"▁ગ્રામ":2166,"▁તાપ":2167,"▁રાહત":2168,"લોજી":2169,"▁આયોજન":2170,"▁જણાવી":2171,"સમ":2172,"રેશન":2173,"▁આઇ":2174,"▁દીધો":2175,"▁પાર્":2176,"▁વધાર":2177,"▁સૂર્ય":2178,"▁દેવામાં":2179,"કત":2180,"▁કંઈ":2181,"▁જોડા":2182,"▁લાલ":2183,"▁અનુભવ":2184,"▁૨૦૧":2185,"▁વાહ":2186,"▁કબ":2187,"▁કમ":2188,"▁પ્રાપ્ત":2189,"નનો":2190,"િવર્સિટી":2191,"▁સુપ્રીમ":2192,"શુ":2193,"▁સાય":2194,"▁ખેડૂતો":2195,"▁એજન્સી":2196,"▁વસ":2197,"▁સંક":2198,"▁સમયથી":2199,"▁રૃ":2200,"▁પૂજા":2201,"બંધી":2202,"▁મુસા":2203,"▁ટેક્સ":2204,"▁ફાયર":2205,"▁જીતી":2206,"▁છેવડાપ્રધાન":2207,"▁રાખવામાં":2208,"▁અડ":2209,"▁ચૌ":2210,"▁પ્રશ્":2211,"ીય":2212,"રત":2213,"ઓનું":2214,"▁નિર્મા":2215,"▁આપણા":2216,"▁મંજૂરી":2217,"▁ટા":2218,"ચો":2219,"▁અટક":2220,"▁મુદ્દા":2221,"▁ઉર્":2222,"▁ફિલ્મો":2223,"▁વિસ્તારોમાં":2224,"જિત":2225,"▁રોક":2226,"▁સેવન":2227,"▁તમારે":2228,"▁ઈઝરા":2229,"▁કેપ્ટન":2230,"▁એપ્રિલ":2231,"▁ભાગી":2232,"ગ્રામ":2233,"▁હિં":2234,"▁ટિક":2235,"▁સાંસદ":2236,"▁આતંક":2237,"▁રસ":2238,"▁થોડી":2239,"▁રાજ્યમાં":2240,"▁કુમાર":2241,"▁ચિ":2242,"▁પ્રદર્શન":2243,"▁સારું":2244,"▁કેન્દ્રીય":2245,"▁બ્રા":2246,"ંદર":2247,"▁બાં":2248,"▁મહત્":2249,"▁વિગ":2250,"▁સમુદ":2251,"▁વડા":2252,"ઠી":2253,"▁છોડ":2254,"ગાર":2255,"▁શરુ":2256,"▁વિશ્વાસ":2257,"▁રાજકોટ":2258,"કરણ":2259,"▁સ્પર્":2260,"▁એન્ટ":2261,"▁ખરીદ":2262,"▁૧૫":2263,"ફા":2264,"▁ચાં":2265,"ડુ":2266,"▁ગૌ":2267,"મેન":2268,"ાયેલી":2269,"▁વળ":2270,"▁મિત્ર":2271,"ટેડ":2272,"▁વર્ત":2273,"▁મનો":2274,"▁માલ":2275,"▁ગઠબંધ":2276,"▁સેના":2277,"ગ્યે":2278,"▁અંદા":2279,"▁બજેટ":2280,"▁વગર":2281,"▁સ્મા":2282,"પૂર":2283,"બ્રુ":2284,"ન્સે":2285,"▁શિક્ષણ":2286,"મકી":2287,"▁જમા":2288,"▁એના":2289,"ોલ":2290,"ોની":2291,"▁સાંભ":2292,"▁ભૂમિકા":2293,"▁રશિયા":2294,"▁મંત્રાલ":2295,"▁મુસાફ":2296,"▁સુવિધા":2297,"▁હી":2298,"▁તક":2299,"ડની":2300,"ડામાં":2301,"ત્કા":2302,"▁૧૨":2303,"▁બસ":2304,"▁યુવતી":2305,"છે":2306,"▁જાણો":2307,"કર્":2308,"ઇલ":2309,"▁નગર":2310,"▁દૂ":2311,"ભરમાં":2312,"▁તેનાથી":2313,"▁અચ":2314,"▁લખ્યું":2315,"ાર્જ":2316,"▁ટેક":2317,"▁પસંદગી":2318,"▁પ્રોજેક્ટ":2319,"▁ફેલા":2320,"ઝને":2321,"▁દબા":2322,"▁લઇને":2323,"▁બનાવવા":2324,"▁સુખ":2325,"▁પાકિસ્તાન":2326,"▁કેજરી":2327,"દ્યોગ":2328,"ર્ગ":2329,"▁ક્યાં":2330,"વ્ય":2331,"▁રાષ્ટ્રપતિ":2332,"▁સિસ્ટ":2333,"▁સ્માર્ટ":2334,"કાં":2335,"▁કરાવ":2336,"▁ફાયદા":2337,"▁અટ":2338,"▁ગૃહ":2339,"▁વિગતો":2340,"▁સાંજે":2341,"▁રેલવે":2342,"▁ગુમા":2343,"ખર":2344,"▁મહિનામાં":2345,"▁શહેરમાં":2346,"▁નાણાકીય":2347,"બ્રુઆરી":2348,"▁અના":2349,"▁બનાવ્યા":2350,"▁સ્ટે":2351,"▁પ્રકારની":2352,"▁પશ્ચિમ":2353,"▁બાબતો":2354,"▁રોગ":2355,"કાન":2356,"પણે":2357,"▁ઠા":2358,"ળમાં":2359,"ફ્ર":2360,"▁અઠવા":2361,"યેલ":2362,"▁યાદવ":2363,"▁રહેલી":2364,"▁એરપોર્ટ":2365,"વાળી":2366,"કોર":2367,"▁આપ્યા":2368,"ડક":2369,"▁તાજેતરમાં":2370,"▁શબ્":2371,"ક્ષે":2372,"▁વીજ":2373,"▁કોલે":2374,"▁એક્":2375,"▁હોઈ":2376,"▁જ્":2377,"તિક":2378,"▁ગેર":2379,"ન્દુ":2380,"રોજ":2381,"▁સુપર":2382,"▁હં":2383,"ાર્થ":2384,"▁સ્ત":2385,"▁નિવેદન":2386,"▁કાં":2387,"▁ધરા":2388,"▁વિદ્યાર્થીઓ":2389,"▁મ્યુ":2390,"ૃત્વ":2391,"પક":2392,"▁તાપમાન":2393,"▁રમા":2394,"▁કરવાના":2395,"▁તમારું":2396,"▁ફેબ્રુઆરી":2397,"▁પક":2398,"▁કાર્ડ":2399,"સ્ટ્ર":2400,"▁સિક":2401,"▁ઓવરમાં":2402,"બ્ધ":2403,"ફોર્મ":2404,"▁દેખા":2405,"▁બજારમાં":2406,"▁સંપર્ક":2407,"▁તબક્કા":2408,"▁દર્શન":2409,"▁યુનિવર્સિટી":2410,"ાડ":2411,"▁કરનાર":2412,"▁સ્ટેશન":2413,"ટરી":2414,"▁પૂરી":2415,"▁ધ્યાનમાં":2416,"▁સંઘ":2417,"▁પરિસ્થિતિ":2418,"▁વર્ષથી":2419,"શ્વિક":2420,"▁શહેર":2421,"▁પ્રભાવ":2422,"ગુજરા":2423,"▁મિન":2424,"▁જંગ":2425,"▁ધરાવતા":2426,"▁આઉટ":2427,"▁નોંધાયો":2428,"▁ફાઈ":2429,"▁ઊંચ":2430,"▁આઠ":2431,"▁આશા":2432,"માસ":2433,"▁ચોક્":2434,"▁પ્રત્યે":2435,"▁ઉપલ":2436,"▁પરિવારના":2437,"ંડી":2438,"રવ":2439,"જની":2440,"કરા":2441,"દાણી":2442,"▁બ્રિ":2443,"▁આટ":2444,"▁નાણાં":2445,"પ્રદેશ":2446,"▁તિ":2447,"▁ગુજરાતના":2448,"▁પુરા":2449,"▁પોલીસને":2450,"લીઝ":2451,"▁સપા":2452,"ચ્છા":2453,"▁નવેમ્બર":2454,"▁આરોગ્ય":2455,"િવાર":2456,"▁નાના":2457,"▁તેલ":2458,"▁મેદાન":2459,"▁વાયરલ":2460,"ીએસ":2461,"▁કી":2462,"▁એકાઉન્ટ":2463,"લેક્ટ":2464,"▁અભિ":2465,"કાલે":2466,"ાયલ":2467,"▁કેને":2468,"તામાં":2469,"▁થતી":2470,"▁વેબ":2471,"ન્યા":2472,"વુ":2473,"▁આપતા":2474,"▁છેસ":2475,"ૂળ":2476,"ણને":2477,"▁કોર્ટમાં":2478,"▁મિત":2479,"▁દીધું":2480,"ાનક":2481,"▁સબ":2482,"▁પોતે":2483,"▁અમારી":2484,"▁દારૂ":2485,"▁નેશનલ":2486,"ધ્ધ":2487,"વિષ્ય":2488,"▁જળ":2489,"રોને":2490,"▁સૂત્રો":2491,"સ્ટ્રેલિયા":2492,"▁ચોક્કસ":2493,"▁ટિકિટ":2494,"▁વાહન":2495,"▁વેપાર":2496,"▁પાર્ટીના":2497,"▁કમિશન":2498,"ઢી":2499,"કિંગ":2500,"ઈન્ટ":2501,"▁વિભા":2502,"▁સહિતના":2503,"▁બ્લ":2504,"▁એપ":2505,"▁નહી":2506,"વિંદ":2507,"ન્ને":2508,"▁લડ":2509,"▁રાજકાર":2510,"જીની":2511,"▁સેન્ટ":2512,"▁બહે":2513,"સાઈ":2514,"ણું":2515,"▁પ્રતિબંધ":2516,"દેવ":2517,"થમિક":2518,"યર":2519,"▁ડેટા":2520,"▁કરતો":2521,"▁સદી":2522,"▁સવાર":2523,"▁પ્રકારના":2524,"ન્ના":2525,"હલી":2526,"▁બંગાળ":2527,"▁ફરજ":2528,"▁આગા":2529,"▁રાખવા":2530,"▁ચોરી":2531,"▁ઉપલબ્ધ":2532,"વવા":2533,"મતી":2534,"▁ભવિષ્ય":2535,"નારી":2536,"▁સંબંધો":2537,"▁જાણકારી":2538,"▁જિલ્લાના":2539,"▁ડૉ":2540,"▁સંસદ":2541,"▁એફ":2542,"▁ફેરફાર":2543,"▁સજા":2544,"સને":2545,"▁વાગ્યે":2546,"ડાના":2547,"▁નામે":2548,"▁રોહિત":2549,"▁હવામાન":2550,"▁ભાજપે":2551,"્રાઇ":2552,"▁કહેવું":2553,"ંગ્લા":2554,"▁વર્તમાન":2555,"ંધા":2556,"શ્ય":2557,"તાની":2558,"▁બિહાર":2559,"▁દિવસની":2560,"વિડ":2561,"▁એને":2562,"બેન":2563,"સ્ત્ર":2564,"ાવ્યા":2565,"▁વેચા":2566,"▁એડ":2567,"▁જગ્યાએ":2568,"▁જેની":2569,"▁લોન":2570,"▁પહોંચ્યા":2571,"▁પ્રશ":2572,"▁અચાનક":2573,"ોર":2574,"▁શકશે":2575,"▁દીધા":2576,"▁નેતાઓ":2577,"▁કરાવી":2578,"▁યુવાનો":2579,"લાઈન":2580,"▁આગાહી":2581,"▁મોટાભાગ":2582,"▁ઉજવણી":2583,"નોલોજી":2584,"લાલ":2585,"▁પાસ":2586,"▁તેમનું":2587,"▁ખબર":2588,"▁મર્યા":2589,"ણાટક":2590,"જિક":2591,"વ્ર":2592,"▁૧૧":2593,"▁વૈશ્વિક":2594,"▁મોહ":2595,"▁લાઇ":2596,"બીજા":2597,"▁કહેવાય":2598,"▁જૂન":2599,"ડિંગ":2600,"ાર્મિક":2601,"▁પ્રાથમિક":2602,"▁જિ":2603,"ન્માન":2604,"▁અમારા":2605,"રાષ્ટ્રીય":2606,"▁રાજ્યપાલ":2607,"મ્મુ":2608,"ત્મક":2609,"▁પાર્ટ":2610,"યલ":2611,"િસ્સા":2612,"▁સ્ટાર":2613,"કોર્ટ":2614,"▁પોતાનો":2615,"▁લોન્ચ":2616,"▁સંગઠ":2617,"▁ઉકેલ":2618,"▁સચ":2619,"ન્ટે":2620,"▁કોહલી":2621,"▁માલિક":2622,"રાટ":2623,"▁સ્થળે":2624,"ક્ષિત":2625,"▁વધુમાં":2626,"▁પાવ":2627,"એફ":2628,"ંગ્લાદેશ":2629,"▁જુલાઈ":2630,"▁અકસ્માત":2631,"▁મહાન":2632,"ભવ":2633,"▁લીધે":2634,"▁હોસ્પિટલ":2635,"▁નાની":2636,"▁મથ":2637,"સ્ટર":2638,"▁દ્":2639,"▁આવું":2640,"▁મહેન":2641,"▁ઈજા":2642,"▁ન્યૂ":2643,"▁નદી":2644,"પ્તાહ":2645,"વીર":2646,"લ્ટ":2647,"બાર":2648,"યુક્ત":2649,"▁તેવા":2650,"▁આવેલ":2651,"તેમ":2652,"▁એક્સપ્રેસ":2653,"્રેડ":2654,"▁ખાનગી":2655,"▁હેલ્":2656,"સૂ":2657,"▁છેમ":2658,"▁માર્કેટ":2659,"▁વેચ":2660,"યોધ્યા":2661,"▁હિન્દુ":2662,"ઘટના":2663,"▁ધાર્મિક":2664,"ભુ":2665,"▁અપે":2666,"▁ગરમી":2667,"▁યુવા":2668,"રાન":2669,"પરછ":2670,"▁એની":2671,"▁ધમકી":2672,"પોલી":2673,"▁ભૂત":2674,"લામાં":2675,"રેલી":2676,"▁વર્ગ":2677,"▁ગુના":2678,"ંડો":2679,"▁ચલાવ":2680,"▁ઉદ્":2681,"▁પ્રકાશ":2682,"ખે":2683,"૫૦":2684,"▁પ્લેટ":2685,"▁વલ":2686,"વાલો":2687,"▁જવાબદારી":2688,"રિક":2689,"▁શંકા":2690,"▁સામા":2691,"સલ":2692,"▁આપવાની":2693,"▁નિયમો":2694,"▁પૃ":2695,"▁બાબતે":2696,"કુમાર":2697,"▁સંબંધી":2698,"▁જેટલા":2699,"રાઈ":2700,"▁વ્યાજ":2701,"▁હતીઆ":2702,"▁દિવસમાં":2703,"રેજ":2704,"▁ક્ષમતા":2705,"▁ગ્રહ":2706,"ભો":2707,"▁અબ":2708,"ાની":2709,"▁અદાણી":2710,"▁તેમનો":2711,"▁ઔ":2712,"તિમ":2713,"▁ગ્રાહ":2714,"▁હળ":2715,"▁ઇન્ડિયા":2716,"દિક":2717,"▁ઇતિહાસ":2718,"▁સમાજ":2719,"▁સંખ્યામાં":2720,"▁અમને":2721,"▁જામ":2722,"▁બન્ને":2723,"▁આંકડા":2724,"▁છેહ":2725,"▁તણાવ":2726,"જનક":2727,"લેટ":2728,"ંબ":2729,"▁ન્યાય":2730,"જ્ઞાન":2731,"▁રહ્યાં":2732,"▁ધારાસભ્ય":2733,"સ્ટે":2734,"પ્રિય":2735,"ઇડ":2736,"▁સરકારના":2737,"▁મોર":2738,"પરા":2739,"▁હંમે":2740,"યત્":2741,"સન":2742,"▁સવાલ":2743,"▁પોતાનું":2744,"▁બિઝને":2745,"▁ઝો":2746,"ચાર્ય":2747,"▁સ્ટા":2748,"▁ભારતે":2749,"▁સમાન":2750,"ભૂ":2751,"▁વાહનો":2752,"▁રિલીઝ":2753,"▁આજનું":2754,"ગાળા":2755,"▁પ્રયત્":2756,"▁શકી":2757,"▁ટ્રાન્સ":2758,"▁બળ":2759,"▁આતંકવાદી":2760,"▁સ્ટેટ":2761,"▁ઉચ્ચ":2762,"▁નજીકના":2763,"▁સારો":2764,"સ્લિ":2765,"▁લાગુ":2766,"બજાર":2767,"રીને":2768,"ાંત":2769,"▁સંચાલ":2770,"▁છોડી":2771,"▁પાડી":2772,"▁ઉંચ":2773,"▁સંપત્તિ":2774,"▁ઓસ્ટ્રેલિયા":2775,"▁નિયંત્ર":2776,"સ્ટ્રી":2777,"▁માનસિક":2778,"▁રૂપિયાની":2779,"▁સું":2780,"▁૧૮":2781,"રિયાણા":2782,"પિત":2783,"▁હોવાનો":2784,"▁મોબ":2785,"િઝ":2786,"▁ક્યારેય":2787,"▁સીએમ":2788,"ત્ત":2789,"▁વિદેશી":2790,"▁આખ":2791,"▁ચહે":2792,"▁યુઝ":2793,"▁તેઓએ":2794,"કરો":2795,"▁પ્રતિક":2796,"્રેસે":2797,"▁દેશની":2798,"▁કોર્પોરેશન":2799,"▁ઝડપથી":2800,"▁એન્જ":2801,"▁ઉદ્યોગ":2802,"▁તસ":2803,"▁ફોર":2804,"ર્તિ":2805,"▁ટ્":2806,"▁કેજરીવાલ":2807,"ભે":2808,"ૃદય":2809,"▁ગતિ":2810,"▁ટીમે":2811,"▁કાશ્મી":2812,"▁ફરીથી":2813,"ાંડ":2814,"▁સોમવારે":2815,"▁સર્વિ":2816,"▁પોઈન્ટ":2817,"▁બોલમાં":2818,"કટ":2819,"રીમાં":2820,"▁હર":2821,"ર્જી":2822,"▁ઉછ":2823,"▁છા":2824,"▁૧૪":2825,"સ્વ":2826,"ન્ય":2827,"▁છેવ":2828,"▁મિત્રો":2829,"સં":2830,"કેશ":2831,"▁મોંઘ":2832,"▁જીવનમાં":2833,"▁તી":2834,"▁અંતિમ":2835,"ન્શન":2836,"▁શહેરના":2837,"▁પ્રગ":2838,"▁રાખીને":2839,"▁ફાયદો":2840,"સ્તો":2841,"▁એકબીજા":2842,"▁થોડો":2843,"ંજ":2844,"લાવી":2845,"▁માનવ":2846,"▁દવા":2847,"ોના":2848,"તૃત્વ":2849,"▁સન્માન":2850,"▁ફ્ર":2851,"સ્તવ":2852,"▁પડ્યો":2853,"▁સોસાય":2854,"▁દાદ":2855,"િયે":2856,"મું":2857,"▁રાજ્યના":2858,"▁સંભા":2859,"▁ફંડ":2860,"▁ત્રિ":2861,"▁નોંધાવી":2862,"▁રોકાણકારો":2863,"▁કાળ":2864,"▁દેવા":2865,"▁ઋ":2866,"▁ચીન":2867,"દુ":2868,"▁કર્ણાટક":2869,"▁નબ":2870,"પેન્દ્ર":2871,"▁તુ":2872,"▁બાંગ્લાદેશ":2873,"પમાં":2874,"કીને":2875,"▁નામના":2876,"▁ટ્રેન":2877,"▁બનશે":2878,"▁કરોડની":2879,"▁મહિલાઓ":2880,"▁અદ":2881,"મેટ":2882,"▁મુસ્લિ":2883,"▁સ્થિત":2884,"▁થા":2885,"▁સભ્ય":2886,"▁મેળવવા":2887,"▁કલમ":2888,"પૂર્વક":2889,"▁મહેનત":2890,"▁આઈપી":2891,"▁મકાન":2892,"સેના":2893,"▁ઑ":2894,"▁અમુક":2895,"સ્પે":2896,"▁વજન":2897,"▁મુદ્દે":2898,"▁હાર્":2899,"▁નેટ":2900,"▁ઓપરેશન":2901,"જીત":2902,"ચલ":2903,"▁છેલ્લી":2904,"▁વિષય":2905,"ચીત":2906,"ૂટી":2907,"ગલ":2908,"ુરુ":2909,"સ્વી":2910,"▁નહિ":2911,"▁સાધ":2912,"દર્શ":2913,"ંડા":2914,"▁જતાં":2915,"ડવામાં":2916,"▁પ્રમાણ":2917,"▁નીકળ":2918,"▁જમ્મુ":2919,"▁લૂ":2920,"▁અયોધ્યા":2921,"▁નેતૃત્વ":2922,"ળના":2923,"▁ટિ":2924,"▁વર્ષીય":2925,"▁જૂના":2926,"▁હૃદય":2927,"ટન":2928,"▁મદદથી":2929,"▁આફ્ર":2930,"▁આંતરરાષ્ટ્રીય":2931,"▁દિલ્હીમાં":2932,"▁પાલિકા":2933,"▁પરિવર્":2934,"▁દ્ર":2935,"▁પ્રચાર":2936,"▁ધરાવે":2937,"હર":2938,"▁ખાલી":2939,"▁સ્થળો":2940,"▁ઐ":2941,"▁સામાજિક":2942,"▁આપશે":2943,"▁શાસ":2944,"▁થયેલી":2945,"▁જ્યો":2946,"▁બિન":2947,"▁વ્":2948,"▁શૈ":2949,"▁રિઝ":2950,"▁કેર":2951,"▁બનાવે":2952,"▁કાન":2953,"▁મોટું":2954,"▁જારી":2955,"▁રૂ૧":2956,"▁સ્પર્ધા":2957,"▁તૈયારી":2958,"▁આક્ષે":2959,"▁ફૂટ":2960,"ડીમાં":2961,"▁તમારો":2962,"▁હંમેશા":2963,"▁દોડ":2964,"ભાજપ":2965,"▁વર્ષો":2966,"▁વાતચીત":2967,"▁મધ":2968,"▁સર્વે":2969,"કરે":2970,"▁બપોરે":2971,"▁દઈએ":2972,"▁વધારા":2973,"▁રહેવા":2974,"ઉન":2975,"▁વરસાદની":2976,"▁રેટ":2977,"▁ભાષા":2978,"સીના":2979,"▁સંતા":2980,"▁કરનારા":2981,"▁નાય":2982,"▁સમર્થન":2983,"▁રાખે":2984,"▁વાતો":2985,"▁દબાણ":2986,"▁૧૩":2987,"િવિલ":2988,"▁સુના":2989,"જારો":2990,"▁ફોટો":2991,"ંદુ":2992,"▁જ્ઞ":2993,"ન્સર":2994,"▁ખેંચ":2995,"▁યુપી":2996,"કામ":2997,"▁હજી":2998,"▁ગી":2999,"▁ઘા":3000,"▁બિલ્":3001,"▁મોડ":3002,"▁પ્રવાસ":3003,"▁વર":3004,"મ્બરે":3005,"▁ન્યુ":3006,"▁કામમાં":3007,"ઝિટ":3008,"યણ":3009,"▁બધું":3010,"▁અતિ":3011,"▁શુક્રવારે":3012,"▁સુંદર":3013,"▁ગર્":3014,"હ્":3015,"▁૩૦":3016,"▁ટુ":3017,"▁અહેવાલ":3018,"▁છેક":3019,"રીના":3020,"▁અપેક્ષા":3021,"્લેન્ડ":3022,"▁અત્યારે":3023,"▁૨૫":3024,"▁નાં":3025,"▁એટલું":3026,"▁ભાવનગર":3027,"▁સ્માર્ટફો":3028,"▁બાંધ":3029,"▁ઘરની":3030,"િસ્સો":3031,"▁કંટ":3032,"ર્ટે":3033,"ઇક":3034,"ાઈમ":3035,"પાલિકા":3036,"▁અક્ષ":3037,"પુરમાં":3038,"િત્વ":3039,"▁મુક":3040,"▁સંશો":3041,"▁ભોગ":3042,"▁ઘટ":3043,"▁ટેક્":3044,"▁બાદમાં":3045,"▁એકવાર":3046,"▁વેચાણ":3047,"▁બેઠકમાં":3048,"▁કેટલા":3049,"▁કોન્":3050,"▁તહે":3051,"▁હરિયાણા":3052,"તાને":3053,"▁ત્રીજા":3054,"▁ફુ":3055,"▁જણ":3056,"એન":3057,"થ્વી":3058,"વાઇ":3059,"▁સિસ્ટમ":3060,"ગ્રા":3061,"▁વાંચોઃ":3062,"▁સ્ત્રી":3063,"▁ગોળી":3064,"ડર":3065,"▁મિનિટ":3066,"▁અમિત":3067,"▁સંબો":3068,"૦૦૦":3069,"▁મંગળવારે":3070,"ક્ષી":3071,"કોંગ":3072,"ૈયા":3073,"▁અવા":3074,"▁ઘો":3075,"▁દુર્ઘટના":3076,"લિંગ":3077,"▁સ્કૂ":3078,"▁દરો":3079,"ંદે":3080,"ન્ડર":3081,"▁રદ":3082,"▁બુધવારે":3083,"ફ્ટી":3084,"ડાઈ":3085,"▁સિદ્ધ":3086,"િકાર":3087,"▁ગુણ":3088,"▁માટેની":3089,"▁પાઠ":3090,"▁કું":3091,"▁ફૂ":3092,"લ્લ":3093,"ઓથી":3094,"▁સૂચના":3095,"▁બધી":3096,"▁પંડ":3097,"ખડ":3098,"▁હાજરી":3099,"▁દુખ":3100,"▁વિભાગે":3101,"▁વરિ":3102,"▁ચાર્જ":3103,"▁પૂછપરછ":3104,"▁નવો":3105,"▁કરાઈ":3106,"▁જોર":3107,"ણીએ":3108,"ટીમાં":3109,"▁નિર્માણ":3110,"▁કેમે":3111,"▁આપો":3112,"▁વધારી":3113,"▁તાત્કા":3114,"ાયદે":3115,"▁સત્તાવાર":3116,"રીઝ":3117,"▁ગેરક":3118,"▁જવાનો":3119,"ગ્રસ્ત":3120,"▁પૈકી":3121,"▁એટલા":3122,"▁કરશો":3123,"▁લાવ":3124,"મ્મદ":3125,"▁જોઇએ":3126,"▁ઝા":3127,"વાને":3128,"▁વેર":3129,"▁અમેરિક":3130,"▁મંત્રાલય":3131,"▁બ્રે":3132,"▁ત્રણે":3133,"▁કરેલા":3134,"▁અંબા":3135,"▁સ્વીકાર":3136,"▁પગાર":3137,"કોએ":3138,"▁રાજ્યોમાં":3139,"રોની":3140,"્યાંક":3141,"ંગ્લેન્ડ":3142,"▁મોબાઈલ":3143,"▁પુન":3144,"માલ":3145,"▁ઇન્ટ":3146,"▁કેપ":3147,"▁ચાંદી":3148,"શ્ર":3149,"▁બચાવ":3150,"▁પ્રિય":3151,"કોની":3152,"ટલ":3153,"▁વ્યસ્ત":3154,"રાષ્ટ્ર":3155,"▁સુનાવણી":3156,"▁પકડ":3157,"હરણ":3158,"રિટી":3159,"ૂક":3160,"ઝર":3161,"▁વરિષ્ઠ":3162,"▁લોકપ્રિય":3163,"તેમણે":3164,"ર્ય":3165,"▁આથી":3166,"મ્સ":3167,"ઝો":3168,"▁એન્જિન":3169,"ષ્ઠા":3170,"ર્ષિક":3171,"▁પરેશ":3172,"▁યુક્રે":3173,"▁સીટ":3174,"▁સાઉ":3175,"▁સિવિલ":3176,"▁રાજીના":3177,"▁શરીર":3178,"▁એન્":3179,"▁બાબત":3180,"▁કલે":3181,"▁લગ્":3182,"▁પુરુ":3183,"▁ફક્ત":3184,"ઈન":3185,"▁કંપનીઓ":3186,"ોએ":3187,"▁સપ્તાહ":3188,"▁ગેરકાયદે":3189,"ફાઈ":3190,"▁૨૪":3191,"ષિ":3192,"▁કહેવા":3193,"▁વિરાટ":3194,"ધાની":3195,"▁ફોર્મ":3196,"▁કરાયો":3197,"ક્કર":3198,"▁દીકરી":3199,"▁હેલ્થ":3200,"▁ટીમો":3201,"▁મોદીના":3202,"્રષ્ટા":3203,"▁કાર્યક્રમ":3204,"▁પૃથ્વી":3205,"▁ભૂપેન્દ્ર":3206,"▁રમી":3207,"▁રવિવારે":3208,"▁મોકલી":3209,"▁અજા":3210,"▁ફ્લા":3211,"▁ગામમાં":3212,"▁માથા":3213,"ત્સા":3214,"▁જામી":3215,"▁૨૦૨૩":3216,"▁મહત્વની":3217,"▁મળતી":3218,"▁પાછા":3219,"▁સહયોગ":3220,"ષે":3221,"▁મના":3222,"▁આકર્ષ":3223,"▁ભારતી":3224,"▁દિશા":3225,"▁ભજ":3226,"▁પગલાં":3227,"વડ":3228,"▁ફાયદાકારક":3229,"▁હાઉ":3230,"▁નોંધી":3231,"▁શરૂઆ":3232,"વર્":3233,"▁સ્પે":3234,"▁મુશ્કેલ":3235,"જીવ":3236,"ંદા":3237,"વ્યા":3238,"▁જેઓ":3239,"▁સરળ":3240,"▁મળીને":3241,"િશ":3242,"▁જતી":3243,"હુ":3244,"▁વધશે":3245,"પત્ર":3246,"▁પડકાર":3247,"▁સરકારની":3248,"ણીમાં":3249,"પ્સ":3250,"તાઓ":3251,"▁સંજય":3252,"▁બ્રિટ":3253,"▁મર્યાદા":3254,"▁રચના":3255,"▁સકારાત્મક":3256,"▁તાત્કાલિક":3257,"▁આઝ":3258,"▁મગ":3259,"▁સ્ટેશનમાં":3260,"▁ભાવમાં":3261,"લને":3262,"▁બાર":3263,"▁અખ":3264,"▁બાઈ":3265,"▁માટેના":3266,"▁ગરી":3267,"▁રહો":3268,"▁જેલમાં":3269,"▁હતોઆ":3270,"▁આપણી":3271,"▁બીમારી":3272,"▁પૂર્":3273,"▁નામની":3274,"▁બતા":3275,"▁કઈ":3276,"▁કોંગ્રેસે":3277,"▁નિર્દેશ":3278,"ક્તો":3279,"વાહ":3280,"▁ઇઝરા":3281,"િટલ":3282,"▁તરત":3283,"▁ફિલ્મમાં":3284,"ડાની":3285,"▁લગાવી":3286,"▁દંડ":3287,"▁પ્રોડ":3288,"▁રાજા":3289,"ાવતા":3290,"▁ફળ":3291,"▁વકી":3292,"લાની":3293,"▁તળ":3294,"લીમાં":3295,"▁વાર્ષિક":3296,"▁ગણતરી":3297,"▁આફ્રિકા":3298,"▁નું":3299,"▁આપીને":3300,"▁પ્રી":3301,"દિલ્હી":3302,"▁ભાવના":3303,"▁મૃતદે":3304,"▁ખસે":3305,"શ્વર":3306,"▁ગણા":3307,"▁પિ":3308,"િયાત":3309,"▁દાય":3310,"▁બીજ":3311,"અપ":3312,"૩૦":3313,"▁સંયુક્ત":3314,"▁દિગ્":3315,"▁આચાર્ય":3316,"▁હોવાના":3317,"▁મોટાભાગના":3318,"▁તેવું":3319,"▁સમક્ષ":3320,"લાઇન":3321,"▁ખુબ":3322,"▁જોખમ":3323,"લંકા":3324,"▁બતાવ":3325,"▁જાણે":3326,"▁કોચ":3327,"કાળ":3328,"▁શ્રેષ્ઠ":3329,"▁ગૂ":3330,"▁છેએ":3331,"▁ભાજપને":3332,"▁પ્રોત્સા":3333,"▁જેટલી":3334,"▁મેડિકલ":3335,"ટની":3336,"જ્ઞા":3337,"▁મૂલ":3338,"▁કથ":3339,"હોલ":3340,"▁ઉર્ફે":3341,"▁ક્લા":3342,"▁દિવસોમાં":3343,"▁બિઝનેસ":3344,"▁સુધારો":3345,"▁કિસ્સા":3346,"▁ગાય":3347,"▁ભુ":3348,"નવી":3349,"▁સૈનિક":3350,"▁નિશાન":3351,"દરાબાદ":3352,"ટેક":3353,"▁મીમી":3354,"▁આધારિત":3355,"▁૧૬":3356,"ણંદ":3357,"ંતી":3358,"પત્ની":3359,"▁૧૭":3360,"▁ઓછું":3361,"ેક્સ":3362,"▁છેતર":3363,"ભારત":3364,"▁પુર":3365,"મુંબ":3366,"જને":3367,"▁ઈંચ":3368,"▁કાઢી":3369,"ળીને":3370,"જ્યારે":3371,"▁જસ્ટ":3372,"▁બોલી":3373,"પાત્ર":3374,"▁ક્યારેક":3375,"▁કમાણી":3376,"શીલ":3377,"યાત":3378,"▁દૂધ":3379,"▁પ્રજા":3380,"ધામ":3381,"▁અરવિંદ":3382,"ઉં":3383,"▁સ્પી":3384,"▁હોત":3385,"▁મ્યુનિ":3386,"જન્સી":3387,"▁દરિયા":3388,"▁સ્તરે":3389,"્યુઅલ":3390,"▁ઘટનાઓ":3391,"▁વિરોધી":3392,"સીને":3393,"▁બેટિંગ":3394,"▁તું":3395,"▁વાસ્તવ":3396,"ક્રિય":3397,"▁પ્લેટફોર્મ":3398,"નેશ":3399,"ાર્ડ":3400,"▁ટાઇ":3401,"▁મુંબઇ":3402,"▁શકશો":3403,"▁ચાહ":3404,"ંવાર":3405,"ંહે":3406,"▁બન્યો":3407,"ત્તી":3408,"▁ગુરુવારે":3409,"▁મંડ":3410,"▁મેદાનમાં":3411,"પ્રદ":3412,"▁સપાટી":3413,"ત્રિ":3414,"▁વહી":3415,"▁કિમી":3416,"ગેટ":3417,"▁આર્":3418,"▁ઘટીને":3419,"પજ":3420,"▁ઓફિ":3421,"▁લાગ્યા":3422,"▁જૈ":3423,"▁વિન":3424,"▁લાગણી":3425,"▁બાળક":3426,"▁ઓલ":3427,"ધરી":3428,"▁સરે":3429,"▁લોકસભાની":3430,"▁જાતકો":3431,"▁પેટ્રોલ":3432,"ંપરા":3433,"▁આંદ":3434,"▁ઇજા":3435,"બિ":3436,"▁ઈન્ટ":3437,"ગામ":3438,"▁પુરુષ":3439,"▁પોર્ટ":3440,"▁લાય":3441,"સ્તાવે":3442,"હાલ":3443,"નાત":3444,"▁જાળવી":3445,"▁હતાઆ":3446,"▁શકા":3447,"▁બેંગ":3448,"રાજ્ય":3449,"▁મામલો":3450,"િવારિક":3451,"▁ગાંધીએ":3452,"ઘુ":3453,"નિયર":3454,"▁ઘૂ":3455,"પ્પ":3456,"રોએ":3457,"▁સ્ટાફ":3458,"પિતા":3459,"▁ડિઝ":3460,"▁ચેત":3461,"રેટ":3462,"ંકર":3463,"▁વારંવાર":3464,"▁દુક":3465,"▁સ્વતંત્ર":3466,"▁ઉત્પાદન":3467,"▁પ્રદેશમાં":3468,"▁બંધાર":3469,"યાન":3470,"▁બદલી":3471,"િત્ય":3472,"▁યશ":3473,"વેલ":3474,"ંગના":3475,"▁મહિને":3476,"▁પારિવારિક":3477,"▁ટ્રાફિક":3478,"▁શનિવારે":3479,"▁આંદોલ":3480,"▁થતો":3481,"▁ઓનલાઈન":3482,"▁એમાં":3483,"ઠ્":3484,"▁સૂચ":3485,"▁ફટકાર":3486,"▁કરેલી":3487,"▁સેટ":3488,"▁જોગ":3489,"▁સ્થાને":3490,"▁ડ્રગ":3491,"▁જૂથ":3492,"ામાં":3493,"▁છેજે":3494,"▁દસ્તાવે":3495,"િની":3496,"▁છૂ":3497,"▁શક્ય":3498,"ળામાં":3499,"▁લાગ્યો":3500,"▁ધારાસભ્યો":3501,"▁આદમી":3502,"ાદી":3503,"▁જઇ":3504,"આઈએ":3505,"યોગી":3506,"▁કૃષ્ણ":3507,"▁વાળ":3508,"▁સરખ":3509,"કિર્":3510,"તાએ":3511,"▁ફ્રે":3512,"▁સ્કોર":3513,"▁અપી":3514,"બૂ":3515,"▁ગોલ્ડ":3516,"▁૨૦૦":3517,"ાયત":3518,"▁સ્ટેડ":3519,"▁૨૨":3520,"ડાં":3521,"રાની":3522,"▁સ્વામી":3523,"કાનો":3524,"્યાન":3525,"▁ગીત":3526,"▁વિભાગના":3527,"▁ગઠબંધન":3528,"ણની":3529,"▁ગમે":3530,"▁ખોરા":3531,"રાના":3532,"▁રાવ":3533,"▁પરંપરા":3534,"▁મોબા":3535,"્યાલ":3536,"▁૫૦":3537,"▁ગુસ્":3538,"▁કોઈને":3539,"▁આતંકી":3540,"▁આના":3541,"▁ખુશ":3542,"▁વય":3543,"પાર":3544,"▁બીજે":3545,"▁જાેવા":3546,"▁ભરા":3547,"ગુજરાત":3548,"િલના":3549,"▁રહેતી":3550,"▁કુમા":3551,"▁જયારે":3552,"▁પ્રસંગ":3553,"▁કારકિર્":3554,"▁દેવી":3555,"▁કારણો":3556,"પાન":3557,"્યંત":3558,"▁ભક્તો":3559,"▁મીટર":3560,"▁લિસ્ટ":3561,"સુર":3562,"▁આશરે":3563,"▁નવું":3564,"▁એલર્ટ":3565,"▁યુએસ":3566,"▁હૈદરાબાદ":3567,"▁મળતા":3568,"ઈટ":3569,"▁કહ્યુ":3570,"ભારતીય":3571,"▁મોહમ્મદ":3572,"▁વિલ":3573,"પિં":3574,"▁ધોરણ":3575,"▁વિકલ્પ":3576,"▁કંપનીના":3577,"▁મહત્ત્વ":3578,"▁આર્ટ":3579,"▁ચુક":3580,"▁પ્રદેશના":3581,"▁કિલોમી":3582,"▁ઘાયલ":3583,"▁સરકારને":3584,"ણના":3585,"▁સર્વ":3586,"▁ધીમે":3587,"ાવત":3588,"▁પુત્રી":3589,"લોક":3590,"▁આદિ":3591,"▁હિંસા":3592,"▁જ્યોતિ":3593,"▁નીકળી":3594,"▁પોલિ":3595,"▁સંદર્":3596,"▁ખુલા":3597,"▁જનરલ":3598,"▁અંતર":3599,"▁કૌભ":3600,"▁વ્યવહાર":3601,"▁ગુલા":3602,"▁ઇંચ":3603,"▁ઘરના":3604,"▁સરળતા":3605,"▁શખ્":3606,"▁તેમાંથી":3607,"▁લક્ષ્":3608,"▁મોડી":3609,"મેલ":3610,"▁જાગ":3611,"▁હાર્દિક":3612,"▁મેસે":3613,"▁જથ્":3614,"ડીના":3615,"▁નિષ્ણા":3616,"્યુલ":3617,"સ્ટા":3618,"▁દિલ્હીના":3619,"▁બેં":3620,"▁પતિપત્ની":3621,"▁ઉમેર":3622,"▁કડક":3623,"દની":3624,"▁સમયગાળા":3625,"▁સાથેના":3626,"▁સંકે":3627,"સીબી":3628,"▁યાદીમાં":3629,"▁નિષ્ફળ":3630,"▁અભિનેત્રી":3631,"▁નહોતી":3632,"▁તાલુકામાં":3633,"▁બ્લડ":3634,"▁મારે":3635,"ઉલ્લેખ":3636,"▁મંદિરમાં":3637,"્રમ":3638,"▁ભય":3639,"▁કરાયેલા":3640,"જ્જ":3641,"ઇન":3642,"▁કોમ":3643,"▁મતદારો":3644,"▁વિશ":3645,"▁શ્વા":3646,"▁માંડ":3647,"▁પરિવર્તન":3648,"પિયા":3649,"▁માંગણી":3650,"▁વૃદ્ધિ":3651,"▁રિઝર્વ":3652,"પની":3653,"▁ભોજન":3654,"▁માધ્ય":3655,"▁હુ":3656,"▁પ્રિ":3657,"▁શ્રીલંકા":3658,"▁અપના":3659,"કોર્ટે":3660,"▁દર્શાવે":3661,"▁જાતિ":3662,"િવિ":3663,"રનેશનલ":3664,"▁સહિતની":3665,"▁તત્":3666,"▁આવો":3667,"થ્થ":3668,"ત્તમ":3669,"સીટી":3670,"▁મારો":3671,"સીપી":3672,"▁અંતે":3673,"▁હાં":3674,"િયાર":3675,"▁પોલીસની":3676,"▁શીખ":3677,"▁હેડ":3678,"▁સમુદાય":3679,"્યુટી":3680,"▁સેન્ટર":3681,"▁પ્રવૃત્તિઓ":3682,"▁દેશભરમાં":3683,"▁ફટકારી":3684,"▁નોંધા":3685,"▁અનામત":3686,"િકો":3687,"▁સુરક્ષિત":3688,"▁નકારાત્મક":3689,"▁દુકાન":3690,"ત્યા":3691,"▁રાય":3692,"▁ચોક":3693,"▁સ્વચ્છ":3694,"▁મેડલ":3695,"નામાં":3696,"▁દાયકા":3697,"દિવ":3698,"▁ઉભા":3699,"▁કાર્યક્ષ":3700,"▁ટીવી":3701,"રાહ":3702,"ાદે":3703,"▁ઉંમ":3704,"▁લેતા":3705,"▁ટૂંક":3706,"▁યુવક":3707,"શાળી":3708,"▁મુકા":3709,"▁આગે":3710,"▁કિંગ":3711,"જાે":3712,"▁સાંસ":3713,"▁ચેક":3714,"કાંઠા":3715,"ઝે":3716,"માની":3717,"ર્મે":3718,"▁અહ":3719,"નીતિ":3720,"▁સુધીની":3721,"▁અગ્ર":3722,"▁ત્રણેય":3723,"▁પાત્ર":3724,"▁કેસો":3725,"▁જોઈને":3726,"▁પાલન":3727,"▁બ્રિજ":3728,"ગાંધી":3729,"▁ક્ષેત્રમાં":3730,"▁મૂર્તિ":3731,"▁શેખ":3732,"▁સરખામ":3733,"▁ઉતાર":3734,"▁મુક્ત":3735,"▁વસ્તી":3736,"▁ઓફર":3737,"વાલે":3738,"▁તૂટી":3739,"▁ત્રીજી":3740,"▁રુપ":3741,"▁સત્ય":3742,"▁શબ્દો":3743,"િએ":3744,"▁લોહી":3745,"▁હાથમાં":3746,"▁સરેરાશ":3747,"▁તમ":3748,"▁ઓછો":3749,"▁ચેમ્પ":3750,"▁તાલુકાના":3751,"▁અત્યંત":3752,"રેશ":3753,"નલમાં":3754,"યાબ":3755,"▁સૌરાષ્ટ્ર":3756,"▁અપીલ":3757,"િયો":3758,"લીમ":3759,"▁પાવર":3760,"▁કચ્છ":3761,"▁કોન્ટ":3762,"▁ચેર":3763,"▁અજાણ":3764,"▁અનુક":3765,"▁વિચારો":3766,"▁સલ":3767,"નુમાન":3768,"પ્લે":3769,"નોને":3770,"▁પવાર":3771,"▁જામીન":3772,"▁ક્લ":3773,"▁વિદ્યાર્થીઓને":3774,"▁દ્વાર":3775,"કોંગ્રેસ":3776,"▁દસ":3777,"સિપલ":3778,"▁જુદા":3779,"યાં":3780,"લેશ":3781,"▁ઓવર":3782,"▁પ્રતિષ્ઠા":3783,"માન્ડ":3784,"▁રાજકો":3785,"▁ભૂલ":3786,"▁પ્રમાણમાં":3787,"▁દોષ":3788,"૨૪":3789,"▁આંખ":3790,"▁દાન":3791,"▁ઓછામાં":3792,"▁શરૂઆતમાં":3793,"▁યુવાન":3794,"▁ઠેર":3795,"▁નિયમિત":3796,"▁અઠવાડ":3797,"▁કર્મચારી":3798,"▁મુદ્દો":3799,"▁ત્વ":3800,"▁રજા":3801,"▁વ્યક્તિને":3802,"▁વિગત":3803,"ડેટ":3804,"▁મની":3805,"▁દેશોમાં":3806,"▁મિશન":3807,"▁નોટિસ":3808,"▁કથિત":3809,"▁નારાજ":3810,"ારીરિક":3811,"▁સ્વાગત":3812,"▁ગાઝા":3813,"▁કન્":3814,"લિમ્પ":3815,"▁બાળકોને":3816,"▁સમસ્યાઓ":3817,"▁હિસ્સો":3818,"▁૨૧":3819,"▁અંતર્":3820,"▁સર્વિસ":3821,"▁જેનો":3822,"▁અધિકાર":3823,"▁૨૦૨૪":3824,"▁સક્રિય":3825,"▁કચે":3826,"▁છેતે":3827,"▁ભારતને":3828,"▁પવન":3829,"કેશન":3830,"▁સંતો":3831,"▁કેમેરા":3832,"▁સોંપ":3833,"▁તેજ":3834,"▁અણ":3835,"▁હિન્":3836,"▁અબજ":3837,"્રિક":3838,"▁ઉત્સા":3839,"▁જવાની":3840,"▁ચેતવણી":3841,"▁મનમાં":3842,"▁મુસ્લિમ":3843,"▁બરા":3844,"▁દરરોજ":3845,"▁અપા":3846,"▁હકી":3847,"ઇન્ટ":3848,"▁શોધી":3849,"▁પોતાને":3850,"▁હેતુ":3851,"રબ":3852,"▁છેતરપિં":3853,"ષભ":3854,"▁ખાતરી":3855,"ફિકેશન":3856,"કુલ":3857,"મસ":3858,"રેખર":3859,"▁શરીરમાં":3860,"▁વાળા":3861,"▁દરવા":3862,"▁કલાકમાં":3863,"▁સાથી":3864,"▁સંત":3865,"ડેજા":3866,"▁અંદાજ":3867,"કોના":3868,"▁પ્રયાસો":3869,"▁રચ":3870,"▁ચીફ":3871,"▁પ્રસ્તા":3872,"▁માને":3873,"▁જવાબદાર":3874,"▁ગ્રે":3875,"▁શાક":3876,"▁તોડી":3877,"સ્પદ":3878,"▁તુલ":3879,"▁ભૂક":3880,"▁પેમેન્ટ":3881,"નમ":3882,"▁છેત":3883,"ઈલ":3884,"▁સિંહે":3885,"▁પ્રશ્ન":3886,"▁મણ":3887,"સીએ":3888,"▁પર્વ":3889,"▁અલી":3890,"ંસ":3891,"ંતિ":3892,"▁પ્રાણ":3893,"▁ચમ":3894,"▁મૂકી":3895,"પથ":3896,"▁અગ્":3897,"લાના":3898,"▁કાર્યોમાં":3899,"ક્ષણિક":3900,"▁અંતર્ગત":3901,"▁ચક્ર":3902,"▁શારીરિક":3903,"▁ફાળ":3904,"▁ખોટી":3905,"ડના":3906,"▁ઈચ્છ":3907,"▁કાપ":3908,"▁મશી":3909,"▁ક્રો":3910,"▁ટાઈ":3911,"વેસ્ટ":3912,"▁થઈને":3913,"તાથી":3914,"િસ્તાન":3915,"▁ખુશી":3916,"▁નિવ":3917,"▁લડી":3918,"મંડ":3919,"નિધિ":3920,"▁બજ":3921,"ઉલ્લેખનીય":3922,"ૂમ":3923,"▁અભિન":3924,"▁માતાપિતા":3925,"સ્કાર":3926,"▁મેટ":3927,"▁વધે":3928,"▁યાદી":3929,"▁કસ્ટ":3930,"▁નિકાસ":3931,"▁કેન્દ્રિત":3932,"▁સાંભળ":3933,"▁ફિ":3934,"ન્સેક્સ":3935,"▁ફૂડ":3936,"▁વાયરસ":3937,"▁જેલ":3938,"▁ઉભી":3939,"▁આક્ષેપ":3940,"ઘાત":3941,"વ્યો":3942,"▁દુઃ":3943,"▁નિયમ":3944,"ફાઇ":3945,"▁મોબાઇલ":3946,"▁તબક્કામાં":3947,"▁છૂટ":3948,"▁વોટ":3949,"િલે":3950,"▁શેરબજાર":3951,"ઘાન":3952,"▁રેડ":3953,"ગમ":3954,"▁ઉદા":3955,"▁સ્કી":3956,"▁ગ્રૂ":3957,"▁ધા":3958,"▁ઇન":3959,"▁સીટો":3960,"▁છોકરી":3961,"▁હનુમાન":3962,"▁બગ":3963,"▁વિશ્વમાં":3964,"▁વહેલી":3965,"▁અધિકારીએ":3966,"▁પ્રયત્ન":3967,"▁પેલે":3968,"▁સહાય":3969,"ઇઝ":3970,"ધર":3971,"▁ભૂતપૂર્વ":3972,"▁મૃતદેહ":3973,"▁પ્રસ્તાવ":3974,"▁કટ":3975,"▁આધુ":3976,"સ્ત્રી":3977,"▁૧૦૦":3978,"▁ગરમ":3979,"ડીયા":3980,"▁માંગે":3981,"વતી":3982,"▁હાઈકોર્ટ":3983,"મેર":3984,"▁ગેસ":3985,"▁ચઢ":3986,"▁અંગત":3987,"▁પક્ષો":3988,"ાયેલ":3989,"▁બેન":3990,"▁બન્યું":3991,"▁માહોલ":3992,"▁લેવાની":3993,"▁ચાલે":3994,"દના":3995,"▁રમત":3996,"ંડે":3997,"▁ટ્વિ":3998,"▁પામ":3999,"▁આધુનિક":4000,"▁ચૌધરી":4001,"ધિક":4002,"▁યુગ":4003,"▁ડોલ":4004,"યન":4005,"સ્ટિક":4006,"શિયન":4007,"▁વિકસ":4008,"▁કારકિર્દી":4009,"▁૨૩":4010,"▁આરામ":4011,"▁યોગદાન":4012,"▁જાડેજા":4013,"▁કપૂર":4014,"▁ત્યાંથી":4015,"સારી":4016,"શાહી":4017,"▁શૂટ":4018,"▁બોન્ડ":4019,"ક્સિ":4020,"▁ઈતિહાસ":4021,"▁કાઉ":4022,"▁શ્રદ્ધ":4023,"રાગ":4024,"▁સ્થાપના":4025,"▁ક્લિક":4026,"▁માંથી":4027,"▁ક્વો":4028,"રેક્ટર":4029,"▁જપ્ત":4030,"▁યુરો":4031,"▁રાજ્યસભા":4032,"જુન":4033,"▁ત્વચા":4034,"▁હેન્ડ":4035,"▁માણસ":4036,"▁ગામના":4037,"ળું":4038,"▁મૌ":4039,"▁ઘણો":4040,"દાચ":4041,"▁પ્રવૃત્તિઓમાં":4042,"▁આપના":4043,"▁તોડ":4044,"▁લાવી":4045,"▁રાખવું":4046,"સ્થિત":4047,"▁ક્રેડ":4048,"કાર્":4049,"▁બુક":4050,"▁વહીવ":4051,"▁કૂ":4052,"▁સ્પેશ":4053,"વર્ષ":4054,"▁આજના":4055,"▁પહોંચા":4056,"▁દિવાળી":4057,"▁જામનગર":4058,"▁સાંસદો":4059,"યાબિટી":4060,"▁સરહ":4061,"▁રહેતો":4062,"▁બેન્ક":4063,"▁ઠંડી":4064,"▁તપાસમાં":4065,"▁ઉંમર":4066,"▁ખરેખર":4067,"ર્ડર":4068,"▁મોકલવામાં":4069,"▁પાર્ટીએ":4070,"▁ક્રેડિટ":4071,"બીઆઈ":4072,"ષ્ટ્રપતિ":4073,"▁ચહેરા":4074,"▁ભલે":4075,"▁ખી":4076,"નાન્સ":4077,"▁કિંમ":4078,"▁મધ્યપ્રદેશ":4079,"▁રહેવાની":4080,"▁હથ":4081,"▁સંઘર્ષ":4082,"▁ગયેલા":4083,"▁વિટ":4084,"▁પહેર":4085,"▁કુદર":4086,"▁સંભવ":4087,"▁પૂરા":4088,"▁વસ્તુઓ":4089,"▁રિટ":4090,"જીએ":4091,"▁ડોક્ટ":4092,"▁કેબ":4093,"▁રાજીનામું":4094,"▁સંકળ":4095,"▁છુ":4096,"▁પલ":4097,"્રલ":4098,"▁ધંધા":4099,"▁આખી":4100,"▁લીધું":4101,"▁ગામે":4102,"▁દ્રષ્ટ":4103,"▁સોલ":4104,"▁શકતા":4105,"ષ્ક":4106,"▁ઊભી":4107,"▁અમેરિકામાં":4108,"▁વેપારી":4109,"▁ખત":4110,"▁પેપર":4111,"▁પાણીની":4112,"ઠો":4113,"▁સંસ્ક":4114,"▁હજારો":4115,"▁સમી":4116,"▁ભાજપની":4117,"રજ":4118,"૧૦":4119,"▁તબી":4120,"▁કરું":4121,"▁પરના":4122,"▁મ્યુનિસિપલ":4123,"▁ઉત્તરા":4124,"▁બોલાવ":4125,"સીની":4126,"▁વીજળી":4127,"▁૨૦૨૨":4128,"રૂપે":4129,"પીએમ":4130,"મૂ":4131,"▁ભરપૂર":4132,"સાથે":4133,"▁નર":4134,"▁અનુભવી":4135,"▁જહા":4136,"દિ":4137,"▁છેજો":4138,"▁તારા":4139,"▁ઘણું":4140,"થુ":4141,"▁કોલકા":4142,"સગઢ":4143,"▁એચ":4144,"▁ફ્લે":4145,"▁કદાચ":4146,"▁હોમ":4147,"▁કરાયા":4148,"▁આખરે":4149,"▁જીએસ":4150,"▁માસ":4151,"▁બીજો":4152,"▁અમેરિકાના":4153,"ન્ટરવ":4154,"▁અભિયાન":4155,"▁ઉપરાષ્ટ્રપતિ":4156,"▁પ્રગતિ":4157,"▁રમે":4158,"▁લગાવ":4159,"▁વિનંતી":4160,"વાયા":4161,"ંધો":4162,"▁વર્ષનો":4163,"▁સ્વરૂપ":4164,"▁જૂની":4165,"▁૪૦":4166,"▁પાડવામાં":4167,"▁ચેમ્પિયન":4168,"ગાંધીનગર":4169,"▁ટોપ":4170,"્વર":4171,"▁બીએસ":4172,"▁અમૃત":4173,"દૂ":4174,"ણામે":4175,"▁ઓટો":4176,"▁ગઈકાલે":4177,"▁માન્યતા":4178,"▁કંપનીએ":4179,"▁ખુલાસો":4180,"▁છેતરપિંડી":4181,"કૃ":4182,"▁મમતા":4183,"▁લોકોમાં":4184,"▁પટેલે":4185,"▁સાઉથ":4186,"પન":4187,"ર્ના":4188,"▁સાથેની":4189,"ત્તર":4190,"▁સંબોધ":4191,"બળ":4192,"▁ઓલિમ્પ":4193,"▁ટેકનોલોજી":4194,"▁અશ્":4195,"કોમાં":4196,"▁લક્ષ્ય":4197,"ાયર":4198,"પ્શન":4199,"▁કરોડના":4200,"▁કલ્યા":4201,"▁રૃપિયા":4202,"વિશ્વાસ":4203,"▁બનેલી":4204,"▁ડર":4205,"▁આકાશ":4206,"▁લેશે":4207,"▁ખડ":4208,"▁દીપ":4209,"ત્તીસગઢ":4210,"▁વેસ્ટ":4211,"▁રિસ":4212,"▁વિઝા":4213,"▁ટન":4214,"▁હિત":4215,"ણુ":4216,"ર્ત":4217,"▁નેટવ":4218,"▁હિન્દી":4219,"▁હિંદુ":4220,"ુમતી":4221,"▁ભાગીદારી":4222,"▁ચૂક્યા":4223,"▁રહેવાસી":4224,"▁કોન્ટ્રા":4225,"▁સમાપ્ત":4226,"▁કાયદો":4227,"▁રોકડ":4228,"▁સદ":4229,"▁પરિણામો":4230,"▁ચોમા":4231,"▁મિસ":4232,"▁સુધીના":4233,"▁પ્રવાસી":4234,"▁જઈને":4235,"▁શેરોમાં":4236,"▁આપવાનો":4237,"▁લાખની":4238,"▁જેવું":4239,"▁સ્વપ્":4240,"▁દિવસના":4241,"▁દોડી":4242,"▁સંર":4243,"▁યોજાઈ":4244,"▁તેજી":4245,"▁સંક્ર":4246,"▁ગોઠ":4247,"સીટીવી":4248,"ંજન":4249,"▁સંભાળ":4250,"▁કરાશે":4251,"▁વડે":4252,"▁રાશિફળગણેશજી":4253,"ડતા":4254,"▁યોજનાઓ":4255,"▁અવાજ":4256,"▁પ્રેર":4257,"▁ટાળ":4258,"▁વિધાનસભાની":4259,"▁ઝઘ":4260,"શ્ચર્ય":4261,"▁અનો":4262,"▁ભારતીયો":4263,"િરા":4264,"હૂ":4265,"▁સંદેશ":4266,"▁સુધાર":4267,"ત્કાર":4268,"મનાથ":4269,"૨૩":4270,"▁ભૂકંપ":4271,"▁આવીને":4272,"▁બોલિવ":4273,"▁કંટ્રોલ":4274,"▁લેવી":4275,"▁છેપ":4276,"▁મેન":4277,"▁દલી":4278,"▁ગણેશ":4279,"▁જેનાથી":4280,"▁કાર્યક્રમમાં":4281,"▁મેઘ":4282,"▁પીડ":4283,"ચિત":4284,"▁પાટી":4285,"▁બ્લો":4286,"▁પ્લાન":4287,"▁હાઉસ":4288,"▁મારફ":4289,"▁ઈરા":4290,"▁વ્યવસાયિક":4291,"▁સત્ર":4292,"કાલ":4293,"▁ઉતર":4294,"▁મળવા":4295,"▁દેખાય":4296,"▁આખા":4297,"▁લિમિ":4298,"▁ડ્રગ્સ":4299,"▁વૃક્ષ":4300,"ટેલ":4301,"▁સરળતાથી":4302,"▁સગી":4303,"વૃ":4304,"▁છેકે":4305,"સ્ત્રો":4306,"▁કલ્":4307,"▁દિલ":4308,"▁માર્ગદર્શન":4309,"▁પ્રભાવિત":4310,"બરે":4311,"▁બનાવીને":4312,"સ્ફો":4313,"▁રુપિયા":4314,"▁કરાર":4315,"પદ":4316,"▁એનડીએ":4317,"▁ડ્રો":4318,"રેન":4319,"▁ઉમ":4320,"▁પરમા":4321,"▁ચારે":4322,"▁ડિજ":4323,"▁મેસેજ":4324,"▁અભિનેતા":4325,"▁શબ્દ":4326,"▁અફઘાન":4327,"▁નારા":4328,"▁તીવ્ર":4329,"▁કયા":4330,"▁પડતા":4331,"પ્પણી":4332,"▁કિલોમીટર":4333,"વાયું":4334,"▁માની":4335,"▁વર્ક":4336,"▁ટીકા":4337,"▁ગણાવ":4338,"▁પરિવારજનો":4339,"▁લખન":4340,"▁તસવી":4341,"▁કમિશનર":4342,"▁ઉત":4343,"▁બ્રહ્":4344,"લીને":4345,"▁જગદીપ":4346,"ઝનમાં":4347,"▁મુસાફરી":4348,"▁રાખવી":4349,"▁ટકાનો":4350,"▁આજનો":4351,"▁સભા":4352,"▁તકલી":4353,"વારના":4354,"▁આશ્ચર્ય":4355,"સિસ":4356,"▁એટલી":4357,"▁પકડી":4358,"ંશ":4359,"▁લગાવ્યો":4360,"▁સીસીટીવી":4361,"▁ઇચ્છ":4362,"▁યુઝર્સ":4363,"▁ચર્ચામાં":4364,"▁ભ્રષ્ટા":4365,"▁પરિણામે":4366,"▁પ્રસાદ":4367,"સ્ટાગ્રામ":4368,"▁અઠવાડિયા":4369,"▁હિમા":4370,"▁સલમાન":4371,"▁આવવા":4372,"▁સ્ટી":4373,"ખત":4374,"તિહાસિક":4375,"▁અમેરિકન":4376,"િસ્ટ":4377,"▁પશુ":4378,"▁ડિસ્":4379,"▁વ્યક્તિની":4380,"▁મહત્તમ":4381,"▁આમાં":4382,"▁નિમણ":4383,"▁સેન્સેક્સ":4384,"▁દરમ્યાન":4385,"▁કૌશ":4386,"▁સિરીઝ":4387,"▁પાણીમાં":4388,"▁વનડે":4389,"▁હટ":4390,"▁કિશો":4391,"▁ગેમ":4392,"યાત્રા":4393,"▁વિવે":4394,"▁છેબ":4395,"▁ટાં":4396,"પ્પા":4397,"▁સ્વભાવ":4398,"વ્રત":4399,"▁હાર્ટ":4400,"ંટી":4401,"▁બેટ્સ":4402,"▁મજા":4403,"▁ગેંગ":4404,"િલનાડુ":4405,"અને":4406,"ગરી":4407,"▁ધરવામાં":4408,"ભૂત":4409,"▁તર":4410,"▁ફ્રી":4411,"▁પ્રોત્સાહન":4412,"▁બોક્સ":4413,"ન્ડિંગ":4414,"▁રુ":4415,"લિત":4416,"▁બ્લે":4417,"▁ચુ":4418,"▁પ્રાણી":4419,"▁આણંદ":4420,"▁આયોજિત":4421,"લિકો":4422,"ળની":4423,"▁પુરી":4424,"▁કોવિડ":4425,"▁અધિકારીઓએ":4426,"▁સાથ":4427,"▁દિવસથી":4428,"▁ગુરૂ":4429,"▁ઈચ્છા":4430,"ૂહ":4431,"ંગી":4432,"▁વાઘ":4433,"અર":4434,"ર્વાદ":4435,"▁લક્ષ્મી":4436,"રામાં":4437,"▁ટક્કર":4438,"▁ડાયાબિટી":4439,"હત્યા":4440,"▁વિમાન":4441,"▁એવોર્ડ":4442,"દ્ર":4443,"નોની":4444,"અલગ":4445,"▁પર્યા":4446,"▁અનુકૂળ":4447,"ષ્ટિ":4448,"▁અપડેટ":4449,"▁સ્થળોએ":4450,"▁શૈક્ષણિક":4451,"▁સન":4452,"િફિકેશન":4453,"ામિન":4454,"▁ઘે":4455,"▁ખોરાક":4456,"▁સંકેત":4457,"ડીપી":4458,"તાનો":4459,"▁જાણીએ":4460,"મંત્ર":4461,"૨૫":4462,"▁તાર":4463,"જીને":4464,"▁સોસાયટી":4465,"▁અઠવાડિયે":4466,"▁કરોડો":4467,"▁સગ":4468,"્યાત્":4469,"ક્યુ":4470,"▁જમ":4471,"▁મહાસ":4472,"▁પંડ્યા":4473,"▁સ્ક્રીન":4474,"▁પેન્શન":4475,"▁જેણે":4476,"▁તેઓને":4477,"▁આમંત્ર":4478,"▁ખોલ":4479,"ગ્ન":4480,"▁ઇલેક્ટ":4481,"ોડું":4482,"▁જેમાંથી":4483,"▁ઐતિહાસિક":4484,"▁નિયંત્રણ":4485,"▁તળાવ":4486,"▁ગાડી":4487,"▁સોનાના":4488,"▁પુરાવા":4489,"▁દુનિયામાં":4490,"▁પહેલીવાર":4491,"૧૯":4492,"▁ધનખડ":4493,"▁ગાળા":4494,"દ્ધા":4495,"▁કોંગ્રેસને":4496,"▁લૂંટ":4497,"▁જોડાયેલા":4498,"ઠે":4499,"▁ડ્રાઇ":4500,"▁ધુ":4501,"લનો":4502,"▁જોગવાઈ":4503,"માને":4504,"▁કર્યુ":4505,"▁દેવવ્રત":4506,"▁આશી":4507,"▁લાંબી":4508,"ચિ":4509,"ચંદ":4510,"▁ટીમના":4511,"▁કૃષિ":4512,"▁મુક્તિ":4513,"મેન્ટમાં":4514,"▁સંબંધોમાં":4515,"▁ત્યારથી":4516,"▁અહેવાલો":4517,"▁વડી":4518,"▁વાદ":4519,"▁ટીમને":4520,"▁સંગીત":4521,"▁ઇનિંગ":4522,"સીસી":4523,"ષેક":4524,"▁શખ્સો":4525,"▁આંધ":4526,"▁મસ્":4527,"▁બોલા":4528,"દ્રા":4529,"▁વળી":4530,"▁સાચ":4531,"▁અમદાવાદમાં":4532,"▁પવ":4533,"▁ગ્રુપ":4534,"લોની":4535,"▁કવિ":4536,"▁ગુમાવી":4537,"સ્વા":4538,"▁રૂપિયાનો":4539,"▁ઓલિમ્પિક":4540,"રણે":4541,"▁કામકા":4542,"▁સ્વસ્થ":4543,"▁જૂને":4544,"▁યોગી":4545,"▁પથ્થ":4546,"▁બીજેપી":4547,"ચંદ્ર":4548,"▁અજ":4549,"▁શિયા":4550,"▁હોટ":4551,"સાડ":4552,"▁જસ્ટિસ":4553,"▁નોંધાયા":4554,"રોહ":4555,"ન્સમાં":4556,"જીવન":4557,"▁અંબાણી":4558,"▁નોંધપાત્ર":4559,"▁ખેતી":4560,"ન્સના":4561,"▁કંઈક":4562,"▁પ્રાઇ":4563,"▁સિક્સ":4564,"▁ચૂંટણીના":4565,"▁સ્કૂલ":4566,"▁જણાવે":4567,"▁ઊંઘ":4568,"જલિ":4569,"નનું":4570,"▁અંક":4571,"▁નાખી":4572,"▁તેટ":4573,"લીન":4574,"▁મળવાની":4575,"ણામાં":4576,"▁આવતો":4577,"▁સિંગ":4578,"▁સાઈ":4579,"▁ર્":4580,"▁માર્યા":4581,"▁દુખાવો":4582,"▁રાજધાની":4583,"▁પટ":4584,"▁મચી":4585,"▁ખોટ":4586,"▁બરાબર":4587,"▁ભ્રષ્ટાચાર":4588,"સાથી":4589,"▁જથ્થો":4590,"▁પડતી":4591,"▁ઇન્ડિયન":4592,"રિઝ":4593,"▁સામેની":4594,"પરંતુ":4595,"▁મુકેશ":4596,"▁વ્યવસાયમાં":4597,"▁ભટ્ટ":4598,"▁સાફ":4599,"વત":4600,"▁નેપ":4601,"▁આદિત્ય":4602,"િંગમાં":4603,"▁ચુકા":4604,"▁ખેલાડીઓ":4605,"પાક":4606,"ગ્રહ":4607,"▁નહોતો":4608,"▁શિવસેના":4609,"▁વહેંચ":4610,"▁ગ્લો":4611,"▁ઘણાં":4612,"▁આયુ":4613,"કાશ્મી":4614,"▁વળતર":4615,"ગન":4616,"▁ઈન્ડિયન":4617,"થિ":4618,"દમાં":4619,"શિપ":4620,"▁નિફ્ટી":4621,"પ્રતિ":4622,"▁વૃદ્ધ":4623,"▁ઉત્તમ":4624,"▁બનાવવાની":4625,"▁રિસર્ચ":4626,"▁કચ":4627,"▁સમૃ":4628,"બીએ":4629,"▁પરિવારમાં":4630,"▁આપણને":4631,"▁લાખો":4632,"▁અલગઅલગ":4633,"મથી":4634,"વીએ":4635,"▁જેમણે":4636,"૮૦":4637,"▁છત્તીસગઢ":4638,"▁હમાસ":4639,"▁ભરે":4640,"▁વધારવા":4641,"▁કને":4642,"▁હતુંઆ":4643,"▁બાબા":4644,"▁બનવા":4645,"▁સેન્ટ્રલ":4646,"▁રજી":4647,"▁શિકાર":4648,"▁જીબી":4649,"▁આયાત":4650,"િક્":4651,"્રિયા":4652,"▁જુઓ":4653,"શોક":4654,"▁રિપોર્ટમાં":4655,"સર્":4656,"▁સપોર્ટ":4657,"▁ઓફિસર":4658,"▁એકત્ર":4659,"▁પાર્ક":4660,"▁ટકાથી":4661,"▁વિસ્તારો":4662,"▁ઉત્સાહ":4663,"ારખંડ":4664,"▁ટીમમાં":4665,"▁કેનેડા":4666,"્સમાં":4667,"▁રજૂઆત":4668,"▁લિમિટેડ":4669,"▁સંશોધન":4670,"▁મણિ":4671,"પરી":4672,"▁ગ્રહો":4673,"▁વચ્ચેના":4674,"▁બર":4675,"વેટ":4676,"▁સોમનાથ":4677,"▁એન્ટ્રી":4678,"લક":4679,"ચર્સ":4680,"▁હરા":4681,"▁ધોની":4682,"▁દ્વારકા":4683,"મય":4684,"▁પડયો":4685,"▁ટેક્નોલોજી":4686,"મીન":4687,"▁બીજું":4688,"▁અજાણ્યા":4689,"▁પંજાબના":4690,"લ્યુ":4691,"સ્ટેટ":4692,"▁વિકે":4693,"▁રસ્તો":4694,"▁જીએસટી":4695,"પ્રા":4696,"▁રાત":4697,"ગારી":4698,"▁જેવો":4699,"▁ભાગે":4700,"▁સ્થિર":4701,"▁સિને":4702,"▁પાન":4703,"સેસ":4704,"િફ":4705,"▁ડ્રાઈ":4706,"▁જતો":4707,"▁૦":4708,"▁અજય":4709,"ડાવી":4710,"▁પરેશાન":4711,"ંદન":4712,"ગાવી":4713,"▁કબજે":4714,"▁માર્કે":4715,"▁કશું":4716,"▁પ્રમો":4717,"▁સુરતમાં":4718,"▁આશીર્વાદ":4719,"▁જવું":4720,"▁મેના":4721,"▁બાળકી":4722,"▁થવાનું":4723,"યેલો":4724,"▁અગ્નિ":4725,"પરાશ":4726,"▁સ્તર":4727,"▁શાકભા":4728,"પ્લાય":4729,"▁ફરિયાદી":4730,"▁સુરતના":4731,"▁કલ્યાણ":4732,"જૂર":4733,"▁કેવો":4734,"▁પહોંચાડ":4735,"ંસા":4736,"મરજન્સી":4737,"▁સંતોષ":4738,"▁યૂ":4739,"▁ચૂકી":4740,"સ્ય":4741,"▁હાંસલ":4742,"૯૦":4743,"▁એશિયા":4744,"૭૦":4745,"▁અંગ્રે":4746,"▁વિશ્વના":4747,"▁ડિજિટલ":4748,"▁કોર્ટના":4749,"▁વેબસા":4750,"વાલા":4751,"ંદગી":4752,"▁ટિપ્પણી":4753,"▁દુઃખ":4754,"▁ભાજપમાં":4755,"▁ઉપા":4756,"▁વિશાળ":4757,"વરણ":4758,"સામાં":4759,"▁શક્યા":4760,"▁સંરક્ષણ":4761,"▁સળ":4762,"▁પહોંચ્યો":4763,"બીર":4764,"▁પોઇન્ટ":4765,"રૂખ":4766,"▁ફરાર":4767,"▁મનુ":4768,"▁દિન":4769,"મુંબઈ":4770,"▁નીચા":4771,"નાની":4772,"▁સસ્પે":4773,"સિસ્ટ":4774,"દમ":4775,"શને":4776,"▁હાલત":4777,"▁તકલીફ":4778,"▁સ્ના":4779,"▁સમારોહ":4780,"▁ધોરણે":4781,"▁આત્મવિશ્વાસ":4782,"જનું":4783,"▁ઉવ":4784,"▁વિરૂ":4785,"▁કેસની":4786,"▁ભરી":4787,"▁મોક":4788,"▁દુર":4789,"▁મધુર":4790,"ડીંગ":4791,"▁વિચારી":4792,"▁બાય":4793,"▁વૈજ્ઞાન":4794,"▁ટ્રો":4795,"▁ચૌહા":4796,"▁જણાય":4797,"▁વપરાશ":4798,"▁શરૃ":4799,"▁અબ્":4800,"▁મીઠ":4801,"િયમમાં":4802,"▁આંગ":4803,"▁એણે":4804,"▁માઈ":4805,"▁પેઢી":4806,"ચૂ":4807,"િટર":4808,"બીજી":4809,"▁દરોડા":4810,"▁આધ્યાત્":4811,"▁શપથ":4812,"▁શ્વાસ":4813,"▁નિરા":4814,"▁તહેવાર":4815,"▁તૃ":4816,"સાની":4817,"ડીની":4818,"બદ્ધ":4819,"ટાવી":4820,"નથી":4821,"▁કેન્સર":4822,"કેલા":4823,"▁કેબિને":4824,"▁સેક":4825,"▁મૂક્યો":4826,"▁ભલા":4827,"▁સાયબર":4828,"▁ડૂ":4829,"▁રાખવાની":4830,"▁જોરદાર":4831,"પ્યુટી":4832,"▁આક્ર":4833,"▁લેવલ":4834,"ુડ":4835,"▁લઘુ":4836,"ર્ગે":4837,"▁આગ્ર":4838,"▁વીડિયોમાં":4839,"▁ઉર્જા":4840,"ભૂમિ":4841,"▁પ્રભુ":4842,"▁શિંદે":4843,"▁આત્મહત્યા":4844,"▁આપવાનું":4845,"ડોશી":4846,"▁બોમ્બ":4847,"પુરના":4848,"▁સૈન્ય":4849,"▁આસપાસના":4850,"▁ઈન્ડેક્સ":4851,"▁વ્યાપક":4852,"▁બેઝ":4853,"▁લાખથી":4854,"▁પ્રતિક્રિયા":4855,"▁વિકેટે":4856,"▁બેદર":4857,"▁ઝે":4858,"▁સ્ટોક":4859,"▁જેટલો":4860,"▁ભેટ":4861,"કોનો":4862,"▁શખ":4863,"▁પેદા":4864,"▁સિટી":4865,"▁દોઢ":4866,"▁છોડીને":4867,"▁મહાનગર":4868,"▁ઘોષ":4869,"▁એનો":4870,"સ્લા":4871,"▁વિસ્ફો":4872,"▁કોઈની":4873,"▁વોર્ડ":4874,"▁આદિવાસી":4875,"કું":4876,"▁ચલ":4877,"પોર":4878,"▁સુધારા":4879,"▁ઠાકરે":4880,"▁કચેરી":4881,"▁જ્ઞાન":4882,"▁બોલિવૂડ":4883,"▁અંધ":4884,"્યુટ":4885,"હવે":4886,"▁નાગ":4887,"▁દાદા":4888,"▁હર્ષ":4889,"▁ખોટા":4890,"▁મેક":4891,"▁કાયદે":4892,"▁શરદ":4893,"ઝીલેન્ડ":4894,"ક્ચર":4895,"▁અંગેની":4896,"▁સમુદ્ર":4897,"ણીને":4898,"▁ભારતનો":4899,"▁૨૬":4900,"▁યુનિટ":4901,"▁ઘટનામાં":4902,"▁સખત":4903,"▁માળ":4904,"▁જુદી":4905,"▁હમા":4906,"▁મારું":4907,"▁પૂર્વે":4908,"▁આધ્યાત્મિક":4909,"▁દિશામાં":4910,"▁ઉત્તરાખંડ":4911,"▁વરસાદના":4912,"ચીન":4913,"▁ઉના":4914,"▁સ્માર્ટફોન":4915,"નોના":4916,"▁આહાર":4917,"પટ":4918,"▁છેવિ":4919,"▁શાહે":4920,"▁ટ્રસ્ટ":4921,"વેન્ટ":4922,"▁બહેન":4923,"ક્ષમ":4924,"▁જગ્યાઓ":4925,"▁તત્વો":4926,"▁પ્રદાન":4927,"▁પોલીસના":4928,"▁કુદરતી":4929,"▁બદલા":4930,"▁સમજી":4931,"મીના":4932,"▁આંધ્ર":4933,"હવા":4934,"વાડ":4935,"▁ફેસ":4936,"▁લાયકાત":4937,"▁ટ્રમ્પ":4938,"હેર":4939,"દીવ":4940,"▁દળો":4941,"બ્લિક":4942,"▁કોન્ફર":4943,"ભારતના":4944,"▁પોલિસી":4945,"▁પ્લાન્ટ":4946,"▁ઘટનાસ્થ":4947,"ક્સી":4948,"લોમાં":4949,"કર્તા":4950,"▁નાયબ":4951,"▁આરોપીઓ":4952,"▁ભણ":4953,"▁ચર":4954,"િત્":4955,"▁નાગરિકો":4956,"▁પીડિત":4957,"▁ઈંગ્લેન્ડ":4958,"▁શાંત":4959,"▁સાહ":4960,"▁ફૂલ":4961,"ણીની":4962,"▁ઑફ":4963,"વેર":4964,"▁વહીવટી":4965,"▁લુ":4966,"▁નિર્ણયો":4967,"ઢા":4968,"▁મિલિયન":4969,"ાઇન":4970,"૧૫":4971,"વાડી":4972,"▁લાવવા":4973,"▁થતું":4974,"▁સુનિ":4975,"▁જવાબમાં":4976,"▁સાવચે":4977,"ચક":4978,"પત":4979,"પિંગ":4980,"▁મધ્યમ":4981,"▁વિપક્ષી":4982,"▁બાઈક":4983,"▁રૂપિયાના":4984,"▁આંખો":4985,"▁બંદ":4986,"ાંતિ":4987,"▁કલાકે":4988,"▁અશોક":4989,"▁બચાવવા":4990,"▁પ્રિયંકા":4991,"ત્યાર":4992,"▁કૌભાંડ":4993,"▁કૈ":4994,"▁બનાવો":4995,"લાયન્સ":4996,"▁સ્મ":4997,"▁તસવીર":4998,"▁વલણ":4999,"▁ખતમ":5000,"▁જીવનસાથી":5001,"▁સ્થાપિત":5002,"▁વેપારીઓ":5003,"▁પોલ":5004,"▁ઉતરી":5005,"ટ્સએ":5006,"હેબ":5007,"▁યથ":5008,"ેત્રમાં":5009,"વિંગ":5010,"▁ગેરકાયદેસર":5011,"▁ટાટા":5012,"▁વિશ્":5013,"▁નવરા":5014,"▁તત્કા":5015,"▁ભવ્ય":5016,"▁ચકા":5017,"આઉટ":5018,"▁બગા":5019,"▁ક્રાઈમ":5020,"▁અશ્વિ":5021,"▁શકાશે":5022,"ભમાં":5023,"▁હરાવ":5024,"▁ટ્રક":5025,"▁સ્પેસ":5026,"▁આંદોલન":5027,"દ્ધતિ":5028,"▁એપ્":5029,"લોડ":5030,"▁ઝારખંડ":5031,"િયત":5032,"▁નોંધવામાં":5033,"▁રિટર્ન":5034,"યમાં":5035,"ન્ક":5036,"▁સચિવ":5037,"▁તેવો":5038,"▁ગૌતમ":5039,"▁લગાવવામાં":5040,"▁બાત":5041,"▁લવ":5042,"પોલીસે":5043,"▁ન્યાયા":5044,"માત્ર":5045,"ંડન":5046,"▁ચાલો":5047,"વ્યવ":5048,"▁જોતા":5049,"▁રૂા":5050,"▁વાગ્યાથી":5051,"▁એન્ટી":5052,"મોલ":5053,"▁યશસ્વી":5054,"▁સર્ચ":5055,"▁બેટરી":5056,"▁પરિવારો":5057,"▁મોહન":5058,"દન":5059,"મનો":5060,"િયસ":5061,"▁ખેડૂત":5062,"▁વર્ષોથી":5063,"▁ચેરમેન":5064,"▁મતે":5065,"▁આવ્યુ":5066,"▁નિષ્ણાતો":5067,"▁ચોથા":5068,"▁પેલેસ્ટ":5069,"▁જાન્યુઆરીએ":5070,"ઝલ":5071,"▁વચ":5072,"▁ધામ":5073,"▁આંચ":5074,"▁રસી":5075,"▁વ્યક્તિએ":5076,"સુરત":5077,"▁વધતા":5078,"▁કોંગ્રેસની":5079,"▁વેબસાઇટ":5080,"ધાં":5081,"▁કરીશું":5082,"▁રાજ્યની":5083,"▁આય":5084,"લ્વે":5085,"ાદ્ય":5086,"▁સિદ્ધિ":5087,"જલ":5088,"પર્":5089,"▁ગિલ":5090,"▁જાપાન":5091,"▁ઉઠા":5092,"ડું":5093,"▁નેટવર્ક":5094,"▁સંવેદ":5095,"▁સોનું":5096,"▁કહીને":5097,"રીની":5098,"પ્તિ":5099,"▁ભાગ્ય":5100,"▁હાલતમાં":5101,"▁પ્રશંસા":5102,"▁હરિ":5103,"▁૨૮":5104,"▁ર્નિ":5105,"જામ":5106,"▁ઓડિ":5107,"▁ખાતા":5108,"▁ટ્રેડ":5109,"▁બનેલા":5110,"▁સંજો":5111,"▁ટોચ":5112,"▁સંભવિત":5113,"▁થવાના":5114,"▁પૂરો":5115,"▁ઓનલાઇન":5116,"▁કિસ્સામાં":5117,"વંત":5118,"૪૦":5119,"▁એડવા":5120,"ક્તા":5121,"▁સંસ્કૃતિ":5122,"▁ઉભ":5123,"▁અસરકારક":5124,"▁બ્રેક":5125,"▁દિગ્ગ":5126,"▁અરે":5127,"▁જોયું":5128,"▁તૈયારીઓ":5129,"િયન્સ":5130,"▁અરજ":5131,"▁ભવિષ્યમાં":5132,"૪૫":5133,"૬૦":5134,"▁જવાનું":5135,"▁મહાદે":5136,"▁કરાયું":5137,"▁સંગઠન":5138,"લીના":5139,"▁મળેલી":5140,"▁પીએ":5141,"▁રીત":5142,"હાન":5143,"▁ક્વા":5144,"▁બનાવ્યો":5145,"▁મોરબી":5146,"▁સંભ":5147,"▁મંદિરના":5148,"▁થવાથી":5149,"રોધ":5150,"▁બાપુ":5151,"▁સક્ષમ":5152,"▁હોવી":5153,"▁ડેપ્યુટી":5154,"▁સચિન":5155,"▁મોંઘવારી":5156,"▁ઈન":5157,"▁વ્યક્તિગત":5158,"▁મુલાકા":5159,"▁બળા":5160,"▁બાઇક":5161,"ાર્ક":5162,"▁સ્વપ્ન":5163,"▁જર":5164,"▁નકલી":5165,"▁ફિટ":5166,"▁તેલંગા":5167,"▁આપેલા":5168,"▁શાહરૂખ":5169,"▁કહેતા":5170,"▁આરોપો":5171,"▁ટ્રાન્સફર":5172,"▁બતાવી":5173,"▁ખાઈ":5174,"િયાએ":5175,"▁પદ્ધતિ":5176,"▁નહ":5177,"ટીની":5178,"વતા":5179,"▁છેગણેશજી":5180,"▁વિજે":5181,"▁ઉમેર્યું":5182,"▁રહ્યુ":5183,"િંગની":5184,"▁પ્રધાનમંત્રી":5185,"▁લાવવામાં":5186,"▁કેટે":5187,"▁આવતાં":5188,"ર્મદા":5189,"▁ગુલાબ":5190,"માના":5191,"▁છેડ":5192,"▁વાન":5193,"▁ઘટનાની":5194,"▁જ્ઞા":5195,"લમ":5196,"▁ખુલ":5197,"▁વિસ્તારના":5198,"ઈને":5199,"▁અદાલ":5200,"▁પાકિસ્તાનના":5201,"▁સમાધાન":5202,"▁વિભાગની":5203,"▁તને":5204,"▁૨૭":5205,"▁બેસી":5206,"▁પરિષ":5207,"વાયેલા":5208,"▁અવકાશ":5209,"▁સીએ":5210,"▁જલ":5211,"▁એમને":5212,"▁રોય":5213,"▁છેશ":5214,"પ્રથમ":5215,"ટિક":5216,"▁સોમવાર":5217,"▁નીતિશ":5218,"▁તૈનાત":5219,"▁સંપૂર્ણપણે":5220,"માનો":5221,"ંગો":5222,"▁થોડું":5223,"▁ચક":5224,"ાવવાની":5225,"▁હાઈવે":5226,"▁તમિલનાડુ":5227,"▁વિટામિન":5228,"▁શરીરને":5229,"▁ભલામણ":5230,"બાગ":5231,"▁ચાલક":5232,"▁અભિષેક":5233,"સણ":5234,"▁નાંખ":5235,"▁વકીલ":5236,"▁શહેરી":5237,"▁કાગ":5238,"▁ઉદ્દેશ":5239,"▁બ્લેક":5240,"▁કાશ્મીર":5241,"▁ફાર્":5242,"▁પડયા":5243,"પેટ":5244,"રાજકોટ":5245,"થુન":5246,"▁પોષ":5247,"▁ભીડ":5248,"ંદી":5249,"▁શખ્સ":5250,"તને":5251,"▁પર્સ":5252,"▁રિક":5253,"▁કારમાં":5254,"▁સ્પેશિયલ":5255,"▁પર્":5256,"▁પાકિસ્તાની":5257,"ંખ":5258,"▁મુંબઈમાં":5259,"▁રને":5260,"▁દૃ":5261,"▁જવામાં":5262,"▁રક્ષા":5263,"ગુરુ":5264,"▁કેશ":5265,"▁સપ્લાય":5266,"▁ટાર્":5267,"▁ઓર્ડર":5268,"▁અક્ષય":5269,"▁દર્દીઓ":5270,"પીએ":5271,"કતમાં":5272,"ાવ્યું":5273,"દ્દી":5274,"▁મહો":5275,"▁કાર્યક્ષેત્રમાં":5276,"▁મંત્રાલયે":5277,"▁ગરીબ":5278,"▁દેખાવ":5279,"▁ક્રૂડ":5280,"▁અડધી":5281,"▁ઘટનાસ્થળે":5282,"ણીય":5283,"▁અમલ":5284,"▁લોકશાહી":5285,"ષ્ણુ":5286,"▁વ્હી":5287,"▁છૂટા":5288,"તરણ":5289,"િલેશ":5290,"કડા":5291,"દિત":5292,"▁ભાગમાં":5293,"ટીન":5294,"▁મિલકત":5295,"▁હલ":5296,"▁ધરાવતી":5297,"▁સંસદમાં":5298,"▁હિમાચલ":5299,"▁ફર્":5300,"▁નીપજ":5301,"ાંજલિ":5302,"▁મહાદેવ":5303,"▁કેમ્પ":5304,"▁સરકારમાં":5305,"િયાના":5306,"▁ચૂકવ":5307,"▁નિવેદનમાં":5308,"▁બ્રાન્ડ":5309,"▁ગુણવ":5310,"ઝિક":5311,"▁કલાકારો":5312,"▁સાચી":5313,"▁માંગતા":5314,"▁હિંમત":5315,"કૃષ્ણ":5316,"▁સાબર":5317,"▁ચલાવી":5318,"ૃતિક":5319,"▁મુકાબ":5320,"▁વાયુ":5321,"ટને":5322,"▁એસિ":5323,"શ્યક":5324,"▁ભાઇ":5325,"▁ગિ":5326,"▁ડેવલ":5327,"▁રસપ્રદ":5328,"▁લાગ્યું":5329,"▁આસામ":5330,"▁એમએસ":5331,"ચૂંટણી":5332,"▁અપહરણ":5333,"▁ઉમેદવારોની":5334,"▁અનિ":5335,"▁જોડાયા":5336,"▁તસવીરો":5337,"▁રહીને":5338,"▁ભરત":5339,"▁નજ":5340,"▁આજની":5341,"▁હેર":5342,"▁લીગ":5343,"▁આભાર":5344,"▁ન્યાયાધી":5345,"▁સમર્":5346,"▁કાઉન્સ":5347,"▁ટાર્ગેટ":5348,"▁દસ્તાવેજો":5349,"▁વ્ર":5350,"▁અકસ્માતમાં":5351,"▁ભંગ":5352,"▁મૈ":5353,"▁કરોડથી":5354,"▁ઈઝરાયેલ":5355,"પોલીસ":5356,"▁નિર્મ":5357,"▁સર્વો":5358,"▁ક્યાંક":5359,"લીપ":5360,"▁પાછી":5361,"▁સામગ્રી":5362,"▁મૂલ્ય":5363,"▁થયુ":5364,"રુણ":5365,"ફેદ":5366,"▁અધિકારીઓને":5367,"ટુંબ":5368,"▁ઊભા":5369,"▁નહોતું":5370,"▁કૌશલ":5371,"▁આમંત્રણ":5372,"સ્ટો":5373,"▁સ્ટેડિયમમાં":5374,"▁નેપાળ":5375,"▁પગલું":5376,"▁ખાદ્ય":5377,"▁પાંડે":5378,"▁અનિલ":5379,"બર્ગ":5380,"▁પ્રોફ":5381,"▁નિમિત":5382,"▁જૈન":5383,"▁ગાર્ડ":5384,"▁મું":5385,"▁એક્શન":5386,"▁એમના":5387,"▁ટોચના":5388,"▁રજિ":5389,"▁વાઇ":5390,"મીએ":5391,"ાર્થના":5392,"▁પ્રોડક્ટ":5393,"▁સંવાદ":5394,"ાળુ":5395,"▁મહારાષ્ટ્રના":5396,"▁જમ્મુકાશ્મી":5397,"▁સમયસર":5398,"▁જયંતિ":5399,"▁ક્રાઇ":5400,"▁ફિલ્મની":5401,"▁આગેવાની":5402,"ંબા":5403,"▁ઓમ":5404,"▁ઈસ":5405,"▁ઓટી":5406,"▁અમરેલી":5407,"▁શનિવાર":5408,"નોમાં":5409,"▁કંપનીમાં":5410,"▁મહિનાની":5411,"▁શક્યો":5412,"૨૨":5413,"▁રાશિમાં":5414,"▁હીરા":5415,"▁આટલી":5416,"▁સાડા":5417,"▁એકદમ":5418,"▁જાેઈએ":5419,"▁પ્રીમ":5420,"▁ઉદાહરણ":5421,"▁માર્કેટમાં":5422,"▁ફ્લો":5423,"▁તાલીમ":5424,"▁એમની":5425,"▁છેજ":5426,"▁જેનું":5427,"▁નેતાઓએ":5428,"▁અલ્":5429,"▁સંશોધ":5430,"▁પવિત્ર":5431,"▁રનની":5432,"▁ફિલ્મના":5433,"▁ઘી":5434,"▁ફિલ્મોમાં":5435,"▁મશીન":5436,"▁મલ્":5437,"▁વિવા":5438,"▁સેલ્સ":5439,"▁વધતી":5440,"▁વાર્":5441,"ઘાટન":5442,"▁સ્ત્રો":5443,"િયામાં":5444,"▁સ્વચ્છતા":5445,"મતિ":5446,"▁આવશ્યક":5447,"▁રાશિનું":5448,"▁સીધી":5449,"▁નવસારી":5450,"▁બૂ":5451,"▁કર્મચારીઓને":5452,"▁નર્મદા":5453,"▁સુધીનો":5454,"▁પ્રતિભા":5455,"▁ઉમેદવારોએ":5456,"૭૫":5457,"નમાંથી":5458,"▁પરિવારને":5459,"▁માફ":5460,"▁પોરબ":5461,"▁ઓક્ટોબરના":5462,"ર્સની":5463,"મંત્રીએ":5464,"▁બ્રો":5465,"▁ચૂંટણીની":5466,"▁જાેકે":5467,"▁દેખાઈ":5468,"▁અસ્ત":5469,"યના":5470,"▁ટુક":5471,"▁પુલ":5472,"▁વેચવા":5473,"▁કારણોસર":5474,"▁વીમા":5475,"▁સવાલો":5476,"▁જીત્યા":5477,"▁હેમ":5478,"▁સિઝનમાં":5479,"▁શહેરોમાં":5480,"▁બચ્":5481,"▁ટર્મ":5482,"▁લાગશે":5483,"▁ક્ષેત્રે":5484,"▁ખડગે":5485,"▁સ્ટોરેજ":5486,"▁કરાવવા":5487,"▁એન્જિનિયર":5488,"છો":5489,"ન્ટ્સ":5490,"▁શાકભાજી":5491,"સિદ્ધ":5492,"દિવસ":5493,"▁દરવાજા":5494,"▁રેલી":5495,"સન્સ":5496,"▁ઉદ્ધ":5497,"કટર":5498,"નિય":5499,"▁દીકરા":5500,"▁ફોટા":5501,"ક્રિ":5502,"▁પ્રયોગ":5503,"ન્દ્રા":5504,"▁ઈલેક્ટ":5505,"રાણ":5506,"▁બાળકોના":5507,"▁યુક્રેન":5508,"▁ચિત્ર":5509,"ીક":5510,"ફત":5511,"▁છેએક":5512,"▁જણાવાયું":5513,"▁બાલ":5514,"▁નથીઆ":5515,"▁૩૧":5516,"▁ન્યૂઝ":5517,"ભિ":5518,"▁રાજે":5519,"વાડા":5520,"ફોન":5521,"▁બળાત્કાર":5522,"▁સાગર":5523,"▁માનવું":5524,"▁પ્રોપર્":5525,"▁આઈટી":5526,"▁ગ્લોબલ":5527,"▁ગઢ":5528,"▁કપમાં":5529,"▁બાંધકામ":5530,"▁હુમલામાં":5531,"▁કોન્ટ્રાક્ટ":5532,"લેથી":5533,"▁બેસ":5534,"▁ચીનના":5535,"સરની":5536,"▁અપમાન":5537,"ાણ":5538,"▁કસર":5539,"▁ઉતાવ":5540,"્યોર":5541,"▁લોકોનું":5542,"વિધિ":5543,"▁લક્ષણો":5544,"▁કૃપા":5545,"▁કથા":5546,"▁જર્મ":5547,"▁બુમ":5548,"▁લશ્":5549,"▁ફેડ":5550,"▁જિલ્લાની":5551,"નગરમાં":5552,"▁જ્યોતિષ":5553,"▁ગુપ્ત":5554,"▁ફાસ્ટ":5555,"▁પ્રશ્નો":5556,"બના":5557,"સંગ":5558,"▁કાર્યકરો":5559,"▁૩૫":5560,"▁બોલિંગ":5561,"▁સિક્સર":5562,"▁દંપ":5563,"▁જણાવવામાં":5564,"▁દળ":5565,"ગાં":5566,"▁રથ":5567,"વેરા":5568,"ટોક":5569,"▁વરસાદી":5570,"▁આંકડો":5571,"▁જાણીતા":5572,"▁પ્રસન્ન":5573,"▁ઋતુ":5574,"▁વાસ્તવમાં":5575,"▁પેર":5576,"કાઉન્ટ":5577,"▁વાસ્તવિક":5578,"▁મહિલાએ":5579,"▁હોવું":5580,"▁મેગા":5581,"▁સર્જા":5582,"▁ગુણવત્તા":5583,"▁સ્કે":5584,"▁મહારાષ્ટ્રમાં":5585,"્રીમ":5586,"ર્સને":5587,"▁મિડ":5588,"દરમ":5589,"▁એકાદ":5590,"▁રોકવા":5591,"▁સહન":5592,"▁ગૌરવ":5593,"▁થવાનો":5594,"▁ખંડ":5595,"▁આરોપીને":5596,"▁પ્રવાહ":5597,"▁લીક":5598,"▁રૂપિયાનું":5599,"▁શર્માએ":5600,"▁પ્રદૂ":5601,"▁રેલ્વે":5602,"▁મનોર":5603,"જ્ય":5604,"▁ધારણ":5605,"▁અનોખી":5606,"ાઈન":5607,"ગોમાં":5608,"▁શકીએ":5609,"ચાં":5610,"▁પઠા":5611,"▁આપવું":5612,"▁માફી":5613,"▁ઘેર":5614,"▁પાર્ટીને":5615,"▁સ્વાદ":5616,"▁અવાર":5617,"ચાવી":5618,"▁મહિનાથી":5619,"▁શ્રદ્ધાંજલિ":5620,"▁રવાના":5621,"▁ચાલતી":5622,"▁ખેત":5623,"▁પ્રેસ":5624,"▁મૂકવામાં":5625,"▁આઝાદી":5626,"સાણા":5627,"મીર":5628,"▁સિંઘ":5629,"ધારી":5630,"▁ભારતનું":5631,"▁રેડ્":5632,"ડકા":5633,"▁આવતું":5634,"વિસ્ત":5635,"▁વૈજ્ઞાનિક":5636,"▁જબર":5637,"▁માલદીવ":5638,"મલ":5639,"▁વચન":5640,"▁યાદવે":5641,"▁૨૦૨૧":5642,"▁ધીમી":5643,"▁હારી":5644,"▁ખસેડવામાં":5645,"▁સંકળાયેલા":5646,"▁સફેદ":5647,"▁સંપર્કમાં":5648,"સાદ":5649,"▁માસિક":5650,"▁સસ્પેન્ડ":5651,"ભરના":5652,"▁બાળકને":5653,"▁સિક્":5654,"▁વિદ્યા":5655,"પંચ":5656,"▁બેઠા":5657,"વ્યું":5658,"▁આખો":5659,"▁વેબસાઈ":5660,"ઈઝ":5661,"▁છોકરા":5662,"ડીયો":5663,"▁બજેટમાં":5664,"▁માગણી":5665,"▁આનાથી":5666,"▁ઓડિશા":5667,"▁રત્":5668,"▁પર્યાવરણ":5669,"▁રામા":5670,"▁રાઉન્ડ":5671,"▁બોલાવી":5672,"▁પગલા":5673,"▁ઘણીવાર":5674,"▁કોલેજ":5675,"▁મારફતે":5676,"▁ગાયક":5677,"▁ટ્વી":5678,"હાઇ":5679,"▁ક્રે":5680,"▁શૂટિંગ":5681,"▁સંગ્ર":5682,"િશન":5683,"▁ત્રાસ":5684,"▁જૂનાગઢ":5685,"નામ":5686,"▁રોલ":5687,"▁પુષ્":5688,"▁ચોંક":5689,"ળાઈ":5690,"▁એનર્જી":5691,"ટુ":5692,"બુક":5693,"૩૫":5694,"▁છેઉ":5695,"▁મરા":5696,"▁કપૂ":5697,"▁થવું":5698,"▁દૈ":5699,"▁પહેલો":5700,"▁ગીર":5701,"▁છેકો":5702,"▁ખાલ":5703,"ગ્ગા":5704,"ણય":5705,"ર્ચે":5706,"▁જિંદગી":5707,"મ્બે":5708,"▁માર્ચે":5709,"▁કન્યા":5710,"▁અયોધ્યામાં":5711,"▁ડેવલપ":5712,"▁ટીમની":5713,"▁પહોંચે":5714,"▁લડાઈ":5715,"▁આપઘાત":5716,"▁મનોજ":5717,"નાના":5718,"▁આપતાં":5719,"▁બેડ":5720,"▁કાર્યક્રમો":5721,"▁દબ":5722,"▁ગ્રહણ":5723,"સેટ":5724,"▁રાહુ":5725,"કાળમાં":5726,"સાઇ":5727,"▁રૂપિયામાં":5728,"▁બહુમતી":5729,"▁સહે":5730,"▁સાક્ષી":5731,"▁ચલા":5732,"ંગે":5733,"ણીના":5734,"▁અધ્યક્ષતામાં":5735,"▁વર્ષોમાં":5736,"મિટ":5737,"▁સહકાર":5738,"▁મામલામાં":5739,"ઈડ":5740,"▁બાયો":5741,"બીસી":5742,"સ્ટ્રેશન":5743,"▁દિગ્ગજ":5744,"▁શોધખો":5745,"યમ":5746,"▁મહિલાઓને":5747,"▁દાખ":5748,"▁દારૃ":5749,"તાપ":5750,"▁સમાજમાં":5751,"▁વચ્ચેની":5752,"▁રમેશ":5753,"▁નોંધાયું":5754,"▁સર્જાઈ":5755,"▁૨૯":5756,"▁રાજસ્થાનના":5757,"▁આશંકા":5758,"▁સેકન્ડ":5759,"વૈ":5760,"▁વિજેતા":5761,"ટકો":5762,"▁આવાસ":5763,"ર્મો":5764,"▁વેરિ":5765,"▁ટ્રેક":5766,"નિકલ":5767,"▁ગણાય":5768,"▁રાતે":5769,"▁કોમ્પ":5770,"▁બિલ્ડિંગ":5771,"▁અમિતા":5772,"▁ફીચર્સ":5773,"ફ્રા":5774,"ેશ્વર":5775,"ડાને":5776,"▁ઝોન":5777,"ુંગ":5778,"રીયા":5779,"્રાફ્ટ":5780,"લબ":5781,"તોને":5782,"▁યુનિ":5783,"▁પડ્યા":5784,"▁મુદ્દાઓ":5785,"▁શાસન":5786,"▁સ્વિ":5787,"▁ધંધામાં":5788,"▁દુશ્":5789,"▁સ્વતંત્રતા":5790,"રાય":5791,"ટીએમ":5792,"▁ઉપસ્થિત":5793,"▁શંકાસ્પદ":5794,"▁પ્રાર્થના":5795,"▁વડોદરામાં":5796,"▁પૂરું":5797,"▁નોટિફિકેશન":5798,"નારે":5799,"ફ્":5800,"▁ગવ":5801,"ાંચ":5802,"▁કિંગ્સ":5803,"▁સુગર":5804,"▁રમાશે":5805,"▁હસ":5806,"▁નમ":5807,"િક્ષા":5808,"▁મંગળવાર":5809,"▁૨૦૧૯":5810,"▁પ્રભ":5811,"▁માંગી":5812,"▁પુરવ":5813,"પ્રો":5814,"ડાએ":5815,"▁નહોતા":5816,"▁મેટ્રો":5817,"▁નદીમાં":5818,"▁પામી":5819,"▁સોનાની":5820,"▁પૌ":5821,"▁ધરતી":5822,"▁પાછો":5823,"▁કોર્પોરેટ":5824,"▁તાકાત":5825,"▁રાજકારણ":5826,"▁પરિણી":5827,"▁લીલા":5828,"▁૬૦":5829,"▁બુધવાર":5830,"▁વિધિ":5831,"▁જોતાં":5832,"વાયો":5833,"્રુ":5834,"▁ભરૂ":5835,"▁મેનેજર":5836,"▁લગતી":5837,"મિશન":5838,"▁ઊંચા":5839,"▁છેલ્લે":5840,"▁છઠ્":5841,"▁સમીક્ષા":5842,"▁મલ":5843,"ર્સના":5844,"▁વરસાદને":5845,"▁સૂત્રોએ":5846,"▁સુરેન્દ્ર":5847,"▁ગણેશજી":5848,"▁ડાઉન":5849,"▁ગાં":5850,"▁ફાં":5851,"▁રાજકોટમાં":5852,"▁ભક્તિ":5853,"▁રજુ":5854,"ટેસ્ટ":5855,"▁પુતિ":5856,"▁ડોક્ટર":5857,"ટ્સએપ":5858,"ધાને":5859,"▁કેટલો":5860,"▁સ્ટોરી":5861,"ર્જ":5862,"▁બેદરકારી":5863,"▁એનું":5864,"▁વાગે":5865,"▁મસા":5866,"▁વાવા":5867,"ન્સની":5868,"▁મસ્જિ":5869,"તક":5870,"રમાંથી":5871,"▁દેશને":5872,"▁રાજકારણમાં":5873,"▁બેટ્સમેન":5874,"૬૫":5875,"▁ટાળો":5876,"▁પથ્થર":5877,"▁ડિસેમ્બરે":5878,"▁દોરી":5879,"દાસ":5880,"▁ગૂગલ":5881,"ેશર":5882,"▁શોધખોળ":5883,"કૃતિ":5884,"▁કાવ":5885,"ર્સે":5886,"્ટમેન્ટ":5887,"▁જળવાઈ":5888,"▁સીમા":5889,"▁દોર":5890,"▁હાઈકોર્ટે":5891,"▁બચાવી":5892,"▁ફોનમાં":5893,"▁એમણે":5894,"▁બેસ્ટ":5895,"▁ઇન્સ્ટ":5896,"▁અવિ":5897,"▁થકી":5898,"ડીઓ":5899,"▁હાથે":5900,"▁ચોંકાવ":5901,"▁મમ્":5902,"▁૪૫":5903,"▁માર્યો":5904,"▁ઓફિસમાં":5905,"નેતા":5906,"▁ક્રિ":5907,"▁ચેન્ના":5908,"▁ટેકો":5909,"▁મહાનગરપાલિકા":5910,"▁પ્લો":5911,"▁બદલાઈ":5912,"▁ગ્રાઉન્ડ":5913,"▁ઇન્ટરનેશનલ":5914,"▁નાશ":5915,"▁રિવ":5916,"▁ફ્રા":5917,"્યોરિટી":5918,"▁ઈઝરાયે":5919,"લ્લો":5920,"▁હોલ":5921,"▁છેન":5922,"▁પ્રતી":5923,"▁રાખશે":5924,"▁બાળકોની":5925,"▁મહામારી":5926,"ટેજ":5927,"▁નેતાઓને":5928,"▁ટ્રોફી":5929,"ૃત્ત":5930,"▁ફિલ્મનું":5931,"▁મતભે":5932,"▁રવિન્દ્ર":5933,"▁અર્થતંત્ર":5934,"▁ભેગા":5935,"ધારા":5936,"▁રૂમમાં":5937,"▁ઉતારી":5938,"▁જાતને":5939,"▁ઉદ્ધવ":5940,"▁હસ્ત":5941,"ગીના":5942,"નિધ":5943,"▁હાઇવે":5944,"▁ચકાસ":5945,"▁ખાનની":5946,"બ્રિ":5947,"▁રવિવાર":5948,"▁ફાઈનલ":5949,"▁સંડો":5950,"લોને":5951,"▁રાજનીતિ":5952,"▁ડેબ":5953,"▁બાકીના":5954,"ારિયા":5955,"▁ગેટ":5956,"▁હિટ":5957,"▁શુક્રવાર":5958,"દ્વા":5959,"▁દેશે":5960,"શ્ચિક":5961,"▁આંતરિક":5962,"▁ઝઘડો":5963,"▁પ્રેમી":5964,"શ્રા":5965,"ર્જા":5966,"▁સીતાર":5967,"▁અમદાવાદના":5968,"▁વ્યક્તિઓ":5969,"▁વિધ":5970,"▁રાજીવ":5971,"▁ભાવે":5972,"▁સંતુલ":5973,"યની":5974,"▁ઉલ્લ":5975,"▁ક્વોલિ":5976,"▁નિપજ":5977,"▁મેળવ્યો":5978,"ૃત્ય":5979,"▁સંદર્ભમાં":5980,"▁જોયા":5981,"વાનગી":5982,"▁સુનિશ્ચિત":5983,"▁શહી":5984,"▁સુવિધાઓ":5985,"▁ખાને":5986,"▁આઈપીએલ":5987,"▁કૉ":5988,"▁ફગાવી":5989,"▁કુમારે":5990,"ગ્યુ":5991,"દુલ":5992,"▁મોદીને":5993,"દોષ":5994,"▁જરૂરિયાત":5995,"▁વિષ્ણુ":5996,"▁દુકાનો":5997,"▁બ્રિટિશ":5998,"▁માનવી":5999,"▁ચોખા":6000,"પ્રે":6001,"શક્તિ":6002,"▁પરિવારની":6003,"▁ક્રમે":6004,"▁કલેક્શન":6005,"▁ઉડ":6006,"▁ખામી":6007,"▁લોકસભામાં":6008,"▁ચાંદીના":6009,"▁કાળા":6010,"▁પહેલેથી":6011,"▁ચેટ":6012,"▁રાખ્યો":6013,"▁બનીને":6014,"રેક્ટ":6015,"▁અંદાજે":6016,"બાજુ":6017,"▁ગરબા":6018,"કર્મી":6019,"▁નારાયણ":6020,"બન":6021,"▁ધ્વ":6022,"બોલ":6023,"મેરિકા":6024,"નીલ":6025,"▁રક્ષણ":6026,"▁ખેડૂતોને":6027,"ષ્કર્મ":6028,"▁બ્લોક":6029,"▁વિતરણ":6030,"▁ઉભો":6031,"▁ભગવા":6032,"▁પેટા":6033,"▁માણસો":6034,"▁મિશ્ર":6035,"▁લાઈફ":6036,"ડને":6037,"▁કાલ":6038,"▁ઠે":6039,"▁રાજકારણી":6040,"▁આકાર":6041,"▁શૂ":6042,"સાગર":6043,"ભારે":6044,"સકાંઠા":6045,"▁પાકિસ્તાનમાં":6046,"▁દલીલ":6047,"ટીંગ":6048,"▁સરદાર":6049,"▁ર્નિણય":6050,"શમાં":6051,"સીમાં":6052,"▁પક્ષી":6053,"▁સોલંકી":6054,"▁નાન":6055,"▁કન્ટે":6056,"▁ત્યા":6057,"ાવર":6058,"કેપ":6059,"▁ભજવી":6060,"▁દુબ":6061,"રાધ":6062,"▁શાસ્ત્ર":6063,"યક":6064,"▁સામાન":6065,"▁ઉજવવામાં":6066,"▁ચાહકો":6067,"લોકસભા":6068,"▁ખાંડ":6069,"▁હતીજે":6070,"▁ઉપયોગી":6071,"▁અનંત":6072,"ણાના":6073,"▁કાપી":6074,"ભારતમાં":6075,"▁ફસાય":6076,"▁લેવો":6077,"▁દીઠ":6078,"▁બેક":6079,"▁પડકારો":6080,"▁પુનઃ":6081,"લાએ":6082,"િકે":6083,"▁સંસ્થાઓ":6084,"▁રાજસ્થાનમાં":6085,"રાજ્યના":6086,"▁સિનેમા":6087,"હારો":6088,"▁વોટર":6089,"▁શ્રાવ":6090,"▁અમિતાભ":6091,"સ્તે":6092,"▁મહિનાના":6093,"▁ઉલ્લંઘ":6094,"▁સહી":6095,"▁છેગ":6096,"ાળે":6097,"▁રૂટ":6098,"▁પ્રગટ":6099,"▁વિશ્વની":6100,"ક્વિ":6101,"▁નિધન":6102,"▁સમાપન":6103,"▁શેરમાં":6104,"વવાની":6105,"▁એવ":6106,"▁રાજેશ":6107,"▁સર્કલ":6108,"▁વિક્રમ":6109,"▁જેટલું":6110,"▁બાબતોમાં":6111,"▁ઝોનમાં":6112,"▁ગોળીબાર":6113,"▁પુષ્ટિ":6114,"▁આને":6115,"▁પ્રતિનિધ":6116,"▁ખેલ":6117,"કશન":6118,"▁બ્લા":6119,"▁ટ્રી":6120,"▁નામનો":6121,"દરમિયાન":6122,"▁પત":6123,"▁ઈન્ટરવ":6124,"▁વડોદરાના":6125,"▁એનસીપી":6126,"્રમણ":6127,"▁ઉગ્ર":6128,"ટીએ":6129,"▁જાતે":6130,"પને":6131,"િયેટ":6132,"▁નોંધાઈ":6133,"▁કેન્સ":6134,"▁નિરી":6135,"▁રૂમ":6136,"શૈ":6137,"રાજા":6138,"▁પરવાનગી":6139,"▁આપવી":6140,"૨૧":6141,"▁સમસ્યાનો":6142,"▁ફેરફારો":6143,"▁તૂટ":6144,"▁ઇંગ્લેન્ડ":6145,"્રોનિક":6146,"▁ગાઢ":6147,"▁પંચે":6148,"▁એકમાત્ર":6149,"ાયેલો":6150,"▁ગયાં":6151,"▁સોસાયટીમાં":6152,"કાવી":6153,"િવિઝન":6154,"▁જુલાઇ":6155,"▁બ્રિગે":6156,"▁કેચ":6157,"▁વર્ણ":6158,"▁મહુ":6159,"▁એકલા":6160,"▁જિલ્લાઓમાં":6161,"▁સમાજવાદી":6162,"▁કાઉન્સિલ":6163,"મારા":6164,"▁તકો":6165,"▁એમ્બ":6166,"▁ઓર":6167,"આજે":6168,"▁લિંક":6169,"▁બાંધી":6170,"દ્દા":6171,"▁મિશ્રા":6172,"▁ચહેરો":6173,"▁વિલંબ":6174,"▁એકે":6175,"▁આવેલું":6176,"▁ધીરે":6177,"માએ":6178,"▁સિલિ":6179,"▁પડતો":6180,"▁પ્રકારનું":6181,"▁બાજુમાં":6182,"▁બિહારના":6183,"હારા":6184,"▁દુષ્કર્મ":6185,"પ્રીત":6186,"▁કરાવવામાં":6187,"પ્લો":6188,"▁બચત":6189,"▁ખુદ":6190,"▁ગૃહમંત્રી":6191,"ઈસ":6192,"▁બચી":6193,"▁સંચાલિત":6194,"▁પહોંચાડી":6195,"પનું":6196,"▁કોરોનાના":6197,"▁વલસાડ":6198,"ળાની":6199,"ૂની":6200,"▁ડબલ":6201,"▁રૂપિયાથી":6202,"▁મંજૂર":6203,"▁ઉઠાવી":6204,"▁બોલર":6205,"ર્નર":6206,"▁માન્ય":6207,"ઈમાં":6208,"▁પથ":6209,"▁ભૌ":6210,"▁ઘઉં":6211,"▁વર્ચ":6212,"▁ઈમ":6213,"વાનુ":6214,"▁ગુજરાતની":6215,"▁અટકળો":6216,"▁એપ્લિક":6217,"▁પાડવા":6218,"▁માનનીય":6219,"▁રસો":6220,"▁નવીન":6221,"▁દીપિકા":6222,"▁વેબસાઈટ":6223,"ર્સમાં":6224,"▁શાખા":6225,"▁એક્ટર":6226,"▁એફઆઈ":6227,"▁નિમણૂક":6228,"▁ખોટું":6229,"ંઝ":6230,"▁પિત":6231,"▁સફર":6232,"▁રોકી":6233,"▁આટલા":6234,"નવાર":6235,"▁અટકાયત":6236,"અન્ટ":6237,"ળતી":6238,"▁સાન":6239,"▁ચાવ":6240,"▁બનાવશે":6241,"▁પાર્ટીમાં":6242,"▁ધીરજ":6243,"દાયક":6244,"લાને":6245,"ડાયા":6246,"▁ઘટનાને":6247,"હારી":6248,"્યુટર":6249,"▁આશ્ર":6250,"▁ગુપ્તા":6251,"પીએસ":6252,"▁પાણીના":6253,"▁પાકિસ્તાનની":6254,"▁એટલો":6255,"▁રૂપમાં":6256,"▁ઈન્ડસ્ટ્રી":6257,"▁હળવા":6258,"▁સોંપવામાં":6259,"▁લેન્ડ":6260,"▁વિદેશમાં":6261,"ંબુ":6262,"▁મકર":6263,"લ્દી":6264,"▁સિનિયર":6265,"કતા":6266,"▁છેતેમણે":6267,"મ્પે":6268,"▁એપ્રિલે":6269,"▁ડિઝાઇન":6270,"▁ક્વાર્ટ":6271,"▁રાજુ":6272,"▁ફેક્ટ":6273,"▁કક્ષા":6274,"▁નૌ":6275,"▁પાર્ટીની":6276,"▁ચીનની":6277,"▁નિર્માતા":6278,"▁અખિલેશ":6279,"▁કલ્પના":6280,"નેસ":6281,"▁કરિયર":6282,"▁ઉધ":6283,"▁સ્પષ્ટતા":6284,"▁બેનર્જી":6285,"▁સિલ્":6286,"▁ડુ":6287,"▁અમેરિકાની":6288,"▁ચમચી":6289,"લિકોપ્ટ":6290,"▁બચ્ચન":6291,"નાએ":6292,"▁જગત":6293,"▁વાપ":6294,"▁હોસ્પિટલના":6295,"▁ગ્રામ્ય":6296,"નારો":6297,"િયાની":6298,"▁સ્ને":6299,"▁સમાજના":6300,"▁ઈન્ટરનેશનલ":6301,"▁ડિરેક્ટર":6302,"▁ચોખ્":6303,"▁સૈનિકો":6304,"▁ઃ":6305,"▁માગે":6306,"▁ઓથો":6307,"લાત":6308,"▁સેમિ":6309,"સ્ટાર":6310,"▁કોલકાતા":6311,"▁સંક્રમણ":6312,"▁સફાઈ":6313,"▁આલ્":6314,"▁મેષ":6315,"▁ઝૂ":6316,"▁કુશ":6317,"▁વિપક્ષના":6318,"▁પાડે":6319,"▁વ્યક્તિના":6320,"▁હજારથી":6321,"▁નિરાશ":6322,"▁મુસાફરો":6323,"▁અદ્":6324,"▁યુવાનોને":6325,"▁જેમને":6326,"▁ઉપાય":6327,"▁પડ્યું":6328,"▁ગાંધીની":6329,"▁ક્રિકેટમાં":6330,"▁ગભ":6331,"▁એક્સચે":6332,"▁ઇન્ડસ્ટ્રી":6333,"લુરુ":6334,"▁માથ":6335,"▁ફિલ":6336,"▁ઈન્દ":6337,"▁લેવાનું":6338,"▁યથાવત":6339,"ડ્રે":6340,"▁થયેલ":6341,"▁કાર્યરત":6342,"મુખ્ય":6343,"▁જવાના":6344,"▁મચ":6345,"▁કોડ":6346,"▁કરોડનો":6347,"▁ઊર્જા":6348,"▁ભાગના":6349,"▁ઘોષણા":6350,"▁ગમ":6351,"િયારો":6352,"▁આપેલી":6353,"મંદ":6354,"▁નકારી":6355,"▁૨૦૨૦":6356,"▁મુદ્દામાલ":6357,"▁પીડા":6358,"▁ચાલશે":6359,"▁અર્જુન":6360,"▁કેજરીવાલે":6361,"▁હકીકત":6362,"▁જરૂરિયા":6363,"▁દેશોના":6364,"▁શ્રેય":6365,"▁પરાજ":6366,"▁લખી":6367,"▁પૂછ્યું":6368,"▁વ્યક્તિત્વ":6369,"▁પ્રયત્નો":6370,"લત":6371,"▁વધ્યા":6372,"▁કેટલું":6373,"ડ્રો":6374,"ાંતર":6375,"▁નાણાંકીય":6376,"▁વિડીયો":6377,"▁પામે":6378,"▁ચાલતા":6379,"▁પહા":6380,"▁સભ્યોની":6381,"▁વક્ત":6382,"રાને":6383,"▁સીરિઝ":6384,"▁પાણીનો":6385,"▁ફાઇનલમાં":6386,"▁ઈઝરાયલ":6387,"▁શુભમન":6388,"ધારિત":6389,"▁બેગ":6390,"▁કંપનીઓના":6391,"▁પ્રોગ્રામ":6392,"▁મહિલાને":6393,"▁ધારણા":6394,"▁બહા":6395,"▁પ્રહાર":6396,"▁ભેદ":6397,"▁સંચાલન":6398,"▁સરખામણીમાં":6399,"▁લંબ":6400,"▁પોષક":6401,"▁ક્રાઇમ":6402,"▁મહત્વનું":6403,"૧૮":6404,"▁હાલના":6405,"▁મારીને":6406,"▁વિકસિત":6407,"▁કામકાજ":6408,"▁ચૌહાણ":6409,"▁કપડાં":6410,"▁ઘટાડવા":6411,"▁ખાતામાં":6412,"▁અનુમાન":6413,"▁આર્મી":6414,"▁સંજોગોમાં":6415,"▁ઉલ":6416,"હિત્ય":6417,"▁પ્રકારનો":6418,"▁ઇસ":6419,"▁બોર્ડર":6420,"▁રસ્તાઓ":6421,"▁સરહદ":6422,"▁કરીશ":6423,"▁માત્રામાં":6424,"▁હેલિકોપ્ટ":6425,"▁અથડ":6426,"િબ":6427,"▁પ્રોપર્ટી":6428,"લીની":6429,"▁કાર્યાલ":6430,"▁સિઝન":6431,"▁પક્ષમાં":6432,"▁નિયંત્રિત":6433,"▁કાળજી":6434,"બહે":6435,"▁મરી":6436,"ાંક":6437,"▁લોકોનો":6438,"▁ફાઇનલ":6439,"▁લગા":6440,"▁ચિંત":6441,"▁થે":6442,"▁મીડિયામાં":6443,"▁બંગાળના":6444,"ંટા":6445,"નશીલ":6446,"ફ્રે":6447,"▁ચૈ":6448,"ુંટ":6449,"▁નફો":6450,"▁કાઢવામાં":6451,"▁પ્લાસ્ટિક":6452,"▁ભવન":6453,"▁ઉદય":6454,"▁બંગાળમાં":6455,"▁પ્રકાશિત":6456,"▁ભરૂચ":6457,"▁અસ્થ":6458,"ાસન":6459,"▁નોન":6460,"▁રૂ૩":6461,"▁ચેન્ન":6462,"▁પરંપરાગત":6463,"▁રોગો":6464,"▁બંનેને":6465,"▁સત્તામાં":6466,"પોસ્ટ":6467,"▁દરખા":6468,"▁કાર્યમાં":6469,"▁સ્વાસ્થ્યને":6470,"▁૮૦":6471,"▁શેરબજારમાં":6472,"કાઈ":6473,"▁બનાવવાનો":6474,"યાજી":6475,"▁ગોચર":6476,"▁ઉપરથી":6477,"▁અવારનવાર":6478,"▁આરતી":6479,"▁લઘુત્તમ":6480,"▁દર્શા":6481,"▁દિનેશ":6482,"▁આવ્યાં":6483,"▁મૂડી":6484,"▁જુના":6485,"દર્શક":6486,"સાના":6487,"ઝના":6488,"▁બનાસકાંઠા":6489,"▁દાવા":6490,"▁સહયોગી":6491,"▁મંદી":6492,"▁સ્કીમ":6493,"▁ગોપાલ":6494,"સિસ્ટન્ટ":6495,"▁ફંડો":6496,"▁શોર્ટ":6497,"▁વિદ્યાર્થીઓએ":6498,"▁તલ":6499,"▁પરની":6500,"▁આવવાની":6501,"▁ચોથી":6502,"▁એક્સપર્ટ":6503,"ગંજ":6504,"રેખ":6505,"▁રૂ૭":6506,"શાસ્ત્રી":6507,"▁જન્મદિવસ":6508,"▁કલાકની":6509,"▁ઓક્ટોબરે":6510,"ગુજરાતમાં":6511,"▁પ્રસંગે":6512,"▁અક્ષર":6513,"▁ડાયાબિટીસ":6514,"▁છી":6515,"▁રાખ્યું":6516,"▁રેમ":6517,"▁રૂપે":6518,"▁લેવાનો":6519,"સાં":6520,"િટના":6521,"▁ખરીદવા":6522,"▁જાગૃતિ":6523,"ંકાર":6524,"▁ઇચ્છા":6525,"▁રિલાયન્સ":6526,"યેલું":6527,"▁મુસ્લિમો":6528,"▁દિલ્હીની":6529,"▁જુગાર":6530,"▁શ્રેણી":6531,"▁કેટલાંક":6532,"વ્યવસ્થા":6533,"હાઈ":6534,"▁સ્પોર્ટ":6535,"▁વર્તન":6536,"▁હાથી":6537,"▁બધાને":6538,"▁આઈએ":6539,"▁પહેલાથી":6540,"▁શહેરની":6541,"▁ઓપન":6542,"▁સેક્ટ":6543,"એટ":6544,"ણ્ય":6545,"▁છેજ્યારે":6546,"▁વાસ":6547,"સ્વામી":6548,"▁લાંબો":6549,"▁દયા":6550,"▁રાણા":6551,"નેટ":6552,"▁ઉષ્":6553,"▁જેડી":6554,"▁રિમાન્ડ":6555,"▁સ્ટેડિયમ":6556,"▁ખર્ચે":6557,"▁જીતીને":6558,"▁કેવું":6559,"▁કાર્યકાળ":6560,"▁ઠંડ":6561,"▁બુમરાહ":6562,"▁કલર":6563,"▁અશ":6564,"▁શ્રદ્ધા":6565,"▁અગ":6566,"▁અઢી":6567,"મુંબઇ":6568,"▁રાઠ":6569,"તીશ":6570,"▁સેલ":6571,"▁ઉમેદવારી":6572,"▁ખતરના":6573,"શાસ્ત્ર":6574,"▁ઓળખા":6575,"▁ઉદ્ઘાટન":6576,"▁વધારીને":6577,"▁વેરિઅન્ટ":6578,"▁આપતી":6579,"તોમાં":6580,"▁ટ્રેડિંગ":6581,"▁સેવાઓ":6582,"▁કંગના":6583,"▁પડવાની":6584,"▁માર્ક":6585,"▁વિજ્ઞાન":6586,"કેલી":6587,"▁સીલ":6588,"▁ગામની":6589,"છેલ્લા":6590,"▁અંગ્રેજી":6591,"૧૧":6592,"▁એટેક":6593,"▁સૂર્યા":6594,"ઝુ":6595,"રીંગ":6596,"▁પુછ":6597,"▁ઇન્સ્ટાગ્રામ":6598,"▁સિક્યોરિટી":6599,"▁ગતિવિધિ":6600,"▁હુક":6601,"▁પત્રકાર":6602,"▁ડિપો":6603,"ચર્યા":6604,"▁અભાવ":6605,"▁કંપનીની":6606,"▁એસટી":6607,"▁નવેમ્બરે":6608,"▁વાતાવરણમાં":6609,"▁લખનઉ":6610,"ઓફ":6611,"▁એસોસિ":6612,"▁મંદિરની":6613,"્યૂટ":6614,"▁પ્રાઈ":6615,"▁મમ્મી":6616,"▁ઇન્ડેક્સ":6617,"વેન્દ્ર":6618,"▁સોનિયા":6619,"▁કિશન":6620,"▁પ્રસાર":6621,"ાવશે":6622,"▁પૂછવામાં":6623,"▁દ્રષ્ટિએ":6624,"▁સર્ટ":6625,"▁ગ્રાહકો":6626,"▁ગુમ":6627,"યી":6628,"▁કામદારો":6629,"▁અર્પણ":6630,"▁ડોલરની":6631,"ેશનમાં":6632,"▁નિયુ":6633,"સર્જન":6634,"▁ખતરનાક":6635,"▁હોવ":6636,"▁મહત્વના":6637,"▁કબજો":6638,"શિંગ":6639,"િલિટી":6640,"ંપી":6641,"ધરા":6642,"▁નિવાસ":6643,"▁રાખ્યા":6644,"▁ટ્રાન્":6645,"▁સંકલ્પ":6646,"યૂ":6647,"▁એજન્ટ":6648,"▁બિહારમાં":6649,"▁માલિકી":6650,"૯૫":6651,"દીય":6652,"▁અગ્રણી":6653,"ભાગે":6654,"▁ફરિયાદો":6655,"▁કાયમી":6656,"વને":6657,"▁ગંગા":6658,"▁પરમાર":6659,"▁વિધાનસભામાં":6660,"▁પછા":6661,"▁યુરોપ":6662,"▁ખતરો":6663,"▁પ્રેક્ટ":6664,"ણથી":6665,"દારીઓ":6666,"▁ખેંચી":6667,"▁આક્રમક":6668,"▁તકે":6669,"▁સાઇ":6670,"▁સાહિત્ય":6671,"▁બિગ":6672,"▁છોટા":6673,"▁સ્વય":6674,"વિસ્તાર":6675,"ન્ટી":6676,"▁ભરવા":6677,"▁કોશિ":6678,"ડિયાદ":6679,"▁અવસાન":6680,"▁નબળી":6681,"ટ્ટા":6682,"▁વાલી":6683,"▁કાલે":6684,"▁પરમાણુ":6685,"▁સર્વોચ્ચ":6686,"▁જલ્દી":6687,"▁રાત્રિ":6688,"▁હથિયાર":6689,"▁જર્મની":6690,"મારો":6691,"▁ક્રિકેટર":6692,"▁ધંધો":6693,"▁ઉલ્લંઘન":6694,"▁મીટ":6695,"▁કરાય":6696,"▁પ્રેરણા":6697,"પ્રતિનિધિ":6698,"▁ડુંગ":6699,"▁મુખ":6700,"▁રૂપા":6701,"▁વેગ":6702,"▁ઉંમરે":6703,"▁બાગ":6704,"▁વખાણ":6705,"▁મર્યાદિત":6706,"▁કોન્સ્ટે":6707,"તનો":6708,"▁ઉઠી":6709,"▁નેતૃત્વમાં":6710,"▁ચુકાદો":6711,"▁ઓટીટી":6712,"કડી":6713,"▁આપનાર":6714,"▁તરફે":6715,"▁નગરપાલિકા":6716,"▁ગ્રહોની":6717,"▁મહોત્સવ":6718,"▁તાપી":6719,"▁શિક્ષક":6720,"જોકે":6721,"▁મહેશ":6722,"▁બંનેએ":6723,"▁તાજેતરના":6724,"▁ભેળ":6725,"▁તફ":6726,"▁ટકાના":6727,"▁દુનિયાના":6728,"▁તબીબી":6729,"વની":6730,"▁એનિ":6731,"▁આપવાના":6732,"▁આગળની":6733,"▁આટલું":6734,"▁અજિત":6735,"▁ભૂલી":6736,"વક":6737,"સરા":6738,"▁યુકે":6739,"▁જાહેરા":6740,"▁જીત્યો":6741,"ડ્સ":6742,"▁ખ્યાલ":6743,"▁સુન":6744,"▁અમલમાં":6745,"▁ગ્રામી":6746,"▁દવાઓ":6747,"▁સેલ્સિયસ":6748,"▁શહીદ":6749,"ઢે":6750,"▁જાઓ":6751,"▁ભૂખ":6752,"▁અત્યા":6753,"▁રામલ":6754,"▁પોરબંદર":6755,"▁જાદ":6756,"▁જાહેરમાં":6757,"▁વેપારમાં":6758,"▁લગ્નની":6759,"▁વિશ્લે":6760,"▁ગું":6761,"▁ઘટાડ":6762,"▁નિવૃત્ત":6763,"મારે":6764,"▁તાવ":6765,"ક્ષત્ર":6766,"▁વોર":6767,"▁આર્ટિકલ":6768,"▁ચરણ":6769,"▁હેરાન":6770,"▁હથિયારો":6771,"ાવવાનો":6772,"▁ધૂ":6773,"▁બેસીને":6774,"દાતા":6775,"▁પોલીસમાં":6776,"▁સલામતી":6777,"▁સેક્ટર":6778,"▁મહેસાણા":6779,"▁પ્રતિનિધિ":6780,"▁ડાંગ":6781,"▁કરિય":6782,"▁ખેડા":6783,"▁દાગીના":6784,"ંથ":6785,"વિક":6786,"▁પ્રસિદ્ધ":6787,"▁વધ્યો":6788,"્યુનિ":6789,"▁સેલિ":6790,"▁સીબીઆઈ":6791,"▁ફેંક":6792,"▁વાર્તા":6793,"▁છેઈ":6794,"▁અસ્તિત્વ":6795,"▁બલ":6796,"આપ":6797,"૮૫":6798,"▁ક્યા":6799,"▁કરણ":6800,"▁પેટે":6801,"▁સાહેબ":6802,"ાનુ":6803,"ક્ષર":6804,"▁જોડી":6805,"▁ફ્રન્ટ":6806,"ટીવ":6807,"▁ઈલે":6808,"▁અમર":6809,"▁વીર":6810,"▁હેઠળની":6811,"▁ઉમેદવારોને":6812,"▁આરોપીએ":6813,"▁અવગણ":6814,"▁જબરદ":6815,"રૂષ":6816,"▁ખુલ્લા":6817,"▁યુગના":6818,"▁પરા":6819,"▁સેલ્":6820,"▁દેસાઈ":6821,"▁ચોપરા":6822,"▁ફાઇનાન્સ":6823,"▁એસી":6824,"ક્કા":6825,"▁ચમક":6826,"૧૨":6827,"▁અસા":6828,"▁મૃતક":6829,"▁કાયદેસરની":6830,"▁ચૂંટ":6831,"▁અપક્ષ":6832,"▁મકાનો":6833,"ન્સને":6834,"▁પ્રોફે":6835,"▁આરોપીની":6836,"▁દોષિત":6837,"▁સિંધ":6838,"▁નાગરિકોને":6839,"▁આક્ષેપો":6840,"▁કાર્તિક":6841,"ચાર્જ":6842,"▁વિડિયો":6843,"▁હોવો":6844,"▁મળતાં":6845,"▁બનાવ્યું":6846,"લિસ્ટ":6847,"▁સોફ્ટ":6848,"▁બેંકો":6849,"▁પ્લ":6850,"▁અંડ":6851,"▁સંદર્ભે":6852,"▁જણાવ્યુ":6853,"▁યોજાયેલી":6854,"▁પબ્લિક":6855,"▁યુવકે":6856,"વમાં":6857,"▁મતો":6858,"▁શકું":6859,"▁મહેતા":6860,"બેક":6861,"સ્વચ્છ":6862,"બ્રા":6863,"▁મક":6864,"▁કેદ":6865,"લ્પો":6866,"લિજ":6867,"▁તારીખે":6868,"ર્નામેન્ટ":6869,"સનો":6870,"પિ":6871,"▁સીધા":6872,"▁સવારથી":6873,"ટનો":6874,"▁આલિયા":6875,"▁સોની":6876,"▁ગાંધીજીની":6877,"▁ફરજિયાત":6878,"▁સંતાન":6879,"દાયી":6880,"▁મલિક":6881,"ન્ડા":6882,"▁રૃા":6883,"▁કુંડ":6884,"▁આપને":6885,"ુમા":6886,"▁ચતુ":6887,"િયાં":6888,"▁૯૯":6889,"▁પ્રકૃતિ":6890,"▁પહેલ":6891,"▁દહે":6892,"▁ચંદ":6893,"▁વસૂલ":6894,"▁ગડ":6895,"યાની":6896,"▁ભંડો":6897,"▁રેન્જ":6898,"▁ઉંચા":6899,"શની":6900,"▁ઈઝરાય":6901,"▁પ્રદૂષણ":6902,"શિવ":6903,"▁ઈજાગ્રસ્ત":6904,"ુષ":6905,"કાંત":6906,"▁સુપ્ર":6907,"શાહ":6908,"▁વાંચવા":6909,"▁જજ":6910,"▁બંધારણ":6911,"▁એન્ટર":6912,"િયાને":6913,"▁લખે":6914,"▁૭૦":6915,"▁ગુનામાં":6916,"▁લેટેસ્ટ":6917,"▁જીતવા":6918,"▁શુદ્ધ":6919,"▁ઓર્ગે":6920,"▁કેટેગ":6921,"▁કોઈએ":6922,"▁મહી":6923,"▁કોરિયા":6924,"▁વાંધો":6925,"િવિટી":6926,"▁ચૂકવણી":6927,"લીએ":6928,"▁કેપિટ":6929,"▁કાફ":6930,"▁આજથી":6931,"▁શાંતિથી":6932,"રીએ":6933,"▁હાઇકોર્ટ":6934,"શર":6935,"▁અરજીઓ":6936,"હલો":6937,"▁રિયલ":6938,"▁ભાગોમાં":6939,"▁સાનુક":6940,"બ્રે":6941,"વીજ":6942,"▁રોકેટ":6943,"▁દલિત":6944,"▁અવસર":6945,"▁ઊંચાઈ":6946,"▁કેરળ":6947,"ત્રણ":6948,"શ્ચિ":6949,"▁દાહો":6950,"▁કટારિયા":6951,"▁૭૫":6952,"▁ઉદ્દેશ્ય":6953,"કન":6954,"▁નૈ":6955,"▁આવનાર":6956,"▁રમતા":6957,"▁સાધનો":6958,"▁સજ્જ":6959,"▁બરફ":6960,"બાની":6961,"▁સના":6962,"▁પાચન":6963,"▁હોટલ":6964,"▁સર્જરી":6965,"ભુત":6966,"બમાં":6967,"▁ચારેય":6968,"▁પટના":6969,"▁હસીના":6970,"▁બુલ":6971,"ક્યો":6972,"▁લાગતું":6973,"▁કેએલ":6974,"▁અહીંથી":6975,"સુખ":6976,"▁નજરે":6977,"▁બેરોજ":6978,"▁ઠાકોર":6979,"કુર":6980,"▁સંસ":6981,"▁નવરાત્રી":6982,"ન્ટેલિજ":6983,"▁કોઈના":6984,"િનિયમ":6985,"શિયમ":6986,"▁કરોડનું":6987,"▁અટકી":6988,"▁ડ્રોન":6989,"▁કરેલ":6990,"▁વાતને":6991,"▁ભૂપેન્દ્રભાઈ":6992,"સ્કો":6993,"▁મેક્સ":6994,"▁સીધો":6995,"▁પ્રોટીન":6996,"વ્":6997,"▁ડિવાઇ":6998,"શ્યો":6999,"▁શાસ્ત્રી":7000,"▁હકીકતમાં":7001,"▁દરખાસ્ત":7002,"▁કઠ":7003,"લોન":7004,"▁યુટ":7005,"▁મહારાજ":7006,"▁ગણાવી":7007,"▁રાઠોડ":7008,"▁ખાબ":7009,"▁વોટ્સએપ":7010,"▁ઇઝરાયેલ":7011,"▁દૈનિક":7012,"▁યુના":7013,"▁રોજગાર":7014,"▁નેતાએ":7015,"▁મનીષ":7016,"▁ગ્રો":7017,"▁ડિલ":7018,"▁ધૂમ":7019,"▁રોષ":7020,"▁ચંદ્રયાન":7021,"ઝની":7022,"શય":7023,"▁નાસી":7024,"ડેન્ટ":7025,"▁ગોર":7026,"▁શુભે":7027,"▁સ્વીકારી":7028,"▁ઓઈલ":7029,"▁એક્સચેન્જ":7030,"▁છેર":7031,"▁ધ્રુ":7032,"▁હોવાને":7033,"▁સપ્તાહમાં":7034,"▁નારાજગી":7035,"▁સયાજી":7036,"▁દમ":7037,"▁શેટ":7038,"▁મોટર":7039,"▁સીબી":7040,"▁પ્રવક્તા":7041,"▁સ્ટાર્ટ":7042,"ઈંગ":7043,"▁ષ":7044,"વાત":7045,"▁મુશ્કેલીઓ":7046,"▁આતંકવાદ":7047,"▁જંગી":7048,"▁ખાવા":7049,"▁ઘરનું":7050,"▁સ્ત્રોત":7051,"▁કિનારે":7052,"મિથુન":7053,"▁પ્રતિમા":7054,"▁સિંહને":7055,"ફ્રાસ્ટ્ર":7056,"▁બિર":7057,"લિકાર્":7058,"▁કૌભાં":7059,"▁મિસાઈલ":7060,"▁અફઘાનિસ્તાન":7061,"▁ઇલેક્ટ્રિક":7062,"દ્રષ્ટા":7063,"▁ટીએમ":7064,"▁હતીઅ":7065,"ફોર્":7066,"ઇક્રો":7067,"▁આકર્ષક":7068,"ટ્રે":7069,"▁કરાયેલી":7070,"ામણ":7071,"▁કલાકાર":7072,"િંગના":7073,"▁સલામત":7074,"▁ઓળખવામાં":7075,"▁સાયન્સ":7076,"▁ભાષણ":7077,"▁કામના":7078,"ળીના":7079,"▁આરોપીઓને":7080,"▁પાસપોર્ટ":7081,"▁ઇન્સ":7082,"▁કાબૂ":7083,"▁આવતીકાલે":7084,"▁ભૂમિ":7085,"▁૫૦૦":7086,"▁લાલચ":7087,"▁ઓબીસી":7088,"▁ડાયમંડ":7089,"▁યે":7090,"▁ગ્લા":7091,"▁અગાઉના":7092,"▁ક્યાંય":7093,"▁તહેવારો":7094,"▁ગ્રામીણ":7095,"▁સિસો":7096,"▁૧૯૯":7097,"▁દંપતી":7098,"ક્ય":7099,"▁રશિયન":7100,"▁કિરણ":7101,"રાજસ્થાન":7102,"▁બહાદ":7103,"હવામાન":7104,"▁પરીક્ષામાં":7105,"▁જોખમી":7106,"▁એક્ઝિટ":7107,"સૌ":7108,"▁સ્ટાર્":7109,"▁મોડલ":7110,"લિન":7111,"હ્ય":7112,"▁કટોક":7113,"▁ફરવા":7114,"▁અર્થવ્યવસ્થા":7115,"▁જોવામાં":7116,"▁વિભાગમાં":7117,"▁ઉજવાય":7118,"મરી":7119,"્લિ":7120,"▁માધ":7121,"▁પંચાય":7122,"▁બાપુને":7123,"▁બજા":7124,"▁માયા":7125,"▁બેસા":7126,"▁ઈનિંગ":7127,"▁પાછળથી":7128,"▁દવે":7129,"▁કામો":7130,"ટ્ટર":7131,"▁હીટ":7132,"▁મફત":7133,"▁ફાઉન્ડ":7134,"▁છુપ":7135,"▁પ્રાચીન":7136,"▁ઉપયોગમાં":7137,"▁હત્યાના":7138,"▁પિતાએ":7139,"▁રોકાણકારોને":7140,"▁ફસાયેલા":7141,"▁છેયુ":7142,"▁સ્પીડ":7143,"▁એસિડ":7144,"▁જયસ્":7145,"▁આગ્રહી":7146,"▁વક્તૃત્વ":7147,"ંભા":7148,"▁રક્ત":7149,"▁કેમિક":7150,"▁પરિવ":7151,"▁ઇમ":7152,"▁લીડ":7153,"▁જિયો":7154,"▁દિનચર્યા":7155,"માસિક":7156,"▁ઝાડ":7157,"▁બેંગલુરુ":7158,"▁રૂ૬":7159,"▁સાંભળી":7160,"ઝમાં":7161,"▁શંકર":7162,"▁પૈસાની":7163,"▁પેરિસ":7164,"મહ":7165,"નોદ":7166,"▁કોને":7167,"જીવી":7168,"▁પરીક્ષણ":7169,"▁અણનમ":7170,"ઝરી":7171,"▁કપા":7172,"▁ઉશ્કે":7173,"▁રેખા":7174,"▁આનો":7175,"▁ડેમ":7176,"▁ચીજ":7177,"▁પરાજય":7178,"▁મજૂ":7179,"▁ટ્રેન્ડ":7180,"▁સ્કિન":7181,"▁કનેક્ટ":7182,"ગ્રે":7183,"વાણી":7184,"▁એસ્ટેટ":7185,"▁સ્વપ્નદ્રષ્ટા":7186,"▁જયંતિની":7187,"મહાલ":7188,"▁કડા":7189,"ર્થી":7190,"▁ઇમરજન્સી":7191,"▁સરસ":7192,"▁દેખરેખ":7193,"▁ઈરાન":7194,"▁લગાડ":7195,"▁સાંભળીને":7196,"▁ચરબી":7197,"▁શરણ":7198,"▁રહસ્ય":7199,"▁સ્ટ્રો":7200,"▁સૌર":7201,"▁ઝેરી":7202,"▁હમાસના":7203,"▁આયોગ":7204,"▁બપોર":7205,"▁ઇરા":7206,"તરફ":7207,"▁પાય":7208,"▁હતીવડાપ્રધાન":7209,"મ્પલ":7210,"▁શાળામાં":7211,"▁સંવેદનશીલ":7212,"કતો":7213,"▁પ્રેશર":7214,"ન્ઝ":7215,"▁ડ્રેસ":7216,"▁પડયું":7217,"▁સ્ટ્ર":7218,"▁અધ્યા":7219,"▁જવાન":7220,"▁કેન્દ્રમાં":7221,"▁પત્નીને":7222,"▁સંબોધિત":7223,"વરી":7224,"૭માં":7225,"રથી":7226,"▁બાતમી":7227,"સૂર":7228,"▁આળ":7229,"▁છેના":7230,"▁પંચાયત":7231,"ધારણ":7232,"લનની":7233,"ંદુર":7234,"▁થવી":7235,"▁માધ્યમથી":7236,"ળુ":7237,"▁જરા":7238,"▁હિસા":7239,"▁સૂત્રોના":7240,"▁ગુલાબચંદ":7241,"▁બજારોમાં":7242,"▁હટાવી":7243,"▁વંદે":7244,"▁સાચા":7245,"▁માટેનો":7246,"▁અર્થે":7247,"▁ટ્વિટ":7248,"ૂળતા":7249,"▁પ્રતિનિધિત્વ":7250,"પાઈ":7251,"સરી":7252,"▁રાધ":7253,"ર્ટમ":7254,"▁દિવ્યા":7255,"ઉત્તર":7256,"▁નસી":7257,"▁પ્રકારે":7258,"▁ફરક":7259,"▁સંબંધીઓ":7260,"ોબ":7261,"▁ફટા":7262,"રેલ":7263,"▁સર્જન":7264,"▁પક્ષે":7265,"કાર્ડ":7266,"▁એમ્બ્યુલ":7267,"▁ફીચર":7268,"▁વિષે":7269,"▁છેઓ":7270,"▁પોઝિટ":7271,"▁ઉપવાસ":7272,"▁રેસ્ક":7273,"▁પીઠ":7274,"▁ચોર":7275,"▁ટીમનો":7276,"▁થાક":7277,"▁વચગાળા":7278,"ણમ":7279,"▁વપરા":7280,"▁ઘટાડવામાં":7281,"▁અમેરિકી":7282,"િફિકેટ":7283,"▁રૂ૫":7284,"▁જબરદસ્ત":7285,"▁મુકી":7286,"▁કેટલાય":7287,"▁ગોળ":7288,"▁લાઈન":7289,"▁કોહલીએ":7290,"▁મથકમાં":7291,"▁કસરત":7292,"▁સશ":7293,"પં":7294,"▁કતાર":7295,"▁સુરેશ":7296,"▁બોલે":7297,"▁વધારાની":7298,"ભાન":7299,"સક":7300,"▁મેચની":7301,"હૂર્ત":7302,"ગાવો":7303,"ર્શિયલ":7304,"▁યુદ્ધમાં":7305,"માસભર":7306,"▁ઉષ્માસભર":7307,"▁નાર":7308,"▁ઊભો":7309,"આરપી":7310,"▁અલ્ટ":7311,"▁ચીનમાં":7312,"▁મુંબઈના":7313,"▁ફેબ્રુઆરીએ":7314,"▁ગીતો":7315,"▁અફઘાનિસ્તા":7316,"▁ધનખડનું":7317,"પશ્ચિમ":7318,"૮માં":7319,"▁સ્મોલ":7320,"▁ગુર":7321,"▁વરસ્યો":7322,"▁સફ":7323,"્યોદય":7324,"▁પેકે":7325,"▁મંત્રાલયના":7326,"સિંગ":7327,"▁કરતું":7328,"▁મદદરૂપ":7329,"▁વિશ્વનેતા":7330,"▁નિર્દોષ":7331,"▁ગઇકાલે":7332,"▁ડૂબી":7333,"▁કોન્ફરન્સ":7334,"▁મળવાથી":7335,"▁લાખનો":7336,"સમિટના":7337,"▁તીર્થ":7338,"અરજી":7339,"▁પીએસ":7340,"▁આદો":7341,"▁રિલ":7342,"▁એડિ":7343,"▁કેદી":7344,"▁આવનારા":7345,"▁જીડીપી":7346,"▁કિડની":7347,"▁ગોવિંદ":7348,"▁પ્રદેશની":7349,"▁કેન્દ્રરાજ્યના":7350,"તુલા":7351,"▁દેશોની":7352,"▁ભાષામાં":7353,"▁સમૃદ્ધ":7354,"સ્વચ્છતાના":7355,"▁આદોલનની":7356,"મણી":7357,"▁અવર":7358,"▁કરાઇ":7359,"▁આયોજિતસમિટના":7360,"▁ધનખડજીની":7361,"▁સમાપનસ્વચ્છતાના":7362,"▁કેન્દ્રરાજ્યનાપ્રતિનિધિ":7363,"▁આદોલનનીભારતના":7364,"▁ઓક્સિ":7365,"ાયેલું":7366,"▁શોધવા":7367,"▁કલેક્ટર":7368,"જાન":7369,"▁પોઝ":7370,"▁ડાન્સ":7371,"▁સરખામણીએ":7372,"▁માસ્ટર":7373,"▁ગુસ્સો":7374,"દ્દીન":7375,"▁જસ":7376,"રોહિત":7377,"કાર્ય":7378,"▁નિકાલ":7379,"▁ડાયરેક્ટર":7380,"▁બુકિંગ":7381,"ઇએ":7382,"▁સંસ્કાર":7383,"વણ":7384,"▁છતા":7385,"▁પ્રારંભિક":7386,"ફ્રેન્ડ":7387,"▁માટી":7388,"▁મતલબ":7389,"ખ્ત":7390,"▁છાતી":7391,"▁વેલ":7392,"▁બનતી":7393,"▁આસિસ્ટન્ટ":7394,"▁જેપી":7395,"▁શિખર":7396,"▁શરીરના":7397,"▁ધમ":7398,"▁તબિયત":7399,"▁ગ્રૂપ":7400,"કિત":7401,"▁મલ્લિકાર્":7402,"ડય":7403,"▁સપના":7404,"▁છેમો":7405,"▁મહેન્દ્ર":7406,"▁પ્રાથમિકતા":7407,"ઝોન":7408,"ખાન":7409,"▁હિલ":7410,"▁ગેહલો":7411,"▁બુદ્ધિ":7412,"▁રાજકોટના":7413,"ખું":7414,"▁અછ":7415,"▁મસ્ક":7416,"▁લાશ":7417,"▁બેંકના":7418,"▁ચકાસણી":7419,"▁પંત":7420,"્ટન":7421,"▁પાડોશી":7422,"ક્ષક":7423,"▁રૂ૨":7424,"▁ચેલે":7425,"પુરી":7426,"▁ઉત્પન્ન":7427,"▁ભાવનાત્મક":7428,"ક્રો":7429,"દેપુર":7430,"પાકિસ્તા":7431,"▁વિરૂદ્ધ":7432,"▁સમર્પિત":7433,"૧૪":7434,"▁સત્":7435,"▁ત્રા":7436,"્સની":7437,"▁ફેંકી":7438,"▁દૃષ્ટ":7439,"▁સિસોદ":7440,"સમી":7441,"▁એકસાથે":7442,"▁ધર્મે":7443,"▁ડેવિડ":7444,"▁ટ્વિટર":7445,"▁સેમ":7446,"▁બનતા":7447,"▁મૂલ્યાંક":7448,"ષી":7449,"▁રહેવાનું":7450,"▁પેનલ":7451,"▁યુવકને":7452,"બાલ":7453,"▁વરા":7454,"▁ચેપ":7455,"▁સ્ટેશનના":7456,"▁મનોરંજન":7457,"ારક":7458,"▁હોબ":7459,"▁સ્વયં":7460,"માઈ":7461,"યોર્ક":7462,"ળાના":7463,"▁મેગાપ":7464,"ંકડો":7465,"દેવી":7466,"▁ઉઠાવ્યો":7467,"તમને":7468,"▁છેભાજપ":7469,"▁કુટુંબ":7470,"▁રશિયાના":7471,"▁લગ્નના":7472,"્યોરન્સ":7473,"▁થિયેટ":7474,"ચ્ચાર":7475,"▁દેહ":7476,"▁કેબિનેટ":7477,"▁એકનાથ":7478,"▁ટેબ":7479,"▁વર્લ્ડક":7480,"▁વ્રત":7481,"સ્ડ":7482,"રોપી":7483,"▁લોખંડ":7484,"▁કાચ":7485,"ૂન":7486,"▁ભરાઈ":7487,"▁કુલદીપ":7488,"▁રમવા":7489,"▁જોડાણ":7490,"▁નબળા":7491,"▁બ્રહ્મ":7492,"▁સર્ટિફિકેટ":7493,"રોડા":7494,"▁ઘુ":7495,"▁રાખતા":7496,"▁ચિરાગ":7497,"▁સેનાના":7498,"▁ઠાકુર":7499,"▁કમ્પ":7500,"▁રાઉ":7501,"▁રહેલ":7502,"▁શોક":7503,"▁લાંચ":7504,"▁ઉછાળો":7505,"▁ગિફ્ટ":7506,"વર્ગ":7507,"માળ":7508,"▁સેન્સર":7509,"▁મહિનો":7510,"તાનું":7511,"▁દેવું":7512,"▁પેસે":7513,"▁સિંહની":7514,"▁ઓથોરિટી":7515,"▁ટાઈમ":7516,"▁પડેલા":7517,"આંગ":7518,"▁સાચું":7519,"એસએસ":7520,"▁ડેવલપમેન્ટ":7521,"▁ડિપોઝિટ":7522,"▁પડતું":7523,"▁કલાકો":7524,"▁ભરો":7525,"ટોપ":7526,"ખાના":7527,"▁૪૮":7528,"▁જવાથી":7529,"▁સુનીલ":7530,"▁આગમન":7531,"ંડુલ":7532,"▁ઠીક":7533,"▁જીવનની":7534,"▁મોંઘી":7535,"▁૨૦૨૩માં":7536,"▁નિર્મલા":7537,"▁બધાં":7538,"▁એશિયન":7539,"▁ભાજપનો":7540,"▁અપાઈ":7541,"▁ઝડપે":7542,"▁સોંપી":7543,"▁લડશે":7544,"▁નદીના":7545,"▁કોશિશ":7546,"▁કદ":7547,"નોંધ":7548,"ત્વે":7549,"▁જીતે":7550,"▁પીડિ":7551,"▁નવીદિલ્હી":7552,"▁ફેસબુક":7553,"જરૂ":7554,"ેશનના":7555,"▁ઊભ":7556,"▁ઔર":7557,"▁નિરાશા":7558,"▁પોઝિટિવ":7559,"સરમાં":7560,"મેજ":7561,"ભાવનગર":7562,"▁સાવધાની":7563,"રાહુલ":7564,"▁અભિનંદન":7565,"▁મેયર":7566,"▁ઢો":7567,"▁સાવચેત":7568,"▁પુણે":7569,"▁ખુશન":7570,"▁ઇતિહાસની":7571,"ક્યુમેન્ટ":7572,"ઇન્ડ":7573,"બેટ":7574,"શાળા":7575,"▁ટેબલ":7576,"▁દેતા":7577,"▁આવકવેરા":7578,"▁નિર્ધારિત":7579,"▁નીકળ્યા":7580,"▁ફુગા":7581,"▁ન્યાયાધીશ":7582,"▁મૂકીને":7583,"મકર":7584,"▁લહે":7585,"▁સંબંધમાં":7586,"▁સપ્ટેમ્બરે":7587,"▁ફર્સ્ટ":7588,"કાવ":7589,"રેસ્ટ":7590,"કાના":7591,"પરિ":7592,"▁જોડાયેલી":7593,"▁સ્ટેન્ડ":7594,"▁ડેમો":7595,"▁પોસ્ટમાં":7596,"થલ":7597,"પ્રતિક":7598,"▁અધિકારો":7599,"▁ધર્મના":7600,"▁ક્લાસ":7601,"ચિવ":7602,"બળો":7603,"▁ટ્રેનમાં":7604,"▁લેખિત":7605,"▁ફ્રેન્ચ":7606,"એચ":7607,"શિષ્ટ":7608,"▁સેનાની":7609,"▁ઉદ્યોગપતિ":7610,"▁ગાળો":7611,"▁બેઠેલા":7612,"▁ઈચ્છે":7613,"▁નશા":7614,"▁બોટાદ":7615,"▁છેલ્લાં":7616,"▁ઘાટ":7617,"▁સુરેન્દ્રનગર":7618,"ક્રમ":7619,"▁માર્કેટિંગ":7620,"▁કસ્ટડીમાં":7621,"▁શુભેચ્છા":7622,"જું":7623,"▁ઓગસ્ટે":7624,"▁ટાપુ":7625,"▁પ્રત્યેક":7626,"▁લાઇફ":7627,"▁ખુશનુમા":7628,"ઇંગ":7629,"ડ્ર":7630,"▁પંથ":7631,"▁ઊંચી":7632,"વેસ્ટમેન્ટ":7633,"▁નિવૃત્તિ":7634,"▁તેંડુલ":7635,"લોના":7636,"▁ગ્રાહકોને":7637,"ટ્ર":7638,"વાલમાં":7639,"▁બોટલ":7640,"▁જેમની":7641,"▁ટેસ્ટમાં":7642,"૧૩":7643,"૧૬":7644,"ડોર":7645,"▁મૂંઝ":7646,"▁કોંગ્રેસમાં":7647,"▁વધારવામાં":7648,"▁પંડિત":7649,"▁વારાણ":7650,"▁પરિસ્થિતિમાં":7651,"▁રાખવાનો":7652,"▁ઉત્સવ":7653,"▁સાઉદી":7654,"▁મનુષ્ય":7655,"ક્વિટી":7656,"▁કબ્":7657,"નોએ":7658,"▁ઇન્ટરવ":7659,"▁ભાડે":7660,"▁પરિવારે":7661,"▁બારી":7662,"▁વેચી":7663,"▁થયાં":7664,"▁સાર્":7665,"▁વતની":7666,"▁લેપ":7667,"▁કાર્યકર્તા":7668,"▁ઘરેથી":7669,"▁મેગાપિક્સ":7670,"માર્ક":7671,"▁હાન":7672,"▁રડ":7673,"▁સેફ્ટી":7674,"▁સમાર":7675,"▁અમારો":7676,"▁વિવાહિત":7677,"▁દખલ":7678,"▁ફસા":7679,"▁પહેલું":7680,"▁ફોલો":7681,"▁ગ્રાહક":7682,"▁પઠાણ":7683,"ગસ":7684,"▁સીઝન":7685,"▁આરોપીઓની":7686,"▁છેસુર":7687,"▁લખનૌ":7688,"યત":7689,"▁દાળ":7690,"ભાવિક":7691,"▁અફવા":7692,"▁ન્યૂઝીલેન્ડ":7693,"▁કિશોર":7694,"જવા":7695,"લાન":7696,"વિદ":7697,"દ્દ":7698,"▁નીચ":7699,"શુભ":7700,"▁ચેલેન્જ":7701,"સીસ":7702,"▁ફાટી":7703,"▁પ્રમોશન":7704,"▁મિક્સ":7705,"▁વણ":7706,"▁ડબ્":7707,"▁ડિસ્પ્લે":7708,"ેશન્સ":7709,"▁વધુની":7710,"રાએ":7711,"વેરી":7712,"▁રૂ૪":7713,"▁ખાવાથી":7714,"▁સંભાળી":7715,"▁આકર્ષણ":7716,"▁હેમંત":7717,"▁યુએ":7718,"▁સ્ટ્રે":7719,"ડીએફ":7720,"▁શક્તિશાળી":7721,"▁વાવાઝો":7722,"▁કિસ્સો":7723,"▁ઈશ":7724,"▁ડિફે":7725,"▁વિકલ્પો":7726,"▁અમેરિકાએ":7727,"▁ભાઈઓ":7728,"▁મુશ્કેલીમાં":7729,"▁રત્ન":7730,"▁નોંધણી":7731,"▁ભાગરૂપે":7732,"▁કમિટી":7733,"▁માઇક્રો":7734,"લેસ":7735,"▁ટેલ":7736,"▁બનવાની":7737,"▁ફ્રોડ":7738,"▁અભિનય":7739,"▁ડ્રાઈવ":7740,"વવાનો":7741,"▁પરમ":7742,"ંગળ":7743,"▁ગણવામાં":7744,"▁૯૦":7745,"▁કાયદાકીય":7746,"▁હીરો":7747,"▁વિજ":7748,"▁હક":7749,"▁દાં":7750,"▁ફળો":7751,"▁વિતા":7752,"દેશમાં":7753,"▁રણબીર":7754,"▁તેજસ્વી":7755,"લ્લાહ":7756,"▁રિક્ષા":7757,"▁કેલ":7758,"▁ફુલ":7759,"▁ગુને":7760,"પ્રધાને":7761,"્યુચ્યુઅલ":7762,"▁ગેરસમ":7763,"▁મેળવ્યા":7764,"માણ":7765,"▁નક":7766,"▁સમયની":7767,"▁મંજુ":7768,"▁કેનેડામાં":7769,"▁પંક":7770,"▁જર્":7771,"▁કેરી":7772,"લ્થ":7773,"▁કરીયે":7774,"▁ખુલ્લી":7775,"▁જવાબદારીઓ":7776,"▁એપાર":7777,"▁તફાવત":7778,"વર્ણ":7779,"▁પદે":7780,"▁કામનો":7781,"▁છાપ":7782,"▁મુકાબલો":7783,"▁દાવ":7784,"▁લેવું":7785,"▁શ્રાવણ":7786,"ગમાં":7787,"▁કન્ટ":7788,"્યામ":7789,"કેર":7790,"▁સેક્રે":7791,"▁મીઠું":7792,"ષિત":7793,"મામ":7794,"રોક્ત":7795,"▁ગાંધીને":7796,"▁હસ્તા":7797,"▁પ્રતાપ":7798,"▁કપડા":7799,"▁આતંકવાદીઓ":7800,"▁ઢોર":7801,"▁શકતી":7802,"▁સમિતિની":7803,"▁મંત્રીએ":7804,"▁જ્વેલ":7805,"▁પ્લોટ":7806,"▁કન્સ":7807,"વાશે":7808,"▁ગ્રી":7809,"મેષ":7810,"▁લીંબુ":7811,"▁સિક્યુ":7812,"જિન":7813,"લાઈએ":7814,"▁સાડી":7815,"▁વિતાવ":7816,"▁જુનિયર":7817,"▁સ્પીકર":7818,"▁ગુસ્સે":7819,"તાન":7820,"▁ગણી":7821,"▁માળે":7822,"▁ફિલ્મને":7823,"▁ડોક્યુમેન્ટ":7824,"▁પ્રીમિયમ":7825,"▁અંડર":7826,"લાસ":7827,"▁પહોંચશે":7828,"▁અવરોધ":7829,"▁પ્રતિકા":7830,"▁બિલકુલ":7831,"▁કમ્":7832,"બડ":7833,"રાઇ":7834,"દ્વાર":7835,"▁રૂ૮":7836,"▁રિપ":7837,"▁વધારાના":7838,"▁બગડી":7839,"▁અભ્યાસમાં":7840,"▁ઓપરે":7841,"▁વેચવાલી":7842,"જારી":7843,"▁સંદીપ":7844,"▁વાતની":7845,"ળીમાં":7846,"▁મેચો":7847,"▁પત્રકારો":7848,"▁લાઇવ":7849,"▁નિમિત્":7850,"▁મનાય":7851,"▁બનાવવાનું":7852,"કાની":7853,"પ્રાપ્ત":7854,"ન્ટેલિજન્સ":7855,"▁કવ":7856,"▁પેશ":7857,"▁ઉદ":7858,"્યુશન":7859,"▁વિવેકાન":7860,"▁સ્નાન":7861,"▁તાજા":7862,"▁હિમ":7863,"બોટ":7864,"▁હત્યાનો":7865,"▁અધિકારીઓની":7866,"▁પ્રતિકાત્મક":7867,"▁કૂત":7868,"▁જ્યુ":7869,"▁મકાનમાં":7870,"▁પદ્":7871,"▁નાનો":7872,"▁સ્કૂલમાં":7873,"▁મંડળ":7874,"▁વિગતવાર":7875,"▁કેલેન્ડ":7876,"▁બાબતમાં":7877,"▁દ્વિ":7878,"▁ે":7879,"▁વાળી":7880,"▁શાહી":7881,"▁પાર્કિંગ":7882,"ટલી":7883,"▁પપ્પા":7884,"▁જાવ":7885,"▁ધરાશ":7886,"▁બાબુ":7887,"▁આખું":7888,"▁ત્રિમાસિક":7889,"▁સંસદીય":7890,"વશે":7891,"▁પશ્ચિ":7892,"વેદી":7893,"શ્નો":7894,"▁કર્મચારીઓની":7895,"▁કર્ણાટકમાં":7896,"▁ગાળામાં":7897,"▁એસોસિએશન":7898,"▁નિયુક્ત":7899,"▁સાપ્તાહ":7900,"▁સાંજ":7901,"▁પાર્ટનર":7902,"▁પહોંચતા":7903,"▁પાલિકાના":7904,"▁બ્લાસ્ટ":7905,"▁ચાલકે":7906,"▁બધુ":7907,"ડીઝ":7908,"▁બાલા":7909,"▁મહિન્દ્રા":7910,"▁પ્રાપ્તિ":7911,"▁સિંહના":7912,"▁થવાને":7913,"▁ગેરહા":7914,"▁ઋષિ":7915,"▁પુરસ્કાર":7916,"▁સેક્રેટરી":7917,"કન્યા":7918,"વૂડ":7919,"વાસે":7920,"▁બેનર":7921,"યોગ્ય":7922,"▁સૂત્ર":7923,"▁પંજાબમાં":7924,"▁કાશ્મીરમાં":7925,"▁જાગૃત":7926,"▁રાધિકા":7927,"૧૭":7928,"▁ગયુ":7929,"▁ફસાઈ":7930,"▁પ્રતિબદ્ધ":7931,"▁જોડાઈ":7932,"▁મલ્લિકાર્જુન":7933,"▁એઆઈ":7934,"▁મેળવવામાં":7935,"▁ફાયરિંગ":7936,"હારાષ્ટ્ર":7937,"▁કાબુ":7938,"સ્કૃતિક":7939,"▁પાડ્યા":7940,"▁આઝાદ":7941,"વડી":7942,"▁તંદુર":7943,"▁ચડ":7944,"રોડ":7945,"▁મળેલા":7946,"▁શ્રદ્ધાળુ":7947,"▁ઉતાવળ":7948,"▁કોમ્":7949,"ંચી":7950,"▁તિવારી":7951,"▁છેઉલ્લેખનીય":7952,"રેન્જ":7953,"લિટી":7954,"▁જોઇને":7955,"▁એડી":7956,"▁દુખા":7957,"▁ધ્યાને":7958,"▁મોન":7959,"કારા":7960,"▁હોબાળો":7961,"▁પુસ્ત":7962,"▁અડધો":7963,"▁સમુદાયના":7964,"▁વિનોદ":7965,"▁ચેન":7966,"કલ્ટી":7967,"▁વિરોધમાં":7968,"▁ટાઇટ":7969,"ોનો":7970,"▁લોટ":7971,"▁ગેલે":7972,"ઓમાંથી":7973,"▁કરાયેલ":7974,"▁મહિલાઓની":7975,"▁ઊંડા":7976,"▁આકરા":7977,"બજારમાં":7978,"▁ડ્રાઇવ":7979,"જવીજ":7980,"▁લઘ":7981,"▁દરે":7982,"રેન્સ":7983,"▁મોડે":7984,"▁કાટ":7985,"તૃ":7986,"િટે":7987,"▁તુર":7988,"▁લાદ":7989,"સીન":7990,"ભાઈએ":7991,"▁શોષણ":7992,"▁બહારના":7993,"▁ખોટો":7994,"▁ગાઝામાં":7995,"▁દાહોદ":7996,"ફાય":7997,"▁સાધુ":7998,"કોઈ":7999,"▁ગંભીરતાથી":8000,"▁કમાન્ડ":8001,"▁અડધા":8002,"▁દારૂની":8003,"▁વિવેક":8004,"▁મહાસચિવ":8005,"▁વિસ્ફોટ":8006,"▁સેલિબ્ર":8007,"ર્વેદ":8008,"▁નાણામ":8009,"સ્ટ્રો":8010,"▁સેંકડો":8011,"ચારિક":8012,"▁બનાવમાં":8013,"પેડ":8014,"▁પોસ્ટમો":8015,"▁ચૂક્યો":8016,"▁નિર્ભર":8017,"ડયંત્ર":8018,"▁શિવા":8019,"▁મોટાભાગે":8020,"▁વિદ્યાર્થીઓની":8021,"▁સવારના":8022,"▁પામ્યા":8023,"▁આંધ્રપ્રદેશ":8024,"▁હસ્તક્ષે":8025,"▁પ્રોફેસર":8026,"▁દરજ્":8027,"▁વડોદરાઃ":8028,"ાર્થિની":8029,"▁અતિભારે":8030,"જ્ઞાાન":8031,"▁ટ્વીટ":8032,"▁કેવા":8033,"▁કોસ્ટ":8034,"▁રહેશો":8035,"▁ઈમાર":8036,"ષ્ણા":8037,"▁સ્પિન":8038,"▁જાળવણી":8039,"▁ષડયંત્ર":8040,"▁શકતો":8041,"▁સૌપ્રથમ":8042,"▁બિલ્ડીંગ":8043,"▁પ્રેક્ટિસ":8044,"▁કઇ":8045,"▁જાતીય":8046,"▁રોયલ":8047,"▁બાઇ":8048,"▁નોંધનીય":8049,"સ્થાને":8050,"▁ડીલ":8051,"▁સ્માર્ટફોનમાં":8052,"▁ઉતાર્યા":8053,"▁ગયેલી":8054,"▁વ્યૂ":8055,"▁મેળવે":8056,"▁પરિવર્ત":8057,"▁રિટેલ":8058,"▁ઘેરા":8059,"▁આર્ય":8060,"▁કાનૂની":8061,"▁લગ્નમાં":8062,"▁ઉજ્જ":8063,"▁ઘડ":8064,"▁યુધ્ધ":8065,"▁વિસ્તારની":8066,"▁સૂર્યકુમાર":8067,"▁અહંકાર":8068,"▁ચિત્":8069,"▁ઝિ":8070,"▁કિસાન":8071,"▁જુલાઈએ":8072,"▁વિશ્વભરમાં":8073,"▁સાર્વ":8074,"▁પોપ":8075,"▁લગાવ્યા":8076,"દ્યોગિક":8077,"▁એફઆઈઆર":8078,"▁એપ્લિકેશન":8079,"તાજેત":8080,"▁લુક":8081,"રોનો":8082,"▁દેવાની":8083,"▁શ્રેણીમાં":8084,"▁સાપ્તાહિક":8085,"ફિલ્":8086,"▁મંચ":8087,"▁કોફી":8088,"▁સુત્રો":8089,"▁જોબ":8090,"▁દીકરો":8091,"▁ક્ષણ":8092,"▁કદી":8093,"▁તોફા":8094,"▁વસતી":8095,"▁એકબીજાને":8096,"▁જઇને":8097,"▁સ્ટીલ":8098,"ચ્યુ":8099,"▁પતિને":8100,"▁આદર્શ":8101,"▁મોં":8102,"▁કારની":8103,"▁નિવેદનો":8104,"▁ચુકાદા":8105,"▁ક્લો":8106,"▁સમજા":8107,"▁ગુણો":8108,"▁ઝાં":8109,"▁ખોલી":8110,"▁ઘટાડા":8111,"▁પંચમહાલ":8112,"▁નીકળે":8113,"▁છુટ":8114,"▁રેડ્ડી":8115,"▁ચેન્નાઈ":8116,"વટ":8117,"શંકર":8118,"▁મ્યુચ્યુઅલ":8119,"▁વિશિષ્ટ":8120,"▁સેબી":8121,"▁કપની":8122,"ત્યારે":8123,"▁અધિનિયમ":8124,"▁સર્ક":8125,"▁ક્રૂ":8126,"▁૩૩":8127,"▁ઘટાડે":8128,"▁સૂર્યોદય":8129,"▁ચલાવવામાં":8130,"▁મુકવામાં":8131,"▁અગ્રવાલ":8132,"▁પર્સનલ":8133,"ગંધ":8134,"▁અગત":8135,"▁બોગસ":8136,"▁માર્ગો":8137,"▁બિલિયન":8138,"સ્તાન":8139,"મણાં":8140,"▁શક્યતાઓ":8141,"▁દાયકામાં":8142,"મિન":8143,"▁સંભળ":8144,"કોલ":8145,"▁બોડી":8146,"▁ઓક":8147,"▁વધવા":8148,"▁નોટો":8149,"▁એનએસ":8150,"▁મેળવવાની":8151,"હિતા":8152,"▁કર્યાં":8153,"ન્જર":8154,"લેન્ટ":8155,"▁ઝેર":8156,"▁પુરૂષ":8157,"▁ચેનલ":8158,"▁સ્થાપક":8159,"શંક":8160,"મેદ":8161,"▁હોતી":8162,"▁મુખ્યત્વે":8163,"▁અબ્દુલ":8164,"▁સ્પોર્ટ્સ":8165,"રિયલ":8166,"▁દિલીપ":8167,"▁અહેમદ":8168,"▁સમારોહમાં":8169,"▁પરિબળો":8170,"▁રેસ":8171,"▁ફેલાઈ":8172,"▁જહાજ":8173,"▁છૂટાછે":8174,"દેશના":8175,"▁નોંધાયેલા":8176,"▁સમૃદ્ધિ":8177,"▁માથું":8178,"▁નડ્":8179,"▁ખાં":8180,"▁દિવસનો":8181,"▁ગણપતિ":8182,"નારાયણ":8183,"▁ફાઇલ":8184,"▁સરો":8185,"▁પરો":8186,"શેર":8187,"▁લેવાના":8188,"▁ધોધ":8189,"કોણ":8190,"▁મળતો":8191,"▁ઘટાડી":8192,"▁જાણીતી":8193,"▁બ્લુ":8194,"▁વિવેકાનંદ":8195,"ખમાં":8196,"▁કેજરીવાલની":8197,"▁ગર્ભ":8198,"▁કેસોમાં":8199,"▁રથયાત્રા":8200,"▁હુકમ":8201,"▁ઓર્ગેના":8202,"જરૂરી":8203,"▁નડિયાદ":8204,"▁રાધા":8205,"▁નામો":8206,"ામો":8207,"રૂમ":8208,"▁જન્મે":8209,"▁નીપજ્યું":8210,"▁લેતી":8211,"▁બિશ્નો":8212,"▁એજન્સીઓ":8213,"▁સંકટ":8214,"▁ઓડ":8215,"▁કંપનીઓએ":8216,"▁ડૉક્ટ":8217,"▁પ્રવાસીઓ":8218,"▁મૂલ્યાંકન":8219,"▁છેદ":8220,"▁માછ":8221,"▁સેક્સ":8222,"▁ક્ષેત્રની":8223,"▁લાઇન":8224,"▁છેહવે":8225,"▁સ્ત્રીઓ":8226,"▁તેલંગાણા":8227,"▁કોન્સ્ટેબલ":8228,"બેર":8229,"▁માટેનું":8230,"▁ફેબુ":8231,"▁રમાઈ":8232,"▁સંબોધન":8233,"▁એલિ":8234,"▁ભંડ":8235,"▁ચામ":8236,"▁રાઘ":8237,"▁પાછલા":8238,"▁અટકાવી":8239,"મહિ":8240,"▁પાયલ":8241,"▁છેસો":8242,"▁કેના":8243,"▁ઈમરજન્સી":8244,"▁ગાંધીના":8245,"▁મહત્વનો":8246,"▁મેન્યુ":8247,"▁ડિલિવ":8248,"▁દહીં":8249,"▁ચીને":8250,"▁નિવાર":8251,"▁આવશેઆ":8252,"▁સાંસ્કૃતિક":8253,"▁ફરિયાદમાં":8254,"▁ચોક્કસપણે":8255,"▁મચાવી":8256,"▁સાંજના":8257,"યાના":8258,"▁મોટાભાગની":8259,"મહે":8260,"▁શ્રીકૃષ્ણ":8261,"▁તરફી":8262,"▁ઈન્ડિયાના":8263,"▁ઇઝરાયે":8264,"▁આકરી":8265,"▁છેભારત":8266,"▁મચ્છ":8267,"▁લાયક":8268,"▁લાલુ":8269,"▁કહાની":8270,"▁પીછો":8271,"▁સાબરકાંઠા":8272,"▁મસ્જિદ":8273,"પ્રતિકારક":8274,"▁શમી":8275,"▁ખર":8276,"ડાઇ":8277,"સ્ટી":8278,"▁શક્યું":8279,"▁અનુસ":8280,"▁સાવચેતી":8281,"▁પરિવહન":8282,"વિશ્વ":8283,"ોડિયા":8284,"▁માતાને":8285,"▁સ્નાયુ":8286,"▁રહેવાનો":8287,"▁ડોકટ":8288,"▁પદાર્થ":8289,"વૃષભ":8290,"▁નીચામાં":8291,"ફાન":8292,"માર્":8293,"પાની":8294,"▁બ્રાન્ચ":8295,"ગ્રાફ":8296,"▁ચોકડી":8297,"▁અગત્ય":8298,"તમે":8299,"▁કરાવે":8300,"ટીએસ":8301,"▁મીઠા":8302,"▁બળતરા":8303,"▁છેવટે":8304,"▁હસ્તાક્ષર":8305,"▁દાસ":8306,"▁જોશી":8307,"સ્ટોર":8308,"▁બોમ્બે":8309,"▁પૂરતી":8310,"મારું":8311,"▁અંતમાં":8312,"હિલ":8313,"▁વિનેશ":8314,"િસ્તાની":8315,"▁૩૬":8316,"બત":8317,"▁ગૃ":8318,"▁મેટા":8319,"▁એવરેજ":8320,"▁નક્ષત્ર":8321,"▁માતાના":8322,"ાદેશ":8323,"▁૩૪":8324,"સમા":8325,"▁ફેમિ":8326,"▁ક્ષેત્રોમાં":8327,"▁ઈન્સ્ટાગ્રામ":8328,"▁ફતે":8329,"▁મીટિંગ":8330,"▁ફેન્સ":8331,"▁મોરચા":8332,"▁આઈપીએ":8333,"▁અશ્વિન":8334,"▁આઈપીઓ":8335,"▁દરોડો":8336,"સ્ખલ":8337,"▁સ્પો":8338,"કામના":8339,"પોરના":8340,"▁મોતને":8341,"▁એજ્યુ":8342,"▁ખેલાડીઓને":8343,"▁રંજન":8344,"▁લક્":8345,"▁આપતો":8346,"▁નિખ":8347,"બાદમાં":8348,"▁ગેરંટી":8349,"નવ":8350,"▁સંકલ":8351,"▁કરવાને":8352,"▁એસપી":8353,"▁પત્રમાં":8354,"▁પટ્ટી":8355,"વીએમ":8356,"▁હતોજે":8357,"▁વધવાની":8358,"▁ફેકલ્ટી":8359,"▁કુસ્તી":8360,"▁સઘ":8361,"દીના":8362,"▁પરેશાની":8363,"▁વૃક્ષો":8364,"▁ડિસ્કાઉન્ટ":8365,"▁રિયા":8366,"▁રોમાં":8367,"▁પક્ષની":8368,"▁વોશિંગ":8369,"ક્રાફ્ટ":8370,"લેન્સ":8371,"▁૩૦૦":8372,"▁વિદ્યાર્થિની":8373,"▁સેનાએ":8374,"▁યુનિવર્સિટીના":8375,"▁આંચકા":8376,"▁રાજેન્દ્ર":8377,"િયું":8378,"▁રાજ્યોની":8379,"▁દારુ":8380,"ધિકારી":8381,"▁યૂઝ":8382,"▁ઓક્સિજન":8383,"ઇસ":8384,"ડન્ટ":8385,"▁બોસ":8386,"બાજી":8387,"▁આગ્રહ":8388,"▁ભંડોળ":8389,"▁ચાર્":8390,"▁સંહિતા":8391,"▁ધિરા":8392,"▁વધ્યું":8393,"▁હતાઅ":8394,"▁નિભાવ":8395,"મેટિક":8396,"▁૨૦૨૨માં":8397,"ગ્રહણ":8398,"ચુ":8399,"ટકી":8400,"▁ચુંટ":8401,"▁ડ્રે":8402,"પ્લા":8403,"▁પ્રતીક":8404,"કાંડ":8405,"▁નોંધ્યો":8406,"▁નેતાઓની":8407,"▁લાઈવ":8408,"▁દોડધામ":8409,"▁કટ્ટર":8410,"▁ગર્વ":8411,"▁ઝવેરી":8412,"્સના":8413,"▁ચૂંટણીને":8414,"▁સીટી":8415,"▁કર્ણાટકના":8416,"▁ડુંગળી":8417,"▁ભયાન":8418,"▁ઇવેન્ટ":8419,"▁૫૫":8420,"▁પ્રેરિત":8421,"ગામી":8422,"િના":8423,"્રઆરી":8424,"▁દિક":8425,"▁એવામાં":8426,"▁સહાયક":8427,"▁ગાયબ":8428,"▁અમી":8429,"▁વગા":8430,"સ્મિક":8431,"▁ઈસ્લા":8432,"▁તાજ":8433,"▁પિતાને":8434,"▁ચંદ્રશે":8435,"▁અઠવાડિયામાં":8436,"વધુ":8437,"શીપ":8438,"▁સંબંધોને":8439,"▁આતુર":8440,"▁રમાયેલી":8441,"▁રેટિંગ":8442,"▁લિસ્ટેડ":8443,"▁સંગ્રહ":8444,"▁ધરાશાયી":8445,"▁સ્પર્શ":8446,"▁દસ્તાવેજ":8447,"ંડનબર્ગ":8448,"▁બસમાં":8449,"▁બચ્ચ":8450,"▁માછી":8451,"▁ટકરા":8452,"લોટ":8453,"▁આવેલો":8454,"▁રેડિયો":8455,"▁રોકડા":8456,"▁ટ્રાન્ઝે":8457,"ાના":8458,"▁હોસ્ટે":8459,"ાદેશિક":8460,"ડાઉન":8461,"▁પીપ":8462,"▁ફટકો":8463,"▁મુલાકાતે":8464,"ર્કી":8465,"▁એપલ":8466,"▁શિલ્":8467,"▁લેવડ":8468,"▁મતવિસ્તાર":8469,"▁મૂળભૂત":8470,"▁કોલેજમાં":8471,"▁કોમર્શિયલ":8472,"▁વાપસી":8473,"ાયુ":8474,"▁ચૂંટા":8475,"▁ફોર્સ":8476,"▁છેઆજે":8477,"▁ટ્રેનો":8478,"▁મારતા":8479,"▁સંક્રમિત":8480,"સૈ":8481,"▁સાયકલ":8482,"▁પોસ્ટમોર્ટમ":8483,"શહે":8484,"વાસ્તવ":8485,"▁હવાઈ":8486,"▁કોમેન્ટ":8487,"સેલ":8488,"પ્રકાશ":8489,"▁પડતાં":8490,"▁ટકાની":8491,"▁સુખદ":8492,"▁વતી":8493,"▁એકતા":8494,"▁ઇશ":8495,"▁ટોળ":8496,"▁શ્રમ":8497,"▁શબ્દોમાં":8498,"▁જયસ્વાલ":8499,"▁હસ્તક્ષેપ":8500,"દત":8501,"શાસ":8502,"▁લેન્ડિંગ":8503,"▁બોય":8504,"▁વિદાય":8505,"▁કેજરીવાલને":8506,"સ્પેક્ટર":8507,"▁સિલ્વર":8508,"▁પાછું":8509,"▁ટ્રાવે":8510,"▁અમારે":8511,"▁દુર્ઘટનામાં":8512,"▁નિરીક્ષણ":8513,"▁ચિંતિત":8514,"હ્ન":8515,"્સે":8516,"ારામ":8517,"▁ફેશન":8518,"▁દર્દીઓને":8519,"▁ટૂંકા":8520,"▁ક્રોસ":8521,"▁બસો":8522,"િયન્ટ":8523,"લાઇટ":8524,"▁નાખ્યો":8525,"▁પુરુષો":8526,"▁દર્શાવી":8527,"▁મળતું":8528,"▁પાટણ":8529,"▁ક્ષેત્રના":8530,"દ્વારા":8531,"▁પડોશી":8532,"▁સેટે":8533,"▁ઝટકો":8534,"▁રામાયણ":8535,"▁ગળે":8536,"▁કંપનીને":8537,"▁અપાવી":8538,"▁રખડ":8539,"▁માસ્ક":8540,"▁જોડો":8541,"▁રોજગારી":8542,"▁એક્ટ્રેસ":8543,"▁વિરૂધ્ધ":8544,"▁આની":8545,"નીએ":8546,"ર્બ":8547,"▁રાકેશ":8548,"▁પાઇ":8549,"ાઈડ":8550,"▁અધિકૃત":8551,"▁હુમલાખો":8552,"▁અદ્ભુત":8553,"રીનો":8554,"▁સૂચન":8555,"▁ફ્લેટ":8556,"૨૬":8557,"▁ઉણ":8558,"▁ધનિક":8559,"જીભાઈ":8560,"▁જીતના":8561,"▁ફર્યા":8562,"▁શોમાં":8563,"પુરની":8564,"▁અહેવાલમાં":8565,"ત્યારબાદ":8566,"▁હોળી":8567,"▁રાજપૂ":8568,"▁ફ્લાઈટ":8569,"▁ઈન્ટરનેટ":8570,"▁આપણું":8571,"▁મુહૂર્ત":8572,"▁હેલિકોપ્ટર":8573,"▁ગોંડ":8574,"▁પ્રોસેસ":8575,"▁ઓપનિંગ":8576,"નાલ્ડ":8577,"▁સ્થળાંતર":8578,"▁ચલાવે":8579,"ભાવી":8580,"▁ભાવિ":8581,"▁એક્સપ્રેસને":8582,"▁તેટલી":8583,"▁મણિપુર":8584,"▁તૃણમ":8585,"▁ગવર્નર":8586,"▁ભૌતિક":8587,"તલ":8588,"▁રાઈ":8589,"▁નાખ્યા":8590,"▁આપવો":8591,"▁રણનીતિ":8592,"▁અનાજ":8593,"▁રોગપ્રતિકારક":8594,"▁અવરજ":8595,"▁ભવ":8596,"▁પાંચમા":8597,"્લુ":8598,"▁વૉ":8599,"દ્વારી":8600,"▁કાકા":8601,"▁ટ્રાયલ":8602,"▁પર્વત":8603,"▁સૂર્યાસ્ત":8604,"હલ":8605,"૨૭":8606,"▁આડે":8607,"▁રખ":8608,"▁હુમલાની":8609,"▁ફાઈનાન્સ":8610,"▁ભયાનક":8611,"▁સગા":8612,"▁આચર":8613,"બેંક":8614,"ત્રુ":8615,"▁કોટ":8616,"▁સમજૂ":8617,"મ્પર":8618,"પીના":8619,"▁લેબ":8620,"ાર્થો":8621,"▁દીપક":8622,"▁ફ્લાઈ":8623,"▁જથ્થા":8624,"▁કેટેગરીમાં":8625,"▁સિક્યુરિટી":8626,"ફોડ":8627,"▁આચ":8628,"▁૧૦૮":8629,"ેશનની":8630,"▁સંયો":8631,"▁ચીની":8632,"▁સાકાર":8633,"▁ગુરુવાર":8634,"▁રાજ્યોના":8635,"▁ચાર્જિંગ":8636,"▁તૂ":8637,"▁ફિન":8638,"ાવું":8639,"ણાચલ":8640,"▁નિર્ણયને":8641,"▁તારીખો":8642,"▁તબક્કે":8643,"ખમ":8644,"▁બેટ":8645,"▁ફોગા":8646,"▁સગીર":8647,"▁હવામાં":8648,"▁બૌ":8649,"▁માગી":8650,"▁ફેક":8651,"▁વિક્ર":8652,"▁નાખે":8653,"▁શરુઆત":8654,"▁કેપિટલ":8655,"જ્યુ":8656,"ડાઉ":8657,"લિયો":8658,"▁અજીત":8659,"▁દમણ":8660,"પીએલ":8661,"▁બીમાર":8662,"▁ગ્રામજનો":8663,"▁નાંખી":8664,"પરીત":8665,"વવી":8666,"હું":8667,"▁નુ":8668,"સીઆઈ":8669,"ંકુ":8670,"▁જૂનના":8671,"▁એન્ડ્રો":8672,"▁ગરીબો":8673,"▁રનમાં":8674,"▁પ્રાદેશિક":8675,"વીસ":8676,"▁ઇલે":8677,"▁પુત્રને":8678,"▁કુંભ":8679,"▁સ્મૃતિ":8680,"▁શેટ્ટી":8681,"ાઈઝ":8682,"ંતો":8683,"▁રાજદ્વારી":8684,"પ્રાય":8685,"▁ગોવા":8686,"▁દિવસોથી":8687,"▁ઔદ્યોગિક":8688,"▁બીએસઈ":8689,"▁મતભેદ":8690,"▁લઘુમતી":8691,"▁કરુ":8692,"રેલા":8693,"▁લગતા":8694,"ાદર":8695,"▁વ્યક્તિઓની":8696,"▁અબજો":8697,"ગર્":8698,"લભ":8699,"▁ફાઈલ":8700,"જાતિ":8701,"ભાગ્ય":8702,"▁ચૂંટણીઓ":8703,"▁નામથી":8704,"▁કંપનીઓને":8705,"▁રિપોર્ટ્સ":8706,"▁નાયડુ":8707,"▁વિપરીત":8708,"▁ટેન્":8709,"▁ટકાવારી":8710,"બત્ત":8711,"▁તસ્":8712,"▁તેમા":8713,"▁અમલી":8714,"▁રાખવો":8715,"વળ":8716,"▁વાપર":8717,"▁થીમ":8718,"▁અસં":8719,"▁હારનો":8720,"▁ડિવિઝન":8721,"▁રહેતાં":8722,"▁ક્રિયા":8723,"▁પાછળનું":8724,"ડમ":8725,"દિન":8726,"▁નિર":8727,"વાણા":8728,"▁રિફ":8729,"ડેન":8730,"▁ક્ષત્ર":8731,"▁ગુમાવ્યા":8732,"▁કેનેડાના":8733,"▁બિસ્":8734,"▁આત્મા":8735,"▁ડાઉનલોડ":8736,"▁સુવર્ણ":8737,"ન્ટેડ":8738,"▁ઉપરોક્ત":8739,"બાબુ":8740,"▁પીટી":8741,"જ્ઞાની":8742,"▁વિચારધારા":8743,"▁પકડીને":8744,"▁હરિયાણાના":8745,"▁એડવાન્સ":8746,"ભેર":8747,"▁લિવ":8748,"▁પર્ય":8749,"▁શિક્ષકો":8750,"▁ટાઉન":8751,"▁નબળાઈ":8752,"સત્તા":8753,"▁સપનું":8754,"▁તપ":8755,"▁હંગ":8756,"▁હડતા":8757,"▁શસ્ત્રો":8758,"પાના":8759,"▁મીન":8760,"▁ઉમેરો":8761,"▁ડેરી":8762,"▁વસૂ":8763,"▁છેખ":8764,"▁ઉપરના":8765,"▁દેઓ":8766,"▁ખોર":8767,"▁ઠરાવ":8768,"▁પ્રભાવશાળી":8769,"ંદરે":8770,"▁સેન":8771,"▁જંગલ":8772,"▁ઇજાગ્રસ્ત":8773,"▁વિસર્જન":8774,"સેન":8775,"▁કારના":8776,"▁દિવ્ય":8777,"રફો":8778,"▁વિનાશ":8779,"▁અંતરિક્ષ":8780,"▁સમયગાળામાં":8781,"▁પ્રિન્સ":8782,"▁ડ્રાઈવર":8783,"ધીશો":8784,"સુપ્રીમ":8785,"▁લેવાયો":8786,"▁અટલ":8787,"▁બિનજરૂરી":8788,"▁પછાત":8789,"▁ડેમોક્રે":8790,"િસો":8791,"▁માથે":8792,"▁ટ્રેલર":8793,"▁ફ્રેન્ડ":8794,"▁માળખા":8795,"▁કટોકટી":8796,"▁સાસુ":8797,"▁ઉપાડ":8798,"▁માંડીને":8799,"▁વેકેશન":8800,"▁મુસાફરોને":8801,"શ્યલ":8802,"▁ભયંકર":8803,"▁પ્રોફેશન":8804,"૬માં":8805,"▁રીક્ષા":8806,"શીટ":8807,"▁શેઠ":8808,"▁તિથિ":8809,"▁આદર":8810,"▁નિશા":8811,"▁ટોળા":8812,"▁ઓગસ્ટના":8813,"▁કરાવ્યું":8814,"જક":8815,"હતી":8816,"▁નર્સ":8817,"▁ફડ":8818,"▁તેઓની":8819,"▁ઈન્ટરવ્યુ":8820,"▁પાછળના":8821,"▁આચાર":8822,"ાન્ટ":8823,"▁કરવામા":8824,"ણાંક":8825,"▁રોગચ":8826,"▁સમજૂતી":8827,"▁આભ":8828,"▁ખુર":8829,"▁આવરી":8830,"▁બેન્ચ":8831,"િયારા":8832,"▁ક્ષે":8833,"▁આજકાલ":8834,"▁ઉમેદવારોના":8835,"▁યુનિયન":8836,"▁ઉંમરના":8837,"▁વોચ":8838,"▁બાંગ્લાદેશમાં":8839,"▁ફાળવણી":8840,"▁નિમિત્તે":8841,"કરના":8842,"મિંગ":8843,"▁અયોગ્ય":8844,"સ્પર":8845,"▁વાવે":8846,"જીમાં":8847,"ાઈની":8848,"▁એક્ટિવ":8849,"▁આકસ્મિક":8850,"▁સંવાદિતા":8851,"▁ઇન્સ્ટિટ":8852,"▁મેન્યુફે":8853,"ત્રીના":8854,"▁ગરીબી":8855,"▁હાઈકોર્ટના":8856,"▁શૂન્ય":8857,"▁ગડકરી":8858,"▁ફેબુ્રઆરી":8859,"અમેરિકા":8860,"▁મહિલાના":8861,"▁દેશોએ":8862,"▁હાજરીમાં":8863,"િતી":8864,"▁બેભાન":8865,"▁પહોંચ્યું":8866,"▁સભ્યોને":8867,"પાર્ટમેન્ટ":8868,"▁પાડીને":8869,"▁બનાવની":8870,"બુધ":8871,"પક્ષીય":8872,"▁કન્ઝ":8873,"▁હેન્ડલ":8874,"▁પાસા":8875,"▁સ્ટુડ":8876,"▁સ્થિતિને":8877,"▁મહિલાની":8878,"▁સમસ્યાઓનો":8879,"▁આરટી":8880,"▁શાળાના":8881,"▁બેટ્સમે":8882,"▁ધુમ્":8883,"મધ્ય":8884,"▁કંડ":8885,"▁પ્રચ":8886,"▁મંત્રીઓ":8887,"▁ધાતુ":8888,"ખરે":8889,"બની":8890,"વના":8891,"૯૩":8892,"લાદ":8893,"▁બીસીસી":8894,"▁૧૯૮":8895,"▁શરતો":8896,"▁વિર":8897,"▁જેમા":8898,"▁વાઈ":8899,"▁દુર્ગા":8900,"▁પંકજ":8901,"▁પવારે":8902,"રાઇઝ":8903,"ન્નાથ":8904,"કોમ":8905,"▁ઈવેન્ટ":8906,"▁પેરા":8907,"▁રહેશેગણેશજી":8908,"▁બાળપણ":8909,"▁પાડયો":8910,"પ્રદાય":8911,"▁કાર્યક્ષમતા":8912,"▁બેરોજગારી":8913,"ઇન્":8914,"ધેલા":8915,"બરી":8916,"▁બીએ":8917,"▁પટેલની":8918,"▁પતિએ":8919,"▁શાળાઓ":8920,"▁યુવતીને":8921,"▁ખસેડ":8922,"▁તત્કાલીન":8923,"▁કેલેન્ડર":8924,"▁ક્ષત્રિય":8925,"સામ":8926,"▁મહાવી":8927,"િલક":8928,"▁દેશનું":8929,"પુરુષ":8930,"▁આરંભ":8931,"▁કેમિકલ":8932,"અમે":8933,"ચય":8934,"▁ડીએ":8935,"લેણ":8936,"▁પંજા":8937,"▁આજુ":8938,"▁માપદ":8939,"▁મોજ":8940,"▁પહેરી":8941,"▁વેક્સિ":8942,"ર્સમેન્ટ":8943,"▁સિદ્ધાર્થ":8944,"▁ઇન્ટરનેટ":8945,"▁૬૫":8946,"▁સ્ટેજ":8947,"▁હોટલમાં":8948,"▁મિલ્":8949,"▁કરનારી":8950,"▁હતાવડાપ્રધાન":8951,"▁જાનથી":8952,"▁પ્રમાણપત્ર":8953,"▁સૂચવે":8954,"▁સીએન":8955,"મુખ્યમંત્રી":8956,"ઈની":8957,"લીક":8958,"▁સેવ":8959,"▁ચોરસ":8960,"▁ત્રીજો":8961,"▁એથ":8962,"▁ધારા":8963,"્યુનિક":8964,"▁કાશી":8965,"સરકાર":8966,"▁બેંકમાં":8967,"▁પ્રક્રિયામાં":8968,"▁જુલાઈના":8969,"▁દરવાજો":8970,"▁હમણાં":8971,"▁નાઈટ":8972,"્રીક":8973,"▁કહેવુ":8974,"▁ઠંડા":8975,"▁નીતિન":8976,"▁ગીતા":8977,"▁બેંકે":8978,"▁મૌન":8979,"ચારો":8980,"રાં":8981,"▁ફિલ્મે":8982,"પરિવાર":8983,"▁સ્વરૂપે":8984,"▁મતદાર":8985,"▁સહકારી":8986,"▁લાયસન્સ":8987,"▁વિશાલ":8988,"ોબસ્ત":8989,"▁એમે":8990,"▁ટ્રેનિંગ":8991,"▁જીવંત":8992,"ઇને":8993,"▁બેન્ચે":8994,"▁શાસક":8995,"▁હાઈકોર્ટમાં":8996,"▁તરફેણમાં":8997,"કરણો":8998,"શિક":8999,"કીંગ":9000,"▁સીપી":9001,"કરાર":9002,"▁નુકશાન":9003,"▁ફાઇબર":9004,"▁ફિટનેસ":9005,"▁ઇન્દ":9006,"▁સ્થાપ":9007,"▁છેહાલ":9008,"▁ખાલિસ્તાની":9009,"વસ્તુ":9010,"▁બટ":9011,"િકન":9012,"▁પછીના":9013,"▁રેન્":9014,"▁સ્ટોર":9015,"▁આવકમાં":9016,"▁જાળવવા":9017,"૨૮":9018,"▁પારો":9019,"વાળો":9020,"▁છેશું":9021,"▁હ્યુ":9022,"▁પ્રહારો":9023,"▁પેટમાં":9024,"▁માથામાં":9025,"▁કિંમતમાં":9026,"સોફ્ટ":9027,"▁અનુસૂ":9028,"▁બંનેની":9029,"▁શનિદેવ":9030,"▁જેલમાંથી":9031,"▁વલ્લ":9032,"▁ખાતું":9033,"ચ્છી":9034,"▁શુક્":9035,"▁ભૂતકાળમાં":9036,"▁શ્રેયસ":9037,"▁પુછપરછ":9038,"ઈઓ":9039,"નિવર્સિટી":9040,"બરેલી":9041,"્ડ":9042,"▁અઘ":9043,"▁માસમાં":9044,"▁ખન્ના":9045,"▁સમયા":9046,"ંતરે":9047,"દેશી":9048,"▁બોલ્યા":9049,"▁જીવલેણ":9050,"▁ફૂટેજ":9051,"▁એન્જી":9052,"▁આયુર્વેદ":9053,"▁બંદોબસ્ત":9054,"ફાયર":9055,"▁હૂ":9056,"▁લંડ":9057,"▁સ્કો":9058,"▁અહીંયા":9059,"▁સમસ્યાને":9060,"▁સોનાચાં":9061,"▁લક્ષ્યાંક":9062,"સાસ":9063,"▁વસ્ત્રો":9064,"ન્હા":9065,"▁મજબૂ":9066,"▁બ્રાહ્":9067,"કુંભ":9068,"ચારી":9069,"▁પાયે":9070,"▁દરમાં":9071,"▁ચંપ":9072,"▁વિરામ":9073,"▁કપિલ":9074,"▁ભારેથી":9075,"▁શાંતિપૂર્ણ":9076,"▁ટેકનિકલ":9077,"બિહાર":9078,"▁વરાછા":9079,"▁કોરિ":9080,"▁ઓપ્શન":9081,"▁લેવાથી":9082,"▁ખાતર":9083,"▁થયાના":9084,"▁આરોપીઓએ":9085,"▁ટાંકી":9086,"▁ગુડ":9087,"▁નિયમોનું":9088,"▁વાયરસના":9089,"▁પતંગ":9090,"લેજ":9091,"ટાઇ":9092,"▁કિંમતી":9093,"▁ગેરસમજ":9094,"▁કરન્સી":9095,"▁દશ":9096,"▁ડેન્":9097,"▁બેંગ્લો":9098,"જલપુર":9099,"▁ડિલિવરી":9100,"▁કૃત્ય":9101,"▁સતા":9102,"▁હોઇ":9103,"▁ફરતા":9104,"▁પાકિસ્તાને":9105,"▁સાધના":9106,"▁પોર્ટલ":9107,"▁તુલસી":9108,"▁બ્રોન્ઝ":9109,"▁ભરીને":9110,"ડીઆર":9111,"▁જાસૂ":9112,"▁સેમી":9113,"▁ક્યાંથી":9114,"▁એન્ટરપ્ર":9115,"▁સામેના":9116,"▁પીવાથી":9117,"▁૩૭":9118,"▁કોર્ટની":9119,"▁લાભદાયી":9120,"▁ભીષણ":9121,"▁યુવતીએ":9122,"▁તુરંત":9123,"▁સિરાજ":9124,"▁ખર્ચમાં":9125,"▁વિચાર્યું":9126,"▁જરુર":9127,"▁છઠ્ઠા":9128,"▁આહ":9129,"▁છેબીજી":9130,"▁ઉઘ":9131,"▁સિગ્ન":9132,"▁નીતીશ":9133,"▁૩૮":9134,"▁શિસ્ત":9135,"▁જાહેરાતો":9136,"વડા":9137,"સ્ટ્રોલ":9138,"▁ફેફ":9139,"▁યોગ્યતા":9140,"▁બોર્ડની":9141,"▁કબૂ":9142,"▁વર્ગના":9143,"▁મધુરતા":9144,"ોનું":9145,"▁એકઠા":9146,"▁નાખવામાં":9147,"િગ":9148,"માર્ગ":9149,"▁દઈ":9150,"▁ગળા":9151,"▁સ્વાભાવિક":9152,"▁અવતાર":9153,"▁લાભાર્થી":9154,"કર્તાઓ":9155,"કોંગ્રેસના":9156,"▁પુરવઠો":9157,"▁ડિફેન્સ":9158,"કિસ":9159,"▁બર્":9160,"▁ડોઝ":9161,"▁રમશે":9162,"▁ક્યુ":9163,"▁કસો":9164,"▁અરુ":9165,"▁કરાવ્યો":9166,"▁ખંભા":9167,"જપે":9168,"ુપયોગ":9169,"▁ફોર્મે":9170,"સ્થાપિત":9171,"▁માતાએ":9172,"▁ત્રિપુરા":9173,"▁ધર્મેન્દ્ર":9174,"રાત્રિ":9175,"▁અનુક્ર":9176,"▁વેલ્યુ":9177,"▁બદલાવ":9178,"▁ટોસ":9179,"▁પાડયા":9180,"૨૦૨૪":9181,"▁પાવડર":9182,"▁પતિપત્નીના":9183,"પાંચ":9184,"▁બાવ":9185,"યાત્રી":9186,"▁પાપ":9187,"▁સુખી":9188,"સામે":9189,"▁મદદની":9190,"▁ધોવા":9191,"▁જરૃ":9192,"▁કાગળ":9193,"▁લશ્કરી":9194,"▁મેઘરાજા":9195,"▁મારફત":9196,"ંછ":9197,"▁વંચ":9198,"▁બતાવવામાં":9199,"▁કન્સલ્ટ":9200,"બાઈ":9201,"૪માં":9202,"▁શત્રુ":9203,"▁ઉદેપુર":9204,"ંગલ":9205,"▁ભૂસ્ખલ":9206,"▁શ્રમિક":9207,"▁વિચિત્ર":9208,"▁કરાવીશું":9209,"હાં":9210,"ાવતી":9211,"▁લાગતા":9212,"▁પકડવા":9213,"▁બહાને":9214,"ુશ":9215,"▁વતન":9216,"▁ઉદ્યો":9217,"લ્ફ":9218,"મ્બા":9219,"▁ટોલ":9220,"▁ટ્રુ":9221,"▁ડાયરેક્ટ":9222,"▁નાણામંત્રી":9223,"૨૯":9224,"વાળ":9225,"▁સિંગા":9226,"▁આરબીઆઈ":9227,"▁સનાતન":9228,"કરની":9229,"૪૬":9230,"▁વિસ્તારમાંથી":9231,"▁હળવો":9232,"▁તોડફોડ":9233,"▁ડેબ્યૂ":9234,"બારી":9235,"▁લાવે":9236,"▁વર્મા":9237,"િલ્લો":9238,"બાઝ":9239,"▁દુનિયાભરમાં":9240,"જિસ્ટ":9241,"૨૦૨૩":9242,"▁હરિયાણામાં":9243,"▁અહમદ":9244,"▁એકત્રિત":9245,"▁થનાર":9246,"સામાન્ય":9247,"▁ટ્રાન્સપોર્ટ":9248,"જનમાં":9249,"▁પચ":9250,"▁કારી":9251,"જાત":9252,"▁નાખવાની":9253,"▁નિષ્ણાત":9254,"્વે":9255,"▁ભજન":9256,"▁રહેલો":9257,"જોય":9258,"▁જીવનશૈ":9259,"▁પાકિસ્તાનને":9260,"▁વ્યાપ":9261,"▁નંબરે":9262,"▁સૌરાષ્ટ્રના":9263,"▁એજ્યુકેશન":9264,"ઝોર":9265,"▁દુબે":9266,"▁નજીકની":9267,"▁બાબતોને":9268,"▁મથક":9269,"▁અતિશય":9270,"એસ્ટ":9271,"▁ક્લે":9272,"▁નંદ":9273,"▁નિપજ્યું":9274,"પીટ":9275,"▁ગ્રાન્ટ":9276,"▁પાંચમી":9277,"▁જીવનના":9278,"▁બજારના":9279,"▁હરાવ્યું":9280,"▁અરજદાર":9281,"▁ફેમિલી":9282,"▁કોણે":9283,"ાવવાનું":9284,"▁વારો":9285,"▁વ્યક્તિનું":9286,"▁ઠગ":9287,"▁મધુ":9288,"▁લિટર":9289,"▁ભરેલી":9290,"▁મેર":9291,"▁મહામ":9292,"▁ઘરઆંગ":9293,"▁કંઇ":9294,"પરાંત":9295,"નેશન":9296,"▁એલાન":9297,"લાશ":9298,"▁વિપ":9299,"▁લોન્ડર":9300,"ાસા":9301,"▁અંગેના":9302,"▁પ્રોસે":9303,"▁જાેઈ":9304,"▁જગન્નાથ":9305,"૪૭":9306,"▁આવવાથી":9307,"▁ડિરે":9308,"▁બનાવટી":9309,"▁વચ્ચેનો":9310,"▁મેળવીને":9311,"▁જન્મજય":9312,"▁અભિપ્રાય":9313,"▁પ્રશાંત":9314,"▁રોકાણકારોની":9315,"▁દ્રશ્યો":9316,"▁પ્રાં":9317,"▁વાતનો":9318,"જોની":9319,"▁ક્લિન":9320,"▁બર્થ":9321,"રીથી":9322,"▁મેરી":9323,"▁વિકેટકી":9324,"▁ચલાવતા":9325,"▁બપોરના":9326,"▁કેદાર":9327,"રીતિ":9328,"મોહન":9329,"▁પહેરીને":9330,"▁રમતો":9331,"▁સ્પર્ધાત્મક":9332,"▁આંગળી":9333,"▁આજુબાજુ":9334,"ફુ":9335,"▁પ્રતિષ્ઠ":9336,"▁અલબત્ત":9337,"▁અનુભવો":9338,"▁કચરો":9339,"ધૂ":9340,"▁લૉ":9341,"▁પોષણ":9342,"▁હતીતે":9343,"▁અમેઠી":9344,"▁ચૂકવવા":9345,"▁બંધારણીય":9346,"વૃશ્ચિક":9347,"ફટી":9348,"▁જરુ":9349,"▁લહેર":9350,"રોલ":9351,"▁તેનાં":9352,"▁ઢી":9353,"▁ઈમરાન":9354,"▁બહાદુર":9355,"તાજેતરમાં":9356,"્યારા":9357,"▁બેઠો":9358,"▁બંનેના":9359,"▁એક્ઝિક":9360,"▁અપેક્ષિત":9361,"▁વરસી":9362,"▁મકવાણા":9363,"કમાન્ડ":9364,"સીએલ":9365,"▁રેસ્ટોર":9366,"▁કોર્પોરેશનના":9367,"▁મહત્ત્વની":9368,"ફ્રાસ્ટ્રક્ચર":9369,"▁પાદુ":9370,"▁ક્રમ":9371,"▁રણવીર":9372,"▁હેઠળના":9373,"▁મંદિરો":9374,"▁પિચ":9375,"▁ટાંકીને":9376,"▁મહાસા":9377,"▁તિર":9378,"▁શણ":9379,"▁રીપોર્ટ":9380,"▁દેશી":9381,"▁શહેરો":9382,"▁એપ્રિલના":9383,"▁પ્રવાસન":9384,"▁બોલાવવામાં":9385,"▁સાબરમતી":9386,"ઘર":9387,"▁હદ":9388,"▁પ્રણા":9389,"▁ક્રિસ":9390,"▁ન્યૂયોર્ક":9391,"▁પ્રતિકૂળ":9392,"▁સજ":9393,"▁આફ":9394,"▁માંડી":9395,"▁વિવાદમાં":9396,"▁અંજામ":9397,"▁વિદ્યાર્થીઓના":9398,"▁ફ્લાઇટ":9399,"▁મૃતદેહો":9400,"▁સંતુલિત":9401,"▁વર્ચસ્વ":9402,"▁અનુક્રમે":9403,"શન્સ":9404,"▁નાગા":9405,"▁રાખવાથી":9406,"નિસ":9407,"લિઝ":9408,"ળાટ":9409,"▁ચંદ્રની":9410,"▁ઉમેદવારને":9411,"▁પ્રોત્સાહિત":9412,"▁અલ્ટ્રા":9413,"ઇની":9414,"▁બજર":9415,"્યોને":9416,"▁હતોવડાપ્રધાન":9417,"▁માનસ":9418,"▁બદલામાં":9419,"▁હજારની":9420,"▁શિવરાજ":9421,"પદી":9422,"▁કોમે":9423,"સેક":9424,"▁સીતા":9425,"ઉપ":9426,"▁ગ્લે":9427,"▁પ્રકરણ":9428,"▁મામલાની":9429,"▁મોકલ્યા":9430,"▁ચોમાસાની":9431,"લિકોમ":9432,"પાકિસ્તાન":9433,"▁ચૂંટાયા":9434,"કાને":9435,"પુરથી":9436,"▁ડીજી":9437,"▁ઉત્તરપ્રદેશ":9438,"લુગુ":9439,"▁ઔંશ":9440,"▁રાજ્યસભામાં":9441,"▁પુરવઠા":9442,"ંગુ":9443,"▁ઓરેન્જ":9444,"▁દરબાર":9445,"પ્પુ":9446,"▁પરિસરમાં":9447,"હાની":9448,"▁પટેલને":9449,"▁ભૂમિકામાં":9450,"▁સબમિટ":9451,"▁ચેલેન્જર્સ":9452,"ઉમેદ":9453,"૩૩":9454,"▁કેળ":9455,"▁ચિત":9456,"મેટા":9457,"વેગ":9458,"▁બોજ":9459,"▁નિર્ણાયક":9460,"▁દેખાશે":9461,"▁યુપીમાં":9462,"▁ફુગાવો":9463,"દીશ":9464,"▁રાજય":9465,"▁સરકારનો":9466,"▁જુએ":9467,"▁જેડીયુ":9468,"્ઝ":9469,"▁જયાં":9470,"▁ડીએમ":9471,"▁દેવેન્દ્ર":9472,"▁ફાઈબર":9473,"ધરલેન્ડ":9474,"▁પરિષદ":9475,"રિય":9476,"▁કેટલીકવાર":9477,"▁ઈતિહાસમાં":9478,"▁છૂટાછેડા":9479,"ત્ય":9480,"ય્ય":9481,"લગ્ન":9482,"▁ખાવાનું":9483,"પાટ":9484,"▁ખાનના":9485,"▁ચીજવસ્તુ":9486,"આજનું":9487,"▁કવર":9488,"▁તોફાન":9489,"▁દીધુ":9490,"▁વિસ્તરણ":9491,"▁જાણતા":9492,"▁જવાહર":9493,"▁ખાનને":9494,"▁પ્લેયર":9495,"▁ન્યુઝીલેન્ડ":9496,"▁સિંગલ":9497,"▁ઈન્દિરા":9498,"સ્મ":9499,"▁ઈડીએ":9500,"▁સિમેન્ટ":9501,"▁ઇમાર":9502,"સ્થળ":9503,"▁બાળકના":9504,"▁રનનો":9505,"▁ઓળખાય":9506,"▁ગતિવિધિઓ":9507,"▁છેબે":9508,"▁વાતચી":9509,"▁અટકાવવા":9510,"▁વડાપ્રધાને":9511,"▁એકાઉન્ટમાં":9512,"પચારિક":9513,"▁કમી":9514,"▁કરેલો":9515,"▁બહેનો":9516,"▁બજાવતા":9517,"▁ધિરાણ":9518,"વીના":9519,"▁પરસ્પર":9520,"ણાની":9521,"▁બાળકની":9522,"▁નોકરીની":9523,"▁પિતાની":9524,"▁અભિગમ":9525,"▁વિન્ડ":9526,"▁ધૂળ":9527,"▁બિમારી":9528,"▁ગ્રૂપની":9529,"▁એમ્બ્યુલન્સ":9530,"▁તૃણમૂલ":9531,"▁કેલ્":9532,"ક્કો":9533,"▁સ્ક્રિ":9534,"લેબ":9535,"▁જોડે":9536,"▁શોભા":9537,"▁ડીઝલ":9538,"કાર્પણ":9539,"▁ઈલેક્ટ્રોનિક":9540,"▁છેવડોદરા":9541,"▁સાઇટ":9542,"▁પોત":9543,"ભાષ":9544,"▁ઘટનાના":9545,"▁બેઠકોની":9546,"ઠ્ઠી":9547,"▁મધ્યપ્રદેશના":9548,"▁એન્જિનિયરિંગ":9549,"▁આશિ":9550,"▁હાસ":9551,"▁શાર":9552,"જેક્શન":9553,"▁બીઆર":9554,"▁પેન":9555,"▁ચિંતાજનક":9556,"▁બંગાળની":9557,"▁વાદળ":9558,"▁જરુરી":9559,"ચરલ":9560,"ોબાર":9561,"▁કારે":9562,"▁સોરે":9563,"▁ફાટ":9564,"▁યુનિવર્સિટીમાં":9565,"▁દરજ્જો":9566,"▁ટ્રાન્ઝેક્શન":9567,"▁તથ":9568,"▁આજીવન":9569,"▁ટુર":9570,"▁હતાજે":9571,"▁જીવી":9572,"▁ગોલ":9573,"▁શિફ્ટ":9574,"ડન":9575,"▁અમારું":9576,"▁વાગ":9577,"▁મામલા":9578,"▁પાટીલ":9579,"▁ઓલિમ્પિકમાં":9580,"ણાલ":9581,"▁સમૂહ":9582,"વિજય":9583,"પુત્ર":9584,"▁આરજે":9585,"▁ઘૂંટ":9586,"ધિકારીઓ":9587,"▁આયા":9588,"▁છેપરંતુ":9589,"રેખા":9590,"▁સુચના":9591,"▁સંજીવ":9592,"▁હાલની":9593,"▁બાકીની":9594,"▁પ્રકાશમાં":9595,"ભૂષણ":9596,"▁બોલીવૂડ":9597,"▁ચુકવણી":9598,"પટ્ટી":9599,"▁ફ્રાન્સ":9600,"સનું":9601,"▁વયે":9602,"બોરે":9603,"▁સેક્ટરમાં":9604,"નારને":9605,"▁ભિ":9606,"કેન્દ્ર":9607,"પોતાના":9608,"હાઉ":9609,"▁સત્તાધીશો":9610,"▁કોલેસ્ટ્રોલ":9611,"ૂહિક":9612,"▁આદિત્યનાથ":9613,"▁વાનગી":9614,"▁છેમા":9615,"▁પરસે":9616,"▁હોલ્ડ":9617,"મોટા":9618,"▁સ્ટ્રી":9619,"ભાઈને":9620,"▁લાઈટ":9621,"▁બજાજ":9622,"▁ધમધ":9623,"વલ્લી":9624,"▁ભક્ત":9625,"▁પહોંચવા":9626,"▁યોજાનારી":9627,"▁ડોનાલ્ડ":9628,"ડિટી":9629,"▁ડીપ":9630,"▁મારવા":9631,"▁પિતૃ":9632,"અનુ":9633,"ટરના":9634,"ીસ":9635,"▁છેભારતીય":9636,"▁જેલની":9637,"▁કહો":9638,"ટ્ટો":9639,"▁ગર્લ":9640,"પછી":9641,"સનીય":9642,"વામાન":9643,"▁છત્ર":9644,"કીએ":9645,"▁રામના":9646,"▁૪૦૦":9647,"▁કેરળમાં":9648,"▁કોમન":9649,"▁રેગ્યુ":9650,"▁તરીકેની":9651,"▁માતાની":9652,"▁૧૯૭":9653,"્યુટિવ":9654,"▁અનિશ્ચિત":9655,"▁સેલ્ફી":9656,"▁બ્રાહ્મણ":9657,"▁છેગુજરાત":9658,"▁પાઈ":9659,"ન્ડર્ડ":9660,"જિસ્ટ્રે":9661,"ર્નામેન્ટમાં":9662,"▁બગાડી":9663,"▁વાતચીતમાં":9664,"ઓસી":9665,"▁અરુણ":9666,"▁રિસ્":9667,"▁પ્રદર્શ":9668,"લીઓ":9669,"▁ખોડ":9670,"▁નાબૂ":9671,"▁આપણો":9672,"ંદના":9673,"▁સોનુ":9674,"▁સંખ્યાબંધ":9675,"▁શર્માની":9676,"▁ફાઈનલમાં":9677,"▁જાદુ":9678,"ઇટેડ":9679,"▁અડવા":9680,"▁ડયુ":9681,"▁બોર":9682,"આઈના":9683,"▁સબસિ":9684,"▁રોયલ્સ":9685,"કર્ક":9686,"ફામ":9687,"▁સસ્તા":9688,"▁અન્ન":9689,"▁વડ":9690,"ંગમાં":9691,"▁લાક":9692,"હોર":9693,"▁કહીએ":9694,"▁ઠાકુ":9695,"▁પરિસ્થિતિને":9696,"▁જંગલમાં":9697,"▁ચોમાસા":9698,"▁વાઘેલા":9699,"▁૨૦૧૯માં":9700,"▁રખડતા":9701,"▁ફડણ":9702,"▁સમયાંતરે":9703,"ટરની":9704,"▁સની":9705,"ર્વે":9706,"▁ગુ્ર":9707,"▁પક્ષોએ":9708,"▁૩૨":9709,"▁કેન્દ્રો":9710,"▁દર્શાવવામાં":9711,"▁ઉતર્યા":9712,"▁કોમ્પ્યુટર":9713,"▁ખુરશી":9714,"▁સંયોગ":9715,"▁તોડીને":9716,"▁લેનાર":9717,"▁ધરાવતો":9718,"▁શિયાળામાં":9719,"▁રાઘવ":9720,"▁ઘરઆંગણે":9721,"ઈના":9722,"ટલે":9723,"▁સવા":9724,"▁છગ્ગા":9725,"▁રશ્":9726,"▁સમ્":9727,"▁ચોપ":9728,"▁માર્ગે":9729,"▁વિભાજન":9730,"ગ્રાઉન્ડ":9731,"▁અછત":9732,"પકો":9733,"▁સંમેલ":9734,"▁ભાગ્યે":9735,"▁રેસિ":9736,"▁ફરિયાદના":9737,"▁વૈષ્ણ":9738,"▁અનુભવે":9739,"▁કોઇપણ":9740,"▁પ્રચંડ":9741,"▁પ્રતિષ્ઠિત":9742,"▁વટ":9743,"▁બટા":9744,"રોગ":9745,"▁રાજનાથ":9746,"▁બનાવવાના":9747,"▁૨૦૨૩ના":9748,"▁રાયબરેલી":9749,"▁ડ્રાઇવર":9750,"▁કન્ટેન્ટ":9751,"▁અનુસૂચિત":9752,"ગારો":9753,"▁તિલક":9754,"▁ભડ":9755,"▁ધડા":9756,"▁ઓઇલ":9757,"સાઇડ":9758,"મોને":9759,"▁રસ્તામાં":9760,"▁કાશ્મીરના":9761,"▁ફોર્મેટમાં":9762,"▁એસે":9763,"કાદ":9764,"▁હોર્મો":9765,"▁રોશન":9766,"રિપોર્ટ":9767,"સુધી":9768,"▁વાગ્યાની":9769,"▁અડચ":9770,"▁રજિસ્ટ્રેશન":9771,"ટું":9772,"▁હમ":9773,"▁નિયા":9774,"રાણી":9775,"ન્વ":9776,"▁જાગી":9777,"▁નેહ":9778,"▁ચૂપ":9779,"▁સ્ટાઇ":9780,"મિતા":9781,"▁ચેકિંગ":9782,"▁કોઇને":9783,"▁આવકના":9784,"▁ગેરરીતિ":9785,"▁દેવાયા":9786,"▁ઉદ્યોગો":9787,"૪૮":9788,"▁મસ":9789,"▁રાણી":9790,"દારોને":9791,"▁ભરાયા":9792,"▁નિમિતે":9793,"▁વિશ્લેષણ":9794,"▁જોવાનું":9795,"▁દરેકને":9796,"▁જીવનને":9797,"▁વ્યાપાર":9798,"▁દર્શકો":9799,"▁એકાદશી":9800,"▁એકંદરે":9801,"▁રાજકુમાર":9802,"▁સુધીનું":9803,"▁માનતા":9804,"ત્રીજા":9805,"ગણતરી":9806,"▁શરમ":9807,"▁કાર્યોને":9808,"▁મલ્ટી":9809,"▁ચોખ્ખી":9810,"રનો":9811,"▁ગંદ":9812,"▁સ્નાત":9813,"▁ઇસ્લા":9814,"▁૪૬":9815,"િકારક":9816,"▁વડીલો":9817,"▁જશો":9818,"▁છેદિલ્હી":9819,"સરકારી":9820,"તરું":9821,"▁સામૂહિક":9822,"▁સંમતિ":9823,"ટીને":9824,"પ્ટો":9825,"▁નિયમન":9826,"▁શેરો":9827,"▁બૌદ્ધ":9828,"▁છેઘ":9829,"▁છેગાંધીનગર":9830,"▁લોકાર્પણ":9831,"▁લેતાં":9832,"▁ડિપાર્ટમેન્ટ":9833,"▁શરીરની":9834,"▁રેસ્ટોરન્ટ":9835,"▁મનને":9836,"▁પરનો":9837,"▁રહેણાંક":9838,"▁સેમ્પલ":9839,"▁ચોકી":9840,"▁એરક્રાફ્ટ":9841,"▁દુનિયાની":9842,"▁સલાહકાર":9843,"▁અજમા":9844,"▁ધ્વજ":9845,"ફેર":9846,"▁તેલુગુ":9847,"સ્ટિવ":9848,"મ્સમાં":9849,"▁યોજી":9850,"▁લખ્યો":9851,"▁પાડ્યો":9852,"▁હિંસક":9853,"▁કોચિંગ":9854,"▁મૃતદેહને":9855,"▁કનેક્શન":9856,"▁રાહુલે":9857,"▁અવરજવર":9858,"▁તેવામાં":9859,"▁રાતના":9860,"▁ટકી":9861,"▁જોવી":9862,"▁મેજિસ્ટ્રે":9863,"▁કારણસર":9864,"▁બદલો":9865,"▁૩૯":9866,"▁લખીને":9867,"▁શિલા":9868,"▁દાદરા":9869,"▁પાટીદાર":9870,"▁છેપ્ર":9871,"▁થયેલો":9872,"▁જોશ":9873,"▁પોલીસકર્મી":9874,"▁થઇને":9875,"▁માંગુ":9876,"▁વિભાગને":9877,"▁નીકળ્યો":9878,"▁જસપ્રીત":9879,"▁સાધન":9880,"▁ફ્લ":9881,"કામાં":9882,"▁બેર":9883,"▁ઈશ્વર":9884,"▁લાખના":9885,"▁ગણાતા":9886,"▁ફાર્મા":9887,"▁શકય":9888,"મુક્ત":9889,"▁હિમાલ":9890,"▁અર્શ":9891,"▁અબ્દુ":9892,"▁દત્ત":9893,"▁પરફોર્મ":9894,"▁બનાવનાર":9895,"▁પાણીથી":9896,"ફોર્સમેન્ટ":9897,"▁કુમારની":9898,"▁તસ્ક":9899,"▁વાણી":9900,"ડીનો":9901,"▁નોર્થ":9902,"▁અરજીમાં":9903,"ન્યાસ":9904,"્યાદા":9905,"▁ટેલિકોમ":9906,"▁સરકારનું":9907,"▁ચોંકી":9908,"▁બદામ":9909,"▁ક્વિ":9910,"▁છોડવામાં":9911,"▁છેહવામાન":9912,"▁યુઝરે":9913,"▁ભજવે":9914,"▁કાયદેસર":9915,"▁તોફાની":9916,"▁વંચિત":9917,"કનો":9918,"ગાળો":9919,"ટિ":9920,"▁પત્":9921,"▁એટે":9922,"રાઉન્ડ":9923,"▁ખેર":9924,"▁લોનની":9925,"▁રહેવાથી":9926,"▁લાઇટ":9927,"▁કાઢવા":9928,"▁ભાગીદાર":9929,"▁સન્માનિત":9930,"▁ટિ્વ":9931,"▁પાઠવી":9932,"▁લિસ્ટમાં":9933,"▁પ્રિન્ટ":9934,"▁આશ્રય":9935,"એક્સ":9936,"યાર":9937,"▁નફા":9938,"ગ્રસ્તો":9939,"▁મજબૂર":9940,"▁લક્ષ્મણ":9941,"▁પશ્ચિમી":9942,"▁તદ્":9943,"▁નામનું":9944,"▁કંપનીનો":9945,"▁ઓપરેટ":9946,"▁યુવાનોએ":9947,"સણખો":9948,"▁સંડોવણી":9949,"ન્નુ":9950,"▁કરેલું":9951,"▁હિંડનબર્ગ":9952,"▁ખોદ":9953,"▁જાતકોનું":9954,"▁આયર્ન":9955,"▁તારે":9956,"▁મજૂરી":9957,"ક્ટેર":9958,"ફેટે":9959,"▁ગણો":9960,"▁આરએસએસ":9961,"▁મંદિરે":9962,"▁પ્રોડક્શન":9963,"▁સંવત":9964,"▁ઓળખી":9965,"▁ડ્રાય":9966,"▁પ્રશાસ":9967,"▁ચૌધરીએ":9968,"▁વહીવટીતંત્ર":9969,"▁નસીબ":9970,"▁હાનિકારક":9971,"ષો":9972,"યાએ":9973,"▁દેવો":9974,"▁કિગ્રા":9975,"▁શોપિંગ":9976,"▁પ્રેમમાં":9977,"▁વ્યાસ":9978,"▁મોકલ્યો":9979,"▁સૌરાષ્ટ્રમાં":9980,"▁ડાયાબિટીસના":9981,"ળિયા":9982,"▁પડો":9983,"▁ડિવ":9984,"▁શ્રીરામ":9985,"▁લાવશે":9986,"▁માધ્યમિક":9987,"▁આક્રમણ":9988,"▁જન્મજયંતિ":9989,"દાં":9990,"▁શૌ":9991,"્સને":9992,"▁મૂકે":9993,"▁બુદ્ધ":9994,"▁ગૃહમાં":9995,"▁ઉપાડી":9996,"▁ડિરેક્ટો":9997,"૨માં":9998,"▁મોટે":9999,"રૂમમાં":10000,"▁ભૂષણ":10001,"▁હિરો":10002,"▁અરવલ્લી":10003,"▁ઘૂસી":10004,"▁ચકચાર":10005,"▁ખ્ર":10006,"▁કોની":10007,"દાની":10008,"પીએફ":10009,"ર્ચના":10010,"સ્થામાં":10011,"▁એસઓ":10012,"▁કમિટ":10013,"▁બળવા":10014,"▁ગુસ્સા":10015,"▁રાજ્યસભાના":10016,"▁મીઠાઈ":10017,"▁ગાયકવાડ":10018,"▁સિલિન્ડ":10019,"▁યુરોપિયન":10020,"▁કળા":10021,"ારૂ":10022,"સીઆર":10023,"▁ઈમ્":10024,"▁અપલોડ":10025,"▁વાયના":10026,"ગઢમાં":10027,"▁ગઠબંધનના":10028,"▁સપાટીએ":10029,"▁રસ્તે":10030,"▁બેફામ":10031,"હાણ":10032,"બોર્ડ":10033,"▁શિવલિંગ":10034,"▁મિત્રતા":10035,"▁વિચારણા":10036,"▁ડૉક્ટર":10037,"▁ફટકાર્યા":10038,"કલા":10039,"પસંદ":10040,"્ટર":10041,"▁એકટ":10042,"▁વાડ":10043,"▁પૂરતું":10044,"▁નરમ":10045,"▁હાઉસિંગ":10046,"▁કાર્યાલય":10047,"બોરેટરી":10048,"ગલે":10049,"દક્ષિણ":10050,"▁જટ":10051,"▁પ્રવાસે":10052,"▁એકંદર":10053,"▁વિકી":10054,"▁અગાઉની":10055,"▁દલીલો":10056,"પાં":10057,"▁બિટ":10058,"▁હતોઅ":10059,"▁કામે":10060,"▁નાગરિકતા":10061,"▁ધર્મમાં":10062,"▁મ્યુઝિક":10063,"દરમાં":10064,"▁રાઇ":10065,"▁ઇકો":10066,"▁ભાષ":10067,"▁માત્રા":10068,"▁સહજ":10069,"▁લોકસભાના":10070,"ઓન":10071,"▁કઠો":10072,"▁સબંધ":10073,"▁સપ્તા":10074,"▁જડ":10075,"બાના":10076,"▁ચાલ્યા":10077,"▁છેજોકે":10078,"▁કૌભાંડમાં":10079,"કંપની":10080,"ડિયન":10081,"મામાં":10082,"▁પંપ":10083,"રાવી":10084,"▁ઘન":10085,"▁સરપંચ":10086,"▁હેરા":10087,"▁તાકી":10088,"▁બહારની":10089,"▁મહાપાલિકા":10090,"▁આક્રો":10091,"▁વિષયો":10092,"▁બતાવે":10093,"▁ક્રોધ":10094,"▁ટુકડા":10095,"▁મસાલા":10096,"▁વાવેતર":10097,"ર્ડે":10098,"▁ફાળો":10099,"▁વર્ષા":10100,"▁પેટીએમ":10101,"હરચના":10102,"▁ભૂકંપના":10103,"▁ઇચ્છે":10104,"▁ત્યાગ":10105,"▁કાફલો":10106,"શ્રે":10107,"▁ખભા":10108,"ત્વો":10109,"▁લોકેશન":10110,"મીટર":10111,"▁સ્વાતંત્ર":10112,"▁જાેડ":10113,"▁મનસુખ":10114,"▁એન્ડ્રોઇડ":10115,"જણ":10116,"ર્તન":10117,"▁ઇન્ટર":10118,"▁૪૪":10119,"▁કાયમ":10120,"▁ડાયટ":10121,"▁જાતકોને":10122,"▁છોડવા":10123,"▁ઇનકાર":10124,"▁ગોઠવી":10125,"▁છેઇ":10126,"▁બ્યુ":10127,"▁બલિ":10128,"▁નફર":10129,"▁સાથેનો":10130,"▁નિલેશ":10131,"▁સભ્યોએ":10132,"▁યાત્રામાં":10133,"▁નવરાત્રિ":10134,"ગિત":10135,"▁મક્":10136,"▁પ્રબળ":10137,"▁મોતી":10138,"▁યજ":10139,"▁મુંબઈની":10140,"▁ઉઠાવ્યા":10141,"▁પલટી":10142,"▁નાથ":10143,"▁ઘાય":10144,"ભારતની":10145,"▁આદત":10146,"ોનેશિયા":10147,"▁રંગો":10148,"શ્વર્યા":10149,"▁ફેડરેશન":10150,"▁માપ":10151,"▁હોકી":10152,"પ્લ":10153,"▁સર્જાય":10154,"▁ગણિત":10155,"▁કાઢીને":10156,"▁પ્લાનિંગ":10157,"▁લાવવાની":10158,"▁ઠેકા":10159,"ઓવર":10160,"નસ":10161,"▁અરો":10162,"▁દાવે":10163,"▁થશો":10164,"▁મેહ":10165,"▁મેથી":10166,"▁પત્નીએ":10167,"▁વેરિયન્ટ":10168,"▁સુનિલ":10169,"માટે":10170,"▁બજારો":10171,"▁માણી":10172,"યાદ":10173,"▁મોઢ":10174,"▁જોયો":10175,"ાસના":10176,"▁પૂરતા":10177,"▁પદના":10178,"▁માર્ચના":10179,"▁પ્રાઈવેટ":10180,"કાય":10181,"ગ્રેડ":10182,"▁માઇ":10183,"િકરણ":10184,"કાતા":10185,"▁વર્તુ":10186,"▁બહારથી":10187,"▁મતદારોને":10188,"▁અરેબ":10189,"ગાંવ":10190,"બીના":10191,"▁પીક":10192,"કુમા":10193,"▁તુર્કી":10194,"▁હેન્ડસે":10195,"ત્સ":10196,"સાથ":10197,"મિગ્ર":10198,"▁વસાવા":10199,"ગોળ":10200,"▁પડેલી":10201,"▁એજન્સીએ":10202,"▁કરાવ્યા":10203,"▁સ્ટાન્ડર્ડ":10204,"▁વયના":10205,"▁ખોલવામાં":10206,"ઝામ":10207,"દારે":10208,"પર્સ":10209,"િશિયલ":10210,"▁મામલત":10211,"આઇએ":10212,"▁માગતા":10213,"▁સંગઠનો":10214,"▁શખ્સે":10215,"▁મજાક":10216,"▁વ્યૂહરચના":10217,"▁પ્રથા":10218,"લીટ":10219,"▁પાટા":10220,"▁નાસ્તો":10221,"દાસ્પદ":10222,"જ્જુ":10223,"લ્પેશ":10224,"▁તાપમાનમાં":10225,"▁પોર્ટફો":10226,"ઉડ":10227,"▁મારુ":10228,"▁રહેલું":10229,"▁કાચા":10230,"▁બાળકીને":10231,"▁એસએમ":10232,"▁સમર્થનમાં":10233,"▁નગરમાં":10234,"▁કેલરી":10235,"ઘો":10236,"સરે":10237,"▁તાં":10238,"▁૪૨":10239,"ર્નિંગ":10240,"▁કનેક્ટિવિટી":10241,"કર્ષ":10242,"ગરો":10243,"▁સાપ":10244,"▁કોર્સ":10245,"▁સમન્સ":10246,"▁ગરમા":10247,"▁કમલ":10248,"▁ખેડૂતોની":10249,"▁એપ્રિલથી":10250,"▁સુપરસ્ટાર":10251,"માસું":10252,"▁મોંઘા":10253,"▁આગેવાનો":10254,"▁દુશ્મન":10255,"મણે":10256,"હરી":10257,"▁ઉમર":10258,"તીના":10259,"ાંતિક":10260,"▁ઈન્સ":10261,"▁જાણકારો":10262,"▁કાર્બન":10263,"▁ચલાવવા":10264,"▁ગણતરીના":10265,"▁૨૦૨૧માં":10266,"▁ફાઉન્ડેશન":10267,"હતો":10268,"▁ન્":10269,"▁પક્ષોના":10270,"▁સેન્ટરમાં":10271,"▁વાહનોની":10272,"બીએસ":10273,"▁જતું":10274,"ન્ટલ":10275,"ષ્કા":10276,"▁પક્ષને":10277,"ચાલી":10278,"▁ભરવાની":10279,"▁દુરુપયોગ":10280,"▁સમુદ્રમાં":10281,"▁કલો":10282,"▁છેપીએમ":10283,"▁બેસે":10284,"સાધ":10285,"▁રાજયોગ":10286,"▁લેવ":10287,"▁લાભો":10288,"▁દૃષ્ટિકો":10289,"સીય":10290,"સોમ":10291,"િસ્તી":10292,"▁જેવાં":10293,"▁પ્રભારી":10294,"▁સિલિન્ડર":10295,"▁નરેશ":10296,"ન્દર":10297,"મોર":10298,"નિર્":10299,"▁સપ્ટેમ્બરના":10300,"▁૧૫૦":10301,"▁કચ્છના":10302,"▁રેશ":10303,"▁ભ્રમણ":10304,"યુનિવર્સિટી":10305,"▁લીધેલા":10306,"▁એન્ટિ":10307,"▁માથાનો":10308,"▁અદાલતે":10309,"ત્રિમ":10310,"▁ઓગ":10311,"▁રાજદ":10312,"▁સમયગાળો":10313,"પાઇ":10314,"▁વ્યવસ્થિત":10315,"▁ઉત્પાદનો":10316,"▁ખેતરમાં":10317,"▁એપાર્ટમેન્ટ":10318,"અન":10319,"ંધણ":10320,"શિપમાં":10321,"▁ઠાર":10322,"▁બોર્ડના":10323,"સ્વસ્થ":10324,"▁સ્પર્ધામાં":10325,"▁તુલનામાં":10326,"▁સંવેદના":10327,"▁મહાસાગર":10328,"હાદ":10329,"▁છેઆમ":10330,"▁માંગો":10331,"▁ગામોમાં":10332,"▁ડીઝ":10333,"▁બોલતા":10334,"▁ઈન્સ્ટ":10335,"▁જગદીશ":10336,"▁સંતાનો":10337,"▁૨૦૨૪માં":10338,"▁તબીબો":10339,"ટલા":10340,"સંપ":10341,"▁અહી":10342,"▁કામને":10343,"▁ફેસ્ટિવ":10344,"બેરી":10345,"▁જૂથો":10346,"ગ્નેશ":10347,"▁બજરંગ":10348,"▁મર્ચ":10349,"▁તેણીએ":10350,"▁એકથી":10351,"વિસ":10352,"▁વિસ્તૃત":10353,"▁પક્ષોને":10354,"▁જેમના":10355,"ભારતે":10356,"▁જાન્યુઆરીના":10357,"ભર્યા":10358,"ગૌ":10359,"▁સાંક":10360,"ટીસ":10361,"▁પોસ્ટર":10362,"▁શરીફ":10363,"▁બદલવા":10364,"▁સભામાં":10365,"▁સમયના":10366,"▁મહિલાઓએ":10367,"▁જૂનો":10368,"▁અધિકારીને":10369,"▁મનોબળ":10370,"સૂત્રો":10371,"▁ટોચની":10372,"▁બં":10373,"▁લખા":10374,"▁એમ્":10375,"ડીસી":10376,"▁કારને":10377,"▁સૌને":10378,"▁ટ્રીટ":10379,"▁તંદુરસ્ત":10380,"▁ધોધમાર":10381,"▁પોર્ટફોલિયો":10382,"▁નમૂ":10383,"▁ઘટે":10384,"▁ડિમાન્ડ":10385,"▁વ્યૂહ":10386,"▁વેક્સી":10387,"▁દિલ્હીથી":10388,"▁પ્રતિસાદ":10389,"▁ચર્ચાનો":10390,"▁કેપિટલ્સ":10391,"▁ક્ષેત્રો":10392,"▁ટ્રુડો":10393,"▁વિકેટકીપર":10394,"▁પેલા":10395,"ડાટ":10396,"▁સ્થગિત":10397,"▁જીવનનો":10398,"▁હત્યાની":10399,"▁કમલા":10400,"▁દ્રવિડ":10401,"▁દિગ્દર્શક":10402,"જનેર":10403,"▁ટાઈગર":10404,"▁પ્રસારણ":10405,"શાસિત":10406,"▁અસંખ્ય":10407,"મૈયા":10408,"▁નક્સ":10409,"જન્ય":10410,"▁શેરી":10411,"▁પ્રશંસ":10412,"▁વિવાદાસ્પદ":10413,"▁ભેદભાવ":10414,"મંગળ":10415,"▁તકરાર":10416,"▁મરણ":10417,"મીની":10418,"▁પીચ":10419,"▁કાયદાની":10420,"▁બિઝનેસમાં":10421,"▁તમિલ":10422,"પ્લેક્સ":10423,"કરને":10424,"▁છાં":10425,"▁રસાય":10426,"▁એપ્સ":10427,"▁ધ્યે":10428,"▁ટેલિ":10429,"▁ગ્રુ":10430,"▁અકસ્માતની":10431,"▁પ્રતિબંધિત":10432,"▁મંજુરી":10433,"▁આવવું":10434,"▁વોન્ટેડ":10435,"▁ખેડૂતોના":10436,"▁દેખાતા":10437,"▁આતંકીઓ":10438,"▁લેવડદેવ":10439,"▁લદ્દા":10440,"▁માર્જિન":10441,"▁રનથી":10442,"▁વ્યાખ્યા":10443,"▁અધિકારીઓના":10444,"▁અપનાવી":10445,"▁દુકાનમાં":10446,"ફટ":10447,"▁આઘાત":10448,"▁જઈએ":10449,"▁મય":10450,"▁સાચો":10451,"▁કોર":10452,"દીઠ":10453,"▁સરના":10454,"▁બોલ્ડ":10455,"▁જ્ઞાાન":10456,"▁મરાઠા":10457,"▁સંતુલન":10458,"▁ક્વાર્ટરમાં":10459,"▁ગેરહાજરી":10460,"ભક્તિ":10461,"૩માં":10462,"▁રજ":10463,"ર્લેન્ડ":10464,"▁ખાતેથી":10465,"▁મિઝોર":10466,"▁નોંધીને":10467,"▁સુધારવા":10468,"▁વોશિંગ્ટન":10469,"▁રજની":10470,"▁સાથો":10471,"▁સંમત":10472,"▁રહયા":10473,"મીડિયા":10474,"▁આગની":10475,"▁કોંગ્રેસનો":10476,"સ્પર્":10477,"▁અર્ધ":10478,"▁રંગના":10479,"▁બસપા":10480,"▁વહેંચણી":10481,"▁ભરેલા":10482,"▁અમીર":10483,"કાશી":10484,"▁તપાસના":10485,"▁ભર્યું":10486,"▁વિદ્યાર્થીની":10487,"▁ચર્ચાઓ":10488,"▁વર્ણન":10489,"કલ્પ":10490,"ગમત":10491,"મહારાષ્ટ્ર":10492,"શાં":10493,"ર્લિંગ":10494,"▁ઉધાર":10495,"તેલ":10496,"▁અન્યા":10497,"▁ઝલક":10498,"▁થશેઆ":10499,"▁શિવમ":10500,"▁કામગીરીમાં":10501,"કાંક્ષા":10502,"▁ચક્રવાત":10503,"▁લેપટોપ":10504,"▁એક્ઝિક્યુટિવ":10505,"▁શ્રો":10506,"▁લોકલ":10507,"ુંબેશ":10508,"▁સમિતિએ":10509,"▁ગ્લાસ":10510,"એન્ડ":10511,"▁આવકાર":10512,"▁નેધરલેન્ડ":10513,"▁દેવાઈ":10514,"▁ચોમાસું":10515,"▁જન્મા":10516,"▁સુરતની":10517,"થોડા":10518,"▁સમુદાયો":10519,"▁મથકે":10520,"▁ફાળવવામાં":10521,"▁છત્તીસગઢમાં":10522,"▁દવેના":10523,"▁તદ્દન":10524,"▁વટાવી":10525,"▁લીટર":10526,"મિની":10527,"▁શોખ":10528,"▁બેઠકોમાંથી":10529,"કર્ણાટક":10530,"ર્મેશન":10531,"▁ગ્રેજ્યુ":10532,"▁કાટમાળ":10533,"રાજે":10534,"▁રાજી":10535,"તિના":10536,"▁બેલેન્સ":10537,"િંગનો":10538,"▁બનાવતી":10539,"▁ગોપી":10540,"▁અન્યથા":10541,"▁ઈન્ડિયન્સ":10542,"▁યોજનાનો":10543,"તન્યા":10544,"▁આંસુ":10545,"▁ઈન્કમ":10546,"▁બ્રાન્":10547,"▁ઔપચારિક":10548,"ડલ":10549,"▁હની":10550,"▁ઇક્વિટી":10551,"▁ગાંધીનગરમાં":10552,"▁ઠંડુ":10553,"▁અદા":10554,"▁ધમા":10555,"શ્ન":10556,"▁ઘાતક":10557,"▁નિમણૂ":10558,"▁વાયુસેના":10559,"▁કહું":10560,"▁મૂવી":10561,"▁ચાવી":10562,"ઘાટ":10563,"▁ક્લિ":10564,"કક્ષા":10565,"▁એગ્રી":10566,"સ્કર":10567,"ત્રિક":10568,"▁કંપનીઓની":10569,"▁શેડ":10570,"▁કોર્ટને":10571,"▁મારામારી":10572,"▁જૂથના":10573,"▁યુઝર્સને":10574,"▁ખાબક્યો":10575,"નરી":10576,"▁કાળી":10577,"▁વિજ્ઞાની":10578,"▁વાગી":10579,"્યુલર":10580,"▁સરસ્વ":10581,"▁વ્યક્તિઓને":10582,"▁ગેમ્સ":10583,"▁અસમ":10584,"▁હળદર":10585,"પત્ય":10586,"ાવવાના":10587,"સરથી":10588,"▁કાઢ્યા":10589,"▁બ્રિટન":10590,"▁હરાવી":10591,"▁સ્વાતંત્ર્ય":10592,"વર્ટ":10593,"▁થનારી":10594,"▁પાંદ":10595,"ધીર":10596,"▁લેબોરેટરી":10597,"▁ટેન્શન":10598,"▁તેઓના":10599,"▁વિક્ષ":10600,"મર્યાદા":10601,"▁જાન્યુઆરીથી":10602,"▁કેરળના":10603,"▁ફટકારવામાં":10604,"ટુંબિક":10605,"▁ફિલિ":10606,"▁જટિલ":10607,"મળતી":10608,"રવિ":10609,"▁ટનલ":10610,"▁રેલીમાં":10611,"▁બિહારી":10612,"▁યોજનામાં":10613,"▁વસંત":10614,"▁જાતકોનો":10615,"▁આર્ટિફ":10616,"▁ઊભું":10617,"▁ભણાવ":10618,"▁બેન્ડ":10619,"ભાગી":10620,"▁જીલ્લા":10621,"▁ઝુંબેશ":10622,"િનલ":10623,"▁ઉત્સ":10624,"▁અભાવે":10625,"▁ઘટનાનો":10626,"▁અહીંના":10627,"વુડ":10628,"▁૨૦૨૪ના":10629,"▁પર્દા":10630,"▁પેટાચૂંટણી":10631,"▁સેલિબ્રિટી":10632,"▁છેસે":10633,"▁ભૂલો":10634,"નનાં":10635,"▁ક્રાંતિ":10636,"▁ટોચે":10637,"▁૪૩":10638,"▁જ્યાંથી":10639,"▁સંબોધતા":10640,"▁સમર્પણ":10641,"▁નિવારણ":10642,"▁સપ્તાહે":10643,"▁સુપ":10644,"▁યાત્રી":10645,"▁પાંચે":10646,"▁ક્વોટા":10647,"▁મર્":10648,"▁ફિઝ":10649,"પીઠ":10650,"▁ઝુ":10651,"▁ઉત્તે":10652,"▁મગજ":10653,"▁આકાશમાં":10654,"▁પ્રભાસ":10655,"▁અવગણના":10656,"નાશ":10657,"▁જાં":10658,"લીંગ":10659,"▁કંપનીઓમાં":10660,"▁નીચેના":10661,"▁મનોહર":10662,"▁ઔષ":10663,"▁કાબૂમાં":10664,"ધિકાર":10665,"▁થનારા":10666,"▁સેગ":10667,"▁દેશોને":10668,"▁વૃષભ":10669,"▁પેટ્રો":10670,"▁જાણીને":10671,"▁યોજવામાં":10672,"▁ઉછેર":10673,"▁જોગવાઇ":10674,"▁પુતિન":10675,"▁પામેલા":10676,"▁પેસેન્જર":10677,"્યુબ":10678,"▁ભાઈબહે":10679,"▁અંદરથી":10680,"▁બરકત":10681,"▁ઉડાન":10682,"▁પદ્મ":10683,"▁કટા":10684,"▁કવાય":10685,"ર્મલ":10686,"▁નિયત":10687,"▁કલમો":10688,"ંદર્ય":10689,"▁નેટવર્થ":10690,"▁સંભળા":10691,"▁પાયા":10692,"▁ધવન":10693,"તોલ":10694,"▁ઉંચી":10695,"▁દ્રષ્ટિ":10696,"▁ચુકી":10697,"▁અત્યાચાર":10698,"ઈન્ડ":10699,"ખન":10700,"▁પિય":10701,"▁પંદર":10702,"વાટ":10703,"▁ઘડી":10704,"▁ઈડી":10705,"▁બાથ":10706,"બેલ":10707,"▁સાંઈ":10708,"▁વાયર":10709,"વર્તી":10710,"▁માઈક્રો":10711,"▁ડેમોક્રેટિક":10712,"▁નહે":10713,"તેલના":10714,"▁જાન્યુઆરીમાં":10715,"▁સૈય":10716,"▁સ્નેહ":10717,"▁યુનાઇટેડ":10718,"કૂ":10719,"▁હડ":10720,"નીંગ":10721,"▁ફસ":10722,"▁વાડી":10723,"▁ધબ":10724,"▁યોજાવાની":10725,"▁ખુલી":10726,"▁ફેરવી":10727,"▁હરણી":10728,"▁ભરેલું":10729,"▁કેદારનાથ":10730,"પથી":10731,"વવાનું":10732,"ષાર":10733,"ુંભ":10734,"ન્ની":10735,"▁મૃતકના":10736,"▁બુલેટ":10737,"▁શરત":10738,"▁લક્ઝરી":10739,"▁ચંદ્રશેખર":10740,"▁૪૭":10741,"▁કપલ":10742,"▁સમજવા":10743,"▁એનાથી":10744,"▁એડમિશન":10745,"▁શાસિત":10746,"▁લોકપ્રિયતા":10747,"▁ડોલરના":10748,"બાળ":10749,"▁સટ્ટા":10750,"▁દઇ":10751,"▁લેફ્ટ":10752,"▁કાર્બો":10753,"▁પાડતા":10754,"▁દેવભૂમિ":10755,"▁માણસને":10756,"ફાશ":10757,"▁કરાવવાની":10758,"▁અગ્નિક":10759,"▁તળાવમાં":10760,"▁ટીએમસી":10761,"જન્":10762,"▁સેશન્સ":10763,"▁વરુણ":10764,"▁દિવાલ":10765,"▁સ્કુલ":10766,"▁શિખ":10767,"▁નુકસાનકારક":10768,"▁આઇટી":10769,"▁ભૂતકાળ":10770,"કૃત":10771,"ભરી":10772,"▁કરૂ":10773,"▁સ્ક્":10774,"▁ફોર્":10775,"▁વોટિંગ":10776,"▁પૂર્ણિ":10777,"▁મ્યુઝ":10778,"▁રમતગમત":10779,"▁ધ્રુવ":10780,"▁ફટાકડા":10781,"▁ખ્રિસ્તી":10782,"પેશ":10783,"નેજ":10784,"ટેશન":10785,"▁વાજપે":10786,"▁નિદાન":10787,"▁જમીનમાં":10788,"▁કૃત્રિમ":10789,"હાનિ":10790,"▁ફાર્મ":10791,"▁ગ્રોથ":10792,"▁રિફંડ":10793,"બલી":10794,"▁છત":10795,"કેન્દ્રીય":10796,"▁હોવાનુ":10797,"▁પટેલના":10798,"▁સંગી":10799,"▁ગણાવ્યો":10800,"▁શણગાર":10801,"▁ડભો":10802,"્યૂમાં":10803,"▁આસન":10804,"▁દ્રશ્ય":10805,"▁બદલીને":10806,"▁રાત્રિના":10807,"િષ્":10808,"▁ડઝન":10809,"▁નાક":10810,"કારણ":10811,"▁કારખા":10812,"તોની":10813,"▁સોગ":10814,"▁સોશ્યલ":10815,"▁ટ્રિ":10816,"▁દર્દીઓની":10817,"▁યુવાને":10818,"▁પિતાના":10819,"▁ઓલરાઉન્ડ":10820,"▁ઘેરી":10821,"▁ધુમા":10822,"▁પુસ્તકો":10823,"▁ભંડાર":10824,"▁આક્રોશ":10825,"લિયન":10826,"૧માં":10827,"▁પલા":10828,"▁ખાત":10829,"▁નેતાઓના":10830,"▁સ્વર્ગ":10831,"▁કોર્ડી":10832,"▁ગામડા":10833,"▁ઘરમાંથી":10834,"▁શરૂઆતથી":10835,"▁એન્ફોર્સમેન્ટ":10836,"▁સ્ટુડન્ટ":10837,"▁અબ્દુલ્લા":10838,"ધડ":10839,"ક્સો":10840,"▁નાઇટ":10841,"▁નિહ":10842,"ડતી":10843,"▁મુર્":10844,"▁ખાડા":10845,"▁પોલીસનો":10846,"ંનેટર":10847,"▁કોલેજો":10848,"▁મોદીનાઅમદાવાદ":10849,"મૂર્તિ":10850,"▁વોર્ડમાં":10851,"▁કૌશલભાઈ":10852,"▁બળવાખો":10853,"▁કોર્ડીંનેટર":10854,"▁બગી":10855,"કેદાર":10856,"િલિયન":10857,"▁ચાલ્યો":10858,"▁જીવતા":10859,"▁પંચના":10860,"▁ઇન્ફો":10861,"▁પ્રાઇવેટ":10862,"▁પ્લસ":10863,"▁વલ્લભ":10864,"ટૂ":10865,"ઠું":10866,"દને":10867,"દાદ":10868,"ુની":10869,"▁આપનારા":10870,"▁લગાવો":10871,"▁રાખવાનું":10872,"▁બાદથી":10873,"▁પ્રોટે":10874,"▁તબક્કાનું":10875,"▁ડિઝાઈન":10876,"▁સળગ":10877,"▁કપૂરે":10878,"▁પર્દાફાશ":10879,"▁ઘડિયા":10880,"▁સ્ટ્રીમ":10881,"▁ભરવામાં":10882,"▁વિશ્વસનીય":10883,"▁કલાકના":10884,"▁કૌટુંબિક":10885,"▁મૂળના":10886,"▁ઘૂસણખો":10887,"▁મેઘાલ":10888,"▁હિસાબ":10889,"▁કન્ન":10890,"લાંગ":10891,"રીય":10892,"વિન":10893,"▁અનિવાર":10894,"પ્રમુખ":10895,"▁લેનારા":10896,"▁સીઈઓ":10897,"▁એમડી":10898,"▁શાળાઓમાં":10899,"બરો":10900,"▁કડ":10901,"▁સાથેસાથે":10902,"રાજમાન":10903,"▁લેખમાં":10904,"અમદાવાદમાં":10905,"નુસાર":10906,"▁અસલી":10907,"▁પ્રોજેક્ટમાં":10908,"▁અટકેલા":10909,"ભવતી":10910,"▁ફેડરલ":10911,"▁કરિયરમાં":10912,"ફુલ":10913,"શુક્ર":10914,"▁ડિપ્ર":10915,"▁સીઆર":10916,"▁યાદવને":10917,"▁પ્રાઇસ":10918,"▁કેટેગરી":10919,"▁ફ્લોર":10920,"▁ખડગેએ":10921,"▁વિપુલ":10922,"પનો":10923,"ૂતિ":10924,"▁છેમે":10925,"▁લાવ્યા":10926,"▁દળના":10927,"લાકી":10928,"▁ગુજાર":10929,"વોકેટ":10930,"▁જાહેરના":10931,"▁કારણકે":10932,"▁અપરાધ":10933,"આઈટી":10934,"▁અહેસાસ":10935,"પાયે":10936,"▁પરેડ":10937,"જીનું":10938,"▁સિમ":10939,"▁૧૦૦૦":10940,"▁વેડ":10941,"▁વ્યવહારો":10942,"▁પદાર્થો":10943,"▁સમર્થકો":10944,"▁લગાવીને":10945,"▁ગોલ્ડન":10946,"▁ફેક્ટરી":10947,"▁વિક્ષે":10948,"૯માં":10949,"▁સૃ":10950,"▁મગર":10951,"▁બલ્":10952,"▁માનું":10953,"▁હતોતે":10954,"પાત":10955,"પાવી":10956,"▁૫૬":10957,"કેટલાક":10958,"▁વિતાવો":10959,"▁મર્ચન્ટ":10960,"▁કટાક્ષ":10961,"ઝેશન":10962,"▁બટન":10963,"▁દાંત":10964,"▁ફરે":10965,"સીએસ":10966,"▁પુણ્ય":10967,"▁મુખ્યમંત્રીએ":10968,"▁પાર્ટીઓ":10969,"▁મહિનાનો":10970,"▁કૃતિ":10971,"▁એકાએક":10972,"▁માસનો":10973,"▁સત્રમાં":10974,"▁કન":10975,"▁છેડો":10976,"▁રઘુ":10977,"ન્ડી":10978,"▁ખળ":10979,"▁પહોંચીને":10980,"▁ટેન્ડર":10981,"▁મેળવ્યું":10982,"▁પાડ્યું":10983,"ગુજરાતના":10984,"▁દુબઈ":10985,"▁નાબૂદ":10986,"▁તર્ક":10987,"▁અડા":10988,"ક્ક":10989,"▁કોંગ્રે":10990,"▁બિલ્ડ":10991,"▁હૉ":10992,"▁લંબા":10993,"▁કોપી":10994,"▁વાસ્તુ":10995,"▁વધતાં":10996,"▁રહેશેઆ":10997,"▁મતગણતરી":10998,"▁જાેઈને":10999,"▁પંચા":11000,"▁વસું":11001,"▁ચાંદ":11002,"▁છેજેમાં":11003,"વર્ષા":11004,"▁રેસ્ક્યુ":11005,"બંને":11006,"▁પિસ્":11007,"ન્શિયલ":11008,"▁આવવાનું":11009,"▁કામની":11010,"▁ફિલ્મી":11011,"▁બીજાની":11012,"▁સુધારે":11013,"▁જન્મભૂમિ":11014,"▁સફળતાપૂર્વક":11015,"▁તિજો":11016,"▁ત્વચાને":11017,"▁ટાળવું":11018,"ડીએફસી":11019,"▁સાવર":11020,"▁ઈરાની":11021,"▁અનુરાગ":11022,"▁દૂતા":11023,"ગ્રાફી":11024,"▁ફૂટે":11025,"▁બોલાવ્યા":11026,"▁ડૂબ":11027,"▁દિવ્યાંગ":11028,"▁મક્કમ":11029,"ળીયા":11030,"▁હાઈકમાન્ડ":11031,"▁વિકાસના":11032,"▁શરદી":11033,"▁સાંભળવા":11034,"ેન્દ્ર":11035,"▁જળા":11036,"▁કેદની":11037,"વીય":11038,"▁એકર":11039,"▁પૂનમ":11040,"▁ચીજો":11041,"▁પૂછયું":11042,"▁દર્દીને":11043,"▁ટૂર્નામેન્ટ":11044,"▁ગુનાહિત":11045,"▁બળજબ":11046,"▁બાંગ્લાદેશના":11047,"▁ઓર્ગેનાઈઝ":11048,"નવા":11049,"ફના":11050,"હક":11051,"વાર્ટ":11052,"▁તાઈ":11053,"▁અસ્વસ્થ":11054,"▁ટાયર":11055,"▁ઘરોમાં":11056,"▁૨૦૦૦":11057,"ાવેલી":11058,"▁ચૂકવી":11059,"▁યુક્રેનના":11060,"રાજ્યમાં":11061,"▁ઉભરી":11062,"▁રશ્મિકા":11063,"▁લંડન":11064,"દ્વી":11065,"▁ભાવુક":11066,"▁ત્યાંના":11067,"▁ભગવંત":11068,"▁નક્કર":11069,"▁આંબે":11070,"▁સ્પષ્ટપણે":11071,"▁તારીખના":11072,"▁વ્યાજદર":11073,"▁વડીલ":11074,"▁હરાવીને":11075,"▁પ્રોફિટ":11076,"▁ભગવાનની":11077,"ડૉ":11078,"▁નાખ્યું":11079,"▁થોડીવાર":11080,"▁ફોટોગ્રાફ":11081,"વર્ધન":11082,"▁બેંગલો":11083,"િવિધ":11084,"▁છોકરીઓ":11085,"આતમાં":11086,"વસાય":11087,"▁કુર":11088,"▁છેભારતમાં":11089,"▁લારી":11090,"▁નાસ્તા":11091,"▁લોનના":11092,"▁મેથ":11093,"પ્રિ":11094,"▁વ્યકિત":11095,"▁રહીશો":11096,"▁પડદા":11097,"પાણી":11098,"▁વેરા":11099,"▁સીન":11100,"▁ગ્રં":11101,"▁બહુમ":11102,"▁ઈન્વેસ્ટ":11103,"▁આશ્રમ":11104,"▁વિનાયક":11105,"ચોરી":11106,"▁સંસદના":11107,"બ્રિજ":11108,"▁કપાસ":11109,"▁થ્રી":11110,"▁સંસાર":11111,"▁અનુસર":11112,"▁પાણીનું":11113,"▁મિની":11114,"▁મીડિયાને":11115,"▁ઉત્પાદનમાં":11116,"સમગ્ર":11117,"▁દરિયામાં":11118,"▁પહોંચાડવા":11119,"▁જહાજો":11120,"▁રિલેશન":11121,"▁મામલતદાર":11122,"ઘે":11123,"▁દક્ષિ":11124,"▁શંક":11125,"▁ફર્મ":11126,"▁પગમાં":11127,"▁ખર્ચા":11128,"▁જોખમમાં":11129,"▁લાવવાનો":11130,"▁જાસૂસી":11131,"ફાં":11132,"૪૩":11133,"▁હેટ":11134,"▁ખાય":11135,"▁સુભાષ":11136,"▁લેબર":11137,"▁નેતન્યા":11138,"▁પીઆઇ":11139,"્યારથી":11140,"▁સિંહા":11141,"▁લાગેલી":11142,"▁નવેમ્બરના":11143,"▁સોસાયટીના":11144,"▁પ્રાણીઓ":11145,"▁પ્રીમિયર":11146,"▁કુશળતા":11147,"▁પેકેજ":11148,"શંકરે":11149,"બિન":11150,"યામ":11151,"▁સૌંદર્ય":11152,"ફરિયા":11153,"▁ટુર્નામેન્ટ":11154,"▁ચલણ":11155,"▁ચોંકાવનારી":11156,"▁છેવા":11157,"▁નખ":11158,"▁તેણી":11159,"લેષ":11160,"▁આપું":11161,"▁નિંદા":11162,"▁વોક":11163,"▁લખવામાં":11164,"ધ્ધિ":11165,"▁ઇંચની":11166,"લેશ્વર":11167,"▁જાડેજાએ":11168,"હાઇટ":11169,"▁ચાવડા":11170,"▁કેલ્શિયમ":11171,"▁ઉજા":11172,"▁વાંધા":11173,"રનાર":11174,"જાેકે":11175,"▁ઉનાળામાં":11176,"▁બેનર્જીએ":11177,"▁માલિકીની":11178,"▁ગંદકી":11179,"ગારે":11180,"ન્યુ":11181,"▁અશુભ":11182,"▁મૃ":11183,"▁રચી":11184,"▁જાપ":11185,"▁ઉપાયો":11186,"▁ગુલ":11187,"▁બનવું":11188,"▁વાંચી":11189,"▁જયેશ":11190,"▁વ્હીકલ":11191,"▁વારાણસી":11192,"ખુ":11193,"વાળું":11194,"જાના":11195,"▁ઈકોનો":11196,"▁ઈવીએમ":11197,"▁સીરીઝ":11198,"▁ફોજ":11199,"▁સ્વામિ":11200,"ધ્યક્ષ":11201,"ટણી":11202,"▁પન્નુ":11203,"▁સોદા":11204,"પાલે":11205,"▁સિનેમાઘ":11206,"▁જરૂરિયાતો":11207,"ડીઆરએફ":11208,"▁માય":11209,"ન્ગ":11210,"▁વિદ્":11211,"▁બેક્ટેર":11212,"▁ઈસ્ટ":11213,"▁સપ્ટેમ્બરમાં":11214,"▁ખેલાડીઓની":11215,"▁ગુમાવ્યો":11216,"શના":11217,"નોલો":11218,"▁સરકારો":11219,"▁સીમ":11220,"▁પેજ":11221,"▁વરસાદનું":11222,"▁અપાર":11223,"▁પૂરતો":11224,"▁સચિ":11225,"▁ત્રિવેદી":11226,"▁ડેન્ગ્યુ":11227,"જુર":11228,"ડશે":11229,"▁છેજા":11230,"▁સ્લી":11231,"▁પાત્રો":11232,"▁પોટે":11233,"▁ધસી":11234,"▁પરિચય":11235,"▁ચોગ્ગા":11236,"િક્ષણ":11237,"▁એપ્રિલમાં":11238,"▁સંચાલક":11239,"▁ઘોડા":11240,"શ્રમ":11241,"▁ભારતીયોને":11242,"▁તેંડુલકર":11243,"▁ઓકટો":11244,"ઈટેડ":11245,"ૌપદી":11246,"▁આસ્થા":11247,"સ્ટર્ડ":11248,"▁જોઈએઆ":11249,"▁કેસના":11250,"▁નોકરીમાં":11251,"▁સોનાનો":11252,"▁ગઠબંધનમાં":11253,"▁પદેથી":11254,"▁પ્રોફેશનલ":11255,"ઓપ":11256,"▁પાત":11257,"મુના":11258,"▁અપરા":11259,"હિણી":11260,"▁ઇન્કમ":11261,"▁થોડાક":11262,"▁અભિનેત્રીએ":11263,"▁અગર":11264,"▁એકમો":11265,"જામાં":11266,"સ્તર":11267,"▁બનાવતા":11268,"▁નજીકથી":11269,"▁યુદ્ધની":11270,"▁રશિયાએ":11271,"▁ગરમીમાં":11272,"▁પંથકમાં":11273,"▁મેન્યુફેક્ચર":11274,"▁સાથોસાથ":11275,"▁નાખો":11276,"સીડી":11277,"▁મોદીનો":11278,"▁રમવાની":11279,"▁મોકલવા":11280,"▁રશિયાની":11281,"▁કહેવાયું":11282,"▁દિવાળીના":11283,"▁કૌશલ્ય":11284,"▁સરસ્વતી":11285,"▁લોગ":11286,"▁ડિપ્લો":11287,"▁ગોહિલ":11288,"▁અમદાવાદની":11289,"પરજોય":11290,"▁તપાસનો":11291,"▁અસરો":11292,"ધ્ધા":11293,"▁બેન્કો":11294,"▁તિરા":11295,"▁થાપણ":11296,"▁મકરપુરા":11297,"▁ડબ્બા":11298,"▁લક્ષણ":11299,"▁નષ્ટ":11300,"▁ચંદી":11301,"▁ભોપાલ":11302,"▁કોરોનાની":11303,"▁રમાઇ":11304,"સંસ્થા":11305,"ગામમાં":11306,"▁નિયામક":11307,"▁અનિવાર્ય":11308,"ગતિ":11309,"છોડ":11310,"▁જોવું":11311,"યુદ્ધ":11312,"પીમાં":11313,"▁પેક":11314,"▁દારૂના":11315,"▁દેવાયો":11316,"▁સાંસદોને":11317,"▁પરિવારજનોને":11318,"▁મેગાપિક્સલનો":11319,"▁છેસુરત":11320,"▁એએસ":11321,"▁એકએક":11322,"▁ખાવાની":11323,"▁ઊઠ":11324,"િયમિત":11325,"▁ઇઝરાયલ":11326,"▁દોષી":11327,"▁છેતમને":11328,"▁નહિં":11329,"▁ગુનેગારો":11330,"ટેક્સ":11331,"▁કોલોની":11332,"▁પાં":11333,"▁એલપી":11334,"▁દેવતા":11335,"▁માર્ચમાં":11336,"▁કસ્ટમ":11337,"▁અસ્થિર":11338,"▁ચુંટણી":11339,"▁કસોટી":11340,"કત્તા":11341,"િલા":11342,"્ધ":11343,"▁નામાં":11344,"જીનો":11345,"▁મુદત":11346,"મ્પો":11347,"▁સતર્ક":11348,"▁કરાતા":11349,"▁મુદ્દાને":11350,"▁દબાણો":11351,"▁ઉદ્વેગ":11352,"▁દબદ":11353,"મંદિર":11354,"▁કમર":11355,"્યવ":11356,"નીતા":11357,"▁એરફો":11358,"લીયા":11359,"કાયા":11360,"▁બોર્ડે":11361,"▁જનરેટ":11362,"બ્વે":11363,"▁વિવાદિત":11364,"▁અગાઉથી":11365,"▁સાવધાન":11366,"▁ઋષભ":11367,"▁તુષાર":11368,"▁મગફ":11369,"▁આશ્ચર્યજનક":11370,"એજન્સી":11371,"▁સલીમ":11372,"▁અરૂ":11373,"ામુ":11374,"દીને":11375,"▁પછીથી":11376,"સિન":11377,"ક્ષ્મ":11378,"▁વૈશા":11379,"▁બધાની":11380,"▁લડવાની":11381,"હાર્":11382,"▁નૃત્ય":11383,"કાઉ":11384,"ષ્ટમી":11385,"▁રીંગ":11386,"▁પડવા":11387,"▁રેવ":11388,"▁મોટાપાયે":11389,"▁શર્માને":11390,"▁ઢગ":11391,"▁વધારવાની":11392,"▁તિરુ":11393,"▁સાધ્યું":11394,"▁રૂ૧૦":11395,"▁સ્કૂટર":11396,"સંગત":11397,"▁હીટવે":11398,"▁સંકલન":11399,"▁અમલીકરણ":11400,"વાહા":11401,"▁કર્ક":11402,"ગણેશ":11403,"▁સત્તાવાળા":11404,"સ્થાનિક":11405,"▁ઉછળ":11406,"▁તત્કાલિન":11407,"▁પંજાબી":11408,"ારમૈયા":11409,"▁બ્રી":11410,"▁નકલ":11411,"▁વિમાનો":11412,"લીલ":11413,"▁ઉમેશ":11414,"▁રમ્યો":11415,"▁ધારાસભ્યોને":11416,"▁ઉમટી":11417,"▁એનિમલ":11418,"▁તલા":11419,"▁ગોડ":11420,"▁વર્ષનું":11421,"▁પુત્રો":11422,"▁ચાલતો":11423,"▁૫૮":11424,"▁રમખા":11425,"▁ચાર્જશીટ":11426,"▁મિશ્રણ":11427,"▁ટાઇટન્સ":11428,"▁માછલી":11429,"દિત્ય":11430,"▁પતા":11431,"▁ઉડા":11432,"▁સુદ":11433,"▁રોલમાં":11434,"▁સેમસ":11435,"▁ખુલ્લે":11436,"▁ડીવાય":11437,"▁આપેલું":11438,"▁સંસદની":11439,"▁હેરાફે":11440,"▁ગળામાં":11441,"સ્પી":11442,"▁નિભાવી":11443,"▁હવેલી":11444,"▁ઉત્ત":11445,"▁ખુલ્લો":11446,"▁યુવકો":11447,"બ્રન્ટ":11448,"▁ગતિએ":11449,"▁યુવાનને":11450,"ષ્કળ":11451,"▁સબસિડી":11452,"વાતી":11453,"યોમાં":11454,"સીબીએ":11455,"▁ટીડીપી":11456,"▁મોતની":11457,"▁યુદ્ધના":11458,"▁ગઠબંધનની":11459,"▁કલેકટર":11460,"▁હમાસે":11461,"મ્બાબ્વે":11462,"▁લોન્ડરિંગ":11463,"િષ્કાર":11464,"ગાર્ડ":11465,"ફલ":11466,"ભરની":11467,"▁કળ":11468,"▁કલેક્ટ":11469,"▁જંક":11470,"▁આપની":11471,"▁સુલ":11472,"▁કાર્યકર":11473,"▁થયાની":11474,"▁અજાણી":11475,"▁ક્રિપ્ટો":11476,"▁ખળભ":11477,"પહે":11478,"▁કિલ્લા":11479,"▁મિકે":11480,"▁મોતના":11481,"▁ઉપચાર":11482,"▁બાહ્ય":11483,"▁પેસ્ટ":11484,"▁અધિક્ષ":11485,"▁બેંકિંગ":11486,"▁દાદી":11487,"▁સેટલ":11488,"▁ચઢ્":11489,"▁બોલાચાલી":11490,"કલ્પિક":11491,"ગઠ":11492,"સહ":11493,"▁આડ":11494,"▁બરો":11495,"▁એકલ":11496,"▁મોસમ":11497,"▁પૂજ":11498,"▁કેન્દ્રશાસિત":11499,"▁વ્યાવસાય":11500,"▁ચિપ":11501,"▁ઉંમરમાં":11502,"▁તીવ્રતા":11503,"▁રેન્કિંગ":11504,"▁માંજલપુર":11505,"▁લીમ":11506,"▁જયપુર":11507,"▁વિચારે":11508,"▁યાદવની":11509,"▁ઈજાઓ":11510,"ઉઝ":11511,"▁તડ":11512,"▁નાસા":11513,"▁નોંધાવતા":11514,"▁ક્રેશ":11515,"▁ઘટાડીને":11516,"▁ઇઝરાય":11517,"▁જ્યોતિર્લિંગ":11518,"▁અશ્વિની":11519,"શાંત":11520,"સ્યો":11521,"▁હસન":11522,"ન્ડે":11523,"▁સેલે":11524,"▁૮૫":11525,"▁બ્રાઝ":11526,"▁યુવતીના":11527,"▁નહીંતર":11528,"▁સઘન":11529,"▁રાજપૂત":11530,"▁છેપોલીસ":11531,"ુંક":11532,"▁ધર્":11533,"▁છોકરો":11534,"▁તેમનાં":11535,"▁પ્રોફાઇ":11536,"▁ભર્યા":11537,"▁જનતાને":11538,"▁આઈડી":11539,"▁ઈન્ડિયાએ":11540,"▁એકબીજાની":11541,"▁ગર્ભવતી":11542,"▁સગવડ":11543,"વર્ક":11544,"▁થવો":11545,"▁જેક":11546,"▁ટર્ન":11547,"▁મોકો":11548,"િંગ્સ":11549,"▁નવાઈ":11550,"રાવળ":11551,"▁શોધમાં":11552,"▁આટલો":11553,"રાઈઝ":11554,"▁ચુક્યા":11555,"▁ં":11556,"▁પદા":11557,"▁છેલ્લો":11558,"▁હિસ્સા":11559,"▁વેટ":11560,"▁વારસ":11561,"બાંગ્લાદેશ":11562,"▁સંપાદ":11563,"▁હાઇકોર્ટે":11564,"▁પાલિકાની":11565,"▁છેત્યારે":11566,"▁તકેદારી":11567,"▁અરુણાચલ":11568,"લનું":11569,"ૂફ":11570,"▁છેને":11571,"▁માલી":11572,"▁થાઈ":11573,"ત્મા":11574,"▁વાઈસ":11575,"▁હતુંવડાપ્રધાન":11576,"▁રહેમાન":11577,"▁સોરેન":11578,"▁દેશનો":11579,"▁ભાગો":11580,"▁નાખીને":11581,"▁દ્રૌપદી":11582,"▁મહત્ત્વપૂર્ણ":11583,"▁ઈઝરાયેલના":11584,"▁મતભેદો":11585,"▁માયાવતી":11586,"▁ગેહલોત":11587,"બરૂ":11588,"▁કોઈક":11589,"▁ઐશ્વર્યા":11590,"▁કોન્ફરન્સમાં":11591,"▁સૌરભ":11592,"▁એડિશનલ":11593,"ટિક્સ":11594,"હમ્મદ":11595,"▁અખંડ":11596,"▁હોદ્દા":11597,"▁નોંધ્યું":11598,"▁વખતની":11599,"સુવિધા":11600,"▁મંગાવી":11601,"▁સંપત્તિમાં":11602,"▁અખબાર":11603,"્યુલેશન":11604,"▁પહેરવા":11605,"▁ઇનિંગ્સમાં":11606,"▁ભરોસો":11607,"આરમાં":11608,"▁તત્વ":11609,"▁મશ":11610,"▁રખા":11611,"લાભ":11612,"્યોતિ":11613,"▁નાટક":11614,"ક્ષકો":11615,"▁હતાતે":11616,"▁કાસ્ટ":11617,"▁લાગેલા":11618,"લાયક":11619,"▁ઇતિહાસમાં":11620,"▁શખ્સોએ":11621,"▁રસીકરણ":11622,"ચડી":11623,"▁એવુ":11624,"ાઈક":11625,"▁પુષ્કળ":11626,"▁રોજિ":11627,"▁દેખાવો":11628,"▁થાણે":11629,"હાલમાં":11630,"▁વિશ્વા":11631,"▁અથડામણ":11632,"ઉત્":11633,"કિમ":11634,"ઘડિયા":11635,"પડ":11636,"▁પ્રદીપ":11637,"▁ઉદાર":11638,"▁ઓસ્ટ્રે":11639,"સીંગ":11640,"સિંહે":11641,"▁કાર્યની":11642,"▁પ્રેસિ":11643,"▁છેવૃ":11644,"▁પાલિકાએ":11645,"▁યુપીના":11646,"▁ટાઇમ":11647,"▁ગુરૂવારે":11648,"▁કાર્યને":11649,"▁નીકળતા":11650,"▁૧૯૬":11651,"▁મૂકવા":11652,"▁ઓવૈ":11653,"▁તબક્કો":11654,"▁સંઘના":11655,"▁તૈયારીમાં":11656,"▁મેકઅપ":11657,"▁નમઃ":11658,"▁સશક્ત":11659,"▁રિપબ્લિક":11660,"▁દ્વિપક્ષીય":11661,"ધર્મ":11662,"બદ":11663,"૯૮":11664,"▁છેડે":11665,"પીને":11666,"▁ખેડૂતોએ":11667,"▁એડવોકેટ":11668,"▁બ્રહ્માં":11669,"▁લલિત":11670,"▁ટાવર":11671,"પીઓ":11672,"▁વેદ":11673,"▁રિંકુ":11674,"▁માર્ગદર્શ":11675,"▁આખરી":11676,"▁રજીસ્ટ્રેશન":11677,"▁કાવતરું":11678,"▁છુટકારો":11679,"મિયા":11680,"▁જિન":11681,"▁કરદાતા":11682,"▁મેરે":11683,"▁વધુને":11684,"▁બાબર":11685,"િનેશન":11686,"ક્ટોરલ":11687,"▁ઉત્પાદક":11688,"▁મણિપુરમાં":11689,"▁અરજદારો":11690,"▁પથ્થરમારો":11691,"▁વચગાળાના":11692,"નોંધનીય":11693,"▁કન્ટ્રોલ":11694,"▁એમેઝોન":11695,"▁ટ્રીટમેન્ટ":11696,"જિલ્લા":11697,"૩૮":11698,"▁છેફ":11699,"▁હપ્તા":11700,"કેને":11701,"સેવ":11702,"▁યલો":11703,"▁કાંઈ":11704,"▁તુલા":11705,"▁સિદ્ધાં":11706,"▁અગિયાર":11707,"▁અબજોપતિ":11708,"આવી":11709,"ધીન":11710,"ગીર":11711,"▁૨૫૦":11712,"▁હાડ":11713,"▁ચાલકો":11714,"▁મહિલાઓના":11715,"▁મંદિરનું":11716,"કુમારી":11717,"▁ઘરેલું":11718,"▁છેઅને":11719,"▁કચ્છમાં":11720,"▁સિંગર":11721,"▁બાતમીના":11722,"ગની":11723,"૩૬":11724,"▁માતૃ":11725,"▁ડ્રા":11726,"▁લોસ":11727,"સિફિક":11728,"▁મિથુન":11729,"▁ઠાલ":11730,"કુમારે":11731,"જનોને":11732,"▁ઉંચામાં":11733,"ચલિત":11734,"▁સપ્તાહના":11735,"▁ધ્યેય":11736,"▁ખુલ્લેઆમ":11737,"▁અય્ય":11738,"િયાનમાં":11739,"▁જોવાની":11740,"વિરામ":11741,"▁સિલ":11742,"પાઠ":11743,"ડેને":11744,"▁બેસાડી":11745,"▁અન્યાય":11746,"ગૃહ":11747,"ળક":11748,"▁જયા":11749,"▁મનની":11750,"ર્પણ":11751,"▁સાંધા":11752,"▁સમીર":11753,"ાઈને":11754,"તોના":11755,"▁લેટર":11756,"▁એમએમ":11757,"હિદ":11758,"▁ચૂક્યું":11759,"▁વારસા":11760,"▁સાહસ":11761,"વવું":11762,"કેફ":11763,"▁ચાર્ટ":11764,"▁પ્લેન":11765,"▁કર્મચારીઓના":11766,"▁કબજ":11767,"▁તેટલું":11768,"કક્ષ":11769,"કબાલ":11770,"ુએ":11771,"૫માં":11772,"▁વક":11773,"▁વંશ":11774,"▁લિં":11775,"▁એલે":11776,"▁હોદ્":11777,"▁સીર":11778,"▁બેઠાં":11779,"▁પત્નીની":11780,"▁ઑગસ્ટ":11781,"▁પકડાયેલા":11782,"▁હરાજી":11783,"બર્ટ":11784,"▁મુર":11785,"▁મુળ":11786,"▁ડિટે":11787,"▁બાઉ":11788,"▁બદનામ":11789,"▁ગ્રંથ":11790,"▁જૂનમાં":11791,"▁મારવામાં":11792,"▁મેળવનાર":11793,"▁સાતમા":11794,"▁આફ્રિકાના":11795,"▁સૈનિકોને":11796,"▁ઔંશના":11797,"પદે":11798,"▁ફિક્":11799,"▁પરિપત્ર":11800,"ગ્ને":11801,"▁ડોલરનું":11802,"▁પાર્થ":11803,"▁ટિપ્સ":11804,"▁મિનિટમાં":11805,"▁અપાશે":11806,"▁વર્ચ્યુઅલ":11807,"▁શિવાજી":11808,"▁આર્ટિફિશિયલ":11809,"▁છેલ":11810,"▁હત્યારા":11811,"▁સાઈટ":11812,"▁વિઝન":11813,"▁યુવકની":11814,"▁હુમલાના":11815,"▁વકીલે":11816,"▁ગોંડલ":11817,"૪૪":11818,"▁છેતો":11819,"▁એઆઇ":11820,"દીએ":11821,"▁પૂરે":11822,"▁રામની":11823,"▁વહેલા":11824,"▁બાજુએ":11825,"▁રોકવામાં":11826,"▁વાહનોને":11827,"▁સર્વેમાં":11828,"▁પ્રજાતિ":11829,"▁વાદળો":11830,"▁આહારમાં":11831,"▁૨૦૨૦માં":11832,"▁ચતુર્થી":11833,"▁સીએનજી":11834,"▁સિગ્નલ":11835,"હિમ":11836,"▁શ્વે":11837,"લ્લુ":11838,"▁ડ્રાફ્ટ":11839,"▁અધૂ":11840,"▁સત્તાધારી":11841,"▁ચિંતાનો":11842,"▁એકબીજાના":11843,"▁ગણાવ્યા":11844,"▁સિનેમાઘરોમાં":11845,"ંશી":11846,"▁જ્વા":11847,"▁વહ":11848,"▁કેસર":11849,"▁પાંડ":11850,"ડાનો":11851,"વેલી":11852,"▁રેપો":11853,"બંધન":11854,"▁ફોકસ":11855,"લિસ":11856,"▁પોતાનાં":11857,"▁લાગતી":11858,"▁વૈકલ્પિક":11859,"▁પેટર્ન":11860,"▁નોકરીઓ":11861,"▁કાપડ":11862,"▁પશુપાલ":11863,"▁સોફ્ટવેર":11864,"▁સર્કિટ":11865,"પકાર":11866,"રૃ":11867,"▁પ્રવાહી":11868,"ેશને":11869,"રોન":11870,"ક્ષેત્ર":11871,"▁સેક્શન":11872,"ારામાં":11873,"▁સામસામે":11874,"▁આઝમ":11875,"▁છેશહે":11876,"નન્ટ":11877,"બિલ":11878,"▁મુદ્રા":11879,"હોસ્પિટ":11880,"▁સોન":11881,"▁ખૂલ":11882,"▁તંત્રને":11883,"▁એસએસ":11884,"▁જગતમાં":11885,"▁વ્હાઇટ":11886,"▁સિક્કા":11887,"▁પાદુકોણ":11888,"▁અર્શદીપ":11889,"▁તામ":11890,"▁તબા":11891,"▁ટચ":11892,"પ્રસાદ":11893,"▁નેહા":11894,"▁વેંક":11895,"સ્પતિ":11896,"▁૪૧":11897,"▁કલાકથી":11898,"બલ્યુ":11899,"▁સોનામાં":11900,"▁હવાલો":11901,"▁સિસ્ટમમાં":11902,"▁ભુજ":11903,"▁મોકલે":11904,"▁વ્યાવસાયિક":11905,"ંતા":11906,"ણિ":11907,"દ્ય":11908,"ુત":11909,"▁સિંચ":11910,"▁નોકર":11911,"▁તંત્રની":11912,"▁વાયદા":11913,"▁નિષ્ણાં":11914,"▁મથુ":11915,"▁મનાવવામાં":11916,"▁શરૂઆતના":11917,"▁ગુરૂવાર":11918,"▁દબદબો":11919,"▁ગાઈડ":11920,"▁વાટા":11921,"▁વડોદરાતા":11922,"▁વિકાસની":11923,"▁પરીક્ષાની":11924,"▁કિલોના":11925,"▁સ્ટેશનની":11926,"ચોટ":11927,"▁તૂટીને":11928,"▁ઈનકાર":11929,"▁તેલંગાણામાં":11930,"▁ગભરા":11931,"▁નફરત":11932,"વેશન":11933,"િષ્ટ":11934,"▁પ્રભા":11935,"▁ઘરો":11936,"▁કારોબાર":11937,"▁ઇમેજ":11938,"પોઝ":11939,"▁કાર્યક":11940,"▁પાસેના":11941,"▁નજીકમાં":11942,"▁સુધર":11943,"▁સંકુલ":11944,"▁છેસં":11945,"▁સંકેતો":11946,"▁મહાવીર":11947,"▁ડિરેક્ટોરેટ":11948,"▁ઉડી":11949,"▁પાઉ":11950,"▁જીવો":11951,"▁પીઆઈ":11952,"▁પાર્ટીનું":11953,"▁કેન્દ્રની":11954,"▁લેવાશે":11955,"▁મિલન":11956,"▁મોટર્સ":11957,"▁ગરમીનો":11958,"▁ન્યાયિક":11959,"▁મસ્કે":11960,"▁બગાડ":11961,"▁જન્મેલા":11962,"્યુનિકેશન":11963,"ંક્શન":11964,"મરા":11965,"ર્શ":11966,"▁ફોડ":11967,"▁ટેન્ક":11968,"ભગવાન":11969,"▁ટ્રેનના":11970,"▁બાબતની":11971,"▁લેવાયા":11972,"▁મુશ્કેલીનો":11973,"▁કાયદામાં":11974,"▁માફક":11975,"▁કેનાલ":11976,"▁કબૂલાત":11977,"ંઢે":11978,"▁ટ્રોલ":11979,"▁પોણા":11980,"▁મોસ":11981,"▁ઉપકરણો":11982,"▁ડિસ્ટ":11983,"વન્યુ":11984,"▁ડોમે":11985,"▁વડોદરાની":11986,"▁વાગ્યાના":11987,"▁ફેલાય":11988,"▁ફેબ્રુઆરીના":11989,"▁ઇન્ડિયાના":11990,"▁કોર્પોરેશનની":11991,"▁મગજમાં":11992,"▁જમ્મુકાશ્મીરમાં":11993,"▁બ્રિગેડ":11994,"▁તલવાર":11995,"▁સ્ટાર્ટઅપ":11996,"▁રાંચી":11997,"▁પેકેટ":11998,"▁માન્યો":11999,"લાઈટ":12000,"▁પ્રત્યક્ષ":12001,"▁બેંકની":12002,"▁સ્ટેશનો":12003,"▁દારૂનો":12004,"્યુલિન":12005,"▁ઝારખંડના":12006,"ક્રિપ્શન":12007,"▁પુષ્પા":12008,"▁ચંદ્રા":12009,"ઇના":12010,"બસ":12011,"નીત":12012,"▁પ્રહ":12013,"▁કહ્યા":12014,"મોટી":12015,"▁ડિસેમ્બરમાં":12016,"▁વરસાદથી":12017,"▁માંગતો":12018,"▁ધોરણો":12019,"▁વિલિય":12020,"▁આઈપીએલમાં":12021,"▁ખળભળાટ":12022,"ેલી":12023,"૩૭":12024,"▁માઉન્ટ":12025,"▁સમકક્ષ":12026,"▁પ્રતિબ":12027,"▁એલસીબી":12028,"▁ચાહકોને":12029,"▁નિરાકરણ":12030,"▁જમ્મુકાશ્મીર":12031,"ગાંઠ":12032,"▁નૌકાદ":12033,"ખેડ":12034,"હતા":12035,"▁માણે":12036,"િયાઓ":12037,"▁લેવાય":12038,"▁ફેમસ":12039,"ગાડી":12040,"કરવામાં":12041,"▁તાજેતરની":12042,"▁પુરવાર":12043,"▁દરિયાઈ":12044,"▁વાઘોડિયા":12045,"▁શિવસેનાના":12046,"▁ઉણપ":12047,"અગાઉ":12048,"ગના":12049,"▁રેતી":12050,"▁ડિસેમ્બરના":12051,"▁ક્ષતિ":12052,"▁અંતરે":12053,"મિત્રી":12054,"▁માનીએ":12055,"▁કપૂરની":12056,"વર્ડ":12057,"▁પગે":12058,"▁તંગ":12059,"▁અંસારી":12060,"▁યોજનાને":12061,"▁દેખાતી":12062,"▁જૂનથી":12063,"▁હૃદયના":12064,"ભાજપના":12065,"▁કુમારને":12066,"▁કવિતા":12067,"▁ભગવાનના":12068,"▁કવાયત":12069,"ફરી":12070,"લન":12071,"▁કમાન":12072,"▁અઢ":12073,"▁કેસી":12074,"▁હોટે":12075,"પોલ":12076,"▁આગમાં":12077,"▁પહેલાની":12078,"▁ફેન":12079,"▁તપાસની":12080,"▁બોટલો":12081,"▁નવેમ્બરમાં":12082,"▁ટાળવા":12083,"▁મરાઠી":12084,"▁ચેન્નઈ":12085,"▁ચૂંટાયેલા":12086,"▁કબ્જે":12087,"▁ટ્રાવેલ":12088,"▁હેન્ડસેટમાં":12089,"▁પોટેશિયમ":12090,"▁વસ્ત્ર":12091,"રાત્રી":12092,"▁પ્રચલિત":12093,"▁ભારપૂર્વક":12094,"▁લોકોથી":12095,"▁સિર":12096,"▁સિન્હા":12097,"ાળીને":12098,"▁પછીની":12099,"▁ટેસ્ટિંગ":12100,"▁યુનિફોર્મ":12101,"▁વર્લ્ડકપ":12102,"વિત":12103,"▁કિયારા":12104,"▁હોતા":12105,"▁મેલ":12106,"▁સિધ્ધ":12107,"▁નિર્ણયથી":12108,"▁બીજાને":12109,"વાદીઓ":12110,"▁સરખામણી":12111,"▁ઉભું":12112,"પંજાબ":12113,"પ્લાન્ટ":12114,"▁સચોટ":12115,"વાયેલી":12116,"▁આર્ક":12117,"▁રિંગ":12118,"▁ચડી":12119,"▁ઓઈ":12120,"તોડ":12121,"▁ચોઘડિયા":12122,"▁ગઠબંધનને":12123,"▁પરિવારોને":12124,"રાઇઝર્સ":12125,"▁તજવીજ":12126,"▁એટીએમ":12127,"▁ગ્લુ":12128,"▁આવડ":12129,"▁સામેથી":12130,"▁પેન્ટ":12131,"▁માનવા":12132,"પણું":12133,"▁સહમત":12134,"▁માંગતી":12135,"▁સિદ્ધારમૈયા":12136,"▁ફોર્મ્યુ":12137,"▁પહોંચાડે":12138,"▁આયુષ્ય":12139,"▁પ્રભુત્વ":12140,"▁બેદરકાર":12141,"▁રોજિંદા":12142,"ઘ્ન":12143,"▁લિમ":12144,"▁રોટલી":12145,"▁નીરજ":12146,"▁ફોરેન":12147,"▁અવરો":12148,"▁મેળવવાનો":12149,"▁છેમુંબ":12150,"▁હુસૈ":12151,"▁વહીવટ":12152,"▁બરબાદ":12153,"હાઈટ":12154,"શ્રેષ્ઠ":12155,"▁ચઢ્ઢા":12156,"ડન્ડ":12157,"નવે":12158,"પત્રો":12159,"▁કૃત":12160,"▁આમાંથી":12161,"▁રિન":12162,"▁ખતરા":12163,"▁નાનું":12164,"▁ભાડું":12165,"▁ખાણ":12166,"▁મહિમા":12167,"▁કાર્યકારી":12168,"નગરના":12169,"▁રાશિઓ":12170,"▁૫૭":12171,"▁આદુ":12172,"▁ઊંચો":12173,"કૃતિક":12174,"▁કેપ્શન":12175,"લાઉ":12176,"▁ફાર":12177,"▁લીલી":12178,"િરિ":12179,"▁યોજાનાર":12180,"▁ક્રાઈ":12181,"▁ચાલતું":12182,"▁અપાયું":12183,"▁વિસ્તારને":12184,"પાર્ટી":12185,"▁ચોકલેટ":12186,"▁ઋતુમાં":12187,"▁જુનાગઢ":12188,"▁છાતીમાં":12189,"▁તૂટે":12190,"▁સૈયદ":12191,"▁વસુંધરા":12192,"ટકા":12193,"▁વર્ગો":12194,"▁ઈન્દ્ર":12195,"▁નીચી":12196,"▁અરબ":12197,"▁શુગર":12198,"ક્રેન":12199,"▁મિત્રને":12200,"▁સ્કૂલના":12201,"▁ચાંદીની":12202,"▁એન્જિનિય":12203,"▁સશસ્ત્ર":12204,"▁નેહરુ":12205,"▁પિસ્તોલ":12206,"▁હસ્તક":12207,"▁શસ્ત્ર":12208,"હેલ્થ":12209,"▁થવામાં":12210,"મેળ":12211,"▁આપત્તિ":12212,"લોગ":12213,"▁ઇન્ટેલિજન્સ":12214,"▁ભાડા":12215,"▁અનુરૂપ":12216,"▁કર્યાે":12217,"▁પરિવારનો":12218,"▁ભગવાનને":12219,"▁રકમની":12220,"▁મિલક":12221,"▁મિલકતો":12222,"▁સમર્થક":12223,"▁સ્ટાફે":12224,"▁ફોજદારી":12225,"ઉપરાંત":12226,"ઝડ":12227,"▁તવારી":12228,"▁જાવે":12229,"▁સુપ્રી":12230,"સેમ્બર":12231,"નિષ":12232,"▁વન્ય":12233,"▁સ્વીકાર્યું":12234,"પેટમાં":12235,"▁મૂંઝવ":12236,"ઈઝરા":12237,"▁રાની":12238,"▁આવવાના":12239,"ત્રીને":12240,"જેક્ટ":12241,"▁પૂજન":12242,"▁શ્રીમ":12243,"બેઠ":12244,"▁ટ્રેનની":12245,"▁ખરીદ્યો":12246,"▁જમીનના":12247,"▁ઈન્ફ્રાસ્ટ્રક્ચર":12248,"▁ઉકેલી":12249,"▁પુરાવો":12250,"▁આંચકો":12251,"▁સાનુકૂળ":12252,"▁ટેબલમાં":12253,"▁સ્પોટ":12254,"▁રોગચાળા":12255,"▁ઉત્સુક":12256,"▁બગીચા":12257,"જહાં":12258,"સ્કે":12259,"▁પાદરા":12260,"▁વાકેફ":12261,"▁ઘર્ષ":12262,"▁ઇમ્":12263,"▁અમૂલ":12264,"▁શકતું":12265,"▁ચૂકવવામાં":12266,"▁જાળવવામાં":12267,"▁ઉત્તરાખંડના":12268,"▁ઈન્ટરવ્યુમાં":12269,"▁મદદનીશ":12270,"ંતે":12271,"ફની":12272,"ૌન":12273,"▁પડાવી":12274,"▁જના":12275,"▁અપ્ર":12276,"▁છેચ":12277,"વીણ":12278,"▁રાઈડ":12279,"કીના":12280,"મણિ":12281,"▁યુવરાજ":12282,"▁૧૯૫":12283,"▁દર્શકોને":12284,"▁મહાકા":12285,"▁કરાવતા":12286,"▁મોબાઈ":12287,"▁બાબતને":12288,"▁પરસેવો":12289,"આંક":12290,"▁અવે":12291,"▁બાર્":12292,"▁વિરા":12293,"▁ખિસ્સા":12294,"▁બહિષ્કાર":12295,"▁બંગલો":12296,"▁ઢા":12297,"▁જ્યોર્જ":12298,"▁જલદી":12299,"▁ક્વાર્ટર":12300,"▁બુલડો":12301,"▁હિલચાલ":12302,"▁કુસ્તીબા":12303,"▁મેજિસ્ટ્રેટ":12304,"ૈન":12305,"▁તકની":12306,"▁છેનવી":12307,"▁રાક્ષ":12308,"હોત્રા":12309,"▁ભાજપનું":12310,"▁અસરગ્રસ્ત":12311,"▁ખરીદવાનું":12312,"▁સોલાર":12313,"▁વેપારીઓને":12314,"▁બૂથ":12315,"▁સીતારામ":12316,"▁ઓલરાઉન્ડર":12317,"▁તારો":12318,"▁છેરાજ":12319,"▁બંદર":12320,"▁ઈન્ટર":12321,"▁રેપ":12322,"▁અનુપ":12323,"▁બોલ્યો":12324,"▁બેન્કિંગ":12325,"▁ગૌણ":12326,"▁વાહનચાલ":12327,"▁માધ્યમ":12328,"▁મધ્યપ્રદેશમાં":12329,"▁સંસ્કૃત":12330,"▁હડતાળ":12331,"▁તટ":12332,"▁આનું":12333,"▁ચમકી":12334,"▁નારી":12335,"ાળું":12336,"▁સોદો":12337,"▁બેઠકના":12338,"▁છેઅમેરિકા":12339,"▁ડોલરનો":12340,"▁વલસા":12341,"▁ઓલઆઉટ":12342,"િવિડન્ડ":12343,"▁કિંમતે":12344,"▁પહાડી":12345,"ંય":12346,"અન્ય":12347,"▁સદ્":12348,"▁નમા":12349,"▁કેકે":12350,"ન્ટન":12351,"પોતાની":12352,"▁ચોથ":12353,"▁ફરતી":12354,"▁ટ્રિલિયન":12355,"▁પોસ્ટની":12356,"▁ઇન્વેસ્ટ":12357,"▁ઈન્કાર":12358,"▁સગીરા":12359,"▁છેડતી":12360,"▁સહેજ":12361,"▁છીનવી":12362,"▁મીના":12363,"▁વરસાદમાં":12364,"▁દાણ":12365,"▁શકયતા":12366,"▁નમૂના":12367,"▁મિટ":12368,"▁શિમ":12369,"▁માવ":12370,"▁ખ્યા":12371,"▁સ્પા":12372,"▁સુગંધ":12373,"વેલા":12374,"પોષણ":12375,"▁જણાવતા":12376,"▁બનાવવી":12377,"▁યાદગાર":12378,"વાદીત":12379,"▁આળસ":12380,"કિસડન્ટ":12381,"તમારા":12382,"▁નિત":12383,"▁દુષ્":12384,"▁તમારામાં":12385,"▁શોભ":12386,"સુફ":12387,"▁દુનિયાને":12388,"▁એક્ટિંગ":12389,"▁ઈન્ડિયાની":12390,"▁હાઇડ્રો":12391,"▁ઓગસ્ટમાં":12392,"▁વળવા":12393,"મહિલા":12394,"▁ટેન્કર":12395,"ગં":12396,"નએ":12397,"▁છેછેલ્લા":12398,"▁એસીબી":12399,"▁બીચ":12400,"▁જાયન્ટ્સ":12401,"▁ઉછળીને":12402,"▁બનાવેલા":12403,"▁કન્ફ":12404,"▁ચૈત્ર":12405,"▁સેટેલાઇટ":12406,"તારા":12407,"▁છેનિ":12408,"▁ચિક":12409,"▁કોટક":12410,"લ્સે":12411,"▁બનનાર":12412,"▁આમિર":12413,"▁૭૮":12414,"▁પ્રેમિકા":12415,"▁ઓસ્ટ્રેલિયાના":12416,"▁રોમાંચક":12417,"▁માર્ગદર્શિકા":12418,"કર્મ":12419,"ફિટ":12420,"▁કોલ્ડ":12421,"ાવિ":12422,"▁બેંચ":12423,"▁માંસ":12424,"ોડે":12425,"લિશ":12426,"▁દુલ્":12427,"▁વૈદિક":12428,"▁નિયંત્રણમાં":12429,"▁પ્રમોટ":12430,"▁યુનાઈટેડ":12431,"▁એમાંથી":12432,"▁વિઝ":12433,"▁આપવાથી":12434,"▁પરિચિત":12435,"▁દેશવાસી":12436,"▁કર્મચારીઓએ":12437,"લેન્ડમાં":12438,"▁સંસ્થાના":12439,"▁અંદાજિત":12440,"ખેડા":12441,"▁રિકવરી":12442,"▁મજૂરો":12443,"ંતોષ":12444,"▁ઓકટોબર":12445,"ખરા":12446,"▁છૂટી":12447,"▁કરદા":12448,"▁ફેટ":12449,"▁સીઝનમાં":12450,"▁ચાન્સે":12451,"▁પ્રોટી":12452,"▁ચેન્જ":12453,"▁મેચોમાં":12454,"▁અસરથી":12455,"ઝાસ્ટર":12456,"▁પાર્કમાં":12457,"▁ગુમાવ":12458,"ભૂતિ":12459,"▁પુનરાવ":12460,"▁સગાઈ":12461,"▁પાઇપ":12462,"૯૬":12463,"▁મેરેજ":12464,"વિરાટ":12465,"▁ક્રાંતિક":12466,"▁મીડિયાના":12467,"▁આમંત્રિત":12468,"▁ગેલેક્સી":12469,"▁તવારીખમાં":12470,"▁અબુ":12471,"▁સાધારણ":12472,"ટેન":12473,"▁ચશ્":12474,"▁નાળ":12475,"લોજિસ્ટ":12476,"પોરબ":12477,"▁અનુવાદ":12478,"▁વિવાદો":12479,"▁સ્વાતિ":12480,"▁ઈરાનના":12481,"▁વાવાઝ":12482,"▁વેલ્યૂ":12483,"▁બનો":12484,"▁સાજા":12485,"▁હોટેલ":12486,"▁સમજે":12487,"ામિ":12488,"▁કાઉન્ટ":12489,"▁નોંધાવ્યો":12490,"હાબાદ":12491,"▁રનૌ":12492,"▁વિકાસને":12493,"▁જાણીતું":12494,"▁એનાયત":12495,"▁કોલેજના":12496,"▁પરિવારજનોએ":12497,"▁મહાદેવના":12498,"મેને":12499,"▁સંચાર":12500,"▁ભાજ":12501,"▁સેવામાં":12502,"▁સમાજની":12503,"ડેડ":12504,"▁માર્કસ":12505,"▁સહુ":12506,"▁ખરીદીમાં":12507,"▁દુર્લભ":12508,"▁અડફેટે":12509,"▁ફેલાયો":12510,"▁ફૂટબોલ":12511,"▁સિરીઝમાં":12512,"▁કેશવ":12513,"▁ક્રી":12514,"મેક":12515,"મેન્સ":12516,"▁કોષ":12517,"▁ડરી":12518,"▁સંયમ":12519,"શાખા":12520,"▁પૂર્વક":12521,"▁વિધાનસભાના":12522,"▁ઇન્વેસ્ટમેન્ટ":12523,"▁સંસ્થાકીય":12524,"કાંઠે":12525,"▁માથાના":12526,"▁ઉત્સાહિત":12527,"▁મલ્હોત્રા":12528,"▁માનવીય":12529,"▁નૈતિક":12530,"▁બલિદાન":12531,"▁છવાઈ":12532,"▁રાઇડ":12533,"ાલો":12534,"▁સિઝ":12535,"▁ઝર":12536,"▁આગો":12537,"ામીન":12538,"▁વરસાદે":12539,"▁લોકતંત્ર":12540,"▁બંનેમાં":12541,"▁માંગ્યો":12542,"▁જીતશે":12543,"▁મહારાજા":12544,"▁કેજરીવાલના":12545,"▁હટાવવા":12546,"અભ":12547,"▁હકારાત્મક":12548,"▁લેન્ડર":12549,"▁દિવસીય":12550,"▁પીવા":12551,"▁ડેડ":12552,"▁પરીક્ષ":12553,"▁ઉછાળા":12554,"▁અંબાજી":12555,"▁પેલેસ્ટાઈ":12556,"▁ઇન્ટરવ્યુ":12557,"▁ઇન્સ્ટિટ્યૂટ":12558,"૩૧":12559,"▁છેરા":12560,"▁હસ્તી":12561,"▁ર૦":12562,"કોર્":12563,"▁ડિસ":12564,"▁દિવસનું":12565,"▁મહેમાન":12566,"▁રોડની":12567,"તરીય":12568,"▁તાલમેલ":12569,"▁છેવર્ષ":12570,"▁ફ્રાં":12571,"▁ચુસ્ત":12572,"▁વ્હીલ":12573,"ફ્લિક":12574,"સાવ":12575,"▁હદે":12576,"િકર":12577,"્યુન":12578,"ગાહ":12579,"સવર્ડ":12580,"▁લક્ષદ્વી":12581,"▁કમલેશ":12582,"▁ફિલ્મોના":12583,"▁રાવણ":12584,"▁રચ્યો":12585,"▁ગણાવ્યું":12586,"▁આસામના":12587,"▁અધિક્ષક":12588,"માતા":12589,"▁છેહિ":12590,"▁ભત્રીજા":12591,"▁મેડિ":12592,"▁બાજી":12593,"▁પીછે":12594,"▁અપગ્રેડ":12595,"▁આગળના":12596,"▁આંશિક":12597,"▁કમલના":12598,"▁જણાયું":12599,"▁સ્થિરતા":12600,"▁મહુવા":12601,"▁આલ્કો":12602,"ગયા":12603,"લક્ષી":12604,"વાતા":12605,"▁બધો":12606,"▁શાર્":12607,"▁પાથ":12608,"સીએમ":12609,"સાવી":12610,"▁પેન્ડિંગ":12611,"જૂના":12612,"▁નાગરિકોની":12613,"▁જીતની":12614,"▁આરબ":12615,"▁અર્થા":12616,"▁ટામેટા":12617,"▁નબળું":12618,"▁નિર્દેશો":12619,"▁સમારંભ":12620,"▁આશિષ":12621,"▁વ્યૂહાત્મક":12622,"ફરા":12623,"▁બૈ":12624,"▁બેલ":12625,"જેટ":12626,"જેપી":12627,"▁નીલ":12628,"▁વ્યક્તિનો":12629,"▁ગાંગુ":12630,"▁આંખે":12631,"▁માનવતા":12632,"▁હૃદયની":12633,"▁વરદાન":12634,"▁તુલનાએ":12635,"▁ઈચ્છતા":12636,"▁ગેમિંગ":12637,"▁ચોંકાવનારો":12638,"▁કડાકો":12639,"▁અકા":12640,"▁છેમાં":12641,"વીની":12642,"▁ઉકા":12643,"▁ઓડિયો":12644,"સીબે":12645,"▁વેલેન્ટ":12646,"▁વાતમાં":12647,"▁મિલી":12648,"▁જયરામ":12649,"▁આરબી":12650,"▁ભીમ":12651,"વિવિધ":12652,"ુરી":12653,"▁શુક":12654,"▁મારૂ":12655,"ન્ત":12656,"▁ચેતન":12657,"▁માર્ચથી":12658,"▁નીતિઓ":12659,"▁તબક્કાના":12660,"▁મુકાઈ":12661,"▁વાઇસ":12662,"▁લિમિટ":12663,"▁ઓર્ડ":12664,"▁નીટ":12665,"▁વેડિંગ":12666,"▁આરસીબી":12667,"▁સુરક્ષાની":12668,"▁અધિકારીની":12669,"▁પુત્રીને":12670,"▁ખુલાસા":12671,"▁વનડેમાં":12672,"▁ક્વોલિટી":12673,"▁પદો":12674,"▁સુઝુ":12675,"સાત":12676,"જૂન":12677,"▁માર્શ":12678,"▁સમજદારી":12679,"▁એડમિન":12680,"▁દીકરીને":12681,"▁યુગમાં":12682,"▁માન્યતાઓ":12683,"▁સગર્":12684,"▁મેક્રો":12685,"▁ઉશ્કેર":12686,"વાયુ":12687,"▁છબી":12688,"▁રદ્દ":12689,"▁વધુના":12690,"▁વધુનો":12691,"▁ચૂકેલા":12692,"▁પેપ":12693,"▁વિશેની":12694,"▁યોજનાના":12695,"ગેટિવ":12696,"▁તત્ત્વો":12697,"▁વિશ્લેષ":12698,"▁ઇમરાન":12699,"▁મેન્યુફેક્ચરિંગ":12700,"અલી":12701,"ઑકિસડન્ટ":12702,"કળ":12703,"૪૯":12704,"▁અત્રે":12705,"▁લસણ":12706,"▁ડાર્ક":12707,"▁બેત્રણ":12708,"▁તમામને":12709,"િલર":12710,"રુખ":12711,"▁અંગેનો":12712,"▁કર્મી":12713,"ર્ષ્યા":12714,"▁આરોપમાં":12715,"▁શક્તિને":12716,"▁ખરીદવાની":12717,"િઝમ":12718,"▁પૂછપરછમાં":12719,"વર્લ્ડ":12720,"▁કારકિર્દીની":12721,"▁ઝઘડા":12722,"▁યથાવ":12723,"▁ડિવાઇસ":12724,"▁વાજપેયી":12725,"▁વુ":12726,"▁તેલના":12727,"ક્સે":12728,"▁ચણા":12729,"▁મેમો":12730,"▁લોકોનાં":12731,"▁સેને":12732,"▁અનુષ્કા":12733,"અમિત":12734,"▁ગુલામ":12735,"▁કોમર્સ":12736,"▁ચમત્કાર":12737,"▁અથડામ":12738,"વાસ્તવમાં":12739,"▁સ્ટ્રીટ":12740,"ટકે":12741,"▁સીએસ":12742,"▁નંગ":12743,"▁કેન":12744,"ક્કી":12745,"▁મેટલ":12746,"▁લગાવવા":12747,"▁હેલ્પ":12748,"▁ઊંડી":12749,"▁કરશેઆ":12750,"▁ઘરેલુ":12751,"ખેડે":12752,"▁ભ્રષ્ટાચારના":12753,"▁છેકોંગ્રેસ":12754,"▁કરવુ":12755,"▁લિંગ":12756,"▁રાત્રીના":12757,"▁સુખા":12758,"ાંભ":12759,"શ્વિ":12760,"જેથી":12761,"રનાથ":12762,"▁ગોદ":12763,"૦૦થી":12764,"▁બંધક":12765,"▁ઈન્ડિઝ":12766,"▁ઢંઢે":12767,"▁હેલ્થકેર":12768,"▁પ્રજાપતિ":12769,"▁ગેંગસ્ટર":12770,"▁મોનિટર":12771,"રહે":12772,"▁કમો":12773,"માર્ગે":12774,"▁શૉ":12775,"▁ખવડ":12776,"ાવડા":12777,"▁ઘરને":12778,"▁મળવાના":12779,"▁રોમેન્ટ":12780,"▁નિજ્જ":12781,"બેને":12782,"▁કોર્ટનો":12783,"▁ઇનિંગ્સ":12784,"▁નશામાં":12785,"▁જળાશ":12786,"ફાંસો":12787,"▁કઢ":12788,"▁સદીમાં":12789,"નાથે":12790,"રાજી":12791,"▁ભાન":12792,"▁ઈમેલ":12793,"ધાન્ય":12794,"રસાદ":12795,"▁અભિવ":12796,"▁પાર્ટીનો":12797,"લ્સની":12798,"▁ઉદ્યોગમાં":12799,"▁વધારાનો":12800,"▁કસ્ટડી":12801,"▁રુચિ":12802,"▁રામલલાની":12803,"▁કુંડળીમાં":12804,"સૌથી":12805,"▁સ્ટાર્સ":12806,"▁નારિયે":12807,"હાઉસ":12808,"ગરા":12809,"મૃત":12810,"૫૫":12811,"▁ભગત":12812,"▁પાડો":12813,"▁રેસમાં":12814,"▁હેક્ટર":12815,"▁સેવનથી":12816,"▁હળવાથી":12817,"▁ફૂલો":12818,"▁તારણ":12819,"▁કામકાજમાં":12820,"▁સ્વાદિષ્ટ":12821,"ગ્રસ્તોને":12822,"ઘટ":12823,"તિયા":12824,"પમેન્ટ":12825,"▁પુરો":12826,"▁મૂડમાં":12827,"▁ગોત્રી":12828,"▁માંગને":12829,"ક્ટોબર":12830,"▁રંગની":12831,"▁માધ્યમો":12832,"▁વૈજ્ઞાનિકો":12833,"▁ચંદીગઢ":12834,"ંઠ":12835,"▁રનના":12836,"▁દ્વ":12837,"▁પોક્સો":12838,"▁સંજુ":12839,"▁લાકડી":12840,"▁નિગમ":12841,"▁ઇમે":12842,"▁સેન્સ":12843,"▁પરિબળ":12844,"▁પીવાના":12845,"▁જોવાઈ":12846,"▁અપાય":12847,"▁અપાયો":12848,"▁ડીસીપી":12849,"▁એનઓસી":12850,"▁સામ્રા":12851,"▁પતિની":12852,"▁પદની":12853,"▁ખસેડાયા":12854,"▁હરાવ્યા":12855,"▁જ્વેલરી":12856,"▁ગ્રુપના":12857,"લાથી":12858,"લીબાગ":12859,"▁કાર્યકર્તાઓ":12860,"જ્ઞાા":12861,"▁હેતુથી":12862,"▁ખીણમાં":12863,"૯૦ના":12864,"▁છઠ્ઠી":12865,"▁કૂતરા":12866,"ચમાં":12867,"ષિક":12868,"ેશ્વ":12869,"સીઝ":12870,"ંત્રિક":12871,"▁તાના":12872,"▁ઠપકો":12873,"▁રોકાણની":12874,"▁બધાએ":12875,"▁કમાલ":12876,"▁કોર્પોરેટર":12877,"▁પ્રક્રિયાને":12878,"▁છેસૂ":12879,"▁હાર્ડ":12880,"▁જોગવાઈઓ":12881,"▁શિલાન્યાસ":12882,"ચમ":12883,"જમ્મુ":12884,"કોન":12885,"▁મેડી":12886,"▁ડિરેક્ટ":12887,"સોમાં":12888,"્રાડે":12889,"્સનું":12890,"▁પીળા":12891,"▁કુર્":12892,"▁યુવતીઓ":12893,"▁ડોક્ટરો":12894,"▁ઇલેક્ટ્રોનિક":12895,"▁ફાંસો":12896,"વ્હી":12897,"▁પાયલોટ":12898,"ઓસ્ટ્રેલિયા":12899,"▁એમ્બે":12900,"્ટમેન્ટમાં":12901,"▁સાલ":12902,"▁જેમ્સ":12903,"રોકા":12904,"▁વાલ્":12905,"▁સુધા":12906,"▁ચીનને":12907,"▁બોલવા":12908,"▁જમાનામાં":12909,"▁બિલ્ડર":12910,"▁કિંમતના":12911,"▁સંગીતકાર":12912,"▁દુઃખદ":12913,"▁કોમ્પ્લેક્સ":12914,"ટાઈ":12915,"▁ગજ":12916,"▁ભરણ":12917,"▁સાદ":12918,"▁જીવે":12919,"િનિયન":12920,"▁કંઇક":12921,"▁કમિટીના":12922,"▁બાંધકા":12923,"▁સ્વિમિંગ":12924,"▁પડકારોનો":12925,"▁લંબાઈ":12926,"▁ઝિમ્બાબ્વે":12927,"ટાઇમ":12928,"▁કોમેડી":12929,"કોપ":12930,"▁હોતું":12931,"▁ઉપરની":12932,"ભગૃહ":12933,"▁અથડાઈ":12934,"▁પ્રાકૃતિક":12935,"▁પ્રવક્":12936,"▁અનુભવાય":12937,"▁જમીનની":12938,"▁ઓક્ટોબરથી":12939,"▁મનાઈ":12940,"▁માંડવી":12941,"▁ભાગ્યશાળી":12942,"▁હેરિ":12943,"▁બાંધીને":12944,"▁માપદંડ":12945,"▁સદા":12946,"નામી":12947,"યાને":12948,"▁ફિક્સ":12949,"લ્લું":12950,"તિથિ":12951,"▁જાેર":12952,"સીમ":12953,"વિધાન":12954,"▁સેરે":12955,"ક્ષ્મી":12956,"▁કિલોગ્રામ":12957,"▁એચડીએફસી":12958,"▁પેશા":12959,"▁જીવનશૈલી":12960,"▁ડિવિડન્ડ":12961,"▁ઇકોનો":12962,"▁ડિવાઈ":12963,"પાયા":12964,"▁કંપનીનું":12965,"▁બ્રોડ":12966,"▁વૈભવ":12967,"▁સમજવું":12968,"▁નવેસરથી":12969,"▁ફિલ્મોની":12970,"▁લાદવામાં":12971,"▁બેંગ્લોર":12972,"ઝિયા":12973,"▁કફ":12974,"▁નટ":12975,"નોર":12976,"▁ચળ":12977,"▁ડિઝાસ્ટર":12978,"▁હાડકા":12979,"ફેક્શન":12980,"▁ફિલ્મનો":12981,"બ્લે":12982,"▁ડેપો":12983,"▁બાળકોમાં":12984,"▁ખર્ચની":12985,"▁આદેશમાં":12986,"▁ફૂંકા":12987,"▁ફટકાર્યો":12988,"▁કારકિર્દીમાં":12989,"▁દાદાના":12990,"▁કૂલ":12991,"▁સેશન":12992,"ક્લે":12993,"પાથ":12994,"▁યોજનાની":12995,"▁ઓપનર":12996,"▁ઈન્ફ":12997,"▁પ્રવેશી":12998,"ધ્યાય":12999,"▁અહિં":13000,"▁સ્મશાન":13001,"▁સિક્કિમ":13002,"▁સંડોવાયેલા":13003,"▁ચતુર્":13004,"▁કન્સલ્ટન્ટ":13005,"આણંદ":13006,"કનું":13007,"▁સસ્તી":13008,"▁શંખ":13009,"▁હતીએ":13010,"▁બીપી":13011,"જનિક":13012,"▁લાભદાયક":13013,"▁ડાબા":13014,"▁પરિસ્થિતિઓ":13015,"▁ગોળીઓ":13016,"▁કિસ્સાઓમાં":13017,"▁બંધારણની":13018,"દોડ":13019,"શેલ":13020,"▁પાસવર્ડ":13021,"હીન":13022,"▁ઈન્ટેલિજન્સ":13023,"પાઉન્ડ":13024,"▁નહીંઆ":13025,"ખાલી":13026,"▁સંબંધને":13027,"▁ચાલું":13028,"▁બિરાજમાન":13029,"▁મંત્રીમંડ":13030,"▁એજન્ડા":13031,"▁ચિંતાઓ":13032,"▁ઉમેદવારની":13033,"▁જસ્ટીસ":13034,"▁ડોક્ટરે":13035,"▁નમ્ર":13036,"▁બિશ્નોઈ":13037,"▁સસરા":13038,"ાવનાર":13039,"લેએ":13040,"▁હાલાકી":13041,"▁દિવસને":13042,"ફોલ્ટ":13043,"▁મંદિરથી":13044,"▁સૂઈ":13045,"▁કમાન્ડર":13046,"▁ઉંચો":13047,"▁ઝૂંપ":13048,"મંદિ":13049,"▁બિરલા":13050,"▁એલપીજી":13051,"કસ્મા":13052,"૭૮":13053,"▁વરુ":13054,"▁ઉંઘ":13055,"▁વધતો":13056,"▁ઈશ્વ":13057,"ર્ડન":13058,"▁ક્રુ":13059,"▁પરિવારનું":13060,"▁પ્લેઓફ":13061,"▁એપિસો":13062,"▁લાઇસન્સ":13063,"▁નિષ્ફળતા":13064,"▁અંગ્રેજો":13065,"▁રસોઈ":13066,"▁કઠોળ":13067,"જસ્ટ":13068,"▁ભ્ર":13069,"સેવા":13070,"▁ઘાસ":13071,"▁વોલ":13072,"▁પંચને":13073,"▁હુમલાને":13074,"▁પ્લાનમાં":13075,"▁ઓછુ":13076,"▁અનુભવશો":13077,"▁એફડી":13078,"▁બાળકનું":13079,"▁કેસોની":13080,"▁વેસ્ટર્ન":13081,"▁ડ્રાઇવિંગ":13082,"ન્યૂ":13083,"બ્રો":13084,"ભ્રમણ":13085,"ાવતો":13086,"▁જોડીને":13087,"વિવાદ":13088,"▁ઇન્દ્ર":13089,"ર્સનો":13090,"▁જવાને":13091,"▁તંત્રએ":13092,"▁સમસ્યાનું":13093,"▁યુનિય":13094,"▁મંદિરોમાં":13095,"▁ખેલાડીઓએ":13096,"▁બંગાળી":13097,"▁ભેજ":13098,"ધુનિક":13099,"▁મોટરસ":13100,"▁દોડતી":13101,"▁જણાઈ":13102,"▁લાગણીઓ":13103,"▁સાંભળ્યું":13104,"▁પરિણીત":13105,"▁વસૂલવામાં":13106,"▁રોમેન્ટિક":13107,"ગને":13108,"લન્સ":13109,"વંશ":13110,"▁આરાધ":13111,"▁ડ્યુઅલ":13112,"▁મોહિત":13113,"▁ડિસ્ટ્ર":13114,"▁વાંચવું":13115,"▁બિપરજોય":13116,"▁પતિના":13117,"▁મનપસંદ":13118,"▁બાબતોના":13119,"▁હરદીપ":13120,"▁આડેધડ":13121,"▁હંગામો":13122,"▁અભિવ્ય":13123,"ફિલ":13124,"▁આબો":13125,"▁અર્ચના":13126,"▁થાળી":13127,"▁રામે":13128,"▁ટૂર":13129,"▁નાસભા":13130,"▁મોઇ":13131,"ડાતા":13132,"શનિ":13133,"▁ફોનની":13134,"▁બુટલે":13135,"▁સુરક્ષાને":13136,"▁અર્થમાં":13137,"▁ઈન્ફો":13138,"▁વગેરેનો":13139,"▁મિત્રની":13140,"▁કમિશનરે":13141,"▁સમાજને":13142,"▁મોડું":13143,"▁ઇજાઓ":13144,"ઠ્ઠ":13145,"▁મોકલા":13146,"▁અંધકાર":13147,"▁સંજોગો":13148,"▁માધવ":13149,"▁આભારી":13150,"▁પ્રોફાઇલ":13151,"▁વાટાઘા":13152,"▁પ્રતિબિં":13153,"ડબલ્યુ":13154,"દત્ત":13155,"૭૬":13156,"ર્જન્સી":13157,"▁હતારા":13158,"▁કોન્સ":13159,"▁લેતો":13160,"▁મીરા":13161,"▁જનસભા":13162,"▁વૃશ્ચિક":13163,"▁દર્શના":13164,"▁ગરમીથી":13165,"▁ગર્ભગૃહ":13166,"▁ખુબજ":13167,"▁કચેરીમાં":13168,"▁ગોઠવવામાં":13169,"▁પોરબંદ":13170,"એન્":13171,"▁સમ્રા":13172,"▁મેજર":13173,"▁સેવિંગ":13174,"▁રાખીએ":13175,"▁રેસલ":13176,"▁વીસ":13177,"▁પ્રોટો":13178,"▁લાગતો":13179,"▁પ્રતિભાવ":13180,"▁મંજુર":13181,"▁ક્રિકેટના":13182,"▁નિષ્ક્રિય":13183,"▁વસ્તુઓની":13184,"▁આઇફોન":13185,"▁સ્કૂલો":13186,"▁ફ્લાઇ":13187,"▁લિસ્ટિંગ":13188,"▁સંદેશો":13189,"▁વડીલોની":13190,"▁કક્ષાએ":13191,"▁શરણાર્થી":13192,"▁એન્ટરપ્રાઇ":13193,"▁સમ્માન":13194,"ગિ":13195,"તપાસ":13196,"બને":13197,"તાઈ":13198,"▁કોથ":13199,"▁કોપ":13200,"▁મેમ્બર":13201,"▁જાઉં":13202,"▁બેઠી":13203,"▁રાશિદ":13204,"▁સારુ":13205,"▁ગેમ્સમાં":13206,"▁શિષ્ય":13207,"▁ઇન્ડિયન્સ":13208,"▁૬૬":13209,"ભર્યું":13210,"▁ડિઝાઇ":13211,"▁બીએસઇ":13212,"હૂદી":13213,"▁સત્સંગ":13214,"▁ફસાયા":13215,"રેન્સિક":13216,"સંહ":13217,"યુર":13218,"▁નિફટી":13219,"▁વિવાદને":13220,"▁મિમી":13221,"▁ભોલે":13222,"પુરામાં":13223,"▁પૃથ્વીની":13224,"▁નીપજ્યા":13225,"▁અસાધારણ":13226,"▁હેરાફેરી":13227,"▁વિશ્વામિત્રી":13228,"ઝબુ":13229,"૩૯":13230,"▁અતી":13231,"▁હજ":13232,"▁શ્યામ":13233,"▁કેબલ":13234,"સ્કી":13235,"▁ફૈ":13236,"▁રાતો":13237,"▁સ્તન":13238,"▁પૂરના":13239,"▁જયશંકરે":13240,"▁એરલાઈ":13241,"▁નિકળ":13242,"▁૨૦૧૮માં":13243,"▁વ્હાઈટ":13244,"જામનગર":13245,"▁ગાર્ડન":13246,"મ્પેક્ટ":13247,"▁ધમાકેદાર":13248,"▁યથાવત્":13249,"ધપુર":13250,"પટ્ટ":13251,"▁ઉથલ":13252,"▁મોડમાં":13253,"▁રોશની":13254,"ભાષા":13255,"▁રૂ૯":13256,"▁કેન્દ્રના":13257,"નિયાના":13258,"▁બજારની":13259,"▁બદલવાની":13260,"▁ચોરીની":13261,"▁મૌર્ય":13262,"▁જમણા":13263,"હાઇડ્રે":13264,"▁સુપ્રિમ":13265,"▁લંડનમાં":13266,"▁પ્રદર્શિત":13267,"લિયર":13268,"▁માળા":13269,"▁ખનિ":13270,"ગીય":13271,"▁ગાંધીધામ":13272,"▁ચાલવા":13273,"▁શાસ્ત્રો":13274,"▁નવાઝ":13275,"એમસી":13276,"▁મુલાયમ":13277,"ફ્રેશ":13278,"▁એક્સેસ":13279,"▁ભાષાના":13280,"▁કિંમતો":13281,"▁એન્ટીઑકિસડન્ટ":13282,"▁ચૂકવવો":13283,"▁ખંડણી":13284,"▁ઉધરસ":13285,"▁ધોવાણ":13286,"▁જરૃરી":13287,"વસ":13288,"નાથી":13289,"▁નલિયા":13290,"▁શિર":13291,"ંગાળ":13292,"▁ટયુ":13293,"▁અર્જુ":13294,"▁નેટફ્લિક":13295,"▁સર્વેક્ષણ":13296,"કોંગ્રેસે":13297,"▁ઉત્તરાખંડમાં":13298,"▁પ્રિન્સિ":13299,"નોલોજીના":13300,"▁ક્રાંતિકારી":13301,"▁દત્તા":13302,"▁ગટર":13303,"મેં":13304,"▁પાળ":13305,"▁હોઈએ":13306,"▁ધંધ":13307,"▁તમાકુ":13308,"▁લેક":13309,"▁દીવાલ":13310,"▁કેસને":13311,"▁સમિતિમાં":13312,"▁હોસ્પિટલોમાં":13313,"▁કાર્ડિયો":13314,"▁શુભકામના":13315,"▁પ્રોજેકટ":13316,"▁તુલના":13317,"દિપ":13318,"▁મિડલ":13319,"▁ફાઇનાન્સિયલ":13320,"શીએ":13321,"▁ચક્કર":13322,"રોગ્ય":13323,"▁બેરલ":13324,"▁ઈશાન":13325,"▁પૂણે":13326,"▁આવેદન":13327,"▁ખાસ્":13328,"▁સ્વદેશી":13329,"▁અવશ્ય":13330,"▁ચિંતામાં":13331,"▁છેસૌ":13332,"▁પૂર્વો":13333,"ભિષેક":13334,"▁અવિરત":13335,"▁રિલિઝ":13336,"▁ધુમ્મસ":13337,"▁બમણી":13338,"હેલ":13339,"લેરિયા":13340,"▁ગુફા":13341,"▁કાર્યસ્થળ":13342,"▁મહેમાનો":13343,"▁ત્રણથી":13344,"▁ગાજવીજ":13345,"▁પિતાનું":13346,"▁પરીક્ષાના":13347,"▁ફાઈટર":13348,"▁બતાવ્યું":13349,"▁ખુલશે":13350,"હરિયાણા":13351,"▁છેસુ":13352,"▁મટ":13353,"▁બૉ":13354,"વેન્શન":13355,"▁ક્રિઝ":13356,"▁યંત્ર":13357,"▁જગ્યામાં":13358,"▁પાછળની":13359,"▁અકસ્માતના":13360,"▁બેન્કના":13361,"▁ટાઇગર":13362,"રેટિવ":13363,"▁ખીલ":13364,"▁ઇચ્છતા":13365,"▁ગવર્ન":13366,"▁ઓડિટ":13367,"▁સ્વામિનારાયણ":13368,"જળ":13369,"તરની":13370,"મં":13371,"વામા":13372,"▁હબ":13373,"▁કોઠ":13374,"દાને":13375,"વિષ્ટ":13376,"લિતા":13377,"ભાઈના":13378,"▁ભૂગર્":13379,"▁ક્રૂર":13380,"▁જનજાતિ":13381,"▁સેનામાં":13382,"▁બાંગ્લાદેશની":13383,"▁ફુટ":13384,"▁સિદ્ધાંત":13385,"▁હિતમાં":13386,"▁સ્વભાવમાં":13387,"▁સ્ટ્રાઈક":13388,"ધૂમ":13389,"▁આસાન":13390,"▁છેગુજરાતમાં":13391,"▁મ્યાન":13392,"▁લથ":13393,"▁એલ્":13394,"▁બેલેટ":13395,"▁મીની":13396,"▁લઈએ":13397,"્રોલમાં":13398,"ખાને":13399,"▁ક્રિમ":13400,"▁ડીકે":13401,"▁મહારાષ્ટ્રની":13402,"▁કેનેડાની":13403,"▁વરસે":13404,"▁પૈકીના":13405,"▁છત્તીસગઢના":13406,"▁છરી":13407,"▁જંતુ":13408,"ક્ચ":13409,"િયાનો":13410,"▁મળ્યુ":13411,"▁ખાધ":13412,"▁બીજુ":13413,"▁પીવું":13414,"હાના":13415,"ડ્ડા":13416,"લ્સમાં":13417,"હિની":13418,"▁સૂરજ":13419,"▁શીખી":13420,"▁પાર્ટન":13421,"▁શૈલેષ":13422,"ચિંત":13423,"▁પીછેહ":13424,"▁વાટાઘાટો":13425,"અહીં":13426,"ડિયમ":13427,"▁પાયો":13428,"▁આંત":13429,"નીતિક":13430,"▁રક":13431,"▁ઉડાવી":13432,"ાવતાં":13433,"▁ઈબ્રા":13434,"▁નોમિ":13435,"▁ટકાઉ":13436,"▁મળેલ":13437,"▁યહૂદી":13438,"▁ગેંગના":13439,"ગોલિક":13440,"▁ગંભી":13441,"▁પ્લેઈંગ":13442,"▁અધિકારીના":13443,"▁આદેશને":13444,"▁સૂત્રોનું":13445,"▁બીમારીઓ":13446,"▁જામનગરમાં":13447,"▁હાય":13448,"િયુ":13449,"▁નેચરલ":13450,"▁કિનારા":13451,"▁મૂર્":13452,"▁એસયુ":13453,"▁વિચારસર":13454,"▁નાખવા":13455,"▁જોખમો":13456,"એફના":13457,"▁૨૦૨૩૨૪":13458,"▁બ્રિટનના":13459,"▁મૂલ્યો":13460,"▁પેટ્રોલિયમ":13461,"▁દુઃખી":13462,"▁વચનો":13463,"▁કેન્સલ":13464,"▁વાલીઓ":13465,"▁શ્રદ્ધાળુઓ":13466,"▁આર્યન":13467,"▁પ્રણાલી":13468,"▁ફોર્મ્યુલા":13469,"▁સવારી":13470,"▁બરોડા":13471,"▁કરના":13472,"▁શાલ":13473,"▁એકસ":13474,"▁સમજો":13475,"▁હેક":13476,"▁અવસ્થામાં":13477,"▁ઈન્વેસ્ટમેન્ટ":13478,"▁કેપ્ટનશિપ":13479,"▁કરાવીને":13480,"▁ગરમીના":13481,"▁હળવી":13482,"▁યુપીઆઈ":13483,"▁મિસાઈ":13484,"▁કૈલાશ":13485,"▁વેક્સિન":13486,"▁વસુ":13487,"▁લટક":13488,"▁એકલી":13489,"▁હોલી":13490,"▁ધનુ":13491,"▁ધકેલી":13492,"▁બેચે":13493,"▁રહેતું":13494,"▁પૂછી":13495,"▁છોઆ":13496,"▁મિર્":13497,"▁સંપન્ન":13498,"▁શિક્ષિકા":13499,"▁મંગલ":13500,"▁મિલિ":13501,"▁કંઈપણ":13502,"▁ઘટશે":13503,"▁ઈંચથી":13504,"▁મહત્ત્વના":13505,"▁ઠાકરેએ":13506,"▁ન્યાયાધીશો":13507,"▁ગર્લફ્રેન્ડ":13508,"▁બ્યુરો":13509,"કાઉન્ટર":13510,"કૂટ":13511,"જ્યાં":13512,"વાયેલો":13513,"▁આશ્વાસ":13514,"▁શ્લો":13515,"િક્ટ":13516,"▁થ્ર":13517,"કેલ":13518,"સેવક":13519,"જાની":13520,"▁સીઆરપી":13521,"ત્વનું":13522,"▁દાસે":13523,"▁વિરુધ્ધ":13524,"▁ટ્રસ્ટી":13525,"▁બોયફ્રેન્ડ":13526,"▁ડીએમકે":13527,"▁ઠાકુરે":13528,"▁લદ્દાખ":13529,"▁જગા":13530,"▁પ્રવીણ":13531,"▁રહીશ":13532,"▁રિચાર્જ":13533,"▁૪૯":13534,"▁છેઅહીં":13535,"▁જુલાઈમાં":13536,"▁આંખોમાં":13537,"▁અપડેટ્સ":13538,"▁મગફળી":13539,"▁કષ્ટ":13540,"▁મજુ":13541,"▁નડ":13542,"▁હોતો":13543,"▁મેળા":13544,"સાઇઝ":13545,"▁વેતન":13546,"રનાં":13547,"▁પહોંચેલા":13548,"▁ડોર":13549,"▁ડ્રિ":13550,"▁લડ્યા":13551,"▁બિઝનેસમેન":13552,"ચકિત":13553,"▁સીતારમણે":13554,"▁નિવાસસ્થાને":13555,"▁ઇન્સ્યુલિન":13556,"▁મયંક":13557,"ણવાળા":13558,"શ્યામ":13559,"ુદ્દીન":13560,"૩૪":13561,"▁કોન્ટે":13562,"વિટ":13563,"▁સર્વા":13564,"▁સીરિયા":13565,"▁રૂપિયો":13566,"▁યાત્ર":13567,"▁વિશ્વભરના":13568,"▁પાર્વતી":13569,"▁કબૂલ":13570,"સ્ટ્રાર":13571,"▁સાર્વજનિક":13572,"▁ટોળકી":13573,"▁સોગંદના":13574,"▁પ્રોટેક્શન":13575,"ધ્વ":13576,"ભવી":13577,"▁લક":13578,"▁ગાયો":13579,"નોવેશન":13580,"▁ડામ":13581,"▁એકપણ":13582,"▁રીલિઝ":13583,"▁ધરમ":13584,"▁યાર્":13585,"▁ટ્રાય":13586,"▁ટ્રમ્પે":13587,"▁અનુભૂતિ":13588,"▁વિકાસમાં":13589,"▁સમજણ":13590,"▁કિંમતની":13591,"▁મોટાભાગનો":13592,"િશિયન":13593,"▁સૂચનો":13594,"▁લોહીમાં":13595,"▁ગાડીઓ":13596,"▁પરિણીતી":13597,"▁મચાવ્યો":13598,"▁સીબીઆઈએ":13599,"▁સિસોદિયા":13600,"▁પેનલ્ટી":13601,"▁મૂંઝવણ":13602,"▁ઈન્સ્ટિટ":13603,"▁સચિવાલ":13604,"▁સેટલમેન્ટ":13605,"બુલ":13606,"રાનો":13607,"▁પરમિટ":13608,"▁અનિયમિત":13609,"▁પહેરે":13610,"▁સ્ટાલ":13611,"▁હાથમાંથી":13612,"▁મહિનાઓ":13613,"▁માતાનું":13614,"▁શાહરુખ":13615,"▁દબાવી":13616,"▁પ્લેટફોર્":13617,"▁છૂટક":13618,"▁જાતિના":13619,"▁ક્વોલિફાય":13620,"ફાદ":13621,"▁સક":13622,"▁છેઅમદાવાદ":13623,"▁વ્લા":13624,"▁ફફ":13625,"▁કોસ્":13626,"ાવવી":13627,"▁નોઈ":13628,"▁અનુવાદીત":13629,"▁અરસામાં":13630,"▁વિશ્વનાથ":13631,"▁સિવાયના":13632,"૫૦ના":13633,"પ્રદાયિક":13634,"▁શોભાયાત્રા":13635,"▁સ્નાતક":13636,"મનું":13637,"વવો":13638,"▁તન":13639,"▁ગાર્":13640,"▁સાઇડ":13641,"સાઉ":13642,"▁રાશિથી":13643,"▁એમએલ":13644,"▁વિશ્વક":13645,"▁ડાયેટ":13646,"▁આંકડાઓ":13647,"▁નાયક":13648,"▁હાઉસમાં":13649,"▁દાયકાથી":13650,"▁છેવિશ્વ":13651,"▁તમિલનાડુના":13652,"▁છેહાલમાં":13653,"▁બ્રાન્ચે":13654,"ચનમાં":13655,"સતા":13656,"ૃં":13657,"▁છેની":13658,"▁છેલોકસભા":13659,"િયેર":13660,"▁લાવીને":13661,"▁રિફ્રેશ":13662,"▁ફર્યો":13663,"▁જીત્યું":13664,"▁પ્રસરી":13665,"▁વ્યવસ્થાને":13666,"▁વકીલો":13667,"▁સ્ટાફને":13668,"▁આંખમાં":13669,"▁તેટલા":13670,"▁ભૌગોલિક":13671,"પ્લસ":13672,"▁દાવેદાર":13673,"ગરાજ":13674,"ફ્યુ":13675,"▁છેપોલીસે":13676,"▁ગંધ":13677,"▁વિખ":13678,"▁સ્વે":13679,"▁ટક":13680,"હીર":13681,"▁વાજ":13682,"શ્નર":13683,"▁નિવાસી":13684,"▁સિન્ડ":13685,"▁નેગેટિવ":13686,"▁અભૂત":13687,"▁મહિલાનું":13688,"નીયર":13689,"▁પ્રાધાન્ય":13690,"ધોરણ":13691,"▁બેન્કે":13692,"▁કાંઠે":13693,"▁ઐયર":13694,"▁ગ્રૂપના":13695,"▁અશક્ય":13696,"▁કોરિડોર":13697,"▁સિલસિ":13698,"ંકો":13699,"▁આવવાનો":13700,"▁સેતુ":13701,"▁ખાઇ":13702,"▁શ્રીનગર":13703,"સરકારે":13704,"▁એમએ":13705,"▁ખૂણે":13706,"▁દાઉ":13707,"▁સૂક્ષ્મ":13708,"્યૂટી":13709,"▁વળાંક":13710,"▁ચોરીના":13711,"▁ઉમેરવામાં":13712,"▁પ્રોસેસર":13713,"અપક્ષ":13714,"ફિ":13715,"▁પરાગ":13716,"▁આતિ":13717,"▁નરોડા":13718,"રોલી":13719,"▁ધારી":13720,"▁કરોઆ":13721,"▁માર્ક્સ":13722,"લ્સને":13723,"▁કલાકોમાં":13724,"▁વળતો":13725,"સૂત્ર":13726,"▁જવાનોને":13727,"▁પેટ્રોલિંગ":13728,"▁સૂચિત":13729,"▁અભૂતપૂર્વ":13730,"્રપાન":13731,"▁રમણ":13732,"ટીમ":13733,"▁ખાતેના":13734,"▁કુમારી":13735,"▁પ્રથમવાર":13736,"રિફ":13737,"▁પાડવાની":13738,"▁પાડવાનો":13739,"▁નિકટ":13740,"▁છેમળતી":13741,"▁વ્યવહારિક":13742,"▁ઈલેક્ટ્રિક":13743,"▁ગોરખ":13744,"ફાલ":13745,"▁છાલ":13746,"▁એટીએસ":13747,"▁તેણીને":13748,"▁ગળ":13749,"▁ગયેલો":13750,"▁ઈમે":13751,"ષ્ટી":13752,"▁સમાવિષ્ટ":13753,"▁મહેમા":13754,"▁રમતમાં":13755,"▁નિયમોમાં":13756,"▁ફોર્મમાં":13757,"▁દેઓલ":13758,"▁સ્ક્રિપ્ટ":13759,"નેર":13760,"▁મલેશ":13761,"▁થાંભ":13762,"ક્વાર્ટ":13763,"કાસ્ટ":13764,"▁જોન":13765,"▁સોજો":13766,"▁પરિભ્રમણ":13767,"▁શિશુ":13768,"▁મધ્યમાં":13769,"▁રહેલાં":13770,"▁પુત્રની":13771,"▁નિકોલ":13772,"▁કૌર":13773,"▁વિશેષતા":13774,"▁જંગલો":13775,"▁જુલાઈથી":13776,"▁બતાવવા":13777,"▁પવારની":13778,"▁અમૃતપાલ":13779,"▁મીટરની":13780,"▁સીબીઆઇ":13781,"▁લેફ્ટનન્ટ":13782,"▁ઓસ્ટ્રેલિયન":13783,"શથી":13784,"િર્":13785,"▁સિત":13786,"ટેન્શન":13787,"▁હોલમાં":13788,"▁રોવર":13789,"▁ડિફોલ્ટ":13790,"▁દેશભરના":13791,"મુખી":13792,"▁બનેલો":13793,"લ્સના":13794,"▁ઘરનો":13795,"▁૨૦૧૭માં":13796,"▁પવનની":13797,"▁આયર્લેન્ડ":13798,"▁ભેળવી":13799,"▁આરજેડી":13800,"▁અડચણ":13801,"▁હૉસ્પિટ":13802,"▁ખરો":13803,"▁ઉપદેશ":13804,"▁ઝંપ":13805,"▁દેશવિ":13806,"▁આરોપીના":13807,"▁અલગથી":13808,"ગોપાલ":13809,"▁જોડાશે":13810,"▁એક્સિસ":13811,"▁ઊંચું":13812,"સંબંધ":13813,"▁ચોમાસુ":13814,"▁પરિષદમાં":13815,"▁જવાહરલાલ":13816,"▁સુઝુકી":13817,"ઝાર":13818,"દરી":13819,"૬૬":13820,"▁જર્ન":13821,"▁યુસુફ":13822,"▁રેલીને":13823,"▁સર્જી":13824,"▁ફોરેન્સિક":13825,"▁ક્રિએ":13826,"▁લખેલા":13827,"▁આઈસી":13828,"▁કિસ્સાઓ":13829,"▁દળોએ":13830,"▁સ્મરણ":13831,"▁ડોમેસ્ટિક":13832,"▁વાવાઝોડું":13833,"ટનું":13834,"▁વફાદ":13835,"▁નજી":13836,"લીલા":13837,"▁બેટર":13838,"દીની":13839,"▁સિગારે":13840,"▁રેક":13841,"▁મહેસ":13842,"▁ઉમેરી":13843,"િક્ષામાં":13844,"▁અદ્ય":13845,"▁વાનખેડે":13846,"▁સમારકામ":13847,"સત્તાક":13848,"▁ઘાયલોને":13849,"▁તપા":13850,"▁કરંટ":13851,"▁ઉપકરણ":13852,"પાઠી":13853,"▁બનવાનું":13854,"▁કિસ":13855,"▁અનુભવાયા":13856,"▁ડાબેરી":13857,"▁ઢાં":13858,"▁પૃથ્વીના":13859,"▁સ્વરૂપમાં":13860,"▁ચેન્નઇ":13861,"▁રહસ્યમય":13862,"▁કમોસમી":13863,"આતો":13864,"પારી":13865,"હર્ષ":13866,"▁હસ્તે":13867,"▁ગટ":13868,"ંગની":13869,"▁૧૨૦":13870,"▁સીમમાં":13871,"▁વીડિયોને":13872,"▁જાળવો":13873,"▁મોટુ":13874,"▁ગુનાઓ":13875,"પ્રતિષ્ઠા":13876,"▁ગુપ્તાએ":13877,"▁સબ્":13878,"ર્કો":13879,"▁દશે":13880,"▁ગળું":13881,"▁પ્રીત":13882,"▁થર્ડ":13883,"▁થાઇ":13884,"▁આપીએ":13885,"ામ્":13886,"વિંદર":13887,"▁સેન્ડ":13888,"▁ક્રિસ્ટ":13889,"▁હત્યામાં":13890,"▁એકાગ્ર":13891,"▁ઉછળી":13892,"▁દ્રઢ":13893,"▁નડ્ડા":13894,"▁હાસ્ય":13895,"▁અવરોધો":13896,"બિલિટી":13897,"યલે":13898,"▁કાસ":13899,"▁પસ્તા":13900,"▁છિ":13901,"▁લડે":13902,"ન્હ":13903,"▁મેય":13904,"લોકો":13905,"▁અભય":13906,"▁લાખનું":13907,"▁ક્રુડ":13908,"▁નાગરિકોના":13909,"▁સ્ક્રી":13910,"▁એરલાઇ":13911,"▁ઉકેલવામાં":13912,"▁પામ્યો":13913,"▁ગુનેગાર":13914,"▁આતુરતાથી":13915,"▁મારુતિ":13916,"▁પૂરેપૂ":13917,"▁સામ્રાજ્ય":13918,"તમારી":13919,"▁લેવાઈ":13920,"સોસ":13921,"▁ભાવેશ":13922,"▁વિશ્વનું":13923,"▁બેઠકની":13924,"▁યાર્ડ":13925,"▁સોનાક્ષી":13926,"▁સંસ્થાઓમાં":13927,"▁વાતાવરણને":13928,"▁જોડાવા":13929,"▁ભવિષ્યની":13930,"▁કરનારાઓ":13931,"▁ભાવનગરમાં":13932,"▁મોબાઇ":13933,"▁બ્રહ્મા":13934,"▁એનસીપીના":13935,"▁મહુઆ":13936,"તુર":13937,"રીતે":13938,"▁થયેલું":13939,"▁ઉચા":13940,"▁આવુ":13941,"▁સ્લો":13942,"▁પૂજારી":13943,"▁લીવ":13944,"▁ગામો":13945,"▁અર્બન":13946,"▁ખરીદવામાં":13947,"▁ભૂલથી":13948,"▁ફ્લેગ":13949,"▁ગાળાના":13950,"વાલાએ":13951,"▁કનુ":13952,"▁કેલિ":13953,"▁માધુ":13954,"▁ભડક":13955,"▁ચાઈ":13956,"▁ખસી":13957,"▁ખિતા":13958,"▁કોટા":13959,"કોટમાં":13960,"▁કારનો":13961,"જાનો":13962,"▁ઈજનેર":13963,"બેનને":13964,"▁૫૯":13965,"▁એનજી":13966,"▁કૃષ્ણા":13967,"આઇડી":13968,"▁કેનેડિયન":13969,"▁મહેનતનું":13970,"▁મુંબઇમાં":13971,"વેટિવ":13972,"▁તમિલનાડુમાં":13973,"▁કાબુમાં":13974,"▁બુલડોઝર":13975,"▁કમલનાથ":13976,"▁બઘે":13977,"ંગત":13978,"▁સ્માર":13979,"▁ઈનામ":13980,"▁ટેવ":13981,"▁કરોડમાં":13982,"▁ડેમમાં":13983,"▁ભાગની":13984,"▁ખરીદે":13985,"▁અભિનેતાએ":13986,"▁ઉંવ":13987,"▁અંકિત":13988,"▁નાગપુર":13989,"▁રજુઆત":13990,"▁સરોવર":13991,"પર્સન":13992,"ચિન":13993,"યાબી":13994,"▁ભટ":13995,"▁સ્મિ":13996,"▁જેત":13997,"ંટો":13998,"▁શ્રીમતી":13999,"▁નોંધાઇ":14000,"▁પીવાનું":14001,"▁બદલાય":14002,"▁નેતાને":14003,"▁સંચાલકો":14004,"▁કહેવાતા":14005,"▁ઇનિંગમાં":14006,"▁ઉપાધ્યક્ષ":14007,"▁આરોપોને":14008,"▁અફવાઓ":14009,"▁ઇઝરાયેલના":14010,"▁ભાષણમાં":14011,"▁અમ્પ":14012,"▁ગ્રેડ":14013,"તીઓ":14014,"▁વાંસ":14015,"્સનો":14016,"▁એમનું":14017,"▁બિલા":14018,"▁૫૧":14019,"▁નિષ્પક્ષ":14020,"િટીવ":14021,"▁પ્રશાસન":14022,"▁આયુષ":14023,"▁પેઢીના":14024,"▁પુતિને":14025,"▁મહીસાગર":14026,"▁ટેલિવિઝન":14027,"▁ઇશ્યૂ":14028,"પોરબંદર":14029,"ડકર":14030,"કોટા":14031,"સાલી":14032,"▁કહેશે":14033,"▁રિચ":14034,"શ્રીએ":14035,"▁માંગવામાં":14036,"▁સુધારી":14037,"▁પ્લેઇંગ":14038,"▁મનપા":14039,"▁મંત્રણા":14040,"▁મૂક્યા":14041,"▁રેલવેના":14042,"▁રોહિતે":14043,"વર્ત":14044,"▁ભુવને":14045,"▁દરિયાકાંઠા":14046,"▁ક્લબ":14047,"▁ઓટોમેટિક":14048,"▁કમ્પ્યુટર":14049,"▁શુક્લ":14050,"▁વાયનાડ":14051,"ભજન":14052,"વાઇડ":14053,"▁અથા":14054,"ાદ્ધ":14055,"▁રહેવાના":14056,"સામાન":14057,"નિર્મા":14058,"▁કિરણો":14059,"▁એમપી":14060,"▁સહારો":14061,"▁વાયદો":14062,"▁અસહ્ય":14063,"▁ફાસ્ટે":14064,"▁જસ્ટિન":14065,"▁એડવાઈઝ":14066,"▁લશ્કર":14067,"▁ઠંડક":14068,"▁ડ્રામા":14069,"ઈન્":14070,"ખાં":14071,"▁શર્ટ":14072,"▁માહિત":14073,"દાબાદ":14074,"▁પેઢ":14075,"ત્રાએ":14076,"▁વ્યવસ્થામાં":14077,"▁આતંકવાદીઓએ":14078,"▁રાઉન્ડમાં":14079,"▁ઈઝરાયેલે":14080,"▁અસ્તિત્વમાં":14081,"▁પાઈપ":14082,"ઘી":14083,"રર":14084,"વૃત્તિ":14085,"▁પ્રાંત":14086,"ાવન":14087,"▁સંસાધ":14088,"▁હોર્ડ":14089,"સ્ટમાં":14090,"વિભાગ":14091,"▁ટીપી":14092,"▁મહિસાગર":14093,"ગોર":14094,"▁કાઢ્યું":14095,"▁એલર્જી":14096,"▁કાયદાના":14097,"▁ટાસ્ક":14098,"▁સિસ્ટમને":14099,"વાહિક":14100,"▁આશ્ચર્યચકિત":14101,"▁કઠોર":14102,"▁સેમસન":14103,"માર્કેટ":14104,"▁દૂતાવાસ":14105,"ંજી":14106,"્કી":14107,"▁ક્રા":14108,"▁જીતા":14109,"▁પહોંચવાની":14110,"મિયો":14111,"▁નેતાની":14112,"▁સ્વાર્થ":14113,"▁૫૩":14114,"આરએસ":14115,"▁વૃત્તિ":14116,"▁સ્તરને":14117,"▁ઉકેલવા":14118,"▁ઉદ્યોગના":14119,"▁વાળને":14120,"▁ખોદકામ":14121,"▁સગર્ભા":14122,"હમાસ":14123,"▁ભણે":14124,"રેન્ટ":14125,"▁જાટ":14126,"▁એવાં":14127,"▁ઇન્સ્પેક્ટર":14128,"▁યોગેશ":14129,"▁છેઅમે":14130,"ધારકો":14131,"▁વિપક્ષે":14132,"▁સ્પર્ધ":14133,"▁ગૌરી":14134,"▁લડત":14135,"▁ઓસ્ટ્રેલિયાએ":14136,"▁આપોઆપ":14137,"▁લગાડી":14138,"▁રમખાણો":14139,"▁આશ્વાસન":14140,"▁જિલ્લો":14141,"▁મફ":14142,"▁ભાં":14143,"▁મોઈ":14144,"▁સંપતિ":14145,"▁વધતું":14146,"પોન્સ":14147,"▁ટીઝર":14148,"▁અંશ":14149,"▁સમસ્યાઓને":14150,"▁કમિટીની":14151,"▁દુનિયાભરના":14152,"▁એજન્સીના":14153,"▁મુસાફરોની":14154,"▁ફેબ્રુઆરીમાં":14155,"▁સદીના":14156,"▁મોરચો":14157,"▁નબળો":14158,"▁હૈદરાબાદમાં":14159,"▁મૈત્રી":14160,"▁કાપીને":14161,"▁ઇન્સ્યોરન્સ":14162,"▁સુત્રોએ":14163,"▁રાજદૂત":14164,"▁મજૂર":14165,"▁થ્રો":14166,"મેશ":14167,"▁પાંખ":14168,"▁રોમા":14169,"▁ખાડી":14170,"▁સ્ટડી":14171,"▁રાજ્યનો":14172,"▁હોસ્પિટલો":14173,"▁સમસ્યાઓના":14174,"▁રાજ્યોને":14175,"▁૯૫":14176,"▁રાજસ્થાનની":14177,"▁ક્લાર્ક":14178,"▁સરહદે":14179,"▁સ્ટ્રોક":14180,"▁સમ્રાટ":14181,"અયોધ્યા":14182,"છવાયા":14183,"યકે":14184,"૨૦૦":14185,"▁સક્":14186,"વીન":14187,"▁રાષ્ટ":14188,"ાવટ":14189,"રોનું":14190,"▁નાકા":14191,"▁આપ્યુ":14192,"▁ઓરિ":14193,"▁ટીબી":14194,"આઈપી":14195,"▁નવજાત":14196,"▁ડાબી":14197,"▁સાતમી":14198,"▁ગ્રાન્ડ":14199,"▁સ્ટેશને":14200,"▁વસવાટ":14201,"▁ગેરમાર્ગે":14202,"▁મિત્રોને":14203,"▁હૃદયને":14204,"▁ઝાલા":14205,"▁બ્રિટનમાં":14206,"▁ઉનાળાની":14207,"▁ઓડિશાના":14208,"્યુનિટી":14209,"વિદ્ય":14210,"કચર":14211,"સથી":14212,"▁મસ્તી":14213,"▁વસે":14214,"▁ગાઇ":14215,"▁સાસ":14216,"▁ફ્લિ":14217,"▁ટેગ":14218,"પ્લિક":14219,"▁હાવી":14220,"▁મીઠી":14221,"▁મેળવો":14222,"▁જુદાં":14223,"▁૬૭":14224,"▁આયોજ":14225,"▁છેઅગાઉ":14226,"▁મરજી":14227,"▁ચક્રવર્તી":14228,"▁કોલકાતામાં":14229,"▁પહોંચાડવામાં":14230,"▁જાપાનના":14231,"▁છેઉત્તર":14232,"▁એથ્લે":14233,"▁એડમિનિ":14234,"રોકાણ":14235,"▁અદ્યતન":14236,"ટાલ":14237,"▁કણ":14238,"▁સપ":14239,"તાશા":14240,"▁ઉડ્":14241,"મ્સના":14242,"સોલ":14243,"▁દર્દ":14244,"▁સહભાગી":14245,"▁પાકને":14246,"▁જીતવામાં":14247,"▁૫૪":14248,"▁કાઢ્યો":14249,"▁ઇન્કાર":14250,"▁ઈન્સ્પેક્ટર":14251,"▁સબમરી":14252,"▁માલિકો":14253,"તેમજ":14254,"▁ઝોનના":14255,"વ્યાપી":14256,"▁મર્યાદામાં":14257,"▁બેન્ચમાર્ક":14258,"▁વિન્ડો":14259,"▁ફડણવી":14260,"▁શરમજનક":14261,"આરોપી":14262,"▁વાંદ":14263,"જેન્દ્ર":14264,"સોર્ટ":14265,"ધાનો":14266,"▁દીવો":14267,"▁ચોથો":14268,"▁ડોન":14269,"▁પાણીને":14270,"એસપી":14271,"▁ધરાવતું":14272,"▁પરીક્ષાઓ":14273,"▁એક્ટની":14274,"▁કાશ્મીરી":14275,"▁મુક્યો":14276,"▁ધારાસભ્યોએ":14277,"▁પ્રવાસીઓને":14278,"▁ઓળખાતા":14279,"▁પીપલ્સ":14280,"▁વેક્સીન":14281,"▁તબાહી":14282,"બાયો":14283,"બાઈલ":14284,"બત્તી":14285,"સરના":14286,"▁તીર":14287,"તાલ":14288,"▁પ્રસિ":14289,"▁ખરું":14290,"▁લોરેન્સ":14291,"ડાથી":14292,"▁મુકીને":14293,"▁ઈશા":14294,"▁જાણવું":14295,"▁વીવી":14296,"▁ઝીંકી":14297,"▁લૂંટી":14298,"▁રાજ્યસભાની":14299,"▁હટાવવાની":14300,"▁કેબિનેટમાં":14301,"▁ઇન્ડસ્ટ્રીઝ":14302,"વધ":14303,"▁જરાય":14304,"▁એલો":14305,"▁ગિલે":14306,"▁સાબુ":14307,"▁બેચ":14308,"▁મળવાનો":14309,"▁નિગ":14310,"િલિંગ":14311,"▁ગુજરાન":14312,"▁એનટી":14313,"▁લગ્નને":14314,"▁ઉંચાઈ":14315,"▁રોકાણકારોએ":14316,"▁વરસો":14317,"▁બાંધવામાં":14318,"▁મુકવા":14319,"▁આર્ટી":14320,"▁ઓફિસે":14321,"▁આરામદાયક":14322,"▁કૂચ":14323,"▁વર્કઆઉટ":14324,"▁કતારગામ":14325,"ઉમેદવારો":14326,"▁વાંધાજનક":14327,"▁બ્રાઝિલ":14328,"▁નિજ્જરની":14329,"▁પ્રવક્તાએ":14330,"ઝમ":14331,"ડમી":14332,"વમેન્ટ":14333,"▁મલ્ટ":14334,"▁બારો":14335,"▁કરજો":14336,"ેશો":14337,"▁લાડુ":14338,"▁નિઃ":14339,"▁આગવી":14340,"▁ફિલ્ડ":14341,"▁ત્યાંની":14342,"▁ઉમેદવારે":14343,"▁આઈસીસી":14344,"▁હત્યાકાંડ":14345,"▁મનમોહન":14346,"▁કમિશ્નર":14347,"▁વનસ્પતિ":14348,"▁અસંતોષ":14349,"▁યુનિવર્સિટીની":14350,"▁કિમીની":14351,"▁સર્વશ્રેષ્ઠ":14352,"▁તોડ્યો":14353,"▁રૃપિયાની":14354,"▁વિક્ષેપ":14355,"ચું":14356,"વત્":14357,"્યલ":14358,"▁અજી":14359,"▁અસદ":14360,"કાઇ":14361,"લેટર":14362,"જાજ":14363,"મ્મ":14364,"મીમેર":14365,"▁યુનિક":14366,"▁વેરો":14367,"▁શોટ":14368,"▁જુસ્":14369,"▁જૂનું":14370,"▁અવલોક":14371,"▁વારસો":14372,"▁પસંદગીની":14373,"જ્ઞાાની":14374,"▁દરિયાકાંઠે":14375,"▁ભરાયેલા":14376,"▁શ્રીલંકાના":14377,"▁ઓટોમો":14378,"▁પાટીલે":14379,"▁ધોનીએ":14380,"▁પોલિટ":14381,"શહેરના":14382,"▁પચાસ":14383,"▁જાવેદ":14384,"૮૮":14385,"▁કાળો":14386,"▁દશા":14387,"▁ચઢી":14388,"▁આવનારી":14389,"▁બેલ્ટ":14390,"▁સરકી":14391,"▁ખાધા":14392,"▁મોદીનું":14393,"▁ગોધરા":14394,"▁કર્ત":14395,"▁મંથ":14396,"▁મંદિરને":14397,"▁ઓક્ટોબરમાં":14398,"▁સ્કેન":14399,"▁બિલ્ડિંગમાં":14400,"▁સફરજન":14401,"▁ચિત્રો":14402,"▁ન્હો":14403,"ભવન":14404,"યશ":14405,"શબ્":14406,"શાંતિ":14407,"▁અખા":14408,"સેન્ટ":14409,"▁નીતા":14410,"▁વાંચતા":14411,"▁અરબી":14412,"પુટ":14413,"▁પ્રવૃતિ":14414,"▁ગેસ્ટ":14415,"▁થોડીક":14416,"▁સ્કૂલોમાં":14417,"▁વિનય":14418,"▁એમએસયુનિવર્સિટી":14419,"▁કોમ્પલે":14420,"▁ગુંડા":14421,"િગેશન":14422,"▁પિક્":14423,"વાડે":14424,"▁હચમ":14425,"▁કરાવો":14426,"▁એરો":14427,"▁ગયેલ":14428,"▁પ્રજ્":14429,"સ્થી":14430,"▁વિયે":14431,"▁સંધિ":14432,"તેરસ":14433,"▁બેથી":14434,"▁ઇટા":14435,"▁ખાઓ":14436,"▁પુખ્ત":14437,"▁આગલા":14438,"▁સ્ટુ":14439,"▁રિવા":14440,"▁શકાયું":14441,"▁રાષ્ટ્રવાદી":14442,"▁ભાઈને":14443,"ઝીટ":14444,"▁આવતીકાલ":14445,"▁પ્રતિબંધો":14446,"▁પ્રચારમાં":14447,"▁યુક્રેનમાં":14448,"▁લાગણીઓને":14449,"▁ચેરપર્સન":14450,"▁છત્રપતિ":14451,"▁ખિતાબ":14452,"▁તડકા":14453,"▁તેવુ":14454,"▁ખાવું":14455,"▁મોપેડ":14456,"ટીવી":14457,"જાણ":14458,"ટાવીને":14459,"રફાન":14460,"▁રિએ":14461,"પ્ટેમ્બર":14462,"તમંદ":14463,"▁આપેલ":14464,"▁મતદાનની":14465,"▁બંગલા":14466,"▁સૂર્યના":14467,"▁વસુલ":14468,"▁ઓસ્ટ્રેલિયાની":14469,"▁ત્રિપાઠી":14470,"▁સિવિલમાં":14471,"▁સહયોગથી":14472,"▁પ્રીતિ":14473,"▁બગડ":14474,"▁પેલેસ્ટાઇ":14475,"▁કન્નડ":14476,"▁જંકશન":14477,"ગટ":14478,"નીના":14479,"▁રતન":14480,"▁માહો":14481,"▁સ્મિત":14482,"▁ટાળી":14483,"▁મહંત":14484,"વિશ":14485,"▁અનુરોધ":14486,"▁જાનહાનિ":14487,"▁સુરક્ષામાં":14488,"▁યુદ્ધને":14489,"▁મથકો":14490,"▁વાતોમાં":14491,"▁ટેક્સી":14492,"▁એન્કાઉન્ટર":14493,"▁મહત્ત્વનું":14494,"▁સાંભળ્યા":14495,"▁સુધારણા":14496,"▁સાઈડ":14497,"▁જ્ઞાતિ":14498,"▁અવકાશયાત્રી":14499,"▁ઊંચાઈએ":14500,
[...]
