{"<pad>":0,"<cls>":1,"<sep>":2,"<mask>":3,"<unk>":4,"<bos>":5,"<eos>":6,"<user>":7,"<assistant>":8,"0":9,"1":10,"2":11,"3":12,"4":13,"5":14,"6":15,"7":16,"8":17,"9":18,"\n":19,"ઁ":20,"ં":21,"ઃ":22,"અ":23,"આ":24,"ઇ":25,"ઈ":26,"ઉ":27,"ઊ":28,"ઋ":29,"ઍ":30,"એ":31,"ઐ":32,"ઑ":33,"ઓ":34,"ઔ":35,"ક":36,"ખ":37,"ગ":38,"ઘ":39,"ઙ":40,"ચ":41,"છ":42,"જ":43,"ઝ":44,"ઞ":45,"ટ":46,"ઠ":47,"ડ":48,"ઢ":49,"ણ":50,"ત":51,"થ":52,"દ":53,"ધ":54,"ન":55,"પ":56,"ફ":57,"બ":58,"ભ":59,"મ":60,"ય":61,"ર":62,"લ":63,"ળ":64,"વ":65,"શ":66,"ષ":67,"સ":68,"હ":69,"઼":70,"ા":71,"િ":72,"ી":73,"ુ":74,"ૂ":75,"ૃ":76,"ૅ":77,"ે":78,"ૈ":79,"ૉ":80,"ો":81,"ૌ":82,"્":83,"ૐ":84,"ૠ":85,"૦":86,"૧":87,"૨":88,"૩":89,"૪":90,"૫":91,"૬":92,"૭":93,"૮":94,"૯":95,"▁":96,"▁ક":97,"મા":98,"▁પ":99,"▁સ":100,"્ય":101,"વા":102,"ને":103,"ના":104,"▁આ":105,"માં":106,"▁છ":107,"્ર":108,"▁જ":109,"▁છે":110,"▁ત":111,"▁અ":112,"ાર":113,"ની":114,"▁હ":115,"▁મ":116,"▁ર":117,"▁વ":118,"ું":119,"▁બ":120,"▁કર":121,"તા":122,"▁દ":123,"ર્":124,"▁તે":125,"▁લ":126,"▁કે":127,"▁ન":128,"▁એ":129,"▁અને":130,"થી":131,"▁શ":132,"▁ગ":133,"▁મા":134,"્ટ":135,"લા":136,"્યા":137,"વી":138,"રા":139,"યા":140,"▁પર":141,"▁હત":142,"▁ભ":143,"નો":144,"▁સા":145,"▁પ્ર":146,"▁ચ":147,"િક":148,"હે":149,"▁ફ":150,"▁થ":151,"ન્":152,"▁રા":153,"રી":154,"ટે":155,"ક્":156,"▁વિ":157,"▁આવ":158,"લ્":159,"વામાં":160,"ંગ":161,"લી":162,"સ્":163,"▁પણ":164,"ત્ર":165,"▁ખ":166,"્યું":167,"શે":168,"▁કો":169,"્યો":170,"▁જે":171,"ાવ":172,"મે":173,"▁કરી":174,"▁ઉ":175,"રે":176,"કો":177,"ાન":178,"િયા":179,"હી":180,"િત":181,"▁તેમ":182,"▁એક":183,"▁માટે":184,"▁જો":185,"ેશ":186,"ાય":187,"રો":188,"▁છે\n":189,"ણી":190,"▁પો":191,"▁આપ":192,"નું":193,"▁વા":194,"ણે":195,"િલ્":196,"▁મો":197,"યો":198,"કાર":199,"▁ટ":200,"▁સ્":201,"થે":202,"ધી":203,"કા":204,"તિ":205,"▁પા":206,"તી":207,"▁સં":208,"▁સુ":209,"▁લો":210,"▁સાથે":211,"▁ઘ":212,"▁હતી":213,"કે":214,"ત્":215,"▁બા":216,"▁રહ":217,"▁કાર":218,"લે":219,"્યાર":220,"▁ડ":221,"દી":222,"ંત":223,"▁મુ":224,"▁ના":225,"્યુ":226,"ક્ષ":227,"િવ":228,"ણા":229,"▁સમ":230,"▁હો":231,"▁રાજ":232,"ડી":233,"▁આવી":234,"્રે":235,"ામ":236,"તે":237,"વે":238,"▁હતા":239,"ાગ":240,"▁મળ":241,"▁ધ":242,"▁બે":243,"▁લોકો":244,"ાલ":245,"ંદ":246,"િય":247,"સે":248,"ીએ":249,"ડા":250,"સ્ટ":251,"▁ભાર":252,"▁કહ":253,"▁કરવામાં":254,"▁તો":255,"જી":256,"સા":257,"▁સર":258,"્યારે":259,"ાસ":260,"▁મહ":261,"▁હતો":262,"ંધ":263,"▁વધ":264,"ંત્ર":265,"ાજ":266,"▁વર્":267,"▁ઓ":268,"▁જા":269,"સી":270,"▁પોતા":271,"શ્":272,"ંચ":273,"▁કરવા":274,"▁નથી":275,"િલ્મ":276,"▁ગુ":277,"▁હતું":278,"ટી":279,"કી":280,"▁ફિલ્મ":281,"વિ":282,"લો":283,"યુ":284,"ારી":285,"જા":286,"્રી":287,"મી":288,"ાં":289,"▁સિ":290,"▁સરકાર":291,"નુ":292,"દ્":293,"▁નિ":294,"▁મે":295,"▁રો":296,"રૂ":297,"▁રહે":298,"જે":299,"ન્દ":300,"▁રહી":301,"ન્ટ":302,"વાર":303,"ણાવ":304,"▁ચૂ":305,"▁થઈ":306,"તો":307,"▁રહ્યા":308,"▁વર્ષ":309,"મ્":310,"▁માં":311,"ંટ":312,"▁પહે":313,"ભા":314,"▁કહ્યું":315,"▁આવે":316,"▁ઈ":317,"▁ઇ":318,"▁જણાવ":319,"▁બાદ":320,"માન":321,"ંતુ":322,"શન":323,"ષ્ટ":324,"પી":325,"▁પૂ":326,"▁પરંતુ":327,"્વા":328,"ન્ડ":329,"ચ્":330,"▁ને":331,"▁દર":332,"▁ઉપ":333,"રમાં":334,"વાની":335,"▁સ્થ":336,"▁તમા":337,"દેશ":338,"દા":339,"▁સુધી":340,"▁દેશ":341,"સ્ત":342,"ન્દ્ર":343,"્વારા":344,"રાત":345,"▁યુ":346,"▁સે":347,"▁લગ":348,"બા":349,"હીં":350,"▁કોઈ":351,"ંત્રી":352,"ર્ટ":353,"િંગ":354,"્રેસ":355,"▁દિવ":356,"▁સો":357,"ીડ":358,"િલ":359,"પ્ર":360,"િટ":361,"▁પાર":362,"▁મોદી":363,"હો":364,"▁ભારત":365,"ધાન":366,"▁દે":367,"▁લે":368,"ટા":369,"▁ચૂંટ":370,"▁સમય":371,"્યાં":372,"▁વધુ":373,"▁દ્વારા":374,"ાઈ":375,"▁બો":376,"▁ચૂંટણી":377,"▁જી":378,"ધા":379,"શા":380,"▁તેમણે":381,"ાજપ":382,"▁દી":383,"▁શકે":384,"વારે":385,"ારો":386,"▁વાત":387,"▁તેના":388,"ળી":389,"▁સી":390,"િયાન":391,"ક્ર":392,"▁રી":393,"▁ભાજપ":394,"ુલ":395,"▁ગુજ":396,"વું":397,"છી":398,"▁બના":399,"બર":400,"▁હોય":401,"રુ":402,"ન્સ":403,"▁સામે":404,"પો":405,"▁કોંગ":406,"ંક":407,"▁નો":408,"▁બી":409,"▁પહેલા":410,"▁લા":411,"▁કર્યો":412,"ચે":413,"પૂ":414,"સ્થ":415,"્ટી":416,"ોડ":417,"ેર":418,"▁વ્ય":419,"▁દરમ":420,"▁જ્યારે":421,"ઈએ":422,"▁અભ":423,"મને":424,"▁પરિ":425,"▁યો":426,"▁કા":427,"▁અમે":428,"▁રૂ":429,"▁કારણે":430,"પા":431,"▁તેઓ":432,"▁મળી":433,"▁આગ":434,"▁ગુજરાત":435,"▁રાજ્ય":436,"વો":437,"▁મુખ":438,"બી":439,"ર્ણ":440,"▁અનુ":441,"▁કામ":442,"નમાં":443,"▁દરમિયાન":444,"▁ની":445,"▁હવે":446,"▁સ્ટ":447,"ેલા":448,"▁પડ":449,"▁મહિ":450,"હિત":451,"▁પુ":452,"▁આવ્યા":453,"▁પોલી":454,"▁તેની":455,"▁અધ":456,"સ્તા":457,"▁તેમના":458,"▁પોતાના":459,"▁કોંગ્રેસ":460,"▁લાગ":461,"▁કહે":462,"દ્ધ":463,"▁સમા":464,"▁દિવસ":465,"▁કરતા":466,"▁રીતે":467,"▁દિલ્":468,"▁જણાવ્યું":469,"િકા":470,"ટો":471,"શે\n":472,"પ્":473,"લિ":474,"ક્ટ":475,"▁રાખ":476,"▁મુખ્ય":477,"▁કાર્ય":478,"▁ઝ":479,"▁લી":480,"ંડ":481,"ળા":482,"▁અમ":483,"▁રે":484,"▁શક":485,"ચાર":486,"▁શા":487,"▁પછી":488,"▁આપી":489,"▁કેટ":490,"▁સૌ":491,"ગર":492,"▁પાર્ટી":493,"મો":494,"મંત્રી":495,"્રા":496,"વાનો":497,"સભા":498,"▁તેને":499,"રફ":500,"▁તેમને":501,"માંથી":502,"ર્ચ":503,"ઓને":504,"ષ્":505,"▁તેમની":506,"▁આવ્યો":507,"▁શરૂ":508,"▁ફો":509,"▁રિ":510,"▁કરે":511,"▁જોવા":512,"તર":513,"પુ":514,"હાર":515,"▁ત્યારે":516,"ંગે":517,"▁બેઠ":518,"ગી":519,"ેટ":520,"સાર":521,"▁ગયા":522,"િં":523,"▁ખા":524,"▁હે":525,"▁આજે":526,"બંધ":527,"▁આરો":528,"નિ":529,"્સ":530,"▁ખૂ":531,"▁પહો":532,"ુક":533,"▁મિ":534,"▁ઉત્":535,"▁વે":536,"ટના":537,"ોમાં":538,"▁સિં":539,"શિ":540,"ર્વ":541,"ીએમ":542,"ાંધી":543,"વાદ":544,"▁નહીં":545,"નના":546,"રના":547,"▁નેતા":548,"▁પોતાની":549,"▁દિલ્હી":550,"્ષ":551,"▁પહોંચ":552,"▁તરફ":553,"▁કેસ":554,"જબ":555,"▁અભિ":556,"▁ગાંધી":557,"▁ડિ":558,"▁રહ્યો":559,"▁વર":560,"▁હા":561,"▁છો":562,"ાર્":563,"▁આવ્યું":564,"▁લઈ":565,"▁ખૂબ":566,"િયો":567,"▁ફે":568,"ન્ય":569,"▁એટ":570,"▁પોલીસ":571,"▁દુ":572,"▁જાહે":573,"ચ્ચે":574,"▁બનાવ":575,"ક્તિ":576,"ારા":577,"▁કર્યું":578,"▁વચ્ચે":579,"ક્ષા":580,"ત્રી":581,"▁ખાન":582,"▁અંગે":583,"લાક":584,"સર":585,"▁તમામ":586,"▁વખ":587,"▁યા":588,"▁બિ":589,"▁હાલ":590,"▁પાસે":591,"નની":592,"▁રોજ":593,"મિ":594,"િતિ":595,"ર્થ":596,"ષ્ટ્ર":597,"▁ભૂ":598,"ંપ":599,"રોના":600,"▁જેમાં":601,"રેન્દ્ર":602,"▁ચો":603,"રની":604,"▁નામ":605,"▁બં":606,"▁ભાગ":607,"▁ગો":608,"▁થય":609,"મુ":610,"▁ટી":611,"▁જવા":612,"▁થાય":613,"ર્સ":614,"▁કહ્યુ":615,"દે":616,"▁રૂપ":617,"▁થઇ":618,"રણ":619,"કિ":620,"જો":621,"▁કરીને":622,"▁વિશે":623,"▁ઘણા":624,"▁ખુ":625,"સો":626,"તાં":627,"▁ચા":628,"▁હું":629,"ગા":630,"▁ખે":631,"▁લોક":632,"▁ભારતી":633,"▁સૌથી":634,"▁ત્ર":635,"▁રાહ":636,"ક્સ":637,"ત્વ":638,"ૃત":639,"▁બંને":640,"▁અધિક":641,"લમાં":642,"▁મીડ":643,"ૂર":644,"▁થયા":645,"ણાવી":646,"▁મીડિયા":647,"▁વિસ્ત":648,"▁કરોડ":649,"ખા":650,"યર":651,"▁સિંહ":652,"પાસ":653,"▁સાં":654,"▁ટે":655,"▁તમે":656,"ર્ડ":657,"▁મત":658,"▁કિ":659,"▁વિક":660,"▁હતી\n":661,"▁આવશે":662,"▁નરેન્દ્ર":663,"ક્ત":664,"▁આપવામાં":665,"▁કુ":666,"ોલ":667,"▁દિ":668,"પે":669,"▁કર્યા":670,"▁શો":671,"થા":672,"▁અહીં":673,"▁મહિલા":674,"િલ્લા":675,"ુમ":676,"▁છે\nઆ":677,"▁પે":678,"▁હિ":679,"▁લોકોને":680,"▁માન":681,"▁માંગ":682,"▁રહ્યું":683,"દાર":684,"જુ":685,"શી":686,"હા":687,"▁મુખ્યમંત્રી":688,"ભાગ":689,"વાના":690,"વુ":691,"વાનું":692,"▁કારણ":693,"▁સુર":694,"▁જીવ":695,"▁કોરોના":696,"▁તમને":697,"▁ભારતીય":698,"ડે":699,"ગ્ર":700,"ડો":701,"▁અનુસાર":702,"રિયા":703,"શ્વ":704,"▁વડા":705,"▁તરી":706,"સવી":707,"સાદ":708,"▁નોંધ":709,"િયલ":710,"▁તરીકે":711,"યોગ":712,"▁શુ":713,"જન":714,"▁લખ":715,"દો":716,"▁તસવી":717,"▁જિલ્લા":718,"બ્":719,"▁ઘટના":720,"▁બની":721,"▁થી":722,"દાન":723,"્રીય":724,"▁થશે":725,"ુંબ":726,"િતા":727,"▁નવી":728,"ર્મ":729,"જના":730,"▁મુજબ":731,"પોર્ટ":732,"▁રાશિ":733,"વાલ":734,"▁લાખ":735,"▁મૂ":736,"▁જાણ":737,"ટર":738,"જૂ":739,"▁પ્રતિ":740,"▁જન":741,"▁ચી":742,"કિસ્તા":743,"ારે":744,"▁પ્રદેશ":745,"▁અન્ય":746,"▁ડે":747,"▁તેણે":748,"▁જણાવી":749,"▁મામ":750,"▁રૂપિયા":751,"▁ટકા":752,"ભાવ":753,"▁ગઈ":754,"▁થયો":755,"▁માત્ર":756,"શો":757,"▁બન":758,"▁ઘણી":759,"ેદ":760,"\nઆ":761,"ાઇ":762,"▁જરૂ":763,"▁જુ":764,"▁અભિને":765,"કરી":766,"પર":767,"▁બેઠક":768,"▁તૈ":769,"▁લગ્":770,"હિતી":771,"▁બાળ":772,"ળો":773,"▁ચર્ચ":774,"▁ઉમે":775,"લ્લા":776,"હિ":777,"નાર":778,"▁બદ":779,"▁માહિતી":780,"▁વીડ":781,"વાસ":782,"ચ્છ":783,"▁મંત્રી":784,"▁વીડિયો":785,"▁વરસાદ":786,"▁વાયર":787,"દર્":788,"વાય":789,"▁ચાલ":790,"ધો":791,"▁ઠ":792,"ઓની":793,"ર્મા":794,"રેક":795,"▁જેના":796,"▁હતુ":797,"▁પાકિસ્તા":798,"ૂટ":799,"▁અર":800,"▁પ્રે":801,"ેલ":802,"મ્બર":803,"પ્રધાન":804,"▁સંબંધ":805,"ાવી":806,"▁નવા":807,"▁જૂ":808,"▁ફરી":809,"▁મી":810,"ઓએ":811,"▁ત્યાં":812,"▁તપાસ":813,"રને":814,"▁દઈએ":815,"▁જોઈએ":816,"િસ":817,"નને":818,"જય":819,"ામી":820,"▁કેન્દ્ર":821,"સ્પ":822,"▁વ્યક્તિ":823,"▁અપ":824,"લગ":825,"ંકા":826,"▁વિધાન":827,"▁બહાર":828,"▁સફ":829,"▁દર્":830,"▁જાહેર":831,"▁સ્વ":832,"▁દરેક":833,"નીય":834,"ગે":835,"▁દા":836,"▁ચર્ચા":837,"▁મુંબ":838,"▁કરશે":839,"ગ્ય":840,"ેશન":841,"▁શું":842,"▁તા":843,"▁ટ્":844,"ક્રમ":845,"મત":846,"બાદ":847,"▁નિર્ણ":848,"▁કર્":849,"▁વિધાનસભા":850,"▁સત":851,"▁પરિવાર":852,"સ્થા":853,"▁એમ":854,"▁ત્રણ":855,"ચી":856,"▁કરવાની":857,"કર":858,"ત્રો":859,"ેલી":860,"શ્ચ":861,"▁પટે":862,"▁તૈય":863,"▁અત":864,"▁ગ્ર":865,"▁અધિકારી":866,"▁કેટલાક":867,"પણ":868,"▁પી":869,"▁ક્ષ":870,"▁પાછ":871,"▁સોશ":872,"▁મોટા":873,"▁સ્થિતિ":874,"બો":875,"બે":876,"▁સમયે":877,"▁બૉ":878,"▁સ્પ":879,"▁બંધ":880,"માર":881,"▁અમેર":882,"દર":883,"▁સર્":884,"▁શહે":885,"્લા":886,"▁આગળ":887,"િકો":888,"▁કોઇ":889,"તમાં":890,"▁આત":891,"▁ચે":892,"▁જવાબ":893,"▁જ્યાં":894,"▁સૂ":895,"કડ":896,"▁જાય":897,"▁ગયો":898,"કારી":899,"▁સરકારે":900,"▁પક્ષ":901,"▁ઉપરા":902,"▁હુમ":903,"▁વડાપ્રધાન":904,"▁ય":905,"▁પીએમ":906,"ધ્ય":907,"▁વખતે":908,"▁પ્રો":909,"▁મહત્વ":910,"▁વિભાગ":911,"▁વિરો":912,"▁ઉમેદ":913,"થમ":914,"▁ક્ર":915,"▁પગ":916,"▁ધર":917,"▁ધાર":918,"પુર":919,"▁મોટી":920,"▁લઈને":921,"▁નિવ":922,"વણી":923,"▁ખેડ":924,"▁સહ":925,"▁કપૂ":926,"ખ્યા":927,"▁પ્રા":928,"પતિ":929,"▁નિર્ણય":930,"▁તથા":931,"▁ત્યાર":932,"▁વિસ્તાર":933,"▁અથ":934,"ઓમાં":935,"ંગા":936,"ગત":937,"▁આદ":938,"▁રહેશે":939,"▁રાહુલ":940,"▁મેળ":941,"રાજ":942,"પૂર્ણ":943,"લ્ડ":944,"એસ":945,"ંદિ":946,"નિયા":947,"▁સહિત":948,"્યૂ":949,"▁ઑ":950,"▁ઉપરાંત":951,"▁આમ":952,"▁મને":953,"▁લગાવ":954,"લું":955,"▁જેમ":956,"વર":957,"ંપની":958,"▁ટ્રે":959,"ટક":960,"▁ટ્ર":961,"ગ્યા":962,"▁ઓફ":963,"લ્લે":964,"મેન્ટ":965,"▁રાષ્ટ્ર":966,"▁લગ્ન":967,"ઓના":968,"▁અનેક":969,"ર્ષ":970,"જાર":971,"▁ઉત્તર":972,"▁પં":973,"▁કોર્ટ":974,"▁તમારા":975,"▁આધ":976,"▁ખેડૂ":977,"િન":978,"▁મોદીએ":979,"▁એટલે":980,"▁ચાલી":981,"▁બીજી":982,"▁મુંબઈ":983,"તું":984,"▁વાર":985,"▁મંદિ":986,"▁તસવીરો":987,"િયન":988,"▁શેર":989,"▁બધા":990,"▁સોશિયલ":991,"▁ફોટો":992,"ભગ":993,"▁બુ":994,"▁છીએ":995,"▁ખાસ":996,"▁નિવેદ":997,"ંભ":998,"નગર":999,"તુ":1000,"▁પ્રધાન":1001,"આરી":1002,"▁શાહ":1003,"▁અલગ":1004,"▁કંપની":1005,"રિ":1006,"▁વો":1007,"વાન":1008,"▁હાલમાં":1009,"▁વિકાસ":1010,"સ્પિટ":1011,"▁મુદ્":1012,"▁ભારે":1013,"▁પાણી":1014,"▁લોકસભા":1015,"જ્":1016,"▁જાણી":1017,"▁મહિના":1018,"▁પૂર્વ":1019,"સદ":1020,"▁થયું":1021,"જાબ":1022,"▁હતા\n":1023,"પ્ટ":1024,"▁વી":1025,"▁યોજના":1026,"▁ભાવ":1027,"▁મારી":1028,"િક્ષ":1029,"ગ્":1030,"▁અંદ":1031,"▁માર્":1032,"▁એન":1033,"ત્તા":1034,"▁મોત":1035,"▁આરોપ":1036,"▁છું":1037,"લાઈ":1038,"▁પડી":1039,"મુખ":1040,"કીય":1041,"▁હાથ":1042,"▁વર્ષે":1043,"કલ":1044,"▁લગભગ":1045,"▁જોઈ":1046,"▁વિદ":1047,"▁અવ":1048,"▁હાજ":1049,"▁દો":1050,"▁મદ":1051,"▁ઉપયોગ":1052,"્યક્ષ":1053,"▁સુરક્ષા":1054,"ઇએ":1055,"પાલ":1056,"▁વિશ્વ":1057,"▁સ્વા":1058,"▁અથવા":1059,"▁મૃત":1060,"લ્લેખ":1061,"▁અમા":1062,"વેશ":1063,"▁મુલા":1064,"▁મહે":1065,"▁હતો\n":1066,"સંદ":1067,"ત્રા":1068,"િમ":1069,"▁સફળ":1070,"ત્મ":1071,"▁અંત":1072,"▁બહ":1073,"▁કં":1074,"ષ્ટ્રીય":1075,"▁બોલ":1076,"ષ્ઠ":1077,"▁છેલ્લા":1078,"▁વધી":1079,"▁ધ્યા":1080,"▁ડો":1081,"સુ":1082,"▁સતત":1083,"▁શકાય":1084,"▁અભિનેત્રી":1085,"▁દીધી":1086,"▁ગામ":1087,"▁તેમજ":1088,"▁આપણે":1089,"▁હેઠ":1090,"▁દિવસે":1091,"સિ":1092,"દાવાદ":1093,"▁હેઠળ":1094,"▁રામ":1095,"લના":1096,"▁અધ્યક્ષ":1097,"લિક":1098,"કાત":1099,"સના":1100,"▁તરફથી":1101,"▁પાંચ":1102,"▁ભગ":1103,"▁ખો":1104,"▁આર":1105,"મ્બ":1106,"▁કાય":1107,"વાદી":1108,"ાવો":1109,"▁કુલ":1110,"વુડ":1111,"▁ફર":1112,"▁પોલીસે":1113,"▁વિરોધ":1114,"▁લઇ":1115,"શ્મી":1116,"ખી":1117,"▁મળે":1118,"બ્ર":1119,"▁પ્રકાર":1120,"ચ્ચ":1121,"▁બનાવી":1122,"▁ફિલ્મમાં":1123,"્લે":1124,"▁હતાં":1125,"▁પસંદ":1126,"લીવુડ":1127,"▁તેનો":1128,"▁રહ્યાં":1129,"પ્ત":1130,"ધુ":1131,"ોને":1132,"▁કોર્":1133,"▁અં":1134,"લમાન":1135,"▁જન્":1136,"▁હોસ્પિટ":1137,"મ્પ":1138,"▁અમેરિકા":1139,"▁પંજાબ":1140,"યું":1141,"▁બાબ":1142,"▁બીજા":1143,"ાયેલા":1144,"▁ડી":1145,"▁પ્રથમ":1146,"વાથી":1147,"વિધ":1148,"▁પહોંચી":1149,"▁કરવાનો":1150,"▁મદદ":1151,"▁ચૂક":1152,"▁શ્રી":1153,"▁મંત્ર":1154,"તમ":1155,"▁જઈ":1156,"ફો":1157,"▁ભા":1158,"▁પોસ્ટ":1159,"્રો":1160,"▁કૃ":1161,"▁યાદ":1162,"▁ખાતે":1163,"▁નિય":1164,"▁ભાજપના":1165,"ઝા":1166,"▁તેમાં":1167,"▁રિપોર્ટ":1168,"નારા":1169,"▁એક્ટ":1170,"જર":1171,"▁જીત":1172,"ભ્યો":1173,"▁હશે":1174,"▁સામાન":1175,"▁પ્રયા":1176,"▁માતા":1177,"મના":1178,"ણો":1179,"▁કહેવામાં":1180,"▁ચાર":1181,"▁મંગ":1182,"▁સંગ":1183,"▁સંખ્યા":1184,"ાયો":1185,"▁૧":1186,"▁ઊ":1187,"ેત્ર":1188,"▁આપ્યો":1189,"▁સમાચાર":1190,"▁દેશમાં":1191,"હન":1192,"▁બચ":1193,"▁આવેલા":1194,"▁ટ્વિ":1195,"▁જનતા":1196,"▁બેઠકો":1197,"▁મળશે":1198,"▁માર":1199,"▁ધારાસ":1200,"▁થો":1201,"▁વ્યવ":1202,"▁સ્થાન":1203,"▁રાજ્યો":1204,"▁ગુજરાતમાં":1205,"▁મતદાન":1206,"▁તૈયાર":1207,"▁અસર":1208,"પ્રી":1209,"ધું":1210,"▁બાળકો":1211,"▁રાખી":1212,"▁ભારતમાં":1213,"▁જય":1214,"▁અમદાવાદ":1215,"▁ખેડૂતો":1216,"▁આગામી":1217,"▁ગા":1218,"ચા":1219,"▁પટેલ":1220,"▁મામલે":1221,"▁અહે":1222,"વતી":1223,"▁જાન":1224,"▁કરતાં":1225,"▁ક્યારે":1226,"▁લોકોના":1227,"આર":1228,"મમાં":1229,"પકડ":1230,"જરી":1231,"▁ઉપર":1232,"▁વાંચ":1233,"લાઇ":1234,"આઈ":1235,"▁મારા":1236,"શું":1237,"▁કરાવ":1238,"▁સાર":1239,"નિક":1240,"ર્ક":1241,"ૂત":1242,"▁એર":1243,"▁ધરપકડ":1244,"▁કપૂર":1245,"▁સામ":1246,"લુ":1247,"ોની":1248,"▁ચૂંટણીમાં":1249,"▁કોંગ્રેસના":1250,"▁જેવા":1251,"▁સૈ":1252,"▁જોડ":1253,"▁જરૂર":1254,"▁પરિણા":1255,"▁લોકોએ":1256,"ફે":1257,"▁અત્યાર":1258,"▁એવી":1259,"▁શિક્ષ":1260,"ળે":1261,"▁સામાન્ય":1262,"વવામાં":1263,"▁દેશના":1264,"સ્ક":1265,"▁હવા":1266,"ણમાં":1267,"ીર":1268,"વાસી":1269,"▁સલમાન":1270,"▁કર્યુ":1271,"▁નહિ":1272,"▁વિદેશ":1273,"ક્શન":1274,"ટમાં":1275,"▁કેટલી":1276,"▁પૂછ":1277,"▁મુલાકાત":1278,"▁ક્ષેત્ર":1279,"▁શિવ":1280,"▁ગુરુ":1281,"▁મળ્યા":1282,"▁પ્રત":1283,"▁કહી":1284,"▁પંચ":1285,"▁મં":1286,"ચના":1287,"▁જેટ":1288,"▁રાજ્યમાં":1289,"▁જગ્યા":1290,"▁કપ":1291,"▁કલાક":1292,"▁ઝડ":1293,"▁ઓછ":1294,"▁ચંદ":1295,"ભ્ય":1296,"વાહી":1297,"્યાર્":1298,"▁બ્ર":1299,"▁સેના":1300,"ૂડ":1301,"▁સવારે":1302,"▁પત્ર":1303,"▁એવું":1304,"▁ઉઠ":1305,"▁એવા":1306,"તરી":1307,"▁રાષ્ટ્રપતિ":1308,"ખો":1309,"▁ભર":1310,"▁દેવામાં":1311,"ક્ટર":1312,"▁ઈન્ડ":1313,"જીક":1314,"▁મધ્ય":1315,"▁વ્યક્ત":1316,"▁જેને":1317,"▁દૂર":1318,"શ્કે":1319,"▁સ્ક":1320,"▁લાગી":1321,"▁પત્":1322,"▁ગુજરાતના":1323,"ાલય":1324,"▁વિવિધ":1325,"▁આપવા":1326,"તના":1327,"▁ક્":1328,"▁પૈ":1329,"▁ગે":1330,"▁આયો":1331,"▁દિલ્લી":1332,"ભાર":1333,"▁રણ":1334,"▁જેવી":1335,"▁આરોપી":1336,"ગુ":1337,"▁વિરુ":1338,"▁કાર્યક્રમ":1339,"▁બને":1340,"▁શુક્ર":1341,"▁પદ":1342,"▁સમગ્ર":1343,"સ્થાન":1344,"ખલ":1345,"પક્ષ":1346,"▁કાર્યવાહી":1347,"ૃહ":1348,"▁ગણ":1349,"▁પોલિ":1350,"▁સું":1351,"▁તેથી":1352,"▁વિદ્યાર્":1353,"▁પ્રેમ":1354,"▁નિર્":1355,"▁મંગળ":1356,"▁આવ્યુ":1357,"ડવા":1358,"દર્શન":1359,"ંકી":1360,"▁વૈ":1361,"▁ત્યારબાદ":1362,"ધન":1363,"▁૨":1364,"▁એસ":1365,"▁કરો":1366,"▁બતા":1367,"મિક":1368,"▁સ્પષ્ટ":1369,"▁જાહેરાત":1370,"પ્રીમ":1371,"િટી":1372,"▁ઘરે":1373,"▁તમારી":1374,"▁આતંક":1375,"કુ":1376,"▁સમર્થ":1377,"▁નિર્મા":1378,"▁નિવેદન":1379,"▁સ્થા":1380,"▁પરથી":1381,"▁પહેલી":1382,"▁નહો":1383,"▁ફાય":1384,"▁જન્મ":1385,"▁મહા":1386,"▁પ્રિય":1387,"▁હુમલા":1388,"▁શરૂઆ":1389,"▁શિ":1390,"▁હતું\n":1391,"ષણ":1392,"▁મહારા":1393,"▁વિરુદ્ધ":1394,"રાવ":1395,"ચર":1396,"ગઢ":1397,"લીઝ":1398,"▁બુધ":1399,"▁હજાર":1400,"▁નવ":1401,"▁નજીક":1402,"▁તબ":1403,"▁લેવામાં":1404,"▁શનિ":1405,"▁ફરિયા":1406,"ઠા":1407,"▁જીવન":1408,"▁દુનિયા":1409,"▁છે\nઅ":1410,"▁કરતી":1411,"રાય":1412,"▁સ્ટાર":1413,"શિયા":1414,"▁લાં":1415,"▁વિવાદ":1416,"▁લાભ":1417,"ક્ષણ":1418,"▁લાવ":1419,"▁મુશ્કે":1420,"▁નથી\n":1421,"▁સુંદર":1422,"લ્લેખનીય":1423,"▁હત્યા":1424,"▁વિચાર":1425,"▁કાશ્મી":1426,"ગાઉ":1427,"▁વિદ્યાર્થી":1428,"▁પત્ની":1429,"▁રવિ":1430,"▁અફ":1431,"▁રજૂ":1432,"▁કોર્ટે":1433,"▁સત્તા":1434,"શુ":1435,"▁રહેલા":1436,"ન્સી":1437,"▁કેજરી":1438,"▁લીધો":1439,"ફર":1440,"▁હજુ":1441,"▁આવતા":1442,"▁કલ":1443,"▁લાગે":1444,"▁હાજર":1445,"▁ઓળ":1446,"▁ભારતના":1447,"▁મહારાષ્ટ્ર":1448,"▁તાલ":1449,"▁વિસ્તારમાં":1450,"▁પાર્ટીના":1451,"▁બહુ":1452,"ાજે":1453,"▁આસ":1454,"▁કેમ":1455,"▁ડૉ":1456,"▁આવા":1457,"▁વાયરલ":1458,"▁લીધી":1459,"▁ગી":1460,"▁સારી":1461,"▁ટો":1462,"ડિયા":1463,"▁પાછળ":1464,"મતા":1465,"ભાવના":1466,"ચારી":1467,"મર":1468,"ત્રે":1469,"▁લોકોની":1470,"ફી":1471,"▁દેખ":1472,"નાથ":1473,"કર્":1474,"જ્ઞ":1475,"▁વખત":1476,"તન":1477,"દરા":1478,"▁ગયું":1479,"▁રિલીઝ":1480,"▁શર્મા":1481,"▁પશ્ચ":1482,"▁કેસમાં":1483,"▁નાગર":1484,"રવ":1485,"▁ચંદ્ર":1486,"ૂલ":1487,"▁સંપ":1488,"ભાઈ":1489,"▁પૂર્ણ":1490,"▁સુપ્રીમ":1491,"▁અન":1492,"ક્ષિ":1493,"બલ":1494,"ટ્ટ":1495,"▁એજ":1496,"સિં":1497,"▁જણાવ્યા":1498,"▁દાવો":1499,"ન્સ્ટ":1500,"▁જોકે":1501,"ક્ટો":1502,"તાર":1503,"વવા":1504,"લિયા":1505,"▁શુભ":1506,"ન્દ્રીય":1507,"▁શ્ર":1508,"▁વાંચો":1509,"▁અરજી":1510,"સ્યા":1511,"વારો":1512,"▁શકો":1513,"પના":1514,"▁ગૃહ":1515,"સ્તી":1516,"દુ":1517,"ંતર":1518,"▁સૂર":1519,"સમાં":1520,"▁રાષ્ટ્રીય":1521,"વન":1522,"▁પિતા":1523,"▁છતાં":1524,"▁વર્ષની":1525,"▁ચાલુ":1526,"▁રાજકીય":1527,"્લો":1528,"્વ":1529,"▁ખરી":1530,"▁દાખલ":1531,"સ્તુ":1532,"▁ફિલ્મો":1533,"▁ઉમેદવાર":1534,"▁જશે":1535,"ત્તિ":1536,"▁વિસ્તારો":1537,"નંદ":1538,"ડીને":1539,"▁કલા":1540,"▁ઉદ":1541,"▁હં":1542,"▁સલા":1543,"▁વધારો":1544,"શાન":1545,"▁હાઈ":1546,"▁મજબ":1547,"▁એન્":1548,"▁પ્રમુખ":1549,"▁માનવામાં":1550,"▁જણાવ્યુ":1551,"ગો":1552,"▁વળી":1553,"▁અગાઉ":1554,"▁નવે":1555,"▁સંભાવના":1556,"સની":1557,"▁પોતાનો":1558,"લની":1559,"નર":1560,"▁કમા":1561,"▁ડિસે":1562,"▁જેથી":1563,"▁સીટ":1564,"▁લખ્યું":1565,"▁આપે":1566,"શ્વાસ":1567,"ઘા":1568,"વિંદ":1569,"▁વધારે":1570,"ચારો":1571,"▁હિં":1572,"▁આજ":1573,"▁ઉજ":1574,"▁કુમાર":1575,"▁સોમ":1576,"▁રાશિના":1577,"▁સિવાય":1578,"દારી":1579,"▁એલ":1580,"શનલ":1581,"▁સામેલ":1582,"▁દર્શ":1583,"▁પ્રયાસ":1584,"મણ":1585,"▁પડશે":1586,"ાયલ":1587,"પૂર્વ":1588,"પ્ટે":1589,"ળમાં":1590,"▁ધ્યાન":1591,"▁નં":1592,"▁કોઈપણ":1593,"▁થવા":1594,"▁પડે":1595,"▁જોઇએ":1596,"રીના":1597,"▁દક્ષિ":1598,"્યુઆરી":1599,"▁બૉલીવુડ":1600,"▁કરવો":1601,"▁લેવા":1602,"કલી":1603,"▁ગંભ":1604,"તની":1605,"▁થોડા":1606,"મિકા":1607,"▁સંપૂર્ણ":1608,"▁પ્રિયંકા":1609,"▁ભો":1610,"▁યાત્રા":1611,"▁બિલ":1612,"ળના":1613,"▁બંગા":1614,"▁ઇન્ડ":1615,"▁મોટો":1616,"બિ":1617,"▁ફરિયાદ":1618,"▁પ્રમા":1619,"ગસ્ટ":1620,"▁જરૂરી":1621,"▁જાન્યુઆરી":1622,"▁કૉ":1623,"▁સપ્ટે":1624,"▁પાકિસ્તાન":1625,"ાંતિ":1626,"સાન":1627,"▁ગંભીર":1628,"▁હંમે":1629,"▁રાજી":1630,"▁તેનું":1631,"ખંડ":1632,"▁એપ્ર":1633,"▁લિ":1634,"▁કેન્દ્રીય":1635,"કરણ":1636,"કાશ":1637,"▁સમયમાં":1638,"▁નજર":1639,"▁કાઢ":1640,"ીએસ":1641,"▁સુધીમાં":1642,"▁બનાવવામાં":1643,"▁નક્":1644,"▁મૃત્યુ":1645,"▁યોગ":1646,"▁કંઈ":1647,"મની":1648,"▁ચલા":1649,"રાબ":1650,"▁કરીએ":1651,"▁મંત્રાલય":1652,"ઇટ":1653,"▁ફા":1654,"▁પૈસા":1655,"િયર":1656,"ર્થિક":1657,"▁સમસ્યા":1658,"▁મન":1659,"▁આદેશ":1660,"▁પશ્ચિમ":1661,"▁આદમી":1662,"▁અર્":1663,"▁ઓળખ":1664,"▁ચિ":1665,"▁સારા":1666,"▁રહ્યુ":1667,"▁રાજ્યના":1668,"▁સીએમ":1669,"▁જોડા":1670,"તરમાં":1671,"▁મંદિર":1672,"▁ભગવાન":1673,"ક્સી":1674,"▁આરોગ્ય":1675,"▁તેવી":1676,"તંત્ર":1677,"▁નીતિ":1678,"▁સેવા":1679,"▁રાજસ્થાન":1680,"▁પાસેથી":1681,"ઓનો":1682,"▁મેં":1683,"▁કેટલીક":1684,"▁ખબર":1685,"સિંહ":1686,"▁ગાંધીએ":1687,"▁કર્મ":1688,"▁લઇને":1689,"નલ":1690,"▁તબક્":1691,"▁કેવી":1692,"▁સફળતા":1693,"જિ":1694,"▁આના":1695,"▁સંબો":1696,"▁હુમલો":1697,"ક્રે":1698,"▁આર્થિક":1699,"ન્ન":1700,"▁દક્ષિણ":1701,"▁દેખા":1702,"▁કરવાનું":1703,"▁ડા":1704,"▁યુન":1705,"ંધી":1706,"▁જમી":1707,"▁લાલ":1708,"લાય":1709,"▁જમ્":1710,"▁વિશેષ":1711,"મેલ":1712,"▁ઘર":1713,"▁સરકારી":1714,"સેના":1715,"▁થવાની":1716,"▁પાડ":1717,"▁સંબંધિત":1718,"▁કમ":1719,"▁ભૂમિકા":1720,"ડુ":1721,"▁આધાર":1722,"ગ્રી":1723,"ુકા":1724,"ણાટક":1725,"▁રોડ":1726,"▁આતંકવાદી":1727,"રેશન":1728,"▁પતિ":1729,"▁લક્ષ":1730,"▁હૉ":1731,"▁અનુભ":1732,"▁હંમેશા":1733,"ાગ્ર":1734,"▁તાજે":1735,"▁પરી":1736,"▁ફરીથી":1737,"▁ઑફ":1738,"▁આવેલી":1739,"વાઈ":1740,"▁આવશે\n":1741,"▁વિપક્ષ":1742,"ર્યા":1743,"▁મળ્યો":1744,"કારો":1745,"▁સરકારના":1746,"દારો":1747,"▁વિજય":1748,"ઉન્ટ":1749,"▁આપ્યું":1750,"▁શક્ય":1751,"▁સચ":1752,"▁એવો":1753,"▁નાણા":1754,"▁સ્થિત":1755,"▁બોલિવ":1756,"▁વૃ":1757,"▁સમાજ":1758,"▁દીધો":1759,"▁શે":1760,"▁અમિત":1761,"બિત":1762,"▁યોજા":1763,"▁નક્કી":1764,"ાવવા":1765,"▁ટીમ":1766,"ૃતિ":1767,"▁નિષ્":1768,"્યે":1769,"▁દેશો":1770,"▁પૂજા":1771,"▁ગર":1772,"▁કાયદા":1773,"▁રંગ":1774,"▁દેવ":1775,"વારી":1776,"▁સાંસદ":1777,"▁વ્યવસ્થા":1778,"▁ટ્વી":1779,"ષા":1780,"વીને":1781,"લ્સ":1782,"▁સ્થિતિમાં":1783,"મારી":1784,"પરા":1785,"▁તિ":1786,"▁અર્થ":1787,"ફ્ટ":1788,"▁સામનો":1789,"▁કૌ":1790,"ન્ચ":1791,"▁સુધ":1792,"▁ત્રી":1793,"▁પહોંચ્યા":1794,"બુ":1795,"▁પ્રદર્શન":1796,"કમાં":1797,"▁ગઇ":1798,"તૃ":1799,"▁તેમનો":1800,"▁બિહાર":1801,"▁નીક":1802,"ડીએ":1803,"જૂરી":1804,"▁ખરાબ":1805,"▁સંક":1806,"▁પ્રસ":1807,"▁પહેલાં":1808,"▁વોટ":1809,"▁યોગ્ય":1810,"▁કમિ":1811,"▁એક્સ":1812,"▁ઐ":1813,"દર્શ":1814,"▁આક":1815,"▁રસી":1816,"\nઅ":1817,"કોને":1818,"હાસ":1819,"▁ન્યા":1820,"▁સિદ્ધ":1821,"▁શાળા":1822,"▁જમ્મુ":1823,"કની":1824,"▁ઓગસ્ટ":1825,"▁ઘરમાં":1826,"▁દિલ્હીમાં":1827,"વર્":1828,"રત":1829,"▁લગાવી":1830,"▁મોકલ":1831,"ષ્ણ":1832,"▁જાણકારી":1833,"▁દીપ":1834,"▁નેતાઓ":1835,"▁શિક્ષણ":1836,"▁આપ્યા":1837,"▁હૈ":1838,"▁કર્ણાટક":1839,"▁બસ":1840,"▁લીધા":1841,"ાનું":1842,"બ્રુ":1843,"▁કર્મચારી":1844,"▁સવાલ":1845,"▁હવામાન":1846,"▁તૈયારી":1847,"▁પુત્ર":1848,"▁ઠા":1849,"▁હોટ":1850,"▁શરૂઆત":1851,"તિહાસ":1852,"▁સાબિત":1853,"▁વાયરસ":1854,"ુદ":1855,"▁સંગઠ":1856,"▁ક્યાં":1857,"▁ઓક્ટો":1858,"▁પ્રવેશ":1859,"▁ફેલા":1860,"નનો":1861,"▁હી":1862,"▁નુક":1863,"ત્મક":1864,"▁છુ":1865,"્રોલ":1866,"ાવે":1867,"▁આયોજન":1868,"▁આઈ":1869,"▁કરવી":1870,"▁માર્ગ":1871,"▁મૂક":1872,"▁મંજૂરી":1873,"▁અંદર":1874,"પણે":1875,"ષિ":1876,"▁જોર":1877,"ઝી":1878,"▁સમાવેશ":1879,"▁બહે":1880,"▁કહેવું":1881,"▁માર્ચ":1882,"▁દેશની":1883,"▁પ્રભાવ":1884,"▁ક્યારેય":1885,"▁ગૌ":1886,"▁પ્રધાનમંત્રી":1887,"બ્રુઆરી":1888,"રામ":1889,"▁અભિનેતા":1890,"▁ચૌ":1891,"▁ધો":1892,"▁કિં":1893,"▁પાર્ટ":1894,"▁બચ્ચ":1895,"▁આશ":1896,"▁ઓછા":1897,"▁ચર્ચામાં":1898,"▁કોર્ટમાં":1899,"▁વિસ્તારોમાં":1900,"થ્":1901,"ાનિ":1902,"▁ભાઈ":1903,"▁અક":1904,"▁રાખવામાં":1905,"▁ઘટા":1906,"ધિ":1907,"▁સાંભ":1908,"▁વિશ્વાસ":1909,"▁યુદ્ધ":1910,"રાન":1911,"▁રોક":1912,"▁વધુમાં":1913,"▁મજબૂત":1914,"▁શી":1915,"▁ઝડપ":1916,"▁ઘ્વારા":1917,"▁દર્દી":1918,"પ્તા":1919,"▁ફેબ્રુઆરી":1920,"▁મુશ્કેલી":1921,"▁સન્":1922,"▁થયેલા":1923,"▁હોસ્પિટલમાં":1924,"▁સભ્યો":1925,"વિધા":1926,"તરા":1927,"ંઘ":1928,"▁આંતર":1929,"નાં":1930,"▁સૂર્ય":1931,"▁કાર્":1932,"▁બનાવવા":1933,"▁આપણા":1934,"▁રશિયા":1935,"▁બદલ":1936,"▁તેમનું":1937,"▁સ્થાનિક":1938,"▁વાતચી":1939,"▁જિલ્લામાં":1940,"વિડ":1941,"▁ન્યૂ":1942,"▁આશા":1943,"▁રસ્તા":1944,"▁સીટો":1945,"રોમાં":1946,"▁વિના":1947,"દિક":1948,"▁એપ્રિલ":1949,"કેટ":1950,"▁પ્રતિબંધ":1951,"▁નંબર":1952,"▁શ્રે":1953,"ડક":1954,"▁સુપર":1955,"મન":1956,"▁ચીન":1957,"▁મુદ્દા":1958,"▁દિશા":1959,"ભરમાં":1960,"ઠબંધ":1961,"▁સ્વી":1962,"▁આતંકી":1963,"▁ભારતની":1964,"▁સોમવારે":1965,"▁મામલા":1966,"ષ્ય":1967,"▁અમુક":1968,"▁સમાચારો":1969,"▁ધર્મ":1970,"ઇક":1971,"લ્પ":1972,"▁વસ્તુ":1973,"▁ઇન્ટ":1974,"▁દીધા":1975,"ુડ":1976,"▁લૉ":1977,"▁ધારાસભ્ય":1978,"લર":1979,"વાલો":1980,"▁ટિક":1981,"▁આંક":1982,"▁બોલ્ડ":1983,"▁પ્રશ્":1984,"▁નોકરી":1985,"્યોગ":1986,"ખે":1987,"ંગના":1988,"▁સમુદ":1989,"▁પ્રવ":1990,"▁સુના":1991,"▁ટીવી":1992,"સ્થિતિ":1993,"વાળી":1994,"▁સંસ્થા":1995,"તૃત્વ":1996,"▁સંક્રમ":1997,"▁રેલી":1998,"ક્ષી":1999,"▁કેજરીવાલ":2000,"▁છોડ":2001,"છે":2002,"▁પોતાનું":2003,"▁જતા":2004,"પ્રદેશ":2005,"લક":2006,"જેક્ટ":2007,"▁સપ્ટેમ્બર":2008,"▁બોર્ડ":2009,"▁ડિસેમ્બર":2010,"▁આત્મ":2011,"િકલ":2012,"▁ઈચ્છ":2013,"એમ":2014,"▁નવેમ્બર":2015,"▁ટા":2016,"▁સલાહ":2017,"▁દિગ્":2018,"▁બજે":2019,"▁કેર":2020,"▁આં":2021,"▁અમારી":2022,"▁થતા":2023,"▁હોવાનું":2024,"▁બોલિવૂડ":2025,"પાર":2026,"▁સંસદ":2027,"▁નેતૃત્વ":2028,"▁પ્રવાસ":2029,"▁બેઠકમાં":2030,"વાળા":2031,"સાઈ":2032,"▁વહે":2033,"▁ટ્રા":2034,"નારી":2035,"▁એન્ડ":2036,"▁કરનાર":2037,"▁સિક":2038,"વ્ય":2039,"ડોદરા":2040,"▁તબક્કા":2041,"તમને":2042,"▁પેટ":2043,"▁ઓપ":2044,"▁ગ્રહ":2045,"▁શૂટ":2046,"▁ફિલ્મના":2047,"પ્રિય":2048,"ભી":2049,"ષે":2050,"▁તાજેતરમાં":2051,"સાય":2052,"▁મેળવી":2053,"▁ઈન્ટ":2054,"શાંત":2055,"▁રાય":2056,"▁ગેર":2057,"્યાસ":2058,"▁જણાવવામાં":2059,"▁અમને":2060,"▁પ્રશ":2061,"▁નિર્માણ":2062,"▁શક્તિ":2063,"હર":2064,"▁સરકારની":2065,"▁રોકા":2066,"સ્મા":2067,"▁અસ":2068,"▁પ્રચાર":2069,"રલ":2070,"▁પ્લા":2071,"▁લડ":2072,"▁મંગળવારે":2073,"▁કોંગ્રે":2074,"▁ઉર્":2075,"▁ધારાસભ્યો":2076,"▁શુક્રવારે":2077,"▁ફેન્સ":2078,"▁સુવિધા":2079,"▁મોદીના":2080,"▁સેન્ટ":2081,"ગીરી":2082,"તને":2083,"▁નિક":2084,"▁બાકી":2085,"▁અધિકાર":2086,"નમ":2087,"ઠી":2088,"ીય":2089,"▁પૂર":2090,"▁સ્ટે":2091,"▁દૂ":2092,"ધાની":2093,"ાર્થ":2094,"દન":2095,"▁ઉમેદવારો":2096,"▁લાંબા":2097,"▁આસપાસ":2098,"▁આંદ":2099,"▁પરિવ":2100,"િષ્ઠ":2101,"▁અરવિંદ":2102,"▁ધી":2103,"▁ફેર":2104,"▁સમર્થન":2105,"▁શાંતિ":2106,"ગાર":2107,"ડિ":2108,"▁ખર્ચ":2109,"▁ડ્ર":2110,"▁સમજ":2111,"કને":2112,"▁સાત":2113,"▁વધાર":2114,"▁પાલ":2115,"દીમાં":2116,"▁નોટ":2117,"ાગ્રામ":2118,"▁ચૂક્યા":2119,"ન્ના":2120,"▁થશે\n":2121,"સ્ટ્રી":2122,"્રષ્ટ":2123,"પીએ":2124,"▁ઘો":2125,"▁સાંજે":2126,"િકી":2127,"ાવવામાં":2128,"▁ઉં":2129,"સ્લિ":2130,"▁આપતા":2131,"▁પ્લે":2132,"▁ચિં":2133,"્લ":2134,"૦૦":2135,"▁રાત્રે":2136,"▁રેલ":2137,"▁જગ્યાએ":2138,"▁બોલા":2139,"▁અધિકારીઓ":2140,"▁સરકારને":2141,"▁જેની":2142,"વંત":2143,"વ્યા":2144,"▁ગર્":2145,"▁ઉલ્લેખનીય":2146,"▁નીચે":2147,"▁જોઇ":2148,"▁હોવા":2149,"ાયા":2150,"▁કૅ":2151,"▁અંગ":2152,"▁મોટ":2153,"િવર્સ":2154,"▁એન્ટ":2155,"▁છોકરી":2156,"▁તારી":2157,"ઠવા":2158,"▁તાપ":2159,"▁ઉપલ":2160,"▁રાજકાર":2161,"સૂ":2162,"▁અક્ષ":2163,"▁વરિષ્ઠ":2164,"▁પ્રોજેક્ટ":2165,"▁લાઈ":2166,"▁ચિંતા":2167,"▁સુનાવણી":2168,"▁હાઇ":2169,"કસ":2170,"▁ધરા":2171,"▁સમયથી":2172,"▁ટ્વિટર":2173,"▁બીજે":2174,"ાડ":2175,"કના":2176,"▁રાજીના":2177,"▁સ્થળ":2178,"▁હાર્":2179,"▁દીધું":2180,"▁રાજ્યોમાં":2181,"િત્ય":2182,"▁વ્યા":2183,"▁કુમા":2184,"સ્ત્ર":2185,"દ્ધા":2186,"▁એજન્સી":2187,"▁ઉપલબ્":2188,"▁સૂત્રો":2189,"મ્બરે":2190,"ફા":2191,"▁અલી":2192,"▁અહેવાલ":2193,"▁ઈન્ડિયા":2194,"વરણ":2195,"▁કરવું":2196,"▁શરી":2197,"▁યુવ":2198,"કડા":2199,"▁બુધવારે":2200,"▁જિલ્લાના":2201,"▁સજા":2202,"વાલે":2203,"▁કરવાના":2204,"▁મનો":2205,"ઝન":2206,"ક્ષિત":2207,"▁આંદોલ":2208,"▁શોધ":2209,"▁સંખ્યામાં":2210,"▁શર":2211,"▁ડાય":2212,"▁બ્રા":2213,"કર્તા":2214,"ન્સ્ટાગ્રામ":2215,"જનો":2216,"▁વર્ષના":2217,"▁મુદ્દે":2218,"▁પૂરી":2219,"▁ટૂ":2220,"▁પગલા":2221,"આઇ":2222,"▁આવેલ":2223,"▁પોલિસ":2224,"▁જાણવા":2225,"▁અદ":2226,"થો":2227,"▁વાતો":2228,"▁અપી":2229,"▁ડિગ્રી":2230,"જ્ઞાન":2231,"▁અભિયાન":2232,"દીપ":2233,"▁રેડ":2234,"▁ગઠબંધ":2235,"નિંગ":2236,"ાયેલી":2237,"ચલ":2238,"ધ્યા":2239,"▁આટ":2240,"▁અટક":2241,"▁નાના":2242,"▁માલ":2243,"▁સંજય":2244,"કરે":2245,"▁આધારે":2246,"▁સ્થળો":2247,"▁ભાજપે":2248,"▁મુસ્લિ":2249,"મદ":2250,"ર્જી":2251,"▁મેડ":2252,"ાયેલ":2253,"▁બેંક":2254,"▁લગાવ્યો":2255,"બીજા":2256,"▁પટેલે":2257,"▁એકવાર":2258,"ળવા":2259,"▁એટલા":2260,"▁હરિયા":2261,"▁સિંહે":2262,"▁કિમી":2263,"નીએ":2264,"▁જમીન":2265,"ંદુ":2266,"▁મહિલાઓ":2267,"▁નિર્દેશ":2268,"▁મિલ":2269,"▁સંઘ":2270,"▁ફિલ્મોમાં":2271,"▁પરત":2272,"▁દુર્":2273,"▁અપીલ":2274,"▁રવિવારે":2275,"▁અખ":2276,"સ્તવ":2277,"તેમ":2278,"વારના":2279,"પ્પ":2280,"ળતા":2281,"▁જીવનમાં":2282,"▁પીડ":2283,"મંત્ર":2284,"▁પસાર":2285,"▁બાજુ":2286,"ચાલ":2287,"ઉન":2288,"▁અકસ્મા":2289,"▁પાઠ":2290,"નેસ":2291,"▁દીપિકા":2292,"એક":2293,"▁ઉત્પા":2294,"▁અના":2295,"લય":2296,"▁મોદીની":2297,"▁સારવાર":2298,"▁કિલો":2299,"▁પરિસ્થિતિ":2300,"▁યુવતી":2301,"બીર":2302,"▁દિલ":2303,"▁વન":2304,"▁અમારા":2305,"પિત":2306,"▁જવાબદારી":2307,"▁છોડી":2308,"▁પ્રકારની":2309,"▁રહેતા":2310,"ભાઇ":2311,"▁તુ":2312,"સ્ટર":2313,"▁કિંમત":2314,"ક્રિયા":2315,"તિક":2316,"▁વાગ્યા":2317,"તાના":2318,"▁સંબોધ":2319,"▁સાધ":2320,"▁ગાય":2321,"▁તમ":2322,"કોટ":2323,"▁મહત્વપૂર્ણ":2324,"▁ઢ":2325,"▁નુકસાન":2326,"કમ":2327,"▁તસવીર":2328,"▁ભાજપને":2329,"▁જવાનો":2330,"▁ચૂકી":2331,"▁ઍ":2332,"▁સંભ":2333,"▁દિવસો":2334,"ડીમાં":2335,"રુખ":2336,"કાં":2337,"ંદર":2338,"ન્દુ":2339,"▁મહિનામાં":2340,"ગેરે":2341,"▁આવતી":2342,"ાવ્યો":2343,"▁વિધાનસભાની":2344,"▁જોતા":2345,"▁વરસાદની":2346,"▁જ્યો":2347,"▁પ્રદેશના":2348,"▁ગાંધીનગર":2349,"કરા":2350,"મિત":2351,"▁ખુશ":2352,"▁યુપી":2353,"▁જીતી":2354,"▁ગુરુવારે":2355,"▁રાહત":2356,"▁કામગીરી":2357,"▁\n":2358,"▁આનંદ":2359,"▁ગરી":2360,"▁અઠવા":2361,"▁વડોદરા":2362,"▁ફોન":2363,"▁રાવ":2364,"▁અફઘ":2365,"ંજ":2366,"ન્યા":2367,"▁પરિણામ":2368,"▁ટ્વીટ":2369,"▁પ્રક્રિયા":2370,"▁નિશાન":2371,"▁ટ્વિટ":2372,"▁હાર":2373,"રોજ":2374,"▁આઇ":2375,"▁બન્યા":2376,"▁જમા":2377,"▁સર્વે":2378,"▁વર્ષમાં":2379,"▁એકબીજા":2380,"▁હિંસા":2381,"▁ગત":2382,"રોને":2383,"▁છે\nહ":2384,"▁યોજ":2385,"▁ઉપલબ્ધ":2386,"લ્લ":2387,"દેવ":2388,"▁શક્યતા":2389,"▁ગોળી":2390,"સિક":2391,"▁સોના":2392,"તિમ":2393,"ટેડ":2394,"▁જ્":2395,"▁શાસ":2396,"ફિક":2397,"▁તેનાથી":2398,"ણને":2399,"ળની":2400,"▁માને":2401,"ોર":2402,"▁કોંગ્રેસે":2403,"▁દિવસોમાં":2404,"સં":2405,"રાષ્ટ્રીય":2406,"ઓનું":2407,"▁એરપોર્ટ":2408,"▁ઝડપથી":2409,"▁યુક્રે":2410,"▁પગલે":2411,"▁ખુલા":2412,"▁ઘાયલ":2413,"▁આકર્ષ":2414,"▁અંદાજ":2415,"▁કૈ":2416,"નીતિ":2417,"▁હરિયાણા":2418,"▁લાઇ":2419,"▁ઓક્ટોબર":2420,"▁ઓછી":2421,"▁નાગરિકો":2422,"ન્ડર":2423,"▁ભટ્ટ":2424,"▁કોવિડ":2425,"ણીએ":2426,"▁મળ્યું":2427,"▁તાપમાન":2428,"▁ચોપરા":2429,"▁યુનિવર્સ":2430,"▁એક્":2431,"▁વાતચીત":2432,"▁કી":2433,"ણના":2434,"▁ધ્યાનમાં":2435,"▁ખાને":2436,"▁રમ":2437,"▁ફેસ":2438,"▁યાદવ":2439,"▁કરશે\n":2440,"▁શનિવારે":2441,"▁પાસ":2442,"▁ફોટા":2443,"▁ટિકિટ":2444,"▁સ્ટેશન":2445,"▁ફિલ્મની":2446,"▁ધમ":2447,"▁રાજધાની":2448,"▁એડ":2449,"▁જુઓ":2450,"સાફ":2451,"▁અંતિમ":2452,"▁એટલું":2453,"તાની":2454,"▁નેશનલ":2455,"▁કું":2456,"રીમાં":2457,"▁મોદીને":2458,"▁બિગ":2459,"ટન":2460,"▁જૂન":2461,"▁માણ":2462,"ન્ને":2463,"િલના":2464,"▁સમિતિ":2465,"વ્યો":2466,"ણું":2467,"▁પ્રત્યે":2468,"▁દોષ":2469,"▁માંગે":2470,"▁મુક":2471,"▁છે\nમ":2472,"▁લાગુ":2473,"▁મના":2474,"▁મૌ":2475,"સ્સા":2476,"▁જોઈને":2477,"▁પ્રતિક":2478,"▁ચુ":2479,"▁પ્રદેશમાં":2480,"દ્ધિ":2481,"▁હાર્દિક":2482,"▁વગેરે":2483,"▁અંતર્":2484,"ઇલ":2485,"સ્થ્ય":2486,"▁પ્રમાણે":2487,"બાર":2488,"ંદા":2489,"▁ખુબ":2490,"▁ટિ":2491,"▁કૃષિ":2492,"▁બધી":2493,"▁તહે":2494,"▁શહેર":2495,"▁નાખ":2496,"પોરે":2497,"▁છે\nજ":2498,"▁ન્યાય":2499,"▁અચ":2500,"કોર્ટ":2501,"▁ઇચ્છ":2502,"▁જારી":2503,"પરછ":2504,"▁તાલુકા":2505,"▁સારો":2506,"તેમણે":2507,"ત્કા":2508,"રીને":2509,"▁બીજેપી":2510,"▁ગણાવ":2511,"▁શાન":2512,"▁રહેલી":2513,"ાનિસ્તા":2514,"▁લુક":2515,"▁આખ":2516,"▁પાર્":2517,"▁૨૦":2518,"▁અંતર્ગત":2519,"લને":2520,"લ્લી":2521,"પથ":2522,"▁વર્ષથી":2523,"▁રહેશે\n":2524,"▁બજેટ":2525,"ખર":2526,"ૃતિક":2527,"▁થયેલી":2528,"એન":2529,"રેલી":2530,"▁શામેલ":2531,"▁આપવાની":2532,"▁અભ્યાસ":2533,"▁ચહે":2534,"યુક્ત":2535,"કારા":2536,"▁હર":2537,"ધે":2538,"▁મુસાફ":2539,"ૂક":2540,"▁આધારિત":2541,"પેન્દ્ર":2542,"ગરમાં":2543,"▁વીજ":2544,"▁હોવાથી":2545,"▁ઉજવણી":2546,"િશ":2547,"▁પ્રસંગે":2548,"નોંધ":2549,"▁જુલાઈ":2550,"▁નગર":2551,"▁તી":2552,"▁દિલ્હીના":2553,"▁શિવસેના":2554,"▁ઉદ્યોગ":2555,"▁સ્વાસ્થ્ય":2556,"▁હોવાની":2557,"▁ફાયર":2558,"▁તાલિ":2559,"▁સુખ":2560,"ોના":2561,"▁પ્રય":2562,"જિત":2563,"▁વલ":2564,"▁તક":2565,"▁આવું":2566,"▁જાત":2567,"▁અક્ષય":2568,"મંત્રીએ":2569,"▁ટેસ્ટ":2570,"▁રેલવે":2571,"▁રાખીને":2572,"ગુજ":2573,"નિકો":2574,"▁કોલ":2575,"▁લોકપ્રિય":2576,"▁એફ":2577,"▁રાશિમાં":2578,"▁શાહરુખ":2579,"ણની":2580,"▁પ્રયત્":2581,"▁પ્રાપ્ત":2582,"▁ઉદ્":2583,"▁છા":2584,"ંગ્રેસ":2585,"▁નોંધનીય":2586,"▁કાર્યકર્તા":2587,"▁ચાહ":2588,"ધાર":2589,"▁સન્માન":2590,"ંદી":2591,"પુરમાં":2592,"▁ખાનની":2593,"▁પરિવર્":2594,"▁પ્રકાશ":2595,"▁યુવાનો":2596,"જની":2597,"▁મોટાભાગ":2598,"▁કોશિ":2599,"▁વેબ":2600,"▁જોરદાર":2601,"▁જઇ":2602,"▁તમારે":2603,"▁શૂટિંગ":2604,"▁ઇન":2605,"હ્":2606,"▁અમિતા":2607,"▁હજી":2608,"▁ઓફિસ":2609,"ઘટના":2610,"▁આદિત્ય":2611,"▁સભ્ય":2612,"▁દીકરી":2613,"▁કંગના":2614,"▁સંપત્તિ":2615,"▁સીબી":2616,"જીએ":2617,"▁હિન્દુ":2618,"તામાં":2619,"▁વકી":2620,"▁રહેવા":2621,"સ્કાર":2622,"▁ઉચ્ચ":2623,"▁નાગરિક":2624,"▁બજાર":2625,"શ્રી":2626,"▁પરીક્ષા":2627,"▁કોલે":2628,"▁બેન":2629,"▁તેલ":2630,"કોર્ડ":2631,"▁યુનિવર્સિટી":2632,"વિષ્ય":2633,"▁ભૂત":2634,"▁મામલો":2635,"▁ભાજપની":2636,"▁પ્રકારના":2637,"ઉન્ડ":2638,"▁શબ્":2639,"ગુજરાત":2640,"▁સબ":2641,"▁મમતા":2642,"▁અમિતાભ":2643,"▁વર્ત":2644,"નિટ":2645,"▁મોર":2646,"▁ફી":2647,"▁મિત્ર":2648,"▁કરાવી":2649,"▁શાનદાર":2650,"▁દાર":2651,"▁વાગ્ય":2652,"▁ભવિષ્ય":2653,"ભર":2654,"▁એકા":2655,"▁વાહ":2656,"▁પાર્ટીમાં":2657,"શ્ય":2658,"▁ગુજરા":2659,"▁હિમા":2660,"▁પોતે":2661,"▁વિભાગના":2662,"▁દબા":2663,"▁સંભા":2664,"▁ગીત":2665,"▁સંપર્ક":2666,"સ્સો":2667,"▁સચિવ":2668,"જારો":2669,"ઉલ્લેખનીય":2670,"▁વાગ્યે":2671,"▁પાછા":2672,"▁ભાગી":2673,"ડમાં":2674,"▁ભજ":2675,"▁બચાવ":2676,"જીત":2677,"સ્તો":2678,"▁સ્ટો":2679,"▁કાર્યક્રમમાં":2680,"▁ઋ":2681,"િર":2682,"લોજી":2683,"▁નહી":2684,"ૉર્ડ":2685,"▁થયુ":2686,"▁જ્યોતિ":2687,"ક્કસ":2688,"▁રેકોર્ડ":2689,"▁દ્":2690,"ઝરાય":2691,"ાંસ":2692,"▁ખરીદ":2693,"▁આંતરરાષ્ટ્રીય":2694,"▁ખેંચ":2695,"મું":2696,"▁અફઘાનિસ્તા":2697,"મથી":2698,"▁છે\nવ":2699,"▁મળીને":2700,"▁પુરા":2701,"▁ઉલ્લેખ":2702,"ાનક":2703,"▁વીડિયોમાં":2704,"▁પરિણામો":2705,"ૂંટ":2706,"▁સ્ટેશ":2707,"▁મિત્રો":2708,"▁કહેવાય":2709,"▁આખા":2710,"નેટ":2711,"▁પૂછપરછ":2712,"▁ધમકી":2713,"ધિક":2714,"▁જંગ":2715,"▁મની":2716,"ર્ન":2717,"વીર":2718,"▁હાઉ":2719,"▁કમાણી":2720,"▁ઇન્ડિયા":2721,"▁લડી":2722,"▁રસ":2723,"▁પાર્ટીએ":2724,"▁પકડ":2725,"▁અટ":2726,"▁સ્પર્":2727,"▁સૈનિકો":2728,"▁પુત્રી":2729,"▁આપશે":2730,"▁ચોક્કસ":2731,"▁સુશાંત":2732,"વલ":2733,"▁શંકા":2734,"દિ":2735,"▁રોલ":2736,"લેટ":2737,"▁રોકાણ":2738,"▁૩":2739,"▁વાસ્તવ":2740,"લેન્ડ":2741,"▁અચાનક":2742,"▁છે\nસ":2743,"થુ":2744,"▁તેજ":2745,"▁જેટલી":2746,"અપ":2747,"▁કોશિશ":2748,"ર્ય":2749,"રૂપ":2750,"▁કાન":2751,"▁ટાઇ":2752,"▁ઘા":2753,"▁હિંદુ":2754,"▁વિરોધી":2755,"▁સહાય":2756,"▁ધરાવ":2757,"▁ગતિ":2758,"લ્ટ":2759,"બાન":2760,"ચિ":2761,"ઝિટ":2762,"▁પ્રમો":2763,"▁સંબંધો":2764,"▁યૂ":2765,"▁કરોડની":2766,"ાયું":2767,"ક્રિય":2768,"ુપ":2769,"▁બાદમાં":2770,"▁મુંબઇ":2771,"▁ગયુ":2772,"▁સપા":2773,"▁હુ":2774,"▁લેખ":2775,"ટિંગ":2776,"િકેટ":2777,"▁માધ્ય":2778,"▁બચ્ચન":2779,"▁દિવસમાં":2780,"▁રોગ":2781,"સ્ટ્ર":2782,"▁આઠ":2783,"▁ફિલ્મનું":2784,"ાની":2785,"▁વર્ષો":2786,"▁હોવાના":2787,"દય":2788,"ભૂ":2789,"ૈયા":2790,"▁ઔ":2791,"▁આલિયા":2792,"ત્તમ":2793,"ઓથી":2794,"દના":2795,"▁નદી":2796,"▁જેલમાં":2797,"ડામાં":2798,"▁પહેર":2799,"ંસ":2800,"▁વિભાગે":2801,"▁પેટ્રોલ":2802,"▁સૂચના":2803,"▁આઝા":2804,"લિંગ":2805,"▁ઘોષ":2806,"ષ્ટિ":2807,"▁મિશન":2808,"▁અડ":2809,"હત":2810,"ંડે":2811,"ંત્રણ":2812,"વાજ":2813,"▁જોડાયેલા":2814,"▁યોગી":2815,"▁મોહ":2816,"ર્તિ":2817,"▁આર્":2818,"▁ઇન્":2819,"▁લખ્યુ":2820,"▁કાશ્મીર":2821,"▁ઘણો":2822,"દ્દી":2823,"િલનાડુ":2824,"શ્વર્યા":2825,"બંધી":2826,"▁ધન":2827,"▁કેટલા":2828,"▁પાટી":2829,"▁લાગ્યા":2830,"કરો":2831,"▁મોકલી":2832,"\nમ":2833,"લિવ":2834,"▁બ્રે":2835,"▁દિવસની":2836,"▁જિ":2837,"▁જૈ":2838,"પ્પણી":2839,"▁કહેવા":2840,"▁ગ્રા":2841,"▁ભી":2842,"▁વ્":2843,"▁એક્સપ":2844,"▁કબ":2845,"▁નાની":2846,"▁ફાયદો":2847,"ત્તી":2848,"▁જેઓ":2849,"સ્પે":2850,"▁ખુશી":2851,"નોને":2852,"કારાત્મક":2853,"▁ગુમા":2854,"ણુ":2855,"▁આપને":2856,"▁મુસ્લિમ":2857,"▁કરા":2858,"▁રાખવા":2859,"માજ":2860,"▁વર્તમાન":2861,"મ્સ":2862,"▁ફ્લા":2863,"▁ગુજરાતની":2864,"કનો":2865,"▁નામે":2866,"ક્તા":2867,"▁મોબા":2868,"▁મહાન":2869,"▁રૂપિયાની":2870,"▁છે\nજો":2871,"▁મેદાન":2872,"▁આવો":2873,"▁સ્વીકાર":2874,"▁સ્પી":2875,"▁કઈ":2876,"▁શપથ":2877,"િયમ":2878,"▁કડક":2879,"▁પુન":2880,"ાર્મિક":2881,"▁ભૂક":2882,"▁જામ":2883,"▁વિષ":2884,"રનેટ":2885,"▁લહે":2886,"▁જસ્ટ":2887,"▁પુર":2888,"▁યુવા":2889,"▁સીમા":2890,"▁ખાનગી":2891,"સ્તાવ":2892,"▁જેટલા":2893,"શ્ચિત":2894,"હુ":2895,"▁શહેરમાં":2896,"▁લગાવવામાં":2897,"મૂ":2898,"▁શરુ":2899,"▁તેવા":2900,"્રીન":2901,"▁કલે":2902,"▁કરીના":2903,"▁જાણીતા":2904,"▁સત્ર":2905,"▁છૂ":2906,"▁રાજ્યસભા":2907,"ંડી":2908,"▁સિસ્ટ":2909,"યે":2910,"▁મેચ":2911,"▁મચ":2912,"▁હાજરી":2913,"ચન":2914,"▁ધૂ":2915,"▁જનરલ":2916,"▁કમિશન":2917,"▁ખુલાસો":2918,"ઢી":2919,"▁ક્ષમતા":2920,"▁હતી\nઆ":2921,"▁ગ્રામ":2922,"▁આંકડા":2923,"▁સક્રિય":2924,"▁ઘટાડો":2925,"▁જળ":2926,"▁ખાલી":2927,"▁કોન્":2928,"્રિયા":2929,"▁સાઉ":2930,"▁ખરીદી":2931,"▁ચક્ર":2932,"▁પ્રગ":2933,"▁ખતમ":2934,"▁જાળ":2935,"સીના":2936,"▁મોડ":2937,"▁નહોતી":2938,"▁સ્થળે":2939,"\nક":2940,"નક":2941,"▁ફ્ર":2942,"મતી":2943,"▁આપણી":2944,"▁સાવ":2945,"▁ક્રિકેટ":2946,"▁શકી":2947,"ગાળા":2948,"▁ચેત":2949,"▁બતાવી":2950,"▁પ્રભ":2951,"▁કોંગ્રેસને":2952,"િઝ":2953,"▁મહેન":2954,"ંકર":2955,"▁જગ":2956,"ઇડ":2957,"▁જામી":2958,"તરાખંડ":2959,"▁વાયરસના":2960,"▁ઈન્":2961,"શૂટ":2962,"▁એપ":2963,"▁કથ":2964,"▁વળ":2965,"▁લવ":2966,"▁પોલીસને":2967,"ાવર":2968,"▁થતી":2969,"રુષ":2970,"▁આપીને":2971,"▁નિર્માતા":2972,"▁સમાન":2973,"▁કેજરીવાલે":2974,"▁પડ્યો":2975,"▁અલ":2976,"▁ધાર્મિક":2977,"▁નારાજ":2978,"સ્ટ્રે":2979,"▁જાણીએ":2980,"ફોર્મ":2981,"▁સુરત":2982,"▁ભૂપેન્દ્ર":2983,"રાની":2984,"▁ચુક":2985,"▁થયેલ":2986,"▁સંયુક્ત":2987,"▁એલર્ટ":2988,"▁દેવી":2989,"▁સાય":2990,"▁લડા":2991,"▁નવો":2992,"▁પ્રભાવિત":2993,"▁થતાં":2994,"▁આફ":2995,"▁વિમાન":2996,"▁તારીખ":2997,"▁જેનાથી":2998,"▁ભલે":2999,"▁પાડી":3000,"▁પક્ષો":3001,"▁જોખ":3002,"▁પ્રસ્તાવ":3003,"▁આંદોલન":3004,"▁જૂના":3005,"▁ટિપ્પણી":3006,"ચો":3007,"▁બિઝ":3008,"▁ખેડૂત":3009,"▁બહુમ":3010,"ત્સા":3011,"▁સારું":3012,"▁સ્ટેટ":3013,"▁બ્રિટ":3014,"પિતા":3015,"પૂર્વક":3016,"▁કરવાથી":3017,"▁મ્યુ":3018,"▁પગલાં":3019,"રાષ્ટ્ર":3020,"▁કેબિ":3021,"લિત":3022,"▁ડ્રા":3023,"▁મેળવ":3024,"▁નાય":3025,"▁ચૌધ":3026,"લાલ":3027,"▁સંર":3028,"થમિક":3029,"▁અજય":3030,"તરના":3031,"▁ત્રણે":3032,"સવ":3033,"▁ક્ષેત્રમાં":3034,"ુર":3035,"▁પ્રવાસી":3036,"રાજ્ય":3037,"▁પ્રતિનિ":3038,"▁જાણે":3039,"▁બન્ને":3040,"▁મહત્વના":3041,"સ્થિત":3042,"દૂ":3043,"▁ભારતે":3044,"▁બાબતો":3045,"▁કોણ":3046,"▁મોટું":3047,"▁બદલે":3048,"ઉટ":3049,"બેન":3050,"▁શકશે":3051,"▁દરિયા":3052,"ઈલ":3053,"▁પરેશ":3054,"ગ્રા":3055,"લીને":3056,"િની":3057,"▁વગર":3058,"રેક્ટર":3059,"▁હૉટ":3060,"▁સોનિયા":3061,"▁આગા":3062,"▁પરિવારના":3063,"શીલ":3064,"▁લક્ષ્":3065,"▁કચ્છ":3066,"▁વિદેશી":3067,"ર્તા":3068,"▁દારૂ":3069,"્રેન્ડ":3070,"▁ગુજરાતી":3071,"જમાં":3072,"▁પ્રોત્સા":3073,"▁વર્ષીય":3074,"ાવ્યા":3075,"▁આરોપો":3076,"ાણ":3077,"▁પાર્ટીની":3078,"▁માગ":3079,"કેલ":3080,"▁મૂળ":3081,"▁લોન્ચ":3082,"પુરા":3083,"▁વાતા":3084,"મરાન":3085,"▁પસંદગી":3086,"▁હિટ":3087,"ેડ":3088,"શ્ર":3089,"ર્ગ":3090,"▁ટ્રેન":3091,"પલ":3092,"▁વર્ગ":3093,"▁નિષ્ણા":3094,"મેટ":3095,"▁બદલા":3096,"ત્મા":3097,"▁જેમણે":3098,"▁સુરક્ષિત":3099,"▁પ્રાથમિક":3100,"▁સ્વાગત":3101,"▁વાહન":3102,"▁લાગ્યો":3103,"નગરમાં":3104,"▁રકમ":3105,"▁લિયો":3106,"્યાલય":3107,"▁છે\nક":3108,"▁પાલન":3109,"▁રૂપા":3110,"▁પડકાર":3111,"કોની":3112,"▁મુશ્કેલ":3113,"▁અનુભવ":3114,"▁બપોરે":3115,"▁મહત્વની":3116,"▁વધારી":3117,"▁હટ":3118,"▁બાંધ":3119,"મુખ્ય":3120,"કાઉન્ટ":3121,"▁ટૂંક":3122,"▁કેમે":3123,"▁દ્ર":3124,"▁દેખાઈ":3125,"જનક":3126,"▁મુદ્દો":3127,"▁કપડા":3128,"▁વાતાવરણ":3129,"▁જલ્":3130,"▁શ્રેષ્ઠ":3131,"▁ભે":3132,"\nસ":3133,"▁નિયમો":3134,"ફરન્સ":3135,"ત્કાર":3136,"▁મળશે\n":3137,"▁હોસ્પિટલ":3138,"▁તાલિબાન":3139,"એફ":3140,"▁પાંડે":3141,"▁આવક":3142,"ાંડ":3143,"▁સ્વતંત્ર":3144,"▁રાજ્યની":3145,"▁શકતા":3146,"▁આમાં":3147,"▁અંબા":3148,"▁તબક્કામાં":3149,"▁ચેતવણી":3150,"▁પાકિસ્તાની":3151,"ંતી":3152,"▁મતદારો":3153,"▁પૃ":3154,"▁પ્રતિક્રિયા":3155,"પારી":3156,"માજિક":3157,"લાન":3158,"▁હોત":3159,"▁સ્ત":3160,"▁વૉ":3161,"▁ક્યારેક":3162,"તાને":3163,"▁આખી":3164,"▁ખુદ":3165,"▁ગામમાં":3166,"▁ઝડપી":3167,"▁વેક્સી":3168,"▁રચના":3169,"▁હથ":3170,"▁ગય":3171,"મેન":3172,"▁પાત્ર":3173,"કાન":3174,"▁અગ્ર":3175,"▁જેનો":3176,"▁શાહે":3177,"▁ફોટોશૂટ":3178,"▁ભાષા":3179,"▁કોઈને":3180,"નાત":3181,"▁મોકલવામાં":3182,"▁સિને":3183,"▁વિદ્યાર્થીઓ":3184,"કિંગ":3185,"▁દુઃ":3186,"▁ભ્રષ્ટ":3187,"જુન":3188,"હરણ":3189,"▁વસ":3190,"▁કાર્ડ":3191,"▁એક્ટ્રેસ":3192,"કુમાર":3193,"▁સમુદાય":3194,"▁સભા":3195,"સગઢ":3196,"▁વર્લ્ડ":3197,"▁મળતી":3198,"શાળી":3199,"▁તમિલનાડુ":3200,"ર્ટે":3201,"િયાએ":3202,"▁જાતિ":3203,"વાને":3204,"▁સમી":3205,"▁ઠાકરે":3206,"િત્વ":3207,"પક":3208,"▁ભૂકંપ":3209,"નય":3210,"કાશ્મી":3211,"▁ઘટનાઓ":3212,"▁પાદુ":3213,"▁આગાહી":3214,"▁બાબત":3215,"▁રણબીર":3216,"▁પોતાને":3217,"▁જલ્દી":3218,"▁અનામત":3219,"કાલે":3220,"▁ટ્રમ્પ":3221,"▁ડ્રેસ":3222,"▁પત્રકાર":3223,"▁એનસી":3224,"બુક":3225,"તીય":3226,"રૂખ":3227,"▁ગઠબંધન":3228,"▁દળો":3229,"▁ધરાવે":3230,"\nવ":3231,"રોની":3232,"સને":3233,"▁ભગવંત":3234,"િકન":3235,"રથી":3236,"▁યુઝ":3237,"▁પાદુકો":3238,"▁છે\nપ":3239,"ડેટ":3240,"કોએ":3241,"કડી":3242,"▁ઉત્તરાખંડ":3243,"ૃત્તિ":3244,"ત્તીસગઢ":3245,"▁હથિય":3246,"▁સરહ":3247,"▁કલાકમાં":3248,"દાય":3249,"કીને":3250,"▁પૂર્":3251,"▁લખી":3252,"ષેક":3253,"▁ટાઈ":3254,"ડાના":3255,"▁બનશે":3256,"ાચાર":3257,"જીન":3258,"▁થોડી":3259,"▁બનાવે":3260,"કાળ":3261,"▁ફરજ":3262,"સ્લા":3263,"▁પુલ":3264,"મિર":3265,"▁ઐશ્વર્યા":3266,"▁પાકિસ્તાનના":3267,"યોધ્યા":3268,"▁ફેરફ":3269,"▁કોંગ્રેસની":3270,"▁નજ":3271,"▁રાજ્યપાલ":3272,"▁મેડિકલ":3273,"▁વિગ":3274,"▁આદિ":3275,"ભો":3276,"▁કાઢી":3277,"▁મેળવવા":3278,"▁ગ્રે":3279,"▁રહો":3280,"▁લેશે":3281,"સીએ":3282,"ડિય":3283,"▁ટ્રાન્સ":3284,"ત્ત":3285,"▁મુક્ત":3286,"▁મેને":3287,"▁શ્રદ્ધા":3288,"બૂ":3289,"ફળ":3290,"▁નાં":3291,"▁પંજાબના":3292,"▁ખોલ":3293,"▁વખાણ":3294,"હત્યા":3295,"▁રદ":3296,"▁વહી":3297,"▁ઉભા":3298,"▁ત્રીજા":3299,"▁કરતો":3300,"▁પરિવર્તન":3301,"▁નીકળ":3302,"િજ":3303,"▁ચીફ":3304,"▁ફાઇ":3305,"રાઈ":3306,"▁ગણતરી":3307,"▁ગયાં":3308,"▁જોડી":3309,"ટ્સ":3310,"▁ચૂંટણીના":3311,"કાંઠા":3312,"ઇન":3313,"▁તોડ":3314,"સીને":3315,"▁ભારતને":3316,"નોની":3317,"▁ગિ":3318,"▁અદાલ":3319,"▁માર્યા":3320,"▁ફક્ત":3321,"નોંધનીય":3322,"▁કરણ":3323,"▁ફૂ":3324,"▁સાથ":3325,"▁કથિત":3326,"ન્જ":3327,"▁લોકોમાં":3328,"▁ગરમી":3329,"▁ડોલ":3330,"▁રાખે":3331,"▁અપના":3332,"શ્વિક":3333,"▁એક્સપ્રેસ":3334,"▁જામીન":3335,"▁એવોર્ડ":3336,"રુણ":3337,"▁કલ્યા":3338,"▁સવાર":3339,"▁ઉત્સા":3340,"▁અપે":3341,"ડર":3342,"▁વેર":3343,"▁બધું":3344,"ક્ષે":3345,"▁બિન":3346,"▁હીરો":3347,"માને":3348,"▁ઝા":3349,"▁અબ":3350,"રાણ":3351,"▁ઓન":3352,"▁યુએસ":3353,"▁ઉંચ":3354,"ગણ":3355,"દાચ":3356,"▁ઓપરેશન":3357,"▁ચૌધરી":3358,"▁છે\nએ":3359,"▁તંત્ર":3360,"▁માન્ય":3361,"▁મળવા":3362,"▁બોલી":3363,"▁દિવાળી":3364,"▁દવા":3365,"▁બળા":3366,"▁ડિઝ":3367,"▁સંપૂર્ણપણે":3368,"▁સપ્તા":3369,"▁શહી":3370,"▁ખેડૂતોને":3371,"ઝો":3372,"▁ઘણું":3373,"▁પ્રોડ":3374,"▁જાગ":3375,"▁રાજકોટ":3376,"સમ":3377,"સીની":3378,"▁પુરુષ":3379,"▁જાણો":3380,"▁મિનિટ":3381,"▁સંરક્ષણ":3382,"▁ફાઈ":3383,"▁તેવું":3384,"▁સામાજિક":3385,"▁પંચાય":3386,"▁૪":3387,"▁જણા":3388,"બરે":3389,"▁પ્રેસ":3390,"▁મહાસ":3391,"▁વીજળી":3392,"શિયન":3393,"▁સમક્ષ":3394,"▁સહિતના":3395,"▁મજા":3396,"▁અહેવાલો":3397,"▁વૈજ્ઞાન":3398,"આઈએ":3399,"▁વિગતો":3400,"લાઈન":3401,"▁ન્યૂઝ":3402,"▁પિ":3403,"▁રાજીનામું":3404,"▁રક્ષા":3405,"▁કરનારા":3406,"▁ફિ":3407,"▁ત્રિ":3408,"▁સાથેની":3409,"▁બિઝનેસ":3410,"▁દેશને":3411,"▁સ્કૂ":3412,"▁કદાચ":3413,"▁ઘે":3414,"▁ઘરની":3415,"▁નામની":3416,"▁બાળકોને":3417,"▁નબ":3418,"▁માનવ":3419,"્રમ":3420,"▁ડેટા":3421,"દિવ":3422,"▁ભુ":3423,"▁ભીડ":3424,"▁ધારણા":3425,"▁કાયદો":3426,"▁છત્તીસગઢ":3427,"▁એકાઉન્ટ":3428,"▁મહેનત":3429,"▁અયોધ્યા":3430,"▁વેપાર":3431,"પત્ર":3432,"▁આભાર":3433,"ંપરા":3434,"▁કિલોમી":3435,"વ્ર":3436,"▁સ્પેશ":3437,"▁અત્યારે":3438,"અલ":3439,"ળુ":3440,"▁અવાજ":3441,"▁રાજા":3442,"કત":3443,"▁યાદીમાં":3444,"▁સાંસ":3445,"▁કલમ":3446,"▁ગર્લ":3447,"ગલ":3448,"▁વસ્તી":3449,"સ્ટાર":3450,"▁ત્યારથી":3451,"▁ડાન્સ":3452,"▁પ્રેર":3453,"▁સત્ય":3454,"▁અઠવાડિયા":3455,"▁ગુના":3456,"▁પહોંચાડ":3457,"▁પ્રમોશન":3458,"ક્કર":3459,"▁સંસ્ક":3460,"▁દેશભરમાં":3461,"▁બળ":3462,"▁સંદેશ":3463,"▁નિધન":3464,"▁મેદાનમાં":3465,"▁કેટલાય":3466,"▁આગે":3467,"પાન":3468,"▁સંગી":3469,"ગ્રહ":3470,"▁નોંધવામાં":3471,"ણીમાં":3472,"▁ઉતાર":3473,"▁જયારે":3474,"▁સંબોધિત":3475,"▁ટુ":3476,"▁બેંગ":3477,"▁ઘટ":3478,"\nહ":3479,"રસ":3480,"▁વૈશ્વિક":3481,"▁લક્ષ્મી":3482,"▁કૃષ્ણ":3483,"▁કંઈક":3484,"▁ચાર્":3485,"▁કયા":3486,"▁બાબતે":3487,"▁કાં":3488,"▁સંશો":3489,"▁ઉંમ":3490,"માની":3491,"▁એન્ટ્રી":3492,"▁દિલ્લીઃ":3493,"▁રાજનીતિ":3494,"▁શોમાં":3495,"▁સ્વામી":3496,"▁પાર્ટીને":3497,"▁અબ્":3498,"િટર":3499,"▁કૈફ":3500,"્યુટી":3501,"ંડા":3502,"સાથે":3503,"▁સોશ્ય":3504,"▁થકી":3505,"▁આત્મહત્યા":3506,"દની":3507,"ફિલ્મ":3508,"▁નામના":3509,"ટની":3510,"કુલ":3511,"▁પર્વ":3512,"▁મધ્યપ્રદેશ":3513,"▁માટેની":3514,"▁પ્રવક્તા":3515,"પમાં":3516,"હમાં":3517,"▁કોરોનાના":3518,"રાના":3519,"▁બહેન":3520,"▁દીધુ":3521,"▁મહિને":3522,"▁પરંપરા":3523,"▁બ્લે":3524,"▁પ્રયાસો":3525,"કાય":3526,"▁અપડેટ":3527,"▁કેસની":3528,"▁દિગ્દર્શ":3529,"▁દાન":3530,"▁ચોમા":3531,"▁બળાત્કાર":3532,"▁વાગે":3533,"મસ":3534,"દર્ભ":3535,"▁સમયગાળા":3536,"▁દબાણ":3537,"▁ડ્રગ":3538,"▁એવામાં":3539,"▁દેખાય":3540,"▁પશુ":3541,"કર્મી":3542,"\nજ":3543,"રાશ":3544,"ંધ્ર":3545,"▁દેવા":3546,"▁ઝો":3547,"▁આપવાનો":3548,"▁શાહરૂખ":3549,"વાલા":3550,"ંગી":3551,"▁સ્ત્રી":3552,"▁વિષય":3553,"ળીને":3554,"▁અતિ":3555,"▁વ્યસ્ત":3556,"ભિ":3557,"▁અપેક્ષા":3558,"▁જોગ":3559,"મ્મદ":3560,"▁સેક્સી":3561,"▁અમેરિકાના":3562,"▁લખન":3563,"▁ફૅ":3564,"▁થા":3565,"▁સંકે":3566,"▁થોડ":3567,"▁ગોચર":3568,"▁તેઓએ":3569,"▁કૃપા":3570,"▁ભોગ":3571,"▁કુમારે":3572,"▁બંધાર":3573,"ંબ":3574,"▁એનડીએ":3575,"▁ન્યુ":3576,"▁હાઈકોર્ટ":3577,"▁કાર્યો":3578,"▁સીસી":3579,"▁કારણકે":3580,"▁રિયા":3581,"▁મેટ":3582,"▁અકસ્માત":3583,"▁તાત્કા":3584,"યોગી":3585,"▁મેના":3586,"▁કોર્ટના":3587,"▁સંગઠન":3588,"▁નોટિસ":3589,"▁કસ્ટ":3590,"િક્સ":3591,"▁દર્શન":3592,"તાથી":3593,"▁પ્લેટ":3594,"રેજ":3595,"▁હોઈ":3596,"▁રહેલ":3597,"▁નજીકના":3598,"▁રાતે":3599,"તિહાસિક":3600,"▁ઈન્સ્ટાગ્રામ":3601,"▁ચાલો":3602,"▁વસ્તુઓ":3603,"▁દાય":3604,"▁ગમે":3605,"▁સોંપ":3606,"સ્ફો":3607,"▁પુસ્ત":3608,"કેશ":3609,"કોંગ્રેસ":3610,"ષ્કા":3611,"▁ટેક્":3612,"▁બનવા":3613,"▁ભરતી":3614,"▁પૃથ્":3615,"રાહ":3616,"િલ્ડ":3617,"કામ":3618,"▁વાર્તા":3619,"▁ફોલો":3620,"▁દિશામાં":3621,"▁ધરાવતા":3622,"▁અભિષેક":3623,"િલે":3624,"▁મારો":3625,"▁સાથી":3626,"▁હોવાનો":3627,"દ્ર":3628,"▁રહેવાની":3629,"સ્પદ":3630,"છા":3631,"▁હજારો":3632,"▁જવાની":3633,"▁એના":3634,"▁હેતુ":3635,"પ્પા":3636,"▁ઉમેર":3637,"▁પુષ્ટિ":3638,"▁રિલ":3639,"▁આની":3640,"▁મંદિરમાં":3641,"▁ભ્રષ્ટાચાર":3642,"▁કલ્યાણ":3643,"▁સીન":3644,"▁પ્રી":3645,"▁યાદી":3646,"▁સર્વ":3647,"▁સહયોગ":3648,"▁રૂપે":3649,"▁તરત":3650,"▁મૅ":3651,"રાગ":3652,"▁ચીનના":3653,"ભાજપ":3654,"▁સંક્રમિત":3655,"ઠ્":3656,"રામાં":3657,"ગ્રામ":3658,"▁તહેવાર":3659,"▁જેમાંથી":3660,"િએ":3661,"▁અદા":3662,"▁લીધે":3663,"▁નું":3664,"▁નહ":3665,"▁સંચાલ":3666,"▁હાથમાં":3667,"▁ગણાવી":3668,"▁ખેલા":3669,"▁વાઇ":3670,"ટીમાં":3671,"▁મોડી":3672,"▁બાબા":3673,"ારખંડ":3674,"▁આવવા":3675,"ખ્યાત":3676,"રોએ":3677,"ાર્ડ":3678,"▁સ્થાને":3679,"▁અશો":3680,"▁સૈન્ય":3681,"▁હતાં\n":3682,"ટીના":3683,"▁જેલ":3684,"▁ટીકા":3685,"કોર્ટે":3686,"▁ઐતિહાસિક":3687,"▁શીખ":3688,"ંદે":3689,"▁જવાબદાર":3690,"▁કાર્યક્ર":3691,"▁તેલંગા":3692,"▁ભૂતપૂર્વ":3693,"▁જલ":3694,"▁૫":3695,"▁ક્લા":3696,"લીન":3697,"▁હસ":3698,"▁માંગણી":3699,"▁પાડવામાં":3700,"▁લીડ":3701,"ડતા":3702,"▁ખરે":3703,"▁તાત્કાલિક":3704,"▁પ્રગતિ":3705,"▁પહેલીવાર":3706,"લોક":3707,"આત":3708,"▁હળ":3709,"▁વિકસ":3710,"જ્જ":3711,"ધ્":3712,"▁પંડ":3713,"▁સીબીઆઈ":3714,"નથી":3715,"શ્ચર્ય":3716,"▁આનાથી":3717,"ગારી":3718,"▁અધિકારીએ":3719,"▁સમાપ્ત":3720,"▁માતાપિતા":3721,"રિય":3722,"પાલિકા":3723,"▁મણ":3724,"હેબ":3725,"▁વિપક્ષી":3726,"▁ડેટ":3727,"▁વેપારી":3728,"ડ્":3729,"▁એટલી":3730,"અલગ":3731,"▁નેટ":3732,"▁જેણે":3733,"▁આખરે":3734,"▁તૂ":3735,"▁પૃથ્વી":3736,"▁રજા":3737,"▁મોંઘ":3738,"▁માનસિક":3739,"ંસા":3740,"હોલ":3741,"▁પંજાબમાં":3742,"▁બાર":3743,"▁ઉપસ્થિત":3744,"▁ડોઝ":3745,"▁તેમાંથી":3746,"લીમ":3747,"▁હેડ":3748,"ભરના":3749,"▁ઇન્સ્ટાગ્રામ":3750,"પાત્ર":3751,"▁કંટ":3752,"▁સ્ટા":3753,"▁કપિલ":3754,"▁કૌશ":3755,"▁મોટાભાગના":3756,"ણવ":3757,"▁સ્પે":3758,"▁જૂથ":3759,"▁સની":3760,"▁ચઢ":3761,"▁ખોટ":3762,"▁સાઉથ":3763,"▁લઘ":3764,"જીની":3765,"▁ત્રીજી":3766,"▁પ્રયત્ન":3767,"▁આંધ્ર":3768,"▁ગુપ્તા":3769,"▁કન્":3770,"▁ખેતી":3771,"▁માલિક":3772,"કોના":3773,"લિવુડ":3774,"શે\nઆ":3775,"ન્હા":3776,"▁હાઉસ":3777,"દમ":3778,"લબ":3779,"▁સર્જ":3780,"▁મંડ":3781,"▁ભાવમાં":3782,"▁હિમાચલ":3783,"▁વાય":3784,"▁પીડિત":3785,"▁ઉત્પાદન":3786,"નોના":3787,"▁વહીવ":3788,"▁એક્શન":3789,"▁છે\nતમને":3790,"▁નોંધાવી":3791,"▁પોલ":3792,"▁વ્યક્તિને":3793,"▁ટેક્સ":3794,"▁સરદાર":3795,"▁દુર્ઘટના":3796,"રીઝ":3797,"▁લીધું":3798,"▁ઉત્પાદ":3799,"▁બરા":3800,"▁વાયુ":3801,"▁અંક":3802,"▁ઘટી":3803,"▁ઠેર":3804,"▁મહારાષ્ટ્રમાં":3805,"▁આશ્ચર્ય":3806,"લેક્ટ":3807,"▁દુનિયામાં":3808,"ફ્રેન્ડ":3809,"ાયે":3810,"▁પદના":3811,"▁જરૂરિયા":3812,"▁પોલિસે":3813,"ંગ્લા":3814,"▁ભૂલ":3815,"▁અમેરિકી":3816,"▁સ્થળોએ":3817,"કારક":3818,"▁લાખો":3819,"દીના":3820,"▁પેજ":3821,"મેર":3822,"જિન":3823,"▁છેકે":3824,"▁સૌરાષ્ટ્ર":3825,"કૂ":3826,"▁પરિષ":3827,"▁ઝલક":3828,"કટ":3829,"જું":3830,"▁રમત":3831,"▁દલિત":3832,"વીએ":3833,"▁જ્યોતિષ":3834,"▁મળતા":3835,"િકાર":3836,"▁ફટ":3837,"▁ભાવના":3838,"▁પાટ":3839,"▁મંત્રાલયે":3840,"▁સાંસદો":3841,"▁મસ્":3842,"કાલ":3843,"▁છોડીને":3844,"▁હિન્":3845,"▁આયોજિત":3846,"▁લોકોનું":3847,"▁વેચ":3848,"ઈન":3849,"▁અભિનંદ":3850,"▁ચુકા":3851,"▁સમાર":3852,"▁દિલ્હીની":3853,"ફ્":3854,"▁બદલી":3855,"▁અલગઅલગ":3856,"▁શૈ":3857,"દિલ્":3858,"▁અધિકારીઓએ":3859,"▁માધ્યમથી":3860,"ચ્છા":3861,"નિશ્ચિત":3862,"▁ઘોષણા":3863,"▁આમિર":3864,"▁સ્થાપિત":3865,"▁અંતર":3866,"▁સિંગ":3867,"એલ":3868,"▁બનાવવાની":3869,"▁પૂરા":3870,"▁શબ્દ":3871,"▁રન":3872,"▁ગણેશ":3873,"▁સિસ્ટમ":3874,"▁જાણીતી":3875,"▁નોંધાયા":3876,"▁વિસ્ફો":3877,"મતિ":3878,"ળામાં":3879,"વૉર્ડ":3880,"▁જોઈએ\n":3881,"▁તોડી":3882,"▁જોયા":3883,"▁બંગાળ":3884,"▁જમ્મુકાશ્મી":3885,"રમ":3886,"▁તણાવ":3887,"▁સંદર્ભ":3888,"ઘાટન":3889,"કાયદે":3890,"▁આને":3891,"▁નીકળી":3892,"ગાવી":3893,"▁વધીને":3894,"ન્શન":3895,"▁મહારાષ્ટ્રના":3896,"ામાં":3897,"▁ઝારખંડ":3898,"▁શેટ":3899,"▁ગરીબ":3900,"▁જતી":3901,"▁પૉ":3902,"▁નાણાં":3903,"શ્રા":3904,"વાહ":3905,"▁સત્તાવાર":3906,"▁ફેરફાર":3907,"▁અશોક":3908,"▁વિન":3909,"કઅપ":3910,"▁આસામ":3911,"▁રાજપૂ":3912,"્યાન":3913,"▁ખેલાડી":3914,"ીક":3915,"▁ફર્":3916,"ઝલ":3917,"સ્વા":3918,"▁નાણાકીય":3919,"▁સ્તરે":3920,"▁ઈરા":3921,"▁ઊંચ":3922,"સ્વી":3923,"▁શક્યા":3924,"ન્ટે":3925,"▁બધુ":3926,"▁કાશ્મીરમાં":3927,"ંવાર":3928,"▁ભય":3929,"▁લોકસભાની":3930,"હાન":3931,"▁સપના":3932,"▁છે\nબ":3933,"ટીવી":3934,"▁ફિલ્મને":3935,"▁બગ":3936,"▁ગેરકાયદે":3937,"વ્યું":3938,"▁દ્વાર":3939,"મ્પે":3940,"▁ખાનના":3941,"▁કરાઈ":3942,"▁સાંભળ":3943,"▁ફૂટ":3944,"▁કંઇક":3945,"ત્તર":3946,"▁કરું":3947,"▁બ્લેક":3948,"લાઇન":3949,"▁વાંધ":3950,"▁સંઘર્ષ":3951,"▁આપ્યુ":3952,"▁સરકારમાં":3953,"રું":3954,"▁જિલ્લાઓમાં":3955,"લિન":3956,"પીએમ":3957,"▁હિત":3958,"ાવત":3959,"▁સરખ":3960,"▁વારંવાર":3961,"▁નિવેદનમાં":3962,"▁પ્રશંસા":3963,"▁જાવ":3964,"▁ઝી":3965,"▁માંગી":3966,"તાનો":3967,"▁ભાજપમાં":3968,"પોલી":3969,"▁પીડિતા":3970,"ઝર":3971,"▁પ્રશ્ન":3972,"▁ઈન્ડસ્ટ્રી":3973,"▁માફી":3974,"▁વિશા":3975,"ંગ્લાદેશ":3976,"▁અમૃત":3977,"▁પ્રશાસ":3978,"▁કોન્ફરન્સ":3979,"▁સુધીની":3980,"રવ્યુ":3981,"▁લૉકડા":3982,"▁શહીદ":3983,"▁મુંબઈમાં":3984,"▁એક્ટર":3985,"રેટ":3986,"▁સમ્":3987,"▁કેબિનેટ":3988,"ડાની":3989,"▁ગુલા":3990,"▁ઉપા":3991,"▁નેતાઓએ":3992,"▁લાવવામાં":3993,"▁દબ":3994,"▁ગાંધીને":3995,"▁આવનારા":3996,"▁બીજો":3997,"▁ઍવૉર્ડ":3998,"▁શકા":3999,"હાના":4000,"▁એલાન":4001,"▁અભિનય":4002,"▁મૉ":4003,"િયત":4004,"▁અવતાર":4005,"▁ગ્રહણ":4006,"રીની":4007,"▁હાલત":4008,"▁ગેંગ":4009,"▁આચાર":4010,"▁ગુનો":4011,"▁મિશ્રા":4012,"▁સંકટ":4013,"હાજ":4014,"▁વિલ":4015,"જીના":4016,"▁બ્લ":4017,"▁વ્યવસાય":4018,"▁ક્યાંક":4019,"▁બાઇક":4020,"▁ભાગ્ય":4021,"▁મદદથી":4022,"▁દરરોજ":4023,"▁ચાહકો":4024,"▁બજારમાં":4025,"ારંભ":4026,"▁તળ":4027,"▁રહેવાસી":4028,"▁સુધારો":4029,"▁લડાઈ":4030,"લાના":4031,"▁મૃતદે":4032,"લીમાં":4033,"ખ્":4034,"▁પટ":4035,"▁જ્ઞ":4036,"▁એન્જીન":4037,"▁બંનેએ":4038,"મંડ":4039,"ટેસ્ટ":4040,"▁ફેસબુક":4041,"ડની":4042,"વાયા":4043,"▁મથ":4044,"ંડો":4045,"▁બાળક":4046,"▁વેચા":4047,"▁છે\nતે":4048,"શ્મા":4049,"▁મલિક":4050,"▁જૂની":4051,"▁નાગ":4052,"દ્દીન":4053,"▁સમજી":4054,"▁દેશોમાં":4055,"▁ક્ષેત્રે":4056,"▁દાયકા":4057,"્યુઅલ":4058,"▁ત્રણેય":4059,"વતા":4060,"▁સિનેમા":4061,"વાઇ":4062,"ર્મદા":4063,"▁કંપનીઓ":4064,"▁દસ":4065,"▁દરવા":4066,"▁શરૂઆતમાં":4067,"▁છે\nત":4068,"▁સાથેના":4069,"▁પેદા":4070,"▁અનિલ":4071,"▁દંડ":4072,"ચિત":4073,"▁અમેરિકન":4074,"▁મહામારી":4075,"▁દુઃખ":4076,"▁છેલ્લી":4077,"▁સિન્હા":4078,"▁કરોડના":4079,"▁વહેંચ":4080,"▁અખિલ":4081,"પને":4082,"▁છૂટ":4083,"▁કહેવુ":4084,"નનું":4085,"િટલ":4086,"કાર્":4087,"▁પ્રોત્સાહન":4088,"▁હતા\nઆ":4089,"▁કેને":4090,"▁વધારા":4091,"▁વકીલ":4092,"▁આદિવાસી":4093,"▁સ્વચ્છ":4094,"▁ત્યાંથી":4095,"▁ધોરણ":4096,"▁છે\nભાર":4097,"ડીના":4098,"▁ડેબ":4099,"▁અધિકારીઓને":4100,"ઝે":4101,"▁અમદાવાદમાં":4102,"જિદ":4103,"▁૨૦૨":4104,"▁લેવાની":4105,"▁પડ્યા":4106,"▁ગૃહમંત્રી":4107,"શાહી":4108,"▁રોશન":4109,"▁પ્રસાદ":4110,"▁ઉકેલ":4111,"લેથી":4112,"▁અમેરિકામાં":4113,"▁વાસ્તવમાં":4114,"▁આર્મી":4115,"ંદગી":4116,"વિત્ર":4117,"▁સંસ્કૃતિ":4118,"▁રાખો":4119,"▁માહોલ":4120,"▁બનેલી":4121,"▁સ્મ":4122,"▁ચીની":4123,"▁પ્રારંભ":4124,"▁રેખા":4125,"▁સ્થાપના":4126,"દરાબાદ":4127,"▁ચહેરા":4128,"▁સવાલો":4129,"▁સેક્સ":4130,"▁શહેરી":4131,"બદ્ધ":4132,"▁અરો":4133,"લેસ":4134,"▁કિશો":4135,"▁બૉલીવુડમાં":4136,"▁ચમ":4137,"ન્સે":4138,"▁ચૂંટણીની":4139,"▁સ્કૂલ":4140,"▁ચારે":4141,"▁સમુદ્ર":4142,"▁મલ્":4143,"▁લુ":4144,"▁સેલિ":4145,"ચૂંટ":4146,"દ્દા":4147,"▁કૌભ":4148,"લંકા":4149,"▁ડર":4150,"▁બેસ્ટ":4151,"▁પેટા":4152,"▁સિદ્ધાર્થ":4153,"▁દિલ્હીઃ":4154,"▁બૅ":4155,"▁મુદ્દાઓ":4156,"▁કિલોમીટર":4157,"▁થવાના":4158,"▁સંસદમાં":4159,"લામાં":4160,"▁ભાગોમાં":4161,"▁જોડાયા":4162,"▁સરખામ":4163,"▁નજરે":4164,"▁ટોપ":4165,"▁કરેલા":4166,"્યૂટ":4167,"▁સંભવ":4168,"ડવામાં":4169,"▁પામ":4170,"▁સૈફ":4171,"્રહ":4172,"▁દ્રષ્ટ":4173,"▁પર્યા":4174,"▁મેનેજ":4175,"▁ઉદ્ધ":4176,"▁ટ્રાફિક":4177,"ત્રિ":4178,"▁સમિટ":4179,"▁સરળ":4180,"▁હતો\nઆ":4181,"▁બનાવ્યા":4182,"▁સ્પેશિયલ":4183,"ક્તો":4184,"લાઈકા":4185,"▁ખોટી":4186,"▁નિષ્ફળ":4187,"▁ચુકી":4188,"ટલ":4189,"તાએ":4190,"શને":4191,"▁સ્ટાર્સ":4192,"▁બૂ":4193,"▁શુભે":4194,"▁મિલિયન":4195,"▁તીવ્ર":4196,"▁કપૂરે":4197,"▁૬":4198,"▁લેતા":4199,"▁લાંબી":4200,"▁પુરાવા":4201,"થર":4202,"્યંત":4203,"▁સેન્ટર":4204,"ાવતા":4205,"ણીની":4206,"▁ભાષણ":4207,"▁રણવીર":4208,"▁આયુ":4209,"લોમાં":4210,"▁સંભાળ":4211,"▁ધરી":4212,"▁મળવાની":4213,"▁દઇએ":4214,"▁મુખ્યમંત્રીએ":4215,"▁સમારો":4216,"▁ભારતીયો":4217,"▁નવું":4218,"▁મહિલાઓને":4219,"નામાં":4220,"રોધ":4221,"સાઇ":4222,"▁નોંધાયો":4223,"રિટી":4224,"▁ઉમ":4225,"▁પ્રમાણ":4226,"ઈટ":4227,"▁અપમાન":4228,"▁બોમ્બ":4229,"▁કારણો":4230,"ાલમાં":4231,"▁માફ":4232,"▁બૉલિવુડ":4233,"વ્યવ":4234,"ાર્થી":4235,"ર્વાદ":4236,"▁થઈને":4237,"પ્શન":4238,"▁લિસ્ટ":4239,"જલિ":4240,"▁ટીમે":4241,"▁સાફ":4242,"▁ચકા":4243,"▁લૉન્ચ":4244,"\nજો":4245,"▁મકાન":4246,"મનાથ":4247,"▁દિવસના":4248,"▁ગૌરવ":4249,"▁૭":4250,"▁હિન્દી":4251,"▁તૈનાત":4252,"▁આવીને":4253,"▁ફ્લો":4254,"▁મોહમ્મદ":4255,"રિક":4256,"▁ન્યાયા":4257,"યાન":4258,"▁કૂ":4259,"▁સિવ":4260,"▁ઇતિહાસ":4261,"ગામ":4262,"▁સંકેત":4263,"▁ખરેખર":4264,"▁દિવસથી":4265,"▁અભિનંદન":4266,"▁સસ્પે":4267,"▁તસવીરોમાં":4268,"▁વિનંતી":4269,"▁પૂરો":4270,"▁યાદવે":4271,"▁એકદમ":4272,"ટાવી":4273,"▁પક્ષના":4274,"▁પ્રિ":4275,"▁ઉભી":4276,"▁મુલાકા":4277,"સ્ટ્રેલિયા":4278,"▁શૉ":4279,"▁પૂછવામાં":4280,"▁નેતૃત્વમાં":4281,"▁પોઝ":4282,"▁દળ":4283,"▁નર":4284,"▁ગાંધીની":4285,"▁રોજગાર":4286,"▁જસ્ટિસ":4287,"▁બાંગ્લાદેશ":4288,"▁નિર્મ":4289,"સારી":4290,"▁હુમલામાં":4291,"▁કાઉ":4292,"▁પહોંચા":4293,"ભૂત":4294,"▁પડશે\n":4295,"▁રસ્તો":4296,"પોરેશન":4297,"▁દૂધ":4298,"▁સમારંભ":4299,"▁પલ":4300,"▁આઉટ":4301,"િંગમાં":4302,"▁યુક્રેન":4303,"કન":4304,"▁લાખથી":4305,"▁બલ":4306,"▁સોલ":4307,"▁જુદા":4308,"▁પવિત્ર":4309,"જીવ":4310,"▁ગાડી":4311,"ોએ":4312,"▁આર્ય":4313,"▁નહોતો":4314,"▁સર્વિ":4315,"રેશ":4316,"▁વિદ્યા":4317,"સ્તાવે":4318,"ડિયો":4319,"▁વધશે":4320,"લિકો":4321,"શાહ":4322,"▁નર્મદા":4323,"▁ચાલે":4324,"▁મૂર્તિ":4325,"▁વધતા":4326,"▁અત્યંત":4327,"ણીને":4328,"▁મેન":4329,"▁ડ્રાઇ":4330,"▁રસીકરણ":4331,"▁કેપ્ટ":4332,"▁ફળ":4333,"ાનુ":4334,"▁જન્મદિવ":4335,"ંજન":4336,"પેટ":4337,"▁મલ":4338,"▁સ્તર":4339,"▁સમીક્ષા":4340,"▁હકી":4341,"બીસી":4342,"▁કંઇ":4343,"▁ભાઇ":4344,"▁ઘૂ":4345,"નાલ્ડ":4346,"▁અશ્":4347,"▁ક્રો":4348,"▁અંગેની":4349,"▁જેમને":4350,"ત્સવ":4351,"▁અનુષ્કા":4352,"▁તમારો":4353,"ંટી":4354,"▁અવસર":4355,"લાની":4356,"ણામાં":4357,"▁સરળતા":4358,"પુરના":4359,"▁ખાનને":4360,"▁ફાળ":4361,"▁રૉ":4362,"▁પ્રહાર":4363,"રિયલ":4364,"▁ભવ્ય":4365,"▁વિદ્યાર્થીઓને":4366,"▁દર્શાવે":4367,"તરો":4368,"▁કેરળ":4369,"▁ટક્કર":4370,"▁સુનિશ્ચિત":4371,"બીજી":4372,"થિ":4373,"▁માન્યતા":4374,"▁વાવા":4375,"▁રાજનાથ":4376,"▁સ્પર્ધા":4377,"માએ":4378,"▁તુલ":4379,"▁માંગતા":4380,"▁ચાર્જ":4381,"▁હમ":4382,"ડાવી":4383,"▁વલણ":4384,"દિલ્હી":4385,"▁ધર્":4386,"▁દસ્તાવે":4387,"▁શોધી":4388,"▁ગામના":4389,"ગમ":4390,"▁કર્યાં":4391,"▁પ્રયોગ":4392,"▁જવાન":4393,"કૃ":4394,"▁કાર્યાલય":4395,"▁બેન્":4396,"▁અમી":4397,"▁રોકવા":4398,"▁વિશ્વના":4399,"નાની":4400,"▁કરાયેલા":4401,"▁પવન":4402,"રૂપે":4403,"▁બેનર્જી":4404,"▁આખો":4405,"▁ફાં":4406,"▁બન્યું":4407,"▁જવાબમાં":4408,"▁ઉર્જા":4409,"▁વિધ":4410,"▁નાખી":4411,"સિદ્ધ":4412,"પ્રદ":4413,"▁રોકી":4414,"▁જાપાન":4415,"▁તૈયારીઓ":4416,"્રિક":4417,"▁તાજ":4418,"▁ટ્રોલ":4419,"▁ઉલ્લ":4420,"▁મીડિયામાં":4421,"ટેક":4422,"▁ડ્રો":4423,"▁સમૃ":4424,"▁અર્જુન":4425,"▁ધમા":4426,"▁ઈઝરાય":4427,"▁ઉદ્ધવ":4428,"ગજ":4429,"▁આવેલું":4430,"▁કલાકારો":4431,"▁જપ્ત":4432,"▁હેલ્":4433,"▁રિપોર્ટમાં":4434,"▁જશે\n":4435,"ણીય":4436,"▁મૈ":4437,"▁પરિવારને":4438,"▁પરેશાન":4439,"▁અજ":4440,"કિત":4441,"▁પુરી":4442,"▁પ્રખ્યાત":4443,"▁કર્મચારીઓ":4444,"▁અંગ્રે":4445,"મુખ્યમંત્રી":4446,"▁તપાસમાં":4447,"▁નારાય":4448,"▁માંથી":4449,"▁પાછલા":4450,"રબ":4451,"▁પાવર":4452,"▁ઓટો":4453,"▁હૈદરાબાદ":4454,"▁શુભેચ્છા":4455,"▁વારાણ":4456,"▁સેટ":4457,"ષભ":4458,"▁આતંકવાદ":4459,"▁હર્ષ":4460,"ત્રીએ":4461,"▁કારમાં":4462,"ડાએ":4463,"▁ઓડિ":4464,"▁મીટર":4465,"▁રાજીવ":4466,"▁રાજકારણ":4467,"▁નેતાઓને":4468,"▁રશિયન":4469,"▁દૃ":4470,"▁ઉતર":4471,"▁મુકા":4472,"▁સેનાના":4473,"▁ધારણાઓ":4474,"▁ગ્લો":4475,"▁ઓછો":4476,"▁નહોતા":4477,"▁ઉદ્દેશ":4478,"▁મારે":4479,"કોર":4480,"્વર":4481,"▁ખાતરી":4482,"▁શ્રીલંકા":4483,"▁પ્લેટફોર્મ":4484,"યલ":4485,"▁ચોરી":4486,"▁અણ":4487,"ાવવાની":4488,"▁ફિલ્":4489,"▁કાળ":4490,"▁આશી":4491,"▁બોક્સ":4492,"▁ખોટા":4493,"▁લાવવા":4494,"▁પોર્ટ":4495,"▁સ્લાઇ":4496,"▁પકડી":4497,"▁આર્ટ":4498,"▁ફસ":4499,"▁પ્રવૃત્તિ":4500,"ડય":4501,"▁વહીવટી":4502,"▁જોઇને":4503,"▁દરો":4504,"▁પરમા":4505,"▁પુતિ":4506,"▁ઉંમર":4507,"ૃદય":4508,"▁અત્રે":4509,"રિઝ":4510,"▁ઈન":4511,"કોમાં":4512,"રનેશનલ":4513,"▁ભોજન":4514,"▁માટેના":4515,"▁પડ્યું":4516,"નોમાં":4517,"▁કાપ":4518,"ર્ડર":4519,"▁ચલાવી":4520,"▁વિજે":4521,"▁બોલીવુડ":4522,"ણીના":4523,"▁ઓછામાં":4524,"▁ધા":4525,"▁મૂકી":4526,"\nબ":4527,"▁લોકોનો":4528,"મોહન":4529,"▁સંગીત":4530,"વૈ":4531,"▁કોલેજ":4532,"▁પ્રહ":4533,"વેન્ટ":4534,"▁રિસ":4535,"▁સેવાઓ":4536,"▁માંડ":4537,"્યુલ":4538,"▁રાત":4539,"▁આથી":4540,"▁ઉભ":4541,"લીલ":4542,"▁મંત્રીએ":4543,"▁પ્લાન્ટ":4544,"હૂ":4545,"નેશ":4546,"ગેટ":4547,"▁રોલમાં":4548,"પીના":4549,"▁સ્ટાફ":4550,"▁અપા":4551,"▁પ્રસાર":4552,"મિતા":4553,"▁મણિ":4554,"ટીની":4555,"ાયક":4556,"▁ગુપ્ત":4557,"▁બંગાળમાં":4558,"▁મનીષ":4559,"થુન":4560,"▁કાર્યક્રમો":4561,"▁ખી":4562,"▁પૂનમ":4563,"▁ઝટ":4564,"▁લાગણી":4565,"ચીન":4566,"વવાની":4567,"▁સકારાત્મક":4568,"▁વિચારો":4569,"▁લિટર":4570,"▁અથડ":4571,"▁કન્યા":4572,"▁પરિવારો":4573,"▁ભાવનગર":4574,"▁હશે\n":4575,"▁પરિણામે":4576,"▁લખનઉ":4577,"ંગો":4578,"ગ્રસ્ત":4579,"▁બહા":4580,"▁બ્લો":4581,"▁અહ":4582,"▁શહેરના":4583,"▁મામલામાં":4584,"ઢા":4585,"▁ડિસેમ્બરે":4586,"▁મચાવી":4587,"▁શેટ્ટી":4588,"▁સંવે":4589,"▁બધાને":4590,"▁એન્જિન":4591,"વર્ક":4592,"▁સાર્":4593,"▁કાર્યકરો":4594,"▁હૉસ્પિટ":4595,"▁પ્રતિષ્ઠ":4596,"ૉપ":4597,"▁નેપા":4598,"▁બચાવવા":4599,"▁પાણીની":4600,"▁દિલ્લીમાં":4601,"▁જોગવાઈ":4602,"જાણ":4603,"▁શર્માએ":4604,"▁ચૌહા":4605,"▁ઇન્ટરનેટ":4606,"▁જૂને":4607,"▁વિધાનસભામાં":4608,"▁બીએસ":4609,"▁હોળી":4610,"▁મહાર":4611,"▁રિપોર્ટ્સ":4612,"▁ચેર":4613,"▁લાવી":4614,"▁કલાકાર":4615,"▁અગ્":4616,"▁યુરો":4617,"▁કેટરીના":4618,"નુમાન":4619,"▁શાસન":4620,"▁હૃદય":4621,"▁કંપનીએ":4622,"▁પહેલેથી":4623,"▁લેન્ડ":4624,"▁કેમ્પ":4625,"▁ફોર":4626,"▁ગ્રાહ":4627,"▁થતો":4628,"▁અનુમાન":4629,"ફાન":4630,"▁જેનું":4631,"▁લોન":4632,"▁મિસ":4633,"▁શહેરોમાં":4634,"પજ":4635,"▁બિક":4636,"\nત":4637,"નવી":4638,"લીના":4639,"▁સંતો":4640,"▁વર્ક":4641,"▁થયાં":4642,"▁લંડ":4643,"▁ચકાસ":4644,"▁કક્ષા":4645,"▁આપેલા":4646,"▁પહેલો":4647,"▁કાનૂ":4648,"▁આઈએ":4649,"▁પાકિસ્તાનમાં":4650,"▁આમંત્રણ":4651,"િકીની":4652,"ર્જ":4653,"▁પ્રજા":4654,"પ્સ":4655,"▁વર્ષોથી":4656,"▁પોલીસની":4657,"▁રૂપમાં":4658,"ગન":4659,"માન્ડ":4660,"▁એચ":4661,"▁સ્ટોરી":4662,"▁યુવક":4663,"▁પુરસ્કાર":4664,"કતા":4665,"▁બુક":4666,"▁દમ":4667,"સીબ":4668,"▁ડૉક્ટ":4669,"▁આક્ષે":4670,"▁ગાંધીના":4671,"▁કલ્":4672,"▁માથા":4673,"ૉન":4674,"▁ઘણીવાર":4675,"▁ડોનાલ્ડ":4676,"▁આંખ":4677,"▁બંદ":4678,"▁ભક્તો":4679,"▁હેન્ડ":4680,"▁યોગદાન":4681,"▁સરહદ":4682,"▁દોષિત":4683,"મ્બે":4684,"▁સળ":4685,"▁રિક":4686,"▁જેડી":4687,"▁બાળકી":4688,"લાએ":4689,"▁છે\nતેમણે":4690,"▁બાઈ":4691,"ક્ષમ":4692,"ાઇન":4693,"રાએ":4694,"▁જણાવે":4695,"▁કાલે":4696,"▁સિદ્ધુ":4697,"▁લાઈફ":4698,"વડ":4699,"▁ઉડ":4700,"▁શાસ્ત્ર":4701,"▁વ્યક્તિએ":4702,"▁રચ":4703,"▁વાઘ":4704,"▁વધારવા":4705,"▁છૂટા":4706,"▁દોડ":4707,"▁યશ":4708,"▁થનાર":4709,"▁નિયંત્રણ":4710,"▁મૂક્યો":4711,"▁પરિવારજનો":4712,"▁મર્યા":4713,"▁વાતની":4714,"▁બંગાળના":4715,"▁ડોલર":4716,"▁થવાનું":4717,"▁આવ્યાં":4718,"▁સચિન":4719,"▁સેલિબ્ર":4720,"▁ઉલ્લંઘ":4721,"▁સિવિલ":4722,"▁નુ":4723,"▁તમારું":4724,"▁મલાઈકા":4725,"▁વિશ્વમાં":4726,"▁આવનાર":4727,"▁વાદ":4728,"▁બિહારના":4729,"▁ચહેરો":4730,"ભૂમિ":4731,"▁નિમણ":4732,"ઝિક":4733,"▁પીએ":4734,"યાત્રા":4735,"▁લેવી":4736,"▁શકીએ":4737,"▁ઈચ્છે":4738,"▁પાટીદાર":4739,"▁છે\nકે":4740,"▁વિશાળ":4741,"▁વેસ્ટ":4742,"▁ગ્રહો":4743,"▁કલાકે":4744,"▁લશ્":4745,"ક્રેટ":4746,"ાયી":4747,"▁જબર":4748,"▁કોમ":4749,"▁સોમનાથ":4750,"ંબા":4751,"▁જવામાં":4752,"▁માની":4753,"▁મહત્તમ":4754,"▁જોવામાં":4755,"વેટ":4756,"▁કોર્પોરેશન":4757,"▁ડાયરેક્ટર":4758,"▁બિકીની":4759,"▁માનીએ":4760,"▁મોબાઈલ":4761,"▁આંકડો":4762,"▁સાચ":4763,"▁વચ":4764,"▁સેનાએ":4765,"▁કર્ણાટકમાં":4766,"વર્ષ":4767,"▁એશિયા":4768,"▁ઘટનામાં":4769,"ધર":4770,"▁પાક":4771,"▁બનેલા":4772,"ખત":4773,"▁વડે":4774,"▁પોલીસના":4775,"▁મુસાફરી":4776,"▁કરીશું":4777,"ણંદ":4778,"▁લૂ":4779,"▁સંબોધન":4780,"▁આફ્ર":4781,"ચંદ":4782,"▁તિવારી":4783,"▁સાક્ષી":4784,"▁ચાં":4785,"▁સુવિધાઓ":4786,"▁સોનાક્ષી":4787,"▁ભજવી":4788,"▁ટેક્નો":4789,"▁મોડે":4790,"▁ગ્રામી":4791,"▁સ્ટેશનમાં":4792,"યાત":4793,"▁કાશ્મીરના":4794,"સ્ય":4795,"▁રાજસ્થાનમાં":4796,"▁રાજકારણમાં":4797,"▁આપવાનું":4798,"▁શિકાર":4799,"▁રોમાં":4800,"▁મૂલ":4801,"▁રાજસ્થાનના":4802,"ક્રો":4803,"▁સરે":4804,"▁ભૂમિ":4805,"▁આશીર્વાદ":4806,"દ્રા":4807,"▁મર":4808,"▁ગ્લે":4809,"▁માર્ચે":4810,"▁૧૦":4811,"▁તૂટી":4812,"▁બર":4813,"▁સુધીના":4814,"▁જાન્યુઆરીએ":4815,"્રલ":4816,"જીને":4817,"▁રહેવું":4818,"▁નવેમ્બરે":4819,"▁હાંસ":4820,"▁ફગાવી":4821,"▁રાહુ":4822,"▁ઉત":4823,"▁રહેતી":4824,"\nએ":4825,"▁આગેવાની":4826,"▁છે\nઉ":4827,"▁ગીતો":4828,"▁ખસે":4829,"▁સમાજના":4830,"▁કરાવવામાં":4831,"▁મુકેશ":4832,"▁આપણને":4833,"▁ધીમે":4834,"▁આટલી":4835,"▁ફોર્મ":4836,"▁સર્જા":4837,"▁એવુ":4838,"▁ઠીક":4839,"▁સંશોધન":4840,"▁દુખ":4841,"જામ":4842,"ેન્દ્ર":4843,"▁કેપ્ટન":4844,"લમ":4845,"▁પથ્":4846,"દીય":4847,"▁શેખ":4848,"▁પ્રતિનિધિ":4849,"માનો":4850,"▁તબી":4851,"▁એકતા":4852,"▁છે\nઉલ્લેખનીય":4853,"▁સત્તામાં":4854,"▁વિરોધમાં":4855,"ધાને":4856,"લીપ":4857,"સ્વ":4858,"▁અથડામ":4859,"મદાવાદ":4860,"નાના":4861,"સ્ટે":4862,"▁સિટી":4863,"▁તેટ":4864,"▁હિસ્સો":4865,"ન્સમાં":4866,"▁એક્ટિંગ":4867,"▁સર્ચ":4868,"▁જોડાયેલી":4869,"▁ન્યાયાધી":4870,"સણ":4871,"▁અઠવાડિય":4872,"▁ડ્રગ્સ":4873,"▁કચે":4874,"▁ટીએમ":4875,"▁પટના":4876,"▁કરેલી":4877,"▁આઝાદી":4878,"ંશ":4879,"▁સુધારા":4880,"▁ઈતિહાસ":4881,"▁ચીનની":4882,"▁પાકિસ્તાનની":4883,"નાએ":4884,"▁અંગત":4885,"▁મતો":4886,"▁આપના":4887,"▁રસપ્રદ":4888,"▁વૈજ્ઞાનિકો":4889,"▁મહાત્મા":4890,"ૂહ":4891,"▁માનવું":4892,"▁મનોર":4893,"▁વહેલી":4894,"▁પ્રશ્નો":4895,"જન્સી":4896,"▁આપતાં":4897,"પિંગ":4898,"▁ચોંક":4899,"▁વિવે":4900,"ર્સને":4901,"▁સુધાર":4902,"▁સંક્રમણ":4903,"▁અખિલેશ":4904,"▁નારાયણ":4905,"▁સદ":4906,"▁સમર્":4907,"▁ઉત્સાહ":4908,"▁જણ":4909,"▁સ્મા":4910,"▁તાર":4911,"▁મશી":4912,"▁લેટેસ્ટ":4913,"▁મંત્રાલયના":4914,"▁સન્ની":4915,"▁માયા":4916,"▁સંબંધી":4917,"▁જોખમ":4918,"▁ઓમ":4919,"▁વચન":4920,"▁મધ્યમ":4921,"▁આશંકા":4922,"▁ઓડિશા":4923,"તરણ":4924,"▁સન":4925,"▁વિચારી":4926,"▁ખડ":4927,"પટ":4928,"▁૮":4929,"▁આય":4930,"▁દેશે":4931,"સાડ":4932,"▁કંટ્રોલ":4933,"▁વ્યવહાર":4934,"▁જગત":4935,"માત્ર":4936,"▁તત્કા":4937,"▁અડવા":4938,"▁વર્ષોમાં":4939,"▁બિલકુલ":4940,"▁ગ્લોબલ":4941,"▁આંગ":4942,"▁નોંધી":4943,"▁પગાર":4944,"▁મૃતદેહ":4945,"રીએ":4946,"▁સૂચ":4947,"▁આતંકવાદીઓ":4948,"▁કરાર":4949,"▁છે\nગુજરાત":4950,"▁અફવા":4951,"▁શિલ્":4952,"ન્ડા":4953,"ક્ચર":4954,"ાયલો":4955,"લીએ":4956,"▁ક્રા":4957,"ર્જીએ":4958,"▁ગંગા":4959,"▁ફિટ":4960,"▁ફાયરિંગ":4961,"પંચ":4962,"સલ":4963,"▁વરસ":4964,"▁કરતું":4965,"▁ઉતરી":4966,"▁નવરા":4967,"▁ધૂમ":4968,"ઉં":4969,"મેડી":4970,"▁વેરિ":4971,"બાજ":4972,"િશ્મા":4973,"ર્ગે":4974,"▁ભરે":4975,"મ્બરમાં":4976,"▁બ્રહ્":4977,"▁મફ":4978,"▁કાળા":4979,"▁પટેલના":4980,"▁વેક્સીન":4981,"▁ગણા":4982,"બ્લિક":4983,"▁દ્વારકા":4984,"ૈતિક":4985,"▁ગૂ":4986,"ન્ની":4987,"▁સફેદ":4988,"▁મધુ":4989,"▁લીલા":4990,"▁વિકલ્પ":4991,"▁હાંસલ":4992,"▁સંસ":4993,"લિટી":4994,"▁વૃક્ષ":4995,"િસર":4996,"▁કિંગ":4997,"▁શ્વા":4998,"વારની":4999,"▁ટેકનો":5000,"ાર્થના":5001,"▁નૌ":5002,"ષ્ણુ":5003,"▁જાળવી":5004,"▁મચી":5005,"▁પુષ્":5006,"િયાના":5007,"▁ટેક":5008,"શાસ":5009,"તાઓ":5010,"▁સાબર":5011,"▁ફંડ":5012,"▁ડિજ":5013,"પૂર":5014,"▁ઉમેર્યું":5015,"ધામ":5016,"ઝિટિવ":5017,"દ્યોગ":5018,"▁કરાયો":5019,"સ્સામાં":5020,"▁બહુમતી":5021,"ચિવ":5022,"ળું":5023,"▁કરાયા":5024,"▁પ્રદૂ":5025,"▁વિશ્":5026,"સ્તે":5027,"સ્ત્રી":5028,"▁ડેપ":5029,"▁એક્ટિવ":5030,"▁દીકરા":5031,"▁રુ":5032,"યૂ":5033,"કેલા":5034,"▁ઠંડી":5035,"▁જઈને":5036,"▁મૂકવામાં":5037,"પાકિસ્તા":5038,"ઠે":5039,"▁કરશો":5040,"▁એને":5041,"દાહરણ":5042,"▁શરીર":5043,"▁ગોળીબાર":5044,"▁મંચ":5045,"▁મજૂ":5046,"▁રોહિત":5047,"ર્સના":5048,"▁કુંડ":5049,"▁ગયેલા":5050,"▁સરળતાથી":5051,"▁શખ":5052,"▁સાર્વ":5053,"નેશન":5054,"▁મળેલી":5055,"▁રિઝ":5056,"્સમાં":5057,"▁હનુમાન":5058,"સાની":5059,"મરજન્સી":5060,"▁ફેબ્રુઆરીએ":5061,"▁કપૂરની":5062,"▁હેલ્થ":5063,"▁રિસર્ચ":5064,"પની":5065,"▁રવાના":5066,"▁સુષ્":5067,"▁મેઘ":5068,"▁લક્ષ્ય":5069,"▁સીએ":5070,"▁હસ્તી":5071,"▁ઈમરાન":5072,"▁વાસ્તવિક":5073,"જૂર":5074,"માના":5075,"▁પાયલ":5076,"▁નોંધપાત્ર":5077,"▁લગ્નની":5078,"▁ક્લિ":5079,"ધિકારી":5080,"▁નકલી":5081,"▁મુક્તિ":5082,"▁ઇઝરાય":5083,"▁ધરવામાં":5084,"▁તાકાત":5085,"▁આસપાસના":5086,"▁ટેક્નોલોજી":5087,"▁વિજ":5088,"▁ખતરના":5089,"તનો":5090,"▁પરીક્ષણ":5091,"▁નકારી":5092,"▁સાહ":5093,"▁સગ":5094,"▁ગ્રુપ":5095,"▁ઈન્ટરવ્યુ":5096,"▁કેમેરા":5097,"▁સાહેબ":5098,"વ્યવસ્થા":5099,"▁હિંમત":5100,"▁મામલાની":5101,"▁શરદ":5102,"▁બ્રાન્ડ":5103,"▁ચકાસણી":5104,"▁હોબા":5105,"▁ઓછું":5106,"જ્ઞા":5107,"સન":5108,"▁નહીં\n":5109,"કિર્":5110,"▁સમાજવાદી":5111,"▁દેશોના":5112,"વર્તી":5113,"▁ષ":5114,"િયાની":5115,"▁બાલ":5116,"▁પ્રાર્થના":5117,"▁સુપરસ્ટાર":5118,"▁જામનગર":5119,"ધ્ધ":5120,"ુકાન":5121,"▁વરસાદના":5122,"▁લોકસભામાં":5123,"▁લહેર":5124,"કાંત":5125,"▁મહત્":5126,"શિયલ":5127,"▁મું":5128,"▁વાળા":5129,"ણાં":5130,"▁તાલીમ":5131,"▁પૂછ્યું":5132,"▁માણસ":5133,"▁એકલા":5134,"▁કાર્યરત":5135,"▁બૉસ":5136,"▁નાગરિકોને":5137,"જીવન":5138,"વાયું":5139,"▁નિશા":5140,"▁દેઓ":5141,"▁બીજું":5142,"▁પ્રવાસન":5143,"▁બાકીના":5144,"▁વાતનો":5145,"▁શાંત":5146,"▁સિંહને":5147,"▁મહો":5148,"▁ખતરનાક":5149,"▁ફ્લે":5150,"લીની":5151,"▁છે\nસુ":5152,"▁વિસ્તારના":5153,"▁ઉઠાવી":5154,"િસ્ટ":5155,"▁લોકડા":5156,"લિકોપ્ટ":5157,"▁કપડાં":5158,"બુલ":5159,"પરંતુ":5160,"▁એફઆઈ":5161,"િયેટ":5162,"▁અગ્નિ":5163,"▁લોકશાહી":5164,"નામ":5165,"▁સમસ્યાઓ":5166,"▁કસ્ટડીમાં":5167,"▁મનમાં":5168,"ર્ચે":5169,"સ્ત્રો":5170,"▁ચોપ":5171,"▁બનાવીને":5172,"▁અઠવાડિયે":5173,"▁મરા":5174,"વેલ":5175,"સ્તાન":5176,"▁પંચે":5177,"▁તકો":5178,"▁છોકરા":5179,"▁ટીમો":5180,"▁સિક્":5181,"▁દુકાન":5182,"▁પોસ્ટર":5183,"▁નાયબ":5184,"▁કરુ":5185,"▁નહિં":5186,"ાંક":5187,"▁બિહારમાં":5188,"▁સંકળ":5189,"▁સંકલ્પ":5190,"▁ડૂ":5191,"સાથી":5192,"▁આસાર":5193,"▁ફ્રી":5194,"▁હતું\nઆ":5195,"▁વેચાણ":5196,"▁વાહનો":5197,"▁વારાણસી":5198,"▁સખત":5199,"▁બીએ":5200,"▁ભણ":5201,"▁ભેટ":5202,"▁સિંહના":5203,"દ્દાખ":5204,"▁કરિય":5205,"▁જેવું":5206,"▁બનાસ":5207,"▁પટેલની":5208,"તીશ":5209,"્યુટ":5210,"▁પાછી":5211,"ડરમાં":5212,"૨૦":5213,"▁છેતર":5214,"▁કેન્સ":5215,"▁ઉદાહરણ":5216,"ાયુ":5217,"ંત્રિત":5218,"▁નીતિશ":5219,"▁આપતી":5220,"▁કારકિર્":5221,"▁પુનઃ":5222,"િયસ":5223,"▁ઈચ્છા":5224,"સ્ટિક":5225,"▁વચ્ચેના":5226,"▁પગલું":5227,"દીએ":5228,"▁ગોલ્ડ":5229,"▁પ્રદેશની":5230,"▁પક્ષમાં":5231,"▁સહયોગી":5232,"▁આકાશ":5233,"▁સ્ટાઇ":5234,"▁ગ્રીન":5235,"ડીયા":5236,"▁હેલિકોપ્ટ":5237,"વૂડ":5238,"ર્ત":5239,"▁કરાવવા":5240,"▁કોચ":5241,"▁સિંધ":5242,"▁દરમ્યાન":5243,"▁સ્વતંત્રતા":5244,"કાળમાં":5245,"▁આજનો":5246,"▁બ્લા":5247,"લ્વે":5248,"મેલા":5249,"ન્સના":5250,"▁નિયુ":5251,"▁ઊભી":5252,"▁ગેસ":5253,"▁ગાર્ડ":5254,"▁સોશ્યિલ":5255,"▁વાંધો":5256,"▁જિંદગી":5257,"▁જુલાઇ":5258,"▁મનોજ":5259,"▁કમિશનર":5260,"▁માળ":5261,"ર્સની":5262,"ક્સિ":5263,"▁કોરિયા":5264,"▁છે\nવિ":5265,"▁આટલા":5266,"યી":5267,"▁ગઢ":5268,"વામાન":5269,"▁ઓસ્ટ્રેલિયા":5270,"▁જાતકો":5271,"▁ઉલ્લંઘન":5272,"▁નિયા":5273,"▁એકબીજાને":5274,"ર્સે":5275,"▁છે\nજે":5276,"▁સંત":5277,"▁મેસે":5278,"હિદ":5279,"▁ઉમેદવારોની":5280,"▁ચોંકાવ":5281,"ભાવી":5282,"▁મંદિરના":5283,"▁ઇચ્છા":5284,"▁પાર્ક":5285,"▁બરાબર":5286,"▁એની":5287,"▁પરિષદ":5288,"▁ક્રે":5289,"▁જહાજ":5290,"▁તૃ":5291,"િત્":5292,"▁ખેડૂતોના":5293,"▁શ્રદ્ધ":5294,"પછી":5295,"સિંગ":5296,"▁શકશો":5297,"▁શખ્સ":5298,"▁સક્ષમ":5299,"ર્વે":5300,"▁ફુ":5301,"▁ખતરો":5302,"▁સેક":5303,"મેશ":5304,"▁સહન":5305,"▁આપો":5306,"ધાં":5307,"નંદી":5308,"કાનો":5309,"▁મહિલાએ":5310,"▁આંતરિક":5311,"▁પાદુકોણે":5312,"▁શુક્":5313,"▁જીએસ":5314,"▁ગ્રામીણ":5315,"તાન":5316,"કામના":5317,"▁સપ્ટેમ્બરે":5318,"▁અંધ":5319,"▁પ્રતિનિધ":5320,"▁૯":5321,"રાટ":5322,"▁સાચી":5323,"ડાપ્રધાન":5324,"પત":5325,"▁હેર":5326,"▁ચતુ":5327,"▁સ્ક્રીન":5328,"▁એપ્રિલે":5329,"▁દિગ્ગજ":5330,"એશન":5331,"▁ભરી":5332,"હલો":5333,"▁સોનમ":5334,"▁ભગવા":5335,"દાસ":5336,"ડેન્ટ":5337,"▁કૌશલ":5338,"▁લદ્દાખ":5339,"▁કામમાં":5340,"▁કૌભાંડ":5341,"▁પ્રેમી":5342,"▁મહાસચિવ":5343,"પદ":5344,"ટરીના":5345,"▁ખંડ":5346,"▁છે\nએક":5347,"▁દુશ્":5348,"▁સમાચારોથી":5349,"▁હથિયાર":5350,"▁ડિજિટલ":5351,"▁અભિનેત્રીએ":5352,"▁સ્વરૂપ":5353,"▁સરેરાશ":5354,"▁તોફાન":5355,"▁જવું":5356,"▁હરિ":5357,"▁કિરણ":5358,"▁પર્યાવરણ":5359,"▁ડ્રાઈ":5360,"▁નેટવર્ક":5361,"▁જેવો":5362,"▁સિસો":5363,"▁લગાવ્યા":5364,"▁બોલિવૂડમાં":5365,"▁ઘરના":5366,"▁ચેક":5367,"▁વિજેતા":5368,"ુનિક":5369,"▁છે\nન":5370,"▁શોષણ":5371,"▁નિયમ":5372,"▁વય":5373,"ાયર":5374,"▁ઉમેદવારી":5375,"▁ઇરા":5376,"હાલ":5377,"્વે":5378,"▁રુપ":5379,"▁ઉદ્ઘાટન":5380,"▁મ્યુનિ":5381,"ચાર્":5382,"▁મહિનાથી":5383,"▁વિરૂ":5384,"▁આધુનિક":5385,"કૃતિક":5386,"▁પરના":5387,"દ્દ":5388,"લાજ":5389,"▁તળાવ":5390,"▁વ્ર":5391,"▁કામો":5392,"▁બ્રિ":5393,"▁મેટ્રો":5394,"▁ગઈકાલે":5395,"▁સપ્તાહ":5396,"▁કોહ":5397,"▁જનતાને":5398,"▁રત્":5399,"▁બનાવવાનો":5400,"▁ચીને":5401,"ેલું":5402,"▁વિસ્ફોટ":5403,"ભુ":5404,"▁બચાવી":5405,"ઈન્ટ":5406,"▁ભરા":5407,"▁લગ્નના":5408,"ૌન":5409,"ધ્યક્ષ":5410,"ચૂંટણી":5411,"▁બાગ":5412,"▁વાતને":5413,"▁ઠાકુ":5414,"▁પહેલ":5415,"▁સેલિબ્રિટી":5416,"▁કને":5417,"▁છે\nશ":5418,"▁પરિણી":5419,"▁કેટલાંક":5420,"▁ગ્લેમર":5421,"▁માર્કેટ":5422,"▁આનો":5423,"ળીમાં":5424,"▁મુખર્જી":5425,"પિં":5426,"▁બાયો":5427,"▁સુપ્ર":5428,"▁હજારથી":5429,"▁શબ્દો":5430,"▁ગેટ":5431,"▁પંડિત":5432,"કોનો":5433,"▁અર્થવ્યવસ્થા":5434,"બહે":5435,"▁ગુરૂ":5436,"નારે":5437,"▁વિક્રમ":5438,"▁બોલાવી":5439,"▁દોષી":5440,"▁કટ":5441,"▁ઘટનાની":5442,"▁બસપા":5443,"▁બૉલીવુડના":5444,"▁વજન":5445,"▁ભરો":5446,"▁થવાનો":5447,"▁વિવા":5448,"લોડ":5449,"▁ઇસ્લા":5450,"▁જોડાયેલ":5451,"▁તાલુકાના":5452,"▁સંસદીય":5453,"▁સશ":5454,"▁બોસ":5455,"▁૧૯":5456,"▁મનમોહન":5457,"▁તેલંગાણા":5458,"વરેજ":5459,"▁લાગ્યું":5460,"▁ઉદય":5461,"▁વૃદ્ધિ":5462,"ંદીગઢ":5463,"▁ગેરકાયદેસર":5464,"▁ટેકનોલોજી":5465,"વવાનો":5466,"▁ફેશન":5467,"▁વ્યક્તિની":5468,"▁બોર્ડર":5469,"▁સેન્ટ્રલ":5470,"ટોક":5471,"▁હાઈકોર્ટે":5472,"▁હથિયારો":5473,"▁માર્ગદર્શન":5474,"▁સંભળ":5475,"▁હટાવી":5476,"▁કરી\n":5477,"▁પ્રદાન":5478,"▁નિવાસ":5479,"▁યાત્રી":5480,"▁એક્ઝિટ":5481,"▁અંદાજે":5482,"▁વ્હી":5483,"▁પહેરી":5484,"▁થોડો":5485,"▁ડેપ્યુટી":5486,"▁મોહન":5487,"▁ઈન્ટરનેટ":5488,"▁ગર્ભ":5489,"▁સુની":5490,"▁સિંહની":5491,"▁સ્મૃતિ":5492,"કતમાં":5493,"ાંજલિ":5494,"▁બ્રિટિશ":5495,"▁સમ્માન":5496,"ાલિ":5497,"વિશ્વાસ":5498,"મીના":5499,"▁આજથી":5500,"▁ઇન્ડસ્ટ્રી":5501,"▁ફિલ્મે":5502,"▁અસ્ત":5503,"▁નિર્ણયો":5504,"▁યુનિટ":5505,"▁કાજ":5506,"▁હોવ":5507,"▁વર્ષનો":5508,"ભારત":5509,"▁વાયુસેના":5510,"▁બેં":5511,"▁પ્રેરણા":5512,"ગાં":5513,"▁સીધી":5514,"શ્વર":5515,"વિધિ":5516,"▁વળતર":5517,"▁બન્યો":5518,"▁ટ્રસ્ટ":5519,"▁ગરીબો":5520,"▁આદિત્યનાથ":5521,"▁ભવિષ્યમાં":5522,"પન":5523,"▁જોયું":5524,"▁સીઆર":5525,"▁બનાવ્યો":5526,"▁ખોટું":5527,"યક":5528,"▁કચ":5529,"▁ખર્ચે":5530,"▁નિરા":5531,"▁વ્યૂ":5532,"▁સોસાય":5533,"▁લૉકડાઉન":5534,"▁જ્ઞાન":5535,"▁માસ્ક":5536,"▁રાખવાની":5537,"▁મેનેજમેન્ટ":5538,"▁ઉગ્ર":5539,"▁વિતરણ":5540,"ડીની":5541,"▁મોબાઇલ":5542,"▁કાઉન્સ":5543,"ડયંત્ર":5544,"▁મકર":5545,"ગુરુ":5546,"▁રેડ્":5547,"▁ઓક્ટોબરે":5548,"▁દૂર્":5549,"▁રાજકો":5550,"▁સેલ્":5551,"▁રેપ":5552,"▁સ્વપ્":5553,"▁બતાવવામાં":5554,"પાર્ટ":5555,"▁સંપર્કમાં":5556,"▁હાસ":5557,"કેલી":5558,"▁પત્રમાં":5559,"▁આશ્ર":5560,"▁પરિવારમાં":5561,"▁મુશ્કેલીઓ":5562,"▁નમ":5563,"▁વિજ્ઞાન":5564,"▁ફિલ્મી":5565,"▁ગોવા":5566,"▁ચેનલ":5567,"ગ્રહણ":5568,"▁જતાં":5569,"▁કરોડો":5570,"▁જોડાઈ":5571,"▁વ્યાપક":5572,"▁મુસ્લિમો":5573,"▁લઘુ":5574,"વાલમાં":5575,"▁સિરીઝ":5576,"ફ્રા":5577,"▁ચરણ":5578,"▁ભાગમાં":5579,"▁આજકાલ":5580,"▁હાઇવે":5581,"▁અરોરા":5582,"▁બંગ":5583,"ર્ષિક":5584,"જાગ્ર":5585,"▁બેસ":5586,"▁યોજનાઓ":5587,"▁સિસોદ":5588,"▁કાર્યકાળ":5589,"▁યથ":5590,"▁પૈકી":5591,"તાપ":5592,"લોની":5593,"▁કિલ્લા":5594,"▁પહોંચ્યો":5595,"▁ગેહલો":5596,"▁યુવાનોને":5597,"▁અનો":5598,"▁ગવર્":5599,"▁ઈજા":5600,"▁રૂપિયાનો":5601,"▁સસ્પેન્ડ":5602,"▁મહારાજ":5603,"▁આફ્રિકા":5604,"ંતિ":5605,"▁તેવો":5606,"વાનગી":5607,"▁રસ્તાઓ":5608,"▁સ્ટી":5609,"▁ટ્રેલર":5610,"▁ઓફર":5611,"▁ઉઠાવ્યો":5612,"▁આનંદી":5613,"▁યોજાશે":5614,"▁સાવચે":5615,"▁અવાર":5616,"▁બિલ્ડ":5617,"ામો":5618,"▁બીમારી":5619,"▁કર્મચારીઓને":5620,"▁સંગઠનો":5621,"▁નુકશાન":5622,"વાત":5623,"▁એસપી":5624,"▁ભાગીદારી":5625,"પં":5626,"▁મહેશ":5627,"અને":5628,"ઈઝ":5629,"મીએ":5630,"▁બંનેના":5631,"▁ધરતી":5632,"▁ઉજવવામાં":5633,"▁લડવા":5634,"ાયત":5635,"▁વરસા":5636,"▁એન્કાઉન્ટ":5637,"▁નીતિન":5638,"▁અટકળો":5639,"▁ષડયંત્ર":5640,"બ્રા":5641,"▁પદ્":5642,"▁વરસાદને":5643,"▁પાછો":5644,"▁સ્વીકારી":5645,"▁માસ":5646,"▁આવવાની":5647,"▁રૂમમાં":5648,"▁કોંગ્રેસમાં":5649,"▁પ્રાકૃતિક":5650,"▁પ્રહારો":5651,"▁હોબાળો":5652,"▁ડોક્ટ":5653,"▁ધીરે":5654,"▁લાઇફ":5655,"▁વધે":5656,"▁ઓમિક":5657,"▁ખૂણે":5658,"▁નિષ્ણાતો":5659,"▁અહીંથી":5660,"▁દર્દીઓ":5661,"▁ફ્રે":5662,"▁રાઉ":5663,"▁લોહી":5664,"▁ચૂંટણીને":5665,"વમાં":5666,"▁શારી":5667,"રાહુલ":5668,"▁સ્માર્ટ":5669,"▁જજ":5670,"▁ડેમ":5671,"▁કાઢવામાં":5672,"▁દિવસોથી":5673,"ગ્રેસ":5674,"▁કઇ":5675,"▁મહિનાની":5676,"▁જબરદ":5677,"ક્રા":5678,"▁દરવાજા":5679,"▁બેડ":5680,"ગણતરી":5681,"ૅર":5682,"▁આજના":5683,"▁હેરાન":5684,"▁પૂરું":5685,"▁સીસીટીવી":5686,"▁આસારામ":5687,"▁પ્રભુ":5688,"▁પોઝિટિવ":5689,"▁મીટિંગ":5690,"▁મસ્જિદ":5691,"પમેન્ટ":5692,"બાની":5693,"પુટ":5694,"▁પ્રદૂષણ":5695,"▁વ્યક્તિગત":5696,"▁ઇન્ડિયન":5697,"▁કવર":5698,"દેવી":5699,"▁ચોથા":5700,"▁દાવા":5701,"▁બ્રિજ":5702,"▁શિંદે":5703,"▁આચાર્ય":5704,"▁ગું":5705,"▁સ્થિર":5706,"▁સ્વસ્થ":5707,"રેક્ટ":5708,"▁છે\nગ":5709,"ગેઝી":5710,"▁ભારતનું":5711,"▁વાળ":5712,"▁દર્શા":5713,"▁નિયમિત":5714,"▁વાવાઝો":5715,"▁પ્રસિદ્ધ":5716,"ંગમાં":5717,"▁સમાધાન":5718,"▁અપહરણ":5719,"પાશા":5720,"એસએસ":5721,"સિપલ":5722,"ેશ્વર":5723,"▁સુરેન્દ્ર":5724,"▁રાખ્યો":5725,"▁ડૉક્ટર":5726,"ચાલો":5727,"▁બનાસકાંઠા":5728,"▁ધ્વ":5729,"▁કેન્દ્રમાં":5730,"▁યોજાઈ":5731,"▁બીચ":5732,"▁ઑફિસ":5733,"▁વેરિઅ":5734,"▁આક્રમ":5735,"▁રિટ":5736,"▁ફૉ":5737,"▁પાઠવી":5738,"▁દિગ્દર્શક":5739,"▁શ્વાસ":5740,"▁સંસ્કાર":5741,"▁કુદર":5742,"▁મોરબી":5743,"યાં":5744,"▁અલ્":5745,"▁વધતી":5746,"▁ધંધ":5747,"શાસ્ત્ર":5748,"▁પ્રયત્નો":5749,"▁પ્રભારી":5750,"▁ભલા":5751,"▁સ્ટાઈ":5752,"▁સર્વો":5753,"▁બજેટમાં":5754,"▁ચંદીગઢ":5755,"▁કહેતા":5756,"▁પ્લાન":5757,"ર્જા":5758,"▁શારીરિક":5759,"▁કોમેન્ટ":5760,"▁બેરોજ":5761,"▁વિપક્ષના":5762,"કેશન":5763,"▁કહાની":5764,"▁રહીને":5765,"▁વિભાગની":5766,"▁સોંપવામાં":5767,"▁જમ":5768,"▁પહેલાથી":5769,"▁વૃદ્ધ":5770,"▁થિયેટ":5771,"▁ઓગસ્ટે":5772,"▁ઋષિ":5773,"▁એસો":5774,"▁વાર્ષિક":5775,"▁બોટ":5776,"▁ચેપ":5777,"▁સ્પેસ":5778,"▁સુન":5779,"▁જીત્યા":5780,"▁સર્વિસ":5781,"▁વિષ્ણુ":5782,"▁લગ્નમાં":5783,"બળ":5784,"▁પહા":5785,"▁દુનિયાના":5786,"સક":5787,"હારી":5788,"▁રેલ્વે":5789,"▁પરિવારની":5790,"▁લૂંટ":5791,"▁આશરે":5792,"▁હમા":5793,"▁ઇમરાન":5794,"▁કોરોનાની":5795,"▁મારું":5796,"▁અફઘાનિસ્તાનમાં":5797,"▁નીપજ":5798,"▁લીક":5799,"▁ખેંચી":5800,"▁લિયોન":5801,"▁રજિ":5802,"રાને":5803,"▁ભરૂ":5804,"▁આયોગ":5805,"ષ્ક":5806,"▁ખેડૂતોની":5807,"સ્કૃતિક":5808,"▁મનુ":5809,"▁ઉત્તમ":5810,"િયાર":5811,"▁જીવનસાથી":5812,"▁રિલેશન":5813,"ધારી":5814,"▁બેઠા":5815,"▁માર્યો":5816,"▁રોગચા":5817,"▁તારા":5818,"▁છે\nકો":5819,"▁સેક્ટ":5820,"▁લાગશે":5821,"▁અમરેલી":5822,"\nતમને":5823,"મનો":5824,"વની":5825,"▁વાજ":5826,"▁સ્કી":5827,"▁પટેલને":5828,"▁તેમનુ":5829,"▁કારને":5830,"▁જર્મ":5831,"▁બંનેને":5832,"▁ટકાથી":5833,"▁બિકિની":5834,"વીન":5835,"▁આપવી":5836,"▁ફસાયેલા":5837,"▁પરવાનગી":5838,"▁નેહા":5839,"▁પાણીમાં":5840,"▁રમખા":5841,"▁કલેક્શન":5842,"િમી":5843,"▁સ્વિ":5844,"▁કંપનીના":5845,"▁ચૂક્યો":5846,"▁કબ્":5847,"નાઇ":5848,"▁રાકેશ":5849,"▁કાલ":5850,"▁પુરવ":5851,"▁જેમની":5852,"▁પર્":5853,"▁શંકર":5854,"▁પેઢી":5855,"▁તર":5856,"▁મસ્તી":5857,"▁છે\nસો":5858,"ાગર":5859,"▁ગુસ્સો":5860,"▁ગોઠ":5861,"▁કુશ":5862,"દીની":5863,"▁ઓબા":5864,"▁એકમાત્ર":5865,"▁માઇ":5866,"▁દત્ત":5867,"▁થવું":5868,"▁ઉત્સ":5869,"▁ભૂમિકામાં":5870,"▁ખન્ના":5871,"ડીઝ":5872,"▁બંનેની":5873,"▁શિયા":5874,"▁નથી\nઆ":5875,"▁કરાયેલ":5876,"કાઈ":5877,"▁અમલમાં":5878,"▁પ્રોફ":5879,"▁સૉ":5880,"▁પરા":5881,"▁વિગત":5882,"▁યે":5883,"▁લિમિ":5884,"▁ઉર્ફે":5885,"કૃષ્ણ":5886,"▁પોરબ":5887,"િવે":5888,"▁ઇલેક્ટ":5889,"પોતાના":5890,"▁દિલીપ":5891,"▁ફૂલ":5892,"▁છે\nરાજ્ય":5893,"▁અહીંના":5894,"શ્ચિમ":5895,"▁વીર":5896,"ાવવાનો":5897,"▁ઘટનાને":5898,"▁ઓગસ્ટના":5899,"▁સંવાદ":5900,"▁બોલીવૂડ":5901,"ધૂ":5902,"▁તકે":5903,"▁નિવેદનો":5904,"▁રણનીતિ":5905,"▁અકસ્માતમાં":5906,"▁આવાસ":5907,"▁પ્રતી":5908,"▁મેષ":5909,"▁પ્રેસિ":5910,"▁અંતે":5911,"▁ક્લિક":5912,"▁છોકરીઓ":5913,"▁વિકસિત":5914,"▁આવુ":5915,"▁કહીને":5916,"▁વાગ્યાથી":5917,"ગરી":5918,"▁આંચ":5919,"▁અજાણ":5920,"▁મોડલ":5921,"▁સ્પષ્ટતા":5922,"▁બાદથી":5923,"▁યુઝરે":5924,"▁વિરૂદ્ધ":5925,"▁ગર્વ":5926,"▁ફ્લ":5927,"▁સોન":5928,"▁ભરત":5929,"▁ચુકાદો":5930,"▁ડબલ":5931,"એચ":5932,"▁ઓલ":5933,"મ્મી":5934,"પ્પી":5935,"▁બનીને":5936,"▁જૈન":5937,"▁મજાક":5938,"▁ધુ":5939,"તોને":5940,"▁કુંભ":5941,"વત":5942,"▁સેન":5943,"▁અભિનેત્રીઓ":5944,"▁દુબ":5945,"▁નામથી":5946,"▁સાંસ્કૃતિક":5947,"▁બ્રેક":5948,"▁નારાજગી":5949,"શિંગ":5950,"▁સાડી":5951,"▁ખુલ્લા":5952,"▁ચેન":5953,"▁વિષે":5954,"▁રાજેશ":5955,"▁ધામ":5956,"▁પ્રમાણમાં":5957,"▁દરોડા":5958,"ગમાં":5959,"▁રિફ":5960,"▁કરોડથી":5961,"▁આંખો":5962,"▁આર્યન":5963,"▁ડેવલ":5964,"▁ટ્રેક":5965,"▁સમર્પિત":5966,"ંપી":5967,"▁અનિ":5968,"▁રિવ":5969,"▁રાણી":5970,"▁ચોકી":5971,"ળતી":5972,"▁કલાકની":5973,"▁કર્ણાટકના":5974,"▁મુકાબ":5975,"ંતે":5976,"▁ફરક":5977,"▁વલસાડ":5978,"▁સપાટી":5979,"▁શ્વે":5980,"▁ફાર્":5981,"▁મતગણતરી":5982,"▁કોલકા":5983,"▁રાજન":5984,"▁લાખની":5985,"▁જન્મદિવસ":5986,"▁પ્રાઈ":5987,"▁લિસ્ટમાં":5988,"▁છેતરપિં":5989,"દોષ":5990,"▁ફેન્સને":5991,"▁સપ":5992,"ડના":5993,"▁સલ":5994,"▁મ્યુનિસિપલ":5995,"▁સગી":5996,"▁રથ":5997,"▁ઓરિ":5998,"▁ઝે":5999,"▁ગોપાલ":6000,"▁પેપર":6001,"▁તબિયત":6002,"▁વાયરસથી":6003,"પરિ":6004,"▁પરમાણુ":6005,"▁નકારાત્મક":6006,"▁એકે":6007,"સાઇટ":6008,"▁ઝઘ":6009,"▁અત્યા":6010,"▁ચેન્ન":6011,"ઠો":6012,"▁ટન":6013,"▁ગુણવ":6014,"▁મિસાઈ":6015,"▁યૌન":6016,"▁ત્યારપછી":6017,"▁સારુ":6018,"▁આવતો":6019,"▁અવકાશ":6020,"ક્રાફ્ટ":6021,"▁એડવા":6022,"નિર્":6023,"મ્પલ":6024,"▁ઊભા":6025,"▁મોંઘવારી":6026,"▁શ્રદ્ધાંજલિ":6027,"યમ":6028,"▁હસ્ત":6029,"ન્સની":6030,"▁સિંઘ":6031,"▁અધિકૃત":6032,"▁વાપ":6033,"▁ઉઠી":6034,"▁પૌ":6035,"▁સેલ્સ":6036,"▁કમી":6037,"શ્ચિક":6038,"▁ટ્રેન્ડ":6039,"▁એકસાથે":6040,"▁પહેરીને":6041,"▁પાર્ટનર":6042,"▁ગાયબ":6043,"▁માયાવતી":6044,"લ્યુ":6045,"સ્કો":6046,"પુરી":6047,"▁અંગ્રેજી":6048,"▁દિક":6049,"▁ભારતનો":6050,"▁રીત":6051,"▁રૂમ":6052,"▁કોઇપણ":6053,"▁મહેસા":6054,"▁નવસારી":6055,"▁ચલાવવામાં":6056,"▁ગુમાવી":6057,"▁સપ્":6058,"▁છે\nપ્ર":6059,"▁શોક":6060,"જને":6061,"ઝુ":6062,"▁બચી":6063,"▁કેદ":6064,"▁ફિલ્મનો":6065,"▁જૂનાગઢ":6066,"▁અરે":6067,"▁મહિલાને":6068,"▁આતુર":6069,"લુગુ":6070,"▁ફાયદા":6071,"▁ઈસ":6072,"▁વચ્ચેની":6073,"ફેક્ટ":6074,"▁એફઆઈઆર":6075,"યન":6076,"▁હોસ્ટ":6077,"સ્ટો":6078,"▁ઘટનાસ્થ":6079,"ક્યુ":6080,"▁નક્ષ":6081,"▁સમયના":6082,"▁અમદાવાદના":6083,"▁બહુમત":6084,"▁ચેરમેન":6085,"મારો":6086,"▁ટ્રમ્પે":6087,"▁વિશ્વની":6088,"▁કાવ":6089,"▁કન્ટે":6090,"▁પર્સ":6091,"વાડી":6092,"▁હરી":6093,"▁જાતે":6094,"રફો":6095,"ફેલ":6096,"▁થવી":6097,"▁આપવાના":6098,"▁મળ્યુ":6099,"▁કોઈએ":6100,"▁કાપી":6101,"▁ઠે":6102,"▁સંદર્ભમાં":6103,"▁પથ્થર":6104,"▁કરિશ્મા":6105,"▁સંમેલ":6106,"▁છો\n":6107,"▁માછી":6108,"▁નિરી":6109,"▁હતી\nઅ":6110,"▁ઇનકાર":6111,"વશે":6112,"▁હોવી":6113,"▁લગા":6114,"▁રાજ્યોની":6115,"▁નગરપાલિકા":6116,"▁ગુણવત્તા":6117,"▁પર્ય":6118,"▁કારની":6119,"વાયેલા":6120,"▁વોર્ડ":6121,"▁માંગુ":6122,"▁બાળકોના":6123,"▁વેગ":6124,"▁ટેલી":6125,"▁નહોતું":6126,"▁પંચાયત":6127,"▁છી":6128,"▁અરુણ":6129,"▁ચલ":6130,"▁ઉપાય":6131,"▁અમેરિકાની":6132,"▁કરાવ્યું":6133,"▁ગરમ":6134,"ઇમ":6135,"▁રજની":6136,"▁ટુક":6137,"▁નવેમ્બરના":6138,"▁બંગાળની":6139,"▁જરૂરિયાત":6140,"▁સંતોષ":6141,"ંખ":6142,"નાન":6143,"▁ચાવ":6144,"▁હાલના":6145,"▁હાલતમાં":6146,"▁પાકિસ્તાનને":6147,"▁રેલીમાં":6148,"▁ઉદ્દેશ્ય":6149,"ફ્રાસ્ટ્ર":6150,"▁પાકિસ્તાને":6151,"▁અહેવાલમાં":6152,"▁લિમિટેડ":6153,"ટને":6154,"શમાં":6155,"નિકલ":6156,"▁ખડગે":6157,"લાને":6158,"ૃત્ય":6159,"▁ફરાર":6160,"ક્ષણિક":6161,"▁કરીશ":6162,"▁એકત્ર":6163,"▁પડદા":6164,"ધારા":6165,"નવાર":6166,"▁હલ":6167,"▁ઇન્સ્ટ":6168,"▁બોલતા":6169,"▁દર્શકો":6170,"િલ્લો":6171,"▁ઓફિસર":6172,"▁સંસ્થાઓ":6173,"દ્ય":6174,"▁મંત્રીઓ":6175,"વામા":6176,"વિસ્ત":6177,"▁લેવાનો":6178,"▁લાભાર્થી":6179,"▁બોલિવુડ":6180,"▁કાર્સ":6181,"▁ટાર્":6182,"્યૂબ":6183,"▁કેટલીય":6184,"▁મોટુ":6185,"િફિક":6186,"ન્ડે":6187,"▁દાખ":6188,"▁બાલા":6189,"▁એટલુ":6190,"▁ઈન્ડિયન":6191,"▁આતંકીઓ":6192,"બના":6193,"વને":6194,"શ્યો":6195,"▁કવિ":6196,"▁આરા":6197,"▁હરા":6198,"વિદ":6199,"રેન":6200,"▁બેસી":6201,"ડાને":6202,"િક્":6203,"▁ડબ્":6204,"▁સુધીનો":6205,"▁કોઈની":6206,"▁ઠાર":6207,"▁સફર":6208,"▁અસરકારક":6209,"લુરુ":6210,"▁સ્પીકર":6211,"વાસે":6212,"▁દયા":6213,"▁રોય":6214,"▁અરુ":6215,"▁કેન્દ્રિત":6216,"▁વિવાદિત":6217,"▁સિદ્ધિ":6218,"▁આકર્ષક":6219,"▁તલ":6220,"▁હંગ":6221,"ેશનમાં":6222,"યોર્ક":6223,"▁એટલો":6224,"▁વ્યક્તિના":6225,"ત્યાર":6226,"▁હોમ":6227,"▁રાજ્યોના":6228,"ક્કા":6229,"ન્સને":6230,"▁અમલ":6231,"▁નેતાઓની":6232,"▁ઘણાં":6233,"યફ્રેન્ડ":6234,"▁નવીન":6235,"▁સ્વય":6236,"▁છે\nર":6237,"▁છે\nનોંધનીય":6238,"નિટી":6239,"▁ઑક્ટો":6240,"▁આજની":6241,"▁દશ":6242,"▁એમાં":6243,"▁ફરવા":6244,"કું":6245,"્ન":6246,"▁આવનારી":6247,"▁સાંભળીને":6248,"▁કૅટરીના":6249,"▁ગ્લેમરસ":6250,"▁વાન":6251,"ાઈન":6252,"લનો":6253,"▁મુંબઈના":6254,"ણવી":6255,"▁હૃતિક":6256,"ભાગ્ય":6257,"▁સ્વભાવ":6258,"▁જાસ":6259,"▁જોશી":6260,"વેસ્ટ":6261,"▁ગુર":6262,"ડેજા":6263,"▁મેસેજ":6264,"▁દૈ":6265,"સાના":6266,"▁હાઈવે":6267,"▁ફેલાય":6268,"મીડિયા":6269,"▁અપરા":6270,"\nન":6271,"▁ઓવર":6272,"▁તેઓને":6273,"▁પ્રતિબદ્ધ":6274,"▁મહાનગર":6275,"▁બાય":6276,"▁કરાયું":6277,"ંચી":6278,"▁વિકાસની":6279,"ધિકાર":6280,"▁યથાવત":6281,"ણાચલ":6282,"▁સૂત્રોના":6283,"▁શિલ્પા":6284,"રેખ":6285,"▁ટાં":6286,"કાવી":6287,"ઘાત":6288,"▁કરવુ":6289,"લ્લો":6290,"▁કોન્ટ":6291,"મેન્દ્ર":6292,"પાર્ટમેન્ટ":6293,"▁નહે":6294,"▁ઓળખવામાં":6295,"▁આકરા":6296,"▁ન્યાયાધીશ":6297,"▁મફત":6298,"કાના":6299,"▁કિનારે":6300,"▁અશ":6301,"▁આપનાર":6302,"સામાં":6303,"▁મીડિયાને":6304,"વાડા":6305,"▁ઉર્ફી":6306,"▁આણંદ":6307,"▁ખાતામાં":6308,"▁તેનુ":6309,"▁માઈ":6310,"▁રાજય":6311,"▁રોજગારી":6312,"▁પોલીસકર્મી":6313,"▁વિકાસના":6314,"▁મોટર":6315,"▁ડીઝલ":6316,"▁ભૂકંપના":6317,"▁ક્વો":6318,"મય":6319,"▁સપોર્ટ":6320,"વાસ્તવ":6321,"નીત":6322,"▁ખ્યા":6323,"▁મોક":6324,"▁ધારણ":6325,"▁પશ્ચિમી":6326,"▁નાગરિકતા":6327,"▁છેડ":6328,"▁સાઈ":6329,"▁દત્તા":6330,"▁શાહી":6331,"▁જથ્":6332,"▁માગે":6333,"▁ફેન":6334,"▁ફેસ્ટ":6335,"▁પેકે":6336,"▁પ્રાણી":6337,"▁ચિત્ર":6338,"▁ઘાટ":6339,"▁ઉતારી":6340,"વિંગ":6341,"▁નિભાવ":6342,"▁ફેંક":6343,"▁તકલી":6344,"▁સાડા":6345,"▁સહકાર":6346,"▁ભરપૂર":6347,"▁કાર્યકર્તાઓ":6348,"િરા":6349,"િતી":6350,"▁ગોર":6351,"▁બદલાઈ":6352,"▁મુલાકાતે":6353,"ેલો":6354,"▁વરુણ":6355,"▁મહત્ત્વ":6356,"▁આંધ્રપ્રદેશ":6357,"ફના":6358,"▁છે\nમો":6359,"▁ગોચ":6360,"▁અબ્દુ":6361,"બન":6362,"▁વિઝા":6363,"▁સિઝ":6364,"▁હાથે":6365,"▁ઉત્તરપ્રદેશ":6366,"▁શંકાસ્પદ":6367,"▁સહિતની":6368,"▁ભાષ":6369,"ચાર્જ":6370,"▁ડાંસ":6371,"▁ઊર્જા":6372,"▁કમલ":6373,"▁છે\nજણાવી":6374,"▁ભરૂચ":6375,"બળો":6376,"▁ગડ":6377,"▁ઘણુ":6378,"ટીએ":6379,"▁નામો":6380,"▁જાડેજા":6381,"▁ફટકાર":6382,"▁ફતે":6383,"▁રાઉન્ડ":6384,"▁કેસો":6385,"▁હિસા":6386,"▁ભંગ":6387,"ક્ષર":6388,"▁રિપ":6389,"દનશીલ":6390,"▁નાંખ":6391,"▁તત્":6392,"▁કરવાનુ":6393,"▁ઈલાજ":6394,"▁બિમારી":6395,"▁ફેલાઈ":6396,"▁ગૌતમ":6397,"▁ચક્રવર્તી":6398,"▁બ્લાસ્ટ":6399,"▁અવારનવાર":6400,"▁આહ":6401,"▁છઠ્":6402,"▁નિંદા":6403,"▁રૂપિયાના":6404,"▁છૂટાછે":6405,"ગંજ":6406,"ણ્ય":6407,"ટેજ":6408,"▁ભાજપનો":6409,"પ્તિ":6410,"▁વાતચીતમાં":6411,"▁કાઉન્સિલ":6412,"ઇન્ટ":6413,"▁આરામ":6414,"▁રાફેલ":6415,"▁જોડે":6416,"વાનુ":6417,"▁ભ્ર":6418,"▁જાવેદ":6419,"▁દેશભરના":6420,"▁શકે\n":6421,"▁સ્પીડ":6422,"▁ઍવૉર્ડ્સ":6423,"▁કૉન્":6424,"▁સપ્ટેમ્બરના":6425,"▁હાર્ટ":6426,"▁પ્રાઇ":6427,"સ્સે":6428,"▁જુલા":6429,"▁ચિંત":6430,"▁સાર્વજન":6431,"ર્ટી":6432,"▁તેલુગુ":6433,"▁ભયા":6434,"▁જેમા":6435,"▁શાળાઓ":6436,"▁આકર્ષણ":6437,"નીના":6438,"તાવ":6439,"િસોડ":6440,"▁દિલ્લીના":6441,"▁અગ્રણી":6442,"▁સંગ્રહ":6443,"▁વોટિંગ":6444,"▁પવાર":6445,"▁ઈન્દ":6446,"▁સંભવિત":6447,"▁સ્પોર્ટ":6448,"▁યોજી":6449,"▁જિલ્લાની":6450,"▁સમાજમાં":6451,"▁ફટા":6452,"▁વર્ચ":6453,"▁બેનર્જીએ":6454,"▁સરકારનો":6455,"▁સુરતમાં":6456,"▁સોશ્યલ":6457,"▁કૃપાથી":6458,"ટમ":6459,"▁નક્સ":6460,"▁નિકાસ":6461,"▁સરો":6462,"▁પેન્શન":6463,"▁બોલાવવામાં":6464,"▁અટલ":6465,"▁સર્વોચ્ચ":6466,"માલ":6467,"▁એનસીપી":6468,"▁ગર્લફ્રેન્ડ":6469,"મીર":6470,"બાઝ":6471,"▁વિશ્લે":6472,"▁છીએ\n":6473,"▁સ્ક્રી":6474,"▁અનંત":6475,"▁સાંભળી":6476,"▁રશિયાના":6477,"▁ધારાસભ્યોને":6478,"▁સ્ટેજ":6479,"સૂર":6480,"▁વપરા":6481,"▁ફ્રા":6482,"ર્ટમ":6483,"▁આરોપીઓ":6484,"▁ટ્વીટર":6485,"▁હળવા":6486,"▁કાબુલ":6487,"▁પરિવહન":6488,"▁નક્ષત્ર":6489,"▁હૅ":6490,"▁ઉપાધ્યક્ષ":6491,"▁સાર્વજનિક":6492,"▁મોઢ":6493,"▁આક્ષેપ":6494,"હિતા":6495,"▁સીતાર":6496,"▁બહેનો":6497,"▁સ્ટ્ર":6498,"▁પાર્ટીઓ":6499,"▁બિપાશા":6500,"▁અમેરિકાએ":6501,"▁રજુ":6502,"▁વણ":6503,"▁પ્રશાંત":6504,"▁રાજકુમાર":6505,"▁પ્રાંત":6506,"▁સોમવાર":6507,"મૂલ":6508,"▁આત્મા":6509,"▁સુંદરતા":6510,"▁યુપીમાં":6511,"▁અયોધ્યામાં":6512,"▁મહોત્સવ":6513,"▁હેમ":6514,"▁તસવીરી":6515,"▁પોઈન્ટ":6516,"▁શાહિદ":6517,"▁ક્રાઈ":6518,"▁પંજા":6519,"▁હાઇકોર્ટ":6520,"▁રાજપૂત":6521,"\nપ":6522,"▁ઉત્સવ":6523,"▁ચોક":6524,"ગ્ન":6525,"શુભ":6526,"▁રાજ્યસભામાં":6527,"▁વ્રત":6528,"નાથે":6529,"▁પાડવા":6530,"▁જુદી":6531,"▁બેંગ્લો":6532,"▁ડીજી":6533,"ૉલીવુડ":6534,"ણાની":6535,"▁અભાવે":6536,"▁રાખ્યું":6537,"▁વેબસાઈ":6538,"▁ગતિવિધિ":6539,"▁ઔર":6540,"▁જબરદસ્ત":6541,"▁પોતાનુ":6542,"▁લીધુ":6543,"▁નિર્ધાર":6544,"▁સમારંભમાં":6545,"▁જાસૂ":6546,"▁પડતા":6547,"▁એપિસોડ":6548,"▁ઓનલાઈન":6549,"બાલ":6550,"▁અનુરાગ":6551,"ળાની":6552,"▁આરએસએસ":6553,"▁જગ્યાઓ":6554,"▁ધરાવતી":6555,"સ્વામી":6556,"તક":6557,"દાતા":6558,"▁રૂપિયાનું":6559,"▁દોઢ":6560,"▁દેખરેખ":6561,"ંક્શન":6562,"▁ચેટ":6563,"▁સૌને":6564,"▁ગૃહમાં":6565,"▁ટ્રાન્સફર":6566,"▁હારી":6567,"▁શૌ":6568,"▁વાસ્તુ":6569,"ડીપી":6570,"વેન્દ્ર":6571,"સીય":6572,"▁સોંપી":6573,"▁ડ્રોન":6574,"ીસ":6575,"▁ઈંચ":6576,"▁આગલા":6577,"▁મહત્વનો":6578,"▁મંદિરની":6579,"▁ફોટોમાં":6580,"▁એરક્રાફ્ટ":6581,"પક્ષીય":6582,"પ્રિયંકા":6583,"▁ચુક્યા":6584,"▁પુસ્તક":6585,"નિય":6586,"લથી":6587,"▁હિલ":6588,"▁ગુને":6589,"▁અખ્":6590,"▁મર્યાદા":6591,"▁નિમણૂક":6592,"▁દેશોની":6593,"▁રેસ":6594,"▁મિથુન":6595,"▁આરપીએમ":6596,"▁અદાલતે":6597,"કૃતિ":6598,"્ટન":6599,"▁ગુમ":6600,"▁લાલુ":6601,"▁ગણાવ્યા":6602,"▁અંબાણી":6603,"▁પાદુકોણ":6604,"▁પ્યાર":6605,"▁બેસીને":6606,"▁નિમિત":6607,"▁કરો\n":6608,"કુમા":6609,"▁કરાશે":6610,"▁વૈજ્ઞાનિક":6611,"▁રમા":6612,"ળાના":6613,"▁સમર્થનમાં":6614,"સૂત્રો":6615,"▁તીર્થ":6616,"▁ઘટનાસ્થળે":6617,"રજ":6618,"્રુ":6619,"▁બનવાની":6620,"▁શહેરો":6621,"▁૧૫":6622,"▁નિયુક્ત":6623,"▁દીક્ષિત":6624,"▁ગોવિંદ":6625,"▁દાઉ":6626,"▁વેબસાઇટ":6627,"કાર્પણ":6628,"ડિંગ":6629,"▁માધુ":6630,"દ્વા":6631,"▁હરાવ":6632,"▁આવતું":6633,"▁અમારો":6634,"▁વિવેક":6635,"▁ભવ":6636,"રીન":6637,"ાવ્યું":6638,"▁ઘુ":6639,"▁ઉપવાસ":6640,"▁શુભકામના":6641,"▁ડિસેમ્બરના":6642,"▁યુપીના":6643,"▁છે\nજ્યારે":6644,"▁રૃ":6645,"▁દોર":6646,"▁જીએસટી":6647,"▁તેજસ્વી":6648,"ચંદ્ર":6649,"રશી":6650,"▁સહે":6651,"▁લૂક":6652,"▁દેશનું":6653,"▁સેન્સ":6654,"▁ચાલતી":6655,"સણખો":6656,"▁કુદરતી":6657,"▁સહી":6658,"▁સંબંધોને":6659,"▁અનન્યા":6660,"▁કુમારની":6661,"▁બદલાવ":6662,"▁રિત":6663,"▁રાખ્યા":6664,"▁બહાદુ":6665,"▁આઝ":6666,"▁વતી":6667,"▁વાઈ":6668,"સીમાં":6669,"▁કાફ":6670,"▁ખાતા":6671,"▁સામગ્રી":6672,"▁મગ":6673,"▁તસવીરમાં":6674,"▁અપક્ષ":6675,"▁આવશે\nઆ":6676,"▁નારા":6677,"▁હની":6678,"▁અહેમદ":6679,"▁ઈન્ટરવ્યુમાં":6680,"બેર":6681,"પોર":6682,"▁ઝૂ":6683,"▁કેન્દ્રની":6684,"બીના":6685,"▁ક્યાંય":6686,"▁ભવન":6687,"▁દૂર્ઘટના":6688,"લિશ":6689,"▁સૌર":6690,"▁કમાન્ડ":6691,"▁સંભાળી":6692,"▁ડિઝાઇન":6693,"ડને":6694,"વાણી":6695,"▁ઇંચ":6696,"▁યુવાન":6697,"▁મોદીનો":6698,"▁હિમ":6699,"▁કબજો":6700,"જાગ્રસ્ત":6701,"▁ટ્રાયલ":6702,"બલી":6703,"ભે":6704,"▁સેલ્ફી":6705,"▁સમજૂ":6706,"▁શકતી":6707,"▁પ્રકાશિત":6708,"▁બ્લોક":6709,"નારો":6710,"▁મહિલાઓની":6711,"▁ફાંસી":6712,"\nસુ":6713,"▁સંબંધમાં":6714,"▁ટ્રક":6715,"ાયેલો":6716,"વરી":6717,"▁સૂત્રોએ":6718,"▁ઉદ્યોગપતિ":6719,"▁આઝાદ":6720,"▁સમારોહ":6721,"▁છેતરપિંડી":6722,"▁રાઘ":6723,"▁તાલુકામાં":6724,"▁૨૦૧":6725,"▁સ્વયં":6726,"▁ચાલશે":6727,"\nશ":6728,"▁અલ્પ":6729,"▁મતે":6730,"▁સ્ટુડ":6731,"▁ફેમસ":6732,"▁બનાવ્યું":6733,"▁ભાગે":6734,"▁પ્રતિમા":6735,"▁સ્થિતિને":6736,"▁અર્પણ":6737,"▁મતવિસ્ત":6738,"▁પ્રાણ":6739,"▁કચેરી":6740,"િંગની":6741,"▁નેતાએ":6742,"ટેલ":6743,"▁દસ્તાવેજો":6744,"▁બાત":6745,"▁નિશ્ચિત":6746,"▁માહિતીની":6747,"▁હડતા":6748,"ક્ઝ":6749,"▁અમેઠી":6750,"▁બૉક્સ":6751,"ૉક":6752,"▁નામનો":6753,"▁ગ્રો":6754,"બ્રન્ટ":6755,"▁ફર્સ્ટ":6756,"▁સંવેદનશીલ":6757,"▁લોકડાઉન":6758,"▁ત્યા":6759,"▁પ્રોફે":6760,"▁ક્રૂ":6761,"▁મંજૂર":6762,"▁પદે":6763,"▁અસ્થ":6764,"બાના":6765,"▁વિપ":6766,"▁રહેવાનો":6767,"▁પીડા":6768,"▁૧૨":6769,"▁લાંબો":6770,"▁કેરળમાં":6771,"▁સેલે":6772,"▁ઇચ્છે":6773,"ચિત્ર":6774,"દમ્બર":6775,"▁બર્થ":6776,"વેર":6777,"▁ક્રિ":6778,"▁સલાહકાર":6779,"▁અહી":6780,"દ્ધતિ":6781,"શિપ":6782,"▁જેટલો":6783,"ગ્રે":6784,"▁ફિલ્મોની":6785,"▁સીધો":6786,"▁ટીમને":6787,"▁લખ્યો":6788,"▁ડીલ":6789,"▁હુમલાની":6790,"▁પ્રોડક્શન":6791,"▁સુનીલ":6792,"નિયર":6793,"શક્તિ":6794,"▁કાગ":6795,"▁જયા":6796,"▁રમી":6797,"▁પ્રતાપ":6798,"▁સેનાની":6799,"દ્યોગિક":6800,"▁છેલ્લે":6801,"▁લાગેલા":6802,"મિશન":6803,"ોનો":6804,"▁પેર":6805,"▁સાગર":6806,"▁થવાથી":6807,"ન્ક":6808,"િકાના":6809,"▁બધાની":6810,"▁રજૂઆત":6811,"આઉટ":6812,"▁દેશવાસી":6813,"▁કામની":6814,"▁ભૂલી":6815,"▁મૌન":6816,"▁ધર્મેન્દ્ર":6817,"દિત્ય":6818,"▁ગભ":6819,"▁આવતાં":6820,"▁ભલામણ":6821,"▁શૂ":6822,"▁ઉભો":6823,"ન્દ્રા":6824,"▁સીરિઝ":6825,"▁પડતી":6826,"▁પહોંચે":6827,"▁કુટ":6828,"▁શૈક્ષણિક":6829,"▁લઘુત્તમ":6830,"દુલ":6831,"▁કામદારો":6832,"▁મહિનો":6833,"▁પરિવર્ત":6834,"▁કોર":6835,"▁નામાં":6836,"્રીટ":6837,"▁ઈમરજન્સી":6838,"▁કોરોનાથી":6839,"▁ભરોસો":6840,"▁જાતને":6841,"જોત":6842,"▁અંદાજમાં":6843,"▁દબંગ":6844,"▁છબી":6845,"▁ડિરેક્ટર":6846,"▁નાંખી":6847,"હિટ":6848,"▁વિધિ":6849,"બાદમાં":6850,"▁પ્રાચીન":6851,"▁સેકન્ડ":6852,"▁હીરા":6853,"ચક":6854,"સરમાં":6855,"વારોના":6856,"▁શ્રો":6857,"▁ટૉપ":6858,"▁મોદીનું":6859,"▁રાખવી":6860,"▁તમિલ":6861,"▁ઇનપુટ":6862,"▁કેપ":6863,"મીન":6864,"▁અંજામ":6865,"▁વિદેશમાં":6866,"▁છેવ":6867,"િયામાં":6868,"▁ડેબ્યુ":6869,"▁નિમિત્":6870,"િયાં":6871,"▁ફેસલો":6872,"ભિને":6873,"▁અધિન":6874,"▁ગાંધીનગરમાં":6875,"▁કિસાન":6876,"▁ગુસ્સે":6877,"▁ઈસ્લા":6878,"ચ્ચાર":6879,"▁જવાનું":6880,"▁આદર્શ":6881,"▁વિરાટ":6882,"રણે":6883,"▁થતું":6884,"▁ઓવૈ":6885,"▁અનુપ":6886,"▁અફઘાનિસ્તાન":6887,"▁ક્લાસ":6888,"થલ":6889,"હારા":6890,"▁ઉઠાવ્યા":6891,"ધરા":6892,"▁સુહાના":6893,"▁શ્રમ":6894,"▁ચુકાદા":6895,"▁ભૌ":6896,"▁સંજો":6897,"▁લોકાર્પણ":6898,"▁બેક":6899,"▁ચૂંટણીઓ":6900,"▁ચીનમાં":6901,"▁પત્રકારો":6902,"▁જશો":6903,"ફોર્":6904,"▁બાળકોની":6905,"▁ફ્રન્ટ":6906,"્સની":6907,"▁ગામે":6908,"▁પ્રતિષ્ઠા":6909,"▁પ્રતિનિધિત્વ":6910,"▁લાય":6911,"પીટ":6912,"▁દરજ્":6913,"▁મિનિ":6914,"▁ટાઇમ":6915,"▁સમૃદ્ધિ":6916,"શાલ":6917,"▁શક્યો":6918,"▁ઑન":6919,"ઝની":6920,"ફ્યુ":6921,"શની":6922,"શંકર":6923,"મેંટ":6924,"િયાને":6925,"▁મોકો":6926,"▁ફોર્સ":6927,"▁જૂનના":6928,"▁સપ્લાય":6929,"▁ફેમિ":6930,"▁ક્ષેત્રોમાં":6931,"ઈમાં":6932,"▁હાં":6933,"▁મારુ":6934,"▁ખિ":6935,"▁એમએમ":6936,"▁પ્રકારે":6937,"ટ્ટર":6938,"▁કૉંગ્રેસ":6939,"▁મોરચા":6940,"▁બર્":6941,"▁ઉના":6942,"▁કેસોમાં":6943,"▁૧૧":6944,"▁શક્તિશાળી":6945,"▁તકલીફ":6946,"▁ફૂડ":6947,"▁નિરાશ":6948,"▁રહેતો":6949,"▁ભાજપા":6950,"▁યુરોપ":6951,"▁યુકે":6952,"▁ટકાનો":6953,"▁એનએમ":6954,"▁ચંદ્રયાન":6955,"પીએસ":6956,"રનો":6957,"▁પુરૂ":6958,"▁ભયાનક":6959,"\nએક":6960,"▁જતો":6961,"▁કેવા":6962,"▁ડિફે":6963,"▁દેખાવ":6964,"▁હિંસક":6965,"▁છે\nહવામાન":6966,"સેસ":6967,"▁વર્તન":6968,"▁કામકા":6969,"સૈ":6970,"્લુ":6971,"▁ખામી":6972,"▁પાયા":6973,"ચારિક":6974,"▁ઑગસ્ટ":6975,"▁મારીને":6976,"▁પ્રકારનો":6977,"▁ભોપાલ":6978,"▁સમજૂતી":6979,"▁શિવરાજ":6980,"▁કપલ":6981,"▁ગ્રામ્ય":6982,"ઈને":6983,"યણ":6984,"વીય":6985,"ત્રુ":6986,"ષ્ણા":6987,"▁ફેક્ટ":6988,"▁ફ્લાઇટ":6989,"▁પ્રેસિડેન્ટ":6990,"▁ઇજા":6991,"▁કપૂરના":6992,"▁સભ્યોની":6993,"બીએ":6994,"▁નિભાવી":6995,"▁ઠાકોર":6996,"▁ખુલાસા":6997,"ગિ":6998,"છો":6999,"પ્લે":7000,"▁ચાંદ":7001,"▁ડાંગ":7002,"▁કિંમ":7003,"▁શરુઆત":7004,"▁એસોસિ":7005,"▁યુપીએ":7006,"▁સીધા":7007,"▁ટેકો":7008,"▁લખીને":7009,"બેટ":7010,"લેન્ટ":7011,"ક્સિજન":7012,"▁અબ્દુલ્લા":7013,"ગિત":7014,"વાડ":7015,"દાસ્પદ":7016,"▁વોટર":7017,"▁ફડ":7018,"▁લેફ્ટ":7019,"▁બિર":7020,"▁ડેમો":7021,"▁બનતી":7022,"▁બાળકને":7023,"▁પૂર્ણિ":7024,"▁સ્લાઇડરમાં":7025,"▁દૈનિક":7026,"ઈન્ડ":7027,"રેન્સ":7028,"▁સ્નાન":7029,"▁નોટબંધી":7030,"▁હોવાને":7031,"▁સમારોહમાં":7032,"▁ઈઝરાયેલ":7033,"▁હક":7034,"▁રક્ષણ":7035,"▁સ્ક્ર":7036,"પ્રદાય":7037,"▁નોટો":7038,"▁સાઇ":7039,"▁પાડો":7040,"▁બંન્ને":7041,"▁ક્ષે":7042,"▁દર્શકોને":7043,"▁ડેબ્યૂ":7044,"\nતે":7045,"ટરની":7046,"▁પદ્ધતિ":7047,"▁મેહ":7048,"ટાની":7049,"▁મહિનાના":7050,"▁દેખાયા":7051,"રિયર":7052,"▁પ્રદર્શ":7053,"▁જોવાનું":7054,"▁ફેંકી":7055,"ુમતી":7056,"▁સિક્વ":7057,"▁પ્રવાસીઓ":7058,"▁વસા":7059,"▁એરફો":7060,"પ્રધાને":7061,"સરકાર":7062,"▁મહત્વનું":7063,"▁ઘરેથી":7064,"▁ઔદ્યોગિક":7065,"▁કારણોસર":7066,"▁અકાઉન્ટ":7067,"▁મહેતા":7068,"ન્સ્ટે":7069,"જાન":7070,"▁ભડ":7071,"▁ઝિ":7072,"▁લખવામાં":7073,"▁સાયન્સ":7074,"▁બેંગલુરુ":7075,"વના":7076,"વિક":7077,"▁આશિ":7078,"ડિટ":7079,"▁આકરી":7080,"▁હસીના":7081,"ડીઓ":7082,"દિત":7083,"વવી":7084,"રમાંથી":7085,"▁ગરમા":7086,"▁સમિતિના":7087,"▁કેબિને":7088,"▁ઓનલાઇન":7089,"▁હંગામો":7090,"▁હસ્તા":7091,"▁આદિત્યનાથે":7092,"▁કલેક્ટર":7093,"▁નિમિત્તે":7094,"▁નશા":7095,"▁રાજદ":7096,"ંડર":7097,"▁બાળપણ":7098,"માન્ય":7099,"પુરથી":7100,"▁રાજીનામુ":7101,"▁લાઇન":7102,"▁રાજનૈતિક":7103,"બાગ":7104,"▁બનાવવાનું":7105,"▁બચવા":7106,"▁શિક્ષક":7107,"▁માણી":7108,"િંગના":7109,"▁શકું":7110,"▁ક્ષેત્રના":7111,"▁યોજાયેલી":7112,"▁પછા":7113,"▁નાણામંત્રી":7114,"▁ભેદ":7115,"▁અનુરોધ":7116,"▁રાખવું":7117,"▁ચર્ચાઓ":7118,"▁કમિશ્":7119,"▁દ્રષ્ટિએ":7120,"▁ફેસ્ટિવ":7121,"▁પારો":7122,"▁નીચ":7123,"▁વ્યાજ":7124,"▁પડો":7125,"▁યૂટ":7126,"િક્ષા":7127,"▁ટોચના":7128,"▁પત":7129,"▁તેજી":7130,"એસપી":7131,"▁હરિયાણાના":7132,"▁વિવાદાસ્પદ":7133,"▁દાવ":7134,"▁આંત":7135,"લાસ":7136,"▁આપવું":7137,"▁મોસ્ટ":7138,"▁ઇઝ":7139,"▁સ્ટાર્ટ":7140,"▁અથડામણ":7141,"ભાષ":7142,"▁કાબૂ":7143,"▁વિકી":7144,"દ્ધાંત":7145,"▁સંશોધ":7146,"▁મલ્હો":7147,"▁ડેવલપમેન્ટ":7148,"▁સેલ્સિયસ":7149,"▁મહેસાણા":7150,"થું":7151,"મણી":7152,"▁બસો":7153,"▁સ્થગિત":7154,"▁આરોપીઓને":7155,"▁પિત":7156,"▁રહસ્ય":7157,"▁ડિવ":7158,"સ્તાની":7159,"▁અધિકારો":7160,"કૂળ":7161,"હાં":7162,"▁સાચા":7163,"▁લાઇટ":7164,"પુરની":7165,"▁મુંબઈઃ":7166,"લાઇટ":7167,"▁સર્વેમાં":7168,"▁પ્રેરિત":7169,"▁કટોક":7170,"લાત":7171,"▁ચૌહાણ":7172,"▁બીએચ":7173,"▁તામ":7174,"▁બાબતમાં":7175,"▁મજબૂર":7176,"▁અમરિ":7177,"ટ્ટા":7178,"▁સલામતી":7179,"▁હેલિકોપ્ટર":7180,"▁ક્રાઈમ":7181,"▁પંક":7182,"▁કેન્દ્રો":7183,"▁પોસ્ટમો":7184,"▁સંભળા":7185,"▁દત્":7186,"સીન":7187,"▁પૂજ":7188,"▁કાનૂની":7189,"પશ્ચિમ":7190,"શીએ":7191,"▁સના":7192,"▁ગીર":7193,"▁દુનિયાની":7194,"▁સેટે":7195,"▁વોર":7196,"▁જયંતિ":7197,"▁હીટ":7198,"▁છુપ":7199,"▁નસીબ":7200,"ાવશે":7201,"▁દિવસીય":7202,"▁પક્ષની":7203,"▁બાઇ":7204,"હાઇટ":7205,"▁છે\nઅહીં":7206,"▁મેક":7207,"▁રોકડ":7208,"▁દિવ્યા":7209,"▁જેમના":7210,"રવ્યૂ":7211,"▁પંજાબી":7212,"▁ટોચ":7213,"▁ચિદમ્બર":7214,"▁તિર":7215,"▁દિગ્દર્શિત":7216,"ડલ":7217,"િઝન":7218,"▁એસ્ટ":7219,"▁ખેર":7220,"▁સીન્સ":7221,"▁પ્રતિભા":7222,"▁અરજ":7223,"▁ખોરા":7224,"▁સુપરહિટ":7225,"▁બાંધકામ":7226,"▁સમુદાયના":7227,"▁અબજ":7228,"▁વિસ":7229,"▁હિરો":7230,"▁શરમ":7231,"▁શકાશે":7232,"▁રિઝર્વ":7233,"▁અછ":7234,"▁ગુડ":7235,"▁હોટલ":7236,"▁નિષ્ણાતની":7237,"▁ટીમના":7238,"▁કરોડનો":7239,"▁હતુ\n":7240,"▁માર્ગદર્શ":7241,"▁પામ્યા":7242,"▁પઠા":7243,"▁રદ્દ":7244,"▁નફર":7245,"▁મેકઅપ":7246,"પાલે":7247,"▁મલ્હોત્રા":7248,"▁નદીમાં":7249,"▁સાવંત":7250,"▁સમયની":7251,"▁રૂપાણી":7252,"▁પરંપરાગત":7253,"▁હકીકતમાં":7254,"▁અડવાણી":7255,"નોદ":7256,"શ્ક":7257,"▁જીવનની":7258,"▁શિવસેનાના":7259,"પરેશન":7260,"▁પક":7261,"▁સ્ત્રો":7262,"▁બનાવશે":7263,"▁શોના":7264,"▁હત્યાના":7265,"▁ઓમિક્રો":7266,"મામ":7267,"▁સેક્રેટ":7268,"▁લાવ્યા":7269,"▁ભોજ":7270,"▁જણાય":7271,"▁વિજળી":7272,"▁પ્રેમમાં":7273,"ફોડ":7274,"ૅક":7275,"રાઇ":7276,"▁વિતા":7277,"▁રાશિઓ":7278,"▁વૈભ":7279,"▁દર્દીઓની":7280,"સન્સ":7281,"▁ખેલ":7282,"▁સર્જરી":7283,"▁બચ્ચને":7284,"કતો":7285,"▁ઓક્ટોબરના":7286,"લેજ":7287,"ક્ષ્":7288,"લોને":7289,"▁દરખા":7290,"▁આગળની":7291,"▁ગાઢ":7292,"▁નિર્દોષ":7293,"▁અટકાયત":7294,"સ્ટ્રેશન":7295,"▁હાઈકોર્ટમાં":7296,"લૉ":7297,"▁કઠ":7298,"▁છે\nકોંગ્રેસ":7299,"▁રોમેન્ટ":7300,"બાજી":7301,"▁લાગતું":7302,"▁દુષ્ક":7303,"▁સંકળાયેલા":7304,"સરે":7305,"▁કથા":7306,"▁બિલ્":7307,"▁ખુલ":7308,"▁હોતી":7309,"▁પડદે":7310,"▁પિતાએ":7311,"▁રૂપાણીએ":7312,"બારી":7313,"ોનું":7314,"▁પાવ":7315,"▁મશીન":7316,"▁ઑક્ટોબર":7317,"ુંગ":7318,"ર્બ":7319,"ટેગ":7320,"▁હોલ":7321,"ંકડો":7322,"લિકાર્":7323,"▁લગાવીને":7324,"▁ટાઇગર":7325,"▁ટીએમસી":7326,"▁વેબસાઈટ":7327,"્રીમ":7328,"▁દેઓલ":7329,"રીયા":7330,"▁માંગતી":7331,"▁કર્ક":7332,"▁હૉલીવુડ":7333,"▁તાજેતરના":7334,"▁સમિતિની":7335,"▁ઘાયલો":7336,"▁સરકારનું":7337,"▁ઈન્સ્ટ":7338,"▁અમલી":7339,"▁લોકતંત્ર":7340,"ઝમાં":7341,"▁સૈનિક":7342,"▁કલ્પના":7343,"▁જુલાઈએ":7344,"યત":7345,"▁પહોંચાડી":7346,"નિર્ભર":7347,"િયાત":7348,"▁છે\nયુ":7349,"▁સલામત":7350,"▁એપ્રિલના":7351,"▁પાટીદારો":7352,"▁હેન્ડલ":7353,"▁વિધાનસભાના":7354,"▁પોસ્ટમાં":7355,"▁ખેડૂતોએ":7356,"▁જોતાં":7357,"▁મતલબ":7358,"▁કોર્પોરે":7359,"પ્રથમ":7360,"▁નિર્ણયને":7361,"▁લોકપ્રિયતા":7362,"▁ઓફિસમાં":7363,"▁ગાઈ":7364,"▁ઉછ":7365,"▁જોધ":7366,"▁છે\nરાજ":7367,"બ્બ":7368,"▁આકર્ષિત":7369,"▁સંદર્ભે":7370,"જ્યારે":7371,"ઝિ":7372,"▁બુલ":7373,"ર્થી":7374,"▁કિસ":7375,"▁અરુણાચલ":7376,"▁ફડણવી":7377,"હાનિ":7378,"▁વાંચી":7379,"▁ગિફ્ટ":7380,"દમાં":7381,"વૃ":7382,"▁સાકાર":7383,"▁બાંધી":7384,"▁ડીએમ":7385,"▁જવાના":7386,"શાસિત":7387,"▁છેવટે":7388,"▁અવિ":7389,"▁ઇસ":7390,"▁બ્રેકઅપ":7391,"▁એમ્બ":7392,"▁યુટ":7393,"▁કરેલ":7394,"▁અંતમાં":7395,"▁ખાલિ":7396,"બેક":7397,"▁કરાવ્યો":7398,"▁બોલિવૂડની":7399,"▁મેડલ":7400,"▁લઘુમતી":7401,"▁દેવેન્દ્ર":7402,"ભાગી":7403,"રાયેલા":7404,"▁ગણાવ્યો":7405,"▁ખસેડવામાં":7406,"▁રુપિયા":7407,"▁નાશ":7408,"જાતિ":7409,"▁પાણીના":7410,"▁ભેગા":7411,"▁પ્રતીક":7412,"▁કોન્ટ્રા":7413,"▁પ્લ":7414,"દીને":7415,"સીબી":7416,"▁મેર":7417,"▁ચુક્યાં":7418,"▁સેક્ટરમાં":7419,"ઝાન":7420,"▁એકઠા":7421,"▁જાતકોને":7422,"▁મોડેલ":7423,"▁તબીબી":7424,"જલ":7425,"ફૉ":7426,"▁ખુરશી":7427,"▁ચોક્કસપણે":7428,"▁દરજ્જો":7429,"▁ગાયક":7430,"▁દંપ":7431,"▁એમને":7432,"્યારથી":7433,"▁જલદી":7434,"\nકે":7435,"▁બેનર":7436,"▁ચૂક્યું":7437,"▁ન્યૂયોર્ક":7438,"▁કેજરીવાલની":7439,"દાયક":7440,"▁બંધારણ":7441,"ભાજ":7442,"▁ઓર્ગે":7443,"▁પરિવારે":7444,"▁અધિકારીઓની":7445,"▁મુસાફરો":7446,"▁દવાઓ":7447,"મલ":7448,"▁સજ્જ":7449,"નમાંથી":7450,"▁ઉત્પ":7451,"▁ફોટોગ્રા":7452,"▁ડ્રેસમાં":7453,"ટુ":7454,"▁પાન":7455,"વાયર":7456,"▁આકાર":7457,"▁રમેશ":7458,"તાજે":7459,"▁દાસ":7460,"▁વાળી":7461,"▁સંયોગ":7462,"▁લેવાનું":7463,"▁શર્":7464,"▁મારફ":7465,"▁સંબંધોમાં":7466,"▁ફરિયાદો":7467,"▁યોજાનારી":7468,"એટ":7469,"િવાર":7470,"▁દળના":7471,"ક્ષેત્ર":7472,"▁ભાગરૂપે":7473,"▁કોર્ટને":7474,"▁સમર્થકો":7475,"▁યોજવામાં":7476,"▁ઉત્સાહિત":7477,"▁આયાત":7478,"▁લાદ":7479,"▁સફાઈ":7480,"લ્ટા":7481,"▁ક્રિકેટર":7482,"▁મોના":7483,"▁સેંકડો":7484,"▁મંત્રીમંડ":7485,"▁તૃણ":7486,"ઝોર":7487,"સ્પર":7488,"▁શ્રીનગર":7489,"▁યુદ્ધમાં":7490,"▁મનોરંજન":7491,"ૃત્ત":7492,"લોન":7493,"તોમાં":7494,"▁એનર્જી":7495,"▁ફર્યા":7496,"▁સ્ટેન્ડ":7497,"▁આખું":7498,"▁દ્રશ્ય":7499,"▁સાવચેતી":7500,"▁રામા":7501,"▁બેગ":7502,"▁મહાગ":7503,"▁છોટા":7504,"શુક્ર":7505,"▁પોસ્ટમોર્ટમ":7506,"આઇએ":7507,"ઝને":7508,"▁રેટ":7509,"▁અંગેના":7510,"▁પક્ષી":7511,"▁શાળાઓમાં":7512,"▁લડશે":7513,"▁દ્વિ":7514,"▁નબળી":7515,"▁સજ":7516,"રેન્ટ":7517,"▁હોવું":7518,"વિજય":7519,"▁પીપ":7520,"▁દેશોએ":7521,"▁અઠવાડિયામાં":7522,"▁ઘટીને":7523,"▁મલ્લિકાર્":7524,"▁અશ્લીલ":7525,"બાજુ":7526,"▁વિચિત્ર":7527,"▁જોડો":7528,"વાયેલી":7529,"પીએલ":7530,"\nસો":7531,"▁પવ":7532,"▁અસા":7533,"▁છે\nસા":7534,"▁છે\nબીજી":7535,"િકાએ":7536,"▁હવાઈ":7537,"સિંહે":7538,"▁શ્રાવ":7539,"▁જુલાઈના":7540,"▁પોરબંદર":7541,"▁છે\nભાજપ":7542,"▁ગામની":7543,"▁ચંદ્રશે":7544,"▁વૃષભ":7545,"▁ઈનકાર":7546,"▁છે\nમા":7547,"▁કેટરિ":7548,"▁રજનીકાંત":7549,"આમ":7550,"ષિક":7551,"▁સદી":7552,"▁બીએમ":7553,"ભારતીય":7554,"▁દુનિયાભરમાં":7555,"▁કુંડળીમાં":7556,"શિવ":7557,"▁જેપી":7558,"પીડ":7559,"▁રાજકોટમાં":7560,"▁ફટાકડા":7561,"▁દુષ્કર્મ":7562,"ળક":7563,"વક":7564,"્યુબ":7565,"▁સમજા":7566,"▁પ્રોફેસર":7567,"▁લિવ":7568,"▁એપ્":7569,"▁સંચાલન":7570,"ગારો":7571,"▁બજ":7572,"▁સાઇટ":7573,"મેક":7574,"કાની":7575,"▁નાગા":7576,"▁જન્મેલા":7577,"▁વ્યક્તિત્વ":7578,"▁મેચમાં":7579,"▁વિગતવાર":7580,"▁વાગી":7581,"▁જનસભા":7582,"▁ઠાકરેએ":7583,"▁યૂટ્યૂબ":7584,"▁છે\nના":7585,"િયે":7586,"્સના":7587,"▁ઊભો":7588,"▁જઇને":7589,"▁સોલંકી":7590,"ટિક":7591,"મપુર":7592,"▁લંબા":7593,"▁લક્ઝ":7594,"▁ઉલ":7595,"▁અમર":7596,"▁મનોહર":7597,"▁જણાવાયું":7598,"▁ઈન્ડસ્ટ્રીમાં":7599,"▁ચારેય":7600,"▁હસ્તાક્ષર":7601,"ંને":7602,"ીટ":7603,"▁ફાસ્ટ":7604,"▁આવતીકાલે":7605,"▁આવેલો":7606,"▁ઇમાર":7607,"▁ઇવેન્ટ":7608,"▁શહેરની":7609,"▁ખોલી":7610,"▁પ્રકારનું":7611,"▁બેરોજગારી":7612,"શિંગ્ટન":7613,"▁રાઘવ":7614,"ડું":7615,"ફાઇ":7616,"▁દલીલ":7617,"ાજનક":7618,"ાર્ક":7619,"▁વાયરસની":7620,"▁ઇન્ટરનેશનલ":7621,"▁આટલું":7622,"▁સિંગલ":7623,"▁જરુ":7624,"▁પોત":7625,"▁દેશમુખ":7626,"▁મહિલાઓના":7627,"▁ઓળખા":7628,"▁કાર્તિક":7629,"▁શરીફ":7630,"▁બતાવીશું":7631,"▁મેયર":7632,"▁પહેલું":7633,"▁રેક":7634,"સુર":7635,"▁ધોરણે":7636,"▁સાધ્યું":7637,"ચ્યુ":7638,"▁કેશ":7639,"▁પ્રણા":7640,"▁રાઈ":7641,"▁ઉડી":7642,"▁પુછ":7643,"▁જાહેરમાં":7644,"▁કોઇને":7645,"▁કલાકો":7646,"▁માલદી":7647,"▁વિલંબ":7648,"▁નિર્મલા":7649,"▁ગમ":7650,"▁સન્માનિત":7651,"▁ઉંમરના":7652,"ર્સમાં":7653,"લાયન્સ":7654,"▁તિથિ":7655,"▁પ્રસન્ન":7656,"▁હોટલમાં":7657,"▁છે\nહાલમાં":7658,"▁ફ્લાઈ":7659,"▁નિરીક્ષણ":7660,"િસે":7661,"▁પ્રાથમિકતા":7662,"▁ત્રિપુરા":7663,"ક્ય":7664,"લાશ":7665,"્યાત્મ":7666,"▁રૂ૧":7667,"▁રાખવાનો":7668,"▁ખરીદવા":7669,"▁ઘટતી":7670,"▁મતવિસ્તાર":7671,"▁શત્રુ":7672,"્યાય":7673,"▁ઉમર":7674,"▁ઘેર":7675,"▁કારના":7676,"▁સીરિયલ":7677,"▁બિહારી":7678,"▁આરતી":7679,"▁વિચારધારા":7680,"ફાઈ":7681,"▁વિનોદ":7682,"વિઝન":7683,"▁સિલિ":7684,"▁સોનુ":7685,"▁દુલ્":7686,"▁શુદ્ધ":7687,"▁પ્રોગ્રામ":7688,"▁રાખીશું":7689,"▁અનુભવી":7690,"▁સ્વપ્ન":7691,"▁કેદી":7692,"▁થે":7693,"▁ઉડાવી":7694,"▁બાપુ":7695,"▁કાસ્ટ":7696,"▁ભાગના":7697,"▁લક્ષણો":7698,"▁ગ્રાઉન્ડ":7699,"▁ઉતાર્યા":7700,"▁ડ્રાઇવ":7701,"▁કમાં":7702,"▁માસ્ટર":7703,"▁લાશ":7704,"▁માન્યો":7705,"▁શાળામાં":7706,"▁ગરીબી":7707,"▁વટ":7708,"ન્ગ":7709,"▁દેહ":7710,"▁દુર્ગા":7711,"▁નવરાત્રી":7712,"▁મેઘાલય":7713,"▁ગડકરી":7714,"ંગળ":7715,"▁આપવો":7716,"▁હોશ":7717,"▁દાદા":7718,"▁કોંગ્રેસી":7719,"૦૦૦":7720,"▁તું":7721,"▁શોર્ટ":7722,"છેલ્લા":7723,"▁કન્ન":7724,"▁આવશ્ય":7725,"ટાઈ":7726,"▁મીન":7727,"▁ક્રમે":7728,"▁મેરી":7729,"રુપ":7730,"ર્વશી":7731,"▁પેલે":7732,"▁સિંગર":7733,"પોલીસ":7734,"▁ગોચરની":7735,"\nઉ":7736,"▁છે\nઇ":7737,"▁છે\nફિલ્મ":7738,"જૂન":7739,"▁એનઆર":7740,"▁આરજે":7741,"▁કેરળના":7742,"▁ઉંમરે":7743,"▁સશક્ત":7744,"ફ્રાસ્ટ્રક્ચર":7745,"ંથ":7746,"દ્વાર":7747,"લિસ":7748,"▁બનતા":7749,"▁જસ્ટીસ":7750,"▁પુરુષો":7751,"▁વાઘેલા":7752,"▁પંકજ":7753,"▁જિન":7754,"▁દહે":7755,"▁એનો":7756,"▁રૂટ":7757,"▁અસ્તિત્વ":7758,"▁છે\nરા":7759,"▁ખાદ્ય":7760,"▁ટ્રેનિંગ":7761,"▁ક્લબ":7762,"▁ચલાવ":7763,"▁યુગ":7764,"▁કરોડનું":7765,"▁દોડી":7766,"▁અરજીમાં":7767,"▁પ્રારંભિક":7768,"▁રમખાણો":7769,"રીનો":7770,"વિન":7771,"▁પડકારો":7772,"▁ખોટો":7773,"▁પાડ્યા":7774,"▁ટાપુ":7775,"▁તનુ":7776,"▁સુરક્ષાબળો":7777,"▁આત્મવિશ્વાસ":7778,"▁વહીવટીતંત્ર":7779,"▁ડિફેન્સ":7780,"૫૦":7781,"▁રિયલ":7782,"▁એમની":7783,"▁નબળા":7784,"▁સરખામણીમાં":7785,"▁પળે":7786,"▁જોહ":7787,"▁ચર્ચાનો":7788,"▁સૂત્ર":7789,"▁ગામડા":7790,"▁હરિયાણામાં":7791,"▁ઘેરી":7792,"▁રાઠ":7793,"▁હોસ્પિટલના":7794,"▁વિનાશ":7795,"▁આત્મનિર્ભર":7796,"▁મ્યુઝિક":7797,"▁તોડફોડ":7798,"▁સિક્કિ":7799,"▁વાજપે":7800,"▁છૂટાછેડા":7801,"ન્વ":7802,"▁દેવગ":7803,"▁સભ્યોને":7804,"▁કોહલી":7805,"▁શ્વેતા":7806,"▁અશુભ":7807,"▁જોવી":7808,"▁હોવો":7809,"▁બેઠેલા":7810,"સુખ":7811,"▁કેજરીવાલને":7812,"▁અગ્રવાલ":7813,"▁પશુપાલ":7814,"▁હૉસ્પિટલમાં":7815,"▁લશ્કરી":7816,"▁મુકાબલો":7817,"એપ":7818,"ૂમ":7819,"માળ":7820,"▁ઉમેદવારોના":7821,"▁મુંબઈની":7822,"▁પ્રિયંકાએ":7823,"▁સંક્રમણના":7824,"▁સીઆરપીએ":7825,"▁કમેન્ટ":7826,"લીઓ":7827,"▁ઝાડ":7828,"▁દિધી":7829,"યોગ્ય":7830,"▁ટ્રિ":7831,"\nમો":7832,"નવ":7833,"▁મળેલા":7834,"▁વિશ્વભરમાં":7835,"▁તહેવારો":7836,"▁અખ્તર":7837,"ંગની":7838,"કાદ":7839,"કેટમાં":7840,"▁બાજ":7841,"ક્ષક":7842,"પોતાની":7843,"્સને":7844,"▁અવસાન":7845,"▁વડોદરામાં":7846,"▁મિસાઈલ":7847,"▁દિનેશ":7848,"▁કાયદે":7849,"▁અર્થતંત્ર":7850,"▁સમયસર":7851,"▁ડિસ્ટ":7852,"▁જાણીતું":7853,"▁ગેમ":7854,"▁એજન્સીઓ":7855,"▁હળવો":7856,"▁વૅ":7857,"્ટર":7858,"પ્રા":7859,"▁રાખશે":7860,"▁ટાટા":7861,"પ્શનમાં":7862,"▁ઝટકો":7863,"ડૂ":7864,"▁દાં":7865,"▁ઈવેન્ટ":7866,"▁શકતો":7867,"▁કબજે":7868,"▁પબ્લિક":7869,"▁ગૃ":7870,"▁ઈરાન":7871,"▁બાબુ":7872,"▁પાછળથી":7873,"▁જોડાણ":7874,"▁કરિયરની":7875,"▁રંજન":7876,"▁નરેન્દ્રભાઈ":7877,"▁એનડી":7878,"▁પાછળનું":7879,"▁કાયદાકીય":7880,"▁વ્હાઇટ":7881,"\nગ":7882,"▁મહી":7883,"▁જેલની":7884,"▁સાઉદી":7885,"▁નિર્ધારિત":7886,"પચારિક":7887,"▁કોને":7888,"▁સ્થાયી":7889,"▁કોંગ્રેસનો":7890,"▁હાજરીમાં":7891,"▁લુકમાં":7892,"કટર":7893,"▁આમાંથી":7894,"▁સામેની":7895,"▁પંચમ":7896,"▁ફાટી":7897,"પોલીસે":7898,"ફ્ટી":7899,"▁વડ":7900,"▁શરણ":7901,"▁ડોક્ટર":7902,"▁ક્લ":7903,"▁જેડીએસ":7904,"ન્સ્ટેબલ":7905,"નએ":7906,"▁દર્શાવવામાં":7907,"▁ચૌધરીએ":7908,"હના":7909,"નીની":7910,"▁આપશે\n":7911,"▁ઈલે":7912,"▁આરોપમાં":7913,"▁૧૪":7914,"▁ટ્વિટમાં":7915,"▁પૈસાની":7916,"▁અફઘાન":7917,"▁એમણે":7918,"▁યોજાનાર":7919,"▁તપાસની":7920,"▁વિસ્તારની":7921,"▁છે\nહવે":7922,"▁ચેન્નઈ":7923,"▁દાઉદ":7924,"▁મિઝોર":7925,"▁બુલેટ":7926,"▁તાલિબા":7927,"▁લંડન":7928,"જક":7929,"▁શબ":7930,"▁બોલે":7931,"▁મિશ્ર":7932,"▁વ્યક્તિઓ":7933,"▁ઈન્ટરનેશનલ":7934,"હ્ન":7935,"▁અજાણ્યા":7936,"\nકો":7937,"▁પીએસ":7938,"▁સિલ્":7939,"▁પ્રકૃતિ":7940,"▁કોગ્રેસ":7941,"▁દુકાનો":7942,"▁ટ્રેડ":7943,"▁હતા\nઅ":7944,"▁નિયંત્ર":7945,"▁નદીના":7946,"▁પુલવામા":7947,"▁બેટ":7948,"▁સિંચ":7949,"િંમત":7950,"▁અપલોડ":7951,"▁સ્થાપ":7952,"▁છાત્રો":7953,"▁તટ":7954,"▁રાજયોગ":7955,"ન્દર":7956,"▁કિમ":7957,"▁દર્શાવી":7958,"ઝના":7959,"હાઈ":7960,"ૉટ":7961,"વાયો":7962,"▁કરિયર":7963,"▁નૈ":7964,"લિસ્ટ":7965,"▁પહોંચશે":7966,"▁ખેડુ":7967,"▁સાંભળવા":7968,"▁તારીખે":7969,"▁ઉત્સુક":7970,"▁ઓક્સિજન":7971,"કલીન":7972,"નાઇટેડ":7973,"ુદ્દીન":7974,"▁ભંડ":7975,"▁રાણા":7976,"▁હેઠળની":7977,"▁ચંદ્રની":7978,"▁મૅગેઝી":7979,"▁માધુરી":7980,"ડીયો":7981,"▁શનિદેવ":7982,"▁યુનિવર્સિટીના":7983,"▁ઉત્તરાખંડમાં":7984,"હૂર્ત":7985,"બ્રે":7986,"▁બલિ":7987,"▁સિક્યો":7988,"▁એન્ટી":7989,"▁અબ્દુલ":7990,"▁બાસુ":7991,"▁બનાવો":7992,"▁જુએ":7993,"▁કોડ":7994,"▁પાપ":7995,"▁બોડી":7996,"▁દિલ્હીથી":7997,"▁તરફે":7998,"▁થઇને":7999,"▁રણદીપ":8000,"▁અફેર":8001,"▁સેક્રેટરી":8002,"કાનું":8003,"ઝિયા":8004,"▁અદ્":8005,"ટીને":8006,"▁કામના":8007,"સ્થાને":8008,"▁પાણીનો":8009,"▁ગણવામાં":8010,"▁લૉકડાઉ":8011,"▁તથ":8012,"▁અરબ":8013,"▁મહાદેવ":8014,"▁ટ્વીટમાં":8015,"ંદર્ય":8016,"▁સવારથી":8017,"▁જાગૃતિ":8018,"▁ગેંગરે":8019,"▁આનંદીબેન":8020,"િવારિક":8021,"▁સ્માર":8022,"સીપી":8023,"▁સીઝ":8024,"▁છું\n":8025,"▁૧૮":8026,"▁કૅરિયર":8027,"▁પરિસ્થિતિમાં":8028,"▁ભાષામાં":8029,"▁ખોલવામાં":8030,"▁શ્રોફ":8031,"▁વિસ્તૃત":8032,"▁સચિ":8033,"▁છાપ":8034,"▁સર્જાયો":8035,"▁બગા":8036,"વેરા":8037,"▁દેખાશે":8038,"▁ધર્મના":8039,"▁મહાનગરપાલિકા":8040,"▁ઉજ્જ":8041,"▁જોયો":8042,"▁રાજ્યમંત્રી":8043,"ફળતા":8044,"▁નડ્":8045,"હેલ":8046,"રીંગ":8047,"▁ઈશ":8048,"▁ગુજરાતને":8049,"▁સ્વરાજ":8050,"▁અદાણી":8051,"▁સમૃદ્ધ":8052,"▁પદ્મ":8053,"▁શાર":8054,"▁ગંગ":8055,"▁ખતરા":8056,"▁વાસ":8057,"▁ચાલતા":8058,"▁દોસ્ત":8059,"સુધી":8060,"▁ગણાય":8061,"▁પિતાની":8062,"▁નિર્દેશક":8063,"▁રૉય":8064,"ર્જન":8065,"▁કહો":8066,"▁ઈશા":8067,"▁શક્યું":8068,"▁જાણીને":8069,"▁ઉપયોગમાં":8070,"▁પાસપોર્ટ":8071,"▁બ્રિગે":8072,"િડ":8073,"▁રશ્":8074,"▁માધ":8075,"કામાં":8076,"જોય":8077,"▁પક્ષે":8078,"▁પંજાબની":8079,"▁નિર્ભર":8080,"▁ચમક":8081,"▁વિભાજ":8082,"▁સિદ્ધાંત":8083,"▁કોઈના":8084,"િલર":8085,"▁ટ્રેનો":8086,"▁ફર્ના":8087,"▁બીએચપી":8088,"ષ્માન":8089,"▁જીવનના":8090,"▁દાહો":8091,"▁જ્યાંથી":8092,"▁તમિલનાડુના":8093,"▁સુપ્રિમ":8094,"▁વેરિઅન્ટ":8095,"▁કાયદેસર":8096,"▁જૅ":8097,"▁છેઆ":8098,"▁પ્રવાસે":8099,"▁બોન્ડ":8100,"▁આગ્રહ":8101,"▁વાંચોઃ":8102,"▁ઝાં":8103,"▁નિર્ભ":8104,"▁શનિવાર":8105,"▁ક્રાઇમ":8106,"▁ઓરિસ્સા":8107,"▁જ્યારથી":8108,"▁રડ":8109,"રીથી":8110,"▁સરકારો":8111,"રૂણ":8112,"▁કોર્ટની":8113,"▁શ્રીદેવી":8114,"▁આરોપીઓની":8115,"▁પાટણ":8116,"▁હસ્તીઓ":8117,"સલમાન":8118,"મેષ":8119,"સાસ":8120,"▁અસલી":8121,"▁શાસક":8122,"બરો":8123,"▁કરનારી":8124,"▁દેશનો":8125,"▁કેટલો":8126,"▁પાર્ટીનો":8127,"▁કેન્દ્રશાસિત":8128,"▁ગાઝા":8129,"▁ઝડપે":8130,"દિગ્":8131,"▁ભીષણ":8132,"▁ઝોન":8133,"▁સુરેશ":8134,"▁પ્રોપ":8135,"▁રેલીને":8136,"▁જથ્થો":8137,"ખરે":8138,"▁પરફેક્ટ":8139,"▁પાઇ":8140,"▁પહેરે":8141,"▁કાબુ":8142,"▁આરોપીને":8143,"પ્રે":8144,"▁ફંક્શન":8145,"▁કોસ્ટ":8146,"▁અભાવ":8147,"▁અધ્યક્ષતામાં":8148,"ફોટો":8149,"્રોનિક":8150,"▁કૌર":8151,"▁આંબે":8152,"▁ચોમાસુ":8153,"▁સાબરમતી":8154,"▁નિવાર":8155,"▁જીતે":8156,"▁નેતાઓના":8157,"▁મહિલાની":8158,"▁માનવા":8159,"આઈના":8160,"▁સંસદના":8161,"▁કટા":8162,"▁ઈલેક્ટ":8163,"▁સ્ટ્રે":8164,"▁૧૩":8165,"▁શ્રેય":8166,"હારાષ્ટ્ર":8167,"વર્ણ":8168,"▁છે\nદ":8169,"▁મોં":8170,"▁ઉમેદવારોને":8171,"▁અખબાર":8172,"▁પરમ":8173,"▁પાડે":8174,"▁ઘરોમાં":8175,"▁શાળાના":8176,"▁પૂર્વી":8177,"▁જાગૃત":8178,"▁નિર્મિત":8179,"વૉ":8180,"▁હદ":8181,"▁પરસ્પર":8182,"▁દુર":8183,"બુધ":8184,"▁પ્રોત્સાહિત":8185,"▁નાન":8186,"▁સેક્ટર":8187,"▁શુક્રવાર":8188,"▁ફરજિયાત":8189,"▁આપની":8190,"ાગી":8191,"▁નંબરે":8192,"▁ફાઉન્ડ":8193,"▁વધારવામાં":8194,"▁પક્ષોએ":8195,"▁શ્રદ્ધાળુ":8196,"▁ફટકારી":8197,"▁પડોશી":8198,"ૂન":8199,"▁ફ્રેન્ડ":8200,"ક્ક":8201,"▁છે\nતો":8202,"▁જાણતા":8203,"સિસ્ટ":8204,"▁પત્નીને":8205,"▁સંજોગ":8206,"▁દરખાસ્ત":8207,"▁પથ":8208,"▁છે\nદિલ્હી":8209,"કાંડ":8210,"▁નાખ્યા":8211,"▁જાદુ":8212,"ક્સિન":8213,"▁જનતાએ":8214,"▁રંગની":8215,"▁ચઢ્":8216,"▁શબ્દોમાં":8217,"▁પ્રશાસન":8218,"▁સપનું":8219,"▁પવારે":8220,"્રિ":8221,"▁અગ":8222,"▁બૌ":8223,"▁ફસાઈ":8224,"▁થશે\nઆ":8225,"▁તાપમાનમાં":8226,"▁કેનેડા":8227,"▁ક્વા":8228,"િકરણ":8229,"▁સમૂહ":8230,"▁રહેવાનું":8231,"▁સેલ":8232,"▁કિસ્સા":8233,"▁વીડિયોને":8234,"▁ઘોષિત":8235,"▁નેપાળ":8236,"▁આયટમ":8237,"▁સ્ક્રીનિંગ":8238,"વેંટ":8239,"▁દિવસનો":8240,"લિમ્પ":8241,"▁સાચું":8242,"▁કશું":8243,"▁બેંચ":8244,"▁આગમન":8245,"▁સૌંદર્ય":8246,"▁મતદાર":8247,"▁વડાપ્રધાને":8248,"▁ટ્રેનમાં":8249,"▁સપ્તાહમાં":8250,"▁બૂથ":8251,"ર્કી":8252,"▁ઓબીસી":8253,"▁શોખ":8254,"▁નાખવામાં":8255,"▁સુશાંતના":8256,"▁મુંબઇમાં":8257,"▁સલમાને":8258,"▁ઇન્સ્ટિટ":8259,"▁અલ્પેશ":8260,"▁હસ્તે":8261,"દીશ":8262,"▁જાઓ":8263,"▁પડતો":8264,"▁બતાવે":8265,"▁સ્થિતી":8266,"▁મણિપુર":8267,"\nજે":8268,"▁પાયે":8269,"▁બરફ":8270,"▁કેવો":8271,"▁ગિલ":8272,"▁ભરાઈ":8273,"▁બેદર":8274,"▁પારિવારિક":8275,"▁હાફ":8276,"▁પોર્ટલ":8277,"▁કટાક્ષ":8278,"િયારા":8279,"▁લાંચ":8280,"▁વિચાર્યું":8281,"▁પ્લાસ્ટિક":8282,"▁પર્સનલ":8283,"▁પરની":8284,"▁ફસા":8285,"હાદ":8286,"▁ઉઠાવ":8287,"▁શિબિ":8288,"▁લિંક":8289,"▁સંબોધતા":8290,"▁યુક્રેનના":8291,"▁બીએસએફ":8292,"▁ગોરખ":8293,"ઘર":8294,"શંક":8295,"▁આદર":8296,"▁વેચી":8297,"▁ભાગો":8298,"▁કિશોર":8299,"▁કેટરિના":8300,"▁મસ્ક":8301,"વીના":8302,"ન્ડી":8303,"▁મોંઘી":8304,"હવે":8305,"▁રાણાવ":8306,"▁કોલક":8307,"▁કરવામા":8308,"▁મતદારોને":8309,"▁રોમેન્ટિક":8310,"▁તૃણમૂલ":8311,"▁નર્સ":8312,"▁વાણી":8313,"▁યુનિ":8314,"▁હુમલાખો":8315,"▁ફિટનેસ":8316,"▁ખ્યાલ":8317,"▁ટોલ":8318,"▁જિનપિંગ":8319,"▁તાવ":8320,"▁બજર":8321,"રાવી":8322,"ંગત":8323,"કાર્ય":8324,"▁નીતીશ":8325,"▁મિલા":8326,"▁ટ્રો":8327,"▁આફતા":8328,"▁ચાર્જશી":8329,"▁રાહુલે":8330,"▁એન્કાઉન્ટર":8331,"રર":8332,"સાથ":8333,"▁ખાનનો":8334,"▁મંગળવાર":8335,"▁મનાવવામાં":8336,"ૂહિક":8337,"ફિટ":8338,"▁ડીએ":8339,"વિધાન":8340,"▁હકીકત":8341,"▁પોલિસી":8342,"▁મોકલ્યા":8343,"▁શ્રેણીમાં":8344,"▁વધારીને":8345,"▁ગવર્નર":8346,"▁ટાર્ગેટ":8347,"▁અધિનિયમ":8348,"▁સ્વરા":8349,"▁મેળવ્યા":8350,"દીપિકા":8351,"▁ચોપડા":8352,"▁એસોસિએશન":8353,"\nર":8354,"ંઝ":8355,"▁અયોગ્ય":8356,"▁સંકલ":8357,"▁સ્થળા":8358,"▁અનુકૂળ":8359,"રિપોર્ટ":8360,"▁આતંકવાદીઓએ":8361,"▁તુલા":8362,"▁રિલિઝ":8363,"▁કાજોલ":8364,"▁સુરેન્દ્રનગર":8365,"▁કુટુંબ":8366,"▁મહાગઠબંધ":8367,"▁સાથો":8368,"▁ઓથો":8369,"▁સોની":8370,"પાઇ":8371,"▁ત્રાસ":8372,"▁રંગના":8373,"▁કંગનાએ":8374,"▁રાઠોડ":8375,"▁કટ્ટર":8376,"▁નક":8377,"▁એમના":8378,"▁ઑપરેશન":8379,"▁લગાવવા":8380,"▁બુદ્ધ":8381,"▁આરોપીની":8382,"▁નવજોત":8383,"▁સત્રમાં":8384,"▁સ્વચ્છતા":8385,"▁પદેથી":8386,"બરેલી":8387,"▁એડિ":8388,"▁સંચાલિત":8389,"▁એન્જિનિયર":8390,"▁વાપસી":8391,"▁કૉન્ફરન્સ":8392,"▁મિલ્":8393,"લેન્ડર":8394,"સાહેબ":8395,"▁બુદ્ધિ":8396,"▁પેરિસ":8397,"▁ફાર":8398,"રીઓ":8399,"▁બનાવવાના":8400,"▁ગોવામાં":8401,"જોકે":8402,"▁અટકી":8403,"▁સાયબર":8404,"ભુત":8405,"▁ટેલીવિઝન":8406,"▁થરૂ":8407,"▁ધારા":8408,"ષ્ટમી":8409,"પાની":8410,"▁માંગ્યો":8411,"▁ભરવા":8412,"વાહા":8413,"▁ઓર":8414,"▁વિકેટ":8415,"▁પીઠ":8416,"▁કપૂરને":8417,"▁સામૂહિક":8418,"▁કમલના":8419,"▁પછાત":8420,"િગ":8421,"▁નિવાસી":8422,"▁ખુલીને":8423,"▁ચીનને":8424,"આરએફ":8425,"▁કુમારને":8426,"▁જૈશ":8427,"▁હાઈકોર્ટના":8428,"▁બરબાદ":8429,"▁પક્ષોના":8430,"▁ટાઈગર":8431,"લભ":8432,"▁ઓરે":8433,"▁મારપીટ":8434,"▁રવિવાર":8435,"▁સીટથી":8436,"▁પ્રોડક્ટ":8437,"▁છે\nભારતીય":8438,"પાઈ":8439,"▁અજિત":8440,"▁ઉશ્કે":8441,"▁દેવું":8442,"▁કેટલું":8443,"▁ચાઇ":8444,"▁મજબૂ":8445,"▁બારી":8446,"્રેસે":8447,"▁વર્ણ":8448,"▁મિર્":8449,"▁ફેડ":8450,"▁મીઠ":8451,"▁એજન્ટ":8452,"▁ચક્રવા":8453,"ઢે":8454,"▁અવર":8455,"▁પ્રિયા":8456,"▁જોડીને":8457,"▁રાજુ":8458,"▁ધવન":8459,"▁દેસાઈ":8460,"▁રિસે":8461,"▁મુખ્યમંત્રીના":8462,"▁બૉલીવુડની":8463,"▁જવાનોને":8464,"▁મોટાભાગે":8465,"▁વકીલે":8466,"▁ફ્લાઈટ":8467,"▁તત્વો":8468,"▁અમરિંદર":8469,"તાજેતરમાં":8470,"ૂપ":8471,"▁જોન":8472,"ણાના":8473,"▁નોંધણી":8474,"▁લડાઇ":8475,"▁પુરવઠા":8476,"ઇન્ડ":8477,"▁વગા":8478,"▁બિડે":8479,"▁ચાલ્યા":8480,"▁દુનિયાને":8481,"▁આઈટી":8482,"▁ધારાસભ્યોએ":8483,"ુરપ્પા":8484,"▁નીકળ્યા":8485,"▁હળવાથી":8486,"▁પુતિન":8487,"▁સૉંગ":8488,"▁પળેપ":8489,"▁ભક્તિ":8490,"▁સંતા":8491,"▁છે\nજોકે":8492,"▁રોગચાળા":8493,"જણાવી":8494,"▁રાખતા":8495,"▁ચોંકી":8496,"▁આધ્યાત્મ":8497,"ગુજરાતના":8498,"▁સભામાં":8499,"ખુ":8500,"▁કોવિંદ":8501,"▁કોમેડી":8502,"▁ભૂષણ":8503,"▁જેટલું":8504,"▁રાવત":8505,"▁રાજ્યસભાના":8506,"▁શુભકામનાઓ":8507,"▁બ્યુ":8508,"મેજ":8509,"વિટ":8510,"મારું":8511,"્યૂટી":8512,"▁વરસાદી":8513,"બ્રાહિ":8514,"▁એમ્બ્યુલ":8515,"કરના":8516,"માથી":8517,"▁ખરા":8518,"▁કિસ્સામાં":8519,"▁પર્વત":8520,"▁અજમા":8521,"▁ચિંતિત":8522,"▁ગાં":8523,"▁માટેનું":8524,"▁પોપ":8525,"▁સરપંચ":8526,"▁બીજુ":8527,"▁શાસિત":8528,"▁જમ્મુકાશ્મીર":8529,"▁દરેકને":8530,"▁રોષ":8531,"▁સીલ":8532,"▁સાંજ":8533,"િકોણ":8534,"▁નિવૃત્ત":8535,"▁જીતવા":8536,"▁ફિલ્મોના":8537,"▁સર્જાઈ":8538,"\nમા":8539,"ાના":8540,"▁ગળે":8541,"▁કાયમ":8542,"લોકસભા":8543,"▁બગડી":8544,"ડ્રા":8545,"ણિક":8546,"ફેર":8547,"▁મલ્લ":8548,"લાથી":8549,"▁સતર્ક":8550,"▁પીટી":8551,"▁વિભાગમાં":8552,"▁સૂરજ":8553,"▁બિલિયન":8554,"બિહાર":8555,"▁ડૂબી":8556,"▁ધ્વજ":8557,"ડ્રો":8558,"િના":8559,"▁ઈરાની":8560,"▁બોયફ્રેન્ડ":8561,"▁સ્પષ્ટપણે":8562,"▁કમિટી":8563,"▁શ્રેણી":8564,"▁સંવેદના":8565,"▁સળગ":8566,"▁સોસાયટી":8567,"ઘુ":8568,"▁જૌ":8569,"▁જરા":8570,"▁મળતાં":8571,"▁ધ્રુ":8572,"▁શાક":8573,"▁રંગો":8574,"વર્ધન":8575,"▁પાંડેએ":8576,"કરની":8577,"▁જળા":8578,"▁દેશોને":8579,"▁હાલની":8580,"▁વિસ્તરણ":8581,"▁માત્રામાં":8582,"▁લગાવતા":8583,"▁એજન્સ":8584,"▁ઘટાડ":8585,"▁મુદ્દાને":8586,"▁ખુદને":8587,"▁બંધારણીય":8588,"▁ઉડા":8589,"▁પોર્ન":8590,"▁સંમતિ":8591,"ુંબઈ":8592,"▁જન્મા":8593,"▁પ્રગટ":8594,"મુખ્યમંત્રીએ":8595,"▁પ્રસારણ":8596,"▁ઉડાન":8597,"▁માળખા":8598,"▁કૌશલ્ય":8599,"▁બૌદ્ધ":8600,"▁ગણી":8601,"▁સાહિ":8602,"▁સંડો":8603,"▁છે\nઆજે":8604,"▁નવાબ":8605,"▁મંદિરો":8606,"▁કાયમી":8607,"▁રાજ્યોને":8608,"▁ભટ્ટે":8609,"▁સબમ":8610,"▁સૈનિકોને":8611,"▁લેન્ડિંગ":8612,"▁સુષ્મા":8613,"▁કેન્સર":8614,"કાવ":8615,"▁શામ":8616,"વીએમ":8617,"▁પાસા":8618,"▁મુઝ":8619,"▁મૌત":8620,"▁ન્યાયિક":8621,"▁મિત્રતા":8622,"▁મેનેજર":8623,"તલ":8624,"મામાં":8625,"▁છવાઈ":8626,"હેર":8627,"▁ફિલ":8628,"ંદના":8629,"પ્રાય":8630,"▁રિમાન્ડ":8631,"▁પહોંચવા":8632,"▁અમારે":8633,"▁મલિકે":8634,"▁સાબરકાંઠા":8635,"▁છઠ્ઠા":8636,"▁જર્":8637,"▁ફિલ્મથી":8638,"▁નિર":8639,"▁રૂપિયાથી":8640,"▁યેદ":8641,"▁કરાવે":8642,"ઘાટ":8643,"▁ફૅશન":8644,"ઓમાંથી":8645,"▁માય":8646,"▁રોકેટ":8647,"▁અસમ":8648,"▁યુક્રેનમાં":8649,"▁ચાહકોને":8650,"▁સરખામણીએ":8651,"▁વપરાશ":8652,"▁ખોરાક":8653,"▁માર્ગદર્શિકા":8654,"▁નફરત":8655,"▁ઓર્ડર":8656,"▁બદલો":8657,"▁હતો\nઅ":8658,"▁અધ્યક્ષતા":8659,"ત્રણ":8660,"▁માટેનો":8661,"ડાઈ":8662,"▁સરસ":8663,"▁જાપ":8664,"▁પરિસરમાં":8665,"▁પ્રાપ્તિ":8666,"▁યોજનાનો":8667,"▁ગામોમાં":8668,"▁મંજુ":8669,"▁તત્કાલીન":8670,"▁રેડ્ડી":8671,"રીત":8672,"▁સંહિતા":8673,"▁બાથ":8674,"▁કારો":8675,"▁કમાલ":8676,"▁ચોપરાએ":8677,"▁ફોટામાં":8678,"▁નાયડુ":8679,"▁ભરેલી":8680,"▁નિગ":8681,"▁થયાના":8682,"▁મારવામાં":8683,"▁જયપુર":8684,"▁કરાવવાની":8685,"▁આતંકવાદીઓને":8686,"▁માર્ચના":8687,"▁જગદીશ":8688,"▁પૂર્વે":8689,"▁અહમદ":8690,"▁શ્રાવણ":8691,"સમી":8692,"▁વક":8693,"મેડ":8694,"▁સીઈ":8695,"▁મોતની":8696,"▁નાખ્યો":8697,"▁ઔપચારિક":8698,"▁મધ્યપ્રદેશના":8699,"▁અકા":8700,"▁બળવા":8701,"▁બોર":8702,"▁આમંત્રિત":8703,"િક્ષણ":8704,"▁શાંતિપૂર્ણ":8705,"▁ટાંકીને":8706,"▁ઉર્વશી":8707,"▁વીકે":8708,"▁તેટલી":8709,"▁ઠાકુર":8710,"▁સંજીવ":8711,"ત્વે":8712,"▁કાર્યકારી":8713,"▁ઇઝરાયેલ":8714,"સું":8715,"૩૦":8716,"▁અઢી":8717,"▁શશિ":8718,"▁પડવાની":8719,"▁કાર્યમાં":8720,"▁કેસોની":8721,"▁દિન":8722,"▁સૂચિ":8723,"▁અરજીઓ":8724,"ાને":8725,"▁ઝેર":8726,"▁જવાહર":8727,"▁ત્યાંના":8728,"▁શોધવા":8729,"▁માણસો":8730,"▁ઘૂસણખો":8731,"વાસ્તવમાં":8732,"મક":8733,"▁ભગત":8734,"▁ટર્":8735,"▁સુભાષ":8736,"▁લોખંડ":8737,"▁પૂન":8738,"▁યુનાઇટેડ":8739,"▁મહિલાના":8740,"▁તાપી":8741,"સ્થાપિત":8742,"▁ક્રેશ":8743,"▁અવગ":8744,"▁સફળતાપૂર્વક":8745,"▁આયુષ્માન":8746,"▁પ્રાઈવેટ":8747,"▁ભાષણમાં":8748,"▁મલ્લિકાર્જુન":8749,"▁ચઢ્ઢા":8750,"▁કડ":8751,"મારીના":8752,"▁બીમાર":8753,"▁અંદા":8754,"▁રાયે":8755,"▁ઢા":8756,"પ્રદાયિક":8757,"▁લક્ઝરી":8758,"્યુલર":8759,"▁નોઈ":8760,"ન્યૂ":8761,"▁પોલીસમાં":8762,"▁રશિયાએ":8763,"▁વાતાવરણમાં":8764,"▁તને":8765,"ન્નાથ":8766,"▁છે\nઈ":8767,"▁સુપ્રી":8768,"સાએ":8769,"▁હતી\nમ":8770,"▁નિયંત્રિત":8771,"▁શિખર":8772,"▁યાત્રામાં":8773,"▁દેવગણ":8774,"▁રાયબરેલી":8775,"▁અબ્રા":8776,"▁પેકેજ":8777,"▁ગુનેગારો":8778,"▁ઉત્પન્ન":8779,"લક્ષી":8780,"▁કશ્ય":8781,"▁સક્":8782,"ામંત્રી":8783,"ંત્રિક":8784,"સીઆર":8785,"▁પડ્યુ":8786,"▁મેળવવામાં":8787,"▁મેળવ્યો":8788,"▁હિમાલય":8789,"▁દુઃખી":8790,"બેલ":8791,"▁લાયક":8792,"ેશનના":8793,"કેદાર":8794,"▁રોમા":8795,"▁લેવો":8796,"▁કાટ":8797,"લ્લાહ":8798,"▁માતાના":8799,"▁લાવવાની":8800,"▁અનુભવાયા":8801,"▁ગૌરી":8802,"▁લાઈવ":8803,"રટે":8804,"નાન્સ":8805,"▁વધવા":8806,"▁મહિલાઓએ":8807,"▁જીવનને":8808,"▁બદનામ":8809,"▁ઉપરથી":8810,"▁કચ્છના":8811,"▁મજૂરો":8812,"▁મિર્ઝા":8813,"લત":8814,"તાનું":8815,"▁એએન":8816,"▁પાત્રો":8817,"મિથુન":8818,"▁મનાય":8819,"▁ફેમિલી":8820,"▁ભેદભાવ":8821,"ટલી":8822,"ૂં":8823,"▁સંયો":8824,"▁ફેમ":8825,"▁વિદ્યાર્થીઓએ":8826,"▁છોડવા":8827,"▁મોટાભાગની":8828,"▁ગયી":8829,"▁હસન":8830,"▁અનુપમ":8831,"ાએ":8832,"▁આવકાર":8833,"▁મેગે":8834,"ધુમાં":8835,"▁સાધનો":8836,"▁ભ્રમણ":8837,"▁હેમંત":8838,"ત્યારે":8839,"▁સમે":8840,"ંદ્રા":8841,"રૂમ":8842,"મોહ":8843,"▁કેન્દ્રિય":8844,"▁વિસ્તારને":8845,"▁પ્રદર્શનકારી":8846,"▁ટાળ":8847,"▁પ્રીમ":8848,"▁નામાંકન":8849,"ગમત":8850,"ષાર":8851,"▁કમ્પ":8852,"▁બાહુ":8853,"▁સિંગા":8854,"▁સ્ટ્રો":8855,"▁લાગેલી":8856,"▁ખુલ્લે":8857,"▁થીમ":8858,"▁પાંચમા":8859,"વર્ત":8860,"▁બેદરકારી":8861,"દશી":8862,"ષિત":8863,"▁રાજેન્દ્ર":8864,"▁બેઝ":8865,"▁તોફા":8866,"▁કર્યો\n":8867,"▁શકશે\n":8868,"▁પાછું":8869,"▁વૃશ્ચિક":8870,"▁શરીરમાં":8871,"▁૩૦":8872,"▁રથયાત્રા":8873,"▁પુરૂષ":8874,"▁કમિશ્નર":8875,"▁ચૅ":8876,"▁પ્રતિસાદ":8877,"▁બોલ્યા":8878,"જિસ્ટ્રે":8879,"▁પ્રસંગ":8880,"▁પરિણીતી":8881,"▁સંભળાવી":8882,"બાસ":8883,"▁સંસા":8884,"▁૨૫":8885,"▁દૂતા":8886,"▁કચ્છમાં":8887,"દાયી":8888,"▁કારકિર્દી":8889,"પ્રો":8890,"▁શાહને":8891,"▁પદાર્થ":8892,"સ્પેક્ટર":8893,"▁થોડું":8894,"▁જેલમાંથી":8895,"▁પેટાચૂંટણી":8896,"▁ક્ષેત્રો":8897,"બિલ":8898,"▁જોવું":8899,"▁ઉપકરણ":8900,"સ્થળ":8901,"▁હાથી":8902,"▁સૂચન":8903,"▁ગણપતિ":8904,"િટીવ":8905,"▁તફ":8906,"▁તૂટ":8907,"▁પુણે":8908,"▁મૉડે":8909,"▁વચનો":8910,"િંમતઃ":8911,"▁આધ્યાત્મિક":8912,"ગના":8913,"ગામી":8914,"▁કદ":8915,"▁કમાન્ડર":8916,"▁છોડવામાં":8917,"▁બંદો":8918,"તમે":8919,"▁શાખા":8920,"સ્પર્":8921,"તરીય":8922,"▁પોલિસને":8923,"▁કનેક્શન":8924,"▁રેકૉર્ડ":8925,"▁નિર્ભયા":8926,"▁સંજોગોમાં":8927,"ખાન":8928,"▁ગાજ":8929,"▁નોરા":8930,"▁અનુસૂ":8931,"▁ખેડા":8932,"▁વિદાય":8933,"▁પંચના":8934,"▁કાશ્મીરી":8935,"▁શર્માની":8936,"▁વોટ્સ":8937,"▁પ્રીતિ":8938,"▁પ્રવૃત્તિઓ":8939,"જન્સ":8940,"બોલ":8941,"મૈયા":8942,"▁સાધુ":8943,"િકે":8944,"▁દેતા":8945,"▁નોંધાયેલા":8946,"▁દુર્ઘટનામાં":8947,"▁પરિવારોને":8948,"▁આક્રમક":8949,"ષિકેશ":8950,"▁જળાશ":8951,"પત્":8952,"▁આભ":8953,"▁મરી":8954,"▁વંદે":8955,"લ્લુ":8956,"ંતો":8957,"▁કૉમેડી":8958,"▁ડાઉન":8959,"▁સાથોસાથ":8960,"▁મૂકીને":8961,"▁ધરણા":8962,"▁મહેન્દ્ર":8963,"▁ભૂતકાળમાં":8964,"▁લેખક":8965,"▁પળેપળના":8966,"હરી":8967,"▁ભાવિ":8968,"▁ક્વીન":8969,"▁ગીતા":8970,"▁ઉદઘાટન":8971,"▁સભ્યોએ":8972,"▁ગુમાવ્યા":8973,"▁છત્તીસગઢમાં":8974,"▁દરવાજો":8975,"▁ગૂગલ":8976,"ફુલ":8977,"હિત્ય":8978,"▁રેસ્ટ":8979,"▁મીડિયાના":8980,"ડોર":8981,"▁શિવા":8982,"▁જાન્યુઆરીના":8983,"▁અર્થે":8984,"હરચના":8985,"▁રિપબ્લિક":8986,"બમાં":8987,"▁એડી":8988,"▁લીટર":8989,"ુકમ":8990,"▁ક્રિસ":8991,"▁કોલેજમાં":8992,"▁જગન્નાથ":8993,"શ્રીએ":8994,"▁ખાઈ":8995,"▁કોમ્પ":8996,"▁ઉંચાઈ":8997,"▁પહોંચાડવા":8998,"▁નવરાત્રિ":8999,"▁રત્ન":9000,"▁કબ્જો":9001,"તોની":9002,"દેશિક":9003,"▁સહભાગી":9004,"બિગ":9005,"▁તીવ્રતા":9006,"મિંગ":9007,"સનો":9008,"▁રેશ":9009,"▁ઉપસ્થિતિ":9010,"▁લેવાના":9011,"▁મુલાયમ":9012,"▁દેખાઇ":9013,"વ્યાપી":9014,"▁પકડા":9015,"▁ફરે":9016,"▁હોઇ":9017,"▁ટીઆર":9018,"▁જીવંત":9019,"▁લાવે":9020,"▁ગંભીરતાથી":9021,"▁બોર્ડની":9022,"▁બ્રાહ્":9023,"▁અઢ":9024,"▁ભંડો":9025,"લીક":9026,"▁કૃષ્ણા":9027,"▁દિગ્દર્શન":9028,"▁પ્રશાસને":9029,"▁સરોવર":9030,"▁આવરી":9031,"▁ઉતાવ":9032,"▁નાનો":9033,"▁જીતીને":9034,"▁શક્યતાઓ":9035,"▁મથક":9036,"▁લૉન્ચિંગ":9037,"▁પાયલટ":9038,"ટરના":9039,"▁થનારી":9040,"સ્પો":9041,"▁બેસે":9042,"▁વધ્યો":9043,"▁શિક્ષકો":9044,"▁દિલ્લીની":9045,"▁ડૉલર":9046,"▁આશ્રમ":9047,"▁દમદાર":9048,"▁વાજપેયી":9049,"▁વલ્લ":9050,"▁ધોની":9051,"▁ચૂપ":9052,"ક્ટિવ":9053,"▁ઉદ્યો":9054,"▁જંગલ":9055,"▁સ્પર્ધ":9056,"ભૂષણ":9057,"▁અપનાવી":9058,"▁બરાક":9059,"▁પઠાણ":9060,"દરી":9061,"▁મમ્મી":9062,"▁ભત્રી":9063,"▁પેન":9064,"ુંબેશ":9065,"▁નહોતુ":9066,"▁યોજાવાની":9067,"▁મુશ્કેલીમાં":9068,"▁પાલિકા":9069,"▁કક્ષાએ":9070,"▁મનોરંજ":9071,"▁ભૌતિક":9072,"▁સ્થળાંતર":9073,"ચય":9074,"▁ક્યા":9075,"▁તલાક":9076,"▁પ્રવાહ":9077,"મ્સના":9078,"▁પાર્ટીનું":9079,"▁આરટી":9080,"ોનેશિયા":9081,"▁દાયકામાં":9082,"શિક":9083,"સ્મ":9084,"▁છે\nચાલો":9085,"▁નીચા":9086,"▁પાડ્યો":9087,"▁ફેબ્રુઆરીના":9088,"▁પૂરતી":9089,"▁તારીખો":9090,"▁વચગાળા":9091,"▁અત્યાચાર":9092,"▁૦":9093,"▁નમૂ":9094,"▁પ્રણવ":9095,"▁કોન્સ્ટેબલ":9096,"▁ઇજાગ્રસ્ત":9097,"▁અધ્ય":9098,"▁હેમા":9099,"▁અવસરે":9100,"▁લડવાની":9101,"▁સીબીઆઇ":9102,"▁અફવાઓ":9103,"▁ખુલ્લેઆમ":9104,"ઇંગ":9105,"બરમાં":9106,"▁દ્વ":9107,"વીજ":9108,"▁પરમાર":9109,"નોએ":9110,"▁ટું":9111,"▁અભિપ્રાય":9112,"▁સ્ટાઈલ":9113,"▁માછીમા":9114,"વાળો":9115,"લીલા":9116,"▁પામી":9117,"ટીંગ":9118,"▁મીમી":9119,"▁ભારેથી":9120,"▁ઊભ":9121,"▁નિષ્ફળતા":9122,"▁સ્લાઇડર":9123,"ભાન":9124,"▁સતીશ":9125,"▁હજૂ":9126,"▁ઇશ":9127,"▁અધિકારીઓના":9128,"▁સુરક્ષાની":9129,"▁થોડાક":9130,"▁ઘરમાંથી":9131,"▁ઘાટીમાં":9132,"▁આક્ષેપો":9133,"નન્ટ":9134,"▁લલિત":9135,"▁ઉપાયો":9136,"▁દુબે":9137,"▁સુરતના":9138,"▁ડાયરેક્ટ":9139,"ફૉર્મ":9140,"▁સિક્યોરિટી":9141,"▁નષ્ટ":9142,"▁ઘઉં":9143,"ન્ટી":9144,"▁ઝુંબેશ":9145,"વનાર":9146,"ાવતી":9147,"મ્મ":9148,"ષ્કાર":9149,"▁ગણાવ્યું":9150,"▁વેસ્ટર્ન":9151,"▁સંતુલ":9152,"▁વ્યૂહરચના":9153,"▁આંચકા":9154,"▁ગાઈડ":9155,"\nતેમણે":9156,"▁લતા":9157,"▁એટેક":9158,"▁દેશભ":9159,"હાર્":9160,"▁ટેલિવ":9161,"▁એસયુ":9162,"▁તૈયારીમાં":9163,"▁ગુપ્તચર":9164,"▁વૃક્ષો":9165,"▁સુષ્મિતા":9166,"▁પાયલો":9167,"▁આજુ":9168,"▁અવા":9169,"▁વિડીયો":9170,"▁સ્કે":9171,"▁અમૃ":9172,"▁મોતને":9173,"▁ફરહાન":9174,"▁ઈચ્છતા":9175,"▁નિકળ":9176,"▁પ્લેન":9177,"▁નીચેના":9178,"▁રાજધાનીમાં":9179,"▁રાજનીતિમાં":9180,"▁ફાળવણી":9181,"૨૦૨":9182,"ટ્":9183,"ફ્ર":9184,"મારા":9185,"▁સોફ્ટ":9186,"▁શાસ્ત્રી":9187,"ભાવિક":9188,"ંકાવી":9189,"▁કાળજી":9190,"▁ગેંગરેપ":9191,"\nતો":9192,"કક્ષા":9193,"બર્ગ":9194,"ેક્સ":9195,"▁ક્યૂટ":9196,"ર્નિંગ":9197,"▁ડુંગ":9198,"▁જાતીય":9199,"▁લેવલ":9200,"▁ડેવિડ":9201,"▁જૂનો":9202,"▁પ્રાદેશિક":9203,"એસઆઇ":9204,"▁ફાયદાકારક":9205,"▁એકનાથ":9206,"▁રૂપિયામાં":9207,"▁ઉત્તરાખંડના":9208,"▁પિંક":9209,"▁ઝોનમાં":9210,"લિમ્પિક":9211,"ચુ":9212,"નાઈ":9213,"▁સંમત":9214,"▁મુકી":9215,"નુષ":9216,"દેશમાં":9217,"▁દીકરો":9218,"▁કિસ્સો":9219,"▁ડીકે":9220,"▁બુધવાર":9221,"▁કોન્ટ્રાક્ટ":9222,"▁કોલકત્તા":9223,"સ્યો":9224,"▁કર્ટ":9225,"▁ગૅ":9226,"▁માંગો":9227,"હાબાદ":9228,"▁અસરગ્રસ્ત":9229,"દર્શક":9230,"▁મિલકત":9231,"િશિયલ":9232,"▁આરોપોને":9233,"▁વર્ગના":9234,"▁આગેવાનો":9235,"▁ગુલામ":9236,"▁દસ્તાવેજ":9237,"▁પદા":9238,"▁હવામાં":9239,"▁છે\nઓ":9240,"▁વર્મા":9241,"▁કાશી":9242,"▁ધર્મમાં":9243,"▁સ્કૂલમાં":9244,"▁શુભેચ્છાઓ":9245,"ગેટિવ":9246,"▁દાહોદ":9247,"▁\nઆ":9248,"શાળા":9249,"જોની":9250,"▁એસટી":9251,"▁હિંદી":9252,"▁અપાવી":9253,"▁તડ":9254,"▁નોર્થ":9255,"▁ચીજ":9256,"તુલા":9257,"▁ઓળખાય":9258,"▁નૌકાદ":9259,"▁ગર્ભવતી":9260,"▁ગેહલોત":9261,"▁ઇલેક્ટ્રિક":9262,"▁તબા":9263,"ાવેલ":9264,"લોના":9265,"▁મેજિસ્ટ્રે":9266,"▁અરબાઝ":9267,"▁કરાવ્યા":9268,"▁પ્રતિબંધિત":9269,"▁બાજુમાં":9270,"▁મુકવામાં":9271,"વાલાએ":9272,"ભિનેત્રી":9273,"▁કટોકટી":9274,"ઈંગ":9275,"ૌતે":9276,"▁કરવાને":9277,"ન્ટેડ":9278,"▁સેવન":9279,"▁બીબીસી":9280,"▁પહેલાની":9281,"▁રેન્":9282,"મેન્ટમાં":9283,"▁કંપનીની":9284,"▁શિફ્ટ":9285,"▁ત્રીજો":9286,"▁ઇન્ટરવ્યૂ":9287,"પંજાબ":9288,"▁ઝઘડો":9289,"▁વહુ":9290,"▁સમીર":9291,"▁રાજે":9292,"▁વધુની":9293,"▁જીવી":9294,"▁સીપી":9295,"▁જવાથી":9296,"▁સૂર્યા":9297,"▁મુસાફરોને":9298,"▁જબ":9299,"▁શસ્ત્રો":9300,"▁પાટા":9301,"▁સિલ":9302,"▁વ્યક્તિનું":9303,"▁બતાવીએ":9304,"▁તમિલનાડુમાં":9305,"▁રમતગમત":9306,"ફ્તી":9307,"ભેદ":9308,"▁કમ્":9309,"▁જોવાની":9310,"ડીએસ":9311,"▁ખુલ્લી":9312,"દરમ":9313,"ફ્ફર":9314,"▁જર્મની":9315,"▁સર્ટ":9316,"▁મસા":9317,"સ્ખલ":9318,"▁છે\nસં":9319,"▁ઇવેંટ":9320,"▁કૃતિ":9321,"▁શરૂઆતથી":9322,"▁ઋતુ":9323,"▁ગુપ્તાએ":9324,"▁માફિયા":9325,"▁આઝમ":9326,"▁હિમવર્ષ":9327,"▁દ્વિપક્ષીય":9328,"િક્ર":9329,"જાત":9330,"▁અવરોધ":9331,"▁ડોકટ":9332,"▁સભાને":9333,"પત્ય":9334,"ઈન્ડિયા":9335,"▁અમલીકરણ":9336,"ઇને":9337,"ફ્રે":9338,"▁છતા":9339,"સ્વતી":9340,"▁ડિપ્ર":9341,"▁ચેન્ના":9342,"▁ભાવે":9343,"▁ગ્રામજનો":9344,"▁ભયંકર":9345,"▁સમુદ્રમાં":9346,"▁ઉભરી":9347,"▁લશ્કર":9348,"▁સિલિન્ડર":9349,"▁આવશ્યક":9350,"▁અબ્રાહ":9351,"▁અનુસૂચિત":9352,"વ્":9353,"શ્રે":9354,"ૉય":9355,"▁અમારું":9356,"▁સાહિત્ય":9357,"▁ટૂર":9358,"▁ડિલ":9359,"▁ચોખા":9360,"▁સર્ક":9361,"▁માર્કેટમાં":9362,"▁પ્રતિબંધો":9363,"▁અનાજ":9364,"▁શિવસેનાએ":9365,"▁લેખિત":9366,"▁વસૂલ":9367,"લલિ":9368,"વરમાં":9369,"▁નિહા":9370,"▁દેવાની":9371,"▁લોકોનાં":9372,"▁વિવાદો":9373,"▁ગુજરાતે":9374,"▁કોન્ફરન્સમાં":9375,"▁કોલકાતા":9376,"વળ":9377,"▁તાઈ":9378,"▁નફો":9379,"લીટ":9380,"▁સ્ક્":9381,"▁લેતી":9382,"▁અભય":9383,"▁કર્યું\n":9384,"▁ચોથી":9385,"▁પક્ષને":9386,"ફેસ":9387,"▁સલમાનની":9388,"▁નિકાલ":9389,"▁કમાન":9390,"▁હજ":9391,"▁કેના":9392,"▁નિતિ":9393,"▁એકર":9394,"▁ઇન્દ":9395,"▁કંપનીમાં":9396,"▁તબક્કાના":9397,"▁હટાવવા":9398,"\nજ્યારે":9399,"▁પ્રસારિત":9400,"ટાલ":9401,"ડૉ":9402,"વરે":9403,"▁રક":9404,"▁ઇં":9405,"▁અનુમતિ":9406,"શિપમાં":9407,"▁કર્ફ્યુ":9408,"નારાયણ":9409,"▁ટોળા":9410,"▁આઉટફિટ":9411,"▁ધમાલ":9412,"▁બાઈક":9413,"બહેન":9414,"▁ઇસ્લામિક":9415,"▁સગીર":9416,"▁આરાધ્યા":9417,"દને":9418,"▁પપ્પા":9419,"▁વ્લા":9420,"ર્દેશ":9421,"▁છે\nમુખ્યમંત્રી":9422,"▁લીધાં":9423,"▁ખાતર":9424,"▁મિમી":9425,"▁ગરબા":9426,"▁યુવકે":9427,"▁કરશે\nઆ":9428,"▁હાઉસમાં":9429,"▁ફેરફારો":9430,"▁ઉંમરમાં":9431,"▁પ્રિન્સ":9432,"▁સ્ટ્રાઈ":9433,"મ્યુ":9434,"▁રખ":9435,"▁માછ":9436,"▁મુર્":9437,"▁સિઝન":9438,"▁રહીશું":9439,"▁કહેર":9440,"▁સહકારી":9441,"▁૧૭":9442,"▁સેનાને":9443,"લિટ":9444,"▁લંબ":9445,"▁યુએ":9446,"▁અભ્યા":9447,"▁ડિપાર્ટમેન્ટ":9448,"▁તસવીરોના":9449,"▁દેખાતા":9450,"▁યોજાયેલ":9451,"▁ચક્રવાત":9452,"▁મલ્ટી":9453,"▁ભાનુ":9454,"▁ચૈ":9455,"▁સ્ને":9456,"▁લાગતી":9457,"▁જાહેરા":9458,"▁જુના":9459,"ફોન":9460,"▁રાજકારણી":9461,"▁પ્રમાણપત્ર":9462,"શાહરુખ":9463,"ંતેજાર":9464,"▁રિતિક":9465,"લનું":9466,"ારમૈયા":9467,"▁માલિ":9468,"સ્કર":9469,"▁ખિતા":9470,"▁આપત્તિ":9471,"▁સિદ્દી":9472,"▁અમદાવાદની":9473,"▁આયોજ":9474,"▁એજ્યુ":9475,"▁રસીના":9476,"▁બોર્ડના":9477,"▁બુકિંગ":9478,"\nઉલ્લેખનીય":9479,"▁અજીત":9480,"▁રાની":9481,"લ્પો":9482,"ક્ષય":9483,"સાઇલ":9484,"દ્વારી":9485,"તોડ":9486,"મ્સમાં":9487,"▁લગતી":9488,"▁મંગળવારના":9489,"▁ચલાવવા":9490,"▁છે\nપં":9491,"▁રક્ષાબંધ":9492,"▁રોમાંસ":9493,"▁સ્ટુડન્ટ":9494,"▁ડેમોક્રેટ":9495,"▁ઉદ્યોગો":9496,"વલ્લી":9497,"▁જના":9498,"▁બહિ":9499,"▁નરેન્દ્રભાઇ":9500,"ુંબઇ":9501,"▁ચૂક્યુ":9502,"▁માતાને":9503,"▁કાયદાને":9504,"▁દર્દીઓને":9505,"▁બદલવા":9506,"▁તુર્કી":9507,"▁સિસોદિયાએ":9508,"▁સત્":9509,"ંચિત":9510,"▁ખાવા":9511,"▁માનતા":9512,"▁નોંધ્યો":9513,"▁ભર્યું":9514,"▁બોલિવૂડના":9515,"▁તાલિબાનના":9516,"▁ઉમટી":9517,"▁અણસાર":9518,"▁શાસ્ત્રમાં":9519,"▁મૂલ્ય":9520,"ંબુ":9521,"▁કેદાર":9522,"▁શરત":9523,"▁વિથ":9524,"▁નિગમ":9525,"▁દીવાના":9526,"▁કેસના":9527,"▁મીરા":9528,"▁યાદગાર":9529,"▁વાયરસનો":9530,"▁માગણી":9531,"▁ફાઈનલ":9532,"▁કૌભાં":9533,"\nવિ":9534,"▁પ્રજ":9535,"▁સ્પો":9536,"▁રાખીએ":9537,"▁દિપી":9538,"▁પેન્ટ":9539,"▁નવાઝ":9540,"▁બધાએ":9541,"▁૧૬":9542,"▁ફોલોઅ":9543,"▁પાડોશી":9544,"▁આજુબાજુ":9545,"આરમાં":9546,"બજાર":9547,"્યામ":9548,"સ્લાઇ":9549,"▁લાગૂ":9550,"▁ચોર":9551,"▁વખતની":9552,"▁મનસુખ":9553,"▁ધીમી":9554,"▁ડ્રામા":9555,"ખ્ત":9556,"▁રાઉતે":9557,"▁પ્રોફેશન":9558,"▁એવરેજ":9559,"▁ઉછા":9560,"▁ટૅ":9561,"▁સંતાન":9562,"▁મેરે":9563,"▁ઈયર":9564,"▁વાતથી":9565,"▁તિરુ":9566,"▁પિતૃ":9567,"▁ખિતાબ":9568,"ુતિ":9569,"▁રતન":9570,"▁માથું":9571,"્યોતિ":9572,"▁ગુફા":9573,"▁અફઘાનિસ્તાનના":9574,"▁પ્રભાસ":9575,"▁પંચમહાલ":9576,"▁બલિદાન":9577,"▁પરફોર્મ":9578,"▁ભટ":9579,"▁રાધ":9580,"▁વિડિયો":9581,"સીસી":9582,"▁હત્યાનો":9583,"ડીએમ":9584,"▁ક્યાંથી":9585,"▁સાતમા":9586,"▁કાનૂન":9587,"▁ભંડાર":9588,"▁કૂત":9589,"્યવ":9590,"▁બ્રી":9591,"▁કોંક":9592,"ેશન્સ":9593,"▁મુસલ":9594,"▁ચૂંટાયા":9595,"▁બહારના":9596,"▁૨૦૦":9597,"▁શર્માના":9598,"કલા":9599,"▁ચાઈ":9600,"▁પામેલા":9601,"ટીવ":9602,"▁નિધિ":9603,"▁વચ્ચેનો":9604,"▁મેળવે":9605,"▁તસવીરો\n":9606,"▁મોતના":9607,"▁સ્વાભાવિક":9608,"▁ઉઠાવવામાં":9609,"▁ટાસ્ક":9610,"▁અડધા":9611,"▁પૂર્વો":9612,"ગિસ":9613,"▁કવાય":9614,"▁સૌપ્રથમ":9615,"▁ટેલિ":9616,"▁માર્ગો":9617,"▁ચૂકવણી":9618,"▁પરિસ્થિતિને":9619,"▁મૌની":9620,"▁કાર્યકર્તાઓને":9621,"▁જ્ઞા":9622,"▁સ્ટાઇલ":9623,"▁ઘાયલોને":9624,"▁સીઈઓ":9625,"▁બળવાખો":9626,"▁મક":9627,"▁કોની":9628,"▁મુફ્તી":9629,"▁પહોંચેલા":9630,"▁ચોંકાવી":9631,"▁ડીઝ":9632,"▁રશિયાની":9633,"▁તુષાર":9634,"▁સંબોધનમાં":9635,"▁પહેર્યો":9636,"▁ગુનાહિત":9637,"ઈની":9638,"ઝોડ":9639,"▁આવવાના":9640,"▁વાવે":9641,"▁પાન્ડે":9642,"▁રાજદ્વારી":9643,"▁મળતો":9644,"▁ગુણ":9645,"▁યોજનાના":9646,"▁પરીક્ષ":9647,"▁યાદવને":9648,"▁સ્પર્શ":9649,"▁વધારાના":9650,"▁અમીર":9651,"▁નિરાકરણ":9652,"▁તરફેણમાં":9653,"▁છે\nપંજાબ":9654,"ંગલ":9655,"▁ટકી":9656,"▁સંદીપ":9657,"▁ઓટી":9658,"દાની":9659,"▁ઘટનાનો":9660,"વીડિયો":9661,"▁સ્વર્ગ":9662,"▁સંબોધી":9663,"▁સ્કીમ":9664,"▁હેટ":9665,"▁એસી":9666,"▁નાઇટ":9667,"ંદરે":9668,"▁પહોંચતા":9669,"ર્સમેન્ટ":9670,"▁વિકાસમાં":9671,"▁રોકવામાં":9672,"▁લાઈન":9673,"▁દળોએ":9674,"▁ડિઝાઇ":9675,"▁અછત":9676,"▁ચંદ્રશેખર":9677,"▁પદાધિકારી":9678,"▁એકથી":9679,"શનિ":9680,"▁સોનું":9681,"▁પહેરવા":9682,"મેટિક":9683,"▁અદાલતમાં":9684,"પેટમાં":9685,"દરમિયાન":9686,"▁કપા":9687,"▁પ્લો":9688,"▁જડ":9689,"▁બાવ":9690,"કાને":9691,"▁કાર્યક":9692,"▁સ્વદેશ":9693,"▁ગ્રુ":9694,"▁બતાવ":9695,"▁યુનિયન":9696,"▁આંકડાઓ":9697,"▁ઝીરો":9698,"\nરા":9699,"▁એલિ":9700,"▁તપાસના":9701,"▁હાઈક":9702,"▁વાયરસને":9703,"▁અકબર":9704,"▁જોગવાઇ":9705,"▁૨૦૨૩":9706,"પાકિસ્તાન":9707,"▁જાસૂસી":9708,"▁ઓરેન્જ":9709,"ડન":9710,"▁મંત":9711,"ેશનની":9712,"શાસ્ત્રી":9713,"▁કાચ":9714,"▁મિસાઇલ":9715,"▁સફાઇ":9716,"▁હવાલો":9717,"▁ફ્લોર":9718,"▁ડ્રાઈવર":9719,"▁અનોખી":9720,"▁ઈન્દિરા":9721,"▁કામકાજ":9722,"▁નાખે":9723,"તરું":9724,"▁નોંધાવ્યો":9725,"▁રણબી":9726,"લિયાના":9727,"▁રાજીનામા":9728,"▁મચાવ્યો":9729,"▁સમિટમાં":9730,"▁જેડીયુ":9731,"▁મારફતે":9732,"▁કેલેન્ડર":9733,"▁શ્રા":9734,"ન્નુ":9735,"▁ટ્રેલ":9736,"▁વિવાદોમાં":9737,"▁છાતી":9738,"▁વિષયો":9739,"▁જમ્મુકાશ્મીરના":9740,"▁ઊંચાઈ":9741,"▁છીનવી":9742,"▁બહિષ્કાર":9743,"સૌ":9744,"▁નૃત્ય":9745,"▁આપેલી":9746,"▁સરસ્વતી":9747,"▁રાશિની":9748,"▁સર્વા":9749,"▁માતાની":9750,"▁ગીતમાં":9751,"કર્ણાટક":9752,"રેન્સિક":9753,"▁વાટા":9754,"▁ઓગ":9755,"▁કેસને":9756,"સરત":9757,"▁સ્વરૂપે":9758,"▁રામનાથ":9759,"▁પદની":9760,"▁ચલાવે":9761,"▁કમિટ":9762,"ખેડે":9763,"▁સબસિ":9764,"▁તુલના":9765,"▁ગણાતા":9766,"▁વાવાઝોડા":9767,"ક્યુમેન્ટ":9768,"ટણી":9769,"▁સુત્રો":9770,"▁નેગેટિવ":9771,"▁ભાજપનું":9772,"▁અનુસ":9773,"▁માનસ":9774,"▁પિતાને":9775,"▁જવાનોએ":9776,"▁દારૂની":9777,"ગાંવ":9778,"▁સ્પોર્ટ્સ":9779,"▁આલ્":9780,"▁બ્લુ":9781,"▁ગ્રી":9782,"▁માનની":9783,"▁ચડ":9784,"ક્રાંતિ":9785,"▁રાખડી":9786,"▁ક્રમમાં":9787,"▁નિવેદનને":9788,"▁વિવાદમાં":9789,"▁ડાયા":9790,"લાયક":9791,"▁ઇન્ટરવ્યુ":9792,"▁રેડિયો":9793,"▁ફાર્મ":9794,"▁બહાદુર":9795,"▁એરિયા":9796,"▁પ્રકો":9797,"▁મેગા":9798,"▁ઇંટ":9799,"પૂર્":9800,"▁થવાને":9801,"▁સ્ટેડિય":9802,"▁મિશ્રાએ":9803,"▁ડ્રાઇવર":9804,"▁નિવારણ":9805,"ેલિ":9806,"▁જસ":9807,"▁મથુ":9808,"▁રસો":9809,"▁વંચિત":9810,"▁એમ્બે":9811,"લાદ":9812,"▁પ્રદીપ":9813,"▁મતદાતા":9814,"▁દિવાના":9815,"▁પક્ષોને":9816,"▁યોગીએ":9817,"▁દીપક":9818,"▁પ્રત્યેક":9819,"▁નાખવાની":9820,"▁પાર્થ":9821,"▁ખેલાડીઓ":9822,"▁રાજદૂત":9823,"▁એજન્સીએ":9824,"▁રનો":9825,"▁નાટક":9826,"▁નિખ":9827,"▁લેનાર":9828,"▁સીરિય":9829,"▁કંપનીને":9830,"▁શરીરના":9831,"▁પહોંચાડવામાં":9832,"▁આશ્ચર્યચ":9833,"ડમ":9834,"વડાપ્રધાન":9835,"▁બજારો":9836,"▁સુબ્ર":9837,"▁બેસા":9838,"મીની":9839,"▁ચૂકેલા":9840,"▁ઈમાર":9841,"▁વિભાગને":9842,"▁બંગાળી":9843,"▁દિગ્વિજય":9844,"▁કુમારના":9845,"▁કાર્યોમાં":9846,"▁ધમાકેદાર":9847,"▁શાકભા":9848,"પિન":9849,"▁આલોક":9850,"▁ભિ":9851,"▁લેશે\n":9852,"▁કાઉન્ટ":9853,"▁બતાવવા":9854,"▁ઠાકો":9855,"મૂર્તિ":9856,"▁હિતમાં":9857,"▁વાવાઝોડ":9858,"▁આશિષ":9859,"▁કર્ટસી":9860,"ાવવાના":9861,"▁અહેસાસ":9862,"▁મામલાને":9863,"▁માલ્યા":9864,"▁યુનિવર્સિટીમાં":9865,"▁મધ્યપ્રદેશમાં":9866,"▁સ્ત્રીઓ":9867,"▁ફ્લેટ":9868,"▁નાગાલેન્ડ":9869,"ગ્સ":9870,"▁ડુ":9871,"▁રોગો":9872,"મોબા":9873,"▁છે\nઆવો":9874,"▁કાઢ્યા":9875,"▁અભિયાનમાં":9876,"એન્":9877,"ગંધ":9878,"▁સિત":9879,"▁કરાયેલી":9880,"▁કેટેગ":9881,"▁વિશાલ":9882,"િયુ":9883,"▁સોંગ":9884,"▁જરૂરત":9885,"▁તબક્કાનું":9886,"▁એપ્રિલથી":9887,"▁આવકવેરા":9888,"▁ટાઈમ":9889,"▁લક્ષ્મીની":9890,"▁પંડ્યા":9891,"▁ગોલ્ડન":9892,"▁ભણાવ":9893,"પીઠ":9894,"▁લાઠી":9895,"▁૨૪":9896,"બલ્યુ":9897,"▁કમલા":9898,"▁ટીવીની":9899,"▁ગેરહાજ":9900,"▁કંટા":9901,"▁સ્ક્રિ":9902,"ડ્સ":9903,"પિયા":9904,"▁અન્ન":9905,"▁નડિયા":9906,"▁સાચો":9907,"▁રાધે":9908,"▁ટંડ":9909,"▁રાજને":9910,"સામે":9911,"▁માંડીને":9912,"પીમાં":9913,"▁રાષ્ટ્રપતિની":9914,"▁રેલીઓ":9915,"▁ટુડે":9916,"▁ભારતીયોને":9917,"▁નમ્ર":9918,"▁પર્યટન":9919,"▁પકડીને":9920,"▁સઘ":9921,"▁અંડર":9922,"▁દખલ":9923,"▁ટક":9924,"દાને":9925,"▁બોટા":9926,"ળીના":9927,"▁પતિને":9928,"થોડા":9929,"▁બ્લડ":9930,"ચર્સ":9931,"ંગ્લે":9932,"▁ત્રિવે":9933,"▁કુર":9934,"▁અહીંની":9935,"▁એલએ":9936,"▁જૂનથી":9937,"▁હેતુથી":9938,"▁બલકે":9939,"▁વાનખેડે":9940,"▁અદ્ભુત":9941,"શ્રેષ્ઠ":9942,"▁વ્લાદિ":9943,"▁દલી":9944,"▁લિંગ":9945,"▁ઉધ":9946,"▁નાબૂ":9947,"▁માંગતો":9948,"▁સુરક્ષાને":9949,"▁રવિવારના":9950,"▁ન્યૂડ":9951,"▁તુર":9952,"▁ફ્રાં":9953,"▁નિયમોનું":9954,"▁મનુષ્ય":9955,"▁નહેરુ":9956,"▁પ્રાઇવેટ":9957,"આપ":9958,"ઓસી":9959,"ટિયા":9960,"▁જિયા":9961,"▁તસ્":9962,"▁લટ":9963,"▁એશા":9964,"▁આવવું":9965,"▁કોણે":9966,"▁બેબી":9967,"ાસી":9968,"▁નોંધાઈ":9969,"▁અરવલ્લી":9970,"▁સત્તાધારી":9971,"▁શર્માને":9972,"▁શરતો":9973,"▁પરેશાની":9974,"▁૫૦":9975,"▁ઝલક\n":9976,"▁મર્યાદિત":9977,"▁સાજિદ":9978,"▁પોલમાં":9979,"મ્મુ":9980,"▁રિસો":9981,"▁ક્ષણ":9982,"▁સર્જન":9983,"▁માર્ગે":9984,"▁બેંકના":9985,"▁જ્હ":9986,"▁સીબીઆઈએ":9987,"▁દ્રશ્યો":9988,"▁સૌરભ":9989,"▁સ્ત્રોત":9990,"પસંદ":9991,"વાએ":9992,"▁ઘરો":9993,"▁સૌની":9994,"મિનેશન":9995,"▁પેસે":9996,"▁નોંધાયું":9997,"▁શાહના":9998,"▁સમસ્યાઓનો":9999,"▁વાદળ":10000,"▁ટેકનિકલ":10001,"▁અઢળક":10002,"ચમ":10003,"વણ":10004,"સમા":10005,"▁પ્રધાને":10006,"▁અત્યારસુધી":10007,"▁ગુલાબ":10008,"▁સર્ટિફિક":10009,"જ્યુ":10010,"બીએસ":10011,"▁પોઇન્ટ":10012,"▁મોન":10013,"▁રોજે":10014,"▁રાજ્યને":10015,"રફાન":10016,"▁કંપનીઓને":10017,"▁એજન્ડા":10018,"▁તબક્કો":10019,"▁ઈન્ડિયાના":10020,"▁યુવતીઓ":10021,"▁હારનો":10022,"▁રેસ્ટોર":10023,"બસ":10024,"▁સાવર":10025,"યોજના":10026,"▁નાનક":10027,"પ્રતિ":10028,"▁રેસ્ક":10029,"સ્થામાં":10030,"▁૧૦૦":10031,"▁સોમવારના":10032,"▁કાઢવા":10033,"▁રિકવર":10034,"▁ઓબામા":10035,"▁વલ્લભ":10036,"▁ચિક":10037,"▁વાઘા":10038,"જીમાં":10039,"તોના":10040,"▁દેશી":10041,"બાઈ":10042,"▁દીઠ":10043,"▁મેળવીને":10044,"▁તબક્કાની":10045,"▁છે\nવર્ષ":10046,"▁ફિગર":10047,"▁મધુર":10048,"▁મરાઠી":10049,"ઉનમાં":10050,"રાજા":10051,"▁પરેડ":10052,"્યોદય":10053,"▁જીતુ":10054,"▁યૂઝ":10055,"▁લખનૌ":10056,"શૈ":10057,"▁કિલ્લો":10058,"▁દરે":10059,"▁ખર":10060,"▁નેહ":10061,"▁પેમેન્ટ":10062,"▁ચાલક":10063,"▁બચત":10064,"▁હુમલાના":10065,"▁ધોધ":10066,"▁ફૂંકા":10067,"▁બગડ":10068,"▁સગાઈ":10069,"▁યુરોપિયન":10070,"▁પાયો":10071,"▁કેરી":10072,"િયુરપ્પા":10073,"▁ઘટનાના":10074,"▁બનશે\n":10075,"▁હુસૈ":10076,"▁અપરાધ":10077,"ઘ્ન":10078,"નાક્ષી":10079,"નાઈઝ":10080,"મોલ":10081,"શિષ્ટ":10082,"▁શોની":10083,"▁ફોટોસ્લાઇ":10084,"▁અંતરે":10085,"▁ઊંઘ":10086,"ક્ષિણ":10087,"▁પકડવા":10088,"▁કેમેરામાં":10089,"▁સાહસ":10090,"▁લદ્દાખમાં":10091,"મવારે":10092,"▁તેણીએ":10093,"▁ગ્લ":10094,"સાઇડ":10095,"▁પરિજનો":10096,"પ્લો":10097,"લગ્ન":10098,"▁મહેમાન":10099,"ષ્ઠા":10100,"▁પ્રોડ્યુ":10101,"▁અંતરિક્ષ":10102,"▁વાંધાજનક":10103,"▁વધારાની":10104,"▁ક્રોસ":10105,"▁જગતની":10106,"\nફિલ્મ":10107,"બસ્ત":10108,"▁દમણ":10109,"લાં":10110,"રૂમમાં":10111,"▁દેવો":10112,"▁આગની":10113,"▁માર્ક":10114,"▁સમર્થક":10115,"▁પ્રશંસ":10116,"▁વેપારમાં":10117,"\nજણાવી":10118,"▁બિકીનીમાં":10119,"▁વિશ્લેષણ":10120,"▁સિક્વલ":10121,"હૈયા":10122,"લાવી":10123,"▁સુલ":10124,"નિર્મા":10125,"▁કિશન":10126,"બ્બર":10127,"▁શાહની":10128,"▁કુલદીપ":10129,"▁જયલલિ":10130,"▁ગાઝિયા":10131,"▁રાજકારણની":10132,"▁શોધમાં":10133,"મેરિકા":10134,"▁નવુ":10135,"▁એકમો":10136,"પ્રકાશ":10137,"▁સીરિયા":10138,"▁મૃતક":10139,"▁હોસ્પિટલોમાં":10140,"▁ઉમેદવારને":10141,"▁રાજ્યસભાની":10142,"▁પીડિતાના":10143,"કરને":10144,"ગાવો":10145,"ટૂ":10146,"ભારે":10147,"▁પેશ":10148,"▁અજી":10149,"▁અસદ":10150,"▁હ્યુ":10151,"્યાંક":10152,"▁ગોય":10153,"▁બુધવારના":10154,"▁દેખાતી":10155,"▁રસ્તામાં":10156,"▁સમાચારોમાં":10157,"ઠ્ઠી":10158,"▁ક્રેડિટ":10159,"▁દિકરી":10160,"▁વર્ચ્યુઅલ":10161,"▁બેંગ્લોર":10162,"▁તુરંત":10163,"ક્યો":10164,"▁શર્ટ":10165,"▁માસિક":10166,"પાવી":10167,"▁રિયાલિટી":10168,"▁છે\nગુજરાતમાં":10169,"▁ફતેહી":10170,"▁ઇન્સ્ટિટ્યૂટ":10171,"તૂ":10172,"નિવર્સ":10173,"▁વાડ્રા":10174,"▁નાથ":10175,"▁સમયા":10176,"▁પ્રભાવશાળી":10177,"▁બ્રિટન":10178,"▁વેપારીઓ":10179,"▁એપ્લિક":10180,"ડીંગ":10181,"ષ્ટ્રપતિ":10182,"▁ગોગો":10183,"▁જોડવામાં":10184,"▁કોલેજો":10185,"▁વાયના":10186,"▁સૂચનો":10187,"▁શરમજનક":10188,"▁જોધપુર":10189,"▁નૉ":10190,"▁વ્યકિત":10191,"▁રેન્જ":10192,"▁ઉત્તરપૂર્વ":10193,"▁કર્મચારીઓની":10194,"▁બોલાવ્યા":10195,"▁ઋષિકેશ":10196,"▁ઇન્ડિયાના":10197,"▁મૂળભૂત":10198,"▁અબ્બાસ":10199,"▁છે\nતમે":10200,"▁સ્વયંસે":10201,"▁યુટ્યુબ":10202,"\nરાજ":10203,"બડ":10204,"માસ":10205,"▁મધ":10206,"ન્જર":10207,"જામાં":10208,"▁ડિરે":10209,"▁ભૂખ":10210,"▁ક્રાંતિ":10211,"▁ઘટાડવા":10212,"▁કેજરીવાલના":10213,"▁બળજબ":10214,"▁વેચવા":10215,"▁ઉતર્યા":10216,"▁ઝટકા":10217,"ગરાજ":10218,"નવા":10219,"૧૦":10220,"▁વડી":10221,"▁વન્ય":10222,"ર્શ":10223,"સાને":10224,"મીત":10225,"▁સેને":10226,"▁વિકાસને":10227,"▁સમાજને":10228,"▁સિદ્ધારમૈયા":10229,"▁છે\nત્યારે":10230,"▁ડીજીપી":10231,"▁જ્યુ":10232,"▁ભક્ત":10233,"▁પોષણ":10234,"્યુશન":10235,"મિલા":10236,"▁બદલીને":10237,"▁જોડાવા":10238,"▁દેવવ્ર":10239,"▁અટકાવવા":10240,"▁અટકાવી":10241,"▁સહાયક":10242,"▁પીપલ્સ":10243,"▁કન્નડ":10244,"▁ત્વ":10245,"▁આવકમાં":10246,"સાં":10247,"▁લગતા":10248,"▁બોમ્બે":10249,"▁સાંપ્રદાયિક":10250,"હાઉ":10251,"▁રામદેવ":10252,"▁ચિહ્ન":10253,"▁બિહારની":10254,"▁યુવતીને":10255,"▁પ્રતિષ્ઠિત":10256,"▁હિસાબે":10257,"▁નક્સલ":10258,"▁હડતાળ":10259,"▁એમએમએસ":10260,"▁હાઈકમાન્ડ":10261,"▁તલા":10262,"નીને":10263,"▁મસૂ":10264,"▁બસમાં":10265,"▁ગુલ":10266,"▁આરોપીએ":10267,"▁લાવશે":10268,"▁સ્ટેશનના":10269,"▁બેન્ક":10270,"▁લેફ્ટનન્ટ":10271,"▁કેબિનેટમાં":10272,"છાડ":10273,"ૅન્ડ":10274,"▁વસ્ત્રો":10275,"ર્પણ":10276,"▁એમે":10277,"▁છે\nફ":10278,"લેન્સ":10279,"▁મેમો":10280,"ગત્ય":10281,"▁મારવા":10282,"▁નજીકથી":10283,"▁શોધખો":10284,"▁રહેશે\nઆ":10285,"▁જમ્મુકાશ્મીરમાં":10286,"▁પુરવઠો":10287,"▁ઓમિક્રોન":10288,"▁વિનય":10289,"▁વધવાની":10290,"દેશના":10291,"▁પેનલ":10292,"િનિયન":10293,"▁વિચારે":10294,"▁જોઇએ\n":10295,"▁ભુપેન્દ્ર":10296,"▁છે\nભારત":10297,"▁બ્રહ્મા":10298,"▁માયાવતીએ":10299,"▁વિશ્લેષ":10300,"▁દેશવાસીઓને":10301,"▁મલ્લિકા":10302,"તિયા":10303,"પિ":10304,"▁માટી":10305,"▁રાત્રિ":10306,"્યોને":10307,"▁છે\nનોંધ":10308,"▁સીઝન":10309,"▁હોય\n":10310,"▁મંગેશ":10311,"▁મહારાષ્ટ્રની":10312,"▁પિતાના":10313,"▁બીજેપીના":10314,"▁સહાર":10315,"ર્ના":10316,"▁આવવાનું":10317,"▁મુર":10318,"જાણી":10319,"▁વધુને":10320,"▁વીમા":10321,"▁આટલો":10322,"ફિયા":10323,"સિસ":10324,"▁ક્યુ":10325,"▁ચક":10326,"▁છે\nઘ":10327,"▁સુવર્ણ":10328,"ણાલ":10329,"▁પહેરેલી":10330,"▁ઇકો":10331,"▁પૂરુ":10332,"▁રાજ્યનો":10333,"તરની":10334,"નિસ્ટ":10335,"▁વેકેશન":10336,"▁અગાઉની":10337,"▁વાગ્યાની":10338,"▁સાધતા":10339,"▁ઝેરી":10340,"▁ઠેકા":10341,"▁અવરજ":10342,"▁આશ્ચર્યચકિત":10343,"▁અગત્ય":10344,"▁સાઇન":10345,"રનાર":10346,"▁ખૂબસૂર":10347,"▁મદદરૂપ":10348,"▁ઓપનિંગ":10349,"▁હાઇકોર્ટે":10350,"▁ખોટુ":10351,"▁પ્રદર્શિત":10352,"ઝેશન":10353,"ટકો":10354,"લાડી":10355,"▁પ્રથા":10356,"▁જીલ્લા":10357,"▁ફેક":10358,"▁પીકે":10359,"ગ્ગા":10360,"▁ચૂક્યાં":10361,"▁ગાળો":10362,"▁જાન્યુઆરીથી":10363,"▁અંદાજો":10364,"▁યાદવની":10365,"▁ભાગ્યશાળી":10366,"▁ઇતિહાસમાં":10367,"▁અથડામણમાં":10368,"▁પેલેસ્ટ":10369,"▁કંડ":10370,"▁જિત":10371,"▁એસે":10372,"વીપ":10373,"▁આપણો":10374,"▁મળ્યાં":10375,"▁પેરા":10376,"▁આરંભ":10377,"▁હુમલાને":10378,"▁ફાળો":10379,"▁આઇટી":10380,"▁ઈન્ફ્રાસ્ટ્રક્ચર":10381,"▁જોખમમાં":10382,"▁કાર્યક્રમને":10383,"▁ચાંદી":10384,"▁વિપરીત":10385,"હતી":10386,"▁વેશ":10387,"▁ડરી":10388,"▁મેક્સ":10389,"ંટા":10390,"▁આવે\n":10391,"▁પહોંચ્યું":10392,"દેપુર":10393,"▁ડિસેમ્બરમાં":10394,"▁દેવતા":10395,"▁છોકરીઓને":10396,"▁છે\nઉત્તર":10397,"▁હસ્તક્ષે":10398,"▁બંદોબસ્ત":10399,"ંગ્લેન્ડ":10400,"▁કમર":10401,"▁રાધા":10402,"ક્કી":10403,"▁કોટ":10404,"▁સિનિયર":10405,"▁બીજ":10406,"▁ગોટા":10407,"▁જીત્યો":10408,"▁નીતિઓ":10409,"▁જોરશો":10410,"▁બાકીની":10411,"▁અડચ":10412,"▁મૃતદેહો":10413,"▁બાલન":10414,"▁પૅ":10415,"▁કેમ્પે":10416,"કાસ્ટ":10417,"▁નાટો":10418,"▁લીલી":10419,"પુરુષ":10420,"▁જૂથો":10421,"▁સત્યા":10422,"▁ધ્યાને":10423,"▁હેઠળના":10424,"▁સમજીએ":10425,"▁વંશ":10426,"▁ચંપ":10427,"▁આવવાથી":10428,"▁ઈદ":10429,"▁પડેલા":10430,"ટોપ":10431,"▁મુખ્યત્વે":10432,"▁ચર્ચિત":10433,"▁બહારથી":10434,"▁એમએસ":10435,"▁પહોંચીને":10436,"▁પ્રક્રિયામાં":10437,"▁મતોથી":10438,"▁ફ્રાન્સ":10439,"▁સિલસિ":10440,"▁સાડીમાં":10441,"હેવાલો":10442,"▁કરીશુ":10443,"▁સ્કો":10444,"▁મતભેદ":10445,"▁ડેરી":10446,"કરીના":10447,"▁એકબીજાના":10448,"▁ગોળીઓ":10449,"▁શૌચ":10450,"▁ભવનમાં":10451,"▁આશ્વાસ":10452,"▁બનના":10453,"ેશર":10454,"▁ઇમરજન્સી":10455,"▁પૂજન":10456,"િમંડ":10457,"▁જીવનનો":10458,"▁નોકરીમાં":10459,"▁પરિવારજનોને":10460,"▁ઇન્ડસ્ટ્રીમાં":10461,"▁આફતાબ":10462,"ખું":10463,"પદી":10464,"▁માથે":10465,"▁વિંગ":10466,"મેશન":10467,"જેપી":10468,"▁નીરવ":10469,"▁લાગતા":10470,"▁જનતાની":10471,"▁સમાજની":10472,"▁હિંસામાં":10473,"▁સોનાના":10474,"▁છાત્ર":10475,"▁પરીક્ષામાં":10476,"▁જંગી":10477,"ગ્રાફી":10478,"▁લંડનમાં":10479,"▁બિલ્ડિંગ":10480,"▁કાવતરું":10481,"▁એરફોર્સ":10482,"▁જળાશયો":10483,"▁ડેમોક્રેટિક":10484,"એવરેજ":10485,"ટ્ર":10486,"િશન":10487,"્યુટર":10488,"▁ભાગ્યે":10489,"▁કર્મી":10490,"▁ફરતા":10491,"▁હંમેશ":10492,"▁ટ્રાન્સપોર્ટ":10493,"▁દુશ્મન":10494,"▁હાસલ":10495,"નરેન્દ્ર":10496,"▁રઘુ":10497,"▁રહેશો":10498,"▁કોંગ્રેસનું":10499,"▁ટ્રાવેલ":10500,"▁સમાચારોને":10501,"▁અદભૂત":10502,"▁ફાઈટર":10503,"▁ચતુર્થી":10504,"હાઈટ":10505,"સાગર":10506,"▁આજીવન":10507,"▁સાપ":10508,"▁માંગીએ":10509,"વાલય":10510,"સિડ":10511,"▁નજીકની":10512,"મણ્ય":10513,"▁ટાઉન":10514,"▁સંઘના":10515,"▁પાઠવ્યા":10516,"▁સરખામણી":10517,"▁સીએએ":10518,"▁સ્વાદ":10519,"▁મેજર":10520,"▁પૂણે":10521,"▁નેવી":10522,"પાત":10523,"▁ગુરુવાર":10524,"▁દીપિકાએ":10525,"▁પ્રવક્તાએ":10526,"▁શોધખોળ":10527,"▁કૂલ":10528,"▁પત્રો":10529,"▁સાથેસાથે":10530,"▁કાકા":10531,"▁રવિન્દ્ર":10532,"▁બિલને":10533,"▁પતિપત્":10534,"▁મહાનુ":10535,"▁ક્લિનિક":10536,"▁નિશાના":10537,"▁પથ્થરમારો":10538,"▁સિઝનમાં":10539,"ફેસબુક":10540,"ટલું":10541,"બ્સ":10542,"▁કન્ટ":10543,"રાત્રિ":10544,"યાએ":10545,"▁પ્રવી":10546,"ન્વી":10547,"ેશ્વ":10548,"▁સ્ટંટ":10549,"▁ટીમની":10550,"▁ખુલી":10551,"▁પંચને":10552,"▁એન્જી":10553,"▁જ્વેલ":10554,"ગુજરાતમાં":10555,"▁બ્રહ્મ":10556,"▁વસે":10557,"▁કરાઇ":10558,"▁પ્રસા":10559,"▁ફૈ":10560,"▁વીણા":10561,"▁ક્ષેત્રની":10562,"▁પ્રત્યક્ષ":10563,"▁છે\nમળતી":10564,"▁અડધી":10565,"▁મોનાલિ":10566,"વર્ડ":10567,"▁સાજા":10568,"▁એકએક":10569,"ટીય":10570,"▁ઇમ્":10571,"પ્પુ":10572,"▁શોભા":10573,"▁ઠરાવ":10574,"▁નથી\nઅ":10575,"▁વધારવાની":10576,"▁ગઠબંધનને":10577,"▁સોલાર":10578,"▁અરજદાર":10579,"▁ભંડોળ":10580,"▁સચ્ચ":10581,"નીઝ":10582,"▁વુ":10583,"ાવવાનું":10584,"▁છે\nમાં":10585,"▁પરિચય":10586,"▁ખાત":10587,"▁ઉપરાષ્ટ્રપતિ":10588,"▁સમસ્યાનો":10589,"▁પતિએ":10590,"▁યુઝર્સ":10591,"▁છત્તીસગઢના":10592,"▁આંગળી":10593,"▁વાટાઘા":10594,"\nભારત":10595,"રસના":10596,"▁કતાર":10597,"▁તપ":10598,"▁હશો":10599,"▁રક્ષ":10600,"▁સ્તરીય":10601,"▁મહુ":10602,"▁હેલ્પ":10603,"▁પ્રોટો":10604,"▁સલમાનના":10605,"▁ગેસ્ટ":10606,"▁જમ્મૂ":10607,"▁સ્ટેચ્યુ":10608,"▁જ્યોર્જ":10609,"▁મેરઠ":10610,"કૉ":10611,"ખડ":10612,"ડકર":10613,"▁ચૂંટાયેલા":10614,"▁મુખ્યપ્રધાન":10615,"ર્ચના":10616,"▁ટેગ":10617,"વાદીઓ":10618,"▁બ્રાંચ":10619,"▁ભટ્ટની":10620,"\nકિંમતઃ":10621,"▁રજાઓ":10622,"▁વેરિઅંટ":10623,"▁સ્ટાર્ટઅપ":10624,"▁તફાવત":10625,"્તાર":10626,"૨૫":10627,"▁તિલ":10628,"▁કેવું":10629,"▁ટૉ":10630,"પોઝ":10631,"▁ટેબલ":10632,"ેલુ":10633,"▁સર્કલ":10634,"▁કન્હૈયા":10635,"કાર્ડ":10636,"▁દ્રષ્ટિ":10637,"▁ફાળવવામાં":10638,"▁નિમણૂ":10639,"▁એજ્યુકેશન":10640,"સરા":10641,"રેખા":10642,"▁હોઇએ":10643,"▁બૉમ્બ":10644,"લાઈટ":10645,"ગઢમાં":10646,"▁મૌર્ય":10647,"▁સૌરાષ્ટ્રના":10648,"▁સિનેમાઘ":10649,"▁કેદારનાથ":10650,"ઝામ":10651,"વડી":10652,"હાલમાં":10653,"▁કિયારા":10654,"્રેશ":10655,"▁લક્ષણ":10656,"▁ડઝન":10657,"▁ભૂસ્ખલ":10658,"▁સાધ્યુ":10659,"▁છે\nવળી":10660,"▁રોકાણકારો":10661,"▁કબૂ":10662,"▁દરિયાકાંઠા":10663,"▁નિષ્ણાત":10664,"▁અંકિતા":10665,"▁વહેંચણી":10666,"▁આરજેડી":10667,"▁ઘડ":10668,"▁બાઇડ":10669,"▁રાજ્યભરમાં":10670,"▁કોર્ટનો":10671,"▁છે\nઅત્રે":10672,"▁પત્નીએ":10673,"▁સંપન્ન":10674,"▁સપ્તાહે":10675,"▁પૉઝ":10676,"▁૨૦૨૨":10677,"બિયા":10678,"▁રમે":10679,"રીય":10680,"ંગિક":10681,"▁આપણું":10682,"▁મેગેઝી":10683,"▁વેલ":10684,"▁વરસી":10685,"▁વીક":10686,"તરીન":10687,"▁કાયદાના":10688,"▁કાયદાની":10689,"▁મનાવી":10690,"▁ઉંચાઇ":10691,"▁અશ્વિ":10692,"▁દૃશ્યો":10693,"▁ઈલેક્શન":10694,"▁યેદિયુરપ્પા":10695,"▁એસયુવી":10696,"▁સતા":10697,"▁મર્ડર":10698,"▁તેમા":10699,"▁નજારો":10700,"▁માસમાં":10701,"વાર્ય":10702,"▁આગ્રા":10703,"વોકેટ":10704,"▁હિજાબ":10705,"િકોને":10706,"▁જાણીશું":10707,"▁સંગ્ર":10708,"▁વળાંક":10709,"▁દૃશ્ય":10710,"▁પ્રતિનિધિઓ":10711,"▁રેસ્ટોરન્ટ":10712,"▁આશ્વાસન":10713,"શર":10714,"▁જહાં":10715,"▁એઈ":10716,"▁થનારા":10717,"▁મોદીજી":10718,"▁બીબી":10719,"મિન":10720,"▁કોરોનાને":10721,"▁કાર્યક્રમનું":10722,"▁વૈદિક":10723,"▁યોજાઇ":10724,"▁આતંકીઓને":10725,"▁ગુરૂવારે":10726,"પંથી":10727,"▁અમૃતા":10728,"▁સબસિડી":10729,"ઐશ્વર્યા":10730,"ફની":10731,"ૂળ":10732,"વાળ":10733,"▁સાસુ":10734,"▁ચશ્મા":10735,"▁જોહર":10736,"▁ઘન":10737,"ંકુ":10738,"▁રામપાલ":10739,"▁ઊંડા":10740,"▁ગઠબંધનની":10741,"રુપયોગ":10742,"ઉત્તર":10743,"▁રૅ":10744,"રોનો":10745,"▁માનવી":10746,"▁લગ્નને":10747,"▁ચેમ્પ":10748,"લાઇકા":10749,"▁છે\nઅમદાવાદ":10750,"▁કાર્યકર્તાઓએ":10751,"લાન્યાસ":10752,"▁સમીકરણ":10753,"▁લખીમપુર":10754,"▁ચોંકાવનારી":10755,"▁ખડગેએ":10756,"▁આહ્વા":10757,"▁ઓવૈસીએ":10758,"▁પ્લસ":10759,"▁તનુશ્રી":10760,"▁વક્રી":10761,"▁વ્લાદિમીર":10762,"▁કૃત્ય":10763,"▁બ્યુટી":10764,"▁સીતા":10765,"▁દોરી":10766,"▁એરબે":10767,"▁ઓછુ":10768,"ભારતમાં":10769,"▁વિશેષજ્ઞ":10770,"▁આઈપી":10771,"▁સિક્યુ":10772,"▁યુવતીએ":10773,"▁મ્યુઝ":10774,"▁પટિયા":10775,"▁આર્ટિકલ":10776,"▁આંગણ":10777,"▁સિક્કિમ":10778,"▁શમા":10779,"ક્વા":10780,"▁છે\nરાહુલ":10781,"▁ઈડી":10782,"▁હેરા":10783,"▁કહીએ":10784,"▁રાષ્ટ્રપતિએ":10785,"▁વિદ્યાર્થીઓની":10786,"▁તિવારીએ":10787,"કુમારે":10788,"▁શૂન્ય":10789,"▁સર્ટિફિકેટ":10790,"શન્સ":10791,"▁રસ્તે":10792,"રાં":10793,"▁સમજે":10794,"▁બેઠકોની":10795,"▁ફરિયાદમાં":10796,"▁હંમેશાથી":10797,"▁આઈસી":10798,"▁પત્રકારોને":10799,"▁કોમ્યુ":10800,"▁શુક્લા":10801,"દ્વારા":10802,"શંકરે":10803,"▁ટેલિવિઝન":10804,"▁શૅર":10805,"▁વિશિષ્ટ":10806,"▁છે\nસૂત્રો":10807,"તિના":10808,"▁સિરિયલ":10809,"▁પુત્રો":10810,"▁બેઠો":10811,"હાની":10812,"▁ભરવામાં":10813,"▁અગાઉના":10814,"▁ચિરાગ":10815,"▁સ્કૂટર":10816,"▁આશ્રય":10817,"▁હરીશ":10818,"▁કમલનાથ":10819,"▁મહાનુભાવ":10820,"થિની":10821,"▁મ્યૂ":10822,"િકારી":10823,"▁સંપા":10824,"▁રીમેક":10825,"▁કિસિંગ":10826,"હિલા":10827,"નગરના":10828,"▁યુવકને":10829,"▁પ્રવાસીઓને":10830,"▁બિઝનેસમેન":10831,"▁સુનવણી":10832,"િને":10833,"▁મર્":10834,"▁છે\nહિ":10835,"ળાટ":10836,"▁ટીમમાં":10837,"સિટી":10838,"▁બતાવ્યો":10839,"▁ડૉલ":10840,"▁તેલંગાણામાં":10841,"▁ગ્રહોની":10842,"▁દુબઈ":10843,"▁અનિવાર્ય":10844,"▁અકાલી":10845,"▁વાવેતર":10846,"નિવર્સિટી":10847,"ડબલ્યુ":10848,"રનું":10849,"સનીય":10850,"નાને":10851,"▁તકની":10852,"▁સાઇડ":10853,"▁આપતો":10854,"▁ઝગ":10855,"▁ભાવુક":10856,"ઝાસ્ટર":10857,"▁પોલિસના":10858,"▁હતું\nઅ":10859,"▁જાન્યુઆરીમાં":10860,"▁ધારાસભ્યોની":10861,"▁સેન્ટરમાં":10862,"▁આંદોલનને":10863,"▁આઝાદીના":10864,"▁બદલામાં":10865,"મિતાભ":10866,"▁કક્ષાના":10867,"▁રજિસ્ટ્રેશન":10868,"▁સંમેલનમાં":10869,"▁એકત્રિત":10870,"▁કાબૂમાં":10871,"▁પ્રોપર્ટી":10872,"▁એમ્બ્યુલન્સ":10873,"પટ્ટ":10874,"મરા":10875,"વડા":10876,"વાબ":10877,"▁આમિ":10878,"▁એણે":10879,"▁ઉપયોગી":10880,"▁લીધ":10881,"▁રેટિંગ":10882,"નિધિ":10883,"▁ડિસ્":10884,"▁અધિકારીને":10885,"▁ગામો":10886,"▁તિહાર":10887,"▁વ્યાપાર":10888,"▁એકબીજાની":10889,"▁છે\nવડાપ્રધાન":10890,"▁ગ્રાન્ડ":10891,"▁રિકવરી":10892,"▁સિદ્ધુએ":10893,"▁સશસ્ત્ર":10894,"▁સ્મારક":10895,"▁નિતિન":10896,"ંભા":10897,"ઝ્":10898,"▁હિંદ":10899,"▁જુદ":10900,"▁ટ્રેક્ટર":10901,"▁માતાએ":10902,"▁અમદાવાદઃ":10903,"▁ઉર્ફ":10904,"▁સમિતિએ":10905,"▁બીજેપીને":10906,"▁મેન્યુ":10907,"▁દુખાવો":10908,"▁તબીબો":10909,"▁ભરેલા":10910,"▁ગવર્ન":10911,"▁આતુરતાથી":10912,"▁દુલ્હ":10913,"▁મુઝફ્ફર":10914,"્યોતિષ":10915,"▁ડિરેક્ટો":10916,"▁જોરશોરથી":10917,"કર્ષ":10918,"▁રજ":10919,"▁માનું":10920,"▁પરો":10921,"ન્ડિંગ":10922,"▁મૂળના":10923,"▁શિલાન્યાસ":10924,"▁યુદ્ધની":10925,"▁ઢી":10926,"▁બજરંગ":10927,"ભર્યા":10928,"▁તેંડ":10929,"▁સેમ્પલ":10930,"▁સ્ટ્રીટ":10931,"▁સૌભાગ્ય":10932,"▁તરીકેની":10933,"▁જિલ્લાઓ":10934,"▁બૉડી":10935,"▁યલો":10936,"▁લગાવે":10937,"▁યુદ્ધના":10938,"▁નોકરીઓ":10939,"▁પૂરતા":10940,"દિશા":10941,"▁ઉંચી":10942,"▁ડૂબ":10943,"▁ઓથોરિટી":10944,"▁વાટાઘાટો":10945,"બર્ટ":10946,"ીને":10947,"▁મળવાના":10948,"લોગ":10949,"▁હેક":10950,"▁સિંહો":10951,"▁ઑફર":10952,"▁યોજનાને":10953,"▁મોકલ્યો":10954,"▁ઓપન":10955,"▁દિલમાં":10956,"▁વાઇબ્રન્ટ":10957,"▁પશુપાલન":10958,"▁તાલિબાને":10959,"▁રિસોર્ટ":10960,"હિક":10961,"ાણી":10962,"▁વેટ":10963,"▁માળા":10964,"▁રાતો":10965,"કોનું":10966,"▁મળતું":10967,"▁ઓલિમ્પિક":10968,"વિવારે":10969,"▁ખોર":10970,"▁આરબી":10971,"▁૨૧":10972,"▁અર્જૂન":10973,"▁ચોપરાની":10974,"▁જળવાઈ":10975,"▁હીટવે":10976,"▁સુપ્રીમો":10977,"▁નાબૂદ":10978,"▁રમણ":10979,"▁બૈ":10980,"▁એનિ":10981,"▁છે\nને":10982,"▁આપું":10983,"▁સુશીલ":10984,"▁આવી\n":10985,"▁વેંક":10986,"મિનલ":10987,"▁ડેલ્ટા":10988,"▁બાળકની":10989,"▁યમુ":10990,"▁મૂકતા":10991,"▁બહેતરીન":10992,"▁પ્રકાશમાં":10993,"▁દ્રૌ":10994,"▁ફાંસીની":10995,"▁દૂતાવાસ":10996,"વવાના":10997,"▁પટાની":10998,"▁ફરાહ":10999,"▁સંવિધાન":11000,"▁સમન્સ":11001,"▁કહું":11002,"દાબાદ":11003,"▁રિએ":11004,"▁સહારો":11005,"▁પ્લાનિંગ":11006,"▁ભાગીદાર":11007,"▁ડ્રાફ્ટ":11008,"▁રિફ્રેશ":11009,"હરા":11010,"▁છવાયેલી":11011,"▁ફોરેન્સિક":11012,"▁બદમા":11013,"▁યંગ":11014,"▁સુરક્ષાકર્મી":11015,"▁તમન્ના":11016,"▁આઇએસઆઇ":11017,"▁સોનાની":11018,"▁માધ્યમિક":11019,"▁આશ્ચર્યજનક":11020,"▁આસામના":11021,"▁ફ્લોપ":11022,"▁તબાહી":11023,"▁સ્ક્રિપ્ટ":11024,"છતાં":11025,"વવાનું":11026,"▁અઝ":11027,"▁કોરિ":11028,"▁ઘી":11029,"▁બીઆર":11030,"▁ફોકસ":11031,"▁ચંદ્રગ્રહણ":11032,"▁ઇચ્છતા":11033,"▁ભીમ":11034,"▁તુલનામાં":11035,"હિલ":11036,"▁તટીય":11037,"▁વાલી":11038,"▁મોટે":11039,"ડાઓ":11040,"▁લખેલા":11041,"▁અન્યાય":11042,"▁ટાળી":11043,"▁પાર્કિંગ":11044,"▁કાનપુર":11045,"▁અંબાજી":11046,"▁ઝારખંડમાં":11047,"▁સાવચેત":11048,"▁કવિતા":11049,"તરફ":11050,"રાસ":11051,"▁છે\nબે":11052,"▁વારો":11053,"▁સેરે":11054,"બાબુ":11055,"▁કેન્દ્રના":11056,"▁નિર્ણાયક":11057,"▁પંચો":11058,"▁અનુભવો":11059,"▁પુત્રને":11060,"▁યાદવના":11061,"▁વયના":11062,"▁હિસાબ":11063,"ંગળવારે":11064,"\nબે":11065,"ભેર":11066,"▁આઇએ":11067,"▁દઈ":11068,"રેલ":11069,"▁બેચ":11070,"▁ઓક્સ":11071,"્યાંકન":11072,"▁ઉત્તરી":11073,"▁નેતાની":11074,"મુક્ત":11075,"▁બનવું":11076,"▁પરિવારનો":11077,"▁શિવલિંગ":11078,"▁શનિની":11079,"▁માર્ચમાં":11080,"▁ગણતરીના":11081,"▁સૌરાષ્ટ્રમાં":11082,"▁કરિયરમાં":11083,"▁રિલેશનશિપમાં":11084,"▁બ્રાહ્મણ":11085,"▁નમૂના":11086,"▁તેંડુલ":11087,"ચાવી":11088,"ડિયમ":11089,"▁કૃત":11090,"▁પ્રચ":11091,"▁બાજી":11092,"▁મુન":11093,"▁વધ્યા":11094,"▁યુએન":11095,"▁સેફ્ટી":11096,"િંગનો":11097,"▁ડિઝાસ્ટર":11098,"દેવે":11099,"▁અપાર":11100,"▁ગણતંત્ર":11101,"▁જોડાઇ":11102,"▁ફેબ્રુઆરીમાં":11103,"▁સર્વશ્રેષ્ઠ":11104,"▁અદાઓ":11105,"▁ચક્રવાતી":11106,"ગર્":11107,"મણે":11108,"▁વતન":11109,"▁એપાર્ટમેન્ટ":11110,"રેસ્ટ":11111,"રોગ્ય":11112,"▁સેક્શન":11113,"▁લેવું":11114,"▁પછીથી":11115,"▁સંગઠનના":11116,"▁ત્રિપા":11117,"▁બાહુબલી":11118,"▁કેમિક":11119,"▁શણ":11120,"▁ફુલ":11121,"▁ટકરા":11122,"્રીક":11123,"▁વડાપ્રધાનના":11124,"▁એનજી":11125,"તમંદ":11126,"▁જનતાના":11127,"▁કોવિડના":11128,"▁ખુશીઓ":11129,"▁તેજીથી":11130,"▁ફોટોગ્રાફ":11131,"ટ્રે":11132,"સામ":11133,"▁છેલ્લો":11134,"યાની":11135,"▁ચરમ":11136,"▁વાગ":11137,"ધીર":11138,"સીસ":11139,"▁ચૂકા":11140,"▁ગોપી":11141,"સોલ":11142,"▁વિચારણા":11143,"જ્ઞેશ":11144,"▁મોકલવા":11145,"▁નાગરિકોની":11146,"▁મોરચો":11147,"▁વ્હાઈટ":11148,"▁છે\nપીએમ":11149,"▁વ્હીલ":11150,"▁વૈભવી":11151,"▁અવગણના":11152,"▁પિટ":11153,"▁કેપ્શનમાં":11154,"▁એબી":11155,"▁જણાવતા":11156,"પક્ષે":11157,"▁યાત્રાને":11158,"▁ઘરનો":11159,"કેટલાક":11160,"▁લડ્યા":11161,"▁જાળવણી":11162,"▁એનાયત":11163,"▁નિયંત્રણમાં":11164,"▁પાઇપ":11165,"▁કિક":11166,"▁નસી":11167,"▁રિલાયન્સ":11168,"▁બિપિન":11169,"▁આદત":11170,"▁વિશ્વવિદ":11171,"ફોર્સમેન્ટ":11172,"▁જાનથી":11173,"▁શનિવારના":11174,"▁મુશ્કેલીનો":11175,"▁પાર્કમાં":11176,"▁જાતિના":11177,"▁ઊંચા":11178,"▁ઓટોમોબા":11179,"▁ગતિવિધિઓ":11180,"ખલા":11181,"▁મોહિત":11182,"પાંચ":11183,"▁ઝુ":11184,"▁શકુ":11185,"▁ખેત":11186,"▁એનએસ":11187,"▁અંસારી":11188,"▁આતંકીઓએ":11189,"▁સંસદની":11190,"▁પ્રિન્ટ":11191,"િડે":11192,"ૌર":11193,"ંગ્રેસે":11194,"▁કારી":11195,"ટામાં":11196,"▁પીળા":11197,"પ્રીત":11198,"▁ક્વિ":11199,"▁અર્ધ":11200,"▁ભાઈઓ":11201,"▁કોર્પોરેટ":11202,"▁એનડીઆરએફ":11203,"ંજી":11204,"ગાર્ડ":11205,"▁જટ":11206,"▁નબી":11207,"ક્કો":11208,"▁લાગ્યુ":11209,"▁અભિગમ":11210,"▁શિવની":11211,"▁લાવવાનો":11212,"▁શેરોમાં":11213,"▁માર્ચથી":11214,"▁ઋતિક":11215,"▁સાઉથની":11216,"▁મૃતદેહને":11217,"કીએ":11218,"▁આયા":11219,"▁પ્રસ્તુ":11220,"ડાં":11221,"જીનો":11222,"▁વર્ગો":11223,"▁મેથી":11224,"▁પૂછી":11225,"ન્ડો":11226,"▁સ્ટોર":11227,"▁એનકાઉન્ટ":11228,"▁ગણાવીને":11229,"▁મંડળ":11230,"▁આઈએમ":11231,"▁સેટેલાઇટ":11232,"▁આભારી":11233,"\nનોંધનીય":11234,"ઝિલ":11235,"બૉ":11236,"રિંગ":11237,"▁તર્ક":11238,"▁રિક્ષા":11239,"લાંગ":11240,"▁છે\nમીડિયા":11241,"િવૂડ":11242,"▁મૂડી":11243,"▁અભિનેત્રીઓમાં":11244,"▁તુલસી":11245,"નાઈટેડ":11246,"શના":11247,"▁મંદા":11248,"▁પાડીને":11249,"ંતરે":11250,"▁જણાવવા":11251,"▁કાર્યકર":11252,"▁સર્જી":11253,"▁કંઈપણ":11254,"▁કમળ":11255,"▁પાર્ટન":11256,"▁બિનજ":11257,"▁છે\nતેઓ":11258,"▁ચૌહાણે":11259,"▁ધંધો":11260,"▁તિરંગા":11261,"સીએમ":11262,"▁સલીમ":11263,"▁તેણી":11264,"▁માત":11265,"▁કોપી":11266,"▁જેએન":11267,"▁લોકલ":11268,"ત્રાએ":11269,"ભાજપના":11270,"▁ગુલાબી":11271,"▁જાપાનના":11272,"▁લાભાર્થીઓને":11273,"ન્યુ":11274,"▁આડે":11275,"▁અબુ":11276,"▁મ્યાન":11277,"▁માથુ":11278,"▁સેમી":11279,"▁સીઇ":11280,"▁નીલ":11281,"▁ગોળ":11282,"દાનું":11283,"▁બાળકના":11284,"▁યોજનાની":11285,"▁રાજસ્થાનની":11286,"▁લાલચ":11287,"▁લાઇવ":11288,"▁સંકેતો":11289,"▁સચિવાલય":11290,"▁વિઝન":11291,"સેક":11292,"ંડલ":11293,"▁માનહાનિ":11294,"▁પ્રેમની":11295,"▁ઘરેલુ":11296,"▁શ્રુતિ":11297,"▁કૉલેજ":11298,"ઝીલેન્ડ":11299,"▁કલેક્ટ":11300,"▁મેળવવાની":11301,"▁ફૅન્સ":11302,"▁મૈત્રી":11303,"▁પુતિને":11304,"▁ઈતિહાસમાં":11305,"▁ફ્લૉપ":11306,"▁સ્ટેડિયમમાં":11307,"▁વળવા":11308,"નુસાર":11309,"▁ટકાવારી":11310,"▁મદદની":11311,"▁એપ્રિલમાં":11312,"▁ઇન્વેસ્ટ":11313,"▁ઉત્પાદનો":11314,"ંસી":11315,"ળાઈ":11316,"્કી":11317,"▁દાગી":11318,"▁નગ્ન":11319,"▁શિમ":11320,"રોલ":11321,"▁ઇશ્ક":11322,"▁વાતમાં":11323,"▁મિની":11324,"▁હિના":11325,"▁જયરામ":11326,"▁મૃત્યુના":11327,"▁ગઇકાલે":11328,"▁પ્રોજેક્ટ્સ":11329,"▁છૂપ":11330,"▁જગતમાં":11331,"ઝોન":11332,"▁કન્વી":11333,"▁અવતારમાં":11334,"▁શ્રીલંકાના":11335,"▁સઘન":11336,"▁આંધી":11337,"▁એમી":11338,"▁ગોડ":11339,"▁ખ્રિ":11340,"▁ગુજરાતનો":11341,"▁પુરો":11342,"લિના":11343,"▁ડિનર":11344,"▁બન્યાં":11345,"▁યોજનામાં":11346,"▁મળશે\nઆ":11347,"▁પથ્થ":11348,"▁વૈજ્ઞાનિકોએ":11349,"▁દંપતી":11350,"▁ઓર્ગેનાઈઝ":11351,"▁ડિલિવ":11352,"ેલિજન્સ":11353,"▁હસ્તક્ષેપ":11354,"ૉગ":11355,"▁આલો":11356,"▁માપ":11357,"▁ફોર્":11358,"▁બેઠકની":11359,"▁બીજાને":11360,"▁ઈન્ડેક્સ":11361,"કુમારી":11362,"▁જન્મભૂમિ":11363,"▁કમ્યુ":11364,"ગ્રાઉન્ડ":11365,"▁મણિપુરમાં":11366,"▁ડીએમકે":11367,"\nદ":11368,"વસ્તુ":11369,"▁કવ":11370,"▁તસ્વી":11371,"▁હ્ર":11372,"▁માળે":11373,"▁ચિત્":11374,"સાનો":11375,"▁ગુણો":11376,"▁ઉપચાર":11377,"▁લગાડ":11378,"▁એટીએમ":11379,"▁દુરુપયોગ":11380,"▁પ્રયાગરાજ":11381,"▁કમિટીની":11382,"▁પ્રવકતા":11383,"▁સૂચનાઓ":11384,"▁અંકિત":11385,"▁સાંભળ્યા":11386,"▁પેટાચૂંટ":11387,"▁શુક્લ":11388,"▁હમાસ":11389,"▁સહીત":11390,"▁લાયસન્સ":11391,"▁રાણાવત":11392,"\nઓ":11393,"લિયર":11394,"્વી":11395,"▁કન":11396,"▁સૂટ":11397,"▁કેળ":11398,"▁છે\nવા":11399,"ંધણ":11400,"સ્તક":11401,"ટાઇ":11402,"▁રેસમાં":11403,"▁દિવાલ":11404,"▁લાલકૃષ્ણ":11405,"▁ટાઈમ્સ":11406,"▁કૌશિક":11407,"▁માલિકી":11408,"▁સુધારવા":11409,"▁પરિષદમાં":11410,"▁ફૉર":11411,"▁ત્યાગ":11412,"બ્રાહિમ":11413,"▁જવાહરલાલ":11414,"▁પૉઝિટીવ":11415,"▁છત":11416,"ર્તન":11417,"▁તેવામાં":11418,"▁મોતી":11419,"▁પરિયોજના":11420,"▁નામનું":11421,"▁છે\nઆમ":11422,"▁ખોદ":11423,"ઝીટ":11424,"▁પ્રચારમાં":11425,"▁સ્થળોની":11426,"▁સવાલોના":11427,"▁લખનઉમાં":11428,"▁ચલણ":11429,"▁ચાર્જશીટ":11430,"▁ત્વચા":11431,"▁પ્રોટોકો":11432,"ગરો":11433,"ઝિન":11434,"માર્ગ":11435,"▁અે":11436,"▁ખળ":11437,"▁લેવડ":11438,"▁આપીશું":11439,"ખાના":11440,"શીપ":11441,"▁અરજીને":11442,"▁મુશ્કેલીઓનો":11443,"▁એનસીબી":11444,"▁સોનૂ":11445,"▁છેડછાડ":11446,"▁પૂર્ણિમા":11447,"શુક્રવારે":11448,"ંય":11449,"સંગ":11450,"▁રજી":11451,"▁એસિડ":11452,"રાદિત્ય":11453,"લ્સમાં":11454,"▁સાથેનો":11455,"▁મુખ્યાલય":11456,"▁લગાવવાની":11457,"▁તસવીરોને":11458,"▁શરૂઆતના":11459,"▁યુનિય":11460,"▁પાડ્યું":11461,"\nસલમાન":11462,"▁ટ્રમ્પના":11463,"▁દોષિતોને":11464,"▁ડ્રાઈવ":11465,"▁છેડતી":11466,"▁સંયોજક":11467,"▁મેજિસ્ટ્રેટ":11468,"▁પ્રવીણ":11469,"ંસર":11470,"▁કળા":11471,"▁બોટલ":11472,"વોર્ડ":11473,"▁મૂવી":11474,"વરિટ":11475,"▁શ્રીકૃષ્ણ":11476,"▁ફેરવી":11477,"▁શરીરને":11478,"\nવર્ષ":11479,"▁ડબ્બા":11480,"▁મિઝોરમ":11481,"ંથા":11482,"ંઢે":11483,"દક":11484,"▁અઘ":11485,"▁રાઇ":11486,"રીક":11487,"▁ઉથલ":11488,"▁ઇંડ":11489,"પ્લા":11490,"▁અમનેફેસબુક":11491,"▁એડવોકેટ":11492,"▁એક્સપર્ટ":11493,"▁માંગણીઓ":11494,"▁રાજપૂતના":11495,"▁હમણાં":11496,"▁ફુટ":11497,"ગિલ":11498,"ચરણ":11499,"ધ્વ":11500,"▁ન્":11501,"▁પ્રબળ":11502,"▁વિમાનો":11503,"▁ઉંઘ":11504,"▁સીટી":11505,"▁સામેના":11506,"▁ભાગવ":11507,"▁દિમા":11508,"▁પીછો":11509,"▁પગલુ":11510,"▁કરાવશે":11511,"▁જોડાયેલો":11512,"▁બદલવાની":11513,"▁સ્વીકાર્યું":11514,"શ્રદ્ધા":11515,"▁હીરોઇન":11516,"▁ભોજપુરી":11517,"\nઇ":11518,"▁છપ":11519,"▁કરાય":11520,"કાઉ":11521,"▁મેડી":11522,"પૂનમ":11523,"▁અધિક્ષ":11524,"▁મીડિયાએ":11525,"▁સૈય":11526,"▁કલાકથી":11527,"▁કમિટીના":11528,"\nહવે":11529,"▁વિધાયક":11530,"▁અંગ્રેજો":11531,"▁લાદવામાં":11532,"▁વટહ":11533,"▁ફોલોઅર્સ":11534,"▁કબીર":11535,"▁વાવ":11536,"જીભાઈ":11537,"▁પુણ્ય":11538,"રનાથ":11539,"▁જીવતા":11540,"▁જૂઠ":11541,"▁ક્રૂડ":11542,"▁જંગલમાં":11543,"▁જાળવવા":11544,"▁નિરાશા":11545,"▁નરેશ":11546,"ક્રમે":11547,"▁અભિનીત":11548,"ુમન":11549,"▁ત્યાંની":11550,"▁દોસ્તી":11551,"▁બનેલ":11552,"સાઈડ":11553,"▁બિઝને":11554,"▁ચોંકાવનારા":11555,"▁ઉશ્કેર":11556,"▁સમેત":11557,"▁ભથ્":11558,"▁ભડક":11559,"▁મુસીબ":11560,"▁નિપજ":11561,"▁રાશિનો":11562,"▁વિદ્યાર્થિની":11563,"▁ઓક્ટોબરથી":11564,"▁જોખમી":11565,"▁ગ્રેજ્યુ":11566,"▁પેજને":11567,"▁મલયા":11568,"▁સ્પર્ધામાં":11569,"▁બોલીવુડમાં":11570,"અર":11571,"ભવ":11572,"▁જિલ્લો":11573,"▁ગજ":11574,"▁આવકના":11575,"ંગુ":11576,"કેન્દ્ર":11577,"▁ઉપાડ":11578,"▁રાખવાનું":11579,"▁અમૂલ":11580,"▁ક્લીન":11581,"▁સૂર્યગ્રહણ":11582,"▁આયુર્વે":11583,"▁પલટ":11584,"▁ખીણમાં":11585,"▁પહાડી":11586,"▁મેહુલ":11587,"▁પ્રચંડ":11588,"મંદિ":11589,"▁અલા":11590,"▁વસૂ":11591,"▁સ્કેલ":11592,"▁બનાવતા":11593,"\nઅમદાવાદ":11594,"કાંક્ષા":11595,"▁ઘૂસી":11596,"▁પદ્મા":11597,"▁પ્રકોપ":11598,"▁નડિયાદ":11599,"▁સેરેમની":11600,"૨૪":11601,"▁યર":11602,"▁સદીમાં":11603,"▁અખા":11604,"▁બંદર":11605,"▁કોના":11606,"્યોર":11607,"સેટ":11608,"▁ઝર":11609,"ચાર્ય":11610,"▁ખેતરમાં":11611,"▁માંગને":11612,"▁કોરોનાવાયર":11613,"▁લોકસભાના":11614,"▁સુરક્ષામાં":11615,"▁સપ્ટેમ્બરથી":11616,"▁ચિંતાજનક":11617,"▁સૂત્રોચ્ચાર":11618,"▁કૈલાશ":11619,"▁વાહનોને":11620,"▁દિવાળીની":11621,"▁દુઃખદ":11622,"▁ઓડિશાના":11623,"▁ફ્રેન્ચ":11624,"▁પતંગ":11625,"▁માછીમારોને":11626,"▁આહ્વાન":11627,"▁કન્વીનર":11628,"▁આસ્થા":11629,"▁આવવાનો":11630,"લેણ":11631,"▁નિધ":11632,"▁સેવ":11633,"▁રાખવો":11634,"▁સૌના":11635,"▁સિંહનું":11636,"▁પ્રશ્નોની":11637,"▁સાવધાની":11638,"▁વિલન":11639,"▁લુધ":11640,"▁માઇક્રો":11641,"▁ઉત્તરપ્રદેશના":11642,"▁સાહિબ":11643,"▁સિદ્દીકી":11644,"નન":11645,"▁સાધન":11646,"▁મુહૂર્ત":11647,"વિદા":11648,"યુદ્ધ":11649,"▁કોરોનાનો":11650,"▁ક્લી":11651,"▁નીકળે":11652,"▁જ્હો":11653,"▁ગણાવતા":11654,"▁પ્રમોટ":11655,"▁અદાલત":11656,"▁પરિષદના":11657,"▁ઝારખંડના":11658,"▁હૈદરાબાદમાં":11659,"▁મૂલ્યાંકન":11660,"▁ડિસ્ટર્બ":11661,"▁રાધિકા":11662,"▁તિલક":11663,"ઓફ":11664,"▁બધાં":11665,"▁ભરીને":11666,"લ્ક":11667,"શેષ":11668,"▁છે\nપરંતુ":11669,"▁મળવાનો":11670,"▁ઈવીએમ":11671,"▁ગુજાર":11672,"▁કાળમાં":11673,"▁બનાવનાર":11674,"▁દોસ્તો":11675,"▁વિદ્યાર્થીઓના":11676,"▁પેટ્રોલિંગ":11677,"▁ફાઇનલ":11678,"▁એન્જીનઃ":11679,"▁બહાને":11680,"▁ભગવાનની":11681,"▁થિયેટર":11682,"▁સિંચાઈ":11683,"એવરેજઃ":11684,"ઇમાં":11685,"નેડ":11686,"▁એનું":11687,"▁નાર્":11688,"▁નાઈટ":11689,"જેક્શન":11690,"ગાળો":11691,"હાત્મક":11692,"▁લખે":11693,"▁ક્રૂર":11694,"ભારંભ":11695,"▁આદેશમાં":11696,"▁સ્થળની":11697,"▁નાખ્યું":11698,"▁સમયગાળામાં":11699,"▁ડેટિંગ":11700,"▁દૃષ્ટિ":11701,"▁જરુર":11702,"▁સશક્તિકરણ":11703,"\nસા":11704,"િફ":11705,"▁વયે":11706,"▁નંદા":11707,"▁ગ્લા":11708,"▁ડ્રે":11709,"મોમાં":11710,"▁ખાનનું":11711,"▁ખુરાના":11712,"▁જુગાર":11713,"ચ્છેદ":11714,"▁ક્રમ":11715,"પુરમ":11716,"▁રામલીલા":11717,"▁હોસ્પિટલે":11718,"▁મંદિરનું":11719,"▁દેવભૂમિ":11720,"▁લુકને":11721,"▁કૂચ":11722,"▁ઠાકુરે":11723,"▁ગરીબોને":11724,"▁આંબેડકર":11725,"બુધવારે":11726,"▁દિપીકા":11727,"સ્મિક":11728,"▁નાર":11729,"▁કહ્યા":11730,"ંધા":11731,"▁વધ્યું":11732,"▁રોયલ":11733,"બાલા":11734,"▁સીડી":11735,"▁કંપનીઓએ":11736,"▁હત્યાની":11737,"▁અસહ":11738,"▁ગુમાવ્યો":11739,"▁ભ્રષ્ટાચારના":11740,"▁આક્રમણ":11741,"▁માલદીવ":11742,"▁જન્માષ્ટમી":11743,"▁વચગાળાના":11744,"ખૂ":11745,"માનોને":11746,"▁બાંદ્રા":11747,"▁મહંત":11748,"▁લેબ":11749,"▁પીઓ":11750,"▁નિર્ણયથી":11751,"▁શુક્રવારના":11752,"▁પત્નીની":11753,"▁અફઘાનિસ્તાનની":11754,"▁સાવધાન":11755,"▁કેમેસ્ટ્રી":11756,"▁ફૂટેજ":11757,"▁ચોમાસું":11758,"▁તાજા":11759,"▁ગ્રાહક":11760,"▁સિસોદિયા":11761,"▁બોટાદ":11762,"▁સમયાંતરે":11763,"▁શૌચાલય":11764,"ચક્ર":11765,"▁અપ્ર":11766,"▁પરનો":11767,"▁થપ્પ":11768,"▁ધડા":11769,"▁ઓડિયો":11770,"▁ફોગા":11771,"▁ટેલેન્ટ":11772,"▁છેલ્લાં":11773,"▁જીતશે":11774,"▁બેઠકોમાંથી":11775,"▁ક્વૉ":11776,"▁બચ્ચનની":11777,"▁સિકંદર":11778,"▁ન્યુઝ":11779,"▁વારાણસીમાં":11780,"ગાંઠ":11781,"▁ગેહલોતે":11782,"▁હરાવ્યા":11783,"પ્લેક્સ":11784,"▁જાહેરાતો":11785,"▁ફોટોસ્લાઇડરમાં":11786,"▁જિતેન્દ્ર":11787,"કળ":11788,"વાશે":11789,"▁મજૂર":11790,"ન્ડીઝ":11791,"સ્થી":11792,"▁ચૂંટણીઓમાં":11793,"▁ગયા\n":11794,"▁કુસ્તી":11795,"\nઆજે":11796,"▁ઠંડ":11797,"▁બૉયફ્રેન્ડ":11798,"▁ચેલે":11799,"▁મહામારીના":11800,"▁મુંબઇના":11801,"▁સાંસદોને":11802,"▁હાસ્ય":11803,"બિન":11804,"નીતિક":11805,"રીશ":11806,"▁પાટે":11807,"▁હોતા":11808,"▁સિગ્":11809,"▁મેલ":11810,"▁જીવલેણ":11811,"▁શુભારંભ":11812,"▁ઉમેદવારોએ":11813,"રાણિક":11814,"▁સિન્હાએ":11815,"▁પોલીસકર્મીઓ":11816,"▁પ્રોફેશનલ":11817,"▁પૂર્વોત્તર":11818,"ંછ":11819,"ઝાર":11820,"▁પિક્":11821,"▁રિંગ":11822,"▁પ્રકરણ":11823,"▁કોલોની":11824,"▁જેમ્સ":11825,"▁ઉડ્":11826,"કારોને":11827,"પીની":11828,"▁નેતાને":11829,"▁વ્યક્તિનો":11830,"▁જોડાશે":11831,"▁માલુમ":11832,"▁સર્વેક્ષણ":11833,"▁મકાનમાં":11834,"▁પરિણીત":11835,"▁ઉપસ્થિતિમાં":11836,"▁સ્ટ્રાઈક":11837,"ભાનું":11838,"યાના":11839,"▁જેનિ":11840,"▁ટ્રીટ":11841,"▁સ્પા":11842,"▁રોહ":11843,"▁અમેરિક":11844,"ધુનિક":11845,"▁દુનિયાભરના":11846,"્યેન્દ્ર":11847,"▁છુટ":11848,"▁છોડ્યા":11849,"▁પૂર્વા":11850,"▁કેબિનેટની":11851,"▁બાઈડે":11852,"શાસ્ત્રમાં":11853,"▁સિનેમાઘરોમાં":11854,"▁ખ્રિસ્તી":11855,"્સે":11856,"▁સટ્ટા":11857,"ુંભ":11858,"▁માપદ":11859,"▁વિવાહ":11860,"▁ઈસ્ટ":11861,"▁અંગેનો":11862,"▁૨૨":11863,"▁બોર્ડે":11864,"▁જેટલીએ":11865,"▁માંડવ":11866,"▁સિંધિયા":11867,"હવા":11868,"▁હબ":11869,"▁હત્યાર":11870,"▁સુખી":11871,"નુષ્કા":11872,"▁ચૂંટણીનો":11873,"ગ્ઝ":11874,"▁શિક્ષા":11875,"▁નક્કર":11876,"▁આંસુ":11877,"▁ઓમિક્ર":11878,"કુંભ":11879,"▁ભત્રીજા":11880,"▁ગાઝિયાબાદ":11881,"▁ખળભ":11882,"▁રૌતે":11883,"લ્સના":11884,"▁વાલ્":11885,"ણાંક":11886,"▁મહાનિ":11887,"વિશ":11888,"લોએ":11889,"▁રોવર":11890,"ન્ટલ":11891,"▁બન્યુ":11892,"આઈટી":11893,"ફેક્શન":11894,"▁પૂછ્યુ":11895,"▁ફેલાવી":11896,"▁નવેમ્બરથી":11897,"▁જ્યોતિરાદિત્ય":11898,"▁વિમાનમાં":11899,"▁વસતી":11900,"▁નિવાસસ્થાને":11901,"▁રોમાન્સ":11902,"ખેર":11903,"▁આઘાત":11904,"▁કેસી":11905,"▁પરંત":11906,"ક્ચ":11907,"▁બેટિંગ":11908,"▁મેરેજ":11909,"▁બાદશાહ":11910,"્રાટ":11911,"▁ક્ષત્ર":11912,"▁ફોટોને":11913,"સિફિક":11914,"▁પંચની":11915,"▁નોકરીની":11916,"▁મિલિટ":11917,"▁દુર્લભ":11918,"▁રાવલ":11919,"▁જ્હા":11920,"▁તહેનાત":11921,"▁વાહનોની":11922,"▁અડધો":11923,"▁બાબતોના":11924,"▁મસ્જિ":11925,"▁પટ્ટી":11926,"▁પ્રતિનિધિમંડ":11927,"▁બેંકો":11928,"▁વિભાજન":11929,"▁ફર્નાન્ડીઝ":11930,"સરી":11931,"▁કળ":11932,"▁નિકો":11933,"ાવનાર":11934,"▁સંતુ":11935,"▁લોટ":11936,"▁બાગી":11937,"▁વર્ષનું":11938,"▁ગુજરાતનું":11939,"▁વિશેની":11940,"▁માંગવામાં":11941,"▁માધ્યમ":11942,"▁સનાતન":11943,"▁સિલ્વર":11944,"▁કાટમાળ":11945,"ઈના":11946,"કલ્પ":11947,"સંપ":11948,"િંદ":11949,"ૂની":11950,"▁સવા":11951,"▁બઘ":11952,"▁નમા":11953,"▁નંદ":11954,"ટીસ":11955,"સ્તર":11956,"▁પારદર્":11957,"▁રેગ":11958,"▁ખુલ્લો":11959,"સોસ":11960,"▁ખાતેના":11961,"▁નવેમ્બરમાં":11962,"▁કર્મચારીઓના":11963,"▁યુવકની":11964,"▁ઘાતક":11965,"▁અલવિદા":11966,"▁સ્ટેટ્સ":11967,"\nતમે":11968,"▁ધામધૂ":11969,"▁ફંક્શનમાં":11970,"▁દ્રૌપદી":11971,"▁તન્ના":11972,"▁ગમી":11973,"▁સંચાર":11974,"ાસના":11975,"દોને":11976,"▁પ્રેક્ટ":11977,"▁દાદરા":11978,"▁મહિનાનો":11979,"▁ડોક્યુમેન્ટ":11980,"▁ઓળખી":11981,"ડુચે":11982,"▁સંકુલ":11983,"▁ઓપિનિયન":11984,"▁નરગિસ":11985,"▁બંદૂક":11986,"▁ગોઠવી":11987,"▁શામિલ":11988,"▁અબ્રાહમ":11989,"▁જ્હૉન":11990,"▁અશ્વિની":11991,"ગની":11992,"ધના":11993,"િનેશન":11994,"▁વસી":11995,"▁લકી":11996,"▁વિરામ":11997,"▁સેમિ":11998,"▁પડ્યાં":11999,"▁વિકલ્પો":12000,"▁શોપ":12001,"▁અંજલિ":12002,"▁હવાઇ":12003,"▁ગતિએ":12004,"▁દિવાળીના":12005,"▁ચોમાસાની":12006,"▁કાર્યક્રમોમાં":12007,"▁સૂચવે":12008,"▁ભરાયા":12009,"▁નીપજ્યું":12010,"▁ફાઉન્ડેશન":12011,"▁હિમવર્ષા":12012,"▁ઓટીટી":12013,"▁આંગણવાડી":12014,"દશ":12015,"લન":12016,"૧૯":12017,"માર્ક":12018,"▁અખંડ":12019,"▁દશે":12020,"▁પરસે":12021,"રોક્ત":12022,"▁મુદ્રા":12023,"▁તોડીને":12024,"▁ગુસ્સામાં":12025,"▁ગુવાહા":12026,"▁ઇકોનો":12027,"▁પ્રતિસ્પર્":12028,"▁બૉમ્બે":12029,"▁સહજ":12030,"▁કાર્યક્રમની":12031,"▁એસએસ":12032,"▁કાશ્મીરની":12033,"▁ઉપલબ્ધિ":12034,"▁લેખમાં":12035,"▁દળોને":12036,"▁ઉંચા":12037,"▁વાયદો":12038,"▁તત્કાલિન":12039,"▁બંગલો":12040,"▁એન્કાઉન્ટરમાં":12041,"▁બાતમી":12042,"ઇની":12043,"વિરામ":12044,"▁પહેર્યા":12045,"▁બનાવતી":12046,"▁ભાગલા":12047,"▁મુખ્યમંત્રીની":12048,"▁મહેમાનો":12049,"▁પ્રશ્નોના":12050,"▁બીજેપીએ":12051,"▁યુવતીના":12052,"▁ઢંઢે":12053,"▁એડલ્ટ":12054,"▁દરિયાઈ":12055,"▁ગ્રાહકોને":12056,"ઝુકી":12057,"થન":12058,"▁ચું":12059,"ેશને":12060,"▁છે\nછેલ્લા":12061,"▁મળેલ":12062,"સેપ્ટ":12063,"ધાનો":12064,"▁કાળી":12065,"▁મુખ્તાર":12066,"▁ગાંધીનો":12067,"ારામાં":12068,"રાજમાન":12069,"▁અભિનેત્રીની":12070,"▁પત્થર":12071,"▁દેખાડ":12072,"▁જુલાઈથી":12073,"▁સુખદ":12074,"ધારણ":12075,"▁ગયેલી":12076,"▁પુસ્તકમાં":12077,"▁આસામમાં":12078,"▁આંચકો":12079,"િફિકેશન":12080,"▁દલીલો":12081,"▁હંમેશાં":12082,"ગાંધી":12083,"વેશન":12084,"તાંત્રિક":12085,"▁કેતુ":12086,"▁ટ્રી":12087,"▁કારનો":12088,"▁ડાયલ":12089,"ાઇલ":12090,"▁અરમાન":12091,"▁ભાભી":12092,"▁ક્લો":12093,"▁હરકત":12094,"રાષ્ટ્રપતિ":12095,"▁અગ્રવાલે":12096,"▁ફિરો":12097,"▁એનડીએને":12098,"▁રૂપેરી":12099,"ડયન":12100,"ગુરુવારે":12101,"▁ડુંગળી":12102,"▁ચેમ્પિયન":12103,"ખરી":12104,"▁નતા":12105,"▁એકલી":12106,"▁બેભાન":12107,"▁આવેદન":12108,"▁દરબાર":12109,"▁સમયગાળો":12110,"▁બોય":12111,"પાયા":12112,"▁કુછ":12113,"▁જનતાનો":12114,"▁હિમાચ":12115,"▁છે\nવૃ":12116,"▁પુસ્તકો":12117,"▁કન્ટેન્ટ":12118,"ફોર્નિયા":12119,"▁દિવ્યાંગ":12120,"▁મેન્યુફે":12121,"▁લુધિયા":12122,"▁આતિ":12123,"▁મૃ":12124,"▁ટર્મ":12125,"▁પાકને":12126,"▁નાક":12127,"▁સેતુ":12128,"▁છોકરો":12129,"▁બદલાય":12130,"▁ચાલ્યો":12131,"▁પીવાના":12132,"▁ચલાવતા":12133,"▁દર્દીઓના":12134,"▁તાપસી":12135,"▁સોનાલી":12136,"▁કાર્યાલયમાં":12137,"▁તારક":12138,"▁હેરિ":12139,"▁સિક્યુરિટી":12140,"▁હુડ":12141,"▁દંગ":12142,"▁એંટ":12143,"▁પાગલ":12144,"શ્નો":12145,"▁વાતનું":12146,"▁સ્વાતંત્ર":12147,"▁પોલિસની":12148,"▁વિવાદને":12149,"▁છુટા":12150,"▁કાર્બન":12151,"▁થોડીક":12152,"▁સાચુ":12153,"▁વાયુસેનાના":12154,"▁રાજકોટના":12155,"▁વરસાદે":12156,"▁એડવાન્સ":12157,"▁અસ્થિર":12158,"▁તામિ":12159,"▁ઓગષ્ટ":12160,"\nપ્ર":12161,"ારણ":12162,"ન્માન":12163,"મેલી":12164,"કોટમાં":12165,"ામુ":12166,"▁જીડીપી":12167,"▁કાતિ":12168,"પુત્ર":12169,"▁બાળકીને":12170,"▁સપ્ટેમ્બરમાં":12171,"▁વિપક્ષે":12172,"▁અભિનેતાએ":12173,"▁ગાડીઓ":12174,"▁છે\nરાજ્યમાં":12175,"▁મનોરંજનની":12176,"▁ચીજવસ્તુ":12177,"▁મચ્છ":12178,"▁મઝા":12179,"▁વોલ":12180,"▁ગઠ":12181,"▁માસૂ":12182,"ટેશન":12183,"▁મળવાનું":12184,"▁મેળા":12185,"▁ઈડીએ":12186,"▁વિક્ર":12187,"▁ઉઠાવતા":12188,"▁હુમલાનો":12189,"▁કર્ણાટકની":12190,"▁અક્ષર":12191,"▁રાવતે":12192,"▁સૈનિકોએ":12193,"▁ઇન્કાર":12194,"▁બાબતોમાં":12195,"▁પહોંચાડતા":12196,"વર્તમાન":12197,"્યવહાર":12198,"▁ખળભળાટ":12199,"ત્ય":12200,"દ્રો":12201,"ૅન":12202,"નીમાં":12203,"▁ડ્યુટી":12204,"ડાયા":12205,"રૂરી":12206,"▁ઇલે":12207,"▁કાર્યકાળમાં":12208,"વાદે":12209,"▁ડેન":12210,"બેરી":12211,"▁કાર્યવાહીની":12212,"▁૨૩":12213,"▁ફીટ":12214,"▁કલેકટર":12215,"▁માગતા":12216,"▁અમૃતસર":12217,"▁વિવાહિત":12218,"▁વ્યૂહાત્મક":12219,"▁શાકભાજી":12220,"▁સિતારા":12221,"ફરી":12222,"▁કભી":12223,"▁જૉ":12224,"▁ચર":12225,"▁નાઈ":12226,"▁વખતના":12227,"▁જૂનમાં":12228,"▁અવસ્થામાં":12229,"▁મહેલ":12230,"▁રાષ્ટ્રપતિના":12231,"▁પાછળના":12232,"કૂફ":12233,"▁સાંભળ્યું":12234,"પેટ્રોલ":12235,"▁હરિદ્વાર":12236,"▁વોરંટ":12237,"▁એસ્ટેટ":12238,"▁અવિશ્વાસ":12239,"▁બબાલ":12240,"સ્કી":12241,"▁યુતિ":12242,"▁સેવામાં":12243,"▁સોરે":12244,"▁રવિશંકર":12245,"▁ઑફિસે":12246,"▁મનીષા":12247,"▁કરીનાએ":12248,"▁ભેળ":12249,"▁વૉશિંગ્ટન":12250,"▁ફૂટે":12251,"▁કાર્યકરોએ":12252,"▁અવરજવર":12253,"ૃષ્ટિ":12254,"વાડાના":12255,"▁કેક":12256,"કાઇ":12257,"ાગો":12258,"▁યુનિટી":12259,"▁કહેશે":12260,"▁વિસ્તારમાંથી":12261,"▁આરક્ષણ":12262,"▁સામસામે":12263,"ભારતના":12264,"▁વિદ્યાર્થીની":12265,"▁પૂરતો":12266,"▁આખુ":12267,"▁સૈનિકોની":12268,"▁વેરિએ":12269,"▁૨૦૨૪":12270,"▁નિયામક":12271,"▁ટુકડા":12272,"▁ઉથલપા":12273,"વ્યુ":12274,"▁મતા":12275,"▁વહ":12276,"▁પરફૉર્મ":12277,"કેર":12278,"▁કારક":12279,"▁પહેલુ":12280,"▁સત્યેન્દ્ર":12281,"▁ડોન":12282,"▁પાંચમી":12283,"▁મજબુ":12284,"▁સંભાવનાઓ":12285,"▁લક્ષ્યાંક":12286,"▁અનુભવે":12287,"▁માંડવી":12288,"▁લાઇફમાં":12289,"▁કનુ":12290,"▁મકાનો":12291,"▁કેએમ":12292,"▁તેમછતાં":12293,"▁છે\nશું":12294,"્રેટ":12295,"▁તોડવા":12296,"▁વધશે\n":12297,"▁ગુસ્સા":12298,"પોરના":12299,"▁નોન":12300,"▁હેક્ટર":12301,"▁તરફી":12302,"▁સંબંધને":12303,"▁કેન્દ્રએ":12304,"▁અપાઈ":12305,"▁ખાતેથી":12306,"▁એન્ફોર્સમેન્ટ":12307,"▁તિજો":12308,"\nઅહીં":12309,"▁વડોદરાના":12310,"▁પુરાવો":12311,"▁હુમા":12312,"▁લડાઈમાં":12313,"▁ગ્રાહકો":12314,"▁હદે":12315,"▁નૈતિક":12316,"▁ગલ":12317,"▁પ્રભા":12318,"પીને":12319,"▁ઉપરના":12320,"▁પછીના":12321,"▁નવાજ":12322,"▁પ્રોટે":12323,"▁સૂર્યોદય":12324,"▁અર્જુ":12325,"▁વ્યવસ્થાની":12326,"▁બ્રાન્ચ":12327,"▁ફાઈલ":12328,"▁ડ્રાઇવિંગ":12329,"▁એડવાઈઝ":12330,"▁નશામાં":12331,"▁મૅગેઝીન":12332,"▁જટિલ":12333,"▁થપ્પડ":12334,"▁આનુ":12335,"▁હચમ":12336,"▁બગી":12337,"▁લટક":12338,"સ્મત":12339,"▁ખબરો":12340,"▁આપ્યાં":12341,"▁પાઈ":12342,"નિસ":12343,"▁બનાવટી":12344,"મુન":12345,"▁કરોડપતિ":12346,"▁જનજીવન":12347,"▁વરસાદથી":12348,"કાંક્ષી":12349,"▁ટાઇમ્સ":12350,"▁ડોલરની":12351,"કોંગ્રેસના":12352,"▁હેડક્વા":12353,"▁પર્દા":12354,"▁સંમેલન":12355,"▁ખાલિસ્તાની":12356,"▁ખેડુતો":12357,"▁ફેડરેશન":12358,"▁સંસાધ":12359,"▁કેટેગરીમાં":12360,"▁એલએસી":12361,"▁પ્રસાદે":12362,"▁વિશ્વવિદ્યાલય":12363,"▁એજે":12364,"▁માતૃ":12365,"▁થવામાં":12366,"તેઓ":12367,"▁લાહો":12368,"▁પહોચી":12369,"▁દિશાન":12370,"▁તબક્કે":12371,"▁અંદરથી":12372,"▁મુદ્દાઓને":12373,"▁યુવકો":12374,"ાયેલું":12375,"ભિષેક":12376,"▁વાદળો":12377,"▁રશ્મિકા":12378,"▁સંકલન":12379,"▁મજબૂતી":12380,"▁એપ્લિકેશન":12381,"શય":12382,"ુશ":12383,"રુદ્દીન":12384,"▁ઠંડા":12385,"▁વોક":12386,"▁અમેરિકાને":12387,"વિંદર":12388,"▁ધારાસભ્યોના":12389,"▁પાર્વતી":12390,"▁સ્ટેશનો":12391,"▁ઉતારવામાં":12392,"▁આગેવાનીમાં":12393,"▁નક્સલી":12394,"▁અસ્થાયી":12395,"▁કમાંડર":12396,"▁સીઆરપીએફ":12397,"▁ગાજવીજ":12398,"▁કવાયત":12399,"ઉડ":12400,"મણો":12401,"▁રક્ત":12402,"▁વિભિ":12403,"▁જેવુ":12404,"▁પાર્ટીમાંથી":12405,"▁ચોક્સી":12406,"▁મુખ્યમંત્રીને":12407,"▁બંધક":12408,"▁ચિન્":12409,"▁૪૦":12410,"▁વાદળી":12411,"▁લોકડાઉ":12412,"▁નિયુક્તિ":12413,"▁સ્વદેશી":12414,"▁એમ્બેસે":12415,"ળિયા":12416,"▁અવે":12417,"▁રુદ":12418,"▁શંક":12419,"▁આપીએ":12420,"ર્ટર":12421,"▁મુખ્યમંત્રીઓ":12422,"▁અવરો":12423,"▁ગુરુવારના":12424,"▁ગુરુગ્રામ":12425,"▁હત્યાકાંડ":12426,"▁ફાટ":12427,"▁સૂર્યની":12428,"પાર્ટી":12429,"▁કિમીની":12430,"▁ઢો":12431,"▁યુક્રેનની":12432,"▁ધમકીઓ":12433,"▁વિરોધીઓ":12434,"▁માફક":12435,"▁આશ્રમમાં":12436,"▁સ્ટુડિયો":12437,"▁નડ્ડા":12438,"▁બળજબરીથી":12439,"▁દેવવ્રત":12440,"નિલ":12441,"પર્સ":12442,"શલ":12443,"▁કેલિ":12444,"▁થવો":12445,"▁કોમ્":12446,"▁લોન્ડર":12447,"મીટર":12448,"▁માંડી":12449,"િકાને":12450,"▁સાંજના":12451,"કરિશ્મા":12452,"▁અધિકારીના":12453,"▁વિશ્વને":12454,"▁રામના":12455,"▁અસરથી":12456,"▁જરૂરથી":12457,"▁ઇન્ટર":12458,"▁લાઈટ":12459,"▁મેળવ્યું":12460,"▁લિયોને":12461,"▁નીપજ્યાં":12462,"▁રમખાણ":12463,"▁પુછપરછ":12464,"▁ગૅંગ":12465,"મિયા":12466,"▁પ્રસિ":12467,"▁રહેલો":12468,"▁લેન્ડર":12469,"▁રૂા":12470,"▁મુખર્જીએ":12471,"▁અરબી":12472,"▁નવાઝુ":12473,"▁હોસ્પિટલો":12474,"▁ચૂકવવા":12475,"▁જયશંકરે":12476,"▁ગેરંટી":12477,"▁નાગરિકોના":12478,"▁કાઢીને":12479,"▁ફૂલો":12480,"▁શેટ્ટ":12481,"▁શંકરસિંહ":12482,"▁પોરબંદ":12483,"▁ઠેસ":12484,"▁પાયલોટ":12485,"છવાયા":12486,"વવું":12487,"રાદૂ":12488,"યાત્રી":12489,"▁કોમન":12490,"કેફ":12491,"સેન":12492,"▁ઇમો":12493,"▁રેતી":12494,"▁મૂર્":12495,"▁સુરક્ષાના":12496,"સુવિધા":12497,"▁સેનામાં":12498,"▁આંશિક":12499,"▁કૅરિય":12500,"▁એડમિ":12501,"એનસી":12502,"▁ગિરિ":12503,"▁રનૌ":12504,"▁મુલાકાતમાં":12505,"▁ગૂગ":12506,"▁ડબ્લ્યુ":12507,"▁તલવાર":12508,"▁વોટ્સએપ":12509,"વટ":12510,"ેલે":12511,"૭૦":12512,"▁આક્રો":12513,"▁સ્કોર":12514,"▁રહેમાન":12515,"▁કામને":12516,"▁વેડિંગ":12517,"▁છે\nઆવી":12518,"ર્મલ":12519,"▁અન્યને":12520,"▁ઠપ":12521,"▁લગાવો":12522,"▁લગ્નનો":12523,"▁ફરતી":12524,"▁જોડાય":12525,"▁મંડી":12526,"▁બેંકમાં":12527,"▁નિર્દેશન":12528,"▁લક્ષ્મણ":12529,"જીનઃ":12530,"▁સદસ્ય":12531,"▁શર્લિન":12532,"▁જનસભાને":12533,"હતો":12534,"▁જિમ":12535,"▁અરૂણ":12536,"▁બમણી":12537,"▁મોની":12538,"લોકો":12539,"▁મેવા":12540,"▁ઈમાન":12541,"▁ખાડી":12542,"▁બનવાના":12543,"▁નિર્ણયની":12544,"▁ટ્રેનના":12545,"▁સ્થાપક":12546,"▁સમુદાયને":12547,"▁ઘેરાય":12548,"▁અમીષા":12549,"▁મફતમાં":12550,"ગ્રેડ":12551,"▁વિસર્જન":12552,"▁પોતપોતાના":12553,"બિલિટી":12554,"▁સિલસિલો":12555,"\nના":12556,"ઓવર":12557,"પિક":12558,"બસ્ટર":12559,"▁કમો":12560,"▁હટા":12561,"▁કેદની":12562,"▁એલોન":12563,"▁ખવડ":12564,"▁આપઘાત":12565,"▁ધટના":12566,"રુખે":12567,"▁તેમનાથી":12568,"▁રાખશું":12569,"▁અમરનાથ":12570,"▁રેવ":12571,"રફ્ર":12572,"▁જુનિયર":12573,"▁બેઠકના":12574,"▁સહુ":12575,"▁સ્થાનિકો":12576,"▁લડત":12577,"▁નિકળી":12578,"▁ઉંડા":12579,"▁હાર્દિકે":12580,"▁એફિડે":12581,"બૂબા":12582,"\nત્યારે":12583,"માબાદ":12584,"્યતન":12585,"▁બેદી":12586,"▁ખાવાનું":12587,"▁ટેક્સી":12588,"▁ઘટનાક્રમ":12589,"▁શ્રીરામ":12590,"▁નિર્માણમાં":12591,"▁અદ્યતન":12592,"▁દરિયામાં":12593,"▁આઈએસ":12594,"▁ફોર્મ્યુ":12595,"▁ક્લબમાં":12596,"▁શણગાર":12597,"▁મેડીકલ":12598,"ૈન":12599,"▁જૉન":12600,"▁એલે":12601,"▁ફોડ":12602,"ેશનને":12603,"સ્ટી":12604,"▁લેડી":12605,"ગીય":12606,"▁ઉત્પીડ":12607,"▁ગોલ":12608,"▁દિધો":12609,"▁શ્રીવાસ્તવ":12610,"▁કાર્યવાહીમાં":12611,"▁ઑફિસર":12612,"▁ભાઈબહે":12613,"▁સંક્રમણને":12614,"▁સૂત્રોનું":12615,"▁કરાચી":12616,"▁પૃષ્ઠ":12617,"▁ખોલવા":12618,"▁હેડલાઇ":12619,"▁હલચલ":12620,"▁સંગ્રહાલય":12621,"▁વર્ચસ્વ":12622,"ડબ્":12623,"▁સગા":12624,"નાથી":12625,"▁તાઇ":12626,"▁નકલ":12627,"▁રાશન":12628,"▁વાણ":12629,"▁જાપાની":12630,"▁મહિન્દ્રા":12631,"▁સમાપન":12632,"▁હાડ":12633,"▁હાશ":12634,"▁ભૂલો":12635,"▁બૉસના":12636,"▁રામલ":12637,"▁મનપસંદ":12638,"▁અભિયાનની":12639,"▁ઉકેલવા":12640,"▁સગર્":12641,"▁આકાશમાં":12642,"▁તથ્યો":12643,"▁અગિયાર":12644,"▁કૌભાંડમાં":12645,"▁રાતોરાત":12646,"▁વેરિએન્ટ":12647,"અમદાવાદ":12648,"મૃત":12649,"હિયા":12650,"▁મલાઇકા":12651,"ડીઝલ":12652,"▁આગવી":12653,"▁વેલેન્ટ":12654,"▁બિશ્નો":12655,"▁કિનારા":12656,"▁અપટેડ":12657,"▁ધીરજ":12658,"▁ગાંધીનગરના":12659,"આઈએમ":12660,"▁જૂથના":12661,"▁મથકો":12662,"▁બૂસ્ટર":12663,"▁સંગઠનોએ":12664,"▁મીટિંગમાં":12665,"▁શ્રાદ્ધ":12666,"▁દરિયાકાંઠાના":12667,"▁હ્રદય":12668,"▁પીઓકે":12669,"▁ઉડ્ડયન":12670,"ફ્યૂ":12671,"ૂના":12672,"▁વટાવી":12673,"▁કેશુ":12674,"▁આપનારા":12675,"▁હોટે":12676,"ાલયો":12677,"મ્મસ":12678,"▁વેણુ":12679,"રણબીર":12680,"▁કિસ્મત":12681,"હિણી":12682,"▁વોશિંગ્ટન":12683,"▁રાષ્ટ્રપતિને":12684,"▁અગાઉથી":12685,"▁હરકતો":12686,"▁કસ્ટડી":12687,"▁બ્યુરો":12688,"૬૦":12689,"નેજ":12690,"▁રાજપક્ષે":12691,"▁લેનારા":12692,"મોના":12693,"▁તાના":12694,"▁શકાયું":12695,"▁જીતની":12696,"▁લિપ":12697,"▁જમીનમાં":12698,"▁ઓપરે":12699,"ચલિત":12700,"િજ્ય":12701,"▁પ્રજાપતિ":12702,"▁હાઇકોર્ટમાં":12703,"▁ઈન્સ્ટીટ":12704,"▁કાર્યકરોને":12705,"▁અસદુદ્દીન":12706,"▁હેરિટેજ":12707,"ંશી":12708,"▁સામા":12709,"સ્તાનમાં":12710,"▁ચાવી":12711,"▁જોઈએ\nઆ":12712,"▁બોલવા":12713,"▁ફરિયાદી":12714,"▁ઉજવી":12715,"▁આશાઓ":12716,"▁રાવણ":12717,"▁સ્ટોક":12718,"\nવૃ":12719,"▁સાંસદોએ":12720,"▁વ્હીકલ":12721,"▁પૌરાણિક":12722,"▁હરાવી":12723,"▁પરંતું":12724,"▁કાસ":12725,"▁કડવા":12726,"▁જળવા":12727,"▁તંગી":12728,"▁દળની":12729,"▁માનના":12730,"હેલા":12731,"▁જેલના":12732,"▁પોલના":12733,"▁સોગ":12734,"▁દિવસને":12735,"સરકારી":12736,"▁મંદિરને":12737,"▁આરોપીઓએ":12738,"▁સૂર્યના":12739,"▁દારૂના":12740,"▁છે\nકેન્દ્રીય":12741,"▁ટુંકમાં":12742,"▁સૂર્યાસ્ત":12743,"ઇસ":12744,"કપ":12745,"ીકરણ":12746,"▁કેકે":12747,"▁એરો":12748,"▁ચળ":12749,"▁ઘડિયા":12750,"▁રહેવુ":12751,"▁તમારુ":12752,"▁લેપ":12753,"પોસ્ટ":12754,"▁કિડની":12755,"બોર્ડ":12756,"▁કોઇએ":12757,"▁સૂચિત":12758,"મણિ":12759,"▁શેરી":12760,"▁સ્ટેડિયમ":12761,"▁હટાવવાની":12762,"▁ગુનામાં":12763,"▁મલેશ":12764,"▁મરાઠા":12765,"▁માછલી":12766,"▁પ્લોટ":12767,"▁ડિલિવરી":12768,"વનારા":12769,"▁વૉર્ડ":12770,"▁શેલ":12771,"▁ગ્વા":12772,"▁સાંક":12773,"રેલા":12774,"▁મોનિટ":12775,"કાળી":12776,"લેખ":12777,"ક્ષીએ":12778,"મ્પર":12779,"▁દિવ્ય":12780,"▁કાળો":12781,"▁પાસેના":12782,"▁માનવુ":12783,"▁સહમતિ":12784,"▁નિયત":12785,"▁થવાનુ":12786,"▁એન્ટરટે":12787,"ધ્યાય":12788,"▁દીકરીને":12789,"▁ગેંગસ્ટર":12790,"▁જન્મદિવસની":12791,"▁હૅપ્પી":12792,"▁ઑનલાઈન":12793,"▁ભડકી":12794,"▁સંતુષ્ટ":12795,"▁કાતિલ":12796,"શક":12797,"▁પન્નુ":12798,"▁સસ્તા":12799,"▁આચર":12800,"▁મંદ":12801,"▁દલ":12802,"▁એશિયન":12803,"▁સાધી":12804,"▁થ્ર":12805,"▁ધન્ય":12806,"▁બેલ":12807,"વિહો":12808,"▁ઈજાગ્રસ્ત":12809,"▁લેવ":12810,"▁પડતાં":12811,"▁ખાણ":12812,"▁મૂડમાં":12813,"▁વૈષ્ણ":12814,"▁શાંતિથી":12815,"▁ભૂકંપની":12816,"▁પ્રસ્તાવને":12817,"▁બ્રિટનના":12818,"▁મહાસભા":12819,"▁ઉત્પાદનમાં":12820,"▁સપનામાં":12821,"▁અન્વ":12822,"▁એગ્રી":12823,"પાટી":12824,"▁પહોંચ્યાં":12825,"▁લાખનો":12826,"▁પાણીથી":12827,"▁શકાય\n":12828,"▁સત્તાવાળા":12829,"▁ટિકૈ":12830,"▁યુપીની":12831,"ભૂતિ":12832,"▁ફ્રાંસ":12833,"▁વરસ્યો":12834,"▁નક્ષત્રમાં":12835,"▁વર્ણન":12836,"લન્સ":12837,"▁રાતના":12838,"▁પૂરની":12839,"પ્રમુખ":12840,"પોષણ":12841,"▁જનજાતિ":12842,"▁પાછુ":12843,"▁વિસ્તારથી":12844,"▁નિયમન":12845,"▁ગેલે":12846,"▁આકસ્મિક":12847,"▁યુવરાજ":12848,"▁સાધ્વી":12849,"▁વૉક":12850,"▁દળોના":12851,"▁મૈં":12852,"▁હૉસ્પિટલ":12853,"▁સંબંધીઓ":12854,"▁પ્રતિબદ્ધતા":12855,"▁સીતારમણ":12856,"▁ગડકરીએ":12857,"▁એડિશનલ":12858,"▁સુબ્રમણ્ય":12859,"▁પટિયાલા":12860,"ઉપ":12861,"બદ":12862,"ેય":12863,"૯૦":12864,"▁કદી":12865,"▁છાવ":12866,"નીતા":12867,"▁બપોર":12868,"▁નગરમાં":12869,"▁ગળા":12870,"▁વાંસ":12871,"▁અભિવ":12872,"▁પહોચ":12873,"▁ગોપ":12874,"▁લાખના":12875,"▁પતિની":12876,"▁ધરાશ":12877,"▁વ્યાવ":12878,"▁યોજાયેલા":12879,"▁કોલેજના":12880,"▁સીનિયર":12881,"▁ક્રોંગ્રેસ":12882,"▁સીઇઓ":12883,"ફલ":12884,"વવો":12885,"લ્લું":12886,"ાવવી":12887,"▁ઉમ્મી":12888,"▁છે\nધ":12889,"▁ઓક":12890,"સીડી":12891,"વિચાર":12892,"જાના":12893,"▁ઝંડી":12894,"▁ખૂણાની":12895,"▁ટેન્":12896,"▁મીટરની":12897,"▁રાષ્ટ્રના":12898,"▁અર્પિતા":12899,"▁એન્ટિ":12900,"ફાશ":12901,"▁કીર્તિ":12902,"▁પકડવામાં":12903,"▁સિનેમાના":12904,"▁ઝટપટ":12905,"▁પુષ્પ":12906,"▁નિશાનો":12907,"▁સ્થિરતા":12908,"▁અભ્યાસમાં":12909,"ઈસ":12910,"▁કાંડ":12911,"▁પબ્":12912,"▁રહેનાર":12913,"▁અભદ્ર":12914,"▁માંગવા":12915,"▁વિશ્વસનીય":12916,"▁કલમો":12917,"▁કેરિયર":12918,"▁ડાયમંડ":12919,"▁સાયકલ":12920,"▁સંતુલન":12921,"▁સત્યાગ્રહ":12922,"ંતા":12923,"▁વફા":12924,"ર્શિયલ":12925,"▁ખાં":12926,"▁એકઠી":12927,"▁નાસી":12928,"▁લાકડા":12929,"▁સ્ટ્રા":12930,"▁પડેલી":12931,"ત્રીના":12932,"▁મીડિયાની":12933,"▁પીછે":12934,"▁જાણીતો":12935,"▁સામંથા":12936,"▁લેવાયો":12937,"સાનું":12938,"▁મૂક્યા":12939,"▁ધૂળ":12940,"▁ગ્રેટ":12941,"▁છૂટાછવાયા":12942,"▁શત્રુઘ્ન":12943,"▁મુર્મુ":12944,"\nલ":12945,"બની":12946,"▁આહાર":12947,"▁આસિસ્ટ":12948,"▁થાઈ":12949,"▁સેંટ":12950,"▁રીયલ":12951,"▁શકતું":12952,"▁મૃતકોની":12953,"▁જીતનો":12954,"સ્ક્રીન":12955,"▁બહુજન":12956,"▁દેખાવા":12957,"▁રંગી":12958,"▁છોકરીને":12959,"▁દુર્ભાગ્ય":12960,"\nવડાપ્રધાન":12961,"▁સ્તરની":12962,"▁શિવાજી":12963,"▁ઇવેંટમાં":12964,"▁બળવાખોર":12965,"▁વિભિન્ન":12966,"જ્ય":12967,"તઃ":12968,"૧૫":12969,"▁કસર":12970,"▁વાકેફ":12971,"▁ઘરને":12972,"▁રહેવાના":12973,"▁જાનહાનિ":12974,"દુનિયા":12975,"ગોપાલ":12976,"▁કાયદાઓ":12977,"▁સમુદાયો":12978,"▁એકાદશી":12979,"▁સર્જાઇ":12980,"▁ફટકારવામાં":12981,"▁ઉછેર":12982,"▁જૌહર":12983,"▁ગ્રુપના":12984,"▁પેસેન્જર":12985,"ઘો":12986,"ફઘ":12987,"મલા":12988,"વૈયા":12989,"્રાજ":12990,"▁મઠ":12991,"▁સાચે":12992,"▁ઉન્ના":12993,"▁સંધ્યા":12994,"▁સિર":12995,"દાના":12996,"લિઝ":12997,"▁ડિટે":12998,"▁ચોરસ":12999,"▁શોને":13000,"▁ટ્રેનની":13001,"▁જયંતી":13002,"▁બનેલો":13003,"▁ચિંતાનો":13004,"▁અભિયાનને":13005,"▁સભ્યપદ":13006,"▁કહેવાયું":13007,"▁ખોલવાની":13008,"▁અતિથિ":13009,"▁મહત્વા":13010,"▁હેરિસ":13011,"▁સેન્સર":13012,"▁ઇન્દિરા":13013,"▁સુલતાન":13014,"▁એસેમ્બ":13015,"▁સંગ્રામ":13016,"▁ઓટોમોબાઇલ":13017,"૧૨":13018,"▁સવારી":13019,"વાણા":13020,"▁દહન":13021,"▁રહેતાં":13022,"મ્પો":13023,"શનમાં":13024,"▁અધૂ":13025,"▁અપાવવા":13026,"▁મંદિરોમાં":13027,"▁વિશ્વનાથ":13028,"▁કૉલે":13029,"▁આખરી":13030,"▁અબજો":13031,"▁સ્કૂલો":13032,"▁ઊંચી":13033,"▁મૂલ્યો":13034,"▁સમર્પણ":13035,"▁સિંધુ":13036,"▁કચરો":13037,"▁શિયાળુ":13038,"▁કાફલો":13039,"▁કશ્યપ":13040,"▁ઊભું":13041,"▁પર્દાફાશ":13042,"ચાં":13043,"▁મગર":13044,"▁પ્રવા":13045,"ટેલી":13046,"લ્સની":13047,"▁જોશીએ":13048,"▁છે\nતાજેતરમાં":13049,"▁મોસમ":13050,"ડાથી":13051,"▁ચેકિંગ":13052,"▁ક્રિશ":13053,"▁કૉલ":13054,"▁આંદોલનમાં":13055,"▁મુક્યો":13056,"▁દીકરીઓ":13057,"ઠ્ઠા":13058,"▁અત્યાધુનિક":13059,"▁ગુનેગાર":13060,"▁રૃપિયા":13061,"▁ફસાયા":13062,"ચર્ચ":13063,"દૂર":13064,"▁બાર્":13065,"▁કરના":13066,"▁છે\nરિપોર્ટ":13067,"▁સિરિય":13068,"▁ઉપરોક્ત":13069,"▁તમામને":13070,"▁યુનાઈટેડ":13071,"▁લેવાદે":13072,"▁સીમિત":13073,"▁રીક્ષા":13074,"▁પડવા":13075,"▁પડતું":13076,"જુઓ":13077,"▁વિચારસર":13078,"વર્ધ":13079,"▁સંગઠને":13080,"▁છે\nસલમાન":13081,"▁પુનર્":13082,"▁સરહદી":13083,"▁મહાસાગ":13084,"▁વિચારીને":13085,"▁એપિસોડમાં":13086,"▁રિસેપ્શન":13087,"મેડિયન":13088,"▁ત્રિપાઠી":13089,"▁જ્હાન્વી":13090,"▁સ્વાતંત્ર્ય":13091,"વર્ટ":13092,"▁સદીના":13093,"▁લડે":13094,"▁રાંચી":13095,"ટેલા":13096,"▁છે\nબી":13097,"▁છે\nસરકાર":13098,"▁સુઝુકી":13099,"▁રહેણાંક":13100,"▁ઇંતેજાર":13101,"▁જીવે":13102,"▁કાઠ":13103,"▁ગોધરા":13104,"▁વાંચવા":13105,"▁મધ્યમાં":13106,"▁ગઠબંધનના":13107,"▁પાઠક":13108,"▁મનાઈ":13109,"▁કહેવાતા":13110,"▁પુષ્પા":13111,"▁મિનિટે":13112,"▁આલોચના":13113,"▁કમોસમી":13114,"▁લેવાદેવા":13115,"ગને":13116,"▁બ્રો":13117,"▁ગંદી":13118,"લામ":13119,"કોઈ":13120,"▁જોશો":13121,"▁ધ્યે":13122,"મ્મા":13123,"▁સુધીનું":13124,"▁લેવાય":13125,"▁દિવસનું":13126,"▁હાલા":13127,"▁ટ્રુ":13128,"▁કપૂરનો":13129,"▁સવાલના":13130,"▁ફ્લાય":13131,"▁માનવતા":13132,"ઠ્ઠ":13133,"▁ફટકો":13134,"▁ભણસા":13135,"▁ક્વોરેન્ટ":13136,"▁મોકલે":13137,"▁મુરલી":13138,"▁બનનાર":13139,"▁મલયાલમ":13140,"▁એમ્બેસેડર":13141,"પતા":13142,"▁મર્ચ":13143,"▁હોટેલ":13144,"▁ફિલ્મોને":13145,"▁પુડુચે":13146,"▁નેતાઓમાં":13147,"▁ફેવરિટ":13148,"▁ટ્રંપ":13149,"▁પૂછવા":13150,"▁જમીનની":13151,"▁બચ્ચનના":13152,"▁જવાનોની":13153,"▁ન્યાયમૂર્તિ":13154,"▁ફોટોશૂટમાં":13155,"▁ગરમીથી":13156,"▁એક્સપ્રેસના":13157,"વાહિક":13158,"ગામમાં":13159,"▁પલટી":13160,"▁છે\nનરેન્દ્ર":13161,"▁કિંમતો":13162,"હાર્દિક":13163,"ગરા":13164,"લિયન":13165,"▁બડ":13166,"▁દવે":13167,"લ્ફ":13168,"કેન્દ્રીય":13169,"▁કહાણી":13170,"▁અનુચ્છેદ":13171,"▁મૂકે":13172,"▁મહેતાએ":13173,"▁ચિઠ્ઠી":13174,"▁ઐશ":13175,"▁પાટનગર":13176,"▁ભગવાનને":13177,"▁ચોકીદાર":13178,"▁નેહરુ":13179,"▁મજબુત":13180,"પાવર":13181,"▁હસી":13182,"▁મક્":13183,"▁નિત":13184,"▁સ્મિત":13185,"ાસત્તા":13186,"▁ઇનો":13187,"▁ભારતથી":13188,"▁અભૂત":13189,"▁પડયો":13190,"▁શુટિંગ":13191,"▁એમપી":13192,"▁બતાવ્યું":13193,"સિંઘ":13194,"▁લક્ષદ્":13195,"▁હૈદર":13196,"▁વૉટ્સ":13197,"▁કેનેડાના":13198,"▁આયુષ્ય":13199,"▁બેન્ચે":13200,"▁પ્રણાલી":13201,"ગૃહ":13202,"મધ્ય":13203,"૨૩":13204,"ારુ":13205,"▁હકારાત્મક":13206,"▁ખાંડ":13207,"રોનું":13208,"▁ઘડી":13209,"▁લાકડી":13210,"▁રાજ્યપાલે":13211,"▁દુષ્":13212,"ગ્રહો":13213,"કરાર":13214,"ફોર્ડ":13215,"▁સલમાનને":13216,"▁સ્કર્ટ":13217,"▁તાજેતરની":13218,"▁નિષ્પક્ષ":13219,"▁ટીવીના":13220,"▁ઢોર":13221,"▁ચુસ્ત":13222,"▁વસું":13223,"▁અરોરાએ":13224,"▁મારુતિ":13225,"ક્ટિવિટી":13226,"દવ":13227,"ૂએ":13228,"૪૦":13229,"▁કયો":13230,"▁કિટ":13231,"▁પલક":13232,"▁પ્રેશર":13233,"▁છે\nબા":13234,"▁છે\nપાકિસ્તા":13235,"કાશી":13236,"લેરિયા":13237,"▁નાજ":13238,"▁રહીશ":13239,"▁અનુસર":13240,"▁અભિષે":13241,"▁પેકેટ":13242,"ગ્રહી":13243,"▁સૂદ":13244,"▁કૉર્":13245,"▁પ્રશ્નના":13246,"▁જુલાઈમાં":13247,"▁અલર્ટ":13248,"▁ઉમેર્યુ":13249,"▁સહયોગથી":13250,"▁ભરેલું":13251,"▁સેલિબ્રિટીઓ":13252,"▁રિટર્":13253,"▁ફેસ્ટિવલમાં":13254,"▁વૈભવ":13255,"▁ઈશારો":13256,"▁રડાર":13257,"▁આઇએસઆઇએસ":13258,"▁ધામધૂમથી":13259,"એક્સ":13260,"▁વતની":13261,"▁નખ":13262,"▁ઓઈલ":13263,"ભાષા":13264,"ચ્છી":13265,"▁જાણકારો":13266,"▁ભાડે":13267,"▁મતદાનની":13268,"▁અત્યારથી":13269,"▁કમબેક":13270,"▁વ્યાપારી":13271,"▁સંસ્કૃત":13272,"▁અણ્":13273,"▁ચોંકાવનારો":13274,"▁ટોચની":13275,"▁ડિરેક્ટોરેટ":13276,"▁અધિક્ષક":13277,"▁અન્વયે":13278,"ચડી":13279,"▁બટન":13280,"▁ઘર્ષ":13281,"▁નાચ":13282,"▁લાગ્યાં":13283,"▁બિમાર":13284,"જોર":13285,"▁કારણસર":13286,"▁મૂંઝ":13287,"▁ટકાની":13288,"▁સહમત":13289,"▁કાયદામાં":13290,"▁પિસ્તો":13291,"▁એચડી":13292,"▁તેલંગાણાના":13293,"▁પ્રભુત્વ":13294,"▁માનવાધિકાર":13295,"▁મિલ્ખા":13296,"▁આશુ":13297,"િક્ટ":13298,"▁કોઓ":13299,"▁જેક":13300,"▁ઉમા":13301,"▁છે\nલ":13302,"▁સ્નાત":13303,"▁મુન્ના":13304,"ાગા":13305,"▁મહામંત્રી":13306,"▁માંગ્યા":13307,"▁સુરતની":13308,"પ્રધાનમંત્રી":13309,"▁મીઠા":13310,"▁વિશ્વભરના":13311,"▁સલામ":13312,"▁ઘટાડી":13313,"\nજોકે":13314,"▁આંખોમાં":13315,"▁રેડ્ડીએ":13316,"▁રિફ્રેસ":13317,"કુંડ":13318,"▁શાહીન":13319,"પાયે":13320,"ાવિ":13321,"▁વધતો":13322,"▁વર્ષા":13323,"ભાઈએ":13324,"▁નોમિનેશન":13325,"▁શક્યાં":13326,"▁સુરજે":13327,"▁ગ્રંથ":13328,"▁અધિકારીની":13329,"▁મારતા":13330,"▁હવાલાથી":13331,"▁છે\nહાલ":13332,"▁ધરાવતો":13333,"▁એનસીપીના":13334,"▁પ્રમોશનમાં":13335,"▁મજૂરોને":13336,"▁સોસાયટીમાં":13337,"▁સ્ટીલ":13338,"▁પહાડો":13339,"▁કાગળ":13340,"▁ફેસ્ટિવલ":13341,"▁કઠોર":13342,"▁અભૂતપૂર્વ":13343,"ડાન":13344,"પેશ":13345,"▁જર":13346,"▁વસ્ત્ર":13347,"▁ગંદ":13348,"▁માગી":13349,"▁માઉન્ટ":13350,"▁કોર્સ":13351,"▁લોકેશન":13352,"▁બનવાનું":13353,"▁દાણ":13354,"▁અધ્યક્ષે":13355,"▁છે\nઅગાઉ":13356,"▁એલઓસી":13357,"જિસ્ટ":13358,"▁અંદાજિત":13359,"▁મોડું":13360,"▁નીકળ્યો":13361,"▁ફાઇટર":13362,"▁લીડર":13363,"▁જરૂરિયાતમંદ":13364,"▁છે\nબૉલીવુડ":13365,"▁મેગેઝિન":13366,"▁છે\nચી":13367,"ધીન":13368,"▁ઇટા":13369,"▁ઉત્તે":13370,"શિતા":13371,"ત્વના":13372,"▁મંત્રીઓને":13373,"▁વિભાગો":13374,"▁ડીપ":13375,"▁રણવી":13376,"▁શિખ":13377,"▁મંત્રાલયની":13378,"▁શાસનમાં":13379,"▁પૂછપરછમાં":13380,"▁સ્કૂલના":13381,"▁અભિવ્ય":13382,"ઝૂ":13383,"▁કિલર":13384,"▁બિટ":13385,"▁શમી":13386,"▁ચન્ની":13387,"▁રામે":13388,"▁ખંભા":13389,"▁છે\nભ":13390,"▁બેલેટ":13391,"ડાઇ":13392,"▁પડયા":13393,"▁ગાંધીનું":13394,"▁યાત્ર":13395,"▁લોકતાંત્રિક":13396,"▁કુમારી":13397,"▁ચૂકવવામાં":13398,"▁સમાચારા":13399,"ચાલી":13400,"▁ભરવાની":13401,"▁ફિલ્મોથી":13402,"▁જવાબદારીઓ":13403,"▁ટાઇટલ":13404,"▁બળાત્કારના":13405,"▁બાંગ્લાદેશમાં":13406,"▁પુષ્કર":13407,"▁હમાસના":13408,"▁ફડણવીસે":13409,"▁માધવ":13410,"▁મોંઘા":13411,"▁સર્કિટ":13412,"▁બ્રહ્માસ્ત્ર":13413,"▁હુડ્":13414,"ગોલ":13415,"પૉ":13416,"ફૅર":13417,"ાઓ":13418,"▁અતી":13419,"▁માવ":13420,"હેલો":13421,"તેના":13422,"જેમાં":13423,"▁ઇલિયાના":13424,"▁ડિસ":13425,"▁જાહેરના":13426,"▁યાદો":13427,"આઈને":13428,"▁ભર્યા":13429,"▁કલરની":13430,"▁વિશેષતા":13431,"▁અર્થમાં":13432,"▁કેરિય":13433,"ંદુર":13434,"▁સ્ટેશને":13435,"▁અડગ":13436,"▁પુનરાવ":13437,"▁બેરોજગાર":13438,"▁કાપીને":13439,"▁સક્સેના":13440,"▁માસૂમ":13441,"દગી":13442,"્ઝ":13443,"નામી":13444,"▁લથ":13445,"હીન":13446,"રોપી":13447,"મોને":13448,"▁ગોવાના":13449,"▁વિધાનસ":13450,"▁ટ્રાય":13451,"▁નિવેદનથી":13452,"દારોને":13453,"▁રોકાયા":13454,"સંજય":13455,"▁શૂટિંગમાં":13456,"▁મેળવનાર":13457,"ગ્રાફ":13458,"▁દેવાયા":13459,"નિર્માણ":13460,"▁અનિશ્ચિત":13461,"▁બધો":13462,"▁દગો":13463,"રાજી":13464,"▁આવૃત્તિ":13465,"▁છે\nપ્રિયંકા":13466,"▁નાનું":13467,"નિશ":13468,"▁ક્રિયા":13469,"▁આયોજીત":13470,"▁૨૬":13471,"▁શેરાવ":13472,"▁કાયદાનો":13473,"▁મૂકવા":13474,"▁વધારવાનો":13475,"▁ઈન્વેસ્ટ":13476,"▁હટાવવામાં":13477,"▁ગરમીનો":13478,"સ્વામીએ":13479,"▁કારકિર્દીમાં":13480,"▁પરિવર્તનની":13481,"▁મથુરા":13482,"▁ખાતમુ":13483,"▁બદમાશો":13484,"▁વાણિજ્ય":13485,"▁સગર્ભા":13486,"▁ધરાશાયી":13487,"ગતિ":13488,"ભરની":13489,"નાયક":13490,"▁હાવ":13491,"▁લૅ":13492,"▁શ્યામ":13493,"▁આગો":13494,"▁બદલાઇ":13495,"▁ચેન્જ":13496,"મુખી":13497,"▁મહાશિવ":13498,"નંદા":13499,"▁કુમારસ્વામી":13500,"▁નિકટ":13501,"▁સમજવા":13502,"▁ખરીદવાની":13503,"▁ફોલોઈંગ":13504,"▁ચતુર્વે":13505,"▁જથ્થા":13506,"▁ફતેહ":13507,"▁વિપુલ":13508,"▁દિશાનિ":13509,"કન્યા":13510,"તારા":13511,"૮૦":13512,"વાયુ":13513,"્રાસ":13514,"▁વહા":13515,"▁તેરે":13516,"જેન્દ્ર":13517,"ંકલ":13518,"▁વેતન":13519,"▁ચાણ":13520,"હિર":13521,"▁પક્ષોની":13522,"▁ગેસના":13523,"▁રજૂઆ":13524,"પરાંત":13525,"▁બ્રાઝિલ":13526,"▁જવાનોના":13527,"▁તાલુકાઓમાં":13528,"▁આદિજાતિ":13529,"▁મસ્કે":13530,"▁વ્યવસાયમાં":13531,"▁બાંગ્લાદેશના":13532,"▁ચાંદીના":13533,"શાસન":13534,"▁સ્ટાઇલિશ":13535,"▁કન્ટેસ્ટ":13536,"▁પૂજારી":13537,"▁બુલંદ":13538,"▁ઘૂસણખોરી":13539,"ફાયર":13540,"શહે":13541,"સહ":13542,"૪૫":13543,"▁પાય":13544,"તાપૂર્વક":13545,"▁નરો":13546,"▁રાવે":13547,"▁વિહાર":13548,"▁મુસલમાન":13549,"▁બેલ્ટ":13550,"▁ઈમો":13551,"▁નોબેલ":13552,"પાક":13553,"▁પંથ":13554,"▁રાજ્યોએ":13555,"▁કરાવ્યુ":13556,"▁એરલાઇ":13557,"▁શિવકુમાર":13558,"ચરલ":13559,"▁કર્મચારીઓએ":13560,"▁પ્રક્રિયાને":13561,"▁પૃથ્વીની":13562,"▁ઈરાનના":13563,"▁અપમાનજનક":13564,"▁લાઈફમાં":13565,"▁નીપજ્યા":13566,"▁ફિલિ":13567,"લૈ":13568,"માલા":13569,"▁જોયુ":13570,"ત્તરાખંડ":13571,"▁ભારપૂર્વક":13572,"જીવી":13573,"▁ઝાય":13574,"▁શોખી":13575,"▁બતાવીને":13576,"▁સ્ટારર":13577,"▁ઉજાગર":13578,"▁ઓગસ્ટમાં":13579,"▁જામનગરમાં":13580,"▁રાજ્યપાલને":13581,"પત્રમાં":13582,"▁અમૃતપાલ":13583,"▁છે\nભારતમાં":13584,"▁ભરતસિંહ":13585,"▁ગ્રોવર":13586,"ક્ષ્મી":13587,"▁ઈલેક્ટ્રોનિક":13588,"▁તોફાની":13589,"\nવાત":13590,"ળથી":13591,"▁પંપ":13592,"▁સેશન":13593,"▁બ્યૂટી":13594,"▁ગળામાં":13595,"▁પરે":13596,"▁સંતાનો":13597,"▁ઘાસ":13598,"▁મેમ્બર":13599,"મ્મત":13600,"▁ઈશ્વર":13601,"▁વડાપ્રધાનની":13602,"▁મોકલવાની":13603,"▁ટાળવા":13604,"▁પેટમાં":13605,"▁ફીચર":13606,"▁ફાઇન":13607,"સમર્પણ":13608,"▁વહીવટ":13609,"▁ગાર્ડન":13610,"▁બિલ્ડિંગમાં":13611,"▁છે\nકોરોના":13612,"▁રિવરફ્ર":13613,"પરિણી":13614,"▁પ્રાંતમાં":13615,"▁હાફિઝ":13616,"▁ઇન્ટરવ્યૂમાં":13617,"▁ગોયલે":13618,"▁વુહાન":13619,"માઈ":13620,"▁ઇનિંગ":13621,"▁અધ્યા":13622,"▁રેકેટ":13623,"▁ચેતન":13624,"▁પ્રધાનમંત્રીએ":13625,"▁ખોલીને":13626,"▁કાઢ્યો":13627,"▁મૃત્યુની":13628,"▁ઘરનું":13629,"▁યોજાયો":13630,"▁પ્રજાસત્તા":13631,"ૌરી":13632,"▁સસ્તી":13633,"▁તુમ":13634,"▁મિયા":13635,"▁પ્રજ્ઞા":13636,"▁થવુ":13637,"સ્પી":13638,"શ્ન":13639,"▁ઇમેજ":13640,"▁થયી":13641,"▁જીવિત":13642,"▁ટ્રેકિંગ":13643,"▁વિશ્વનો":13644,"▁પ્રેમિકા":13645,"▁ડ્રગ્ઝ":13646,"▁ચુક્યો":13647,"▁મૉડ":13648,"પટ્ટી":13649,"▁ભગવાનના":13650,"▁કનેક્ટિવિટી":13651,"▁ધુમા":13652,"▁ગોરખપુર":13653,"▁રેસ્ક્યુ":13654,"▁પ્રેક્ટિસ":13655,"▁આક્રોશ":13656,"ટલા":13657,"મહે":13658,"લેશ":13659,"▁તંગ":13660,"▁બારા":13661,"▁કોવે":13662,"▁જેનુ":13663,"▁ઉલ્ટા":13664,"રોડ":13665,"િયન્સ":13666,"ળીઓ":13667,"▁એમઓ":13668,"▁ઑટો":13669,"▁ભાવનગરમાં":13670,"▁મૃતકોના":13671,"▁એરલાઈ":13672,"લ્સને":13673,"▁રસીની":13674,"▁લડતા":13675,"સંહિતા":13676,"▁મૌલાના":13677,"▁યુઝર્સે":13678,"▁બંધારણની":13679,"▁સળગાવી":13680,"▁રોમાંચક":13681,"▁ચાવલા":13682,"▁સ્ટ્રોક":13683,"બરૂ":13684,"વાણ":13685,"નાગ":13686,"▁તબ્":13687,"▁સાનુ":13688,"▁સામુ":13689,"▁ખાય":13690,"ાન્ટ":13691,"▁જોશ":13692,"તિઓ":13693,"▁સંસ્":13694,"▁નારી":13695,"▁રોશની":13696,"▁દેસા":13697,"પૂજા":13698,"▁પ્રતિબ":13699,"▁જણાવીશું":13700,"▁શેડ":13701,"▁ઘોડા":13702,"▁માલૂમ":13703,"▁કુંદ્રા":13704,"▁અટકેલા":13705,"▁સપાના":13706,"▁સીએન":13707,"▁કિંમતે":13708,"▁સત્તાર":13709,"▁ડાયાબ":13710,"▁પતિપત્ની":13711,"▁સૈયદ":13712,"માર્":13713,"▁છાં":13714,"▁શખ્":13715,"▁ચઢી":13716,"▁ઉવ":13717,"▁હોદ્":13718,"▁હોદ્દા":13719,"▁પૂરના":13720,"ધાનું":13721,"▁અનુરૂપ":13722,"▁પહોંચેલી":13723,"▁બનાવવી":13724,"બોરેટ":13725,"▁છે\nઅમેર":13726,"▁અફસોસ":13727,"▁શીખી":13728,"▁ટેસ્ટિંગ":13729,"▁મેળવવાનો":13730,"▁ગ્રેનેડ":13731,"▁મિનિટમાં":13732,"▁માતાપિતાને":13733,"▁વિશાખા":13734,"▁કેનેડામાં":13735,"▁શેટ્ટીની":13736,"▁પટનામાં":13737,"▁ગોઠવવામાં":13738,"▁પરાજય":13739,"▁અશરફ":13740,"▁મોરચાના":13741,"▁ટીઆરપી":13742,"▁કેમિકલ":13743,"▁અવરોધો":13744,"▁દિશાનિર્દેશ":13745,"ભરી":13746,"▁સજ્":13747,"▁સિબ્બ":13748,"ધાન્ય":13749,"▁લેબર":13750,"▁ડિસ્ટ્ર":13751,"▁દુઆ":13752,"▁ટેપ":13753,"▁પેન્ડિંગ":13754,"▁મોટાપાયે":13755,"▁ઓફિશિયલ":13756,"નિકેશન":13757,"▁શિક્ષકોને":13758,"▁ફાઇલ":13759,"▁જલંધ":13760,"શાહરૂખ":13761,"▁અહં":13762,"▁સુનિલ":13763,"▁શરણાર્થી":13764,"▁પરફોર્મન્સ":13765,"▁વ્યાવસાય":13766,"\nમાં":13767,"રક્ષા":13768,"હવામાન":13769,"માટે":13770,"▁છત્ર":13771,"▁હસીન":13772,"સ્ડ":13773,"▁મોઢા":13774,"▁મુજા":13775,"▁માંસ":13776,"▁દેશે\n":13777,"▁કાચા":13778,"▁તેમનાં":13779,"▁મિસાઇ":13780,"▁ડિરેક્ટ":13781,"▁સિંહા":13782,"▁મહિલાનો":13783,"\nઆપ":13784,"▁અતુલ":13785,"▁સ્થિતિની":13786,"▁ચંદ્રા":13787,"▁ગણિત":13788,"▁પ્રેમથી":13789,"▁ઓગસ્ટથી":13790,"▁નેતૃત્વવાળી":13791,"▁આંદોલનના":13792,"▁ગાયિકા":13793,"▁ખરીદવામાં":13794,"▁આર્ટી":13795,"▁કબૂલ":13796,"મૂન":13797,"▁સ્ટેટસ":13798,"▁માનસિકતા":13799,"▁કિશોરી":13800,"▁અલ્હાબાદ":13801,"▁સ્વિમિંગ":13802,"▁નોઈડા":13803,"▁મૉડેલ":13804,"▁ટકરાવ":13805,"▁મતાધિકાર":13806,"ખાસ":13807,"ેન":13808,"૭૫":13809,"▁હડ":13810,"▁ઉન્ન":13811,"▁ઓપી":13812,"▁કોઈક":13813,"▁લેતાં":13814,"▁લાવીને":13815,"▁ઉત્કૃ":13816,"▁કેન્દ્રને":13817,"▁મહિનાઓ":13818,"▁ડોર":13819,"▁ઉઠાવવા":13820,"▁સમર્થકોએ":13821,"▁શીર્ષ":13822,"▁દર્દીને":13823,"▁કાર્પેટ":13824,"▁દરિયાકાં":13825,"▁ડિઝાઈન":13826,"▁નાણાંકીય":13827,"▁કિશોરે":13828,"▁ક્લિપ":13829,"▁કોરિયાના":13830,"▁ગ્રોથ":13831,"▁બિડેન":13832,"હાઉસ":13833,"▁યમુના":13834,"▁પીછેહ":13835,"કબાલ":13836,"ગેશન":13837,"જણ":13838,"વિત":13839,"ૈય":13840,"ોથી":13841,"ારામ":13842,"▁હરણ":13843,"▁હુકમ":13844,"▁એપી":13845,"▁જેકલીન":13846,"▁દીવાની":13847,"▁કાલા":13848,"▁હવેલી":13849,"▁રાખવાના":13850,"▁ભાગની":13851,"▁ગોહિલ":13852,"▁મૂડ":13853,"▁પ્રદેશોમાં":13854,"▁વરસાદનું":13855,"▁નવાઈ":13856,"બેને":13857,"▁કંપનીઓના":13858,"▁દેખાવો":13859,"▁આત્મસમર્પણ":13860,"▁ટૂંકા":13861,"▁એનઆરસી":13862,"▁પ્રીમિયર":13863,"▁ઇન્ટરવ્યુમાં":13864,"▁કુરૈ":13865,"▁ડબ્લ્યુએચ":13866,"ફટ":13867,"હલ":13868,"▁સઇ":13869,"▁સઈ":13870,"ંગ્":13871,"િવિ":13872,"▁યોગા":13873,"▁ખાબ":13874,"▁ઉત્તરપશ્ચિમ":13875,"▁મુંબઈથી":13876,"▁મોતનો":13877,"▁ગાળ":13878,"▁કરાવવાનો":13879,"▁મંકી":13880,"▁પિતાનું":13881,"▁સંસ્થાઓને":13882,"મંત્રાલય":13883,"▁વીજળીના":13884,"▁ડાન્સર":13885,"▁નેપાળના":13886,"▁દત્તક":13887,"▁ઈસ્લામિક":13888,"▁તામિલનાડુ":13889,"▁બગાડ":13890,"ગર્ભ":13891,"▁દાગીના":13892,"\nપ્રિયંકા":13893,"સરના":13894,"વાટ":13895,"▁રાઇડ":13896,"▁પાંડ":13897,"▁કારગિલ":13898,"▁લોકોનુ":13899,"▁સ્ટાર્":13900,"કિન":13901,"▁કુર્":13902,"▁ચાલવા":13903,"▁તાકી":13904,"▁વારસો":13905,"પ્ટર":13906,"▁અભિનેત્રીને":13907,"▁આતંકવાદીઓની":13908,"▁પ્રોજેક્ટને":13909,"▁અખબ":13910,"▁કુંવર":13911,"દિપ":13912,"▁બ્રિટનમાં":13913,"▁વાયદા":13914,"▁પોલિટ":13915,"▁દૃષ્ટ":13916,"ક્ષેત્રમાં":13917,"▁શારદા":13918,"▁શ્રદ્ધાળુઓ":13919,"▁ભાગવતે":13920,"▁નાજુક":13921,"માણિક":13922,"▁જઈએ":13923,"▁મશ":13924,"▁માહિત":13925,"▁સુધા":13926,"▁ડ્રીમ":13927,"▁મેરા":13928,"▁નીરજ":13929,"▁વરદાન":13930,"▁સિંહનો":13931,"▁વોન્ટેડ":13932,"▁અવૉર્ડ":13933,"▁સામ્રાજ":13934,"▁નંદી":13935,"▁આદેશને":13936,"▁રંગનો":13937,"▁શીત":13938,"▁બોલ્ડનેસ":13939,"▁શોધવામાં":13940,"▁ખેંચવાની":13941,"શ્રમ":13942,"▁પંચાયતના":13943,"▁નોંધીને":13944,"▁વાસ્તવિકતા":13945,"▁કારકિર્દીની":13946,"▁માર્કેટિંગ":13947,"▁નિવાસસ્થાન":13948,"▁સમ્માનિત":13949,"▁રહસ્યમય":13950,"કલ્પિક":13951,"▁કન્સ":13952,"▁અલ્ટ":13953,"▁રચી":13954,"▁એવ":13955,"લીનો":13956,"▁ઉણ":13957,"જીનું":13958,"▁રાખ્યુ":13959,"▁રેસ્ટો":13960,"▁દુખી":13961,"▁કરોડોની":13962,"▁ચીજો":13963,"▁બૉર્ડર":13964,"▁બચાવવામાં":13965,"▁કલાકોમાં":13966,"▁શીલા":13967,"▁સીટોની":13968,"▁ગેરરી":13969,"ડિઝ":13970,"▁કિંમતમાં":13971,"▁છે\nમહારાષ્ટ્ર":13972,"▁હિન્દુસ્તાન":13973,"▁પરીક્ષાઓ":13974,"▁ઔષ":13975,"▁એનડીએના":13976,"▁શબ્દનો":13977,"▁યાત્રીઓ":13978,"▁વોર્ડમાં":13979,"▁જોહરે":13980,"▁ભાનુશાળી":13981,"▁મંતવ્ય":13982,"▁અનુસંધ":13983,"ટકા":13984,"ૂતિ":13985,"▁બૃહ":13986,"▁શ્લો":13987,"▁કારનું":13988,"વેજ":13989,"કીના":13990,"ન્ટના":13991,"▁બોની":13992,"▁તેમનામાં":13993,"▁મિડ":13994,"વાદન":13995,"▁પોલીસનું":13996,"▁મહિલાનું":13997,"▁જણાવીએ":13998,"▁ઠો":13999,"▁ચંદન":14000,"▁ચંદ્રયા":14001,"▁ટ્રાન્":14002,"▁મેડિસ":14003,"▁બિકિનીમાં":14004,"▁ઇલેક્ટ્રોનિક":14005,"▁વાયનાડ":14006,"▁સ્ટ્રાઇક":14007,"▁રમતા":14008,"▁ઉકે":14009,"▁ટાવર":14010,"ડીસી":14011,"▁ધડક":14012,"▁રોહત":14013,"ઘાતી":14014,"▁સંસ્થાઓમાં":14015,"▁લાઇસન્સ":14016,"▁માણસને":14017,"▁પાટીલ":14018,"▁છોકરાઓ":14019,"▁રિલેશનશિપ":14020,"▁સીતારમણે":14021,"▁કોરિયો":14022,"િકોણથી":14023,"▁પાર્થિવ":14024,"▁જેએનયુ":14025,"▁સિગ્નલ":14026,"▁કેએમપીએલ":14027,"ગયા":14028,"▁પળ":14029,"▁જિયો":14030,"▁મગજ":14031,"▁એટે":14032,"▁ગણો":14033,"હેબે":14034,"▁જોંગ":14035,"▁મળવી":14036,"વિભાગ":14037,"▁સેમ":14038,"ગીર":14039,"નિફે":14040,"▁ગોસ્વામી":14041,"▁વ્યક્તિઓને":14042,"▁મદન":14043,"▁સ્વાતિ":14044,"સુપ્રીમ":14045,"▁બાબતની":14046,"▁સંગમ":14047,"▁વૈકલ્પિક":14048,"▁હજારની":14049,"▁પાકિસ્તાનથી":14050,"▁ત્રીજું":14051,"▁છોડવાની":14052,"▁ગઠબંધનમાં":14053,"▁ભજવે":14054,"રાજ્યમાં":14055,"▁ભુજ":14056,"▁ખરેખ":14057,"▁ભાવનાત્મક":14058,"▁પીએમે":14059,"▁ક્રૂઝ":14060,"▁જ્વેલરી":14061,"▁અણ્ણા":14062,"ફોલ":14063,"વરની":14064,"શદ":14065,"▁પચ":14066,"▁અગ્રેસ":14067,"▁બલ્":14068,"▁દસ્તક":14069,"▁નકાર":14070,"▁એવિ":14071,"રાબાદ":14072,"ન્ડર્ડ":14073,"▁બેઠી":14074,"▁ડેમમાં":14075,"▁ટકાના":14076,"▁વૈવાહિક":14077,"▁હિંસાની":14078,"▁વર્તમાનમાં":14079,"▁એશિયાના":14080,"▁કેન્સલ":14081,"▁મોઢે":14082,"▁વસાવા":14083,"▁સંડોવણી":14084,"ંતોષ":14085,"બજારમાં":14086,"▁પ્રસ્તુત":14087,"▁ક્ષત્રિય":14088,"વાડામાં":14089,"▁મત્":14090,"▁વ્યાસ":14091,"▁ભજન":14092,"▁પ્રભાવી":14093,"રોધી":14094,"▁કાર્ટ":14095,"▁સરપ્ર":14096,"▁દિવંગત":14097,"▁મિસ્ટર":14098,"▁કર્નલ":14099,"▁ક્રુ":14100,"રિત્ર":14101,"▁મંત્રનો":14102,"▁જન્મજય":14103,"▁છે\nઅહેવાલો":14104,"▁દેખાયાં":14105,"▁એક્ઝિક":14106,"▁મનાઇ":14107,"▁સ્ટેશનની":14108,"▁વૉર":14109,"▁સર્વસં":14110,"▁બૉલિવુડના":14111,"▁થિયેટરમાં":14112,"▁ગુરમીત":14113,"▁પડકારોનો":14114,"▁લાઠીચાર્જ":14115,"નબ":14116,"પરી":14117,"બત":14118,"વોડ":14119,"વમેન્ટ":14120,"હરે":14121,"▁કોલ્ડ":14122,"દ્વાજ":14123,"દાતાઓ":14124,"મોન":14125,"▁ચોખ્":14126,"▁મંદિરે":14127,"▁અભિનેત્રીના":14128,"▁મારવાની":14129,"▁પ્રેમનો":14130,"▁ચંદ્રચ":14131,"▁ચિત્રા":14132,"▁સફળતાની":14133,"▁ડાબેરી":14134,"ભીત":14135,"▁આઠમા":14136,"▁નદીઓ":14137,"▁નિર્માતાઓ":14138,"▁હસ્તીઓએ":14139,"▁કેપિટલ":14140,"▁રામાયણ":14141,"▁ધ્યેય":14142,"ઇના":14143,"કિય":14144,"નૂ":14145,"ફર્":14146,"સથી":14147,"માર્ગે":14148,"▁બ્":14149,"▁ગાઇ":14150,"લાભ":14151,"▁ભટક":14152,"▁કોફી":14153,"▁નેક":14154,"પાને":14155,"▁આગને":14156,"▁નહીં\nઆ":14157,"▁થાય\n":14158,"▁થયાની":14159,"▁મતભે":14160,"▁ઘટનાઓમાં":14161,"▁શહેરને":14162,"▁મહેસ":14163,"▁કપૂરનું":14164,"▁શિક્ષિત":14165,"▁સંસ્થાના":14166,"▁ચિંતામાં":14167,"▁એરપોર્ટથી":14168,"▁રમવા":14169,"▁બજેટની":14170,"▁કોલસા":14171,"▁ભવિષ્યવાણી":14172,"\nવડોદરા":14173,"▁જણાઈ":14174,"▁ભીડને":14175,"▁શૈલે":14176,"▁કક્ષાની":14177,"▁શોષણનો":14178,"\nનરેન્દ્ર":14179,"▁સીતારામ":14180,"▁ડાઉનલોડ":14181,"▁ન્હો":14182,"▁ટ્રીટમેન્ટ":14183,"▁નિકોબાર":14184,"▁તામિળ":14185,"▁સોગંદના":14186,"એન્ડ":14187,"જલી":14188,"થની":14189,"દિન":14190,"▁અન્ના":14191,"▁બરો":14192,"્યાએ":14193,"▁ચક્કર":14194,"▁બેટી":14195,"સીઝ":14196,"▁નેશન":14197,"▁દેશદ્રો":14198,"સારા":14199,"▁હેલી":14200,"▁ટેકાના":14201,"▁નોંધા":14202,"▁રાશિફળ":14203,"િક્ષિત":14204,"▁પ્રત્યુ":14205,"▁જીવનશૈ":14206,"▁વિચારતા":14207,"▁ઓપરેટ":14208,"▁હોવાનુ":14209,"▁દીપિકાની":14210,"લેન્ડમાં":14211,"▁વાઇરસ":14212,"▁ભૂલથી":14213,"▁શૉર્ટ":14214,"▁પરિવારજનોએ":14215,"▁વિવેકાન":14216,"▁પાયાવિહો":14217,"▁ડીએનએ":14218,"▁ગાઈડલાઈન":14219,"▁માલિની":14220,"▁અડચણ":14221,"▁બિનજરૂરી":14222,"▁કેલિફોર્નિયા":14223,"▁ખરેખરમાં":14224,"તરે":14225,"મારે":14226,"▁ગલી":14227,"▁ચામ":14228,"▁ટચ":14229,"કાએ":14230,"▁ભારદ્વાજ":14231,"▁ઈંગ્લેન્ડ":14232,"▁સીરીઝ":14233,"▁લાગતુ":14234,"▁ટેન્ક":14235,"▁જયેશ":14236,"▁એસઓ":14237,"▁પતિના":14238,"▁તિરા":14239,"▁નીકળતા":14240,"▁બચ્ચનને":14241,"▁વનઈન્ડિયા":14242,"▁કાંઠે":14243,"▁ઉત્પાદક":14244,"▁ધમાકો":14245,"▁ફડણવીસ":14246,"▁પવનની":14247,"▁માનસન્માન":14248,"▁નિખિલ":14249,"▁ફોર્મ્યુલા":14250,"▁વસુંધરા":14251,"▁અભિવ્યક્તિ":14252,"▁દાવે":14253,"▁જેહાદ":14254,"▁મોનો":14255,"▁દેસી":14256,"▁લાગતો":14257,"▁વેક્સિન":14258,"▁ફેફ":14259,"▁થયેલો":14260,"▁ઉમેશ":14261,"▁દાદી":14262,"▁રાષ્ટ્રધ્વ":14263,"▁શાહરુખે":14264,"▁મૃતકના":14265,"▁ઊંડી":14266,"▁પૂછે":14267,"▁પૂછ્યા":14268,"▁વૈશા":14269,"▁કલર":14270,"▁યાત્રાના":14271,"▁કમબ":14272,"▁ઓક્ટોબરમાં":14273,"▁ફેલાયો":14274,"▁ચોપરાના":14275,"▁આલિયાએ":14276,"▁કરાશે\n":14277,"▁વર્ગને":14278,"▁પંચાયતની":14279,"▁સીબીઆઈની":14280,"▁બૅંગ":14281,"▁પ્રહલાદ":14282,"▁કેમ્પસમાં":14283,"▁જબરજ":14284,"▁ઉઠાવીને":14285,"▁આંતકી":14286,"▁કાયદેસરની":14287,"ક્કરમાં":14288,"▁મંજુરી":14289,"▁આશુતો":14290,"▁અગ્રેસર":14291,"ગરે":14292,"ણવાળા":14293,"વૃત્તિ":14294,"▁સિયા":14295,"▁જવુ":14296,"▁મિટ":14297,"▁રાઇટ":14298,"▁વિગેરે":14299,"▁મોડા":14300,"▁મુલત":14301,"▁મહાજ":14302,"▁ઇમે":14303,"▁ઇસ્ટ":14304,"▁યુગમાં":14305,"▁દેવાઈ":14306,"▁વેકેશ":14307,"ર્વ્યવહાર":14308,"ર્ડન":14309,"▁હતી\nએ":14310,"▁શોભ":14311,"▁સંબંધોની":14312,"▁સ્વામીએ":14313,"▁મતદાનના":14314,"▁જમાવી":14315,"▁અમિતાભે":14316,"▁દબદ":14317,"▁સનસની":14318,"▁કુશળ":14319,"▁છે\nરાજ્યના":14320,"▁ઇવેન્ટમાં":14321,"▁માળખાકીય":14322,"▁સ્વયંસેવક":14323,"▁મસૂદ":14324,"▁પ્રજાસત્તાક":14325,"▁મુલતવી":14326,"નમેન્ટ":14327,"▁પગે":14328,"▁બ્યૂ":14329,"ાવું":14330,"▁હોન્ડા":14331,"▁ધકેલી":14332,"▁પૂના":14333,"▁દેશવિ":14334,"ાઈઝ":14335,"ાઈલ":14336,"▁સૌનો":14337,"▁રિસ્પો":14338,"▁વિક્ષ":14339,"▁ડીસીપી":14340,"▁બાળકોમાં":14341,"ડિયાએ":14342,"▁ધર્મની":14343,"▁કામગીરીમાં":14344,"▁કૈફે":14345,"▁કરાવીને":14346,"▁વસંત":14347,"\nહાલમાં":14348,"▁જરૂરિયાતો":14349,"▁મહામારીને":14350,"▁ફ્લોન્ટ":14351,"▁તેટલું":14352,"▁ચોપડાએ":14353,"▁ઈવેન્ટમાં":14354,"▁ક્રિસમસ":14355,"▁ટંડન":14356,"\nદિલ્હી":14357,"િંક":14358,"▁કપાસ":14359,"▁સપ્ત":14360,"▁જતું":14361,"▁શસ્ત્ર":14362,"▁ઉદાર":14363,"▁છે\nની":14364,"▁સંસ્થાન":14365,"▁પુરાત":14366,"▁ગોદ":14367,"▁માનવીય":14368,"▁પગમાં":14369,"▁મંગલ":14370,"▁ક્ષેત્રને":14371,"▁ઉઠ્યા":14372,"▁એલજી":14373,"સૂત્ર":14374,"▁પહેર્યું":14375,"▁ભૂપેન્દ્રભાઈ":14376,"▁વેક્સીનના":14377,"▁દેશભક્તિ":14378,"▁કોરિડોર":14379,"▁દાણચો":14380,"ઝારા":14381,"ારક":14382,"▁પ્રણ":14383,"▁રાઝ":14384,"▁કોમી":14385,"ડાનો":14386,"▁લેટર":14387,"▁નેતાના":14388,"▁ફેલ":14389,"ડેએ":14390,"▁ઉપરાજ્ય":14391,"▁ક્રિસ્ટ":14392,"ગ્ને":14393,"▁હંસ":14394,"▁ઘટાડીને":14395,"▁વ્યાખ્યા":14396,"▁પકડ્યો":14397,"▁સુશાંતની":14398,"▁ટ્રમ્પની":14399,"▁હસતા":14400,"▁છે\nકેન્દ્ર":14401,"▁અર્થવ્યવસ્થાને":14402,"▁વાગીને":14403,
[...]
