{"<pad>":0,"<unk>":1,"<s>":2,"</s>":3,"<mask>":4,"\t":5,"\n":6,"!":7,",":8,".":9,"0":10,"1":11,"2":12,"3":13,"4":14,"5":15,"6":16,"7":17,"8":18,"9":19,"?":20,"ઁ":21,"ં":22,"ઃ":23,"અ":24,"આ":25,"ઇ":26,"ઈ":27,"ઉ":28,"ઊ":29,"ઋ":30,"ઌ":31,"ઍ":32,"એ":33,"ઐ":34,"ઑ":35,"઒":36,"ઓ":37,"ઔ":38,"ક":39,"ખ":40,"ગ":41,"ઘ":42,"ઙ":43,"ચ":44,"છ":45,"જ":46,"ઝ":47,"ઞ":48,"ટ":49,"ઠ":50,"ડ":51,"ઢ":52,"ણ":53,"ત":54,"થ":55,"દ":56,"ધ":57,"ન":58,"઩":59,"પ":60,"ફ":61,"બ":62,"ભ":63,"મ":64,"ય":65,"ર":66,"઱":67,"લ":68,"ળ":69,"઴":70,"વ":71,"શ":72,"ષ":73,"સ":74,"હ":75,"઺":76,"઻":77,"઼":78,"ઽ":79,"ા":80,"િ":81,"ી":82,"ુ":83,"ૂ":84,"ૃ":85,"ૄ":86,"ૅ":87,"ે":88,"ૈ":89,"ૉ":90,"૊":91,"ો":92,"ૌ":93,"્":94,"ૐ":95,"૘":96,"૝":97,"ૠ":98,"ૢ":99,"૤":100,"૦":101,"૧":102,"૨":103,"૩":104,"૪":105,"૫":106,"૬":107,"૭":108,"૮":109,"૯":110,"૰":111,"૱":112,"૳":113,"૵":114,"▁":115,"મા":116,"▁ક":117,"▁પ":118,"▁સ":119,".\n":120,"ના":121,"વા":122,"ને":123,"્ય":124,"માં":125,"્ર":126,"ાર":127,"▁છ":128,"▁ત":129,"▁જ":130,"▁અ":131,"▁હ":132,"ની":133,"▁આ":134,"▁છે":135,"ું":136,"▁વ":137,"▁મ":138,"▁ર":139,"▁બ":140,"તા":141,"▁કર":142,"ર્":143,"▁છે.\n":144,"લા":145,"▁ન":146,"▁દ":147,"▁એ":148,"થી":149,"▁1":150,"▁2":151,"▁તે":152,"▁ગ":153,"▁અને":154,"રા":155,"▁મા":156,"▁શ":157,"નો":158,"ન્":159,"▁હત":160,"સ્":161,"▁કે":162,"્યા":163,"▁લ":164,"રી":165,"▁ભ":166,"▁પ્ર":167,"યા":168,"ક્":169,"▁આવ":170,"કા":171,"▁થ":172,"ટે":173,"▁વિ":174,"હે":175,"▁સા":176,"▁ચ":177,"▁ઉ":178,"ાવ":179,"લી":180,"▁ફ":181,"નું":182,"▁ખ":183,"ાય":184,"ંગ":185,"▁સ્":186,"▁પણ":187,"▁પર":188,"િક":189,"ત્ર":190,"મે":191,"વી":192,"તી":193,"તે":194,"કો":195,"▁પા":196,"▁હો":197,"લ્":198,"▁રા":199,"તિ":200,"રે":201,"ટી":202,"\tઆ":203,"▁જે":204,"્યું":205,"્યો":206,"કે":207,"વામાં":208,"▁કો":209,"ત્":210,"ડી":211,"શે":212,"▁માટે":213,"યો":214,"લે":215,"કાર":216,"▁કરી":217,"રો":218,"વે":219,"ણી":220,"હી":221,"ામ":222,"િયા":223,"▁એક":224,"ણે":225,"▁ધ":226,"▁વા":227,"▁હતી":228,"▁સં":229,"▁આપ":230,"▁ના":231,"ારે":232,"▁ટ":233,"ાં":234,"ક્ષ":235,"જી":236,"ાન":237,"2\t":238,"6\t":239,"▁ઘ":240,"5\t":241,"4\t":242,"0\t":243,"1\t":244,"9\t":245,"3\t":246,"7\t":247,"8\t":248,"ધી":249,"▁બે":250,"▁ડ":251,"▁તેમ":252,"▁પો":253,"જે":254,"▁જો":255,"▁સુ":256,"▁લા":257,"▁મો":258,"▁કાર":259,"▁મુ":260,"િત":261,"▁તો":262,"▁બા":263,"સે":264,"▁હતા":265,"થે":266,"▁હતું":267,"ડા":268,"ેશ":269,"▁3":270,"ો.\n":271,"ંદ":272,"ાલ":273,"ંત":274,"સા":275,"▁ઓ":276,"▁સમ":277,"▁5":278,"ભા":279,"▁હતી.\n":280,"તો":281,"▁4":282,"કી":283,"▁વધ":284,"▁6":285,"▁સાથે":286,"લો":287,"▁7":288,"▁8":289,"જા":290,"▁નિ":291,"▁9":292,"દી":293,"▁આવે":294,"ારી":295,"વિ":296,"પા":297,"સી":298,"તાં":299,"▁વર્":300,"▁લો":301,"▁મળ":302,"▁જા":303,"▁મે":304,"▁નથી":305,"ંચ":306,"્યારે":307,"▁હોય":308,"થા":309,"મી":310,"ંધ":311,"ટા":312,"શ્":313,"▁ઉપ":314,"વાની":315,"ષ્":316,"િવ":317,"યુ":318,"દા":319,"▁મહ":320,"00":321,"▁ઇ":322,"્રે":323,"▁રહે":324,"ન્ટ":325,"ણા":326,"શે.\n":327,"િલ્":328,"▁રહ":329,"સ્ટ":330,"▁ભા":331,"▁૧":332,"▁ગુ":333,"▁હતો.\n":334,"્યુ":335,"▁સર":336,"▁રો":337,"▁લે":338,"ન્ડ":339,"દ્":340,"િય":341,"રૂ":342,"▁રાજ":343,"ાર્":344,"▁આવી":345,"શન":346,"્રી":347,"બા":348,"▁વર્ષ":349,"ળા":350,"▁કરવા":351,"વાર":352,"્રા":353,"ણાવ":354,"▁ભાર":355,"સ્ત":356,"▁અન":357,"▁હતા.\n":358,"મ્":359,"વું":360,"▁પડ":361,"▁કરવામાં":362,"▁ખા":363,"પી":364,"્વા":365,"વો":366,"▁20":367,"રમાં":368,"ગી":369,"▁જણાવ":370,"ચ્":371,"ેલા":372,"▁લોકો":373,"મો":374,"ારો":375,"જો":376,"છી":377,"▁હા":378,"ોડ":379,"ળી":380,"▁છે,":381,"▁નો":382,"પ્":383,"▁સે":384,"▁યુ":385,"બી":386,"્યાં":387,"▁કા":388,"્વારા":389,"પો":390,"▁રી":391,"▁વે":392,"▁દ્વારા":393,"પ્ર":394,"▁હતું.\n":395,"▁પુ":396,"▁જી":397,"નાં":398,"િંગ":399,"▁19":400,"▁દે":401,"હીં":402,"હો":403,"▁સુધી":404,"માન":405,"▁પૂ":406,"ગર":407,"▁નથી.\n":408,"▁બો":409,"▁થઈ":410,"▁થાય":411,"ગે":412,"▁સરકાર":413,"▁10":414,"સો":415,"▁રૂ":416,"ંપ":417,"ચે":418,"માંથી":419,"▁કામ":420,"▁ઈ":421,"ટો":422,"ંત્ર":423,"▁દિવ":424,"ેર":425,"સિ":426,"▁કરે":427,"ંક":428,"▁પોતા":429,"ષ્ટ":430,"▁હોવા":431,"▁કે,":432,"ંતુ":433,"▁ને":434,"▁સિ":435,"▁15":436,"▁સ્થ":437,"▁સો":438,"▁12":439,"▁દર":440,"▁11":441,"ંડ":442,"▁વ્ય":443,"▁બી":444,"િટ":445,"સર":446,"ધા":447,"▁18":448,"▁ઝ":449,"▁વધુ":450,"▁બના":451,"ક્ર":452,"▁રાખ":453,"૦૦":454,"▁૨":455,"▁14":456,"▁25":457,"▁13":458,"▁16":459,"ારા":460,"▁સમય":461,"▁ભારત":462,"▁17":463,"▁ની":464,"ટર":465,"જરા":466,"▁24":467,"▁21":468,"▁22":469,"▁23":470,"▁26":471,"પર":472,"▁28":473,"▁27":474,"▁કોઈ":475,"▁પછી":476,"▁29":477,"▁લી":478,"િસ્":479,"ર્ટ":480,"▁તમા":481,"દેશ":482,"ખા":483,"શા":484,"ગા":485,"ન્દ":486,"▁દેશ":487,"▁ટે":488,"▁રહી":489,"▁રીતે":490,"ન્સ":491,"મિ":492,"નમાં":493,"▁જણાવ્યું":494,"▁અંગ":495,"▁સામે":496,"ચા":497,"▁પોલી":498,"લિ":499,"▁કારણે":500,"તર":501,"જુ":502,"ટલા":503,"▁યો":504,"બર":505,"▁રે":506,"▁ત્યારે":507,"▁તેના":508,"દ્ધ":509,"▁બાદ":510,"▁અમ":511,"હેર":512,"ુલ":513,"▁તા":514,"▁પે":515,"▁ગુજરા":516,"▁શકે":517,"▁નહીં":518,"યું":519,"હા":520,"▁માં":521,"બે":522,"ુર":523,"▁હે":524,"▁સહ":525,"ડે":526,"▁એમ":527,"▁ટકા":528,"નિ":529,"ર્ણ":530,"રણ":531,"▁તથા":532,"▁તેની":533,"▁કહે":534,"▁સમા":535,"ંપની":536,"ડો":537,"ઓને":538,"▁શા":539,"▁રહ્યા":540,"વાનો":541,"હિ":542,"વાદ":543,"▁મિ":544,"સમાં":545,"▁પહે":546,"▁શક":547,"▁સી":548,"16":549,"▁કહ":550,"ત્ય":551,"જન":552,"ુક":553,"▁ભાવ":554,"10":555,"▁સૌ":556,"▁પાસે":557,"દે":558,"રિ":559,"▁પરિ":560,"▁મહિ":561,"પે":562,"▁ચો":563,"▁ક્":564,"▁દી":565,"▁કાર્ય":566,"તું":567,"▁મૂ":568,"ચાર":569,"▁તરી":570,"લું":571,"▁તરીકે":572,"હાર":573,"▁સર્":574,"▁ગયા":575,"ક્તિ":576,"15":577,"ાવી":578,"▁ઊ":579,"▁અંગે":580,"▁તેને":581,"..\n":582,"▁કંપની":583,"▁પી":584,"20":585,"▁કહ્યું":586,"ોલ":587,"▁હતો":588,"▁ટી":589,"▁કર્યો":590,"▁જાય":591,"▁વાત":592,"▁અધ":593,"▁તર":594,"સના":595,"▁થઇ":596,"19":597,"14":598,"ગ્ર":599,"36":600,"મુ":601,"▁ત્ર":602,"▁અનુ":603,"17":604,"▁ઉત્":605,"▁ભાગ":606,"જબ":607,"તમાં":608,"ત્વ":609,"▁જવા":610,"24":611,"ાલુ":612,"30":613,"25":614,"ન્દ્ર":615,"▁ફિલ્":616,"18":617,"▁પરંતુ":618,"યે":619,"▁આપી":620,"▁અભ":621,"જાર":622,"શ્વ":623,"▁મળી":624,"▁ફર":625,"▁ઉપર":626,"28":627,"▁નામ":628,"27":629,"નના":630,"38":631,"▁બનાવ":632,"35":633,"▁આગ":634,"29":635,"26":636,"બ્":637,"▁વિસ્ત":638,"વારે":639,"39":640,"37":641,"તેમ":642,"34":643,"શી":644,"▁કરોડ":645,"▁અમે":646,"ત્રી":647,"▁તેઓ":648,"પૂ":649,"▁ગામ":650,"િલ્લા":651,"▁લગ":652,"▁આજે":653,"ક્સ":654,"▁ચૂ":655,"▁કરતા":656,"▁કરીને":657,"ર્ડ":658,"યોગ":659,"▁સ્વ":660,"▁ગો":661,"ર્મ":662,"▁ડે":663,"▁પગ":664,"▁ડિ":665,"▁રાજ્ય":666,"દો":667,"લમાં":668,"▁પોલીસ":669,"▁એટ":670,"ખ્ય":671,"▁કિ":672,"ટના":673,"▁છે.":674,"નની":675,"ક્ષા":676,"▁જુ":677,"▁માર્":678,"ર્થ":679,"▁ફો":680,"ર્સ":681,"ંભ":682,"▁ખે":683,"ળો":684,"▁જીવ":685,"ચી":686,"ર્વ":687,"▁અન્ય":688,"50":689,"▁દુ":690,"▁રૃ":691,"▁માન":692,"ભાઈ":693,"ધાન":694,"▁રિ":695,"▁આવ્યા":696,"વાનું":697,"▁દરમ":698,"દર":699,"▁બિ":700,"ચ્ચે":701,"▁હવે":702,"▁જોઈ":703,"કાય":704,"લાં":705,"?\n":706,"પણ":707,"99":708,"▁મેળ":709,"▁બદ":710,"47":711,"▁પ્રા":712,"િયાન":713,"48":714,"ૃત":715,"જૂ":716,"▁જિલ્લા":717,"્સ":718,"57":719,"▁દિવસ":720,"થમ":721,"56":722,"▁વચ્ચે":723,"58":724,"46":725,"▁આવ્યો":726,"▁ધરા":727,"▁વર":728,"છા":729,"િતિ":730,"જના":731,"▁બની":732,"▁લાખ":733,"▁વખ":734,"ક્ટ":735,"▁તરફ":736,"▁પાણી":737,"રના":738,"40":739,"વાય":740,"▁ભૂ":741,"11":742,"ણો":743,"▁પ્રમા":744,"▁પહો":745,"▁ગુજરાત":746,"▁બન":747,"▁થયો":748,"પાસ":749,"સ્થા":750,"98":751,"મને":752,"▁સૂ":753,"▁દિ":754,"96":755,"97":756,"▁મળે":757,"▁મુખ્ય":758,"▁ગા":759,"ક્ત":760,"▁ઓફ":761,"▁ક્ર":762,"▁જોવા":763,"▁ચા":764,"સાર":765,"રુ":766,"ત્રો":767,"▁હિ":768,"▁દર્":769,"▁શરૂ":770,"90":771,"ખી":772,"▁થયા":773,"▁કોઇ":774,"ંટ":775,"રૃ":776,"▁તેમના":777,"▁શિ":778,"▁ઠ":779,"▁લાગ":780,"એ.\n":781,"દાર":782,"▁અધિક":783,"▁સૌથી":784,"બંધ":785,"▁દા":786,"મેન્ટ":787,"▁બંધ":788,"▁શો":789,"▁ફે":790,"▁કરતાં":791,"▁હાથ":792,"વાના":793,"▁નોંધ":794,"▁પહોંચ":795,"▁ત્રણ":796,"રાંત":797,"▁જાણ":798,"ફો":799,"▁૩":800,"▁કેટલા":801,"શો":802,"▁પડે":803,"નગર":804,"▁યા":805,"▁ફા":806,"એસ":807,"ઓની":808,"કર":809,"▁કર્યું":810,"78":811,"66":812,"▁ત્યાં":813,"▁પોતાના":814,"્ઞ":815,"▁માત્ર":816,"▁બહાર":817,"ુંબ":818,"તીય":819,"▁લઈ":820,"નાર":821,"રાજ":822,"મમાં":823,"▁કલા":824,"▁મી":825,"ગો":826,"▁ચે":827,"ટલી":828,"▁તેમણે":829,"▁ખાતે":830,"▁હું":831,"▁ક્ષ":832,"23":833,"70":834,"▁મુજબ":835,"▁મોટા":836,"▁કરવાની":837,"કરી":838,"▁જ્યારે":839,"▁તમામ":840,"▁ગયો":841,"લ્લા":842,"▁આવ્યું":843,"▁આવેલા":844,"▁વી":845,"45":846,"▁વિદ":847,"ચિ":848,"ખ્યા":849,"▁તેમજ":850,"કમાં":851,"▁બાબ":852,"68":853,"▁સહિત":854,"▁ઉપયોગ":855,"13":856,"સ્થ":857,"▁બાળ":858,"▁પાક":859,"▁એટલે":860,"▁તેમની":861,"વર":862,"મત":863,"વર્":864,"▁રહ્યો":865,"ંત્રી":866,"પના":867,"▁દરમિયાન":868,"▁બેઠ":869,"ઓએ":870,"ૈય":871,"બો":872,"▁પ્રો":873,"60":874,"▁વિસ્તાર":875,"▁છતાં":876,"દર્":877,"ભાઇ":878,"િસ્તા":879,"▁અથ":880,"▁પ્રતિ":881,"વેશ":882,"▁પ્રે":883,"2\tઆ":884,"▁જરૂ":885,"▁તેમને":886,"95":887,"ળે":888,"ાયો":889,"ંગ્રે":890,"ષ્ટ્ર":891,"!\n":892,"ધો":893,"▁વ્યક્તિ":894,"▁આધ":895,"44":896,"88":897,"77":898,"▁ઃ":899,"રની":900,"▁કર્યા":901,"લના":902,"▁કુ":903,"ં.\n":904,"ણાં":905,"પરંતુ":906,"મના":907,"▁ચિ":908,"લગ":909,"તુ":910,"▁હાલ":911,"▁સ્પ":912,"▁ય":913,"▁ચી":914,"પુ":915,"▁શકાય":916,"▁પોતાની":917,"ગત":918,"▁તૈય":919,"▁પ્રકાર":920,"▁ગ્ર":921,"જર":922,"▁છો":923,"સાદ":924,"સ્પ":925,"▁અધિકારી":926,"ક્ષણ":927,"નારા":928,"ભાવ":929,"સુ":930,"21":931,"▁ખુ":932,"દાવાદ":933,"ગ્ય":934,"▁સ્ટે":935,"▁ઉપરાંત":936,"મ્પ":937,"સ્ક":938,"55":939,"સ્તા":940,"▁પાંચ":941,"ભાર":942,"ઓમાં":943,"▁શે":944,"વાન":945,"▁આરો":946,"ાંધી":947,"33":948,"▁તપાસ":949,"▁દૂ":950,"▁જાહેર":951,"્યાન":952,"▁એવી":953,"એક":954,"ામી":955,"▁તમે":956,"▁પ્રથમ":957,"▁તાલુ":958,"વવા":959,"80":960,"ભાગ":961,"કારો":962,"ઓના":963,"▁પાછ":964,"▁અથવા":965,"▁ગઈ":966,"કલ":967,"સની":968,"પિયા":969,"▁નિર્ણ":970,"▁૪":971,"િકો":972,"▁જેવા":973,"્રો":974,"કીય":975,"▁પક્ષ":976,"પુર":977,"ાર્થી":978,"ૂટ":979,"જય":980,"▁ખો":981,"વિધ":982,"િન":983,"▁અનેક":984,"તના":985,"ચના":986,"▁તેવી":987,"▁ડી":988,"▁ખૂ":989,"▁જૂ":990,"કડ":991,"ત્તા":992,"ંહ":993,"▁તાલુકા":994,"▁લેવા":995,"▁રોજ":996,"▁૫":997,"કસ":998,"▁હોવાનું":999,"▁વિશે":1000,"94":1001,"67":1002,"▁આપવામાં":1003,"▁મંદ":1004,"ાઈ":1005,"▁નવા":1006,"એમ":1007,"ખો":1008,"્મ":1009,"ાયે":1010,"માન્ય":1011,"ફળ":1012,"▁ફિલ્મ":1013,"ુમ":1014,"ચ્છ":1015,"ફે":1016,"▁ભારતીય":1017,"▁અં":1018,"▁હોવાથી":1019,"નને":1020,"રેક":1021,"ટેલ":1022,"▁રહ્યું":1023,"▁પડી":1024,"▁જવાબ":1025,"▁થયું":1026,"રને":1027,"22":1028,"કાસ":1029,"વણી":1030,"1\tઆ":1031,"▁બેન્":1032,"મુખ":1033,"જ્ઞ":1034,"ણમાં":1035,"લ્ડ":1036,"ા.\n":1037,"▁ફરી":1038,"▁સાં":1039,"ટમાં":1040,"▁તેમાં":1041,"▁પ્":1042,"▁કેટલાક":1043,"▁મહિલા":1044,"▁વધારે":1045,"▁દો":1046,"▁કારણ":1047,"કારી":1048,"વતી":1049,"▁વ્યવ":1050,"વાસ":1051,"ર્ષ":1052,"રિકા":1053,"▁ભાજ":1054,"▁મને":1055,"▁ગણ":1056,"▁ખરી":1057,"▁છું":1058,"▁૧૯":1059,"▁નિર્ણય":1060,"▁વ્યા":1061,"▁મારી":1062,"▁ભર":1063,"▁અંદ":1064,"▁ચાર":1065,"િર":1066,"▁જેમ":1067,"ઠા":1068,"અને":1069,"્ન":1070,"▁મહિના":1071,"▁ઘટના":1072,"▁પાર્":1073,"્યાર્થી":1074,"ંને":1075,"આે":1076,"િકા":1077,"્રીય":1078,"આઇ":1079,"જ્યારે":1080,"▁અપ":1081,"ઇન":1082,"▁વો":1083,"ંકા":1084,"▁ચાલ":1085,"▁200":1086,"▁સાર":1087,"3\tઆ":1088,"▁કોંગ્રે":1089,"▁વધી":1090,"ર્ચ":1091,"▁નવી":1092,"▁બને":1093,"હુ":1094,"▁અવ":1095,"▁ઘટા":1096,"▁ટો":1097,"▁લઇ":1098,"ંટણી":1099,"ડિયા":1100,"િતા":1101,"▁નિય":1102,"ગ્યા":1103,"▁વરસાદ":1104,"▁પાકિસ્તા":1105,"▁મુદ્":1106,"મ્બર":1107,"▁ગાંધી":1108,"▁વૃ":1109,"▁વિશ્વ":1110,"▁ધો":1111,"▁અમદાવાદ":1112,"▁ખાસ":1113,"▁બીજા":1114,"માર":1115,"▁કુલ":1116,"ગાઉ":1117,"12":1118,"65":1119,"▁સુર":1120,"▁ટ્રે":1121,"દન":1122,"▁અસર":1123,"ત્યાર":1124,"▁શહેર":1125,"▁આપે":1126,"િયન":1127,"▁રોકા":1128,"87":1129,"યેલા":1130,"▁કાય":1131,"▁જેમાં":1132,"▁વિદ્યાર્થી":1133,"49":1134,"▁ઝડ":1135,"કુ":1136,"▁પ્રમાણે":1137,"▁સંગ":1138,"ષા":1139,"▁કેન્દ્ર":1140,"વતા":1141,"▁છી":1142,"▁આગળ":1143,"▁ધર":1144,"▁શુ":1145,"▁માર":1146,"ત્મ":1147,"પાલ":1148,"▁રૂ.":1149,"▁બજાર":1150,"▁સ્થાન":1151,"▁મહે":1152,"પોર્ટ":1153,"કના":1154,"▁મોટી":1155,"▁તેનો":1156,"▁થી":1157,"ધ્ય":1158,"જોકે":1159,"▁એવું":1160,"ાવે":1161,"▁જન્":1162,"▁બ્ર":1163,"▁પહેલા":1164,"▁હતાં.\n":1165,"પ્ત":1166,"▁શહે":1167,"▁પૈ":1168,"▁વિવિધ":1169,"ગુ":1170,"ચારી":1171,"▁30":1172,"▁તૈયાર":1173,"▁ગે":1174,"હન":1175,"ઝા":1176,"ૂત":1177,"ગીરી":1178,"ક્રમ":1179,"▁ચૂંટણી":1180,"ડિ":1181,"ફા":1182,"્યતા":1183,"ઢી":1184,"થો":1185,"વાદી":1186,"▁ઉમે":1187,"▁નવ":1188,"જેમાં":1189,"મારી":1190,"દાન":1191,"▁સ્ટ":1192,"▁મદ":1193,"હેરા":1194,"તેમણે":1195,"▁આર":1196,"આરી":1197,"▁૬":1198,"▁જેવી":1199,"ચર":1200,"▁આવશે.\n":1201,"ટ્":1202,"▁જોઇ":1203,"▁મુંબ":1204,"્ધ":1205,"▁સ્થિતિ":1206,"▁અંત":1207,"▁રજૂ":1208,"ત્રે":1209,"▁માહિ":1210,"▁મહા":1211,"▁મોદી":1212,"▁કરા":1213,"કમ":1214,"▁વડા":1215,"તની":1216,"બુ":1217,"ર્ચા":1218,"લની":1219,"ઠળ":1220,"ીર":1221,"▁ક્ષે":1222,"▁ખૂબ":1223,"▁પાછળ":1224,"▁અર":1225,"▁સામાન્ય":1226,"▁સંખ્યા":1227,"િકે":1228,"▁ટ્ર":1229,"▁બંને":1230,"▁વર્ષે":1231,"ત્યારે":1232,"000":1233,"▁મૃત":1234,"▁વખતે":1235,"▁માહિતી":1236,"બ્ર":1237,"ોમાં":1238,"▁અલગ":1239,"▁હેઠળ":1240,"▁સ્વા":1241,"▁મન":1242,"▁નેતા":1243,"▁શું":1244,"▁વધારો":1245,"કની":1246,"મન":1247,"▁કં":1248,"સિંહ":1249,"▁50":1250,"▁પહેલાં":1251,"તરી":1252,"▁૨૦":1253,"્યૂ":1254,"▁રોકાણ":1255,"▁ચાલુ":1256,"▁લોકોને":1257,"▁આવતા":1258,"ખે":1259,"નિક":1260,"▁સભ":1261,"ાયેલા":1262,"▁ઇન્ડ":1263,"લાઈ":1264,"▁વિરો":1265,"લ્લે":1266,"ડવા":1267,"▁સમયે":1268,"સં":1269,"▁સ્થા":1270,"▁ફરિયા":1271,"િલ":1272,"▁સંબંધ":1273,"▁દરેક":1274,"સંદ":1275,"▁આઇ":1276,"રોના":1277,"ન,":1278,"▁ઓળ":1279,"▁નિર્":1280,"▁મારા":1281,"આત":1282,"▁લીધ":1283,"નિયા":1284,"▁આયો":1285,"▁ટા":1286,"▁નજી":1287,"▁ભો":1288,"▁વૈ":1289,"▁પ્રમુખ":1290,"બાદ":1291,"▁નહો":1292,"▁ઇન્":1293,"ઘા":1294,"▁ભારે":1295,"▁લાગે":1296,"▁રાખી":1297,"▁સુધ":1298,"75":1299,"▁એવા":1300,"ૃતિ":1301,"▁અમેરિકા":1302,"▁પરિવાર":1303,"▁દિવસે":1304,"▁ઘણી":1305,"▁રૂપિયા":1306,"22\t":1307,"વાળા":1308,"સ્પિટ":1309,"25\t":1310,"26\t":1311,"▁શ્રી":1312,"કોને":1313,"તન":1314,"▁બુ":1315,"28\t":1316,"27\t":1317,"20\t":1318,"24\t":1319,"21\t":1320,"23\t":1321,"85":1322,"29\t":1323,"64":1324,"નર":1325,"93":1326,"કેટ":1327,"▁દૂર":1328,"▁મહત્વ":1329,"ઘુ":1330,"▁ભે":1331,"14\t":1332,"▁દેશના":1333,"18\t":1334,"12\t":1335,"પ્રધાન":1336,"▁અહીં":1337,"19\t":1338,"13\t":1339,"17\t":1340,"9\tઆ":1341,"▁દ્ર":1342,"11\t":1343,"થ્":1344,"▁રોડ":1345,"શ્ચિ":1346,"▁અનુભ":1347,"સાય":1348,"15\t":1349,"▁હજાર":1350,"િલ્હી":1351,"▁માંગ":1352,"16\t":1353,"રિક":1354,"10\t":1355,"દ્યો":1356,"વવામાં":1357,"▁ચર્ચા":1358,"▁લેખ":1359,"▁40":1360,"▁વાર":1361,"દિ":1362,"▁રાહ":1363,"▁તેણે":1364,"▁ગ્રા":1365,"ફી":1366,"ત્રા":1367,"▁એવો":1368,"▁અગાઉ":1369,"▁જમી":1370,"▁સામ":1371,"▁દર્શ":1372,"▁મદદ":1373,"▁પસંદ":1374,"કાશ":1375,"▁૧૦":1376,"▁માતા":1377,"▁વિચાર":1378,"▁કર્મ":1379,"▁થતાં":1380,"▁જીવન":1381,"▁મં":1382,"બલ":1383,"ડીને":1384,"વાલ":1385,"▁એસ":1386,"▁વખત":1387,"▁જય":1388,"▁ખેડ":1389,"▁આં":1390,"▁માગ":1391,"▁બોલ":1392,"▁યોજના":1393,"▁જરૂર":1394,"ણું":1395,"▁આશ":1396,"આઈ":1397,"કળ":1398,"▁ડા":1399,"▁વિસ્તારમાં":1400,"▁મત":1401,"▁એર":1402,"ક્ટર":1403,"વાઈ":1404,"▁60":1405,"▁ડો":1406,"▁ઘણા":1407,"વાસી":1408,"લિક":1409,"શ્કે":1410,"▁ગર":1411,"ંધી":1412,"ત્ત":1413,"▁કામગીરી":1414,"વાહી":1415,"રોમાં":1416,"▁80":1417,"▁વેપ":1418,"▁સપ્":1419,"▁પોલીસે":1420,"▁બધા":1421,"▁થો":1422,"િસ":1423,"દારી":1424,"▁પંચ":1425,"વન":1426,"▁સફળ":1427,"ચો":1428,"▁સરકારે":1429,"સિક":1430,"▁વિભાગ":1431,"▁લોક":1432,"લેન્ડ":1433,"▁સમાવેશ":1434,"ગ્":1435,"તાવ":1436,"▁કોર્":1437,"તંત્ર":1438,"4\tઆ":1439,"ભગ":1440,"જનો":1441,"▁પ્રશ્":1442,"▁માણ":1443,"▁સત્તા":1444,"▁પટેલ":1445,"દ્ધિ":1446,"▁રમ":1447,"પતિ":1448,"ગેરે":1449,"ઇલ":1450,"મંત્રી":1451,"86":1452,"સૂ":1453,"ભી":1454,"▁બીજી":1455,"▁અર્થ":1456,"▁છેલ્લા":1457,"▁જોઈએ.\n":1458,"▁ડોલ":1459,"▁70":1460,"▁લાં":1461,"ળામાં":1462,"43":1463,"▁અટ":1464,"▁જન્મ":1465,"▁૭":1466,"▁શબ્":1467,"▁90":1468,"▁લખ":1469,"ત્ની":1470,"▁સત":1471,"▁પાડ":1472,"નંદ":1473,"▁ગઇ":1474,"76":1475,"▁હોસ્પિટ":1476,"નીય":1477,"શિ":1478,"લાય":1479,"▁અનુસાર":1480,"ન્ને":1481,"▁ખાન":1482,"ેશન":1483,"ષ્ટ્રીય":1484,"▁નહિ":1485,"▁પશ્ચિ":1486,"▁બનાવી":1487,"▁થયે":1488,"▁વિદેશ":1489,"▁આપવા":1490,"▁ગયું":1491,"▁અભિ":1492,"સ્યા":1493,"▁લાભ":1494,"▁હુમ":1495,"▁ઉત્પા":1496,"▁કરાવ":1497,"ષ્ઠ":1498,"▁સ્વી":1499,"ક્કી":1500,"પૂર્ણ":1501,"▁સવારે":1502,"છે":1503,"▁જગ્યા":1504,"▁ફરિયાદ":1505,"▁૨૦૦":1506,"લુ":1507,"▁વિકાસ":1508,"ર્ક":1509,"પોરે":1510,"▁હજુ":1511,"▁બહુ":1512,"▁કરવાનો":1513,"▁સ્ક":1514,"પરા":1515,"▁બચ":1516,"▁સંસ્થા":1517,"▁રહેતા":1518,"▁તેનું":1519,"ંઘ":1520,"ઝી":1521,"▁તમારા":1522,"મની":1523,"▁જણાવ્યા":1524,"▁નોટ":1525,"જમાં":1526,"▁શી":1527,"▁સમગ્ર":1528,"▁રંગ":1529,"▁પાસેથી":1530,"સંગ":1531,"▁કર્મચારી":1532,"ફ્":1533,"ન્સી":1534,"▁કેમ":1535,"▁લગ્ન":1536,"ત્તિ":1537,"▁યુન":1538,"ંધા":1539,"ઇટ":1540,"▁કલ":1541,"▁અભ્યા":1542,"▁વેચા":1543,"▁એન":1544,"હવે":1545,"▁આવા":1546,"▁કાર્યવાહી":1547,"▁નહીં.\n":1548,"ાંતિ":1549,"ઠી":1550,"▁દિલ્હી":1551,"▁જાણી":1552,"▁આવેલ":1553,"િવર્":1554,"▁૮":1555,"▁થવા":1556,"▁આપણે":1557,"▁રાજ્યના":1558,"▁થશે.\n":1559,"હિત":1560,"સ્તુ":1561,"▁કેટલી":1562,"ચ્ચ":1563,"▁ભાષા":1564,"▁સલા":1565,"▁સેવા":1566,"ધ્ધ":1567,"ાવો":1568,"કરણ":1569,"▁ફેર":1570,"▁આવેલી":1571,"▁મુંબઈ":1572,"બેન":1573,"દારો":1574,"▁જાહેરા":1575,"▁પ્રયા":1576,"૧૦":1577,"▁તમને":1578,"▁વિરોધ":1579,"પૂર્વ":1580,"લ્સ":1581,"▁શેર":1582,"લ્લેખ":1583,"▁ગુજરાતી":1584,"શું":1585,"▁શક્યતા":1586,"▁દેખ":1587,"▁વગેરે":1588,"દરા":1589,"▁પરી":1590,"મ્બ":1591,"▁મોત":1592,"▁ઘર":1593,"▁આયોજન":1594,"કોટ":1595,"▁મુશ્કે":1596,"ધિ":1597,"નુ":1598,"સાન":1599,"▁આવતી":1600,"▁કોર્ટ":1601,"▁ચૂક":1602,"▁પગલે":1603,"ાયું":1604,"▁કહી":1605,"▁કૃ":1606,"▁કપ":1607,"▁પહોંચી":1608,"▁નિષ્":1609,"▁ચાલી":1610,"ંતા":1611,"▁ભારતમાં":1612,"35\t":1613,"દ્યોગ":1614,"30\t":1615,"39\t":1616,"32\t":1617,"34\t":1618,"▁પૂર":1619,"▁ભાજપ":1620,"▁પ્રદેશ":1621,"36\t":1622,"38\t":1623,"37\t":1624,"33\t":1625,"▁અર્":1626,"▁રૃા.\n":1627,"31\t":1628,"▁વહે":1629,"▁લઈને":1630,"લ,":1631,"▁આમ":1632,"▁જમા":1633,"▁ધી":1634,"▁કોલે":1635,"▁ભાગમાં":1636,"ભે":1637,"▁ગી":1638,"મર":1639,"▁કેસ":1640,"કલી":1641,"▁શરી":1642,"િયલ":1643,"કત":1644,"▁સતત":1645,"▁કરવાનું":1646,"▁બાજુ":1647,"▁સારવાર":1648,"▁અંદા":1649,"જની":1650,"ચાલ":1651,"▁ખર્ચ":1652,"▁જરૂરી":1653,"▁બેંક":1654,"▁કરતી":1655,"▁ધરાવે":1656,"▁મેળવી":1657,"▁બ્":1658,"ધન":1659,"મારા":1660,"ક્ષે":1661,"હાલ":1662,"▁થતા":1663,"▁જિલ્લાના":1664,"▁ઊંચ":1665,"યર":1666,"▁એના":1667,"જરી":1668,"ંગા":1669,"▁નક્કી":1670,"▁પત્ની":1671,"બિ":1672,"▁માર્ગ":1673,"મતા":1674,"▁રહેલા":1675,"ૈન":1676,"▁ભી":1677,"ઓનો":1678,"▁પશ્ચિમ":1679,"▁આવક":1680,"▁પ્રજા":1681,"▁કાર્":1682,"▁સમજ":1683,"▁સમસ્યા":1684,"▁યાદ":1685,"તિક":1686,"૦૦૦":1687,"▁શરૃ":1688,"▁આપ્યો":1689,"▁ક્યારે":1690,"▁એન્ડ":1691,"ારોમાં":1692,"લાલ":1693,"▁પ્રેમ":1694,"▁આત":1695,"સને":1696,"▁૯":1697,"વાળી":1698,"▁પુર":1699,"્યાર":1700,"▁રાષ્ટ્ર":1701,"▁વળ":1702,"▁ટીમ":1703,"▁નં":1704,"▁સરકારી":1705,"વૃ":1706,"▁થયેલા":1707,"ૂતો":1708,"ૂલ":1709,"એટ":1710,"▁ભગ":1711,"અમે":1712,"ળમાં":1713,"97\t":1714,"મણ":1715,"સદ":1716,"▁મૃત્યુ":1717,"▁બન્ને":1718,"91\t":1719,"▁આંત":1720,"94\t":1721,"92\t":1722,"▁પરથી":1723,"96\t":1724,"▁ધર્મ":1725,"90\t":1726,"98\t":1727,"▁રૃ.\n":1728,"▁આગામી":1729,"લાકા":1730,"ફર":1731,"99\t":1732,"▁વર્ષની":1733,"93\t":1734,"▁દાખ":1735,"▁જન":1736,"▁વ્યવસ્થા":1737,"▁ઘટાડો":1738,"95\t":1739,"▁થશે":1740,"ંભીર":1741,"▁રહેશે.\n":1742,"શનલ":1743,"▁ટ્રા":1744,"▁ક્રિકે":1745,"▁ઉજ":1746,"▁લિ":1747,"▁તેવા":1748,"▁શ્રે":1749,"▁હોવાની":1750,"જિ":1751,"▁ફાય":1752,"▁એન્":1753,"ષ્ણ":1754,"▁ચલા":1755,"▁બાં":1756,"દુ":1757,"ર્તા":1758,"▁નજીક":1759,"મિક":1760,"ચ્છા":1761,"▁નીચે":1762,"▁મેળવ":1763,"▁બ્રા":1764,"▁આરોપી":1765,"સન":1766,"▁વિના":1767,"▁સુધીમાં":1768,"▁પાર":1769,"▁લગભગ":1770,"કિ":1771,"ખ્":1772,"▁પૂર્વ":1773,"▁યોગ્ય":1774,"ગ્રી":1775,"▁પિતા":1776,"ણામ":1777,"▁ઢ":1778,"ત્ત્વ":1779,"5\tઆ":1780,"▁કરવી":1781,"ંદર":1782,"▁મામ":1783,"▁જેટલા":1784,"્વ":1785,"▁આનંદ":1786,"ધુ":1787,"▁પં":1788,"▁ક્ષેત્ર":1789,"કટ":1790,"શ્ર":1791,"▁જાહેરાત":1792,"ટન":1793,"▁પ્રવેશ":1794,"▁બદલે":1795,"▁સારી":1796,"લેટ":1797,"▁જાન":1798,"▁રકમ":1799,"ક્રિયા":1800,"▁ચિંતા":1801,"▁થતી":1802,"કને":1803,"▁વન":1804,"રેન્દ્ર":1805,"▁ગંભીર":1806,"▁મેચ":1807,"▁બાળકો":1808,"▁વિષ":1809,"ધાર":1810,"ક્ષિ":1811,"ંગ્":1812,"▁આવેલું":1813,"▁પત્ર":1814,"▁આસ":1815,"વ્ય":1816,"તિહા":1817,"શુ":1818,"▁આઈ":1819,"જીના":1820,"▁આધાર":1821,"ટીના":1822,"▁આક":1823,"▁ગ્રામ":1824,"▁નાણાં":1825,"▁ગેર":1826,"સ્તી":1827,"તરમાં":1828,"▁કમિ":1829,"▁સ્ત્રી":1830,"▁મધ્ય":1831,"૨૦":1832,"ડમાં":1833,"▁જોઈએ":1834,"▁લીધે":1835,"ત્મક":1836,"▁મુલાકા":1837,"તાના":1838,"લાઇ":1839,"▁અભ્યાસ":1840,"ક્ષી":1841,"▁શાહ":1842,"▁દર્દી":1843,"▁મર":1844,"46\t":1845,"▁ઉઠ":1846,"▁પુત્ર":1847,"▁સ્પષ્ટ":1848,"42\t":1849,"45\t":1850,"44\t":1851,"▁પ્રધાન":1852,"41\t":1853,"▁ઓળખ":1854,"43\t":1855,"6\tઆ":1856,"▁એને":1857,"40\t":1858,"▁છું.\n":1859,"▁ખેલા":1860,"▁જમીન":1861,"રામ":1862,"▁ઉત્તર":1863,"49\t":1864,"▁વગર":1865,"ન્ન":1866,"47\t":1867,"▁ટેસ્ટ":1868,"48\t":1869,"ળવા":1870,"▁સંપ":1871,"▁નાણા":1872,"રૂપ":1873,"▁વર્ષના":1874,"▁યોજ":1875,"▁સોના":1876,"▁મંત્રી":1877,"▁તંત્ર":1878,"7\tઆ":1879,"ંકી":1880,"પીએ":1881,"▁લેવામાં":1882,"▁મૂક":1883,"▁નુક":1884,"▁૧૫":1885,"▁સાત":1886,"ર્થિક":1887,"▁વિગ":1888,"પણે":1889,"▁ખેડૂતો":1890,"▁જઈ":1891,"મેન":1892,"▁ગ્રાહ":1893,"▁હતી,":1894,"તેઓ":1895,"સમ":1896,"ષ્ય":1897,"▁ઘરે":1898,"▁કરવો":1899,"▁શાળા":1900,"સભા":1901,"▁જાણવા":1902,"▁હશે":1903,"▁કાં":1904,"▁અહે":1905,"▁જતા":1906,"8\tઆ":1907,"▁કોરોના":1908,"▁જતાં":1909,"▁પૈસા":1910,"▁શિક્ષણ":1911,"▁એક્":1912,"રિયા":1913,"▁દેખા":1914,"કાલે":1915,"▁પસાર":1916,"▁સભ્યો":1917,"▁વસ":1918,"▁પેટ":1919,"▁બજારમાં":1920,"▁નગર":1921,"▁સહિતના":1922,"▁પ્રત્ય":1923,"▁મેં":1924,"▁લીધો":1925,"▁રાજકીય":1926,"▁બોર્ડ":1927,"▁બદલ":1928,"િયર":1929,"▁દીધી":1930,"તેના":1931,"▁એજ":1932,"▁યોજા":1933,"તાની":1934,"માણ":1935,"▁નોકરી":1936,"▁તરફથી":1937,"ઓ,":1938,"ાવવા":1939,"▁,":1940,"ગઢ":1941,"▁પદ":1942,"▁એની":1943,"▁નાના":1944,"ળના":1945,"▁શ્ર":1946,"▁લીધી":1947,"▁મ્યુ":1948,"▁ત્યાર":1949,"ષણ":1950,"સ્ટે":1951,"▁વિજય":1952,"ાયેલી":1953,"▁100":1954,"▁શોધ":1955,"ઈલ":1956,"▁મંગ":1957,"▁તબ":1958,"દર્શન":1959,"▁ખરીદી":1960,"૧૯":1961,"ટલો":1962,"▁જેને":1963,"ગુજરા":1964,"▁તમારી":1965,"▁ખેલાડી":1966,"▁પ્રક્રિયા":1967,"▁કરવું":1968,"▁સ્ટો":1969,"▁પ્લા":1970,"▁જ્યાં":1971,"▁તા.\n":1972,"▁પતિ":1973,"▁મંત્ર":1974,"▁શર":1975,"▁આવશે":1976,"▁48":1977,"ંબ":1978,"ઝને":1979,"▁એલ":1980,"રોને":1981,"▁મહારા":1982,"વડ":1983,"્યો.\n":1984,"▁ફી":1985,"▁ડોલર":1986,"▁કરશે.\n":1987,"▁37":1988,"▁કેટલીક":1989,"▁38":1990,"ન્ટર":1991,"આર":1992,"ખર":1993,"▁સાંભ":1994,"▁મંદિર":1995,"મતી":1996,"▁હાઈ":1997,"જ્ઞા":1998,"ોની":1999,"▁રામ":2000,"▁કાયદા":2001,"▁આધારે":2002,"દય":2003,"▁મંજૂ":2004,"▁માલ":2005,"▁વેચાણ":2006,"▁જોડા":2007,"▁સમયમાં":2008,"પરે":2009,"▁મથ":2010,"▁આર્થિક":2011,"▁ત્રી":2012,"▁૧૨":2013,"ંડી":2014,"▁કૌ":2015,"▁મુદ્દે":2016,"▁સિવાય":2017,"લક":2018,"▁બાકી":2019,"▁જણા":2020,"▁ફ્":2021,"▁ભારતના":2022,"ટક":2023,"▁આંક":2024,"▁મકા":2025,"▁35":2026,"▁ફિલ્મો":2027,"ાંત":2028,"▁વિગતો":2029,"લ્પ":2030,"ર્ન":2031,"▁67":2032,"▁કિં":2033,"▁વડાપ્રધાન":2034,"▁પૂછ":2035,"▁વેપારી":2036,"▁નદી":2037,"▁ટૂ":2038,"િસ્થ":2039,"કડા":2040,"્યાય":2041,"▁58":2042,"▁ફરજ":2043,"ઝન":2044,"ભુ":2045,"ળની":2046,"▁સ્પર્":2047,"બંધી":2048,"▁68":2049,"▁ચુ":2050,"▁47":2051,"▁મજબ":2052,"▁વર્ષમાં":2053,"▁લેખક":2054,"ઉન્ડ":2055,"▁બાંધ":2056,"વાથી":2057,"પક":2058,"▁બેઠક":2059,"▁78":2060,"▁જંગ":2061,"▁શહેરમાં":2062,"▁57":2063,"▁ઓછા":2064,"▁કોંગ્રેસ":2065,"▁નીતિ":2066,"▁હતુ":2067,"િકલ":2068,"અમ":2069,"▁એકા":2070,"▁જેના":2071,"▁કરો":2072,"પોલી":2073,"▁ભૂમિ":2074,"▁નાખ":2075,"▁98":2076,"▁88":2077,"દ્ર":2078,"▁સ્ટા":2079,"▁૧૧":2080,"ધું":2081,"ટ્સ":2082,"શિયા":2083,"ભર":2084,"ાર્થ":2085,"▁ધ્યાન":2086,"▁ગામમાં":2087,"▁ધરાવતા":2088,"લન":2089,"▁ફેલા":2090,"વારી":2091,"▁લક્ષ":2092,"ટીમાં":2093,"▁45":2094,"▁જોડ":2095,"▁97":2096,"▁મંદિ":2097,"▁ધરી":2098,"શ્ય":2099,"▁77":2100,"▁વઘુ":2101,"લવે":2102,"ર્વે":2103,"▁રસ":2104,"▁તેથી":2105,"રાવ":2106,"▁ધાર":2107,"▁બોલા":2108,"▁રૂા.\n":2109,"લર":2110,"ટું":2111,"▁આજ":2112,"ટની":2113,"▁87":2114,"▁અરજી":2115,"િયમ":2116,"▁દુનિયા":2117,"▁રહ્યાં":2118,"▁ઓછ":2119,"વીને":2120,"▁લાગી":2121,"▁હત્યા":2122,"ટેડ":2123,"▁જેટલી":2124,"▁કી":2125,"ોને":2126,"▁ફંડ":2127,"▁જિ":2128,"▁દરમ્યાન":2129,"▁છીએ.\n":2130,"▁દિવસો":2131,"▁રસ્તા":2132,"▁પ્રકારની":2133,"કડી":2134,"ૃહ":2135,"દેવ":2136,"▁માટેની":2137,"▁કાર્યક્ર":2138,"ઈન":2139,"▁75":2140,"બાર":2141,"▁કાઢ":2142,"▁પૂરી":2143,"▁ઉમેદ":2144,"▁રાખવામાં":2145,"કનો":2146,"▁છા":2147,"પકડ":2148,"સ્ટ્રે":2149,"▁પામ":2150,"સ્થાન":2151,"▁સ્થાનિક":2152,"ૂડ":2153,"▁કંપનીઓ":2154,"શ્મી":2155,"▁હાજર":2156,"▁મોટો":2157,"▁36":2158,"દર્શ":2159,"▁ક્યાં":2160,"▁મહત્ત્વ":2161,"▁નાગર":2162,"▁છે?\n":2163,"લિયા":2164,"▁ઉદ્યોગ":2165,"▁કિલો":2166,"▁નથી,":2167,"ણને":2168,"▁પરિણામ":2169,"સ,":2170,"ળતા":2171,"વલ":2172,"▁જરૃ":2173,"ક્ષિણ":2174,"અહીં":2175,"▁દેવામાં":2176,"▁છીએ":2177,"▁૧૮":2178,"▁રાજકોટ":2179,"▁65":2180,"▁સમાજ":2181,"▁ભાવો":2182,"▁હાઇ":2183,"કાલ":2184,"રાષ્ટ્ર":2185,"ચિત":2186,"વાઇ":2187,"▁મુશ્કેલી":2188,"▁સ્વીકાર":2189,"▁55":2190,",000":2191,"▁અડ":2192,"▁ધારા":2193,"▁દવા":2194,"▁દેશમાં":2195,"ડોદરા":2196,"▁મોબા":2197,"▁જ્ઞ":2198,"▁ઝડપી":2199,"▁શાંતિ":2200,"પાલિકા":2201,"▁અક":2202,"િસ્સા":2203,"▁પ્રત્યે":2204,"ંડા":2205,"િવર્સિ":2206,"તને":2207,"▁સંઘ":2208,"▁પડશે.\n":2209,"▁આદેશ":2210,"▁વપરા":2211,"ટીને":2212,"ન્ટરને":2213,"▁નવે":2214,"ંચી":2215,"▁ફોન":2216,"▁હુમલા":2217,"ગાર":2218,"ાંડ":2219,"▁ધરપકડ":2220,"▁શકો":2221,"▁મુખ્યમંત્રી":2222,"ક્કા":2223,"▁પ્રકાશ":2224,"▁ખરીદ":2225,"▁આઠ":2226,"્રોલ":2227,"▁સું":2228,"જ્ઞાન":2229,"સ્મા":2230,"પિ":2231,"▁પ્રયાસ":2232,"નારી":2233,"▁મેને":2234,"બ્રુ":2235,"્યા.\n":2236,"▁હં":2237,"▁જામ":2238,"▁85":2239,"રબ":2240,"▁મળ્યું":2241,"▁ઇન્ડિયા":2242,"50\t":2243,"▁વસ્તુ":2244,"▁પ્રોજે":2245,"▁પ્રકારના":2246,"ંદ્ર":2247,"▁ક્રિકેટ":2248,"▁નોટો":2249,"▁પૂર્ણ":2250,"52\t":2251,"▁લોકોએ":2252,"રોની":2253,"▁દાખલ":2254,"▁વિક":2255,"53\t":2256,"55\t":2257,"▁56":2258,"તમ":2259,"▁વૃદ્ધિ":2260,"ભો":2261,"કોએ":2262,"58\t":2263,"▁પ્રમાણ":2264,"▁પરિસ્થ":2265,"▁સમિતિ":2266,"▁નંબર":2267,"59\t":2268,"57\t":2269,"▁ભાઈ":2270,"▁ઓછી":2271,"બ્રુઆરી":2272,"▁થવાની":2273,"51\t":2274,"56\t":2275,"54\t":2276,"▁ઝા":2277,"▁અસ":2278,"▁66":2279,"▁ઝડપ":2280,"ક,":2281,"નનો":2282,"▁શકે.\n":2283,"▁અત્યાર":2284,"વિધા":2285,"▁પરીક્ષા":2286,"ઓનું":2287,"રીને":2288,"▁આંતર":2289,"▁છોડ":2290,"દરમ":2291,"▁કાર્યક્રમ":2292,"▁બજ":2293,"▁46":2294,"્યુઆરી":2295,"▁બનાવવા":2296,"▁ત્રા":2297,"રીના":2298,"કારણ":2299,"▁પ્રાપ્ત":2300,"▁અનુભવ":2301,"▁ઘટ":2302,"▁તેવું":2303,"▁ભુ":2304,"▁શબ્દ":2305,"▁76":2306,"સવ":2307,"ર્ગ":2308,"બીજા":2309,"▁વ્યક્ત":2310,"▁હી":2311,"▁વેચ":2312,"▁95":2313,"લિત":2314,"▁આશા":2315,"ઉપ":2316,"▁થોડા":2317,"▁બાબતે":2318,"▁86":2319,"▁વિશ્":2320,"▁જીત":2321,"▁આપ્યું":2322,"▁રોગ":2323,"લ્લેખનીય":2324,"▁સપા":2325,"▁જેથી":2326,"▁લોકોની":2327,"▁96":2328,"▁ઔ":2329,"રાય":2330,"▁રાજા":2331,"▁કલાક":2332,"▁સમાન":2333,"▁રચના":2334,"▁હતો,":2335,"ટલ":2336,"▁વલ":2337,"ંસ":2338,"▁કરવાના":2339,"▁મૂળ":2340,"▁રહે.\n":2341,"▁સ્થળ":2342,"▁ફેબ્રુઆરી":2343,"▁સાંજે":2344,"નામાં":2345,"રાજ્ય":2346,"▁કોર્પોરે":2347,"તાવરણ":2348,"કામ":2349,"ષ્ટિ":2350,"▁વિસ્તારોમાં":2351,"▁લઇને":2352,"▁આકર્ષ":2353,"ડીયા":2354,"સ્ત્ર":2355,"▁સંદર્":2356,"▁2010":2357,"08":2358,"▁અના":2359,"બીજી":2360,"ટિંગ":2361,"▁ગામે":2362,"ક્કસ":2363,"60\t":2364,"માં,":2365,"▁વધાર":2366,"67\t":2367,"િસ્સો":2368,"61\t":2369,"ર,":2370,"63\t":2371,"62\t":2372,"▁જશે.\n":2373,"▁વધારા":2374,"66\t":2375,"68\t":2376,"ારંભ":2377,"કોની":2378,"▁ભગવાન":2379,"65\t":2380,"▁સર્જ":2381,"▁આતંક":2382,"64\t":2383,"કટર":2384,"ક્શન":2385,"▁હૈ":2386,"▁રવિ":2387,"▁ઘા":2388,"69\t":2389,"ગામ":2390,"▁નુકસાન":2391,"▁અબ":2392,"જેતરમાં":2393,"▁કંઈ":2394,"▁મળ્યા":2395,"રોજ":2396,"હું":2397,"▁ઈન્ડ":2398,"▁મેડ":2399,"▁જિલ્લામાં":2400,"વાર,":2401,"▁કમ":2402,"▁બાબત":2403,"▁પરિસ્થિતિ":2404,"▁કબ":2405,"▁ભ્ર":2406,"▁ગરી":2407,"૫૦":2408,"▁દબા":2409,"ગરમાં":2410,"સભ":2411,"▁આપણા":2412,"▁ઈન્":2413,"▁પગલાં":2414,"સાઈ":2415,"તી.\n":2416,"▁યુનિવર્સિ":2417,"ટલું":2418,"0\tઆ":2419,"ોના":2420,"્યે":2421,"▁નીક":2422,"▁જવાબદારી":2423,"▁ભોગ":2424,"તરે":2425,"▁સ્ટેશન":2426,"ડક":2427,"▁અંદર":2428,"▁ખબર":2429,"▁વર્લ્ડ":2430,"▁લીધા":2431,"જેના":2432,"▁મુક":2433,"76\t":2434,"▁થા":2435,"▁કરનાર":2436,"▁ફિ":2437,"▁કેવી":2438,"▁વાતાવરણ":2439,"▁હતા,":2440,"▁શિવ":2441,"▁જાળ":2442,"૧૧":2443,"વ્યા":2444,"▁કવિ":2445,"▁ખાનગી":2446,"▁સંપૂર્ણ":2447,"▁બિઝને":2448,"▁મુલાકાત":2449,"79\t":2450,"▁આરોગ્ય":2451,"▁ધ્યા":2452,"▁શક્તિ":2453,"કરા":2454,"▁પુરુ":2455,"લને":2456,"75\t":2457,"74\t":2458,"▁મળ્યો":2459,"જોકે,":2460,"ડિયો":2461,"▁સફળતા":2462,"▁અમુક":2463,"77\t":2464,"▁કમા":2465,"78\t":2466,"▁તૈયારી":2467,"71\t":2468,"▁બતા":2469,"▁નહી":2470,"72\t":2471,"70\t":2472,"73\t":2473,"▁નીકળ":2474,"યાં":2475,"વાને":2476,"▁તારી":2477,"▁ગુજરાતમાં":2478,"▁સદી":2479,"પમાં":2480,"▁જુદા":2481,"ણીએ":2482,"▁થાય.\n":2483,"▁કરશે":2484,"▁જાન્યુઆરી":2485,"▁સુંદર":2486,"▁વિદેશી":2487,"▁પુરા":2488,"▁રેલવે":2489,"▁ગુરુ":2490,"▁સપ્તા":2491,"▁ફેરફ":2492,"યન":2493,"▁પ્રમાણમાં":2494,"▁બેન્ક":2495,"▁બસ":2496,"▁સાવ":2497,"ડ્":2498,"▁પુસ્ત":2499,"▁અમેરિક":2500,"▁હતાં":2501,"▁દેવ":2502,"▁કહેવાય":2503,"▁સુવિધા":2504,"▁પૈકી":2505,"▁ઉત્પાદન":2506,"▁ટેક્સ":2507,"અલ":2508,"દાય":2509,"▁પાકિસ્તાન":2510,"▁થતો":2511,"▁ખરા":2512,"▁નરેન્દ્ર":2513,"▁દેવા":2514,"▁વાહ":2515,"▁જણ":2516,"▁બધી":2517,"▁યુદ્ધ":2518,"▁સામા":2519,"▁રાત્રે":2520,"▁પસંદગી":2521,"▁સંખ્યામાં":2522,"યત્":2523,"▁૧૪":2524,"યુક્ત":2525,"▁તી":2526,"ટીએ":2527,"પાત્ર":2528,"▁પ્રગ":2529,"▁ભારતની":2530,"તેમાં":2531,"▁ચાં":2532,"સરકાર":2533,"▁અંદાજ":2534,"▁યુવ":2535,"▁નામના":2536,"▁દક્ષિણ":2537,"▁વિવાદ":2538,"▁ભૂમિકા":2539,"▁પ્રારંભ":2540,"▁મહાન":2541,"▁બનાવવામાં":2542,"એટલે":2543,"ચારો":2544,"▁તત્":2545,"રાષ્ટ્રીય":2546,"▁દુકા":2547,"▁શિક્ષ":2548,"▁બહે":2549,"ડામાં":2550,"▁અપા":2551,"▁સંચાલ":2552,"▁નજર":2553,"▁લાંબા":2554,"▁છુ":2555,"▁પ્રયત્":2556,"શ્વર":2557,"▁રાખે":2558,"▁ચોક્કસ":2559,"કરો":2560,"ડર":2561,"▁મંજૂરી":2562,"નાના":2563,"▁કાળ":2564,"▁થયેલી":2565,"વાહ":2566,"▁ઉપા":2567,"▁વીજ":2568,"▁ઓગ":2569,"81\t":2570,"ફ્ર":2571,"લોજી":2572,"▁દાર":2573,"▁સર્વ":2574,"80\t":2575,"તાને":2576,"મારે":2577,"88\t":2578,"▁મંડ":2579,"ક્ટો":2580,"89\t":2581,"▁સર્વિ":2582,"82\t":2583,"થમિક":2584,"83\t":2585,"87\t":2586,"▁પુરુષ":2587,"▁યુવતી":2588,"ણના":2589,"▁મેળવવા":2590,"▁સમક્ષ":2591,"▁અદ":2592,"▁અંગ્રે":2593,"84\t":2594,"ાવવામાં":2595,"▁આગે":2596,"▁સુરક્ષા":2597,"▁સારા":2598,"▁માર્કેટ":2599,"86\t":2600,"સ્ટ્ર":2601,"▁ગોઠ":2602,"85\t":2603,"▁ગૌ":2604,"▁લાઇ":2605,"▁મળતી":2606,"▁ભૂત":2607,"ચન":2608,"▁ડાય":2609,"▁સોમ":2610,"▁જોખ":2611,"▁લાલ":2612,"▁આપતા":2613,"તાર":2614,"▁રાખવા":2615,"શ્રી":2616,"ડાં":2617,"▁પોતે":2618,"સ્ટી":2619,"▁રાષ્ટ્રીય":2620,"રીમાં":2621,"▁કચે":2622,"તાનો":2623,"▁નામે":2624,"▁વડોદરા":2625,"▁વર્ષથી":2626,"▁સંસ્ક":2627,"▁આદિ":2628,"▁સોસાય":2629,"▁સ્થળે":2630,"▁મનો":2631,"▁ફુ":2632,"▁શકા":2633,"ડની":2634,"ભરમાં":2635,"મૂ":2636,"▁રાજ્યો":2637,"▁વિશેષ":2638,"▁આપવાની":2639,"▁ગાય":2640,"▁નિયમ":2641,"▁જોઇએ.\n":2642,"▁રન":2643,"▁ચેર":2644,"ત્રિ":2645,"▁સવાર":2646,"▁મૂકી":2647,"શાન":2648,"▁મિત્ર":2649,"દના":2650,"▁વાર્તા":2651,"▁આક્ષે":2652,"▁જાણે":2653,"▁નાની":2654,"▁સૂત્રો":2655,"▁બોલી":2656,"▁વર્ગ":2657,"▁માંડ":2658,"▁વાતો":2659,"જ્":2660,"▁કર્":2661,"▁થોડ":2662,"તો.\n":2663,"▁ડૉ":2664,"▁34":2665,"▁રહેલી":2666,"▁ફોટો":2667,"▁સજા":2668,"▁દ્":2669,"ાવર":2670,"▁તાલુકાના":2671,"▁સાધ":2672,"તેની":2673,"ાર્ટ":2674,"▁ઑ":2675,"એફ":2676,"મ,":2677,"▁તક":2678,"▁આખ":2679,"▁ઉચ્ચ":2680,"▁સંભા":2681,"સ્થિત":2682,"▁અભિને":2683,"▁વર્ષો":2684,"એન":2685,"▁નિવે":2686,"ત્મા":2687,"૩૦":2688,"▁કલે":2689,"▁કાઢી":2690,"▁બાર":2691,"▁પરત":2692,"▁સૂર":2693,"▁મંગળ":2694,"રસ":2695,"▁દોડ":2696,"▁2016":2697,"દિવ":2698,"▁ઉજવણી":2699,"▁ઉત્પાદ":2700,"ંપરા":2701,"▁સંગઠ":2702,"સલ":2703,"▁રૃપિયા":2704,"▁બન્યા":2705,"પ્રા":2706,"▁પ્રસંગ":2707,"▁અગ્ર":2708,"શ્વિક":2709,"▁બિન":2710,"▁કરનારા":2711,"▁એફ":2712,"▁હાલમાં":2713,"કોમાં":2714,"▁ગમે":2715,"▁પુન":2716,"▁નાં":2717,"એલ":2718,"▁હશે.\n":2719,"ફિક":2720,"▁ભરા":2721,"પત્ર":2722,"▁મુદ્દા":2723,"હિત્ય":2724,"▁આના":2725,"શિયલ":2726,"▁હોઈ":2727,"ઇઝ":2728,"▁પૃ":2729,"વિક":2730,"▁સમુ":2731,"▁સંગી":2732,"▁સાય":2733,"હરણ":2734,"▁શરૂઆત":2735,"▁ગૃહ":2736,"▁મના":2737,"વૃત્તિ":2738,"નલ":2739,"▁ગત":2740,"ઉન્ટ":2741,"▁કાન":2742,"▁મગ":2743,"ત્યા":2744,"▁રાહત":2745,"▁ફાળ":2746,"ષિ":2747,"▁પાડી":2748,"યેલી":2749,"▁ચલ":2750,"▁150":2751,"જેથી":2752,"▁ઘરમાં":2753,"સ્ટ્રી":2754,"▁કોલ":2755,"▁સ્પર્ધા":2756,"▁ફટ":2757,"્યું.\n":2758,"▁સરકારના":2759,"▁પહેલી":2760,"પ્રે":2761,"▁મળશે.\n":2762,"▁હોય,":2763,"▁યુરો":2764,"▁એડ":2765,"▁આશરે":2766,"ત્યંત":2767,"ણની":2768,"તિમ":2769,"▁સામેલ":2770,"▁44":2771,"▁આે":2772,"▁ડિસે":2773,"▁લૂ":2774,"▁મહિનામાં":2775,"્યાલ":2776,"▁૩૦":2777,"▁હિસ્સો":2778,"▁હોસ્પિટલમાં":2779,"ન્ચ":2780,"▁અફ":2781,"▁ચમ":2782,"▁ડેસ્ક":2783,"▁સુરત":2784,"ન્સે":2785,"રેલી":2786,"▁અત્યારે":2787,"▁રાજ્યમાં":2788,"ન્ય":2789,"▁૧૩":2790,"ંદા":2791,"▁64":2792,"▁પાર્ટી":2793,"▁કરોડની":2794,"કંપની":2795,"યના":2796,"▁રજુ":2797,"ૃદય":2798,"▁માનવ":2799,"વારો":2800,"▁કિંમત":2801,"ઇડ":2802,"▁ભજ":2803,"▁દસ":2804,"▁હતું,":2805,"▁વિપ":2806,"▁ભાજપના":2807,"▁.":2808,"ઉન":2809,"ડતા":2810,"પુરા":2811,"વેલ":2812,"સાહ":2813,"▁તાલુકામાં":2814,"▁લાગણી":2815,"ભૂ":2816,"ંડો":2817,"▁પંચાય":2818,"▁મૂલ":2819,"▁રહેવા":2820,"▁બેં":2821,"ાર્જ":2822,"દાચ":2823,"▁અધ્ય":2824,"▁વાય":2825,"▁ઓપરે":2826,"▁રહેશે":2827,"▁૧૬":2828,"▁વિધાન":2829,"▁ઘો":2830,"▁કરતો":2831,"▁પ્રાથમિક":2832,"▁મંત્રાલ":2833,"▁54":2834,"▁કરેલા":2835,"પ્રિય":2836,"ણામે":2837,"▁સૈન":2838,"બ્ધ":2839,"▁યાદી":2840,"જિક":2841,"▁સરકારની":2842,"સ્લિ":2843,"▁કરાવી":2844,"હર":2845,"▁પ્રોજેક્ટ":2846,"ગ્રા":2847,"પ્રી":2848,"▁સલાહ":2849,"▁હોય.\n":2850,"▁યોગ":2851,"▁કરી.\n":2852,"▁અણ":2853,"ટિ":2854,"બના":2855,"▁જઇ":2856,"▁એસ.\n":2857,"ાવ્યો":2858,"▁પાઠ":2859,"સનો":2860,"નાથ":2861,"▁સંશો":2862,"▁વર્ત":2863,"▁હવા":2864,"▁સપ્ટે":2865,"▁શબ્દો":2866,"▁વિદ્યાર્થીઓ":2867,"▁ઋ":2868,"▁ચોરી":2869,"▁મોકલ":2870,"▁ટુ":2871,"▁૧૭":2872,"ેલી":2873,"ભારત":2874,"▁તું":2875,"▁પકડ":2876,"▁હંમે":2877,"▁સ્થળો":2878,"ંગી":2879,"ષ્ટા":2880,"▁94":2881,"▁દિશા":2882,"▁ઠા":2883,"▁પોતાનું":2884,"▁મુકા":2885,"▁લાઈ":2886,"▁74":2887,"ન્ટે":2888,"ડાના":2889,"ંદુ":2890,"▁250":2891,"▁વાંચ":2892,"▁પોસ્ટ":2893,"▁વાહન":2894,"▁પગાર":2895,"▁અત્યંત":2896,"▁જગ્યાએ":2897,"▁ઉકે":2898,"▁શંકા":2899,"▁84":2900,"ણવ":2901,"▁મજબૂત":2902,"▁શકી":2903,"કાં":2904,"▁140":2905,"▁ત્રિ":2906,"જનક":2907,"▁પરંપરા":2908,"▁ધરાવ":2909,"▁માટેના":2910,"▁ભાવનગર":2911,"▁બેસ":2912,"▁તા.":2913,"▁પિ":2914,"▁પ્રિ":2915,"▁ધારાસભ":2916,"▁સભ્ય":2917,"કાળ":2918,"ઉલ્લેખનીય":2919,"▁શહેરના":2920,"▁નર":2921,"▁છૂટ":2922,"▁મર્યા":2923,"▁તાપ":2924,"કિંગ":2925,"▁માગણી":2926,"▁190":2927,"▁શૈ":2928,"▁ઇન":2929,"ધામ":2930,"▁ગુમા":2931,"▁ઓફિ":2932,"▁120":2933,"▁નામની":2934,"▁બુધ":2935,"તામાં":2936,"▁કરેલી":2937,"▁નેટ":2938,"▁છેલ્":2939,"રાશ":2940,"જને":2941,"▁છૂ":2942,"▁વહી":2943,"▁ઓન":2944,"▁સરખ":2945,"▁અંક":2946,"▁ઉપલ":2947,"ન્દુ":2948,"▁ફૂટ":2949,"સ્તો":2950,"▁આત્મ":2951,"▁સામનો":2952,"કેટલા":2953,"પાક":2954,"વત":2955,"▁રોકાણકારો":2956,"▁બ્રિટ":2957,"▁વિષય":2958,"▁પોતાનો":2959,"▁દાવો":2960,"▁કાશ્મી":2961,"▁હોવાનો":2962,"▁નાખી":2963,"દરમિયાન":2964,"કોર્ટ":2965,"સ્ટ્રેલિયા":2966,"▁સરકારને":2967,"▁સિંહ":2968,"ડુ":2969,"▁૨૫":2970,"▁110":2971,"▁500":2972,"▁મેનેજ":2973,"▁ચુક":2974,"▁ગુજરાતના":2975,"▁હાઉ":2976,"પાં":2977,"▁ઝી":2978,"▁ડો.\n":2979,"▁સાહિત્ય":2980,"▁ધ્યાનમાં":2981,"▁શકાય.\n":2982,"▁અવા":2983,"▁વ્":2984,"પૂર્વક":2985,"▁ભય":2986,"▁કેસમાં":2987,"▁અધિકારીઓ":2988,"પલ":2989,"▁હૃદય":2990,"▁અકસ્મા":2991,"વાયું":2992,"▁અંગેની":2993,"▁માર્ચ":2994,"ાર્ડ":2995,"▁સમાચાર":2996,"તરા":2997,"▁ફેરફાર":2998,"▁એપ્ર":2999,"ંદોલ":3000,"▁અટકા":3001,"તેને":3002,"▁હોવાના":3003,"ન્જ":3004,"▁હેતુ":3005,"જીએ":3006,"ખંડ":3007,"મદ":3008,"▁130":3009,"▁હર":3010,"કોર્ડ":3011,"ળું":3012,"▁આસપાસ":3013,"▁અંતિમ":3014,"ંસા":3015,"સ્ત્રી":3016,"▁આવતાં":3017,"ટીંગ":3018,"વ્યો":3019,"▁પટે":3020,"▁એમાં":3021,"▁તેમનો":3022,"નિટ":3023,"જારો":3024,"▁નબ":3025,"▁ગર્":3026,"▁180":3027,"પરિ":3028,"માત્ર":3029,"▁માને":3030,"ઉટ":3031,"૧૨":3032,"્રેડ":3033,"▁ક્યારેય":3034,"▁કમિશન":3035,"વ.":3036,"▁વિભા":3037,"ર્તિ":3038,"ઝે":3039,"▁160":3040,"▁મુસા":3041,"િયે":3042,"▁સ્થિત":3043,"▁હજી":3044,"▁દિવસમાં":3045,"શીલ":3046,"\tઆજે":3047,"▁નિષ્ફળ":3048,"▁ધમ":3049,"▁આદ":3050,"ડવામાં":3051,"▁170":3052,"▁સેન્ટ":3053,"▁જશે":3054,"▁૫૦":3055,"▁હુમલો":3056,"ઇના":3057,"▁ફૂ":3058,"▁શનિ":3059,"▁ભાગી":3060,"▁દીધો":3061,"▁ચાલે":3062,"▁પ્રતિબંધ":3063,"▁હતુ.\n":3064,"▁બિલ્":3065,"ળીને":3066,"▁દેશો":3067,"જીવ":3068,"▁કાર્ડ":3069,"▁કૌભ":3070,"▁અમારા":3071,"▁બદલા":3072,"▁વધીને":3073,"▁દૂધ":3074,"માલ":3075,"▁ઉં":3076,"▁ન્યૂ":3077,"▁ધંધા":3078,"સાથે":3079,"▁49":3080,"▁દેખાવ":3081,"▁બળ":3082,"▁પી.\n":3083,"નાની":3084,"▁એક્સ":3085,"કૃ":3086,"▁240":3087,"ન્સર":3088,"▁230":3089,"▁ક્ષમતા":3090,"ર્મા":3091,"▁મોટાભાગ":3092,"▁બજે":3093,"▁શુક્ર":3094,"▁યાત્રા":3095,"વાડી":3096,"▁સબ":3097,"▁દરિયા":3098,"લિકા":3099,"▁અગ":3100,"▁મોર":3101,"▁સમર્થ":3102,"▁270":3103,"▁સપ્તાહ":3104,"▁જવાનો":3105,"▁છોડી":3106,"▁ધા":3107,"▁વાયર":3108,"▁220":3109,"▁શ્રેષ્ઠ":3110,"કિત":3111,"▁સહાય":3112,"સ્ટર":3113,"▁તુ":3114,"▁જગ":3115,"▁210":3116,"પાન":3117,"▁વિરુ":3118,"▁જળ":3119,"▁પ્રવ":3120,"▁280":3121,"▁આંતરરાષ્ટ્રીય":3122,"▁છો.\n":3123,"તાએ":3124,"યાત":3125,"▁કું":3126,"▁રદ":3127,"▁260":3128,"▁તળ":3129,"ંદગી":3130,"ટીની":3131,"▁290":3132,"▁આંદોલ":3133,"ઠ્":3134,"▁39":3135,"ચીન":3136,"કરે":3137,"▁જૂના":3138,"▁કચ્છ":3139,"▁દીધા":3140,"▁અંતે":3141,"▁ઉમ":3142,"▁સમયથી":3143,"ટરી":3144,"તેથી":3145,"તા.\n":3146,"▁યુવાન":3147,"▁પ્રશ્નો":3148,"▁મુસ્લિ":3149,"▁99":3150,"દ્ધતિ":3151,"રૂપે":3152,"▁શેરોમાં":3153,"ભાવના":3154,"▁જેની":3155,"ઝિ":3156,"▁અમને":3157,"ંચા":3158,"▁કિસ્સા":3159,"વાડ":3160,"▁જતી":3161,"▁ઉપલબ્ધ":3162,"તા,":3163,"વિષ્ય":3164,"▁ફક્ત":3165,"અમદાવાદ":3166,"ૂમ":3167,"▁ઉર્":3168,"▁બિઝનેસ":3169,"▁વાગ્યા":3170,"▁હોત":3171,"▁લોકોના":3172,"▁પ્રોડ":3173,"▁0":3174,"▁પાસ":3175,"રત":3176,"▁તેમનું":3177,"▁ત્રાસ":3178,"▁રણ":3179,"▁અધ્યક્ષ":3180,"સીએ":3181,"▁રેકોર્ડ":3182,"વર્ષ":3183,"▁આતંકવાદી":3184,"▁જોઇએ":3185,"દૂ":3186,"▁ફોર્મ":3187,"\tઆમ":3188,"ભૂત":3189,"▁રમત":3190,"▁59":3191,"▁હાજરી":3192,"કોના":3193,"▁જોગ":3194,"પ્રદેશ":3195,"ન્યા":3196,"ક્રો":3197,"▁તેનાથી":3198,"▁અસ્":3199,"કારા":3200,"▁સ્વ.\n":3201,"▁89":3202,"▁ઐ":3203,"▁નવો":3204,"▁69":3205,"▁અપના":3206,"િયાર":3207,"▁આધારિત":3208,"▁નવેમ્બર":3209,"▁અચ":3210,"▁રાખીને":3211,"▁સંભ":3212,"ગ્રામ":3213,"▁વૈશ્વિક":3214,"▁ઘણાં":3215,"▁રજૂઆત":3216,"▁હળ":3217,"▁પ્રભાવ":3218,"▁૧૦૦":3219,"દની":3220,"તેણે":3221,"▁સેક":3222,"▁ન્યાય":3223,"▁સ્થાપ":3224,"▁ઉદ્":3225,"મ્સ":3226,"▁પ્રશ્ન":3227,"▁પામી":3228,"▁માધ્ય":3229,"ણીમાં":3230,"ંકર":3231,"▁વિશા":3232,"પૂર":3233,"▁કોમ":3234,"વુ":3235,"▁વિશ્વાસ":3236,"▁ત્રણે":3237,"મું":3238,"▁સૂચ":3239,"▁આપ્યા":3240,"▁દબાણ":3241,"▁ફ્રે":3242,"ઉપરાંત":3243,"▁ચેરમેન":3244,"▁જુદી":3245,"▁સ્તરે":3246,"▁કામમાં":3247,"▁અમલ":3248,"▁જોર":3249,"વાલો":3250,"બીઆઇ":3251,"▁ગણતરી":3252,"▁નાણાકીય":3253,"ંતી":3254,"▁ગણાવ":3255,"▁સિસ્ટ":3256,"▁તહે":3257,"જીની":3258,"કોર":3259,"▁દર્શન":3260,"સૌ":3261,"▁મુસાફ":3262,"▁79":3263,"▁બાબતો":3264,"રવ":3265,"▁આફ્ર":3266,"▁ગ્":3267,"▁સંતો":3268,"ફ્ટ":3269,"▁મહારાષ્ટ્ર":3270,"▁ખસે":3271,"▁અતિ":3272,"▁વેપાર":3273,"▁મારે":3274,"લ્થ":3275,"કાર્":3276,"▁કહેવું":3277,"▁થોડી":3278,"ધિક":3279,"રેખર":3280,"▁ગુનો":3281,"▁બેઠકમાં":3282,"▁ન્યુ":3283,"ક્રિય":3284,"▁ઉમેર":3285,"▁વિધાનસભા":3286,"▁જણાવે":3287,"કુમાર":3288,"▁સાબ":3289,"▁તાપમાન":3290,"▁જેવો":3291,"▁આપણી":3292,"ૂક":3293,"▁અમારી":3294,"્રાઇ":3295,"▁કોંગ્રેસના":3296,"કોર્":3297,"▁પદ્ધતિ":3298,"▁તેલ":3299,"ટુંબ":3300,"▁વ્યાજ":3301,"▁ખાલી":3302,"▁બીજ":3303,"▁ગામના":3304,"▁ખરાબ":3305,"▁જથ્":3306,"ડું":3307,"▁સન્":3308,"▁ફિલ્મમાં":3309,"▁દેશની":3310,"તેમના":3311,"▁બેસી":3312,"▁એજન્સી":3313,"▁કદાચ":3314,"સ્ટો":3315,"ળુ":3316,"▁કોર્ટમાં":3317,"▁વૃક્ષ":3318,"ંધો":3319,"ૈયા":3320,".5":3321,"▁ટીવી":3322,"▁અલ":3323,"▁બનાવે":3324,"▁નિયમો":3325,"▁તેવો":3326,"્રાઈ":3327,"▁જીવનમાં":3328,"▁પ્રતિક":3329,"▁એકબીજા":3330,"▁2011":3331,"▁31":3332,"કારક":3333,"પની":3334,"▁પાત્ર":3335,",૦૦૦":3336,"▁ગણા":3337,"દાસ":3338,"▁કરાયો":3339,"05\t":3340,"ઠો":3341,"▁ખેતી":3342,"▁નીકળી":3343,"રીયા":3344,"▁વડે":3345,"04\t":3346,"▁કરીએ":3347,"મોટા":3348,"▁લાગુ":3349,"08\t":3350,"▁સારો":3351,"02\t":3352,"▁વસ્તી":3353,"ત્તમ":3354,"▁માણસ":3355,"▁સંસદ":3356,"▁ધરાવતી":3357,"▁દ્રારા":3358,"▁વહીવ":3359,"09\t":3360,"01\t":3361,"અમેરિકા":3362,"▁આદિવાસી":3363,"▁ઉભી":3364,"▁198":3365,"00\t":3366,"▁કરાઈ":3367,"નિધિ":3368,"▁કાઉ":3369,"06\t":3370,"ડીએ":3371,"▁રાજય":3372,"▁દિવાળી":3373,"▁સૌરાષ્ટ્ર":3374,"▁સરખામ":3375,"07\t":3376,"▁રોકડ":3377,"▁પડશે":3378,"▁સ્વતંત્ર":3379,"િશ":3380,"▁ઉપસ્થિત":3381,"▁વ્યવહાર":3382,"▁શીખ":3383,"▁વાહનો":3384,"જિન":3385,"▁ભવિષ્ય":3386,"▁આવું":3387,"ણંદ":3388,"▁સ્પે":3389,"▁જણાવી":3390,"▁નાગરિકો":3391,"▁કેસો":3392,"કેશ":3393,"થ્વી":3394,"ાર્મિક":3395,"▁પ્રવાસ":3396,"▁ગતિ":3397,"ડાની":3398,"03\t":3399,"▁દારૂ":3400,"▁તાર":3401,"▁કાપ":3402,"િરા":3403,"▁નિર્માણ":3404,"વવાની":3405,"▁પડે.\n":3406,"▁પ્લે":3407,"તૃ":3408,"▁ઇતિહા":3409,"▁લોકપ્રિય":3410,"▁અબજ":3411,"ાવતા":3412,"▁મોટું":3413,"પરછ":3414,"લીમ":3415,"▁પર્વ":3416,"▁જેવું":3417,"નગરમાં":3418,"▁રિપોર્ટ":3419,"સ્ય":3420,"▁ચૌ":3421,"▁પુત્રી":3422,"▁તાજેતરમાં":3423,"▁33":3424,"▁197":3425,"▁પોલીસને":3426,"▁શખ":3427,"▁નાે":3428,"જાણ":3429,"ઇન્ટ":3430,"િયાત":3431,"લ્ટ":3432,"▁વાતચી":3433,"▁માળ":3434,"▁પૂર્વે":3435,"▁નેશનલ":3436,"▁કરો.\n":3437,"▁માલિક":3438,"▁ઘે":3439,"▁કોઈપણ":3440,"▁સામાજિક":3441,"▁સુખ":3442,"▁કામકા":3443,"માની":3444,"▁નહીં,":3445,"▁ખુબ":3446,"ષ્ટાચાર":3447,"▁કોન્":3448,"▁તારા":3449,"▁તુલ":3450,"જીને":3451,"▁વિરુદ્ધ":3452,"મહ":3453,"▁કરાયું":3454,"▁સંસ્કૃતિ":3455,"▁કોન્ટ":3456,"▁લશ્":3457,"મનો":3458,"છેલ્લા":3459,"▁મિત્રો":3460,"▁મિનિટ":3461,"▁નોંધા":3462,"▁તૂ":3463,"▁ટન":3464,"▁ગયા.\n":3465,"ંજ":3466,"ન્દ્રીય":3467,"▁છે!\n":3468,"જેને":3469,"▁વર્ણ":3470,"▁પહોંચા":3471,"▁ટેક્":3472,"તું.\n":3473,"▁લાખની":3474,"▁મીડિયા":3475,"▁ઝડપથી":3476,"પછી":3477,"ગ્યે":3478,"લ્યુ":3479,"▁સ્ટાફ":3480,"▁દાય":3481,"ત્યારબાદ":3482,"▁સાબિત":3483,"▁એચ":3484,"▁કહેવા":3485,"▁આપીને":3486,"▁પગલા":3487,"▁મહત્વનું":3488,"▁શરીર":3489,"દિક":3490,"▁રમા":3491,"▁લેવાની":3492,"ટ,":3493,"▁જનર":3494,"▁ગણાય":3495,"બજાર":3496,"▁પાછા":3497,"▁વિશાળ":3498,"▁મળતા":3499,"નાે":3500,"▁અખ":3501,"▁ઓગસ્ટ":3502,"▁સત્ય":3503,"▁જણાય":3504,"પંચ":3505,"▁ઉલ્લેખ":3506,"▁મ્યુનિ":3507,"ઘું":3508,"▁તકલી":3509,"▁સમયગા":3510,"સ્કાર":3511,"ંવાર":3512,"મીટર":3513,"▁યુવાનો":3514,"▁સુધારા":3515,"લ્ટી":3516,"▁એમને":3517,"પ્રીમ":3518,"તમે":3519,"▁સુપર":3520,"▁મુંબઇ":3521,"▁સ્કી":3522,"ટીવ":3523,"પાકિસ્તા":3524,"▁દુઃ":3525,"▁સુધારો":3526,"▁દીધું":3527,"હ્મ":3528,"૧૫":3529,"▁પામે":3530,"▁આંખ":3531,"▁અદાલ":3532,"પિતા":3533,"▁જેટલો":3534,"▁માનવામાં":3535,"▁અભિન":3536,"ટુ":3537,"▁કર્યો.\n":3538,"▁બ્રાન્ડ":3539,"ઓથી":3540,"ત્સવ":3541,"▁તરત":3542,"▁જાગ":3543,"▁નોંધપાત્ર":3544,"મુંબ":3545,"▁અક્ષ":3546,"કોઈ":3547,"થ્થ":3548,"▁કક્ષા":3549,"▁પ્રયત્ન":3550,"ઉં":3551,"▁સભા":3552,"લાઇન":3553,"▁૪૦":3554,"▁પડતી":3555,"▁પ્રતિનિધિ":3556,"▁લડ":3557,"▁બંદ":3558,"▁અગ્રણી":3559,"વ્ર":3560,"પ્રથમ":3561,"લાયન્સ":3562,"ગમ":3563,"સ.":3564,"▁જવાબદાર":3565,"▁ગયો.\n":3566,"▁મળશે":3567,"▁ડિગ્રી":3568,"▁હિન્દુ":3569,"સામાન્ય":3570,"▁ખી":3571,"▁સંકળ":3572,"▁નિયંત્ર":3573,"▁સંજો":3574,"▁ઝો":3575,"▁હાથમાં":3576,"મંડ":3577,"તેમની":3578,"▁સંગ્ર":3579,"પજ":3580,"▁ટિ":3581,"▁મોંઘ":3582,"▁પોરબ":3583,"▁108":3584,"ગ્રહ":3585,"▁વાસ્ત":3586,"▁સાથેની":3587,"▁ડિસેમ્બર":3588,"રોએ":3589,"▁મિલ":3590,"▁શક્ય":3591,"▁સરે":3592,"લોક":3593,"▁ઊભી":3594,"પન":3595,"▁જ્ઞાન":3596,"▁હંમેશા":3597,"▁ઇન્ટરને":3598,"▁સ્વામી":3599,"રું":3600,"▁બરા":3601,"ન્ના":3602,"જયારે":3603,"▁વળતર":3604,"▁સ્કૂ":3605,"ંશ":3606,"▁જયારે":3607,"▁મામલે":3608,"વું.\n":3609,"ગોમાં":3610,"▁સ્થાપના":3611,"રાઈ":3612,"ષી":3613,"▁ગ્રે":3614,"ફોન":3615,"ંગ્લેન્ડ":3616,"▁કચેરી":3617,"▁શુભ":3618,"▁કોર્ટે":3619,"ઝિટ":3620,"▁પેટ્રોલ":3621,"હેરમાં":3622,"▁કરાયા":3623,"▁ધાર્મિક":3624,"▁કારણો":3625,"▁રોક":3626,"▁યુવા":3627,"ાવીને":3628,"▁બેઠકો":3629,"ળાના":3630,"▁મળીને":3631,"ફાઈ":3632,"▁ગરમી":3633,"▁પ્રાણી":3634,"▁ટ્રાન્સ":3635,"ઇક":3636,"▁એનો":3637,"▁ગયેલા":3638,"▁અઠ":3639,"▁ટકાનો":3640,"▁ઘણું":3641,"ગરી":3642,"▁વિકસ":3643,"▁નોંધાયો":3644,"▁ખેંચ":3645,"▁શકશે.\n":3646,"▁વિન":3647,"▁રાવ":3648,"ન્ડર":3649,"▁ઓસ્ટ્રેલિયા":3650,"▁બ્રિ":3651,"▁અપે":3652,"▁ભાગે":3653,"ઢા":3654,"▁દિવસોમાં":3655,"▁ડેટા":3656,"▁જવાની":3657,"▁પ્રદર્શન":3658,"▁વિલ":3659,"રાન":3660,"▁અહેવાલ":3661,"▁સંગીત":3662,"▁ચંદ્ર":3663,"▁ઓક્ટો":3664,"▁ઓફર":3665,"▁લગા":3666,"કેટલાક":3667,"સ્પે":3668,"▁સપ્ટેમ્બર":3669,"▁ગ્રી":3670,"▁મારો":3671,"યાત્રા":3672,"▁ગોળી":3673,"લ્લ":3674,"▁સંકે":3675,"માનો":3676,"રેશ":3677,"કું":3678,"▁પાલિકા":3679,"▁દોડી":3680,"▁ઉ.\n":3681,"▁દિવસથી":3682,"રાની":3683,"▁૨૪":3684,"▁ક્વા":3685,"કાયદે":3686,"ાયેલ":3687,"▁ઓછું":3688,"▁નેટવર્":3689,"દમાં":3690,"▁રાષ્ટ્રપતિ":3691,"▁બધ":3692,"ન્સિ":3693,"લીન":3694,"▁વધુમાં":3695,"▁કર્યું.\n":3696,"જીવન":3697,"તેમજ":3698,"▁ઇજા":3699,"વડા":3700,"▁માની":3701,"મ્પ્યુ":3702,"▁ઘણો":3703,"▁ભારતી":3704,"▁જૂથ":3705,"▁જામનગર":3706,"▁સપાટી":3707,"ધર":3708,"▁સરળ":3709,"▁કંપનીના":3710,"▁કૂ":3711,"▁માર્કે":3712,"▁બદલી":3713,"▁એટલા":3714,"પદ":3715,"▁પેદા":3716,"▁ત્રીજા":3717,"▁સર્વિસ":3718,"સર્":3719,"▁વારંવાર":3720,"ર્દી":3721,"▁પહેર":3722,"▁સ્વરૂપ":3723,"▁કડક":3724,"યોગી":3725,"▁બપોરે":3726,"▁અનિ":3727,"▁સર્વે":3728,"▁નિક":3729,"▁32":3730,"ટને":3731,"▁આંકડા":3732,"▁ગોલ્ડ":3733,"▁મંજુ":3734,"▁સંભાવના":3735,"▁લોન":3736,".સ.":3737,"▁વકી":3738,"ત્તર":3739,"▁અંગ્રેજી":3740,"▁આક્ષેપ":3741,"ટિવ":3742,"ડિંગ":3743,"▁સર્જા":3744,"▁માનસિક":3745,"▁ભ્રષ્ટાચાર":3746,"▁બર":3747,"▁ઉદા":3748,"▁મુક્ત":3749,"▁વાગ્યે":3750,"▁ઉછ":3751,"▁યુનિવર્સિટી":3752,"▁વર્તમાન":3753,"ંથ":3754,"▁કૃષ્ણ":3755,"▁ફળ":3756,"▁સ્થિતિમાં":3757,"▁પ્રવૃત્તિ":3758,"▁પશુ":3759,"ગલ":3760,"▁તબી":3761,"ૃતિક":3762,"ાનક":3763,"ડાઈ":3764,"▁માંગણી":3765,"▁મોદીએ":3766,"કાર્ય":3767,"▁નાય":3768,"▁ફાયદો":3769,"▁63":3770,"▁સંપર્ક":3771,"▁દાયકા":3772,"પ્પા":3773,"જામ":3774,"▁ફરીથી":3775,"▁જનરલ":3776,"▁43":3777,"વિડ":3778,"▁ઇચ્છ":3779,"▁વેબ":3780,"કીને":3781,"▁મોબાઇલ":3782,"▁રુ":3783,"▁મોકલી":3784,"▁રહેતી":3785,"▁દેશોમાં":3786,"▁ગરીબ":3787,"▁સ્મ":3788,"▁માથા":3789,"ફિ":3790,"▁પ્રિય":3791,"▁પાલન":3792,"▁ધન":3793,"▁સક્રિય":3794,"▁ઉભા":3795,"▁સ્થાને":3796,"▁કરવાથી":3797,"▁સિક":3798,"સમા":3799,"▁ભોજન":3800,"▁વરસ":3801,"▁મુશ્કેલ":3802,"▁શાક":3803,"વિલ":3804,"▁ગુલા":3805,"▁દિગ્":3806,"▁સારું":3807,"સ્ત્રો":3808,"▁ભાગના":3809,"ઠે":3810,"▁આફ્રિકા":3811,"▁સરેરાશ":3812,"▁વાઘ":3813,"▁કરેલ":3814,"▁સંબંધો":3815,"ન્ટી":3816,"▁વપરાશ":3817,"▁53":3818,"▁સન્માન":3819,"અગાઉ":3820,"ક્કર":3821,"▁રૂ.\n":3822,"▁વોર્ડ":3823,"▁પૃથ્વી":3824,"▁લેતા":3825,"▁કહેવામાં":3826,"ઝર્વ":3827,"▁બ્રે":3828,"▁ભાવમાં":3829,"▁દુર":3830,"▁લાંબી":3831,"ળાની":3832,"▁188":3833,"▁કરોડના":3834,"▁ખરેખર":3835,"▁એટલું":3836,"તનો":3837,"▁જીતી":3838,"▁કથા":3839,"▁વિમાન":3840,"નવા":3841,"▁તપા":3842,"▁ટેકો":3843,"▁એમની":3844,"▁જોઈને":3845,"▁ગેરકાયદે":3846,"લામાં":3847,"કસભા":3848,"▁આર્":3849,"▁શાસ":3850,"દિત":3851,"રણે":3852,"સાડ":3853,"▁કાર્યક્રમો":3854,"રાના":3855,"▁સંભાળ":3856,"▁તાલુકાનું":3857,"▁મૂલ્ય":3858,"▁તિ":3859,"▁ઠંડી":3860,"▁ઉકેલ":3861,"કતા":3862,"▁અધિકાર":3863,"ભારતીય":3864,"▁અંતર્":3865,"▁નેતાઓ":3866,"ત્કાર":3867,"▁છોકરી":3868,"▁રાજકાર":3869,"પણી":3870,"માર્":3871,"▁થતું":3872,"▁સૂર્ય":3873,"દમ":3874,"▁કુદર":3875,"▁બંગા":3876,"▁ટીકા":3877,"ધાની":3878,"ઝો":3879,"▁ક્ષેત્રે":3880,"▁થયેલ":3881,"▁મોડી":3882,"▁મેદાન":3883,"▁પકડી":3884,"ત્કા":3885,"▁એમના":3886,"▁83":3887,"કોંગ્રે":3888,"▁158":3889,"▁જાય.\n":3890,"▁પરિવર્":3891,"ગમાં":3892,"▁દર્શાવે":3893,"▁ગરમ":3894,"સવી":3895,"▁મોક":3896,"▁187":3897,"▁હમ":3898,"▁117":3899,"▁દીકરી":3900,"▁ટ્રેન":3901,"▁એપ":3902,"▁93":3903,"▁હાર":3904,"▁195":3905,"ઝર":3906,"▁107":3907,"▁મીટર":3908,"▁સહે":3909,"▁કોલેજ":3910,"▁પ્રસિ":3911,"સારી":3912,"સ્વા":3913,"▁178":3914,"▁દેખાય":3915,"બહે":3916,"૧૮":3917,"ર્ષિક":3918,"▁સવાલ":3919,"▁પ્રભુ":3920,"▁128":3921,"ખ્યાત":3922,"▁હજારો":3923,"▁એસો":3924,"▁સ્તર":3925,"▁148":3926,"▁ઠેર":3927,"▁જ્ઞા":3928,"▁ટિક":3929,"▁વિભાગના":3930,"▁રચ":3931,"▁પ્રયોગ":3932,"શ્ચિત":3933,"ાવ્યા":3934,"▁સમી":3935,"▁ઊંચા":3936,"ધારી":3937,"▁જામી":3938,"▁જાતિ":3939,"▁બંધાર":3940,"ંદી":3941,"સ્પદ":3942,"ણીની":3943,"▁168":3944,"▁73":3945,"▁207":3946,"▁137":3947,"▁118":3948,"ત્સા":3949,"▁પૂરા":3950,"▁138":3951,"▁127":3952,"ો,":3953,"૨૦૦":3954,"▁વિધ":3955,"ગના":3956,"▁સિદ્ધ":3957,"▁ભલા":3958,"કેશન":3959,"▁એપ્રિલ":3960,"▁157":3961,"▁અંતર્ગત":3962,"ઈટ":3963,"િમ":3964,"▁સાચ":3965,"▁લાય":3966,"▁હેડ":3967,"▁અજ":3968,"▁પાણીની":3969,"▁ખુશ":3970,"▁ટ્રાફિક":3971,"ભાજ":3972,"હાલમાં":3973,"હ્":3974,"▁આંગ":3975,"▁અમેરિકન":3976,"▁વજન":3977,"▁ઉછા":3978,"ડીંગ":3979,"▁167":3980,"▁147":3981,"▁ભૂલ":3982,"▁કલ્":3983,"▁સચ":3984,"▁તબક્કા":3985,"શને":3986,"▁આવતો":3987,"વરણ":3988,"જીત":3989,"▁એરપોર્ટ":3990,"▁જૈન":3991,"▁177":3992,"▁જન્મદિવ":3993,"▁તકલીફ":3994,"▁ચિત્ર":3995,"▁હકી":3996,"▁પ્રેર":3997,"▁ચોમા":3998,"▁સોસાયટી":3999,"સુર":4000,"૧૬":4001,"▁ઘૂ":4002,"▁પક્ષી":4003,"▁.\n":4004,"▁એમણે":4005,"નિયર":4006,"લિંગ":4007,"ષે":4008,"▁વધે":4009,"ઘ્ધ":4010,"▁દંડ":4011,"ણીને":4012,"▁વિગત":4013,"▁પાટી":4014,"▁કોર્પોરેશન":4015,"વધુ":4016,"▁નવું":4017,"▁તેજી":4018,"▁196":4019,"▁સૂચના":4020,"ફોર્મ":4021,"ર્મદા":4022,"▁અમદાવાદમાં":4023,"▁આઉટ":4024,"સ્ફો":4025,"▁208":4026,"▁217":4027,"ાવત":4028,"▁ઇચ્છા":4029,"▁વિદ્યાર્થીઓને":4030,"▁અપેક્ષા":4031,"ઝિક":4032,"▁એટલી":4033,"વાયા":4034,"▁એક્ટ":4035,"વી.\n":4036,"▁298":4037,"કિર્દી":4038,"▁218":4039,"▁એ.":4040,"▁સાથી":4041,"પોલીસે":4042,"▁267":4043,"▁288":4044,"▁તીવ્ર":4045,"બોલ":4046,"મ્મી":4047,"▁શકતા":4048,"ચાર્ય":4049,"▁સંદર્ભે":4050,"▁278":4051,"ઇસ":4052,"વૈ":4053,"▁આરોપ":4054,"ત્યાં":4055,"▁રજા":4056,"▁રાજકો":4057,"▁ધોરણે":4058,"▁કૃષિ":4059,"ંબા":4060,"િલ્લો":4061,"▁જૂની":4062,"દ્ય":4063,"▁સંયુક્ત":4064,"▁268":4065,"▁277":4066,"▁હાં":4067,"▁દરવા":4068,"▁નું":4069,"▁જાણકારી":4070,"લબ":4071,"▁વાન":4072,"▁ક્યારેક":4073,"ણીના":4074,"સ્તાવે":4075,"▁ચુકા":4076,"▁દલિત":4077,"▁જાણીતા":4078,"્યુઅલ":4079,"▁248":4080,"▁227":4081,"શાહી":4082,"▁પરના":4083,"બળ":4084,"▁પાકિસ્તાની":4085,"ીય":4086,"▁કેમ્પ":4087,"▁258":4088,"▁237":4089,"▁238":4090,"માર્ટ":4091,"▁પાવર":4092,"ભારતમાં":4093,"રેક્ટર":4094,"ડીમાં":4095,"▁જરૃરી":4096,"▁પડતા":4097,"ચર્ય":4098,"બૂ":4099,"▁247":4100,"▁અંબા":4101,"▁સેના":4102,"▁ગાળામાં":4103,"ગુજરાત":4104,"મારો":4105,"▁228":4106,"▁આશ્ર":4107,"ણ,":4108,"▁સંદર્ભ":4109,"▁નજ":4110,"▁297":4111,"▁ઓફિસ":4112,"▁અભિનેત્રી":4113,"િયો":4114,"▁લોહી":4115,"▁ચીન":4116,"▁વધારી":4117,"▁પેઢી":4118,"કોનો":4119,"▁સુના":4120,"▁287":4121,"▁બાળકોને":4122,"ા.":4123,"▁આક્રમ":4124,"▁257":4125,"ડીના":4126,"▁બન્યું":4127,"વધ":4128,"વિશ્વ":4129,"▁બીજો":4130,"▁કલાકે":4131,"નોમાં":4132,"▁સોંપ":4133,"▁દસ્તાવે":4134,"વેસ્ટ":4135,"બાજુ":4136,"▁કુટુંબ":4137,"સાઇ":4138,"૨૫":4139,"▁125":4140,"ોબ":4141,"દામાં":4142,"▁વ્યાપક":4143,"▁કેટલાંક":4144,"▁દિશામાં":4145,"▁હોઇ":4146,"રોધ":4147,"▁લગ્":4148,"ડના":4149,"સ્લા":4150,"▁ઊભા":4151,"ટ્ર":4152,"▁વિચારો":4153,"▁કેન્દ્રીય":4154,"▁તાત્કા":4155,"▁ધીમે":4156,"મેશ":4157,"▁ઈજા":4158,"▁ક્ષેત્રમાં":4159,"નોને":4160,"▁લોકોમાં":4161,"▁કલાકારો":4162,"▁મારફ":4163,"▁ઓછો":4164,"▁પોઇન્ટ":4165,"▁દલી":4166,"▁પડકાર":4167,"▁આંખો":4168,"▁બચાવ":4169,"▁નીચા":4170,"હેબ":4171,"▁નિકાસ":4172,"▁સ્ટાર":4173,"▁ગિ":4174,"દીના":4175,"▁ગીત":4176,"▁માસ":4177,"▁માહો":4178,"▁કારકિર્દી":4179,"▁હોસ્પિટલ":4180,"▁હતી.":4181,"▁પક્ષના":4182,"વાડા":4183,"▁મુસ્લિમ":4184,"▁પંજા":4185,"▁હુ":4186,"▁વાળ":4187,"▁કહ્યું,":4188,"▁સંદેશ":4189,"▁2015":4190,"▁જરૃર":4191,"▁આશ્":4192,"▁કઈ":4193,"લીને":4194,"કાના":4195,"▁ભાવે":4196,"સ્વ":4197,"▁ફાર્":4198,"▁પાટ":4199,"▁ભરી":4200,"..":4201,"▁1000":4202,"▁રાજીના":4203,"▁સરહ":4204,"▁વિરોધી":4205,"▁ઘટી":4206,"ભિ":4207,"▁કરાર":4208,"▁ભણ":4209,"▁પ્રવાસી":4210,"વમાં":4211,"▁કેશ":4212,"▁સાથેના":4213,"▁બિલ":4214,"▁રાય":4215,"▁ભૂતપૂર્વ":4216,"▁અચાનક":4217,"૧૪":4218,"▁પોર્ટ":4219,"▁સ્ટેટ":4220,"▁ધોરણ":4221,"અન્ય":4222,"કર્તા":4223,"પ્સ":4224,"▁કંપનીએ":4225,"એ.":4226,"▁સહિતની":4227,"▁ચૂંટણીમાં":4228,"▁કાર્યક્રમમાં":4229,"ંહે":4230,"આતમાં":4231,"લિકો":4232,"▁પાડવામાં":4233,"▁પર્યા":4234,"▁મજા":4235,"▁ભલે":4236,"વાયેલા":4237,"▁બન્યો":4238,"▁એવોર્ડ":4239,"▁પંથ":4240,"▁વસે":4241,"ગ્રસ્ત":4242,"▁અમેરિકાના":4243,"યેલ":4244,"શ.\n":4245,"▁સ્ટી":4246,"▁42":4247,"▁જોખમ":4248,"▁પહા":4249,"▁મનુ":4250,"શું.\n":4251,"▁અવાજ":4252,"લેશ":4253,"રીની":4254,"▁દરખા":4255,"ત્વે":4256,"▁ઇંચ":4257,"▁લુ":4258,"▁વિતર":4259,"વારના":4260,"ઉથ":4261,"▁ઘેર":4262,"ચાં":4263,"▁બાળક":4264,"▁રાજસ્થાન":4265,"▁પરિણામે":4266,"▁શોધી":4267,"લાસ":4268,"▁માનવી":4269,"▁ફ્ર":4270,"▁લાવ":4271,"▁કોન્ટ્રા":4272,"દ્ધા":4273,"▁ખોરા":4274,"▁મતદાન":4275,"▁જણાવાયું":4276,"▁નિવેદન":4277,"▁ગાં":4278,"▁વાર્ષિક":4279,"▁105":4280,"▁ચેક":4281,"ઈન્ટ":4282,"સાની":4283,"ઘાત":4284,"▁આર.\n":4285,"▁મકાન":4286,"▁સુધીની":4287,"▁ગેસ":4288,"▁મહિલાઓ":4289,"▁માણસો":4290,"અપ":4291,"▁આવીને":4292,"▁સલામતી":4293,"▁વહેલી":4294,"સાં":4295,"ૂહ":4296,"▁અંધ":4297,"▁અપી":4298,"સીસી":4299,"જ્ય":4300,"ૂર":4301,"▁115":4302,"▁કાગ":4303,"▁ટોચ":4304,"▁અર્થતંત્ર":4305,"લીના":4306,"▁જાળવી":4307,"મીના":4308,"▁મદદથી":4309,"લેક":4310,"▁ઓળખા":4311,"▁૧૯૯":4312,"નવી":4313,"૧૩":4314,"▁135":4315,"▁ચોક":4316,"નેટ":4317,"રી,":4318,"▁ખર્":4319,"▁પટેલે":4320,"સિંગ":4321,"ૂળ":4322,"નોની":4323,"▁મહિને":4324,"▁ટેકનો":4325,"▁પરેશ":4326,"સામાં":4327,"મોહન":4328,"▁ગુરૂ":4329,"▁185":4330,"▁ઓટો":4331,"▁ધારાસભ્ય":4332,"▁જ્યો":4333,"▁મોટાભાગના":4334,"▁સુધીના":4335,"પાર":4336,"▁સળ":4337,"િકાર":4338,"▁વિદ્યા":4339,"જ્યાં":4340,"▁સંતા":4341,"▁એમ.\n":4342,"ન્શન":4343,"▁પ્રશ":4344,"▁ગાંધીનગર":4345,"▁અંદાજે":4346,"ઈને":4347,"▁મુદ્દો":4348,"▁આપણને":4349,"ગાં":4350,"▁કાળા":4351,"▁145":4352,"▁જિંદગી":4353,"ત્રણ":4354,"▁કોણ":4355,"લેક્ટ":4356,"▁આંદોલન":4357,"▁જમ":4358,"વિંદ":4359,"તેમને":4360,"ંખ":4361,"ણામાં":4362,"▁શુભે":4363,"▁ટુક":4364,"▁ત્યારબાદ":4365,"લીમાં":4366,"▁કચ":4367,"▁51":4368,"ફિલ્":4369,"▁ભંગ":4370,"▁સાચી":4371,"▁41":4372,"▁આધુ":4373,"ે.\n":4374,"▁જ્":4375,"▁ટ્":4376,"▁મેઘ":4377,"▁કલ્યા":4378,"▁ઓવર":4379,"▁ઈન્ડિયા":4380,"ન્ક":4381,"વેરા":4382,"▁175":4383,"મુંબઈ":4384,"▁કૉ":4385,"▁કેન્સર":4386,"▁186":4387,"▁મેનેજમેન્ટ":4388,"ગામી":4389,"▁પ્રસંગે":4390,"વળી":4391,"▁ગૂ":4392,"▁તેમાંથી":4393,"▁155":4394,"▁તમારે":4395,"▁106":4396,"▁સંબંધિત":4397,"▁લખ્યું":4398,"▁ધારણા":4399,"▁નં.\n":4400,"▁શખ્":4401,"▁ખંડ":4402,"▁ડ્ર":4403,"વિદ":4404,"મ્બરે":4405,"▁શૂટ":4406,"▁માન્યતા":4407,"લત":4408,"▁સ્માર્ટ":4409,"બીઆઈ":4410,"▁મૌ":4411,"▁165":4412,"▁હરિ":4413,"ાર્થના":4414,"▁એણે":4415,"▁ખાતા":4416,"સિસ":4417,"માન્ડ":4418,"▁126":4419,"મેટ":4420,"▁દિવસની":4421,"▁વેચવા":4422,"નીએ":4423,"▁કેપ્":4424,"▁પ્રગતિ":4425,"▁વલણ":4426,"ઝલ":4427,"ક્વિ":4428,"લિટી":4429,"▁સુપ્રીમ":4430,"▁ઝે":4431,"દરેક":4432,"▁52":4433,"▁205":4434,"▁શાખા":4435,"▁આગેવાનો":4436,"૮૦":4437,"▁બરાબર":4438,"▁કરાય":4439,"▁લખી":4440,"▁265":4441,"▁215":4442,"▁225":4443,"▁દુર્":4444,"▁એન્ટ":4445,"▁92":4446,"▁116":4447,"▁કાવ":4448,"▁62":4449,"▁લોકસભા":4450,"મુખ્ય":4451,"▁પાડે":4452,"▁156":4453,"▁ચારે":4454,"▁વિકલ્પ":4455,"▁અસ્તિ":4456,"▁કન્":4457,"▁પથ્થ":4458,"▁વિકેટ":4459,"▁ઉમેદવાર":4460,"ક્ષિત":4461,"▁મહો":4462,"▁275":4463,"મય":4464,"▁પ્રયાસો":4465,"▁ખાતરી":4466,"▁285":4467,"▁જુલાઈ":4468,"▁જારી":4469,"▁1.":4470,"વેર":4471,"▁કાયદો":4472,"▁નિષ્ણા":4473,"▁આખા":4474,"લાના":4475,"▁સંત":4476,"▁245":4477,"કુલ":4478,"▁આવ્યાં":4479,"▁295":4480,"▁મીઠ":4481,"લાઈન":4482,"▁ભાઇ":4483,"▁કલાકમાં":4484,"▁જવું":4485,"ધિકારી":4486,"▁શુભેચ્છા":4487,"▁આધુનિક":4488,"▁જર્મ":4489,"તાથી":4490,"▁પડયો":4491,"તિહાસિક":4492,"એશન":4493,"▁માફ":4494,"▁એકત્ર":4495,"▁255":4496,"▁મેડિકલ":4497,"ુશ":4498,"▁વર્ષનો":4499,"▁206":4500,"ધાને":4501,"▁તસવી":4502,"▁આવે.\n":4503,"▁166":4504,"ક્ષણિક":4505,"▁દ્રષ્ટિ":4506,"▁હરા":4507,"▁146":4508,"▁ભારતને":4509,"રિટી":4510,"▁72":4511,"▁136":4512,"▁લૂંટ":4513,"▁ચહેરા":4514,"શોક":4515,"▁૨૬":4516,"રમ":4517,"▁ચકાસ":4518,"▁કિલોમીટર":4519,"ત,":4520,"યની":4521,"▁ચાર્જ":4522,"લ્વે":4523,"રેજ":4524,"▁ટાઇ":4525,"▁પ્રગટ":4526,"ડેજા":4527,"▁235":4528,"▁સુધાર":4529,"માને":4530,"▁176":4531,"▁કલેકટર":4532,"▁સંતોષ":4533,"▁આકાર":4534,"ખાસ":4535,"▁ઉમેર્યું":4536,"▁પડ્યો":4537,"હવા":4538,"▁બુક":4539,"▁ખુલ્":4540,"▁ખાંડ":4541,"▁સંશોધન":4542,"▁હોદ્":4543,"લોની":4544,"વાડિયા":4545,"▁નર્મદા":4546,"▁પડયા":4547,"▁નાગરિક":4548,"જિત":4549,"▁કશું":4550,"દ્દી":4551,"▁પોતાને":4552,"▁ચીફ":4553,"મેલ":4554,"૧૭":4555,"▁હસ્ત":4556,"વો.\n":4557,"▁સોમવારે":4558,"સબ":4559,"▁નફો":4560,"▁રાહુલ":4561,"▁કૌભાંડ":4562,"▁તોડી":4563,"મ્પ્યુટર":4564,"▁હિત":4565,"▁લંડ":4566,"▁તને":4567,"▁એસે":4568,"▁જેટલું":4569,"▁મોબાઈલ":4570,"▁ઓપરેશન":4571,"▁સમર્થન":4572,"▁તૂટી":4573,"▁કેપ":4574,"▁સલ":4575,"િંગમાં":4576,"▁તળાવ":4577,"▁કરું":4578,"સ્તે":4579,"▁286":4580,"▁પ્રચાર":4581,"▁કર્મચારીઓ":4582,"▁હરી":4583,"▁276":4584,"▁ફાયર":4585,"▁સહી":4586,"કારાત્મક":4587,"ઘટના":4588,"▁આપતાં":4589,"બ્રિ":4590,"▁મધ":4591,"▁296":4592,"ટર્સ":4593,"મંદ":4594,"▁હુક":4595,"▁246":4596,"▁આવી.\n":4597,"▁266":4598,"▁સાંભળ":4599,"મેં":4600,"▁216":4601,"▁નહોતી.\n":4602,"▁કર્યુ":4603,"▁જોતાં":4604,"વિત્ર":4605,"▁256":4606,"▁શાસન":4607,"ગારી":4608,"▁સિંગ":4609,"▁તેઓએ":4610,"▁મશી":4611,"▁સ્થિર":4612,"પુરમાં":4613,"ોએ":4614,"પક્ષ":4615,"▁આખી":4616,"યમાં":4617,"▁શર્મા":4618,"▁બી.\n":4619,"િટલ":4620,"પોર":4621,"જેમ":4622,"▁બનાવવાની":4623,"▁થયો.\n":4624,"▁અધિકારીએ":4625,"▁બનેલા":4626,"▁૨૨":4627,"▁226":4628,"▁થઈને":4629,"▁જેનો":4630,"▁વેસ્ટ":4631,"▁પ્રી":4632,"▁સમજી":4633,"▁236":4634,"શાળી":4635,"પોલીસ":4636,"▁વિકા":4637,"▁આપવાનો":4638,"શાસ્ત્ર":4639,"▁દોઢ":4640,"▁ધરવામાં":4641,"ઈડ":4642,"▁બધું":4643,"▁પ્રસ્તા":4644,"વ્યું":4645,"▁નગરપાલિકા":4646,"▁અજાણ":4647,"ાયલ":4648,"▁કરાઇ":4649,"▁ભંડો":4650,"▁61":4651,"▁બાબતમાં":4652,"▁પ્રોડક્ટ":4653,"▁શરુ":4654,"ડીઓ":4655,"▁વિસ્તારો":4656,"▁નોંધાવી":4657,"કન":4658,"▁નાન":4659,"▁સચિવ":4660,"▁દાન":4661,"▁નિર્દેશ":4662,"▁હિંદુ":4663,"▁તબક્":4664,"▁મથક":4665,"ચક":4666,"▁પ્રમો":4667,"▁91":4668,"ળ,":4669,"શહેર":4670,"▁વર્ષીય":4671,"▁સાહ":4672,"▁સંજોગોમાં":4673,"▁પાછો":4674,"ાર્ટમેન્ટ":4675,"લીએ":4676,"▁મોટર":4677,"▁મંદી":4678,"યા,":4679,"▁એશિયા":4680,"▁ભરે":4681,"▁આવ્યો.\n":4682,"▁શહેરી":4683,"▁82":4684,"મથી":4685,"▁અમેરિકામાં":4686,"▁બેસણું":4687,"કોર્ટે":4688,"▁ઓક્ટોબર":4689,"▁કયા":4690,"▁બહા":4691,"▁પાછી":4692,"સીના":4693,"▁નજીકના":4694,"▁અપીલ":4695,"ર્ના":4696,"▁રાત":4697,"▁ફોર":4698,"▁આઝા":4699,"▁બગ":4700,"\tઆથી":4701,"▁બજેટ":4702,"▁દરખાસ્ત":4703,"દ્રા":4704,"▁સ્થળોએ":4705,"▁વાસ્તવિક":4706,"▁મળવા":4707,"▁યાદીમાં":4708,"▁પોલિ":4709,"ચંદ્ર":4710,"▁સ્ના":4711,"▁સંર":4712,"▁જોગવાઈ":4713,"▁જનતા":4714,"▁દુઃખ":4715,"▁છે..\n":4716,"▁એટી":4717,"▁પૂજા":4718,"▁ભરતી":4719,"▁ઉદાહરણ":4720,"▁આપવાનું":4721,"▁વ્યવસાય":4722,"▁ટૂંક":4723,"▁ગણે":4724,"▁સ્પોર્ટ":4725,"▁પુરી":4726,"▁૬૦":4727,"▁સુનાવણી":4728,"લમ":4729,"▁કરાવવા":4730,"યણ":4731,"▁સંજય":4732,"ધંધા":4733,"▁71":4734,"વારા":4735,"પ્લે":4736,"તાઓ":4737,"▁ચેત":4738,"▁માતાપિતા":4739,"▁સિવિલ":4740,"▁એન્જિન":4741,"▁મોં":4742,"▁તારીખ":4743,"▁અસ્તિત્વ":4744,"▁રહેવું":4745,"▁કરાશે.\n":4746,"મિતા":4747,"▁માર્કેટમાં":4748,"▁ભારતે":4749,"▁ધમકી":4750,"ગણ":4751,"▁પંડ":4752,"▁દરો":4753,"▁અનામત":4754,"▁વીજળી":4755,"▁દોર":4756,"▁વળી":4757,"▁પૂછપરછ":4758,"ુપ":4759,"▁કેમે":4760,"▁પ્રસાર":4761,"▁જવાનું":4762,"▁થોડો":4763,"▁વિતરણ":4764,"▁ઉત":4765,"▁સમાજના":4766,"▁હતો.":4767,"▁મળેલી":4768,"▁વ્યકિત":4769,"▁મનમાં":4770,"▁મચી":4771,"▁ક્રો":4772,"▁લીધું":4773,"▁81":4774,"ર્સના":4775,"▁જગત":4776,"▁ગુના":4777,"ઝના":4778,"▁ગ્રાહકો":4779,"નનું":4780,"▁દશ":4781,"▁વિવે":4782,"▁વિસ્ફો":4783,"▁શ્વા":4784,"▁ડિસ્":4785,"▁સૈનિકો":4786,"▁ઉર્ફે":4787,"▁ઘ્યાન":4788,"▁સ્પેશ":4789,"▁ઢો":4790,"૪૦":4791,"રાટ":4792,"રાજા":4793,"▁મોહ":4794,"▁કોઈને":4795,"▁હસ":4796,"▁અંગત":4797,"ખાન":4798,"▁ચોખ્":4799,"▁લાગ્યા":4800,"▁રવિવારે":4801,"નોના":4802,"▁સાથ":4803,"▁ઓર":4804,"▁બાંધકામ":4805,"બનાવ":4806,"▁સંકેત":4807,"▁બંગ":4808,"પાસના":4809,"▁લાખો":4810,"▁એનું":4811,"▁ટાઈ":4812,"▁નથી.":4813,"▁રૂપ":4814,"િની":4815,"લાની":4816,"ન્દી":4817,"▁વિરૂ":4818,"તમા":4819,"▁સ્વાદ":4820,"▁તાલીમ":4821,"▁વિસ્તારના":4822,"ટ્ટા":4823,"▁ભાષામાં":4824,"▁પરા":4825,"▁સંબંધી":4826,"▁નિયમિત":4827,"રીએ":4828,"▁નાશ":4829,"▁વ્યસ્ત":4830,"▁જથ્થો":4831,"શ્યો":4832,"▁રહીને":4833,"ઈક":4834,"▁સરળતા":4835,"▁સોલ":4836,"▁રિલાયન્સ":4837,"▁નહિ.\n":4838,"▁આવો":4839,"ડી,":4840,"▁વાપર":4841,"લિમ્પ":4842,"▁ભાવના":4843,"▁ગઈ.\n":4844,"▁ચાલતી":4845,"▁પૂરો":4846,"▁બનેલી":4847,"▁મંગળવારે":4848,"▁શહેરની":4849,"▁મહેન":4850,"▁જેઓ":4851,"▁ખેડૂતોને":4852,"▁નાંખ":4853,"▁પવિત્ર":4854,"▁પોઈન્ટ":4855,"ક્ય":4856,"▁ભરત":4857,"▁336":4858,"▁ત્રણેય":4859,"▁ઉદ":4860,"▁વાવે":4861,"ંતર":4862,"▁માહોલ":4863,"મીએ":4864,"▁રક્ષણ":4865,"લીની":4866,"▁મોડ":4867,"એના":4868,"દિલ્હી":4869,"▁આત્મા":4870,"▁199":4871,"▁જોરદાર":4872,"ફેદ":4873,"યલ":4874,"કાત":4875,"▁સ્વચ્છ":4876,"▁પર્યાવરણ":4877,"ત્તે":4878,"▁ઉત્પ":4879,"▁પ્રસ્તાવ":4880,"ષો":4881,"▁ટાટા":4882,"ટનો":4883,"▁જાત":4884,"ન્સમાં":4885,"પહે":4886,"▁પલ":4887,"▁ઉત્સાહ":4888,"▁સ્ટોક":4889,"▁કલ્યાણ":4890,"જવ":4891,"▁આવતું":4892,"ાયર":4893,"▁એકદમ":4894,"▁ધ્વ":4895,"▁તેઓને":4896,"▁પ્રોત્સા":4897,"▁વ્યક્તિને":4898,"▁આશ્ચર્ય":4899,"▁મેન":4900,"▁માર્ગદર્શન":4901,"▁ઐતિહાસિક":4902,"▁સત્તાવાર":4903,"▁સર્જન":4904,"▁વાતચીત":4905,"દીપ":4906,"ળીયા":4907,"▁વહીવટી":4908,"▁શિયા":4909,"▁નિરા":4910,"ણાના":4911,"▁સેક્સ":4912,"▁એકાદ":4913,"▁ખ્યાલ":4914,"▁લોન્ચ":4915,"ુરુ":4916,"▁દ્વાર":4917,"▁આર્ટ":4918,"▁ક્વો":4919,"આેને":4920,"ણીય":4921,"▁એકાઉન્ટ":4922,"▁બતાવ":4923,"▁કોઇપણ":4924,"▁દર્દીઓ":4925,"▁પ્રવાહ":4926,"▁ઓલ":4927,"▁કુદરતી":4928,"▁ગુણવ":4929,"▁સૈન્ય":4930,"જ,":4931,"▁પુસ્તક":4932,"▁રહેવાની":4933,"▁૨૩":4934,"તરના":4935,"ડ,":4936,"▁ચક":4937,"તિના":4938,"▁દેવી":4939,"▁રૂપા":4940,"▁મર્યાદા":4941,"▁પ્રાર્થના":4942,"▁રાજે":4943,"કેન્દ્ર":4944,"▁પ્રાચીન":4945,"▁યૂ":4946,"કૃતિ":4947,"▁હળવા":4948,"▁પરિષ":4949,"▁ડેવલ":4950,"▁ફટકાર":4951,"▁પાણીમાં":4952,"▁મુખ્યત્વે":4953,"ત્રોના":4954,"▁ઉંચ":4955,"▁ઘટીને":4956,"▁બનવા":4957,"▁રૂ.1":4958,"ુંટ":4959,"▁ગામની":4960,"▁ચાહ":4961,"▁ફાઇન":4962,"▁ટ્રસ્ટ":4963,"ણિ":4964,"▁ભવ્ય":4965,"▁ટાં":4966,"▁જિલ્લો":4967,"▁હેલ્થ":4968,"▁તેજ":4969,"▁લાવવા":4970,"▁ટેકનોલોજી":4971,"રલ":4972,"▁ખેલાડીઓ":4973,"▁આયાત":4974,"▁મતે":4975,"ારીરિક":4976,"પ્રમુખ":4977,"▁કિ.\n":4978,"▁શહેરોમાં":4979,"▁ટિકિટ":4980,"▁આરંભ":4981,"લંકા":4982,"▁કય":4983,"▁હાર્":4984,"▁આવશ્ય":4985,"▁લો.\n":4986,"▁બિહાર":4987,"▁નવરા":4988,"▁પૂરું":4989,"કૃષ્ણ":4990,"▁પાડવા":4991,"▁સામેની":4992,"▁મૃતદે":4993,"૬૦":4994,"▁જલ":4995,"▁જતો":4996,"▁ઉતર":4997,"સેના":4998,"▁લાગ્યો":4999,"્મી":5000,"▁પુરવ":5001,"▁નિવેદ":5002,"ડિય":5003,"▁મેચમાં":5004,"▁અમિત":5005,"પાંચ":5006,"છતાં":5007,"▁ફ્રી":5008,"▁ગુણ":5009,"▁ઈંચ":5010,"▁પ્લાન્ટ":5011,"કાળમાં":5012,"▁કરે.\n":5013,"▁સર્વો":5014,"▁યથ":5015,"▁સ્કૂલ":5016,"▁મમ્મી":5017,"તાજેતરમાં":5018,"સીને":5019,"▁બનાવો":5020,"ર્સની":5021,"▁સિસ્ટમ":5022,"વણ":5023,"▁કરાયેલા":5024,"રામાં":5025,"▁સંબો":5026,"▁આવેલો":5027,"મ્મુ":5028,"▁પુષ્":5029,"▁દિલ":5030,"▁૫૦૦":5031,"▁ચલાવી":5032,"▁જેલમાં":5033,"▁નિમણ":5034,"સીની":5035,"રિષ્ઠ":5036,"ટ્ટ":5037,"સ્ટિક":5038,"▁ઊર્":5039,"ન્ટા":5040,"▁કાર્યરત":5041,"▁સામગ્રી":5042,"ડા,":5043,"ન્સના":5044,"▁બુધવારે":5045,"નામ":5046,"▁સાફ":5047,"▁ઈન":5048,"▁ઉપરથી":5049,"▁વિશ્વમાં":5050,"▁તત્વો":5051,"▁ઉંમ":5052,"ંમત":5053,"ૈનિક":5054,"▁ખેલ":5055,"▁પરિવારના":5056,"▁સંપત્તિ":5057,"▁સંઘર્ષ":5058,"ણી,":5059,"તોની":5060,"▁નોંધી":5061,"▁ખોટી":5062,"▁પ્રમાણે,":5063,"તૃત્વ":5064,"▁ઉગ્ર":5065,"▁૨૭":5066,"▁મહત્વની":5067,"▁સંગ્રહ":5068,"▁શુક્રવારે":5069,"ડાને":5070,"▁પગલું":5071,"વાયો":5072,"▁ત્રાસવાદી":5073,"ઝમાં":5074,"▁મોડે":5075,"▁ઈન્ટરને":5076,"▁પરિવર્તન":5077,"▁સગ":5078,"▁નાટ":5079,"▁ડું":5080,"▁સહકાર":5081,"સ્વી":5082,"▁જીલ્લા":5083,"ટોક":5084,"▁પહોંચ્યા":5085,"▁વાનગી":5086,"▁રસ્તો":5087,"▁અશોક":5088,"▁હતા.":5089,"તોમાં":5090,"લગ્ન":5091,"▁ભારતીયો":5092,"▁પ્રસ":5093,"▁વાદ":5094,"▁વીમા":5095,"▁બીજું":5096,"▁જામીન":5097,"ંજન":5098,"▁અઘ":5099,"▁મૂડી":5100,"▁ગુજરાતની":5101,"રીંગ":5102,"▁આવવા":5103,"ટ્ટી":5104,"સર્ચ":5105,"ુડ":5106,"▁બચ્ચ":5107,"▁હાલત":5108,"બાદમાં":5109,"▁મિશ્ર":5110,"લીઝ":5111,"▁સી.\n":5112,"▁આગા":5113,"સણ":5114,"▁પૌ":5115,"▁વિક્રમ":5116,"▁જેલ":5117,"▁અવસાન":5118,"ૂની":5119,"▁ગરબા":5120,"▁વિનંતી":5121,"▁સંદર્ભમાં":5122,"લોમાં":5123,"▁રીત":5124,"૫૦૦":5125,"ક્ચર":5126,"6\tએ":5127,"▁194":5128,"▁દિવસના":5129,"લિમ્પિક":5130,"▁ઉભ":5131,"▁શાકભા":5132,"▁જાણો":5133,"▁મારું":5134,"▁ચડ":5135,"▁રહેતો":5136,"▁રોષ":5137,"▁પીએસ":5138,"અર":5139,"▁સન":5140,"▁દિલ્હીમાં":5141,"▁પ્લાન":5142,"સ્ટા":5143,"યાની":5144,"▁ફૂડ":5145,"લોટ":5146,"કશન":5147,"▁પડ્યા":5148,"શાહ":5149,"▁રૂપિયાની":5150,"▁કોલેજો":5151,"▁જોકે":5152,"▁આંચ":5153,"▁રેલ્વે":5154,"▁શકશે":5155,"▁નજરે":5156,"ઇને":5157,"થુ":5158,"માએ":5159,"ટકા":5160,"▁સત્ર":5161,"▁સોદા":5162,"▁બહ":5163,"▁સાઉથ":5164,"▁ઉપયોગી":5165,"▁સેન્ટર":5166,"▁જઈને":5167,"ગની":5168,"દેવી":5169,"▁ગ્રામ્ય":5170,"▁આપશે.\n":5171,"▁સરદાર":5172,"▁આકાશ":5173,"▁કરોડનું":5174,"▁રિઝર્વ":5175,"સ્થ્ય":5176,"ષિત":5177,"▁ટીમો":5178,"ભારતના":5179,"▁શ્રેણી":5180,"▁તપાસમાં":5181,"▁સંશોધ":5182,"▁૨૦૧૦":5183,"▁કથ":5184,"▁૨૧":5185,"યાના":5186,"ંદન":5187,"▁દરરોજ":5188,"▁હથ":5189,"▁ઓબા":5190,"▁જાડેજા":5191,"ૃષ્ટિ":5192,"▁તમારો":5193,"બાળ":5194,"▁પાકિસ્તાનના":5195,"▁અંતર":5196,"▁બળા":5197,"ણાની":5198,"▁104":5199,"▁રૂપે":5200,"▁શરીરમાં":5201,"▁ચલણી":5202,"▁દબ":5203,"▁માગે":5204,"રો,":5205,"▁પુરાવા":5206,"▁કિસ્સામાં":5207,"▁આય":5208,"▁ખેડૂત":5209,"▁કામકાજ":5210,"ખુ":5211,"▁મચ":5212,"▁ઉતાર":5213,"િયાના":5214,"▁ગઈકાલે":5215,"▁કમિશનર":5216,"ંતિ":5217,"નારે":5218,"ગુજરાતમાં":5219,"લકથા":5220,"▁અમેરિકી":5221,"બન":5222,"▁શક્યા":5223,"▁કે.\n":5224,"તોને":5225,"▁144":5226,"ર્સને":5227,"પરી":5228,"▁નારાજ":5229,"▁સ્વય":5230,"▁બેન્કો":5231,"શો.\n":5232,"\tઆવા":5233,"▁નિમિ":5234,"જી,":5235,"▁લાવી":5236,"▁પુરૂ":5237,"▁124":5238,"▁ખુશી":5239,"જિલ્લા":5240,"લા,":5241,"લીપ":5242,"▁શારીરિક":5243,"▁મહાદેવ":5244,"▁પ્રચ":5245,"▁ફાં":5246,"▁ખર":5247,"▁સમુદ્ર":5248,"▁114":5249,"્વર":5250,"કાની":5251,"▁કંઇ":5252,"▁પત્રકારો":5253,"▁બહેન":5254,"▁ચેતવણી":5255,"▁154":5256,"▁ટેલિ":5257,"▁વર્ષોથી":5258,"▁ભંડોળ":5259,"▁સંવે":5260,"▁સોનાના":5261,"▁મું":5262,"ક્સી":5263,"▁બતાવી":5264,"અત્યારે":5265,"ક્તા":5266,"▁કરોડો":5267,"માના":5268,"રેશન":5269,"પોતાના":5270,"▁પામ્યા":5271,"ણુ":5272,"બંને":5273,"▁મૈ":5274,"▁વિજ્ઞાન":5275,"ભાગે":5276,"▁ખોલ":5277,"લિન":5278,"▁સંચાલન":5279,"ફ્રા":5280,"▁સફેદ":5281,"▁રિટ":5282,"▁જોતા":5283,"▁કિશો":5284,"▁મંત્રાલય":5285,"▁વચ્ચેના":5286,"૭૦":5287,"દ્યોગિક":5288,"સન્સ":5289,"▁ભક્તિ":5290,"9\tએ":5291,"▁સહન":5292,"▁આગાહી":5293,"▁આયુ":5294,"ંગે":5295,"3\tએ":5296,"▁સાંસદ":5297,"▁ધરતી":5298,"▁વરિષ્ઠ":5299,"▁ગુપ્ત":5300,"ાર્ક":5301,"▁રહ્યાા":5302,"▁દરવાજા":5303,"▁માઇ":5304,"લી,":5305,"▁જુઓ":5306,"▁ક્રમે":5307,"▁ત્યાંથી":5308,"ક્યુ":5309,"▁સંડો":5310,"▁ઘી":5311,"બ્લિક":5312,"▁મેડલ":5313,"▁સચિ":5314,"▁સાહેબ":5315,"▁પાંડ":5316,"ક્ષમ":5317,"2\tએ":5318,"▁ટીમે":5319,"▁વરસા":5320,"▁પ્લેટ":5321,"દર્શક":5322,"▁મોંઘવારી":5323,"▁વાવેતર":5324,"▁મોટે":5325,"▁ખર્ચે":5326,"▁ડેવલપ":5327,"▁2014":5328,"▁અધિકારીઓએ":5329,"▁સવારથી":5330,"▁મેટ":5331,"▁અટક":5332,"8\tએ":5333,"▁૨૮":5334,"▁ઇતિહાસ":5335,"▁માંગે":5336,"▁સમાર":5337,"▁જોડાયા":5338,"▁ટોચના":5339,"▁રોડ,":5340,"▁ગુણવત્તા":5341,"▁ચઢ":5342,"▁નિપજ":5343,"▁રૂા.":5344,"▁184":5345,"▁જૈ":5346,"▁વિજ્ઞા":5347,"▁174":5348,"▁ક્રિ":5349,"▁ટોપ":5350,"▁ઓછામાં":5351,"▁ઑફ":5352,"▁થવું":5353,"▁પુછ":5354,"▁સોશિયલ":5355,"▁રાખવી":5356,"▁સ્પષ્ટતા":5357,"શર":5358,"ાલિ":5359,"▁શૂટિંગ":5360,"▁બેસણું,":5361,"▁ે":5362,"▁ઘરની":5363,"▁204":5364,"▁ઈચ્છ":5365,"▁134":5366,"▁ક્રમ":5367,"ફ્ટી":5368,"▁કલમ":5369,"જેની":5370,"▁કોર્પોરેટ":5371,"વડી":5372,"▁સદ":5373,"4\tએ":5374,"▁વેગ":5375,"રાજ્યમાં":5376,"▁શખ્સો":5377,"ગાંધી":5378,"શાસ્ત્રી":5379,"ચંદ":5380,"ુમતી":5381,"▁મધ્યમ":5382,"▁વિલંબ":5383,"▁કન્યા":5384,"એટલું":5385,"▁નેટવર્ક":5386,"▁તાત્કાલિક":5387,"પટ":5388,"▁વણ":5389,"▁મરા":5390,"▁મુખ":5391,"▁164":5392,"▁કાર્યકરો":5393,"વ્યવ":5394,"ગયા":5395,"7\tએ":5396,"▁જાતે":5397,"▁ટ્રેડ":5398,"▁ભલામણ":5399,"▁સલમાન":5400,"્રલ":5401,"▁ઉતરી":5402,"▁વસ્તુઓ":5403,"નેશ":5404,"1\tએ":5405,"▁યુનિટ":5406,"▁બ્રિટિશ":5407,"▁જોયું":5408,"▁વિશ્વના":5409,"▁ભેદ":5410,"▁ઓળખાય":5411,"િયામાં":5412,"▁એકમાત્ર":5413,"▁દીપ":5414,"મહે":5415,"ળાં":5416,"▁સઘ":5417,"5\tએ":5418,"▁ડર":5419,"▁ચેન":5420,"શક્તિ":5421,"લીંગ":5422,"▁છેલ્લાં":5423,"લાત":5424,"રાહ":5425,"▁માત્રા":5426,"▁અમી":5427,"તક":5428,"ઝની":5429,"▁ધુ":5430,"▁તોડ":5431,"▁મેક":5432,"▁ફાઇના":5433,"▁૨૦૦૯":5434,"▁સંકળાયેલા":5435,"▁મળતાં":5436,"▁પડતો":5437,"▁નેતૃત્વ":5438,"▁ડી.\n":5439,"▁થયું.\n":5440,"સીબી":5441,"▁સિટી":5442,"▁ગણવામાં":5443,"▁નહોતી":5444,"ના,":5445,"▁આણંદ":5446,"ર્ટર":5447,"1\tઅ":5448,"▁ગુસ્":5449,"ક્રમે":5450,"▁સીધી":5451,"શે,":5452,"▁જૂન":5453,"▁ઉમેદવારો":5454,"0\tઅ":5455,"▁અરજ":5456,"▁જૂનાગઢ":5457,"▁તબક્કે":5458,"ંભા":5459,"ખું":5460,"ચિત્ર":5461,"▁નવલકથા":5462,"4\tઅ":5463,"▁રાખવાની":5464,"▁વધારવા":5465,"▁માટેનો":5466,"▁માંડી":5467,"29\tઆ":5468,"▁નવસારી":5469,"ન્ગ":5470,"10\tઆ":5471,"▁નામનો":5472,"200":5473,"ંટા":5474,"ૂપ":5475,"▁થવાનો":5476,"0\tએ":5477,"▁ટેક":5478,"38\tઆ":5479,"▁અર્જુ":5480,"▁ઊંચી":5481,"▁મમતા":5482,"રાં":5483,"ડીની":5484,"▁વલસાડ":5485,"વિદેશ":5486,"16\tઆ":5487,"23\tઆ":5488,"▁ગમ":5489,"▁ધંધો":5490,"▁કરોડનો":5491,"ડતી":5492,"નવ":5493,"વિત":5494,"▁આથી":5495,"ાનુ":5496,"15\tઆ":5497,"શની":5498,"▁હટ":5499,"▁બાય":5500,"▁જાપાન":5501,"સિડ":5502,"▁હોવાને":5503,"▁ગયાં":5504,"ર્ડર":5505,"▁સ્વાસ્થ્ય":5506,"▁ગર્ભ":5507,"3\tઅ":5508,"28\tઆ":5509,"21\tઆ":5510,"▁છૂટા":5511,"▁પ્રતી":5512,"▁ધિરા":5513,"▁આતંકી":5514,"▁વિપક્ષ":5515,"ઘણી":5516,"▁ઘુ":5517,"▁વિચારણા":5518,"▁224":5519,"ઝીલેન્ડ":5520,"▁વહેંચ":5521,"▁ત્રીજી":5522,"ખત":5523,"▁ઉંચા":5524,"▁સ્પી":5525,"▁284":5526,"▁હિંસા":5527,"▁પરિવારજનો":5528,"▁ફાળવણી":5529,"વાળો":5530,"▁નાસી":5531,"7\tઅ":5532,"્રેસ":5533,"▁રાજધાની":5534,"30\tઆ":5535,"▁હોમ":5536,"9\tઅ":5537,"્યુટી":5538,"▁294":5539,"24\tઆ":5540,"▁ઉપયોગમાં":5541,"37\tઆ":5542,"▁૩૫":5543,"સ્કૃતિક":5544,"▁આંતરિક":5545,"ઘ્ય":5546,"▁કંઈક":5547,"જ્જ":5548,"▁વધતી":5549,"▁મરી":5550,"ાવવાની":5551,"▁એકવાર":5552,"▁સેન્સે":5553,"દારોને":5554,"▁બધાં":5555,"ઝાઈ":5556,"વરી":5557,"ર્િ":5558,"▁બાત":5559,"▁સમૃ":5560,"▁264":5561,"▁જરા":5562,"▁વાગે":5563,"ચ્ચાર":5564,"20\tઆ":5565,"▁પત્રકાર":5566,"▁કેર":5567,"▁પેટા":5568,"▁ગ્રાહકોને":5569,"િયત":5570,"▁ટકાથી":5571,"મનાથ":5572,"▁દુકાન":5573,"ંટી":5574,"▁ડિઝા":5575,"▁અબ્":5576,"▁214":5577,"▁274":5578,"▁શકય":5579,"▁વીડિયો":5580,"ર્ય":5581,"5\tઅ":5582,"▁ટેલિકો":5583,"▁સીમા":5584,"▁રાઉન્ડ":5585,"27\tઆ":5586,"▁ગઇકાલે":5587,"▁મુકવામાં":5588,"પ્રદ":5589,"▁ઝૂ":5590,"▁ટ્રક":5591,"શિષ્ટ":5592,"▁પ્રસિદ્ધ":5593,"ચૂ":5594,"લૂ":5595,"વટે":5596,"▁હિન્દી":5597,"▁બેઠા":5598,"▁અગાઉના":5599,"▁પરંપરાગત":5600,"▁ખેંચી":5601,"મેન્ટમાં":5602,"▁ટ્રમ્પ":5603,"▁પ્રકાશિત":5604,"▁વધતા":5605,"▁એટીએમ":5606,"17\tઆ":5607,"▁નહોતો.\n":5608,"▁ચાંદી":5609,"લીક":5610,"▁બીમારી":5611,"▁પાણીના":5612,"▁ત્યારથી":5613,"ઝિટિવ":5614,"માતા":5615,"▁અનો":5616,"ર્જ":5617,"ર્સે":5618,"▁અંગેના":5619,"▁મનમોહન":5620,"▁ગૌરવ":5621,"હ્ય":5622,"▁ગું":5623,"બાકી":5624,"▁પાર્ક":5625,"▁૭૦":5626,"ંગ્લા":5627,"▁પુનઃ":5628,"▁નબળા":5629,"કામાં":5630,"▁ભેટ":5631,"▁જોડાયેલા":5632,"મ્બે":5633,"▁દીઠ":5634,"▁સગા":5635,"▁હેર":5636,"▁રહેલ":5637,"સિપલ":5638,"▁234":5639,"ગ્નિ":5640,"કોમ":5641,"▁હિંમત":5642,"▁ઇન્ડસ્ટ્રી":5643,"છો":5644,"▁ત્યા":5645,"▁વાલી":5646,"▁રોલ":5647,"ધારણ":5648,"34\tઆ":5649,"▁હવામાન":5650,"પત":5651,"હત્યા":5652,"▁વિજ":5653,"▁સંતાનો":5654,"▁પક્ષો":5655,"▁કપડાં":5656,"35\tઆ":5657,"▁કેપ્ટન":5658,"▁રખ":5659,"▁ડિરેક્ટર":5660,"▁ટૂંકા":5661,"▁વસૂ":5662,"▁કંપનીઓના":5663,"36\tઆ":5664,"▁તહેવાર":5665,"નો,":5666,"2\tઅ":5667,"14\tઆ":5668,"▁દુનિયામાં":5669,"▁ઓફિસર":5670,"▁કલ્પના":5671,"▁હોવી":5672,"લ્ફ":5673,"▁સોનિયા":5674,"▁આકર્ષણ":5675,"▁યુવક":5676,"યત":5677,"યી":5678,"લોકો":5679,"▁લીલા":5680,"▁તરફે":5681,"નમ":5682,"▁બાંધી":5683,"▁સ્ને":5684,"પ્ટ":5685,"▁અહેવાલો":5686,"▁કમાણી":5687,"▁ઍ":5688,"▁એસ્ટે":5689,"▁મુકી":5690,"▁254":5691,"▁244":5692,"૮માં":5693,"18\tઆ":5694,"ંગો":5695,"39\tઆ":5696,"ાવ્યું":5697,"▁ટકાના":5698,"▁સ્વીકારી":5699,"▁હાથે":5700,"▁ગ્રંથ":5701,"▁અમલી":5702,"▁ઉત્તમ":5703,"▁રજુઆત":5704,"પણા":5705,"▁સેલ":5706,"યમ":5707,"કેલા":5708,"▁પહોંચ્યો":5709,"▁મનાય":5710,"▁ઈચ્છા":5711,"19\tઆ":5712,"▁બનશે.\n":5713,"▁સંસ્થાઓ":5714,"▁ઝઘ":5715,"26\tઆ":5716,"▁ઓલિમ્પિક":5717,"25\tઆ":5718,"▁ભરવા":5719,"મલ":5720,"▁હોટ":5721,"▁અભિનય":5722,"▁ચકાસણી":5723,"ઘણા":5724,"▁નફા":5725,"▁પોઝિટિવ":5726,"કીંગ":5727,"▁સમાચારો":5728,"▁હાલતમાં":5729,"પને":5730,"▁ઉદ્યો":5731,"▁બ્લો":5732,"▁કાઉન્સિ":5733,"એચ":5734,"વળ":5735,"ાર્થો":5736,"પ્તા":5737,"રાજય":5738,"▁ઉત્પન્ન":5739,"ગન":5740,"માસિક":5741,"▁પત":5742,"▁સહકારી":5743,"▁ઊભ":5744,"8\tઅ":5745,"ન્દ્રા":5746,"▁સેક્રે":5747,"▁પોરબંદર":5748,"શિયન":5749,"કાશ્મી":5750,"ટેક":5751,"▁ભેગા":5752,"▁અંકુશ":5753,"▁રમી":5754,"▁મૂકવામાં":5755,"પરિણામે":5756,"▁ધારાસભ્યો":5757,"▁આપેલા":5758,"નારાયણ":5759,"▁નોંધાયા":5760,"▁સંરક્ષણ":5761,"▁ગંગા":5762,"6\tઅ":5763,"મ્પે":5764,"ખાણ":5765,"▁મંજૂર":5766,"▁ફિલ્મોમાં":5767,"▁અકસ્માત":5768,"ધરા":5769,"થી,":5770,"વર્ત":5771,"કતમાં":5772,"પિત":5773,"▁અસરકારક":5774,"▁મૃતદેહ":5775,"▁જોયા":5776,"ઇની":5777,"ર્જી":5778,"▁વ્યાખ્યા":5779,"▁સોલંકી":5780,"▁અહ":5781,"▁વટ":5782,"▁રમેશ":5783,"પ્પણી":5784,"▁રેડ":5785,"▁ફિલ્મના":5786,"▁પંજાબ":5787,"▁મજૂ":5788,"તેનો":5789,"▁પડ્યું":5790,"▁મુજબ,":5791,"▁નિયંત્રણ":5792,"▁મહેનત":5793,"▁વિજે":5794,"▁જુના":5795,"▁ઇંગ્લેન્ડ":5796,"▁129":5797,"▁લગાવી":5798,"▁કહીને":5799,"▁સમીક્ષા":5800,"▁બળાત્કાર":5801,"▁કટોક":5802,"▁મેસે":5803,"જુબાજુ":5804,"▁ગીતો":5805,"▁મહાનગર":5806,"▁છેલ્લી":5807,"મતિ":5808,"પુર,":5809,"▁નોટિસ":5810,"▁ભીડ":5811,"યાદ":5812,"▁અમરેલી":5813,"▁ઊભો":5814,"▁ઉંમર":5815,"500":5816,"▁ભૌ":5817,"સાણા":5818,"▁મામલત":5819,"સમગ્ર":5820,"▁ત્વ":5821,"▁લેવી":5822,"▁યુના":5823,"▁જી.\n":5824,"સરકારે":5825,"▁ધૂ":5826,"ધે":5827,"▁પર્":5828,"લેશન":5829,"▁119":5830,"▁બનીને":5831,"▁ચેમ્પ":5832,"▁માટેનું":5833,"▁2007":5834,"▁તકે":5835,"▁લવ":5836,"▁વિકે":5837,"▁સુપ્ર":5838,"▁કાર્યો":5839,"▁જાહેરમાં":5840,"▁ગ્રહ":5841,"▁યુનિ":5842,"▁કુમાર":5843,"▁અઠવાડિયા":5844,"ચલ":5845,"રોહ":5846,"પુરના":5847,"તરો":5848,"▁દાદા":5849,"▁છોડીને":5850,"▁વાયુ":5851,"▁ઇશ":5852,"▁થવાનું":5853,"પાઈ":5854,"▁169":5855,"▁ડૉ.\n":5856,"ગળની":5857,"▁189":5858,"▁ટીમના":5859,"▁અભાવ":5860,"મસ":5861,"કાવ":5862,"વિઝન":5863,"▁સિનિયર":5864,"▁ગવર્":5865,"▁જણાવ્યુ":5866,"▁અભિયાન":5867,"▁ઉના":5868,"▁109":5869,"▁આવ્યા.\n":5870,"▁ટેલિકોમ":5871,"▁મુક્તિ":5872,"▁179":5873,"મહા":5874,"▁લઘુ":5875,"▁સાંસ્કૃતિક":5876,"▁મહત્તમ":5877,"▁ગુ્ર":5878,"▁ઉત્સવ":5879,"▁વ્યક્તિગત":5880,"▁નોટબંધી":5881,"▁ખોરાક":5882,"ચ્યુઅલ":5883,"▁હલ":5884,"તાે":5885,"▁પ્રવા":5886,"▁આપવી":5887,"▁મૂર્તિ":5888,"▁યોજાશે.\n":5889,"▁પ્રેરણા":5890,"▁મુકેશ":5891,"▁300":5892,"▁139":5893,"▁જંગી":5894,"ઈઝ":5895,"ધારા":5896,"પત્ની":5897,"ું,":5898,"▁દિન":5899,"▁કર્મચારીઓને":5900,"▁પ્રોત્સાહન":5901,"▁વચ્ચેની":5902,"▁ધાતુ":5903,"ધ્":5904,"▁શિકાર":5905,"▁પ્રેમી":5906,"▁વૈજ્ઞાન":5907,"▁કૌભાં":5908,"▁હાંસલ":5909,"મિતાભ":5910,"22\tઆ":5911,"ફ્રે":5912,"સરા":5913,"▁માયા":5914,"ાયી":5915,"▁159":5916,"▁149":5917,"▁ભેળ":5918,"▁શનિવારે":5919,"▁પહાે":5920,"ર્મો":5921,"▁ઇક્વિ":5922,"▁ચૂકી":5923,"ઉત્તર":5924,"▁ધોની":5925,"ઈના":5926,"૨૪":5927,"▁સાક્ષી":5928,"મિશન":5929,"મ્બરમાં":5930,"▁હુકમ":5931,"બ્રા":5932,"કો,":5933,"▁નિશાન":5934,"▁કેબિ":5935,"લેખ":5936,"▁ક્ષેત્રો":5937,"▁શાંત":5938,"પ્રો":5939,"▁આખરી":5940,"▁હાઉસ":5941,"▁ઊર્જા":5942,"▁તલા":5943,"્યાં.\n":5944,"▁થયાં":5945,"▁સત્તાવાળા":5946,"▁આક્ષેપો":5947,"▁આવનાર":5948,"▁બનાવીને":5949,"ગને":5950,"▁હડતા":5951,"▁નિકાલ":5952,"▁બોન્ડ":5953,"▁૮૦":5954,"જવા":5955,"▁ગણી":5956,"▁બેસ્ટ":5957,"▁રેલી":5958,"▁આમંત્ર":5959,"▁છાપ":5960,"▁ઔદ્યોગિક":5961,"▁સૂત્રોએ":5962,"▁કદી":5963,"▁કોચ":5964,"ષ્ઠા":5965,"દ્વારા":5966,"▁વેચી":5967,"▁ઉઠાવી":5968,"▁વિભાગે":5969,"પારી":5970,"▁આપતી":5971,"ગેટ":5972,"▁યુરોપ":5973,"▁હકીકત":5974,"▁વિચારી":5975,"ટીવી":5976,"11\tઆ":5977,"ઠોડ":5978,"▁૧૯૮":5979,"▁ધારણ":5980,"▁પરની":5981,"ગાવી":5982,"દત":5983,"કામના":5984,"▁થવાના":5985,"▁રહેતાં":5986,"▁અનુક":5987,"▁શ્રીલંકા":5988,"▁હજારની":5989,"▁કબ્":5990,"▁કરી,":5991,"▁સંવત":5992,"▁પડેલા":5993,"▁વેપારીઓ":5994,"▁209":5995,"▁આસપાસના":5996,"▁દસ્તાવેજો":5997,"▁મારફતે":5998,"▁કંપનીઓને":5999,"▁આવતીકાલે":6000,"▁લાઇફ":6001,"▁સ્પોર્ટ્સ":6002,"12\tઆ":6003,"▁બેડ":6004,"▁થાય,":6005,"▁શૈક્ષણિક":6006,"વ્":6007,"ર્મે":6008,"▁પ્રખ્યાત":6009,"▁મંદિરમાં":6010,"▁સંગઠન":6011,"▁મ્યુનિસિપલ":6012,"સદો":6013,"▁આંધ":6014,"▁નમ":6015,"▁વિશિષ્ટ":6016,"▁વાસ":6017,"▁ઓવ":6018,"▁અમર":6019,"દને":6020,"▁પડતાં":6021,"▁પ્રોગ્રામ":6022,"▁મેનેજર":6023,"▁પંથકમાં":6024,"▁ઘડ":6025,"▁કલાકાર":6026,"▁પ્રકરણ":6027,"▁ઉડ":6028,"▁યાદવ":6029,"રનો":6030,"▁મની":6031,"▁મસ્":6032,"▁પ્રદેશમાં":6033,"▁કોલેજમાં":6034,"▁વસતી":6035,"ભવ":6036,"લાએ":6037,"▁દુખ":6038,"લાને":6039,"વેટ":6040,"▁સમાધાન":6041,"▁ભૂલી":6042,"▁સામ્રા":6043,"વક":6044,"▁બૅ":6045,"▁299":6046,"યેલો":6047,"ફાઇ":6048,"▁વિષે":6049,"કંપ":6050,"▁જહા":6051,"▁જેનું":6052,"▁ડ્રાઇ":6053,"▁ક્રિયા":6054,"▁છોકરા":6055,"કલ્પ":6056,"પર્":6057,"૧,":6058,"▁બેટ્સ":6059,"▁નોન":6060,"તોના":6061,"▁લેવાનું":6062,"▁કંપનીની":6063,"મહિ":6064,"▁આજુબાજુ":6065,"ટીસ":6066,"▁સ્ત્રીઓ":6067,"ભૂમિ":6068,"▁મર્યાદિત":6069,"▁જ્વેલ":6070,"▁મહોત્સવ":6071,"▁પાવ":6072,"▁આચાર્ય":6073,"ન્સની":6074,"▁ખરીદવા":6075,"▁કાફ":6076,"▁289":6077,"▁દલીલ":6078,"▁સેક્રેટરી":6079,"▁છેલ્લે":6080,"▁સાડા":6081,"▁279":6082,"▁આલ્":6083,"▁મલ્":6084,"વેન્ટ":6085,"સીબ":6086,"▁જીએસ":6087,"▁269":6088,"કાંઠા":6089,"િતી":6090,"▁કરાવે":6091,"ાયેલો":6092,"▁પ્રત્યેક":6093,"▁પંચાયત":6094,"સમો":6095,"▁નક":6096,"ન્ડો":6097,"▁ચોથા":6098,"▁જેવાં":6099,"▁દર્શાવી":6100,"્રેડિટ":6101,"નારો":6102,"▁ડૂ":6103,"ખાને":6104,"▁રાજ્યોમાં":6105,"વિશ્":6106,"▁219":6107,"ત્રીના":6108,"▁પોરબંદ":6109,"▁મંજુરી":6110,"▁માર્યા":6111,"▁બ્રહ્":6112,"▁ક્યાંક":6113,"▁શકાશે.\n":6114,"ઘાન":6115,"▁તલ":6116,"ચય":6117,"પ્તિ":6118,"સિંહે":6119,"▁239":6120,"▁લાગ્યું":6121,"▁આજના":6122,"ંડુલ":6123,"▁માંડીને":6124,"▁ટકાની":6125,"ોબસ્ત":6126,"ઢે":6127,"નિય":6128,"▁કામો":6129,"▁249":6130,"▁પીડા":6131,"13\tઆ":6132,"વાનગી":6133,"▁ગૃ":6134,"ત્તી":6135,"▁હતાે.\n":6136,"▁પોલીસની":6137,"▁ઓનલાઇન":6138,"▁રાજકારણી":6139,"▁ઉછાળો":6140,"▁લાઇન":6141,"▁સ્વભાવ":6142,"▁સ્વયં":6143,"જલ":6144,"વવી":6145,"તેનું":6146,"▁વર્તુ":6147,"▁લેતાં":6148,"▁229":6149,"▁મુખ્યપ્રધાન":6150,"▁બાબુ":6151,"બારી":6152,"ક્સમાં":6153,"▁ફટા":6154,"ંગના":6155,"▁ઇરા":6156,"દોષ":6157,"કચ્છ":6158,"૨૨":6159,"▁વોલ":6160,"લિયો":6161,"▁ગાડી":6162,"▁નાયબ":6163,"▁ચક્ર":6164,"▁જુલાઇ":6165,"▁પટેલ,":6166,"ણિક":6167,"▁પથ":6168,"પોરબ":6169,"▁259":6170,"▁સીબીઆઇ":6171,"▁ક્વાર્ટ":6172,"▁દરે":6173,"▁સાન":6174,"▁હાઈકોર્ટ":6175,"ઠ્ઠી":6176,"કોઇ":6177,"▁બેન":6178,"▁રાજ્યની":6179,"▁સ્વાગત":6180,"▁ભવિષ્યમાં":6181,"▁ઉતારી":6182,"ટિક":6183,"▁હોલ":6184,"▁બાદમાં":6185,"▁વ્યક્તિઓ":6186,"▁સુચના":6187,"▁અધિકારીઓને":6188,"▁અગત્ય":6189,"ંગ્લાદેશ":6190,"બદ્ધ":6191,"▁માફી":6192,"▁ગુમાવી":6193,"વવાનો":6194,"▁400":6195,"▁પાક.\n":6196,"▁હાલના":6197,"▁જોડાણ":6198,"▁માલિકી":6199,"કવા":6200,"િયાની":6201,"સીમાં":6202,"▁મુંબઈમાં":6203,"▁લખે":6204,"▁૧૯૭":6205,"▁કદ":6206,"▁પ્રદૂ":6207,"▁થકી":6208,"▁૧,":6209,"▁દિવ્ય":6210,"▁એટલો":6211,"▁સાંભળી":6212,"▁બંદોબસ્ત":6213,"▁ભિ":6214,"▁સેટ":6215,"▁૨૯":6216,"▁પરમાર":6217,"▁વાતાવરણમાં":6218,"દીએ":6219,"▁સોં":6220,"▁સરળતાથી":6221,"હરા":6222,"▁બ્રો":6223,"▁2008":6224,"▁ફરિયાદો":6225,"▁ગોલ":6226,"તો,":6227,"▁મેળવે":6228,"▁હાઇકોર્ટ":6229,"▁સ્કીમ":6230,"વધુમાં":6231,"▁રથ":6232,"▁આકર્ષક":6233,"ગર્":6234,"ધ્યા":6235,"▁જાવ":6236,"▁આભાર":6237,"▁માટી":6238,"ડાઇ":6239,"▁સેક્ટર":6240,"▁ગાળા":6241,"▁મીઠા":6242,"બજારમાં":6243,"▁મનુષ્ય":6244,"▁બઘું":6245,"▁ગડ":6246,"સાથ":6247,"▁પદાર્થો":6248,"▁થોડું":6249,"▁નાેંધ":6250,"ૂં":6251,"રાત":6252,"▁વર્તન":6253,"▁ગણિત":6254,"▁નીકળે":6255,"▁દ્રષ્ટિએ":6256,"ાયેલું":6257,"▁વાયદા":6258,"▁મ્યુનિ.\n":6259,"રબી":6260,"▁ઘટનાઓ":6261,"રાયણ":6262,"કથા":6263,"▁તૂટ":6264,"▁અછ":6265,"▁માથે":6266,"ન્ડે":6267,"▁થવાથી":6268,"▁વકીલ":6269,"૭માં":6270,"▁શિક્ષક":6271,"▁યે":6272,"▁નહ":6273,"િંગની":6274,"▁અડધો":6275,"▁ઉભો":6276,"▁વાંધો":6277,"▁તમારું":6278,"▁અમદાવાદના":6279,"▁અભિનેતા":6280,"રિય":6281,"▁રાજકારણ":6282,"▁જણાવવામાં":6283,"▁થઇને":6284,".,":6285,"શંકર":6286,"ાની":6287,"▁વાઈ":6288,"▁2000":6289,"▁સાધનો":6290,"▁નાગ":6291,"▁શાળામાં":6292,"▁ફાયદા":6293,"▁ત્રિમાસિક":6294,"▁પ્રિયંકા":6295,"▁અરે":6296,"રીત":6297,"▁સ્વિ":6298,"સાના":6299,"▁વરસાદની":6300,"▁સોનાની":6301,"▁ભાગીદારી":6302,"▁ત્વચા":6303,"ઝનમાં":6304,"▁નિવાસ":6305,"ણા,":6306,"▁મામલતદાર":6307,"▁રશિયા":6308,"▁હતું.":6309,"ાૃ":6310,"▁વાળા":6311,"▁આપના":6312,"ખાના":6313,"▁આજથી":6314,"▁બાયો":6315,"▁માસમાં":6316,"▁પુરવાર":6317,"▁આંકડો":6318,"▁બેંકો":6319,"પં":6320,"સત્તા":6321,"▁કરતું":6322,"રેન":6323,"▁ડુ":6324,"▁કવિતા":6325,"▁મિલિયન":6326,"▁અવાર":6327,"રાઇ":6328,"▁ફૂલ":6329,"▁નિશ્ચિત":6330,"▁પાછળથી":6331,"ઝિક્યુ":6332,"બરે":6333,"▁ગણેશ":6334,"▁આદર્શ":6335,"▁ટેક્નો":6336,"▁અમલમાં":6337,"▁રિસર્ચ":6338,"▁સ્ટેન્ડ":6339,"▁સરખામણીએ":6340,"▁ખાતર":6341,"▁સાંજ":6342,"▁ચૂક્યા":6343,"▁સવા":6344,"▁રસો":6345,"▁ગયું.\n":6346,"▁યોજવામાં":6347,"▁શ્રદ્ધા":6348,"▁ઝેરી":6349,"▁આવશ્યક":6350,"૨૬":6351,"▁ઉઠી":6352,"▁બોમ્બ":6353,"▁બનાવ્યા":6354,"▁હાઈવે":6355,"▁લક્ષ્મી":6356,"▁ડેસ્કઃ":6357,"▁ઇલેક્ટ":6358,"▁ખુલા":6359,"▁મોકલવામાં":6360,"▁જમ્મુ":6361,"▁બનતા":6362,"▁કોરોનાના":6363,"▁કબજે":6364,"▁ધિરાણ":6365,"નાએ":6366,"સ્કો":6367,"▁કેળ":6368,"▁કાલે":6369,"▁આઇપીએ":6370,"જીક":6371,"▁તોફા":6372,"સીપી":6373,"▁પહોંચે":6374,"▁કૈ":6375,"▁ઉલ્લેખનીય":6376,"▁લાખથી":6377,"▁ઇન્ડે":6378,"▁જથ્થા":6379,"▁પક":6380,"બીર":6381,"▁ખોટ":6382,"▁આપેલી":6383,"▁કાયદે":6384,"▁પુરુષો":6385,"▁રોગો":6386,"▁પક્ષે":6387,"થોસાથ":6388,"સ્પી":6389,"▁મોટ":6390,"▁સીધા":6391,"▁ઋતુ":6392,"▁ગ્લો":6393,"પોતાની":6394,"▁થઈ.\n":6395,"▁બચાવવા":6396,"▁મહત્ત્વની":6397,"▁મશીન":6398,"▁અઢી":6399,"નોએ":6400,"મોલ":6401,"▁રિટેલ":6402,"▁રાજીનામું":6403,"▁સાઇ":6404,"લેસ":6405,"▁રાજુ":6406,"સ્થાને":6407,"▁લિસ્ટ":6408,"▁છેતર":6409,"▁મહામ":6410,"▁શરદ":6411,"▁માઈ":6412,"▁2009":6413,"બુ્ર":6414,"▁અનુભવી":6415,"▁ઓળખવામાં":6416,"▁બોલાવી":6417,"લનો":6418,"▁કસ્ટ":6419,"▁અલી":6420,"▁તો,":6421,"સરની":6422,"▁૪૫":6423,"કક્ષા":6424,"▁કિંગ":6425,"▁પ્રવે":6426,"સાબ":6427,"▁પાણીનો":6428,"▁સેન્ટ્રલ":6429,"▁પથ્થર":6430,"▁આખો":6431,"▁જોડે":6432,"ભાવિક":6433,"▁આટલી":6434,"▁પરવાનગી":6435,"્યો,":6436,"▁આપો":6437,"▁તેમનાં":6438,"પ્રદાય":6439,"્યાલય":6440,"ઝ,":6441,"શ,":6442,"▁હરિયા":6443,"▁દીધ":6444,"▁ઠે":6445,"▁બાળકને":6446,"▁બજારોમાં":6447,"▁સર્વોચ્ચ":6448,"▁કને":6449,"્રમ":6450,"વીર":6451,"▁સુરેશ":6452,"▁નિર્ણયો":6453,"થોડા":6454,"ૂંક":6455,"▁કેસની":6456,"કાલીન":6457,"ાવણ":6458,"▁અવકાશ":6459,"▁જાણીતી":6460,"▁છુટ":6461,"▁સાંક":6462,"▁જોડી":6463,"▁સુદ":6464,"▁રહસ્ય":6465,"જાન":6466,"▁2.":6467,"▁કેટે":6468,"▁સુધીનો":6469,"▁શકું":6470,"▁કંપનીઓએ":6471,"▁કાયમી":6472,"▁અર્થે":6473,"ગ,":6474,"▁તફ":6475,"ાંક":6476,"સીન":6477,"▁યુ.\n":6478,"▁જર્મની":6479,"▁અત્યા":6480,"▁ગઢ":6481,"હેરો":6482,"▁રાત્રિ":6483,"દ્દ":6484,"િટિ":6485,"▁અમૃત":6486,"▁લાંબો":6487,"▁કિંમ":6488,"▁ચુંટ":6489,"શાળા":6490,"▁અમેરિકાની":6491,"▁પ્રયત્નો":6492,"▁વૉ":6493,"▁ગભ":6494,"▁માગી":6495,"▁ડ્રો":6496,"▁હેરાન":6497,"▁પ્રકારનો":6498,"▁તબક્કામાં":6499,"ંુ":6500,"▁કોહ":6501,"▁કોમન":6502,"▁મળતો":6503,"▁વેલ":6504,"▁યોગદાન":6505,"▁કોન્ટ્રાક્ટ":6506,"ક્ષક":6507,"▁ગ્રામજનો":6508,"▁વિજેતા":6509,"બળો":6510,"▁તૃ":6511,"બ્રે":6512,"▁દાં":6513,"▁રાતે":6514,"▁કંપનીને":6515,"▁ટીમને":6516,"▁ટીમમાં":6517,"▁ગણાવી":6518,"બહેન":6519,"પ,":6520,"સમી":6521,"▁દળો":6522,"▁કોશિ":6523,"▁ભાગની":6524,"વા,":6525,"રમાંથી":6526,"▁હેન્ડ":6527,"▁કારણોસર":6528,"ખરે":6529,"▁વાઇ":6530,"▁ઇન્ટર":6531,"▁લીલી":6532,"્સની":6533,"ચાર્જ":6534,"▁919":6535,"પીએસ":6536,"▁સોનું":6537,"બડ":6538,"લાઇટ":6539,"ંતો":6540,"00\tઆ":6541,"▁ચાલતા":6542,"પ્રધાને":6543,"▁ઇન્ડિયન":6544,"▁કાશ્મીર":6545,"સ્વામી":6546,"▁યથાવત":6547,"સાઇટ":6548,"▁સ્વપ્":6549,"▁પાર્ટ":6550,"▁કોર્ટના":6551,"▁એક્ઝિક્યુ":6552,"▁ગાર્ડ":6553,"ક્રિ":6554,"▁જરૂરિયાત":6555,"▁અજાણ્યા":6556,"▁નિમિત્તે":6557,"યાર":6558,"રાધ":6559,"▁ફર્":6560,"▁મિક્સ":6561,"▁દેશભરમાં":6562,"▁તાકી":6563,"▁બનશે":6564,"▁શેરો":6565,"▁ધીરે":6566,"▁ફરજિયાત":6567,"▁સમુદાય":6568,"▁સાગર":6569,"▁ચર્ચ":6570,"જીમાં":6571,"▁થયા.\n":6572,"▁ખોટા":6573,"▁કોંગ્રેસે":6574,"▁મામલો":6575,"▁સ્થાપિત":6576,"ણ્ય":6577,"પડ":6578,"૨૯":6579,"▁બ્રહ્મ":6580,"▁નુકશાન":6581,"▁રિક":6582,"કાઉન્ટ":6583,"▁પડયું":6584,"▁દીકરા":6585,"▁મોરબી":6586,"▁ઉદ્યોગો":6587,"▁એકે":6588,"▁અપહરણ":6589,"▁પરેશાન":6590,"્યામ":6591,"બાની":6592,"▁ખુદ":6593,"▁સપ્તાહમાં":6594,"ઇટેડ":6595,"▁ફ્રા":6596,"▁જેણે":6597,"▁લેવાય":6598,"▁2017":6599,"▁કહેતા":6600,"સભામાં":6601,"કેમ":6602,"▁ખાવા":6603,"▁૩૧":6604,"નગર,":6605,"▁ડોલરની":6606,"▁વધારાના":6607,"▁આપશે":6608,"▁રેટ":6609,"▁સ્વરૂપે":6610,"▁જોઇને":6611,"વડાપ્રધાન":6612,"સનું":6613,"▁કઇ":6614,"▁માથ":6615,"▁કાપી":6616,"▁વિદાય":6617,"▁ડોક્ટર":6618,"▁ફ્લો":6619,"▁પામ્યો":6620,"▁સાચા":6621,"▁બીએસ":6622,"▁સમાજમાં":6623,"▁વીર":6624,"▁ખુલ્લા":6625,"▁મહાપાલિકા":6626,"▁મહત્વનો":6627,"▁સરખામણીમાં":6628,"ફટ":6629,"▁રવાના":6630,"▁પેકે":6631,"▁કંપનીમાં":6632,"▁બ્લેક":6633,"દરમાં":6634,"રંજન":6635,"૨,":6636,"નિર્":6637,"▁કેટલાય":6638,"▁આગેવાની":6639,"▁પ્રભાવિત":6640,"બુ્રઆરી":6641,"શહેરમાં":6642,"યાન":6643,"સરકારી":6644,"▁ડાંગ":6645,"વૃત્ત":6646,"▁બ્રાહ્મ":6647,"ચું":6648,"ધર્મ":6649,"▁લેશે.\n":6650,"▁યુગ":6651,"ગાડ":6652,"▁બજારો":6653,"જવસ્તુ":6654,"ર્કમાં":6655,"રીઓ":6656,"▁આપવાના":6657,"શનમાં":6658,"ભાઈ,":6659,"▁બ્લ":6660,"▁દ્વિ":6661,"▁ઇન્ટરનેશનલ":6662,"લોને":6663,"▁193":6664,"▁ઈતિહા":6665,"તમામ":6666,"▁ક્રેડિટ":6667,"ર્સમાં":6668,"▁ક્લિક":6669,"▁જવાબમાં":6670,"▁બાજુમાં":6671,"રા,":6672,"▁બેઝ":6673,"▁દેહ":6674,"▁માર્ગો":6675,"ણનો":6676,"▁કેને":6677,"▁સિને":6678,"▁શકતી":6679,"માટે":6680,"▁કેરો":6681,"દીઠ":6682,"વારની":6683,"▁સમયગાળા":6684,"▁વરસાદી":6685,"▁નિમ":6686,"187\t":6687,"▁શેખ":6688,"▁બાકીના":6689,"▁આપવું":6690,"▁ટ્રી":6691,"▁પીએમ":6692,"374\t":6693,"348\t":6694,"▁પ્રતિભા":6695,"▁શહી":6696,"▁ઉશ્કે":6697,"371\t":6698,"▁જ્યોતિ":6699,"▁સામ્રાજ્ય":6700,"વાલમાં":6701,"▁વર્ક":6702,"102\t":6703,"▁ચેમ્પિયન":6704,"▁બોલે":6705,"▁ક્લિ":6706,"347\t":6707,"▁માનવું":6708,"રાજકોટ":6709,"33\tઆ":6710,"▁ટુર્ના":6711,"ૃત્ય":6712,"▁બારી":6713,"▁પાેલી":6714,"સેટ":6715,"188\t":6716,"▁લાગતું":6717,"▁સમિતિના":6718,"▁મેદાનમાં":6719,"કર્મ":6720,"પાની":6721,"▁ભારતનો":6722,"બેન્":6723,"369\t":6724,"▁અભિપ્ર":6725,"▁આખરે":6726,"શમાં":6727,"૨૩":6728,"▁આવ્યુ":6729,"લેષ":6730,"103\t":6731,"રૂં":6732,"▁સમારોહ":6733,"384\t":6734,"387\t":6735,"297\t":6736,"266\t":6737,"ટકી":6738,"▁પપ્પા":6739,"જીભાઇ":6740,"▁ઓઇલ":6741,"▁ખાદ્ય":6742,"ગીના":6743,"179\t":6744,"289\t":6745,"357\t":6746,"262\t":6747,"375\t":6748,"216\t":6749,"▁સ્ક્રી":6750,"▁સમારંભ":6751,"▁રેશ":6752,"રેક્ટ":6753,"▁સુરેન્દ્ર":6754,"▁બાઈક":6755,"▁વર્ષોમાં":6756,"345\t":6757,"▁દુશ્":6758,"212\t":6759,"▁પૂરતી":6760,"કલા":6761,"▁પ્રકૃતિ":6762,"▁જે.\n":6763,"▁યુએસ":6764,"▁રેખા":6765,"169\t":6766,"378\t":6767,"▁છું,":6768,"▁વિભાગમાં":6769,"નવાર":6770,"ક્ષર":6771,"▁સોની":6772,"243\t":6773,"186\t":6774,"▁ઇન્ટરનેટ":6775,"બસ":6776,"રાગ":6777,"કાઉ":6778,"363\t":6779,"352\t":6780,"▁આવ્યું.\n":6781,"210\t":6782,"▁મહત્વપૂર્ણ":6783,"ક્ષેત્ર":6784,"કૃત":6785,"▁પેન":6786,"100\t":6787,"156\t":6788,"272\t":6789,"370\t":6790,"237\t":6791,"સુખ":6792,"▁વિશ્વની":6793,"▁લક્ષ્ય":6794,"અલગ":6795,"▁પકડા":6796,"▁જ.":6797,"▁બસો":6798,"ર્ત":6799,"િયા,":6800,"ટાઘા":6801,"204\t":6802,"172\t":6803,"301\t":6804,"251\t":6805,"353\t":6806,"298\t":6807,"269\t":6808,"215\t":6809,"▁વર્ણન":6810,"▁બ્રેક":6811,"▁ક્વાર્ટરમાં":6812,"કિટ":6813,"140\t":6814,"360\t":6815,"282\t":6816,"389\t":6817,"397\t":6818,"▁મહિનાના":6819,"▁કર્ણા":6820,"▁કાનૂની":6821,"▁ભક્":6822,"▁ઓપન":6823,"174\t":6824,"307\t":6825,"286\t":6826,"354\t":6827,"350\t":6828,"▁ઘણીવાર":6829,"૨૮":6830,"▁ચળ":6831,"▁ફેશન":6832,"106\t":6833,"209\t":6834,"149\t":6835,"▁જવાના":6836,"258\t":6837,"184\t":6838,"385\t":6839,"393\t":6840,"232\t":6841,"235\t":6842,"▁ચીજવસ્તુ":6843,"▁પ્રકારે":6844,"▁જેનાથી":6845,"ગળ":6846,"▁સિંઘ":6847,"177\t":6848,"185\t":6849,"260\t":6850,"395\t":6851,"સૌથી":6852,"કૂ":6853,"▁કોમ્પ્યુટર":6854,"▁પોલીસમાં":6855,"104\t":6856,"108\t":6857,"203\t":6858,"199\t":6859,"170\t":6860,"178\t":6861,"246\t":6862,"245\t":6863,"250\t":6864,"182\t":6865,"180\t":6866,"383\t":6867,"291\t":6868,"396\t":6869,"346\t":6870,"▁બુદ્ધિ":6871,"▁હર્ષ":6872,"▁વિચ":6873,"▁પાન":6874,"▁103":6875,"▁ભાવિ":6876,"105\t":6877,"154\t":6878,"206\t":6879,"200\t":6880,"305\t":6881,"300\t":6882,"183\t":6883,"271\t":6884,"273\t":6885,"386\t":6886,"351\t":6887,"296\t":6888,"▁ધીમી":6889,"▁પરિણામો":6890,"દિન":6891,"▁કંટ":6892,"▁અમિતાભ":6893,"▁તેનાં":6894,"▁સુત્રો":6895,"168\t":6896,"173\t":6897,"242\t":6898,"248\t":6899,"256\t":6900,"284\t":6901,"280\t":6902,"287\t":6903,"288\t":6904,"263\t":6905,"398\t":6906,"▁લશ્કર":6907,"▁લશ્કરી":6908,"તલ":6909,"પશ્ચિ":6910,"ભરી":6911,"નીતિ":6912,"▁આશી":6913,"રોનો":6914,"▁ડબલ":6915,"107\t":6916,"152\t":6917,"201\t":6918,"207\t":6919,"195\t":6920,"193\t":6921,"143\t":6922,"181\t":6923,"283\t":6924,"388\t":6925,"265\t":6926,"344\t":6927,"343\t":6928,"230\t":6929,"233\t":6930,"217\t":6931,"વિંગ":6932,"151\t":6933,"202\t":6934,"147\t":6935,"241\t":6936,"306\t":6937,"309\t":6938,"257\t":6939,"381\t":6940,"295\t":6941,"299\t":6942,"264\t":6943,"268\t":6944,"394\t":6945,"390\t":6946,"373\t":6947,"▁૩૩":6948,"234\t":6949,"231\t":6950,"▁એન.\n":6951,"▁માળખા":6952,"▁સક્ષમ":6953,"▁અલ્":6954,"રેટ":6955,"109\t":6956,"159\t":6957,"158\t":6958,"176\t":6959,"240\t":6960,"247\t":6961,"356\t":6962,"294\t":6963,"372\t":6964,"239\t":6965,"ંદર્ય":6966,"▁ક્યાંય":6967,"તાનું":6968,"મોને":6969,"▁સહયોગ":6970,"162\t":6971,"166\t":6972,"167\t":6973,"150\t":6974,"208\t":6975,"302\t":6976,"281\t":6977,"358\t":6978,"267\t":6979,"392\t":6980,"236\t":6981,"▁યશ":6982,"219\t":6983,"▁વૃદ્ધ":6984,"▁મુસાફરી":6985,"ગળી":6986,"▁અગ્નિ":6987,"101\t":6988,"153\t":6989,"194\t":6990,"259\t":6991,"276\t":6992,"355\t":6993,"292\t":6994,"399\t":6995,"340\t":6996,"▁શેઠ":6997,"▁શુદ્ધ":6998,"ષ્ણુ":6999,"▁કપૂર":7000,"▁માછી":7001,"િયાએ":7002,"મોમાં":7003,"144\t":7004,"366\t":7005,"171\t":7006,"249\t":7007,"303\t":7008,"275\t":7009,"261\t":7010,"376\t":7011,"▁સેકન્ડ":7012,"પિંગ":7013,"્સમાં":7014,"ડાઉ":7015,"▁વધ્યા":7016,"▁વધ્યો":7017,"253\t":7018,"278\t":7019,"▁મહત્વના":7020,"શેષ":7021,"▁આવેદન":7022,"▁પેપર":7023,"146\t":7024,"148\t":7025,"361\t":7026,"368\t":7027,"175\t":7028,"270\t":7029,"277\t":7030,"391\t":7031,"▁ટિપ્પણી":7032,"રથી":7033,"▁રસી":7034,"▁શૂ":7035,"165\t":7036,"155\t":7037,"190\t":7038,"244\t":7039,"254\t":7040,"290\t":7041,"293\t":7042,"377\t":7043,"▁૧૯૪":7044,"▁જેમણે":7045,"▁અરવિંદ":7046,"▁જન્મદિવસની":7047,"કતો":7048,"જું":7049,"▁કર્યાં":7050,"▁નાટક":7051,"▁વ્યૂ":7052,"164\t":7053,"161\t":7054,"142\t":7055,"362\t":7056,"359\t":7057,"379\t":7058,"341\t":7059,"▁ફેબુ્રઆરી":7060,"▁એજન્ટ":7061,"▁મસા":7062,"▁બાવ":7063,"▁કેજરી":7064,"રોડ":7065,"198\t":7066,"141\t":7067,"367\t":7068,"308\t":7069,"252\t":7070,"211\t":7071,"▁હીરા":7072,"િગ":7073,"▁કરાયેલી":7074,"▁સાધન":7075,"▁દેશોના":7076,"▁શકતો":7077,"213\t":7078,"▁મંડળ":7079,"▁આક્રમક":7080,"▁વંશ":7081,"▁ચાવ":7082,"205\t":7083,"255\t":7084,"382\t":7085,"380\t":7086,"57\tઆ":7087,"▁લક્ષણો":7088,"▁વિધિ":7089,"▁લાઈન":7090,"196\t":7091,"365\t":7092,"189\t":7093,"▁ડેમ":7094,"પરંતુ,":7095,"▁ડિઝાઇન":7096,"▁આરામ":7097,"145\t":7098,"304\t":7099,"279\t":7100,"▁કરોડથી":7101,"તેનાથી":7102,"માર્ગ":7103,"▁દો.\n":7104,"▁ઇસ્લા":7105,"ચેન્જ":7106,"▁પેટે":7107,"349\t":7108,"47\tઆ":7109,"▁ઉમટી":7110,"▁વૃક્ષો":7111,"ઘો":7112,"▁ભવ":7113,"▁વાંચી":7114,"▁વાટાઘા":7115,"▁સીટી":7116,"157\t":7117,"▁સરપંચ":7118,"▁દેતા":7119,"▁રાખ્યું":7120,"▁રેન્":7121,"342\t":7122,"▁શાળાના":7123,"▁આત્મહત્યા":7124,"▁તાવ":7125,"▁આટલા":7126,"▁મોહન":7127,"▁જાતને":7128,"લિસ્ટ":7129,"197\t":7130,"218\t":7131,"▁સલામત":7132,"▁ઘેરા":7133,"વીએ":7134,"▁રોકી":7135,"238\t":7136,"▁ચુકાદો":7137,"▁પ્રશંસા":7138,"▁વિરૂદ્ધ":7139,"160\t":7140,"274\t":7141,"48\tઆ":7142,"▁હીરો":7143,"મહારા":7144,"બત્ત":7145,"▁ખડ":7146,"હાણ":7147,"192\t":7148,"364\t":7149,"▁સાંસદો":7150,"▁સમયગાળામાં":7151,"▁ફાર્મા":7152,"▁લેવાનો":7153,"▁પડતું":7154,"163\t":7155,"▁અનુસ":7156,"સુધી":7157,"▁ગાંધીએ":7158,"▁ઇન્વેસ્ટ":7159,"વંત":7160,"્યાત્મ":7161,"▁ઘાયલ":7162,"▁113":7163,"191\t":7164,"▁વધારાની":7165,"▁શખસો":7166,"નોકરી":7167,"▁ખાઈ":7168,"▁અભાવે":7169,"214\t":7170,"▁રાજકોટમાં":7171,"યક":7172,"▁છેક":7173,"▁લંબા":7174,"▁પછીના":7175,"▁રેસ્ટો":7176,"▁વિઝા":7177,"▁હોવું":7178,"િયાં":7179,"285\t":7180,"▁ફિલ્મની":7181,"▁ડાયા":7182,"▁ડાન્સ":7183,"ઈની":7184,"ઝમ":7185,"▁નૈ":7186,"▁માછ":7187,"▁૧૦૦૦":7188,"એમણે":7189,"વાલે":7190,"▁મફ":7191,"▁કંટા":7192,"ભ્ર":7193,"▁સજ":7194,"▁રજિ":7195,"પ્ની":7196,"▁કિરણ":7197,"ભારતની":7198,"▁ફટકારી":7199,"ગુરુ":7200,"▁જસ્ટ":7201,"▁બરો":7202,"▁સમૂહ":7203,"ચ્છી":7204,"▁123":7205,"▁ગરીબો":7206,"દ્દીન":7207,"ેલ":7208,"▁શરૂઆતમાં":7209,"▁ચીજો":7210,"▁વિષયો":7211,"▁મુકાબ":7212,"▁લંડન":7213,"શનો":7214,"▁ુ":7215,"▁હનુ":7216,"▁ચાર્":7217,"▁બેક":7218,"▁દેશી":7219,"▁કિમી":7220,"▁લોકશાહી":7221,"ગ્ન":7222,"▁બૌ":7223,"ડાયા":7224,"મ્મદ":7225,"હોદ":7226,"▁મૂકા":7227,"▁વાતને":7228,"58\tઆ":7229,"▁પુસ્તકો":7230,"ચુ":7231,"થિ":7232,"▁ઠાકરે":7233,"પથ":7234,"▁બચી":7235,"ક્સિ":7236,"▁રાઠોડ":7237,"▁યુપીએ":7238,"▁સીબીઆઈ":7239,"▁લગાવ":7240,"રૃપ":7241,"ખાં":7242,"શિંગ":7243,"૯૦":7244,"▁થે":7245,"કેલી":7246,"▁પોલ":7247,"▁પેસે":7248,"ટ્ટો":7249,"▁પવન":7250,"▁અદા":7251,"ર્વાદ":7252,"▁બાઇક":7253,"▁જુગાર":7254,"▁૩૬":7255,"વિધિ":7256,"સિંઘ":7257,"▁નીપજ":7258,"▁પ્રજાને":7259,"▁સદીમાં":7260,"ઓ.":7261,"૭૫":7262,"સ્ટિટ":7263,"133\t":7264,"▁અટકાવવા":7265,"પટેલ":7266,"▁કાલ":7267,"▁મચ્છ":7268,"▁ગયેલી":7269,"▁આપનાર":7270,"▁700":7271,"બીએ":7272,"▁વ્હી":7273,"▁ગ્રીન":7274,"▁જન્મદિવસ":7275,".6":7276,"▁પરાજય":7277,"▁સખત":7278,"▁છાં":7279,"▁તુર":7280,"▁આવરી":7281,"▁વેચવાલી":7282,"▁સંવેદન":7283,"▁તપ":7284,"▁રક્ત":7285,"▁સ્કોર":7286,"▁બાંગ્લાદેશ":7287,"▁લોકોનો":7288,"▁આઇટી":7289,"▁પહોંચાડ":7290,"▁બરફ":7291,"▁પાલ":7292,"▁ધામ":7293,"▁પ્રકારનું":7294,"કેટલી":7295,"સીઆઇ":7296,"▁ઊંઘ":7297,"▁નિર્દોષ":7298,"▁આઝાદી":7299,"31\tઆ":7300,"ચાલુ":7301,"ટીશ":7302,"ડાએ":7303,"સી,":7304,"યેલું":7305,"▁જીવનની":7306,"▁વ્યક્તિએ":7307,"▁મહાત્મા":7308,"રવિ":7309,"▁કમી":7310,"▁વ્ર":7311,"▁સાધુ":7312,"▁600":7313,"પાઇ":7314,"▁પોલીસના":7315,"િકેટ":7316,"▁ગ્રાઉન્ડ":7317,"▁ફોટોગ્રા":7318,"▁અફઘાન":7319,"▁કોન્ફર":7320,"▁કાવ્ય":7321,"ફાન":7322,"સામા":7323,"▁પરિબળો":7324,"▁જન્મે":7325,"મૂલ":7326,"લીયા":7327,"લો,":7328,"▁મળતું":7329,"▁ઈરા":7330,"▁પ્રોફે":7331,"▁રોગચા":7332,"▁ધમધ":7333,"સબુક":7334,"▁મેસેજ":7335,"▁આવકાર":7336,"▁બાપુ":7337,"▁આગમન":7338,"▁ડિઝાઈ":7339,"▁દર્શાવ":7340,"ધ્ધિ":7341,"ભરના":7342,"▁આડે":7343,"વારથી":7344,".7":7345,"તાન":7346,"્યાંક":7347,"▁143":7348,"111\t":7349,"136\t":7350,"કાર્ડ":7351,"▁અવારનવાર":7352,"ઇન્ડ":7353,"હાન":7354,"▁આગ્રહ":7355,"▁વચન":7356,"વીજ":7357,"▁રાખ્યો":7358,"56\tઆ":7359,"▁ભજવી":7360,"▁જઇને":7361,"▁શંકાસ્પદ":7362,"૬માં":7363,"▁અશ":7364,"▁કેદી":7365,"▁બેનર":7366,"સેસ":7367,"▁203":7368,"▁હેમ":7369,"▁મિનિ":7370,"▁ભાજપે":7371,"▁શ્વાસ":7372,"૧માં":7373,"▁હસ્તે":7374,"▁નાણાંકીય":7375,"ઇન્":7376,"▁ક્રે":7377,"▁800":7378,"▁નહોતું.\n":7379,"▁ધંધામાં":7380,"▁વડ":7381,"કાંત":7382,"▁ક્ષેત્રની":7383,"▁ગુરુવારે":7384,"▁વ્હા":7385,"બ્યુ":7386,"વર્ણ":7387,"▁153":7388,"134\t":7389,"138\t":7390,"▁વિધાનસભાની":7391,"▁હનુમાન":7392,"▁પરો":7393,"▁હાડ":7394,"પ્રતિ":7395,"ામીણ":7396,"આેની":7397,"▁આગળની":7398,"▁શકયતા":7399,"50\tઆ":7400,"40\tઆ":7401,"▁મહિનાનો":7402,"▁ચાલક":7403,"▁પૂછ્યું":7404,"ક્રે":7405,"▁વિરાટ":7406,"▁સ્લાઇ":7407,"▁૧૯૬":7408,"▁બેસીને":7409,"ગાવો":7410,"શલ":7411,"▁ં":7412,"▁ખંભા":7413,"▁ડબ્":7414,"▁શક્યો":7415,"▁રિલીઝ":7416,"▁લાખના":7417,"135\t":7418,"▁મહિનાથી":7419,"▁ઘરના":7420,"225\t":7421,"▁સેવાઓ":7422,"▁મૂક્યો":7423,"▁ક્વાર્ટર":7424,"તમારા":7425,"ભેર":7426,"▁દંપ":7427,"▁બેસા":7428,"▁173":7429,"115\t":7430,"139\t":7431,"▁લેવાયો":7432,"▁અપાય":7433,"▁યોજાયેલી":7434,"▁શુભકામના":7435,"▁સાનુક":7436,"▁નામો":7437,"▁રાખવું":7438,"▁ભારતનું":7439,"132\t":7440,"▁કેન્દ્રિત":7441,"જ્ઞાાન":7442,"ઝુ":7443,"▁પર્સ":7444,"▁વડી":7445,"▁ઉઘ":7446,"વિન":7447,"▁133":7448,"112\t":7449,"119\t":7450,"113\t":7451,"▁ખોટું":7452,"અમેરિક":7453,"મુખ્યમંત્રી":7454,"ેક":7455,"િટર":7456,"▁183":7457,"117\t":7458,"137\t":7459,"220\t":7460,"227\t":7461,"▁દ્રશ્ય":7462,"▁શ્રમ":7463,"પિયો":7464,"પ્રાપ્ત":7465,"▁કસર":7466,"▁ક્રાઈ":7467,"▁ઉતાવ":7468,"▁પાં":7469,"130\t":7470,"131\t":7471,"▁વિસ્તારની":7472,"226\t":7473,"228\t":7474,"▁વિદ્યાર્થીઓએ":7475,"▁સજ્જ":7476,"નાલ્ડ":7477,"ન્શિયલ":7478,"▁કિનારે":7479,"▁મળે.\n":7480,"નગરના":7481,"▁આતંકવાદ":7482,"▁છુપ":7483,"▁બેટિંગ":7484,"ળાએ":7485,"▁163":7486,"▁માંગી":7487,"116\t":7488,"110\t":7489,"118\t":7490,"224\t":7491,"▁લેખિત":7492,"▁અનુસાર,":7493,"જથી":7494,"▁અદ્":7495,"▁આહાર":7496,"ત્સ":7497,"45\tઆ":7498,"▁ગોળીબાર":7499,"ડ્સ":7500,"ળ્યા":7501,"▁તમિ":7502,"▁તેંડુલ":7503,"રાને":7504,"▁લડાઈ":7505,"રૂચ":7506,"▁રહી.\n":7507,"▁ચુકાદા":7508,"ગિ":7509,"▁અશ્":7510,"▁લંબ":7511,"પેટ":7512,"▁માન્ય":7513,"222\t":7514,"223\t":7515,"▁હાઇવે":7516,"▁વપરાય":7517,"બન્ને":7518,"કોલે":7519,"▁સંવાદ":7520,"▁ટી.\n":7521,"▁માર્ગે":7522,"221\t":7523,"▁ગુલાબ":7524,"શહેરના":7525,"▁ઇક્વિટી":7526,"▁તાજ":7527,"▁શકો.\n":7528,"▁પંદર":7529,"▁અસં":7530,"▁કારી":7531,"▁મહાનગરપાલિકા":7532,"▁સાર્":7533,"▁જોશી":7534,"દેશમાં":7535,"ઠ્ઠા":7536,"▁સગી":7537,"▁રિયલ":7538,"▁મહિનાની":7539,"▁મોદીના":7540,"▁સ્વાભાવિક":7541,"▁નદીના":7542,"▁અભિપ્રાય":7543,"ંબુ":7544,"દ,":7545,"૪માં":7546,"▁સંપા":7547,"114\t":7548,"▁પાર્ટીના":7549,"▁થયેલો":7550,"▁વિરોધમાં":7551,"આંગ":7552,"▁નૌ":7553,"▁આવેલાં":7554,"▁રોજગારી":7555,"▁ઉ.":7556,"▁સ્ત":7557,"▁લાવવામાં":7558,"▁283":7559,"▁ઠંડ":7560,"▁બેન્કમાં":7561,"▁મૂકીને":7562,"૫માં":7563,"▁ચામ":7564,"▁અંતરે":7565,"▁અલગઅલગ":7566,"▁૨૦૧૧":7567,"▁બેંકમાં":7568,"▁ઘાટ":7569,"▁અપાઈ":7570,"પાકિસ્તાન":7571,"ચૂંટણી":7572,"▁વય":7573,"▁1,":7574,"▁ઓર્ડર":7575,"્યુલ":7576,"▁હાથી":7577,"229\t":7578,"▁સંભળ":7579,"▁કન્ટે":7580,"▁પાયે":7581,"▁રક્ષા":7582,"▁દયા":7583,"▁ઉપરો":7584,"▁સોફ્ટ":7585,"95\tઆ":7586,"▁સંસદમાં":7587,"▁વદ":7588,"▁બમ":7589,"▁કેટલો":7590,"▁સ્પો":7591,"તીના":7592,"▁દુષ્":7593,"▁કેન્દ્રમાં":7594,"▁પંચા":7595,"▁બેંકના":7596,"▁પુરસ્કાર":7597,"સું":7598,"▁ઢી":7599,"▁તજ":7600,"▁એપ્":7601,"▁પીડ":7602,"▁અનુક્રમે":7603,"▁ભાગ્યે":7604,"▁માનતા":7605,"▁ભગવા":7606,"▁સ્પર્ધામાં":7607,"▁પુરવઠા":7608,"▁એસ્ટેટ":7609,"▁આમંત્રણ":7610,"▁નકલી":7611,"▁263":7612,"▁ફોટા":7613,"▁ભૂખ":7614,"▁ચીનના":7615,"પુત્ર":7616,"▁ટેસ્ટમાં":7617,"ન્ડી":7618,"▁સાબર":7619,"ડાઉન":7620,"▁અનિલ":7621,"▁213":7622,"▁223":7623,"▁વી.\n":7624,"▁તુલનામાં":7625,"▁સિક્યો":7626,"▁પ્રીમ":7627,"▁ટેક્નોલોજી":7628,"▁ચહેરો":7629,"▁એકલા":7630,"▁નિવૃત્ત":7631,"99\tઆ":7632,"▁કરાશે":7633,"▁બધાને":7634,"▁અટકાય":7635,"▁શબ્દોમાં":7636,"▁નૃત્ય":7637,"▁થવામાં":7638,"▁મેચો":7639,"ંડર":7640,"▁273":7641,"▁પ્રદેશના":7642,"▁દવાઓ":7643,"▁ચલણ":7644,"▁તસવીરો":7645,"▁ગટર":7646,"રીનો":7647,"જીભાઈ":7648,"▁નિહા":7649,"પ્શન":7650,"▁253":7651,"▁અણુ":7652,"▁કૃતિ":7653,"ગાડી":7654,"▁સૌપ્રથમ":7655,"કર્":7656,"ઘર":7657,"▁વસ્ત્રો":7658,"▁ઇમે":7659,"▁જાગૃતિ":7660,"ુત":7661,"▁સરસ":7662,"▁243":7663,"▁293":7664,"▁પાકિસ્તાનની":7665,"▁ટ્રેન્ડ":7666,"▁નબળી":7667,"▁ચૌધ":7668,"▁સઘન":7669,"▁ખુલાસો":7670,"શય":7671,"તાલુ":7672,"ાયક":7673,"કેપ":7674,"▁નિરી":7675,"46\tઆ":7676,"▁સપ્તાહે":7677,"▁પેશ":7678,"▁દૈનિક":7679,"▁માટે,":7680,"ાંતર":7681,"▁વેલ્યુ":7682,"▁ભરપૂર":7683,"▁ઘટાડા":7684,"▁આંગળી":7685,"▁નિમણૂક":7686,"ન્યુ":7687,"મંગ":7688,"ીક":7689,"ારામ":7690,"▁બૂ":7691,"▁233":7692,"▁ક્લા":7693,"▁ફાઇનલમાં":7694,"▁ડેવલપમેન્ટ":7695,"▁આંધ્ર":7696,"બાન":7697,"સામ":7698,"▁બોટ":7699,"▁સમયની":7700,"▁રહ્યા.\n":7701,"▁ખાતેના":7702,"સ્થિતિ":7703,"▁નિર્ધાર":7704,"સ્થાનિક":7705,"▁અંગ્રેજો":7706,"જલિ":7707,"▁માસિક":7708,"▁પ્રધા":7709,"▁ટોલ":7710,"▁બાબા":7711,"બેંક":7712,"▁કાયમ":7713,"▁ગ્રાહક":7714,"સદી":7715,"૨માં":7716,"▁કોઇને":7717,"▁આજકાલ":7718,"▁અટકાવી":7719,"▁રાજકોટના":7720,"હકી":7721,"▁સફાઈ":7722,"▁આવવાની":7723,"▁રામા":7724,"▁બિમારી":7725,"▁૯૦":7726,"▁સાયન્સ":7727,"વર્તમાન":7728,"ંતે":7729,"દુર":7730,"લનું":7731,"▁નકારી":7732,"સીસ":7733,"▁તરીકેની":7734,"▁પદાર્થ":7735,"▁એન્ટ્રી":7736,"શન્સ":7737,"▁જજ":7738,"▁આમાં":7739,"▁નડિયા":7740,"▁પ્રદાન":7741,"▁નિફ્ટી":7742,"▁મેળવવામાં":7743,"્સને":7744,"▁બિલ્ડ":7745,"પાર્ટમેન્ટ":7746,"▁સૌંદર્ય":7747,"▁નહોતો":7748,"▁મથકે":7749,"▁મીઠું":7750,"ઓમાંથી":7751,"▁કારમાં":7752,"સાગર":7753,"▁સરકારમાં":7754,"સ્તાન":7755,"▁બેન્કના":7756,"▁ટાઉન":7757,"▁અટકી":7758,"▁મિલ્":7759,"▁વિદેશમાં":7760,"▁હોત.\n":7761,"▁પ્રદૂષણ":7762,"દાં":7763,"▁માંથી":7764,"ાવિ":7765,".8":7766,"ગૃહ":7767,"લક્ષી":7768,"વાટ":7769,"▁ડ્રાઈ":7770,"સાસ":7771,"▁આપને":7772,"મોટી":7773,"ર્ટિ":7774,"▁આશંકા":7775,"▁પુછપરછ":7776,"સ્કર":7777,"▁ફગાવી":7778,"▁નાખે":7779,"▁ઘઉં":7780,"માણુ":7781,"▁મસ્જિ":7782,"32\tઆ":7783,"પાર્":7784,"વૂડ":7785,"▁કવ":7786,"▁બનતી":7787,"સ્પતિ":7788,"▁મેળવ્યો":7789,"▁ઓનલાઈન":7790,"▁વેબસાઇટ":7791,"▁માફક":7792,"વાણી":7793,"▁પાે":7794,"▁પેમેન્ટ":7795,"▁પહેલો":7796,"▁કાઢવામાં":7797,"▁સપાટીએ":7798,"વાણ":7799,"▁ઘડી":7800,"ડાટ":7801,"પીઓ":7802,"120\t":7803,"▁સ્વામિ":7804,"▁તબીબી":7805,"▁શાકભાજી":7806,"ળને":7807,"▁સસ્પે":7808,"▁પ્રથા":7809,"▁સંસ્કાર":7810,"▁ટાર્":7811,"પાત":7812,"યુદ્ધ":7813,"▁સેમિ":7814,"▁સિં":7815,"▁મિડ":7816,"▁ભાગરૂપે":7817,"▁એન્ટી":7818,"લાકી":7819,"▁માબા":7820,"▁ટ્રો":7821,"ષ્ણા":7822,"▁દેવાની":7823,"▁સિંધ":7824,"90\tઆ":7825,"▁પાકિસ્તાનને":7826,"122\t":7827,"▁નહોતા.\n":7828,"▁મ્યુચ્યુઅલ":7829,"ભુત":7830,"કંપનીએ":7831,"▁સૈ":7832,"▁ખામી":7833,"કે,":7834,"▁એકમ":7835,"ન્ડા":7836,"વેલ્થ":7837,"▁લાંચ":7838,"▁પીટી":7839,"98\tઆ":7840,"માળ":7841,"▁હોતી":7842,"લેથી":7843,"▁ધીર":7844,"▁પૂર્":7845,"96\tઆ":7846,"▁સંભવિત":7847,"પક્ષી":7848,"▁સાઈ":7849,"▁દેસાઈ":7850,"▁કપાસ":7851,"▁પરમા":7852,"ન્ટિ":7853,"▁ફાટી":7854,"▁શકીએ":7855,"▁સરહદ":7856,"છોડ":7857,"ક્કો":7858,"▁વાજ":7859,"▁ક્લ":7860,"ેડ":7861,"માઈ":7862,"▁સવાલો":7863,"128\t":7864,"જક":7865,"▁દૃ":7866,"▁રાખતા":7867,"125\t":7868,"▁પરિવારને":7869,"▁મેળવ્યા":7870,"▁ગોઠવી":7871,"કં":7872,"▁કઠો":7873,"્રુ":7874,"▁જર":7875,"▁છેવટે":7876,"▁સમયસર":7877,"▁સીધો":7878,"▁ઠરાવ":7879,"126\t":7880,"▁મહેસાણા":7881,"▁કરાતા":7882,"રાણી":7883,"કોરોના":7884,"લેમ":7885,"▁ભાજપની":7886,"▁સોસાયટીમાં":7887,"▁જ્ઞાતિ":7888,"▁નિષ્ણાતો":7889,"વાસ્ત":7890,"ટેક્સ":7891,"▁સ્વસ્થ":7892,"123\t":7893,"▁સફર":7894,"્યૂટ":7895,"▁છતા":7896,"▁ચટ":7897,"▁રાશિ":7898,"▁બેદર":7899,"િત્ય":7900,"▁જુની":7901,"124\t":7902,"▁માર્કેટિંગ":7903,"▁કેમેરા":7904,"ફુ":7905,"૫,":7906,"▁કળા":7907,"▁પરમ":7908,"તિયા":7909,"▁કાંઈ":7910,"▁જંગલ":7911,"▁અવિ":7912,"▁પ્રાઇ":7913,"127\t":7914,"▁કોલેજના":7915,"▁ગેરહા":7916,"▁સ્વતંત્રતા":7917,"મૃત":7918,"ર્ડે":7919,"લોડ":7920,"▁નોકરીધંધા":7921,"▁ફુટ":7922,"▁કટોકટી":7923,"▁ફટાકડા":7924,"રીય":7925,"▁ભરો":7926,"▁પેન્શન":7927,"129\t":7928,"▁સ્ટ્રી":7929,"▁રમવા":7930,"▁પ્રચલિત":7931,"૩માં":7932,"▁સપોર્ટ":7933,"▁હક":7934,"▁સાજા":7935,"લોના":7936,"▁દિલીપ":7937,"▁ઇન્ડિયાના":7938,"▁જાગૃત":7939,"100":7940,"▁દહે":7941,"▁ઉચ્ચાર":7942,"ભાઈએ":7943,"97\tઆ":7944,"▁કંટ્રોલ":7945,"▁સરો":7946,"▁ખાં":7947,"ન્દ્રસિંહ":7948,"▁બોર્ડના":7949,"ઇઓ":7950,"પનું":7951,"▁પટ":7952,"▁પવ":7953,"▁સસ્તા":7954,"▁રાણી":7955,"બાઈ":7956,"▁ઊઠ":7957,"▁નોંધાઈ":7958,"▁વિભાગની":7959,"▁સાંભળીને":7960,"સ્ટ્રેશન":7961,"▁ફુગા":7962,"▁અફવા":7963,"93\tઆ":7964,"ગરો":7965,"▁પ્રસાદ":7966,"વી,":7967,"▁ઝાં":7968,"▁ચોકી":7969,"94\tઆ":7970,"121\t":7971,"▁એસોસ":7972,"▁સંબોધ":7973,"કાન":7974,"▁900":7975,"મ્પો":7976,"▁સોમનાથ":7977,"▁ટાપુ":7978,"▁કેના":7979,"રેલા":7980,"વો,":7981,"44\tઆ":7982,"વાદીઓ":7983,"▁માંગતા":7984,"▁દારૃ":7985,"મૂર્તિ":7986,"▁બંધારણ":7987,"▁સંસાર":7988,"▁ટકી":7989,"▁સિક્કા":7990,"▁મિ.\n":7991,"▁સીસી":7992,"▁ખોર":7993,"▁વરસાદના":7994,"સૂત્રોના":7995,"▁અનાજ":7996,"▁ચમચી":7997,"સર્જન":7998,"વડોદરા":7999,"▁મુદત":8000,"ડાઓ":8001,"▁રેડિયો":8002,"▁પ્રોફ":8003,"▁નિર્ણયને":8004,"▁રાજકારણમાં":8005,"▁ગ્લોબલ":8006,"ડ્રો":8007,"ફળી":8008,"▁સાસુ":8009,"સાે":8010,"▁ઓક":8011,"▁મહેશ":8012,"▁રાખેલ":8013,"વટ":8014,"▁રિવ":8015,"કાંડ":8016,"▁જીવંત":8017,"▁રોકવા":8018,"▁પંડિત":8019,"▁માત્રામાં":8020,"મરી":8021,"તાપ":8022,"▁પ્રોપર્":8023,"▁પ્લોટ":8024,"બ્રિટ":8025,"▁બોલિવ":8026,"▁સોંપી":8027,"ની,":8028,"▁દઈ":8029,"▁ખુલ":8030,"▁સેગ":8031,"▁અધિ":8032,"છેલ્":8033,"▁કમિટી":8034,"▁મંડળી":8035,"૨૧":8036,"૩,":8037,"▁આવકમાં":8038,"▁પર્ય":8039,"▁ચોરસ":8040,"▁આપેલ":8041,"▁સંવેદનશીલ":8042,"ૂન":8043,"▁શિલ્":8044,"▁શંકર":8045,"પાણી":8046,"▁વોટર":8047,"▁એરંડા":8048,"▁મહારાજ":8049,"▁ડેસ્ક,":8050,"▁ડ્રગ":8051,"▁અજય":8052,"ર્મિ":8053,"▁ગંદ":8054,"▁વ્યક્તિત્વ":8055,"▁આવકવેરા":8056,"▁આખું":8057,"▁બહુમતી":8058,"ગસ":8059,"વના":8060,"વવાનું":8061,"હૂ":8062,"▁શાહી":8063,"▁ફાસ્ટ":8064,"▁દોડધામ":8065,"▁સાર્વ":8066,"▁350":8067,"▁લેવાના":8068,"▁કાબુ":8069,"સ્થળે":8070,"▁નિયમન":8071,"દારોની":8072,"▁ધ્યાને":8073,"▁પછા":8074,"▁ભરીને":8075,"▁મુલાય":8076,"▁મેળા":8077,"મીની":8078,"▁કેટ":8079,"લેરી":8080,"ંદુર":8081,"▁રાખ્યા":8082,"▁ચેપ":8083,"▁જૂથો":8084,"▁સભ્યોએ":8085,"▁પુરૂષ":8086,"▁જડ":8087,"▁હૉ":8088,"▁વિરૃ":8089,"▁ફ્યુ":8090,"▁પરમાણુ":8091,"રેખ":8092,"▁ઉપાય":8093,"▁સેલિ":8094,"▁સંસ્કૃત":8095,"ઇએ":8096,"મકી":8097,"▁કપૂ":8098,"▁કૂત":8099,"્યાનમાં":8100,"કાને":8101,"▁કોટ":8102,"▁જાતીય":8103,"▁કાચ":8104,"પ્રસાદ":8105,"▁શાસ્ત્રી":8106,"શાં":8107,"▁કેવા":8108,"▁વિદ્":8109,"▁સંક્રમ":8110,"▁ગ્રામીણ":8111,"▁છો,":8112,"▁મહેતા":8113,"▁કાળજી":8114,"▁નાંખી":8115,"▁મેટ્રો":8116,"▁અર્જુન":8117,"બમાં":8118,"શિવ":8119,"્ઝ":8120,"▁વચ":8121,"▁કેટલું":8122,"▁અપમાન":8123,"૯માં":8124,"▁તદ્":8125,"▁દિક":8126,"ામણ":8127,"▁બેન્ડ":8128,"▁મહુ":8129,"▁બોક્સ":8130,"▁લાખનો":8131,"બોર્ડ":8132,"▁ધરાવતો":8133,"લિવ":8134,"ભાષા":8135,"મીન":8136,"મીર":8137,"▁સૂત્ર":8138,"અનેક":8139,"▁યૂઝ":8140,"૩૧":8141,"▁કોડ":8142,"▁ડ્રે":8143,"▁પીઠ":8144,"▁દિપ":8145,"▁મતભે":8146,"▁કરાવવામાં":8147,"▁સભ્યોની":8148,"લકા":8149,"▁લોટ":8150,"બેરી":8151,"▁સર્કલ":8152,"▁કંપનીઓની":8153,"ખેડ":8154,"▁બચાવી":8155,"▁કબજો":8156,"કેટલીક":8157,"વેલા":8158,"દાતા":8159,"પીના":8160,"▁સામેના":8161,"▁શોખ":8162,"▁ઓળખી":8163,"▁યોજાઈ":8164,"▁ખસેડવામાં":8165,"▁એક્ઝિક્યુટિવ":8166,"ડપ":8167,"મથ":8168,"▁ભરૂચ":8169,"યુરો":8170,"▁રહેલો":8171,"▁જિલ્લાનું":8172,"▁દિનેશ":8173,"▁ફાઇ":8174,"▁૧૯૫":8175,"▁સ્ટેશનમાં":8176,"▁એપાર્ટમેન્ટ":8177,"▁એસોસિ":8178,"▁આજની":8179,"▁કરન્સી":8180,"▁શાન":8181,"▁દેશને":8182,"▁બેઠેલા":8183,"▁વ્યક્તિની":8184,"▁ડાઉન":8185,"▁મેળવીને":8186,"▁પ્રતિક્ર":8187,"ફ્રાસ્ટ્ર":8188,"ડવાની":8189,"▁ક્યુ":8190,"▁મજુ":8191,"ન્વ":8192,"જીવી":8193,"▁મેડી":8194,"▁ખાતામાં":8195,"▁વાતની":8196,"▁અર્ધ":8197,"ખ્ત":8198,"▁એલ.\n":8199,"▁દુર્ઘટના":8200,"ફના":8201,"▁ર્":8202,"ર્ગે":8203,"▁કોમો":8204,"વેલી":8205,"▁ફરાર":8206,"▁સમસ્યાઓ":8207,"▁ઉદ્યોગપતિ":8208,"▁બજેટમાં":8209,"92\tઆ":8210,"▁કઠ":8211,"▁આને":8212,"▁સમર્":8213,"▁લોકોનું":8214,"હોસ્પિટ":8215,"▁ભાવવધ":8216,"▁આરોપો":8217,"▁ચર્ચામાં":8218,"▁મોટાભાગની":8219,"▁બપોર":8220,"▁જીવી":8221,"▁બોર":8222,"▁વિપરીત":8223,"▁ત્રિવે":8224,"▁આશીર્વાદ":8225,"91\tઆ":8226,"▁એડવા":8227,"▁વાંસ":8228,"▁ઉપવાસ":8229,"ચ્ચા":8230,"▁સિદ્ધિ":8231,"▁ઉત્તે":8232,"લનાડુ":8233,"મારું":8234,"▁ભૌતિક":8235,"▁કરનારી":8236,"નોટ":8237,"▁કારોબ":8238,"▁ગુણો":8239,"િંગના":8240,"▁ટેબલ":8241,"બેનના":8242,"▁હિલ":8243,"ઘાટન":8244,"▁નહિ,":8245,"▁મંદિરના":8246,"ંકડો":8247,"▁જુએ":8248,"▁ટ્રેડિંગ":8249,"▁ખુલ્લી":8250,"▁પબ્લિક":8251,"▁મહી":8252,"▁સુનિ":8253,"▁મળેલા":8254,"▁છતાં,":8255,"▁મુશ્કેલીમાં":8256,"▁રાજેશ":8257,"▁રક":8258,"▁દમ":8259,"▁ફસ":8260,"▁પરિવ":8261,"▁ગુને":8262,"▁સ્થાયી":8263,"▁તાે":8264,"▁ગીતા":8265,"▁શોધવા":8266,"▁સાંભળવા":8267,"પ્રેસ":8268,"▁યુનાઇટેડ":8269,"▁જસ્ટિસ":8270,"બની":8271,"▁વ્યકત":8272,"મિટેડ":8273,"▁પાકિસ્તાનમાં":8274,"▁નહોતું":8275,"▁મારફત":8276,"▁વિસ્ફોટ":8277,"▁પ્રણવ":8278,"▁ઊં":8279,"▁સુરક્ષિત":8280,"▁રસપ્રદ":8281,"સૌરાષ્ટ્ર":8282,"▁વર્તુળો":8283,".4":8284,"એમાં":8285,"મહાલ":8286,"▁મરણ":8287,"▁ટર્ન":8288,"▁358":8289,"▁શોભા":8290,"▁કર્યા.\n":8291,"આેએ":8292,"▁ટ્રાન્":8293,"▁દીધી.\n":8294,"▁હમણાં":8295,"▁ગડકરી":8296,"▁પાય":8297,"▁જપ્ત":8298,"▁સંકલ":8299,"▁પોપ":8300,"▁સંખ્યાબંધ":8301,"▁ઊંચો":8302,"▁નદીમાં":8303,"▁મંજુર":8304,"▁કડા":8305,"▁ખર્ચા":8306,"▁નાનો":8307,"▁પોઝિ":8308,"▁મેયર":8309,"▁આપી.\n":8310,"▁અવરોધ":8311,"ગ્ગા":8312,"▁હતાં,":8313,"▁દુકાનો":8314,"▁ઠાકોર":8315,"ભાજપ":8316,"▁હિસ્સા":8317,"જેટ":8318,"▁જોવામાં":8319,"ંદે":8320,"▁સૂચન":8321,"▁ફેસબુક":8322,"▁પટેલની":8323,"▁વહીવટ":8324,"▁હોવો":8325,"▁મળેલ":8326,"▁ઘટનામાં":8327,"લાયક":8328,"▁આરોપીઓ":8329,"▁ઔષ":8330,"દમ્બર":8331,"નથી":8332,"ભારી":8333,"▁કંડ":8334,"▁અહી":8335,"▁હારી":8336,"ટેજ":8337,"▁જોષી":8338,"▁750":8339,"▁746":8340,"572\t":8341,"332\t":8342,"▁ફરીયાદ":8343,"▁માગતા":8344,"▁ડોલરના":8345,"▁અડધી":8346,"▁ઓફિસમાં":8347,"▁ઉદ્દેશ":8348,"રિયલ":8349,"વને":8350,"ોનો":8351,"૨૭":8352,"▁356":8353,"▁રહ્યો.\n":8354,"▁ડીગ્રી":8355,"▁જમીનમાં":8356,"▁બચત":8357,"▁મંત્રાલયે":8358,"૩૫":8359,"કાદ":8360,"▁જેમને":8361,"પાટ":8362,"▁વચ્ચેનો":8363,"▁સ્ટ્રે":8364,"▁ડોક્ટ":8365,"▁ઉપાડી":8366,"▁કારોબારી":8367,"લિયન":8368,"ૈના":8369,"વાળું":8370,"રાજે":8371,"વિજય":8372,"ળાટ":8373,"▁સર્ચ":8374,"▁પ્રાણ":8375,"486\t":8376,"574\t":8377,"400\t":8378,"નિકલ":8379,"▁યોજાયેલા":8380,".2":8381,"ંછ":8382,"▁લાશ":8383,"▁347":8384,"▁978":8385,"▁ઇમાર":8386,"451\t":8387,"▁ઉત્પાદક":8388,"હારી":8389,"▁શ્":8390,"▁678":8391,"▁999":8392,"▁રહેવાસી":8393,"▁રીક્ષા":8394,"▁ફરવા":8395,"571\t":8396,"ખોળ":8397,"49\tઆ":8398,"▁દિલ્હીના":8399,"▁દેખાઈ":8400,"▁પરિસ્થિતિમાં":8401,"▁સંપૂર્ણપણે":8402,"▁કયારે":8403,"▁પ્લેટફોર્મ":8404,"ૂળતા":8405,"▁તત્વ":8406,"▁વહ":8407,"▁બગી":8408,"▁ન્યા":8409,"▁ખ્યા":8410,"ડીયો":8411,"રોકા":8412,"▁ટું":8413,"▁346":8414,"▁747":8415,"▁778":8416,"▁પરિચય":8417,"▁ચોપ":8418,"▁રિક્ષા":8419,"406\t":8420,"454\t":8421,"335\t":8422,"િકોને":8423,"▁શહેરો":8424,"▁બ્લોક":8425,"▁કોમ્યુ":8426,"▁ડુંગળી":8427,"કપ":8428,"▁કવાય":8429,"▁અવર":8430,"▁ધસી":8431,"ેશ્વર":8432,"▁368":8433,"સ્ટાર":8434,"▁સીમ":8435,"▁ગોર":8436,"482\t":8437,"489\t":8438,"▁ભૂકંપ":8439,"▁ક્રિકેટર":8440,"હારો":8441,"▁388":8442,"▁ચોર":8443,"▁લગતા":8444,"405\t":8445,"401\t":8446,"▁નોંધાયું":8447,"▁૩૪":8448,"▁પડેલી":8449,"▁ફાળો":8450,"▁અથડ":8451,"334\t":8452,"▁સુરતમાં":8453,"અલબત્ત":8454,"▁વાતચીતમાં":8455,"લ્લભ":8456,"▁આદર":8457,"▁માણી":8458,"તી,":8459,"▁વાગ":8460,"▁વારો":8461,"સેક":8462,"▁397":8463,"▁646":8464,"▁કરવાને":8465,"બીસી":8466,"▁ગોળ":8467,"455\t":8468,"▁પ્રતિમા":8469,"▁યોજાયો":8470,"▁પોર્ટફો":8471,"▁ભણાવ":8472,"▁378":8473,"▁446":8474,"▁496":8475,"487\t":8476,"573\t":8477,"409\t":8478,"456\t":8479,"સ્પર્":8480,"336\t":8481,"338\t":8482,"પુરુ":8483,"▁આંસુ":8484,"▁ફેરફારો":8485,"▁ધરાવતું":8486,"▁એપ્રિ":8487,"ઉપરાંત,":8488,"▁પતંગ":8489,"માંડ":8490,"▁પાડો":8491,"▁556":8492,"▁546":8493,"▁488":8494,"ટાઈ":8495,"▁કામે":8496,"▁ક્લબ":8497,"▁રિમાન્ડ":8498,"481\t":8499,"578\t":8500,"સ્થામાં":8501,"▁ભુજ":8502,"▁પ્રારંભિક":8503,"▁મનોરંજન":8504,"▁ઝોન":8505,"▁વધારીને":8506,"▁સોંપવામાં":8507,"▁હથિયાર":8508,"▁વિકેટે":8509,"▁માથું":8510,"▁547":8511,"▁498":8512,"▁797":8513,"▁તાકાત":8514,"▁ગામોમાં":8515,"480\t":8516,"459\t":8517,"ભાઇ,":8518,"▁અમદાવાદની":8519,"▁ઋષિ":8520,"▁કડ":8521,"▁પંક":8522,"▁વિચિત્ર":8523,"▁ઘન":8524,"▁499":8525,"▁497":8526,"▁647":8527,"▁658":8528,"▁696":8529,"▁666":8530,"▁756":8531,"▁766":8532,"▁878":8533,"004\t":8534,"હા,":8535,"▁પરિવારો":8536,"▁નામથી":8537,"483\t":8538,"▁હિરો":8539,"333\t":8540,"▁અછત":8541,"નસ":8542,"હિક":8543,"▁399":8544,"▁366":8545,"▁599":8546,"▁578":8547,"▁478":8548,"▁466":8549,"▁668":8550,"▁758":8551,"જાત":8552,"005\t":8553,"▁નેગે":8554,"575\t":8555,"577\t":8556,"403\t":8557,"▁ફેંક":8558,"337\t":8559,"▁તૈયારીઓ":8560,"▁કાશ્મીરમાં":8561,"▁બિલ્ડિંગ":8562,"▁કાગળ":8563,"▁ટુર્નામેન્ટ":8564,"▁સિલ્":8565,"નેશન":8566,"▁વસાહ":8567,"▁નુ":8568,"યાએ":8569,"▁હોટલ":8570,"▁નારાયણ":8571,"▁370":8572,"▁558":8573,"▁447":8574,"▁458":8575,"▁947":8576,"▁946":8577,"▁997":8578,"▁966":8579,"સીંગ":8580,"ટાઇ":8581,"બાના":8582,"▁ખાતાના":8583,"પોરના":8584,"▁પુલ":8585,"▁ઉપરના":8586,"ક્ટરમાં":8587,"▁દ્રશ્યો":8588,"▁અભિગમ":8589,"▁દર્દીઓને":8590,"▁1000ની":8591,"ગઈ":8592,"ન્ત":8593,"▁લાકડા":8594,"▁598":8595,"▁597":8596,"▁566":8597,"▁456":8598,"▁798":8599,"▁768":8600,"▁788":8601,"▁846":8602,"▁898":8603,"▁866":8604,"▁888":8605,"▁958":8606,"▁968":8607,"▁ફરક":8608,"404\t":8609,"▁ઉમેરો":8610,"▁વનસ્પતિ":8611,"▁ઇનકાર":8612,"▁પાટીદાર":8613,"▁ઉંમરે":8614,"ઝરી":8615,"▁ધૂમ":8616,"▁સંકુલ":8617,"▁બેલે":8618,"▁398":8619,"▁596":8620,"ભાષ":8621,"▁656":8622,"▁697":8623,"▁799":8624,"▁856":8625,"▁858":8626,"▁896":8627,"▁નિવાસી":8628,"▁988":8629,"▁પોતાનાં":8630,"▁112":8631,"▁ઝર":8632,"579\t":8633,"▁દાવા":8634,"458\t":8635,"▁વરસાદને":8636,"▁મોદીને":8637,"▁દર્શાવવામાં":8638,"▁અભિષે":8639,"▁કોન્સ્ટે":8640,"કોંગ્રેસ":8641,"▁હોદ્દે":8642,"▁અફઘાનિસ્તા":8643,"પ્યુટી":8644,"બત":8645,"હજુ":8646,"▁ચાવી":8647,"▁588":8648,"▁468":8649,"▁699":8650,"▁796":8651,"▁897":8652,"▁868":8653,"▁નિર્મ":8654,"▁956":8655,"007\t":8656,"ન્સ,":8657,"શીપ":8658,"408\t":8659,"▁ફાઉન્ડ":8660,"450\t":8661,"▁કુશ":8662,"339\t":8663,"▁પરિવારમાં":8664,"▁ઔર":8665,"્યેા":8666,"▁ઉછેર":8667,"▁ટાર્ગેટ":8668,"આતો":8669,"ક્યારે":8670,"સહ":8671,"▁જબર":8672,"▁બૉ":8673,"▁396":8674,"▁568":8675,"▁847":8676,"▁996":8677,"▁ઇલે":8678,"▁101":8679,"ર્સ,":8680,"ુંબેશ":8681,"452\t":8682,"331\t":8683,"▁મોદીની":8684,"▁તીર્થ":8685,"ંથો":8686,"પદે":8687,"▁વિગેરે":8688,"▁પાઇ":8689,"▁698":8690,"▁688":8691,"▁899":8692,"▁998":8693,"▁જાગી":8694,"▁ઝુ":8695,"484\t":8696,"407\t":8697,"દરમ્યાન":8698,"વતો":8699,"▁પેલા":8700,"વાત":8701,"લાવી":8702,"▁શસ્ત્ર":8703,"▁450":8704,"દ્ધાં":8705,"457\t":8706,"▁પરિવારની":8707,"▁પૂરતા":8708,"▁ઉત્તરપ્રદેશ":8709,"▁સાવચે":8710,"▁ગેરકાયદેસર":8711,"▁નમૂ":8712,"▁લૉ":8713,"▁રાણા":8714,"▁102":8715,"▁સિંહે":8716,"▁મહિલાઓને":8717,"▁મોતને":8718,"▁ગરીબી":8719,"▁ઘોડા":8720,"અમદાવાદમાં":8721,"સદીય":8722,"ઓનાં":8723,"ફેર":8724,"વત્":8725,"▁વિટ":8726,"▁ફિટ":8727,"▁નિવાર":8728,"▁સીલ":8729,"453\t":8730,"▁વોટ":8731,"▁વેચાણમાં":8732,".3":8733,"▁છે\n":8734,"▁તેટલી":8735,"▁ચિક":8736,"▁સ્ત્રો":8737,"▁550":8738,"006\t":8739,"દ્વાર":8740,"488\t":8741,"▁સપ્લાય":8742,"▁મુલાકાતે":8743,"યૂ":8744,"▁કટ":8745,"▁હ્યુ":8746,"▁ગળા":8747,"▁સિઝન":8748,"હાની":8749,"▁સ્વર્ગ":8750,"330\t":8751,"▁યુનિવર્સિટીના":8752,"▁જોખમી":8753,"▁ચકચાર":8754,"▁વસૂલ":8755,"શૈ":8756,"▁પધ્ધ":8757,"વારોને":8758,"▁શૌ":8759,"▁આપઘાત":8760,"001\t":8761,"003\t":8762,"▁સિમેન્ટ":8763,"▁દેશોની":8764,"▁ક્રાંતિ":8765,"▁ગેંગ":8766,"▁મૂળભૂત":8767,"▁આશ્રમ":8768,"ંઝ":8769,"પ્લો":8770,"▁ઝુંબેશ":8771,"▁હિમા":8772,"▁ખેલાડીઓને":8773,"▁નીતિન":8774,"▁દ્વારકા":8775,"દક્ષિણ":8776,"▁રજ":8777,"▁શણ":8778,"▁ભડ":8779,"009\t":8780,"▁તાપી":8781,"576\t":8782,"▁સંપર્કમાં":8783,"લકુલ":8784,"▁મંદિરે":8785,"્યાત્મિક":8786,"▁બેદરકારી":8787,"ગતિ":8788,"તુલ":8789,"▁પાત":8790,"રેસ્ટ":8791,"ટાટા":8792,"000\t":8793,"▁બનાવમાં":8794,"▁અદાલતે":8795,"▁આયુર્વે":8796,"▁વૈજ્ઞાનિક":8797,"કહે":8798,"મધ્ય":8799,"▁જવામાં":8800,"▁ગુમ":8801,"▁બિગ":8802,"570\t":8803,"402\t":8804,"મ્પલ":8805,"▁બેંકોમાં":8806,"▁જળવાઈ":8807,"▁અઠવાડ":8808,"▁સ્માર્ટફોન":8809,"▁સ્લાઈ":8810,"▁રહેવાનું":8811,"▁ફેંકી":8812,"▁અહેવાલમાં":8813,"▁જિયો":8814,"▁ચુકવણી":8815,"▁અક્ષય":8816,"▁રજી":8817,"▁દત્ત":8818,"તીમાં":8819,"▁ધડા":8820,"સાથી":8821,"▁સમજા":8822,"▁વધવા":8823,"▁હાલાકી":8824,"▁પ્રતિભાવ":8825,"▁રમતો":8826,"▁શરૃઆત":8827,"૨૦૧૦":8828,"▁પટેલના":8829,"▁લાયક":8830,"▁વોલ્યુ":8831,"પાયે":8832,"સ્ડ":8833,"▁લખા":8834,"▁આવનારા":8835,"▁પાઈ":8836,"▁પાયા":8837,"ક્ષ્મ":8838,"▁650":8839,"▁સમયના":8840,"▁રેલ":8841,"▁દાગીના":8842,"▁ટ્રાવે":8843,"▁હશે,":8844,"▁ઘાસ":8845,"▁મથા":8846,"▁સાથોસાથ":8847,"▁360":8848,"▁132":8849,"બેક":8850,"▁હુમલામાં":8851,"▁સ્મૃતિ":8852,"ફ્રેન્ડ":8853,"સ્કી":8854,"002\t":8855,"▁લેશે":8856,"▁બનવાની":8857,"અમુક":8858,"▁તુલસી":8859,"૪૫":8860,"▁મિટ":8861,"▁રખા":8862,"▁ઘટે":8863,"વિવિધ":8864,"બીએસ":8865,"▁182":8866,"▁જવાથી":8867,"▁વિસ્તરણ":8868,"▁વિસ્તૃત":8869,"▁દોરી":8870,"▁શરમ":8871,"▁ગણાતા":8872,"▁ટ્રાન્સફર":8873,"તમને":8874,"વાસમાં":8875,"▁થ્રી":8876,"485\t":8877,"▁કક્ષાએ":8878,"▁સ્નાન":8879,"કલ્":8880,"▁તસ્ક":8881,"તેલ":8882,"મિર":8883,"▁શોર્ટ":8884,"▁નવેમ્બરે":8885,"▁ગાયક":8886,"▁એન્જિનિયર":8887,"▁પાર્ટનર":8888,"▁પ્રોફેસર":8889,"ગ્રે":8890,"ત્વો":8891,"008\t":8892,"▁વેરા":8893,"▁122":8894,"▁ચીનની":8895,"▁મકાનો":8896,"ૃપ":8897,"▁થયુ":8898,"▁સુગ":8899,"સેલ":8900,"▁2013":8901,"▁162":8902,"▁ઘટનાને":8903,"▁હોસ્પિટલના":8904,"▁સંસ્થાના":8905,"▁મહત્ત્વના":8906,"▁કિશોર":8907,"ટ્રે":8908,"▁પેર":8909,"▁ભાષ":8910,"▁૩૦૦":8911,"▁મારીને":8912,"▁અસંખ્ય":8913,".1":8914,"▁હવાઈ":8915,"▁પ્રાં":8916,"▁ઓથો":8917,"▁850":8918,"્રીક":8919,"▁192":8920,"▁તપાસનો":8921,"▁૪૮":8922,"▁વસંત":8923,"▁સૂત્રોના":8924,"▁સંતાન":8925,"વિદ્યાર્થી":8926,"સરી":8927,"નામું":8928,"▁કોરિયા":8929,"▁વાળી":8930,"દેશના":8931,"▁ફરતા":8932,"▁પ્રતિષ્ઠા":8933,"▁પાછું":8934,"▁2006":8935,"દાયક":8936,"▁બ્રિટીશ":8937,"▁અનિવાર":8938,"વિશ્વાસ":8939,"▁અટકાયત":8940,"▁ઇઝ":8941,"▁142":8942,"▁ફેડ":8943,"ખોરી":8944,"▁ઘટનાસ્થળે":8945,"▁બ્લા":8946,"▁બૌદ્ધ":8947,"ખમ":8948,"ન્યૂ":8949,"▁તંદુર":8950,"રાએ":8951,"▁ઉપપ્રમુખ":8952,"▁બોટલ":8953,"▁શિવસેના":8954,"▁પોલિસી":8955,"શના":8956,"▁પાત્રો":8957,"▁380":8958,"▁નિદાન":8959,"પાયા":8960,"▁202":8961,"▁સેલ્સ":8962,"▁172":8963,"▁સર્જાય":8964,"દુલ":8965,"▁કોળી":8966,"પ્રકાશ":8967,"▁દરોડા":8968,"▁હાર્દિક":8969,"▁સચિન":8970,"▁બાતમી":8971,"શરી":8972,"▁અમારે":8973,"જીનું":8974,"▁તાજે":8975,"▁બનાવની":8976,"▁લગતી":8977,"▁બિર":8978,"▁પરીક્ષણ":8979,"▁અર્પણ":8980,"▁સવારના":8981,"▁તફાવત":8982,"▁અસ્થ":8983,"▁વતી":8984,"સેવ":8985,"ંધણ":8986,"િયારો":8987,"▁152":8988,"▁ઝિ":8989,"▁એલિ":8990,"▁જેમાંથી":8991,"▁બિલકુલ":8992,"▁લાગતા":8993,"▁જાણતા":8994,"▁સાંજના":8995,"▁પ્રશ્ને":8996,"▁બદલવા":8997,"▁ફૂટબોલ":8998,"કોંગ્રેસના":8999,"▁૦":9000,"તિઓ":9001,"▁મેગે":9002,"▁લેન્ડ":9003,"▁લેવો":9004,"▁ફેક્ટ":9005,"વર્તી":9006,"▁નાખવામાં":9007,"▁કચેરીમાં":9008,"▁આક્રમણ":9009,"▁ઈન્ટરનેશનલ":9010,"જ્યુ":9011,"વાતા":9012,"▁950":9013,"▁પુત્રો":9014,"▁રહીશો":9015,"▁બાળકી":9016,"▁વ્યક્તિના":9017,"▁બોર્ડની":9018,"▁કલેક્ટર":9019,"લભ":9020,"▁પાઉ":9021,"ત્ન":9022,"▁આપવો":9023,"▁બાહ્ય":9024,"▁રેટિંગ":9025,"▁ફરમા":9026,"વરસાદ":9027,"▁બ્રાં":9028,"ખલી":9029,"▁સ્મોલ":9030,"▁રાજીવ":9031,"▁સેંકડો":9032,"▁બદલાઈ":9033,"▁જિલ્લાની":9034,"વાય.\n":9035,"▁ફાઈ":9036,"▁રૂ.2":9037,"▁રમતા":9038,"▁ઝાડ":9039,"▁શિક્ષકો":9040,"▁દાયકામાં":9041,"▁કોશિશ":9042,"કાઉન્ટર":9043,"ઊં":9044,"ઓવર":9045,"ળતી":9046,"▁કયાં":9047,"▁બિસ્":9048,"▁ગઠ":9049,"▁ચરબી":9050,"સ્ટ્રો":9051,"▁સીટ":9052,"▁સ્ટુ":9053,"▁વાંચો":9054,"▁ધરાવતાં":9055,"▁એકબીજાને":9056,"▁સ્નેહ":9057,"્સના":9058,"▁કન્ટ":9059,"▁પિત":9060,"ર્જર":9061,"▁480":9062,"▁નિર":9063,"▁960":9064,"▁કામની":9065,"▁111":9066,"▁મેળવવાની":9067,"▁શોધખોળ":9068,"▁ચુસ્ત":9069,"▁વાયરલ":9070,"▁પ્રસારણ":9071,"▁પોર્ટફોલિયો":9072,"ત.":9073,"▁જ્યુ":9074,"▁નકારાત્મક":9075,"▁ગયેલ":9076,"▁દેવું":9077,"▁મિલક":9078,"▁મીમી":9079,"▁ફ્લે":9080,"▁અપનાવી":9081,"▁ટોચની":9082,"▁તેંડુલકર":9083,"▁ગંદકી":9084,"▁ક્રાઇ":9085,"▁કેદ":9086,"▁સામાન":9087,"જાજ":9088,"▁970":9089,"▁ટીમની":9090,"▁દાહોદ":9091,"▁મજબૂ":9092,"▁મુદ્દામાલ":9093,"▁પત્":9094,"▁ગર્વ":9095,"ટેબલ":9096,"▁સંપ્રદાય":9097,"સાત":9098,"▁નિકા":9099,"▁151":9100,"▁રાખો":9101,"લિશ":9102,"▁જીવનના":9103,"ભારતે":9104,"▁કામકાજમાં":9105,"સુરત":9106,"▁સાહસ":9107,"મહિલા":9108,"▁તદ્દન":9109,"ળથી":9110,"વારોની":9111,"▁વાવા":9112,"▁770":9113,"▁880":9114,"▁શાહે":9115,"▁બનાવ્યો":9116,"▁એસટી":9117,"સૂત્રો":9118,"▁કોલકા":9119,"▁જોગવાઇ":9120,"▁ઝોનમાં":9121,"▁માય":9122,"▁528":9123,"▁પૂરે":9124,"▁ઈ.સ.":9125,"▁બનાવવાનો":9126,"905\t":9127,"▁મહિલાને":9128,"▁છીએ,":9129,"▁સગવડ":9130,"43\tઆ":9131,"૩૬":9132,"▁જયાં":9133,"▁અંડર":9134,"યા.\n":9135,"▁થિયે":9136,"ટીક":9137,"▁470":9138,"▁780":9139,"દીને":9140,"પ્ના":9141,"નિસ":9142,"472\t":9143,"▁દુનિયાના":9144,"▁વેબસાઈ":9145,"▁પ્રમોશન":9146,"41\tઆ":9147,"બેર":9148,"શાલ":9149,"▁760":9150,"▁પુરો":9151,"▁2005":9152,"▁હજારથી":9153,"▁ગઇ.\n":9154,"ંગ્લો":9155,"્રિ":9156,"▁વખાણ":9157,"▁દળ":9158,"▁સુખી":9159,"▁મુર":9160,"▁201":9161,"▁સેવ":9162,"476\t":9163,"બુધ":9164,"સંઘ":9165,"▁આપ્યો.\n":9166,"▁હેતુથી":9167,"▁કિલ્લા":9168,"લીમો":9169,"▁570":9170,"▁980":9171,"▁અંગેનો":9172,"ણોમાં":9173,"956\t":9174,"મંદિર":9175,"▁ચોખ્ખો":9176,"ફોડ":9177,"વવું":9178,"સરો":9179,"▁અહિ":9180,"▁560":9181,"▁680":9182,"▁870":9183,"▁860":9184,"502\t":9185,"478\t":9186,"▁પ્રેમમાં":9187,"પુરી":9188,"ભાવનગર":9189,"▁ફિલ્મનું":9190,"▁સમિતિની":9191,"ચમાં":9192,"ડિયમ":9193,"રાત્રે":9194,"ન્જર":9195,"▁પાડીને":9196,"▁ધો.\n":9197,"▁317":9198,"▁318":9199,"▁660":9200,"588\t":9201,"465\t":9202,"▁એરલાઇ":9203,"▁સદીના":9204,"▁બિલ્ડીંગ":9205,"▁સૂચવે":9206,"આઉટ":9207,"ગ્યુ":9208,"બધા":9209,"વાલા":9210,"▁191":9211,"ન્દિરા":9212,"506\t":9213,"505\t":9214,"569\t":9215,"586\t":9216,"900\t":9217,"952\t":9218,"▁મહામારી":9219,"▁હેઠળના":9220,"દુનિયા":9221,"▁ગેરરી":9222,"▁સમાજવાદી":9223,"થવા":9224,"માર્ક":9225,"વાળ":9226,"▁તારો":9227,"▁અજબ":9228,"ન્ટેડ":9229,"▁હોવ":9230,"ામુ":9231,"જેનો":9232,"▁ઓપ":9233,"▁460":9234,"દાની":9235,"બાજી":9236,"▁બોગસ":9237,"▁નીચી":9238,"શાની":9239,"▁ડેટ":9240,"▁ડેપ્યુટી":9241,"474\t":9242,"566\t":9243,"રનાર":9244,"901\t":9245,"▁ગ્રો":9246,"કારોએ":9247,"ડિટી":9248,"▁આયોજ":9249,"▁ધંધાના":9250,"▁ક્રાઈમ":9251,"▁તાલ":9252,"▁નસીબ":9253,"▁વિમાનો":9254,"▁525":9255,"▁580":9256,"▁નિવૃત્તિ":9257,"પાછ":9258,"▁ઝેર":9259,"▁સહુ":9260,"585\t":9261,"466\t":9262,"902\t":9263,"િકોએ":9264,"▁વાયરસ":9265,"▁વાઘેલા":9266,"મહારાષ્ટ્ર":9267,"▁અન્ન":9268,"લાન":9269,"▁દક્ષિ":9270,"▁670":9271,"▁પાસે,":9272,"507\t":9273,"▁રિપ":9274,"475\t":9275,"473\t":9276,"563\t":9277,"469\t":9278,"▁જમાનામાં":9279,"▁પ્લાસ્ટિક":9280,"▁મુસ્લિમો":9281,"▁સાચું":9282,"▁કૌભાંડમાં":9283,"▁માયાવતી":9284,"▁ભક્તો":9285,"કર્ષ":9286,"શ્રા":9287,"▁સતા":9288,"▁મણિ":9289,"▁દવે":9290,"▁ફુલ":9291,"ામો":9292,"▁ઇન્ટ":9293,"▁લેતી":9294,"સોમ":9295,"▁131":9296,"▁નામનું":9297,"580\t":9298,"463\t":9299,"દિવાળી":9300,"▁૭૫":9301,"▁આવતીકાલ":9302,"▁વસતિ":9303,"▁જણાય.\n":9304,"શિક":9305,"▁514":9306,"501\t":9307,"460\t":9308,"909\t":9309,"951\t":9310,"943\t":9311,"▁ધર્મના":9312,"▁લીધી.\n":9313,"▁મકાનમાં":9314,"▁શહીદ":9315,"ક્ક":9316,"▁વાક્ય":9317,"▁327":9318,"▁326":9319,"▁જીવતા":9320,"470\t":9321,"▁તરફી":9322,"445\t":9323,"▁પક્ષની":9324,"▁નવરાત્રિ":9325,"▁પાંદ":9326,"▁426":9327,"▁પડો":9328,"િંગ,":9329,"તેમનું":9330,"471\t":9331,"477\t":9332,"464\t":9333,"▁મોટાભાગે":9334,"443\t":9335,"▁હાલની":9336,"945\t":9337,"940\t":9338,"▁છું.":9339,"▁ચલાવે":9340,"▁પેટ્રો":9341,"ગુજરાતના":9342,"▁નાગરિકોને":9343,"▁ઇચ્છે":9344,"▁2015માં":9345,"▁આચ":9346,"ર્શિયલ":9347,"▁માપ":9348,"▁વિષ્ણુ":9349,"▁કોસ્ટ":9350,"▁મોઢ":9351,"▁મુળ":9352,"▁434":9353,"ંત્રાલ":9354,"▁ખેડા":9355,"504\t":9356,"479\t":9357,"567\t":9358,"467\t":9359,"▁ફાઈન":9360,"▁ચેનલ":9361,"ઠાણ":9362,"▁કંપ્ની":9363,"▁ગ્રાન્ટ":9364,"▁બચવા":9365,"સામે":9366,"▁425":9367,"પાે":9368,"▁કરેલું":9369,"▁141":9370,"468\t":9371,"955\t":9372,"959\t":9373,"942\t":9374,"944\t":9375,"▁વોર":9376,"ફાઇન":9377,"▁બાજુએ":9378,"▁પરીક્ષામાં":9379,"ઠ્ઠ":9380,"ઠેર":9381,"પચાર":9382,"ભારે":9383,"ભાવી":9384,"નાથી":9385,"▁તણાવ":9386,"▁વંચ":9387,"ધીશો":9388,"▁325":9389,"પીએમ":9390,"▁121":9391,"▁દરબાર":9392,"▁દરજ્":9393,"500\t":9394,"509\t":9395,"462\t":9396,"946\t":9397,"▁ઘરઆંગ":9398,"▁અડધા":9399,"મંદિ":9400,"▁પ્રસન્ન":9401,"▁ઊભું":9402,"▁સિક્યોરિટી":9403,"સ્યુ":9404,"ૃત્તિ":9405,"▁સાઇટ":9406,"▁સુવર્ણ":9407,"▁657":9408,"461\t":9409,"▁કલાકો":9410,"440\t":9411,"448\t":9412,"▁યજ્ઞ":9413,"▁પુરું":9414,"▁લિમિટેડ":9415,"શ્ર્":9416,"▁મુસાફરો":9417,"▁બ્લડ":9418,"બિટ":9419,"▁હોબા":9420,"લ્સમાં":9421,"▁527":9422,"▁537":9423,"ન્ટલ":9424,"હાઉ":9425,"503\t":9426,"564\t":9427,"908\t":9428,"▁૫૫":9429,"▁સભામાં":9430,"જનું":9431,"▁પવાર":9432,"લીઓ":9433,"▁328":9434,"▁524":9435,"▁ગુફા":9436,"▁ઈંગ્લેન્ડ":9437,"▁171":9438,"▁યોજી":9439,"▁કાર્યક":9440,"568\t":9441,"906\t":9442,"441\t":9443,"ભાગના":9444,"▁અંશે":9445,"▁કોંગ્રેસની":9446,"▁એચ.\n":9447,"▁મોહમ્મદ":9448,"▁હવામાં":9449,"▁બર્":9450,"▁314":9451,"▁515":9452,"▁415":9453,"▁181":9454,"▁292":9455,"▁ગામડા":9456,"જૂના":9457,"583\t":9458,"▁પડી.\n":9459,"કુમા":9460,"▁મતદારો":9461,"▁સાયકલ":9462,"▁પ્રતિક્રિયા":9463,"જન્":9464,"વવાના":9465,"▁માસનો":9466,"▁થનાર":9467,"▁વિનો":9468,"▁કોમે":9469,"▁357":9470,"▁516":9471,"▁624":9472,"▁825":9473,"▁મેટલ":9474,"પ્રિ":9475,"▁161":9476,"ન્સને":9477,"▁ડિપો":9478,"▁મોટાપાયે":9479,"954\t":9480,"▁ચાલ્યા":9481,"▁પદે":9482,"ક્સના":9483,"▁નાખ્યા":9484,"▁348":9485,"▁સમજૂ":9486,"▁815":9487,"▁282":9488,"▁સમાજની":9489,"▁પહેલેથી":9490,"ભાઈને":9491,"562\t":9492,"565\t":9493,"560\t":9494,"561\t":9495,"584\t":9496,"589\t":9497,"ફોર્":9498,"949\t":9499,"ંકાવ":9500,"▁ટાળ":9501,"▁કબૂ":9502,"૪,":9503,"ટીન":9504,"▁ચૂંટ":9505,"953\t":9506,"449\t":9507,"▁ગ્રુપ":9508,"▁શેરી":9509,"948\t":9510,"▁માણસને":9511,"▁પાઠવી":9512,"▁ટ્વી":9513,"ઘ્":9514,"ોનું":9515,"▁હિટ":9516,"▁સ્કે":9517,"▁315":9518,"▁329":9519,"▁625":9520,"▁626":9521,"▁કહ્યુ":9522,"508\t":9523,"907\t":9524,"▁ઠીક":9525,"▁જરૂરિયા":9526,"▁વનડે":9527,"▁હળવી":9528,"▁અત્યાચાર":9529,"ચ્યુ":9530,"સવારે":9531,"▁સ્રો":9532,"▁આયા":9533,"ંગલ":9534,"▁એકમો":9535,"▁339":9536,"▁કાળી":9537,"▁ચોકડી":9538,"903\t":9539,"958\t":9540,"444\t":9541,"▁સ્ટેડિય":9542,"▁માર્યો":9543,"▁સંચાલિત":9544,"▁ગણાય.\n":9545,"▁દીધો.\n":9546,"42\tઆ":9547,"્ડ":9548,"▁વઘ":9549,"તેવી":9550,"▁પોત":9551,"▁324":9552,"▁335":9553,"▁519":9554,"▁428":9555,"▁615":9556,"▁618":9557,"ન્ટ્સ":9558,"દેશિક":9559,"▁તેઓની":9560,"581\t":9561,"947\t":9562,"▁ઇતિહાસમાં":9563,"▁ચારેય":9564,"▁ટાઇમ":9565,"▁જીએસટી":9566,"સત":9567,"▁અખા":9568,"▁ફરે":9569,"▁મોતી":9570,"સેન":9571,"▁539":9572,"▁427":9573,"▁925":9574,"▁સેવન":9575,"સિડે":9576,"▁સોદો":9577,"587\t":9578,"904\t":9579,"446\t":9580,"▁ગ્રૂપ":9581,"▁કંઇક":9582,"▁સ્કુલ":9583,"▁શક્તિશાળી":9584,"▁નરમ":9585,"▁કાફલો":9586,"્યા,":9587,"▁ખાય":9588,"▁337":9589,"▁517":9590,"▁529":9591,"▁526":9592,"▁416":9593,"▁616":9594,"▁637":9595,"શનની":9596,"▁બીસીસી":9597,"હિલ":9598,"▁દીઘું":9599,"▁વાતનો":9600,"582\t":9601,"▁વરસે":9602,"941\t":9603,"▁૨૦૦૦":9604,"▁બાળકોના":9605,"▁પ્રક્રિયામાં":9606,"રાજ્યના":9607,"▁શુભેચ્છાઓ":9608,"▁ગવર્નર":9609,"▁કબ્જે":9610,"▁પોષ":9611,"▁બાલ":9612,"▁417":9613,"▁638":9614,"▁મેગા":9615,"ળાજા":9616,"957\t":9617,"આેમાં":9618,"શિપ":9619,"▁શરીરને":9620,"▁હૈદરા":9621,"ડ્સમાં":9622,"▁લાઈફ":9623,"▁મિલકત":9624,"▁મેઘરાજા":9625,"▁કેપિટલ":9626,"▁મુલાયમ":9627,"▁હકારાત્મક":9628,"▁319":9629,"▁548":9630,"▁636":9631,"▁617":9632,"▁824":9633,"▁826":9634,"બાગ":9635,"▁હાસ્ય":9636,"▁માર્ક":9637,"▁દુબ":9638,"▁ઓફી":9639,"950\t":9640,"▁૧૫૦":9641,"▁સોમવાર,":9642,"ગાંઠ":9643,"નિંગ":9644,"▁એવ":9645,"▁ધંધ":9646,"▁424":9647,"▁418":9648,"▁438":9649,"▁435":9650,"▁429":9651,"▁816":9652,"▁814":9653,"▁915":9654,"▁212":9655,"▁કંપનીઓમાં":9656,"▁બનાવવાનું":9657,"યોગ્ય":9658,"▁રૂપિયાના":9659,"▁સોનામાં":9660,"▁રસ્તાઓ":9661,"▁કાઢવા":9662,"ંસક":9663,"▁વાયદો":9664,"▁આવેદનપત્ર":9665,"1માં":9666,"▁અરુ":9667,"▁માધ":9668,"ન્ઝ":9669,"▁આવડ":9670,"▁316":9671,"▁334":9672,"▁530":9673,"▁518":9674,"▁614":9675,"▁929":9676,"▁જાદુ":9677,"▁ઇ.સ.":9678,"442\t":9679,"▁વ્યાપાર":9680,"લાઈટ":9681,"▁ભાજપને":9682,"▁મંદિરો":9683,"▁સર્જાયો":9684,"▁સુવિધાઓ":9685,"▁ચાંદીના":9686,"▁પંચાયતના":9687,"ઘટ":9688,"બરી":9689,"▁તાલિ":9690,"▁મંચ":9691,"▁રાઈ":9692,"▁634":9693,"▁બીજે":9694,"▁મૂકે":9695,"▁અધ્યા":9696,"▁ડોનાલ્ડ":9697,"ભગવાન":9698,"અમેરિકામાં":9699,"▁મોંઘી":9700,"મંગળ":9701,"▁રનની":9702,"▁કરવો.\n":9703,"ટેસ્ટ":9704,"▁ખતમ":9705,"▁377":9706,"▁538":9707,"▁437":9708,"▁619":9709,"▁648":9710,"▁737":9711,"▁748":9712,"▁રૂમમાં":9713,"▁ગાઢ":9714,"▁ગાંધીધામ":9715,"▁ધોધ":9716,"▁ઊંચાઈ":9717,"▁પત્નીને":9718,"ત્રિમ":9719,"▁મગફળી":9720,"▁બુધવાર,":9721,"▁સ્પેક્ટ":9722,"▁લગાડ":9723,"ઈમાં":9724,"એની":9725,"કનું":9726,"▁વસુ":9727,"▁માપદ":9728,"▁વિર":9729,"▁વધ્યું":9730,"▁818":9731,"▁857":9732,"▁934":9733,"▁948":9734,"▁957":9735,"િયું":9736,"▁એક્સ્":9737,"▁ફાળવવામાં":9738,"▁ધ્વનિ":9739,"ઓસ્ટ્રેલિયા":9740,"નીંગ":9741,"▁સાંપ":9742,"તેઓએ":9743,"▁338":9744,"▁534":9745,"▁817":9746,"▁837":9747,"▁272":9748,"▁૩૨":9749,"▁ચિત્રો":9750,"▁ઇન્ફો":9751,"▁માંડવી":9752,"▁પીએસઆઈ":9753,"સારો":9754,"૧૦૦":9755,"ેશનના":9756,"ંદરે":9757,"▁439":9758,"▁વધતાં":9759,"▁628":9760,"▁918":9761,"▁રીપોર્ટ":9762,"બેલ":9763,"▁કલર":9764,"▁બાંધવામાં":9765,"▁સ્કૂલમાં":9766,"▁નિવેદનમાં":9767,"▁અનિવાર્ય":9768,"▁કરશો":9769,"▁ફફ":9770,"વીય":9771,"યોર્ક":9772,"▁419":9773,"▁436":9774,"▁448":9775,"▁930":9776,"િયસ":9777,"▁કોઈની":9778,"▁ઇન્સ્ટિટ":9779,"ચોરી":9780,"▁સભ્યોને":9781,"▁સ્પર્શ":9782,"▁સ્ટાફે":9783,"▁જગતમાં":9784,"અમેરિકાના":9785,"▁ઇશ્યૂ":9786,"પશ્ચિમ":9787,"▁કર્યેા":9788,"ાવવાનો":9789,"▁536":9790,"▁557":9791,"▁414":9792,"▁629":9793,"▁830":9794,"▁927":9795,"▁935":9796,"▁926":9797,"▁937":9798,"▁અનંત":9799,"વર્ગ":9800,"▁જાહેરખ":9801,"▁ઘટાડવા":9802,"▁સ્ટુડ":9803,"▁ફ્રેન્":9804,"ધ્ધા":9805,"▁535":9806,"▁635":9807,"▁639":9808,"▁819":9809,"▁828":9810,"▁838":9811,"▁834":9812,"▁પહેલ":9813,"▁કક્ષાના":9814,".9":9815,"નીક":9816,"▁પ્રાંત":9817,"▁836":9818,"▁827":9819,"▁835":9820,"▁939":9821,"લિપ":9822,"▁હેલ્":9823,"▁ગાળો":9824,"78\tઆ":9825,"▁રંગો":9826,"▁ઢાં":9827,"▁લાગી.\n":9828,"પિંડી":9829,"▁બહેનો":9830,"▁તબીબો":9831,"ચાંદી":9832,"▁ચુંટણી":9833,"શિંગ્":9834,"વાદા":9835,"▁457":9836,"▁627":9837,"▁715":9838,"▁829":9839,"▁928":9840,"▁લોખંડ":9841,"શ્ન":9842,"શાસ":9843,"જુદા":9844,"▁ચોખા":9845,"▁સર્જરી":9846,"▁ફાઇલ":9847,"447\t":9848,"▁અધિકારીઓની":9849,"55\tઆ":9850,"▁સ્વાતંત્ર":9851,"▁વસતા":9852,"▁અજમા":9853,"પોરબંદ":9854,"▁મહામંત્રી":9855,"▁ન્યાયા":9856,"બાલ":9857,"▁777":9858,"▁839":9859,"▁848":9860,"▁938":9861,"યુકત":9862,"▁બનાવ્યું":9863,"▁બાળપણ":9864,"▁ગેમ્":9865,"▁અભિનંદન":9866,"▁રૂ.1,":9867,"▁પ્રવેશી":9868,"▁ક્રી":9869,"▁સત્":9870,"▁રસાય":9871,"ક્ટે":9872,"▁થનારા":9873,"કારે":9874,"▁430":9875,"▁રહેલું":9876,"▁રોમાં":9877,"▁અન્યાય":9878,"▁રૂમ":9879,"▁242":9880,"▁222":9881,"રૃખ":9882,"▁દેખરેખ":9883,"▁શ્રાવણ":9884,"▁કરવું.\n":9885,"▁માધ્યમથી":9886,"▁શાસક":9887,"▁મરાઠી":9888,"▁ત્યાગ":9889,"હકીકતમાં":9890,"▁સસ્પેન્ડ":9891,"▁શસ્ત્રો":9892,"▁ટાવર":9893,"▁914":9894,"▁936":9895,"▁917":9896,"▁કાબૂ":9897,"સિટી":9898,"▁સીઇઓ":9899,"▁રાજ્યપાલ":9900,"લગભગ":9901,"▁નવાઈ":9902,"▁બાળકોની":9903,"હમ":9904,"▁વિશ્ર":9905,"▁916":9906,"▁રહેવાનો":9907,"▁રોકડા":9908,"▁જીંદગી":9909,"▁પછી,":9910,"▁ઠંડા":9911,"▁ગુજરાતીમાં":9912,"▁કાઢીને":9913,"▁ઘોષ":9914,"▁ન્યૂઝ":9915,"સિડન્ટ":9916,"▁પધ્ધતિ":9917,".30":9918,"નેસ":9919,"▁320":9920,"▁630":9921,"▁714":9922,"▁924":9923,"▁લેબો":9924,"▁ઈસ્લા":9925,"▁252":9926,"70\tઆ":9927,"▁ચિંત":9928,"▁ઢગ":9929,"▁બતાવે":9930,"▁મૌન":9931,"▁પુરવઠો":9932,"્યલ":9933,"▁આઘાત":9934,"લીયન":9935,"▁નાણું":9936,"પાના":9937,"▁મેળો":9938,"▁281":9939,"ભાઇએ":9940,"▁નવીન":9941,"થુન":9942,".0":9943,"જો.\n":9944,"▁જતું":9945,"▁આસિ":9946,"▁પ્રદર્શ":9947,"ડીએફ":9948,"▁736":9949,"▁724":9950,"▁725":9951,"▁251":9952,"▁નેતાઓએ":9953,"▁વિભાગને":9954,"▁આતંકવાદીઓ":9955,"▁તુરંત":9956,"ુની":9957,"▁બં":9958,"▁પ્રવાહી":9959,"કોલ":9960,"▁520":9961,"વિચાર":9962,"▁૩૭":9963,"એમની":9964,"▁જગ્યાઓ":9965,"▁મંદિરની":9966,"▁પ્રકાશમાં":9967,"▁પત્રકારોને":9968,"રોકાણ":9969,"સંત":9970,"▁ગણો":9971,"▁ગીર":9972,"લ્ક":9973,"▁ઓસ્ટ્રે":9974,"▁ખેતરમાં":9975,"▁શિખ":9976,"▁વિદ્યાર્થીઓની":9977,"▁ચલાવવામાં":9978,"▁મંત્રાલયના":9979,"▁લડત":9980,"▁પ્રતીક":9981,"ખરા":9982,"ફુલ":9983,"▁તાં":9984,"▁નહેર":9985,"▁તેટલા":9986,"▁માઓ":9987,"સ્પર":9988,"▁હોટે":9989,"▁ટકા,":9990,"▁વ્યાપી":9991,"▁પૂરતું":9992,"▁ઢા":9993,"▁તોફાની":9994,"મામાં":9995,"્રિસ્":9996,"કોનું":9997,"▁પાસા":9998,"રેલવે":9999,"વેન્ટી":10000,"▁330":10001,"▁મેળામાં":10002,"▁232":10003,"▁262":10004,"▁ઉત્સ":10005,"▁લાગ્યા.\n":10006,"▁ટ્રેક":10007,"▁નિર્માતા":10008,"▁ફેરવી":10009,"▁જોઈએ,":10010,"▁મહત્ત્વનું":10011,"▁હંમેશાં":10012,"▁આદિવાસીઓ":10013,"તમારી":10014,"શરૂ":10015,"▁ખુર":10016,"▁સ્માર":10017,"▁પાથ":10018,"ત્સાહ":10019,"ડીપી":10020,"▁એકસ":10021,"▁સંસદીય":10022,"▁બેસે":10023,"▁271":10024,"તરફ":10025,"▁શેરમાં":10026,"▁પ્લો":10027,"▁આરટી":10028,"▁આરોપીઓને":10029,"▁રોકાણકારોને":10030,"ેય":10031,"કાઈ":10032,"ત્રિક":10033,"▁727":10034,"▁735":10035,"▁726":10036,"▁810":10037,"યુન":10038,"▁બોડી":10039,"▁રાખવાનો":10040,"▁બહારના":10041,"▁પાછલા":10042,"▁પૂરતો":10043,"▁રામદેવ":10044,"▁સ્થળાંતર":10045,"▁છુટા":10046,"▁સંભાળી":10047,"▁ભરાઈ":10048,"▁પામેલા":10049,"▁દિગ્ગ":10050,"▁ઓબામા":10051,"▁577":10052,"મોબા":10053,"▁291":10054,"▁તરીકે,":10055,"▁એકાએક":10056,"ડ્ડી":10057,"▁ઋણ":10058,"જારી":10059,"રથ":10060,"▁મસ":10061,"▁716":10062,"▁734":10063,"▁757":10064,"▁977":10065,"્યુત":10066,"▁મહિનો":10067,"▁ચૂંટા":10068,"▁લીધો.\n":10069,"▁પ્રતિનિધિત્વ":10070,"▁સંજોગો":10071,"વૈશ્વિક":10072,"▁સ્પેશિયલ":10073,"▁એસોસિએશન":10074,"ને,":10075,"લાવ":10076,"▁877":10077,"▁રોજી":10078,"બાપુ":10079,"▁૩૮":10080,"▁જન્મા":10081,"▁યુનિયન":10082,"▁કહીએ":10083,"▁વસવાટ":10084,"▁ચુડા":10085,"▁નીકળ્યા":10086,"▁સહેજ":10087,"ફિલ્મ":10088,"▁પલા":10089,"▁હાન":10090,"▁થવી":10091,"▁719":10092,"▁717":10093,"▁730":10094,"▁738":10095,"▁પીવાના":10096,"▁ઠાલ":10097,"▁પ્રેક્ટ":10098,"▁જાણીતું":10099,"▁ઉપાડ":10100,"▁એસેટ":10101,"ફટી":10102,"▁અમારો":10103,"▁શાર":10104,"▁સાધારણ":10105,"▁નાર":10106,"▁728":10107,"▁729":10108,"સિપિ":10109,"ંડલ":10110,"▁221":10111,"▁ગ્રૂ":10112,"આઇએ":10113,"▁આશિ":10114,"▁ખર્ચમાં":10115,"▁મધ્યપ્રદેશ":10116,"▁ઈન્ડિયન":10117,"▁માધ્યમિક":10118,"▁તહેવારો":10119,"▁વોર્ડમાં":10120,"▁મેડીકલ":10121,"▁શામ":10122,"▁ઉદય":10123,"▁510":10124,"▁477":10125,"▁677":10126,"સરથી":10127,"▁241":10128,"▁બેન્કે":10129,"▁અમદાવાદઃ":10130,"▁વ્યાજદર":10131,"▁અક્ષર":10132,"વિદ્યા":10133,"▁રથયાત્રા":10134,"▁કસરત":10135,"▁નડિયાદ":10136,"▁પ્રોફેશન":10137,"ક્યો":10138,"રન્સ":10139,"▁બુલ":10140,"▁બનના":10141,"▁લઘ":10142,"▁સાચો":10143,"ત્વા":10144,"▁739":10145,"▁વેકેશન":10146,"▁સિધ્ધ":10147,"▁રિટર્ન":10148,"ગરીમાં":10149,"૬,":10150,"▁િવ":10151,"વાજ":10152,"▁ઉંચી":10153,"▁પરનો":10154,"▁420":10155,"▁718":10156,"▁ઇવેન્ટ":10157,"▁પ્રતિસાદ":10158,"▁નિયત":10159,"▁ક્ષેત્રના":10160,"▁સામાજીક":10161,"▁અકસ્માતમાં":10162,"▁વિકસિત":10163,"▁સુરેન્દ્રનગર":10164,"▁કઢ":10165,"▁લડી":10166,"▁લેવડ":10167,"▁211":10168,"965\t":10169,"960\t":10170,"સુપ્રીમ":10171,"▁અવગ":10172,"▁બ્લે":10173,"▁યોજાઇ":10174,"▁જોડાયેલી":10175,"▁યુદ્ધમાં":10176,"▁પ્રિન્ટ":10177,"▁સબસિ":10178,"▁સોસાયટી,":10179,"▁ઇલેક્ટ્રો":10180,"▁પરિવહન":10181,"ગઇ":10182,"મ્યુ":10183,"▁ભંડ":10184,"▁ભરેલી":10185,"▁એકર":10186,"▁310":10187,"પ્લા":10188,"▁કામના":10189,"▁પછીની":10190,"▁જાય,":10191,"▁કામગીરીમાં":10192,"▁અર્થમાં":10193,"▁એનાયત":10194,"▁શૈલી":10195,"▁નાખીને":10196,"▁સ્વામિનારાયણ":10197,"▁એસોસિય":10198,"▁પ્રોપર્ટી":10199,"હામ":10200,"▁ઈશ્વર":10201,"▁સિઝનમાં":10202,"હિદ":10203,"▁શ્રેણીમાં":10204,"▁સલાહકાર":10205,"જામનગર":10206,"ભાજપના":10207,"ગસ્ટ":10208,"ચિક":10209,"▁ક્યા":10210,"ાવતાં":10211,"▁હોટેલ":10212,"▁જેઠ":10213,"▁મુખર":10214,"▁340":10215,"▁વેઠ":10216,"▁231":10217,"▁સૌને":10218,"▁પ્રાઈ":10219,"971\t":10220,"વર્લ્ડ":10221,"એમએસ":10222,"▁વ્યાપ":10223,"▁કોંગ્રેસને":10224,"▁નવરાત્રી":10225,"▁હથિયારો":10226,"▁બેટ્સમેન":10227,"ક્યારેક":10228,"બુલ":10229,"સારા":10230,"▁અઢ":10231,"▁આવાસ":10232,"▁મક્":10233,"▁ફળો":10234,"▁કોમ્":10235,"લેટર":10236,"▁બેટ":10237,"▁મુલ":10238,"▁1990":10239,"▁ચૂપ":10240,"969\t":10241,"▁છો?\n":10242,"▁ભરવામાં":10243,"▁પંચમહાલ":10244,"▁લક્ષ્યાંક":10245,"▁અસરો":10246,"▁વર્ગના":10247,"▁ફ્રેન્ડ":10248,"▁તાત્કાલીક":10249,"ચાવી":10250,"▁વલ્લભ":10251,"▁દાંત":10252,"યોમાં":10253,"લેષણ":10254,"▁મિશન":10255,"▁ડેમો":10256,"999\t":10257,"989\t":10258,"▁ઘટનાની":10259,"▁ઘટાડ":10260,"▁ભૂતકાળમાં":10261,"▁આર્મી":10262,"છેલ્લાં":10263,"▁બગીચા":10264,"ળિયા":10265,"▁બોલમાં":10266,"▁માનસ":10267,"998\t":10268,"સ્કૂ":10269,"પીએલ":10270,"▁ફેલાઈ":10271,"▁વિપુલ":10272,"▁અનિશ્ચિત":10273,"▁કોમનવેલ્થ":10274,"▁નિર્ધારિત":10275,"▁હોલ્ડ":10276,"લ્દી":10277,"▁મોજ":10278,"▁રહે,":10279,"▁રાખો.\n":10280,"▁ચોથી":10281,"970\t":10282,"▁શોષણ":10283,"ગામમાં":10284,"પાંતર":10285,"▁કચ્છમાં":10286,"▁અખબ":10287,"ંબર":10288,"▁સવલ":10289,"ારખંડ":10290,"▁દૃષ્ટિ":10291,"▁કોમ્પ":10292,"જાણી":10293,"▁ક્લો":10294,"982\t":10295,"▁વીસ":10296,"▁યાર્":10297,"▁તારણ":10298,"▁બચ્ચન":10299,"જિટલ":10300,"▁કપા":10301,"▁મેક્સ":10302,"▁લેવું":10303,"▁લોકોનાં":10304,"▁દરની":10305,"983\t":10306,"964\t":10307,"972\t":10308,"▁લગ્નની":10309,"▁વંચિત":10310,"ઉદા":10311,"તારો":10312,"વાં":10313,"▁પ્રબળ":10314,"સેમ્બર":10315,"▁410":10316,"▁લોકલ":10317,"▁મળવાની":10318,"ભાઈના":10319,"987\t":10320,"975\t":10321,"977\t":10322,"ફેક્ટ":10323,"▁આરોપીને":10324,"▁ટૂંકી":10325,"▁વાયદામાં":10326,"▁ઉર્જા":10327,"▁સર્જાઈ":10328,"▁કવાયત":10329,"ઇંગ":10330,"વની":10331,"▁બપોરના":10332,"સ્મ":10333,"▁રાત્રીના":10334,"ટી,":10335,"▁કોમેન્ટ":10336,"▁390":10337,"રૂખ":10338,"▁અનુવાદ":10339,"▁રાજ્યનો":10340,"976\t":10341,"936\t":10342,"▁જમીનના":10343,"▁સ્ટીલ":10344,"▁તકેદારી":10345,"એ,":10346,"બિન":10347,"ક્લ":10348,"995\t":10349,"962\t":10350,"492\t":10351,"▁શનિવાર,":10352,"▁ક્ષેત્રોમાં":10353,"▁કાયદેસર":10354,"▁ઇન્વેસ્ટમેન્ટ":10355,"▁ઉ.વ.":10356,"▁વયે":10357,"▁માસ્ટર":10358,"લેશ્વર":10359,"▁490":10360,"▁640":10361,"▁820":10362,"સીડી":10363,"▁મેરી":10364,"▁યુકે":10365,"▁સરકારનો":10366,"▁ઈમાર":10367,"▁દીકરો":10368,"990\t":10369,"▁લેવાયા":10370,"▁દોષ":10371,"490\t":10372,"સંબંધ":10373,"▁ઉમેદવારી":10374,"▁મહાનુ":10375,"▁ફટકો":10376,"▁પ્રોડક્ટ્સ":10377,"▁પાંડે":10378,"▁ગુસ્સો":10379,"ફામ":10380,"ળકી":10381,"▁કન્સ":10382,"▁નકલ":10383,"મીક":10384,"986\t":10385,"▁૪૦૦":10386,"▁કોંગ્રેસી":10387,"▁ટ્રિ":10388,"▁તત્ત્વો":10389,"▁અખબાર":10390,"▁નિરાશા":10391,"▁કોન્સ્ટેબલ":10392,"દારે":10393,"ડાનો":10394,"▁620":10395,"▁910":10396,"▁261":10397,"▁ટેલી":10398,"▁ડિપાર્ટમેન્ટ":10399,"994\t":10400,"▁પ્રાદેશિક":10401,"▁ફેડર":10402,"કર,":10403,"930\t":10404,"▁કૃપા":10405,"હરચના":10406,"▁વિકાસના":10407,"લય":10408,"▁પાપ":10409,"રોગ":10410,"▁કારો":10411,"▁રીંગ":10412,"▁સામે,":10413,"985\t":10414,"984\t":10415,"▁ક્રૂડ":10416,"▁પાકિસ્તાને":10417,"▁બજારના":10418,"▁વૈજ્ઞાાન":10419,"▁ભાષાના":10420,"▁એજ્યુ":10421,"▁ડૉક્ટર":10422,"▁પામેલ":10423,"▁પ્રવાસીઓ":10424,"▁મિશ્રણ":10425,"▁જળવા":10426,"▁આડ":10427,"▁બધો":10428,"▁કરુ":10429,"રીક":10430,"▁પ્રણા":10431,"▁ઓમ":10432,"હોર":10433,"▁ડેપો":10434,"▁માર્જિન":10435,"973\t":10436,"978\t":10437,"65\tઆ":10438,"▁આનંદી":10439,"▁શાળાઓ":10440,"▁ભરાયા":10441,"▁ફાઇનાન્સ":10442,"▁કાઉન્સિલ":10443,"કવિ":10444,"જન્સી":10445,"ફંડ":10446,"▁બંદર":10447,"▁નક્કર":10448,"▁નાનું":10449,"▁ખેત":10450,"991\t":10451,"968\t":10452,"▁ચેમ્બર":10453,"▁નહોતા":10454,"938\t":10455,"▁પક્ષીઓ":10456,"▁અબ્દુલ":10457,"ગર્ભ":10458,"વર્ડ":10459,"કાશી":10460,"લ્સની":10461,"▁જેટ":10462,"▁ટર્મ":10463,"▁940":10464,"▁પડદા":10465,"▁નેપા":10466,"▁સર્કિટ":10467,"ંભી":10468,"988\t":10469,"961\t":10470,"963\t":10471,"▁ક્રમાં":10472,"▁શ્રીમ":10473,"933\t":10474,"▁ઊંચું":10475,"▁પ્રવક્":10476,"્રિસ્તી":10477,"અત્યાર":10478,"૮ના":10479,"▁આચર":10480,"▁એડી":10481,"▁એડિ":10482,"સ્મિક":10483,"▁ચચ":10484,"▁વાડી":10485,"કીટ":10486,"▁ખાને":10487,"▁અનુરોધ":10488,"992\t":10489,"996\t":10490,"ગોળ":10491,"▁પટેલને":10492,"▁હાઉસિંગ":10493,"ડબલ":10494,"બર્ટ":10495,"▁એન્ટર":10496,"▁કેવું":10497,"▁બાઈ":10498,"▁લેનાર":10499,"▁કોઈએ":10500,"▁સીસ્ટ":10501,"980\t":10502,"981\t":10503,"966\t":10504,"▁ટોળા":10505,"934\t":10506,"સ્તુત":10507,"▁આદમી":10508,"▁મોડલ":10509,"▁નારાજગી":10510,"▁દીપિકા":10511,"વ,":10512,"▁કયો":10513,"▁અડવા":10514,"▁આપણું":10515,"▁ઇંગ્":10516,"▁સોન":10517,"495\t":10518,"▁શાળાઓમાં":10519,"▁ઇનિંગ":10520,"દરમિયાન,":10521,"▁પહોંચાડી":10522,"▁દિગ્દર્શક":10523,"આતના":10524,"ફરી":10525,"૩૭":10526,"▁માતૃ":10527,"▁પાસેના":10528,"▁પીપ":10529,"974\t":10530,"▁ઉપરાંત,":10531,"ખોર":10532,"▁અવતાર":10533,"496\t":10534,"939\t":10535,"▁મુંબઈના":10536,"▁બજાવતા":10537,"▁મંગળવાર,":10538,"▁ગર્લ":10539,"▁સમૃદ્ધ":10540,"૪૭":10541,"કા,":10542,"▁કોને":10543,"▁440":10544,"▁610":10545,"▁790":10546,"▁920":10547,"▁ઈશ":10548,"▁કરેલો":10549,"બેન,":10550,"▁થઇ.\n":10551,"▁ફેમિ":10552,"494\t":10553,"493\t":10554,"▁આરતી":10555,"▁અંતમાં":10556,"935\t":10557,"ભર્યા":10558,"શક":10559,"સરે":10560,"નાર્":10561,"▁હોસ્પી":10562,"▁540":10563,"સીટી":10564,"▁ગોપાલ":10565,"993\t":10566,"▁મી.\n":10567,"▁પાછળના":10568,"▁હેઠળની":10569,"▁શરીરના":10570,"▁ફ્લેટ":10571,"▁બધં":10572,"▁મેન્યુ":10573,"પુરુષ":10574,"▁પંકજ":10575,"કદાચ":10576,"ચર્સ":10577,"વતાં":10578,"▁તડ":10579,"▁કરણ":10580,"▁840":10581,"▁890":10582,"▁2024":10583,"બીના":10584,"997\t":10585,"937\t":10586,"મર્યા":10587,"▁સિવાયના":10588,"▁અબજો":10589,"▁જર્મન":10590,"▁બુકિંગ":10591,"▁વતન":10592,"▁બર્થ":10593,"▁સાડી":10594,"▁લાઇટ":10595,"▁ટેકસ":10596,"કરની":10597,"▁૪૨":10598,"▁ખોદ":10599,"932\t":10600,"931\t":10601,"▁અનુભવે":10602,"▁લાભાર્થી":10603,"▁રૃપિયાની":10604,"▁મુદ્દાઓ":10605,"▁અટકળો":10606,"▁ખુરશી":10607,"નિયમ":10608,"▁આક્રો":10609,"મેને":10610,"િયાને":10611,"▁કામદારો":10612,"▁ગામો":10613,"967\t":10614,"491\t":10615,"498\t":10616,"▁અગાઉથી":10617,"▁શકાશે":10618,"▁પ્રવક્તા":10619,"તથા":10620,"▁રમે":10621,"▁ઉલ":10622,"િયાનમાં":10623,"▁ઓઈલ":10624,"▁સમિટ":10625,"▁ઇજને":10626,"▁ગુરૃ":10627,"▁ગુનામાં":10628,"પ્ટર":10629,"▁શકે,":10630,"▁સહજ":10631,"979\t":10632,"▁ખેડુ":10633,"▁શીખી":10634,"▁મેળવ્યું":10635,"▁પ્રોજેકટ":10636,"▁નિભાવ":10637,"▁990":10638,"▁વેર":10639,"▁પ્રેસ":10640,"499\t":10641,"▁નેતાઓને":10642,"▁એન્જી":10643,"▁શરત":10644,"▁લોકસભામાં":10645,"▁33636":10646,"▁શાનદાર":10647,"▁હોબાળો":10648,"ઉદાહરણ":10649,"ડને":10650,"▁જોબ":10651,"▁590":10652,"▁720":10653,"66\tઆ":10654,"રાજકો":10655,"497\t":10656,"▁બુદ્ધ":10657,"▁પશ્ચિમી":10658,"▁આતુર":10659,"▁સર્જિકલ":10660,"ડ્ડ":10661,"▁તસવીર":10662,"▁સ્પેશ્યલ":10663,"ધ્યાય":10664,"ફાય":10665,"શ્રે":10666,"▁વધશે":10667,"દીશ":10668,"▁મળવાનું":10669,"ોડો":10670,"▁ગાબ":10671,"▁પાર્ટીમાં":10672,"▁ટ્રસ્ટી":10673,"▁થયેલું":10674,"▁જોડાઈ":10675,"▁ગુરુવાર,":10676,"▁વિકાસની":10677,"▁અનોખી":10678,"▁છેતરપિંડી":10679,"▁ધીરજ":10680,"ગજબ":10681,"▁મઘ્ય":10682,"▁કોથ":10683,"▁કોષ":10684,"▁ધારી":10685,"▁લેનારા":10686,"▁સંડોવણી":10687,"▁સોફ્ટવેર":10688,"▁ચટણી":10689,"▁મક્કમ":10690,"ગરા":10691,"વાયેલી":10692,"ટેશન":10693,"સાહેબ":10694,"▁787":10695,"▁રૂપમાં":10696,"▁લેવાલી":10697,"▁ટાઇટ":10698,"નીયર":10699,"▁કન્ઝ":10700,"તારા":10701,"બરો":10702,"બહાર":10703,"ળનો":10704,"▁અસા":10705,"▁રતન":10706,"▁વિડિયો":10707,"▁બેત્રણ":10708,"▁ડ્રા":10709,"▁કાર્યાલય":10710,"સીય":10711,"રાજકીય":10712,"▁સ્ટ્રો":10713,"▁એવાં":10714,"▁મતલબ":10715,"▁કર્મચારીઓની":10716,"▁પત્રમાં":10717,"▁મહત્ત્વનો":10718,"▁હાજરીમાં":10719,"▁મસ્ત":10720,"▁મકવા":10721,"▁રાજી":10722,"ામિ":10723,"▁690":10724,"જાના":10725,"▁સેક્ટરમાં":10726,"▁યુઝ":10727,"▁રૂટ":10728,"▁ઊંડા":10729,"મુના":10730,"▁પ્રેક્ષ":10731,"▁આર્ય":10732,"શુક્ર":10733,"▁ખસેડ":10734,"વાદાસ્પદ":10735,"▁ચરણ":10736,"મેડ":10737,"▁એકથી":10738,"▁710":10739,"▁767":10740,"ળીમાં":10741,"▁દેસાઇ":10742,"દેશની":10743,"હાઇ":10744,"ણોને":10745,"▁વિદ્ય":10746,"67\tઆ":10747,"▁ગુ્રપ":10748,"▁ટ્રાન્ઝે":10749,"પચારિક":10750,"ચલા":10751,"િષ્ટ":10752,"▁માણે":10753,"▁ઉમર":10754,"સેનાના":10755,"▁667":10756,"▁740":10757,"▁નિબંધ":10758,"▁પડવાની":10759,"▁લીટર":10760,"▁પરિણ":10761,"▁કલાકની":10762,"▁ચીની":10763,"ખેડા":10764,"▁રૂપિયાનો":10765,"64\tઆ":10766,"▁કાંઠે":10767,"્યેય":10768,"▁ઉત્પાદનમાં":10769,"કુંભ":10770,"▁સિક્યુ":10771,"વદ":10772,"ૂફ":10773,"▁રડ":10774,"▁લાદ":10775,"▁587":10776,"▁મહેમાન":10777,"▁કપમાં":10778,"▁કરો,":10779,"▁ડાયરેક્ટર":10780,"▁શણગાર":10781,"▁મથાળે":10782,"ંશી":10783,"દ્રો":10784,"▁જ્વા":10785,"▁ગળે":10786,"▁સાે":10787,"▁કોવિડ":10788,"▁સંકલ્પ":10789,"▁ડઝન":10790,"▁મેરે":10791,"▁હિસા":10792,"▁દેવાયા":10793,"▁કવર":10794,"▁467":10795,"▁વધવાની":10796,"▁રોય":10797,"▁૨,":10798,"બેડ":10799,"▁મદદરૂપ":10800,"▁કૃત્રિમ":10801,"▁ચલાવવા":10802,"▁યુરોપી":10803,"▁કથિત":10804,"થલ":10805,"▁આની":10806,"▁માસ્ક":10807,"▁એકઠા":10808,"▁નિરાશ":10809,"▁987":10810,"▁છો.":10811,"▁૫૪":10812,"▁ભાજપમાં":10813,"▁મજબુત":10814,"પ્રેમી":10815,"▁કચ્છના":10816,"▁ઈતિહાસ":10817,"પત્રો":10818,"મરા":10819,"▁કણ":10820,"કાએ":10821,"ંગમાં":10822,"ેશન્સ":10823,"▁367":10824,"▁487":10825,"▁687":10826,"▁967":10827,"▁મેર":10828,"▁રેસ":10829,"હાઈ":10830,"68\tઆ":10831,"▁૪૩":10832,"▁ઝડપે":10833,"▁લાગે.\n":10834,"▁પ્રતિકાર":10835,"▁ચોમાસુ":10836,"▁સ્વચ્છતા":10837,"2માં":10838,"ઉદી":10839,"▁મિસ્":10840,"▁ચડી":10841,"▁કરીશું.\n":10842,"▁આપનારા":10843,"▁ડામ":10844,"▁867":10845,"દાને":10846,"વું,":10847,"▁દેવો":10848,"ોલિક":10849,"મુક્ત":10850,"▁શોમાં":10851,"▁બહારથી":10852,"▁એલર્ટ":10853,"▁સમિતિએ":10854,"▁યુવતીઓ":10855,"▁શખ્સ":10856,"મામ":10857,"▁જહે":10858,"લીટી":10859,"▁387":10860,"▁રોહિત":10861,"ન્ડર્ડ":10862,"▁તાલુકો":10863,"▁કાર્બન":10864,"▁મહારાષ્ટ્રના":10865,"▁કેબિને":10866,"▁પેકેજ":10867,"વવો":10868,"િના":10869,"નીની":10870,"▁ઉડા":10871,"▁887":10872,"▁ફોજ":10873,"▁રિઝ":10874,"▁ઇન્કાર":10875,"▁ઇન્ફ્રાસ્ટ્ર":10876,"▁મૂકવા":10877,"▁પહેલીવાર":10878,"▁પુષ્કળ":10879,"▁હાર્ટ":10880,"યાને":10881,"યોજન":10882,"▁ટક્કર":10883,"▁ઘડિયા":10884,"▁567":10885,"▁દર્શા":10886,"▁લાગ્યો.\n":10887,"▁સ્ટ્રાઈ":10888,"▁જનતાને":10889,"▁જંગલમાં":10890,"▁માઈક્રો":10891,"▁મફત":10892,"▁મહાનુભાવ":10893,"ખરી":10894,"સલા":10895,"▁સર્જી":10896,"▁ગ્રંથો":10897,"▁ચુક્યા":10898,"▁ડિસ્કાઉન્ટ":10899,"ખેડૂતો":10900,"ઝનો":10901,"વૈયા":10902,"▁સદ્":10903,"▁હસ્તા":10904,"રીટી":10905,"▁ઉલ્લ":10906,"સાધ":10907,"▁રહ્યાે":10908,"▁ઠપ":10909,"▁ફાટ":10910,"▁કિંમતી":10911,"▁ગોઠવવામાં":10912,"▁સપ્ટેમ્બરે":10913,"કોમર્સ":10914,"▁પર્સનલ":10915,"ણથી":10916,"વડો":10917,"▁રિયા":10918,"મેર":10919,"લ્લી":10920,"▁બેગ":10921,"▁જોવાનું":10922,"▁વેદ":10923,"▁જીતે":10924,"▁કહું":10925,"▁સ્ટેડિયમ":10926,"▁પિતાએ":10927,"▁મગજ":10928,"▁પાસપોર્ટ":10929,"▁પ્રાણીઓ":10930,"▁ડિઝાઈન":10931,"કમિશન":10932,"જવર":10933,"સપ્":10934,"▁સ.":10935,"▁મલ":10936,"રાવી":10937,"▁ઉંઘ":10938,"▁સંમતિ":10939,"યુના":10940,"મિત્ર":10941,"▁લાગશે.\n":10942,"▁રૂ.3":10943,"▁ગરમા":10944,"▁એનએસ":10945,"▁ચલાવતા":10946,"શ્યલ":10947,"▁મનોજ":10948,"▁લાયસન્સ":10949,"▁જહેમત":10950,"▁પદા":10951,"▁ચંદ":10952,"લ્સના":10953,"▁કોફી":10954,"▁વાણી":10955,"▁ટ્યુ":10956,"▁રાખવી.\n":10957,"પણું":10958,"▁પ્રતિષ્ઠ":10959,"▁૪૪":10960,"▁વિશ્વભરમાં":10961,"ગુરૂ":10962,"▁લાઇનમાં":10963,"▁તેજસ્વી":10964,"▁નિપજ્યું":10965,"▁પકડીને":10966,"▁કહો":10967,"▁કમ્પ્યુટર":10968,"▁મલે":10969,"રાત્રિ":10970,"▁એકસાથે":10971,"વિજ્ઞાન":10972,"▁ઉપકરણ":10973,"મ્મ":10974,"પ્રસંગ":10975,"ચાઇ":10976,"▁બેઠો":10977,"▁૬૫":10978,"▁શ્રીકૃષ્ણ":10979,"▁પ્રજાપતિ":10980,"▁મંત્રણા":10981,"▁હળદર":10982,"▁માળખું":10983,"▁કયર્િ":10984,"▁વિનોદ":10985,"જરૂ":10986,"ળક":10987,"વ્યૂ":10988,"▁આકરી":10989,"▁શૉ":10990,"▁ફોડ":10991,"કેર":10992,"▁પડતર":10993,"▁બોટા":10994,"સોના":10995,"▁રેગ્યુ":10996,"▁ખોલી":10997,"▁મહિલાઓની":10998,"શિક્ષણ":10999,"▁ચુકી":11000,"▁કર્ણાટક":11001,"▁હિલચાલ":11002,"કરના":11003,"રાજી":11004,"▁લલિત":11005,"સ્ટિ":11006,"્યુના":11007,"પીને":11008,"▁યુગમાં":11009,"▁ગયાં.\n":11010,"▁ચેન્ના":11011,"▁માલ્યા":11012,"▁યુવરાજ":11013,"ંિગ":11014,"ખરેખર":11015,"ટરો":11016,"ટિલ":11017,"૬૫":11018,"▁કૅ":11019,"▁નખ":11020,"▁વધશે.\n":11021,"▁ખાધ":11022,"▁માંડે":11023,"▁બનાવટી":11024,"▁યોજનાઓ":11025,"▁પતિને":11026,"▁બાંધકા":11027,"▁પૃષ્ઠ":11028,"▁વાગ્યાથી":11029,"કોર્પોરે":11030,"▁તરફેણ":11031,"▁સ્વપ્ન":11032,"ઇમાં":11033,"▁કન":11034,"▁આટલું":11035,"▁હોકી":11036,"ષ્મા":11037,"▁બોર્ડે":11038,"▁સોયા":11039,"▁પરિણી":11040,"▁અનુમાન":11041,"્સ,":11042,"▁શ્રેય":11043,"▁નાણાંની":11044,"▁ત્રીજો":11045,"▁શાંતિથી":11046,"ગઈકાલે":11047,"▁સ્વાતંત્ર્ય":11048,"▁હરાવ":11049,"▁શુક":11050,"▁સાલ":11051,"▁સુભાષ":11052,"▁મોડા":11053,"▁સાથેનો":11054,"▁વર્ગી":11055,"▁રેક":11056,"જન્ય":11057,"60\tઆ":11058,"▁ડીવી":11059,"▁વ્યવસ્થિત":11060,"▁ધોરી":11061,"ચરલ":11062,"▁ગાંઠ":11063,"▁સળગ":11064,"▁ટ્વિ":11065,"▁માળે":11066,"▁ઉદાર":11067,"▁આપતો":11068,"▁બેફામ":11069,"▁1980":11070,"નારને":11071,"▁બોલર":11072,"▁૯થી":11073,"૧૯૯":11074,"▁..":11075,"▁નોકરીધંધાના":11076,"ેંગ્રે":11077,"લેજ":11078,"▁નાબૂ":11079,"ભાગી":11080,"વોકેટ":11081,"▁જીવા":11082,"▁ઈઝ":11083,"▁પરિપત્ર":11084,"77\tઆ":11085,"▁સ્થાપક":11086,"▁રકમની":11087,"▁ઈન્ડસ્ટ્રી":11088,"શ્વર્યા":11089,"▁ત્રાસવાદ":11090,"▁કેબિનેટ":11091,"▁અવરજવર":11092,"બદ":11093,"ૂડમાં":11094,"▁તર્ક":11095,"▁વતની":11096,"▁આવકો":11097,"▁સુમારે":11098,"▁ભાગોમાં":11099,"▁ડિજિટલ":11100,"▁નોંધાવ્યો":11101,"▁બાબતની":11102,"▁રહ્યું.\n":11103,"▁બ્રોડ":11104,"▁બોલિંગ":11105,"▁યુનિય":11106,"સમય":11107,"મૂળ":11108,"▁ઓળખાતા":11109,"▁સુપ્રિમ":11110,"પથી":11111,"▁જળા":11112,"▁આચાર":11113,"▁ર૦":11114,"▁કેવો":11115,"વિસ્ત":11116,"પીઠ":11117,"પીપ":11118,"▁આરબીઆઇ":11119,"▁સ્થિતિને":11120,"▁યાદગાર":11121,"▁અપાઇ":11122,"▁નિરાકરણ":11123,"▁પહાેંચ":11124,"બને":11125,"મ્ય":11126,"▁પાળ":11127,"▁દેવતા":11128,"▁તમાકુ":11129,"▁પ્રાે":11130,"▁ઠાર":11131,"લ્લાહ":11132,"આેના":11133,"▁ગેટ":11134,"▁શેરબજાર":11135,"▁અહેસાસ":11136,"▁રાજયમાં":11137,"ઉદ્યોગ":11138,"▁આજીવન":11139,"▁બસમાં":11140,"સ્વતી":11141,"▁ભટ્":11142,"▁પ્રણ":11143,"વીસ":11144,"▁જાઓ":11145,"ચાસ":11146,"▁ગોવિંદ":11147,"િકોની":11148,"000ની":11149,"▁કેમકે":11150,"▁ખેડૂતોએ":11151,"▁ક્યાંથી":11152,"▁નીકળતા":11153,"▁કુંડ":11154,"▁અંબાણી":11155,"▁આંચકા":11156,"▁માઇક્રો":11157,"▁અરજદાર":11158,"▁ઉપરોક્ત":11159,"▁ગેરહાજરી":11160,"વડે":11161,"▁ભટ્ટ":11162,"▁સાહે":11163,"િતો":11164,"▁રહો":11165,"▁રાખવાનું":11166,"▁ભાગ્ય":11167,"▁ભરવાની":11168,"▁જેમની":11169,"▁દેખાવો":11170,"▁કૃત્ય":11171,"▁એન્કાઉન્ટર":11172,"ધુનિક":11173,"▁કાયદાકીય":11174,"▁જીતવા":11175,"▁ડૉક્ટ":11176,"▁વાગ્યાના":11177,"▁સૂચવી":11178,"▁કોન્ટ્રે":11179,"▁ઈન્ટરનેટ":11180,"▁તરફેણમાં":11181,"▁પ્રાઇવેટ":11182,"ખડ":11183,"▁જલ્દી":11184,"િવ્ય":11185,"▁ખાણ":11186,"▁એમનો":11187,"▁ભાવોમાં":11188,"રિલાયન્સ":11189,"▁કંપનીનો":11190,"▁૪૯":11191,"▁પક્ષમાં":11192,"▁હાઇકોર્ટે":11193,"▁વિભાગો":11194,"▁પાેલીસ":11195,"▁આફ":11196,"▁વિવાદાસ્પદ":11197,"▁ઓડ":11198,"જાહેર":11199,"▁આવે,":11200,"▁ભાડે":11201,"▁બનવું":11202,"▁બંધા":11203,"▁પ્રથમવાર":11204,"▁મારવા":11205,"▁ટ્રાય":11206,"▁જયંતિ":11207,"▁કરાવ્યું":11208,"▁કરાવવાની":11209,"▁ન્યાયમૂર્તિ":11210,"▁મહારાષ્ટ્રમાં":11211,"▁મોડેલ":11212,"હલ":11213,"▁કસો":11214,"▁જાં":11215,"તીની":11216,"▁સમાપ્ત":11217,"▁મળી.\n":11218,"▁ડેવિડ":11219,"ફીક":11220,"▁808":11221,"▁એનર્જી":11222,"▁નીચેના":11223,"▁આપ્યું.\n":11224,"▁વાદળો":11225,"▁બ્રાહ્મણ":11226,"▁અભિષેક":11227,"▁પૂરેપૂ":11228,"એને":11229,"મક":11230,"૮૫":11231,"નાણા":11232,"ત્રુ":11233,"ડીનો":11234,"▁નારી":11235,"▁કરે,":11236,"ારામાં":11237,"▁પહેરીને":11238,"ત્રીજા":11239,"▁ઘટાડી":11240,"▁રંગી":11241,"▁ચૂકવવા":11242,"▁હરાજી":11243,"▁ફાઇનલ":11244,"મરાન":11245,"૩૩":11246,"▁પડા":11247,"▁હડ":11248,"▁વર્તા":11249,"▁દેવે":11250,"▁જવાહર":11251,"▁પહોંચતા":11252,"▁કેન્દ્રના":11253,"▁ચૂંટણીઓ":11254,"▁જયંતી":11255,"▁ચૂકવણી":11256,"▁પ્રવૃતિ":11257,"▁દિવાળીના":11258,"▁હોદ્દા":11259,"પનો":11260,"મલા":11261,"વંશ":11262,"▁બલ":11263,"રાણ":11264,"▁પાઉન્ડ":11265,"▁એકલ":11266,"▁નાણામ":11267,"▁સમજે":11268,"લોન":11269,"▁નથી!\n":11270,"▁કાચા":11271,"વર્તન":11272,"કારોને":11273,"▁ગેમ":11274,"▁શાહરૃખ":11275,"▁માધ્યમ":11276,"▁ન્યુઝીલેન્ડ":11277,",500":11278,"▁!":11279,"▁ગુડ":11280,"▁2019":11281,"▁રેન્જ":11282,"552\t":11283,"▁ગાંધીને":11284,"▁આયોજિત":11285,"જનોને":11286,"▁વધારાનો":11287,"▁સાબરમતી":11288,"▁પ્રીમિયમ":11289,"▁અજબગજબ":11290,"ંય":11291,"ટરમાં":11292,"વાશે.\n":11293,"▁આસાની":11294,"▁મણ":11295,"▁ભક્ત":11296,"▁સાકાર":11297,"▁સ્કો":11298,"તિની":11299,"ંદના":11300,"મોદી":11301,"પ્લ":11302,"▁ઈ.":11303,"▁એમનું":11304,"▁ફિલ્મને":11305,"▁યાર્ડ":11306,"ટ્ટર":11307,"▁જીવનનો":11308,"ગુજરાતી":11309,"▁વિકલ્":11310,"▁સિદ્ધાંત":11311,"▁ઓલિમ્પિકમાં":11312,"▁પ્રવક્તાએ":11313,"તઃ":11314,"્હા":11315,"ટોમાં":11316,"▁નેહ":11317,"ચીને":11318,"▁દિવસનો":11319,"▁વોલ્":11320,"▁વૈદિક":11321,"▁રસ્તામાં":11322,"▁ભજવે":11323,"▁સર્વેક્ષણ":11324,"▁યુનિ.\n":11325,"▁માપદંડ":11326,"અત્રે":11327,"સ્યો":11328,"હરી":11329,"▁સફ":11330,"▁શપથ":11331,"▁એકતા":11332,"▁તોફાન":11333,"તરની":11334,"▁રહ્યાના":11335,"કાયેલા":11336,"▁ચીનમાં":11337,"▁ફીટ":11338,"▁દુનિયાની":11339,"▁નવેસરથી":11340,"▁દેવાયો":11341,"▁જણાવેલ":11342,"▁બેટ્સમે":11343,"ગારો":11344,"▁કળ":11345,"વાએ":11346,"▁શાય":11347,"પાડા":11348,"ંચાઈ":11349,"શનના":11350,"▁સેટે":11351,"▁1998":11352,"▁મહિન્દ્રા":11353,"▁અનુસર":11354,"તેમનો":11355,"▁ડેરી":11356,"▁આધ્યાત્મિક":11357,"ફેટે":11358,"▁૨૦૧૨":11359,"▁નહી.\n":11360,"કંપનીના":11361,"▁સિદ્ધાં":11362,"▁ગ્રહણ":11363,"▁સપના":11364,"ારમાં":11365,"▁ભજન":11366,"ણીઓ":11367,"ક્ષમતા":11368,"▁જીવો":11369,"▁બીચ":11370,"મિકા":11371,"▁મિસ":11372,"સ્થાપિત":11373,"▁અપાયું":11374,"430\t":11375,"▁તંત્રને":11376,"▁ભ્રમણ":11377,"▁ચાંદ":11378,"▁વાહનચાલ":11379,"▁અગિયાર":11380,"▁ગ્લે":11381,"▁પ્રસરી":11382,"▁સુગંધ":11383,"▁વેબસાઈટ":11384,"ડબલ્યુ":11385,"ધક":11386,"ધડ":11387,"▁હદ":11388,"▁માનું":11389,"સાઇડ":11390,"▁વેરો":11391,"▁1999":11392,"▁ઈન્ટર":11393,"▁૩૯":11394,"▁યંત્ર":11395,"▁આંખે":11396,"▁મ્યુઝ":11397,"▁સંગઠનો":11398,"▁મોકલા":11399,"▁વિદ્યાર્થ":11400,"ંકો":11401,"ફની":11402,"સભર":11403,"મા,":11404,"▁છવાઈ":11405,"▁જંતુ":11406,"▁વેશ":11407,"▁બહો":11408,"વિશેષ":11409,"▁રાજપૂ":11410,"▁લગાવવામાં":11411,"▁ભર્યા":11412,"▁મ્યુઝિક":11413,"મંડળ":11414,"▁કચરો":11415,"▁મૈત્રી":11416,"▁સ્પીડ":11417,"▁હસી":11418,"▁ચઢી":11419,"ાયુ":11420,"▁રાકેશ":11421,"▁આપની":11422,"▁લાવે":11423,"▁પૂછી":11424,"▁હેલિકો":11425,"▁પાણીથી":11426,"સનીય":11427,"434\t":11428,"▁ભયંકર":11429,"▁ઇચ્છતા":11430,"તરનાક":11431,"ધ્વ":11432,"▁કિસ્સો":11433,"▁ચતુ":11434,"ાંતિક":11435,"ચાલી":11436,"▁પીઆઈ":11437,"▁ખાતેની":11438,"554\t":11439,"▁અભ્યાસમાં":11440,"▁સ્ટાન્ડર્ડ":11441,"▁મીડિયામાં":11442,"▁વાનગીઓ":11443,"▁ઓવરમાં":11444,"અન":11445,"વ્યુ":11446,"▁ચૈ":11447,"લ્લુ":11448,"▁મેલ":11449,"▁દાળ":11450,"433\t":11451,"▁શેરબ":11452,"▁સંઘના":11453,"▁એક્સપ્રેસ":11454,"દૂર":11455,"▁મચાવી":11456,"▁જમ્મુકાશ્મી":11457,"▁ઓકટો":11458,"▁આક્રોશ":11459,"૮,":11460,"▁તળે":11461,"▁તત્ત્વ":11462,"▁જ,":11463,"ર્કી":11464,"▁એશિયન":11465,"▁ઉજા":11466,"▁આપણો":11467,"ાલો":11468,"ટાઇઝ":11469,"ન્ટને":11470,"2016":11471,"▁ગ્રુ":11472,"550\t":11473,"551\t":11474,"રેકટર":11475,"▁પાર્થ":11476,"▁અમદાવાદ,":11477,"▁મથકના":11478,"▁લાઈનમાં":11479,"▁રિપોર્ટમાં":11480,"▁આલ્બ":11481,"દક":11482,"હ્ન":11483,"ંગલો":11484,"રેખા":11485,"▁કાલા":11486,"▁આગવી":11487,"▁બન્યા.\n":11488,"▁ખુલી":11489,"▁ડીલ":11490,"▁અપાવી":11491,"દિપ":11492,"432\t":11493,"435\t":11494,"▁ઝાપ":11495,"▁સંકળાયેલી":11496,"▁સંદેશા":11497,"▁સિંગા":11498,"▁દરમાં":11499,"▁શરા":11500,"યામાં":11501,"ાવું":11502,"▁ખ્રિસ્તી":11503,"▁કોલોની":11504,"▁લેવલ":11505,"▁પડવા":11506,"▁ખાઇ":11507,"શામાં":11508,"556\t":11509,"▁મામલામાં":11510,"▁આસામ":11511,"▁અકબર":11512,"▁આદિત્ય":11513,"▁ફ્રેન્ચ":11514,"▁પાલિકાના":11515,"▁નિરીક્ષણ":11516,"▁ઉલ્લંઘ":11517,"બરમાં":11518,"▁પબ્":11519,"▁વરા":11520,"લાંગ":11521,"▁બાલા":11522,"સાનો":11523,"દાના":11524,"▁જીતુ":11525,"▁લીંબુ":11526,"▁એમડી":11527,"▁લાગશે":11528,"555\t":11529,"559\t":11530,"557\t":11531,"558\t":11532,"▁વડાપ્રધાને":11533,"▁રંગના":11534,"▁મેળવનાર":11535,"▁આદત":11536,"▁અસ્તિત્વમાં":11537,"▁પરિષદ":11538,"▁પ્રકરણમાં":11539,"ઘરમાં":11540,"પટ્ટી":11541,"▁સર્ટિ":11542,"▁એમ્બે":11543,"રીઝ":11544,"▁પરસ્પર":11545,"▁સંકો":11546,"▁ઇકોનો":11547,"એસપી":11548,"▁જયેશ":11549,"▁જાહેરાતો":11550,"▁નાખવા":11551,"▁ચુડાસમા":11552,"ગટ":11553,"ટ્રા":11554,"દયા":11555,"ળાવ":11556,"માઇ":11557,"▁માવ":11558,"▁સંમત":11559,"▁મીની":11560,"▁ગાંધીના":11561,"ટ્સમાં":11562,"▁ઉઠાવ્યો":11563,"▁ફંડ્સ":11564,"▁જગદીશ":11565,"▁વ્યાજદરમાં":11566,"▁કાપડ":11567,"▁મોકલે":11568,"▁અનુકૂળ":11569,"▁સરોવર":11570,"▁મેન્યુફે":11571,"્સે":11572,"▁તળાજા":11573,"▁પ્રવિ":11574,"િક્ર":11575,"હીન":11576,"▁સંધિ":11577,"▁ડયુ":11578,"▁પોઝી":11579,"▁બાગ":11580,"▁ઓર્ગે":11581,"▁રહેલાં":11582,"હાથ":11583,"નિશ":11584,"▁ફર્યા":11585,"▁દિવાલ":11586,"431\t":11587,"439\t":11588,"▁તબિયત":11589,"▁શરતો":11590,"▁નાખ્યો":11591,"▁પકડવા":11592,"▁ટ્રાન્સપોર્ટ":11593,"▁આજુબાજુના":11594,"▁કોન્ફરન્સ":11595,"▁સદા":11596,"▁વાપરી":11597,"▁દેશે.\n":11598,"ચેન્":11599,"ડેટ":11600,"▁સૌર":11601,"બોટ":11602,"553\t":11603,"▁દેખાતી":11604,"▁એફઆઇ":11605,"▁ચૌહાણ":11606,"▁બ્લોગ":11607,"અર્":11608,"સકાંઠા":11609,"▁ષ":11610,"▁પારે":11611,"▁તૈના":11612,"▁પ્રહાર":11613,"▁જોવાની":11614,"યુર":11615,"▁રહો.\n":11616,"▁ઈમે":11617,"▁અભિવ્ય":11618,"▁જીવનને":11619,"▁હિસાબ":11620,"▁બીજાને":11621,"▁માતાના":11622,"ગઢમાં":11623,"▁લક્ષ્મ":11624,"▁પામ્યું":11625,"એનજી":11626,"▁એફડી":11627,"▁અદાલતમાં":11628,"▁કેજરીવાલ":11629,"▁સીસીટીવી":11630,"નોટબંધી":11631,"▁હોદ્દેદારો":11632,"ઉપર":11633,"નોંધ":11634,"▁કેરી":11635,"▁ધ્રુ":11636,"▁વાઇસ":11637,"▁પોષણ":11638,"ડાથી":11639,"▁એન્ટિ":11640,"▁ફાઇનાન્શિયલ":11641,"▁ડ્રાઇવર":11642,"▁હૈદરાબાદ":11643,"ખર્ચ":11644,"ટૂંક":11645,"રનું":11646,"વાતી":11647,"▁અલ્પ":11648,"▁વગ":11649,"▁કેવળ":11650,"ાવતી":11651,"▁ખતરનાક":11652,"હોન":11653,"▁સીડી":11654,"▁ચોંકાવ":11655,"૧૦ના":11656,"કુંડ":11657,"▁પ્રભુત્વ":11658,"▁ખુલ્લો":11659,"▁મુકાબલો":11660,"સપ્ટે":11661,"▁દાવ":11662,"▁હોતા":11663,"▁લાકડી":11664,"સાઇઝ":11665,"▁યુવાને":11666,"▁લાગતી":11667,"▁યાત્રી":11668,"▁વિસ્તારમાંથી":11669,"▁સામ્ય":11670,"▁મરચાં":11671,"▁યુનિવર્સિટીમાં":11672,"▁ગ્રેજ્યુ":11673,"▁પ્રયોગો":11674,"ઓન":11675,"ષ્યો":11676,"્ણા":11677,"▁રનમાં":11678,"▁નગરમાં":11679,"▁પ્રભા":11680,"કેલ":11681,"▁એકપણ":11682,"જામાં":11683,"▁ચોપરા":11684,"કસલ":11685,"▁પાછળનું":11686,"438\t":11687,"▁દિલ્હી,":11688,"▁દિલ્હીની":11689,"મુંબઈમાં":11690,"બનાવની":11691,"▁રાઉન્ડમાં":11692,"▁એજ્યુકેશન":11693,"▁પ્રતિષ્ઠિત":11694,"સરમાં":11695,"▁બિયાર":11696,"ર્લેન્ડ":11697,"▁ગયુ":11698,"▁આવૃત્તિ":11699,"તેજ":11700,"▁હોલ,":11701,"સી.":11702,"▁2012":11703,"▁1996":11704,"▁રૂપાંતર":11705,"▁ઝારખંડ":11706,"લિઝ":11707,"▁શિવા":11708,"▁સુરતના":11709,"▁ડાબેરી":11710,"▁દરિયામાં":11711,"▁પાટણ":11712,"▁સંતુલ":11713,"▁મલ્ટિ":11714,"કૃતિક":11715,"▁તંગી":11716,"▁જરી":11717,"▁બ્યુ":11718,"▁જોયો":11719,"ંદો":11720,"શ્નર":11721,"▁2023":11722,"▁હા,":11723,"▁જીવે":11724,"▁આગો":11725,"▁દર્દ":11726,"▁શિખર":11727,"▁બને.\n":11728,"▁ગાંધીની":11729,"▁જરૃરિયા":11730,"▁સાવધાની":11731,"▁હરીફ":11732,"▁કોહલી":11733,"▁પ્રધાને":11734,"ાનમાં":11735,"▁બાથ":11736,"▁મહાવી":11737,"▁જણાવતા":11738,"▁બોમ્બે":11739,"૦૦થી":11740,"▁શકે?\n":11741,"▁ફોર્":11742,"થોડી":11743,"▁તારીખે":11744,"▁પાટનગર":11745,"▁અમલીકરણ":11746,"પોરબંદર":11747,"▁નૈતિક":11748,"54\tઆ":11749,"ંકાર":11750,"જણ":11751,"▁સસ્તી":11752,"▁માસના":11753,"▁ઘ્યાનમાં":11754,"▁કારની":11755,"▁પછીથી":11756,"મિડ":11757,"▁ક્ષણ":11758,"▁આઇ.\n":11759,"ઘુનિક":11760,"▁કપિલ":11761,"▁બેંકની":11762,"▁દેખાતા":11763,"▁જીત્યો":11764,"▁ભૂતકાળ":11765,"▁ઠેરઠેર":11766,"51\tઆ":11767,"આપ":11768,"ઈ,":11769,"ચનો":11770,"૭,":11771,"▁બારો":11772,"▁ઉતરે":11773,"▁વાચ":11774,"▁રાજયના":11775,"▁2020":11776,"જો,":11777,"▁પેરા":11778,"▁પ્રોત્સાહ":11779,"▁ચાલતો":11780,"▁બંનેને":11781,"▁અગાઉની":11782,"▁બોલતા":11783,"437\t":11784,"▁ટુકડા":11785,"▁નિવેદનો":11786,"▁સ્ક્રીન":11787,"ઓલ":11788,"ટલે":11789,"પડી":11790,"બહુ":11791,"▁પદ્":11792,"▁પાયો":11793,"પી.":11794,"ેલાં":11795,"▁હેક્ટર":11796,"▁સીઝન":11797,"▁પ્રકારનાં":11798,"▁વ્યાપારી":11799,"▁એનાથી":11800,"▁દર્દીને":11801,"▁ફૂલો":11802,"▁કોમર્શિયલ":11803,"▁લોકસભાની":11804,"▁નમૂના":11805,"ખલ":11806,"મનું":11807,"▁કુર":11808,"▁મલ્ટી":11809,"▁કે..\n":11810,"લીશ":11811,"▁ધક્કા":11812,"▁લાવવાની":11813,"બાબા":11814,"▁વર્ષા":11815,"▁કાદ":11816,"▁1960":11817,"ન્દ્રી":11818,"▁માનવતા":11819,"▁પ્રેસિડન્ટ":11820,"પુરની":11821,"▁ઇન્કમ":11822,"બિહાર":11823,"▁થશે,":11824,"▁ફેલાઇ":11825,"▁ચમક":11826,"▁વાસ્તવમાં":11827,"▁ભલામ":11828,"પહેલાં":11829,"▁છૂટાછે":11830,"▁સેન્સેક્સ":11831,"૩૪":11832,"નામી":11833,"▁અમા":11834,"▁આર્ક":11835,"▁ખતરો":11836,"ડીઝ":11837,"▁સેમ":11838,"▁યુધ્ધ":11839,"▁1124":11840,"▁રાખવો":11841,"ારાની":11842,"▁શાસ્ત્ર":11843,"▁અધિકારો":11844,"▁વિશેની":11845,"▁ગ્રાન્ડ":11846,"▁એનડીએ":11847,"▁ચૂક્યો":11848,"▁જાળવણી":11849,"▁શુક્રવાર,":11850,"▁બંગાળ":11851,"▁વિરૂધ્ધ":11852,"▁ફાંસી":11853,"▁ઝઘડો":11854,"▁પહાેંચી":11855,"▁સિનેમા":11856,"▁સ્ટુડિયો":11857,"્યવ":11858,"▁મર્":11859,"▁રાધા":11860,"▁સંમેલ":11861,"સીઆઈ":11862,"▁ગુન્":11863,"▁કાકા":11864,"▁ટેન્ડર":11865,"▁તપાસની":11866,"▁મહિલાએ":11867,"▁આત્મવિશ્વાસ":11868,"▁ટ્વેન્ટી":11869,"▁વિકાસમાં":11870,"▁વિચારે":11871,"▁સમર્પિત":11872,"કથી":11873,"ખૂ":11874,"▁સશ":11875,"▁એમ્બ":11876,"સેન્ટ":11877,"▁ખાસ્":11878,"એસએ":11879,"▁મહેન્દ્ર":11880,"સંગી":11881,"▁મંદિર,":11882,"▁બ્રિજ":11883,"▁વિધાર્થી":11884,"▁પોરબંદરમાં":11885,"▁ફર્સ્ટ":11886,"રન્ટ":11887,"૩૯":11888,"▁પગે":11889,"▁1970":11890,"▁ઈલે":11891,"▁બીલ":11892,"▁બનાવતા":11893,"▁બનાવવાના":11894,"એસ.":11895,"▁ખાતેથી":11896,"▁ગેમ્સ":11897,"▁અહીંથી":11898,"▁લોકડાઉન":11899,"▁તત્કાલીન":11900,"વ્યવસ્થા":11901,"▁પાડોશી":11902,"▁આવતીકાલથી":11903,"ઈ.સ.":11904,"કલે":11905,"▁સપ":11906,"▁જટિલ":11907,"▁મધુ":11908,"▁તેટલું":11909,"તેમાંથી":11910,"▁પ્રજાના":11911,"▁નરસિંહ":11912,"▁નિષ્ફળતા":11913,"▁યુવાનને":11914,"▁આંચકો":11915,"▁ભિન્ન":11916,"▁માછલી":11917,"આમ":11918,"ચૌ":11919,"▁છલકા":11920,"▁તકની":11921,"જીનો":11922,"ેશનની":11923,"▁વધતો":11924,"▁રૃ\n":11925,"▁ગાળાની":11926,"રાજસ્થાન":11927,"▁સ્ટેમ્પ":11928,"▁મારતા":11929,"▁ડોલરનું":11930,"▁કહેવાય.\n":11931,"▁સર્વિસિસ":11932,"▁અંગ્રેજીમાં":11933,"▁દિગ્દર્શ":11934,"▁સત્રમાં":11935,"વ્યવહાર":11936,"▁મનમોહનસિંહ":11937,"▁તજવીજ":11938,"▁જબરદ":11939,"ક્રા":11940,"દગી":11941,"ળ્યો":11942,"માથી":11943,"▁સૈય":11944,"▁દહીં":11945,"▁ઉડ્ડ":11946,"રોગ્ય":11947,"▁લાક્ષણિક":11948,"સાને":11949,"ટોપ":11950,"▁લીગ":11951,"▁લીમ":11952,"▁ટેન્":11953,"▁તાલી":11954,"▁મિશ્રા":11955,"▁બનાવતી":11956,"▁ત્યાંના":11957,"436\t":11958,"▁રંગની":11959,"ઇનીઝ":11960,"▁તાકીદ":11961,"બરા":11962,"સૈન":11963,"▁તંગ":11964,"નીના":11965,"▁આરાધ":11966,"▁ખોડ":11967,"▁વાંધા":11968,"દી,":11969,"▁સરસ્વતી":11970,"પ્પ":11971,"▁દેતાં":11972,"▁બોય":11973,"▁1138":11974,"સરના":11975,"▁પ્રોબ્":11976,"▁નિર્ણયથી":11977,"▁અમેરિકાએ":11978,"▁નિષ્ણાં":11979,"▁થોડાક":11980,"સલમાન":11981,"▁પંચાયતની":11982,"▁છૂટી":11983,"▁ઓસ્ટ્રેલિયન":11984,"ક્રી":11985,"પૃ":11986,"ળામુ":11987,"▁છબી":11988,"▁તટ":11989,"▁હદે":11990,"▁છેઃ":11991,"▁એસિડ":11992,"▁નારણ":11993,"જેમાંથી":11994,"▁મોટર્સ":11995,"▁ઉપસ્થિતિ":11996,"▁સેતુ":11997,"માનવ":11998,"▁ને?\n":11999,"▁શિષ્ય":12000,"▁યોજનામાં":12001,"▁ડોકટ":12002,"▁ગંભીરતાથી":12003,"▁એડવોકેટ":12004,"ળામુખી":12005,"69\tઆ":12006,"ટમેન્ટ":12007,"▁આમિર":12008,"▁રહેતું":12009,"રૂણ":12010,"▁સ્થિતી":12011,"▁સોદામાં":12012,"▁યોગી":12013,"▁જવાય":12014,"▁પ્રોટો":12015,"▁બેન્કોમાં":12016,"▁વિચારધારા":12017,"▁બ્રાન્ચ":12018,"▁ફાર્મ":12019,"▁આઝાદ":12020,"▁ભેદભાવ":12021,"▁યુરોપિયન":12022,"▁ભરોસો":12023,"ઠું":12024,"ધ્રા":12025,"ભવી":12026,"▁જગા":12027,"▁કરાયેલ":12028,"▁નાઇટ":12029,"▁મોઢા":12030,"▁કારખા":12031,"લોએ":12032,"▁ડેંગ":12033,"▁વોશિંગ્":12034,"▁વરસાદથી":12035,"▁ભીમ":12036,"▁પારસી":12037,"▁શાહરૂખ":12038,"▁દરિયાઈ":12039,"▁નાેંધા":12040,"▁યુવાનોને":12041,"▁નિષ્ણાત":12042,"હવામાન":12043,"▁ગૃહિ":12044,"▁કેટેગરીમાં":12045,"▁ટ્રોફી":12046,"▁પછાત":12047,"▁કારોબાર":12048,"રસ્તા":12049,"સતા":12050,"૭૯":12051,"માર્ચ":12052,"▁કમ્":12053,"▁છઠ્ઠા":12054,"▁રઘુ":12055,"સ્તિ":12056,"ટેલા":12057,"▁વિસર્જન":12058,"પાટી":12059,"બામાં":12060,"▁પહેરે":12061,"▁ચેકિંગ":12062,"▁ચીમકી":12063,"▁ખોટો":12064,"કડાં":12065,"▁બેલેન્સ":12066,"▁ઘરઆંગણે":12067,"59\tઆ":12068,"ભક્તિ":12069,"▁લ્યો":12070,"▁પ્રત્યા":12071,"ણીયા":12072,"▁ટાવ":12073,"▁સરખા":12074,"ક્રમમાં":12075,"▁પરિવારે":12076,"▁કારણકે":12077,"▁ચાલકે":12078,"▁ઉદ્યોગમાં":12079,"▁મુશ્કેલીઓ":12080,"વ્યાપી":12081,"▁સહાયક":12082,"ળુઓ":12083,"▁ક્રોસ":12084,"▁સેન્સેક્ષ":12085,"▁ઠેકા":12086,"▁વોલ્યુમ":12087,"પત્ય":12088,"નોનો":12089,"▁ભણે":12090,"▁ખળ":12091,"▁ઉપદેશ":12092,"▁મિડિયા":12093,"▁જાણીએ":12094,"▁હત્યાના":12095,"▁કાળુ":12096,"▁વાયરસના":12097,"ટુંબિક":12098,"▁બ્રિગે":12099,"રમગામ":12100,"▁મેકઅપ":12101,"▁દુખાવો":12102,"▁વ્યૂહરચના":12103,"સમેન્ટ":12104,"▁ા.":12105,"▁વિશાલ":12106,"કેન્દ્રીય":12107,"▁કોર":12108,"▁બાઇ":12109,"▁જાતની":12110,"▁બાળકની":12111,"▁ઘટાડે":12112,"▁પાડવાની":12113,"▁શરીરની":12114,"▁આકસ્મિક":12115,"પીએફ":12116,"▁સર્જાઇ":12117,"▁બંગાળના":12118,"અમેરિકન":12119,"▁કોમોડિટી":12120,"યુનિવર્સિ":12121,"ઈન્":12122,"ગારે":12123,"▁સફાઇ":12124,"▁તારે":12125,"▁મૅ":12126,"▁એમ્":12127,"▁કોર્સ":12128,"▁ડ્યૂ":12129,"▁શકતું":12130,"▁મૂર્":12131,"▁ભૂલો":12132,"▁૪૬":12133,"▁ચિંતાજનક":12134,"▁પ્રધાનમંત્રી":12135,"▁સમાજને":12136,"▁અનુભવો.\n":12137,"▁વાર્તાઓ":12138,"▁ભરેલા":12139,"▁બૅન્":12140,"▁ફોટોગ્રાફ":12141,"▁કોન્ટ્રેક્ટ":12142,"53\tઆ":12143,"ગૌ":12144,"ચલી":12145,"▁ક.":12146,"▁મંત":12147,"▁રાત્રી":12148,"ેશનમાં":12149,"પીની":12150,"▁રૂપિયો":12151,"▁ટેકરી":12152,"▁જિલ્લાઓમાં":12153,"▁વિદ્યુત":12154,"▁કારણસર":12155,"▁અરસામાં":12156,"▁ફ્લાઇટ":12157,"▁નાખવાની":12158,"▁હુમલાની":12159,"▁જીતીને":12160,"▁વિરૃધ્ધ":12161,"અલબત્ત,":12162,"▁દરજ્જો":12163,"ઘી":12164,"ટનું":12165,"તુર":12166,"બધ":12167,"▁ૂ":12168,"▁પત્રો":12169,"વાડીયા":12170,"▁લક્":12171,"▁પાલી":12172,"તિને":12173,"ટાની":12174,"▁ભાંગી":12175,"▁સેનાના":12176,"નિટી":12177,"▁પરિબળ":12178,"▁મૂંઝ":12179,"ણોના":12180,"▁ફેંકા":12181,"છે.\n":12182,"▁૯૯":12183,"▁દર્દીઓની":12184,"▁યોજાનાર":12185,"▁દારૂની":12186,"▁પ્રવૃત્તિઓ":12187,"▁વિવેક":12188,"▁તૃણ":12189,"▁પેસેન્જર":12190,"▁પ્રેક્ટિસ":12191,"▁આસાનીથી":12192,"જ્યો":12193,"▁કેસના":12194,"▁કેબલ":12195,"▁લાલુ":12196,"▁જાતના":12197,"▁મહંત":12198,"▁પૂજન":12199,"▁સરકારનું":12200,"▁ઉત્તરા":12201,"▁જીત્યા":12202,"▁જાળવવા":12203,"▁ખસેડાયા":12204,"▁સંડોવાયેલા":12205,"▁ઇન્ડેક્સ":12206,"▁પદાધિકારી":12207,"ઘણાં":12208,"જનમાં":12209,"▁પારો":12210,"વીન":12211,"વિધાન":12212,"ષ્કાર":12213,"્યાંકન":12214,"▁કહ્યું.\n":12215,"▁આગલા":12216,"▁વરસી":12217,"▁ગણપતિ":12218,"▁પાર્કિંગ":12219,"▁2004":12220,"85\tઆ":12221,"ટુંબી":12222,"▁વધારવામાં":12223,"▁અંગ્રેજ":12224,"▁લાઇસન્સ":12225,"▁રેશિયો":12226,"▁કરૂ":12227,"▁જેત":12228,"▁નિખ":12229,"▁લેવ":12230,"પીસી":12231,"નિષ":12232,"▁ચોરીના":12233,"▁૫૬":12234,"▁અંશ":12235,"▁ચાલતું":12236,"▁બોર્ડર":12237,"▁ચમત્કાર":12238,"▁બદલાવ":12239,"▁સરખામણી":12240,"▁કક્ષાની":12241,"▁દલીલો":12242,"▁નીચામાં":12243,"▁ઢોર":12244,"▁અઠવાડિયે":12245,"▁તૈનાત":12246,"એવું":12247,"▁બધુ":12248,"▁એસ્":12249,"▁ગાયો":12250,"▁આવવાનું":12251,"▁કોપર":12252,"▁વાપ":12253,"▁મોસમ":12254,"દાખ":12255,"▁રીતે,":12256,"▁કિનારા":12257,"▁પ્રાપ્તિ":12258,"▁ગાળાના":12259,"▁વ્યાસ":12260,"▁બાકીની":12261,"▁પૈકીના":12262,"▁સ્મરણ":12263,"ફૂ":12264,"ભાન":12265,"વશે.\n":12266,"▁તકો":12267,"▁છેડે":12268,"યામ":12269,"▁ઉડી":12270,"▁પરસે":12271,"▁નિઃ":12272,"▁નીચો":12273,"▁મિલા":12274,"▁માનવા":12275,"▁સ્ટેજ":12276,"ખોરો":12277,"▁અપાયો":12278,"▁ફેલાયો":12279,"▁વડોદરામાં":12280,"▁આેફ":12281,"મોટાભાગના":12282,"▁કેસોમાં":12283,"▁દરવાજો":12284,"પ્લેક્સ":12285,"▁વિકલ્પો":12286,"62\tઆ":12287,"61\tઆ":12288,"▁કતાર":12289,"▁હરો":12290,"▁બહિ":12291,"▁વિવાહ":12292,"લેણ":12293,"ાંધ":12294,"ટોની":12295,"શાક":12296,"▁ફરતી":12297,"▁ઠો":12298,"▁બહારની":12299,"▁બજારની":12300,"▁લખવામાં":12301,"▁કાયદાની":12302,"▁ઓગસ્ટે":12303,"પ્રેમ":12304,"▁સમારોહમાં":12305,"એમના":12306,"લક્ષ":12307,"૫૫":12308,"▁કલ્પ":12309,"▁અશ્વ":12310,"▁મુકીને":12311,"▁તાજા":12312,"પણ,":12313,"ણોની":12314,"▁ફાઈલ":12315,"વર્ધન":12316,"▁ગ્રહો":12317,"▁ચાલ્યો":12318,"▁ટોળકી":12319,"▁રજૂઆતો":12320,"▁યોજાશે":12321,"▁બજાવી":12322,"જાણવા":12323,"▁પશુપાલ":12324,"▁સ્મિત":12325,"ઝોન":12326,"▁પીએસઆઇ":12327,"એન્ડ":12328,"શંક":12329,"સંપ":12330,"▁વફા":12331,"ંતરે":12332,"રિત્ર":12333,"▁અધિકારીને":12334,"▁જમીનની":12335,"▁લોકડાઉ":12336,"▁માણવા":12337,"છેવટે":12338,"▁વગરના":12339,"▁છાતી":12340,"▁ગુલામ":12341,"▁કાયદેસરની":12342,"સોમવારે":12343,"ટલમાં":12344,"ફ્યુ":12345,"બરૂ":12346,"બિર":12347,"નાન":12348,"ારૃ":12349,"▁એડ્":12350,"▁પ્રદુ":12351,"▁પણ,":12352,"મેક":12353,"▁પાંખ":12354,"▁વાણિ":12355,"▁બેરોજ":12356,"▁વેતન":12357,"▁1997":12358,"દેશી":12359,"▁શકશો.\n":12360,"શીટ":12361,"▁કુમા":12362,"▁રોજિ":12363,"▁બેન્ચ":12364,"▁વોચ":12365,"▁વૃત્તિ":12366,"▁કરાવ્યા":12367,"▁તંત્રએ":12368,"▁મથકમાં":12369,"માર્ગે":12370,"▁મોંઘા":12371,"▁દંપતી":12372,"▁ચિકિ":12373,"63\tઆ":12374,"ઉના":12375,"ગિત":12376,"વાવ":12377,"▁રસ્તે":12378,"▁દલા":12379,"▁ખરો":12380,"ંગની":12381,"▁રહેણાં":12382,"્રાે":12383,"▁બોજ":12384,"▁શક્યું":12385,"▁વ્યક્તિઓને":12386,"▁દોષિત":12387,"▁પ્રશ્નમાં":12388,"▁અર્થા":12389,"▁પૈસાની":12390,"▁મહારાજા":12391,"▁2014માં":12392,"ંતોષ":12393,"▁સ્ટુડન્ટ":12394,"સાવ":12395,"૭ના":12396,"૮૬":12397,"▁દઇ":12398,"▁લુક":12399,"▁ઉચા":12400,"▁365":12401,"મીને":12402,"▁વેટ":12403,"▁કાર્યકર્તા":12404,"ર્મલ":12405,"▁સ્પિન":12406,"▁ટ્રેનમાં":12407,"▁યુરોપના":12408,"▁ભાગીદાર":12409,"▁મીઠાઈ":12410,"▁સંકલન":12411,"▁સ્ત્રોત":12412,"સથી":12413,"▁હજ":12414,"▁વાવ":12415,"▁જોવી":12416,"િયન્સ":12417,"ળાને":12418,"મ્બા":12419,"▁દોસ્ત":12420,"▁વૃધ્ધ":12421,"▁મહેમાનો":12422,"▁નિર્મા":12423,"▁જાણીને":12424,"▁મુંબઈની":12425,"▁સમસ્યાનો":12426,"▁બતાવવામાં":12427,"▁કચેરીના":12428,"▁સ્વરૂપમાં":12429,"▁છોકરીઓ":12430,"ૂહિક":12431,"▁વાસ્તવિકતા":12432,"▁પરિષદમાં":12433,"▁જલારામ":12434,"▁મસાલા":12435,"▁રોગચાળો":12436,"▁પરમાત્મા":12437,"▁ગઠબંધ":12438,"પૌ":12439,"શ્યામ":12440,"વાયુ":12441,"▁આહ":12442,"▁મુબાર":12443,"▁375":12444,"▁સાથે,":12445,"▁મેલે":12446,"▁કાેંગ્રે":12447,"▁વેડ":12448,"▁ફિલ્મી":12449,"સુફ":12450,"▁થવાને":12451,"▁પ્રત્યક્ષ":12452,"▁આંખમાં":12453,"▁કોલેજોમાં":12454,"▁હડતાળ":12455,"કલ્પિક":12456,"▁હાઈકોર્ટમાં":12457,"▁ચળવળ":12458,"▁ડાયાબિ":12459,"▁શ્વે":12460,"ઈ.":12461,"વચ્ચે":12462,"▁?":12463,"▁કિલ્લો":12464,"▁હંગ":12465,"▁ચુંબ":12466,"ંગ,":12467,"સ્ટન્ટ":12468,"મોહ":12469,"િંગનો":12470,"▁1988":12471,"▁૪૭":12472,"▁ડીજી":12473,"▁વહેતી":12474,"▁પંક્તિ":12475,"▁ગૌતમ":12476,"પ્રાથમિક":12477,"▁એફઆઈ":12478,"▁સમુદ":12479,"▁રોકાણકારોએ":12480,"▁સંદેશો":12481,"▁સમૃદ્ધિ":12482,"કુર":12483,"િઝ":12484,"▁શાં":12485,"▁પ્રસ્તુત":12486,"કાઇ":12487,"મેલન":12488,"▁કોઠ":12489,"▁ઝવે":12490,"▁સીમમાં":12491,"ગ્રસ્તો":12492,"▁મેળવતા":12493,"▁પ્રેસિડે":12494,"▁ધરમ":12495,"▁પાડતા":12496,"▁કપડા":12497,"▁આઈ.\n":12498,"ભર્યું":12499,"ક્ટોબર":12500,"▁બ્રિટન":12501,"▁ઐશ્વર્યા":12502,"▁એજન્સીઓ":12503,"73\tઆ":12504,"એર":12505,"ફાં":12506,"ર૦":12507,"૧૦૦૦":12508,"▁આનો":12509,"▁આજી":12510,"▁બળવા":12511,"ામ્":12512,"▁775":12513,"▁નિગ":12514,"▁પેટમાં":12515,"▁હિલેરી":12516,"▁૩,":12517,"▁સ્ટેશને":12518,"▁આકરા":12519,"▁ડોલરનો":12520,"▁ત્રાટક":12521,"માર્કેટ":12522,"▁ચોકલેટ":12523,"જવાબ":12524,"▁વાજબી":12525,"52\tઆ":12526,"ઝનના":12527,"▁કમર":12528,"▁રજની":12529,"▁રદ્દ":12530,"▁વિરામ":12531,"▁સાઈટ":12532,"▁કો.\n":12533,"▁કારના":12534,"▁785":12535,"પોલ":12536,"▁સ્થગિત":12537,"▁સોગ":12538,"બેટ":12539,"▁કર્યો,":12540,"▁પ્રતિબિ":12541,"86\tઆ":12542,"સંગ્ર":12543,"▁ગ્રાહકોની":12544,"▁સ્ટોપ":12545,"▁પૂછવામાં":12546,"▁હોઈએ":12547,"▁ગૃહમંત્રી":12548,"▁શીખવા":12549,"▁ચૌદ":12550,"▁સંબોધન":12551,"ફોર્નિયા":12552,"ઓફ":12553,"વનારા":12554,"▁દમણ":12555,"▁એસી":12556,"▁ચૅ":12557,"▁કરીના":12558,"િયાનો":12559,"▁475":12560,"▁ઇન્દ્ર":12561,"વોર્ડ":12562,"ળીઓ":12563,"▁સરકારો":12564,"શાસન":12565,"▁ઊઠી":12566,"▁રાજ્યસભામાં":12567,"702\t":12568,"▁પાકને":12569,"▁આપે.\n":12570,"▁આંશિક":12571,"દાયી":12572,"▁બોલીવૂડ":12573,"▁લોકપ્રિયતા":12574,"▁ક્રાઇમ":12575,"▁ટ્રાન્ઝેક્શન":12576,"ડાય":12577,"▁ઘરા":12578,"▁765":12579,"યુવતી":12580,"▁રહ્યુ":12581,"સ્ટિવ":12582,"▁ખાતાં":12583,"ારોપણ":12584,"▁ગોધરા":12585,"▁ગાંધીજી":12586,"▁ડોકટર":12587,"▁સત્તાધીશો":12588,"▁૮થી":12589,"▁યોજાનારી":12590,"▁સંચાલક":12591,"સ્ટ્રિ":12592,"▁ન્યૂઝીલેન્ડ":12593,"▁અરેબ":12594,"▁વાંસદા":12595,"ળકા":12596,"શિકા":12597,"▁અત્રે":12598,"▁સાપ":12599,"▁ઉધો":12600,"▁સ્તુ":12601,"▁જેમના":12602,"▁નાથ":12603,"▁685":12604,"શનિ":12605,"▁સેને":12606,"રિઝર્વ":12607,"ધોરણ":12608,"▁નવાં":12609,"▁અંજાર":12610,"▁અહીંના":12611,"▁અનુભવો":12612,"▁પુત્રને":12613,"▁બોલાવવામાં":12614,"▁સૌરાષ્ટ્રમાં":12615,"▁બંધારણીય":12616,"ટ્રિક":12617,"▁પરેશાની":12618,"મેટિક":12619,"▁ફેડરેશન":12620,"▁સૃષ્ટિ":12621,"લાબેન":12622,"▁પ્રકા":12623,"▁લોકાર્":12624,"▁ગુપ્":12625,"▁રાખશે.\n":12626,"લગ્":12627,"▁રોજગાર":12628,"▁ઇન્સ્પે":12629,"▁પ્રજાની":12630,"અમરેલી":12631,"▁આત્માને":12632,"▁નેગેટિવ":12633,"▁બ્લાસ્ટ":12634,"▁ગ્રોથ":12635,"▁પડોશી":12636,"જલી":12637,"▁દશા":12638,"▁ધપ":12639,"▁નાનાં":12640,"▁નાસ્તા":12641,"▁બાઉ":12642,"શ્ચા":12643,"▁સુધીનું":12644,"▁દેશનું":12645,"▁યોર્ક":12646,"▁હિંદી":12647,"705\t":12648,"▁સહિતનો":12649,"ભાઇને":12650,"▁રૂ.4":12651,"▁સુધર":12652,"સાયણિક":12653,"વાસીઓ":12654,"લેન્ડર":12655,"▁લખેલા":12656,"લ્સ,":12657,"▁તંત્રની":12658,"▁રાજ્યોના":12659,"જીવનમાં":12660,"▁ટિપ્સ":12661,"વળી,":12662,"▁કોમેડી":12663,"દાલ":12664,"૧.\n":12665,"૪૪":12666,"▁2,":12667,"▁લડવા":12668,"▁થનારી":12669,"▁ઉદ્ધ":12670,"જેનું":12671,"ટા,":12672,"▁રાજનાથ":12673,"▁દેશે":12674,"▁પેલી":12675,"▁ભાગો":12676,"781\t":12677,"▁સ્ટેટ્સ":12678,"▁લેવાશે.\n":12679,"640\t":12680,"▁માતાને":12681,"મરજન્સી":12682,"▁પિતાની":12683,"▁કરવી.\n":12684,"▁સ્ત્રીને":12685,"▁શાહ,":12686,"▁શ્રદ્ધાં":12687,"▁આવશે,":12688,"▁કાયદામાં":12689,"▁દ્વી":12690,"▁રણછોડ":12691,"▁લખીને":12692,"▁પોરબંદરના":12693,"▁બોલિવૂડ":12694,"▁નિવારણ":12695,"71\tઆ":12696,"▁િ":12697,"નેશનલ":12698,"▁રને":12699,"▁નંદ":12700,"નોર":12701,"▁385":12702,"▁565":12703,"ળાનો":12704,"પ્પી":12705,"પ્રજા":12706,"▁પહેલું":12707,"▁ક્લાસ":12708,"▁રાજ્યસભા":12709,"▁બદલો":12710,"ફોડી":12711,"782\t":12712,"786\t":12713,"ભાઇના":12714,"કુમારે":12715,"▁સ્ટાર્":12716,"▁યોજનાના":12717,"▁માધ્યમો":12718,"▁હકીકતમાં":12719,"▁ટાઈમ":12720,"▁રૂપાણીએ":12721,"▁કંટાળી":12722,"▁ઉલ્લંઘન":12723,"72\tઆ":12724,"શિય":12725,"▁વગા":12726,"ક્સે":12727,"▁સાણંદ":12728,"ાવવાનું":12729,"▁કોપી":12730,"▁585":12731,"▁465":12732,"▁ભાષણ":12733,"▁રાજવી":12734,"▁ઈશ્વ":12735,"ષ્ટિકો":12736,"ન્દર":12737,"▁પીછે":12738,"701\t":12739,"707\t":12740,"▁ખૂલ":12741,"બ્રન્ટ":12742,"▁સામૂહિક":12743,"▁માલિકો":12744,"▁તૈયારીમાં":12745,"▁જુદાજુદા":12746,"▁જણાયું":12747,"▁પ્રતિકૂળ":12748,"▁નફામાં":12749,"▁જહાજ":12750,"▁શૂન્ય":12751,"▁અદ્ભુત":12752,"તાલુકાના":12753,"લીમોરા":12754,"કસ્મા":12755,"▁કવો":12756,"નાવ":12757,"નીજ":12758,"▁675":12759,"ળા,":12760,"785\t":12761,"703\t":12762,"કડું":12763,"▁રોકાણની":12764,"▁ઉજ્":12765,"▁પિતાને":12766,"▁પંખી":12767,"▁સ્ટોર":12768,"▁જણાઈ":12769,"▁કાળાં":12770,"▁પર્વત":12771,"▁મિનિટમાં":12772,"▁શર્માએ":12773,"▁દરોડો":12774,"▁૨૦૦૯માં":12775,"▁ડૂબી":12776,"▁સિંહા":12777,"ઈન્ડ":12778,"ટકે":12779,"ભ્યા":12780,"▁છાવ":12781,"નીને":12782,"▁આસાન":12783,"▁સાધી":12784,"▁પરણ":12785,"▁આપું":12786,"▁બાજી":12787,"▁485":12788,"▁875":12789,"▁ઊતર":12790,"▁પીચ":12791,"▁ઉપરની":12792,"▁જુદાં":12793,"780\t":12794,"▁પાંચમા":12795,"▁પ્લ":12796,"▁ઉભું":12797,"▁અહમદ":12798,"વાસ્તવમાં":12799,"નરી":12800,"૬૬":12801,"▁નરેશ":12802,"▁દાવે":12803,"▁એમાંથી":12804,"▁ગઝલ":12805,"▁શ્યામ":12806,"ટેલે":12807,"▁સામુ":12808,"▁865":12809,"▁ખાત":12810,"બીજ":12811,"▁તેઓના":12812,"▁સ્વરાજ":12813,"789\t":12814,"788\t":12815,"▁ચીજ":12816,"▁શેરોની":12817,"▁વ્યાવ":12818,"▁મતદાર":12819,"▁ચૂકવી":12820,"▁નં.":12821,"▁ઘરેથી":12822,"▁પતિપત્ની":12823,"▁ભ્રષ્ટ":12824,"▁વિધાનસભામાં":12825,"▁સ્મશાન":12826,"▁તિજો":12827,"▁રહ્યાાે":12828,"▁સિલ્વર":12829,"800":12830,"ઓપરે":12831,"ઝાર":12832,"યને":12833,"▁માઘ્ય":12834,"▁કેસર":12835,"▁કરીશ.\n":12836,"▁એકલી":12837,"▁સંલગ્ન":12838,"▁બેંગ્લો":12839,"▁575":12840,"▁885":12841,"દીની":12842,"▁રાજનીતિ":12843,"▁ખાવાથી":12844,"સિદ્ધ":12845,"▁લીડ":12846,"▁ટેકની":12847,"▁સામેથી":12848,"▁પ્રાકૃતિક":12849,"783\t":12850,"▁સ્ટ્રાઇ":12851,"▁ક્રિકેટમાં":12852,"▁અરજીઓ":12853,"▁વિવાદમાં":12854,"▁0.":12855,"▁કોમર્સ":12856,"પક્ષના":12857,"વિદેશી":12858,"▁વહિવ":12859,"ગ્રેડ":12860,"ટકો":12861,"રાણિક":12862,"▁ઉઘા":12863,"▁ધારે":12864,"▁3.":12865,"▁665":12866,"▁965":12867,"હાત્મક":12868,"▁શકિત":12869,"▁વાતમાં":12870,"▁ડેન્ગ":12871,"▁ડિમાન્ડ":12872,"રૃપે":12873,"▁શિસ્ત":12874,"▁નોંધણી":12875,"787\t":12876,"706\t":12877,"704\t":12878,"708\t":12879,"▁પક્ષને":12880,"સંબંધી":12881,"ક્ષેપ":12882,"માણિક":12883,"▁સોસાયટીના":12884,"▁ફુગાવો":12885,"એનએ":12886,"ભૂતિ":12887,"પહેલા":12888,"▁રૂપાણી":12889,"▁આકાશમાં":12890,"કર્મચારી":12891,"▁વ્હાઇટ":12892,"▁વાવાઝો":12893,"▁મુરલી":12894,"માયા":12895,"▁પચાસ":12896,"▁સૈનિક":12897,"▁બાપ":12898,"▁ભાદર":12899,"▁કોઈક":12900,"▁પેસ્ટ":12901,"બેને":12902,"ડોર":12903,"▁મહિમા":12904,"700\t":12905,"▁કેન્દ્રો":12906,"645\t":12907,"649\t":12908,"648\t":12909,"વન્યુ":12910,"▁ખેડૂતોની":12911,"▁કૌશલ":12912,"▁વિશ્વા":12913,"▁યુવતીને":12914,"▁ડાયમંડ":12915,"▁કાશ્મીરના":12916,"ખંડમાં":12917,"▁કુંભ":12918,"▁જૂથના":12919,"▁વરસ્યો":12920,"▁રાજેન્દ્ર":12921,"▁ઝૂંપ":12922,"▁વિદ્યાર્થિની":12923,"▁ખળભ":12924,"▁કટ્ટર":12925,"▁અયોગ્ય":12926,"▁ર૪":12927,"▁ભરાય":12928,"▁સુપ્રી":12929,"▁645":12930,"▁મિની":12931,"ફોર્સ":12932,"એસટી":12933,"▁૧૯૦":12934,"646\t":12935,"▁કરાવ્યો":12936,"▁જાણીતો":12937,"▁સમજવા":12938,"▁મુલાકાતમાં":12939,"▁વિકસી":12940,"▁અંદરથી":12941,"▁લાલચ":12942,"▁ગુરૂવારે":12943,"▁ઈચ્છે":12944,"▁મોટાં":12945,"▁સમજૂતી":12946,"ંશે":12947,"બર્ગ":12948,"ય,":12949,"▁કડી":12950,"▁વહા":12951,"▁નર્સ":12952,"▁મારુ":12953,"▁શત્રુ":12954,"▁લડાઇ":12955,"▁લિટર":12956,"▁ભવન":12957,"લીનો":12958,"▁ડબ":12959,"▁મોસ":12960,"▁2018":12961,"ારાના":12962,"ક્સ,":12963,"▁જીવલેણ":12964,"▁તરફ,":12965,"▁હિમાલ":12966,"▁વૈવિધ":12967,"641\t":12968,"647\t":12969,"▁વળવા":12970,"▁શ્રધ્ધા":12971,"▁ઔપચારિક":12972,"▁યુરોપમાં":12973,"▁ટુકડી":12974,"યાનક":12975,"▁સાનુકૂળતા":12976,"▁રેકર્ડ":12977,"ફને":12978,"▁છે?":12979,"▁રાસ":12980,"▁સમ્રા":12981,"▁975":12982,"સીબે":12983,"▁કંપનીનું":12984,"▁દિમા":12985,"709\t":12986,"▁પ્રેમની":12987,"કારોની":12988,"▁બેન્કની":12989,"▁રૂ.5":12990,"▁મૃતક":12991,"▁શું?\n":12992,"▁રૂપિયામાં":12993,"▁ખાનની":12994,"▁જગ્યામાં":12995,"▁શીત":12996,"▁શાહના":12997,"▁મ્યુ.\n":12998,"▁એલસીબી":12999,"▁વેપારીઓને":13000,"▁કબૂલ":13001,"ગ્રાહ":13002,"▁મુસાફરોને":13003,"ધિકાર":13004,"▁એકત્રિત":13005,"ગણતરી":13006,"▁આપોઆપ":13007,"▁કન્ટ્રોલ":13008,"74\tઆ":13009,"ઉત્":13010,"ગમત":13011,"ટી.":13012,"જીયાત":13013,"ટરની":13014,"▁ફોરે":13015,"784\t":13016,"▁ડીઝલ":13017,"▁રૂપિયાનું":13018,"▁રમતમાં":13019,"▁નોટિ":13020,",000ની":13021,"▁વૃદ્ધિદર":13022,"▁કાળું":13023,"▁ગાયબ":13024,"▁પ્રસિધ્ધ":13025,"▁ભેળસે":13026,"ત્તીસ":13027,"▁હસ્તાક્ષર":13028,"▁વહુ":13029,"નોનું":13030,"▁લારી":13031,"▁985":13032,"ણાને":13033,"▁દેવાઈ":13034,"▁જુથ":13035,"▁પડેલ":13036,"સંસદ":13037,"642\t":13038,"ત્રાદિક":13039,"▁માતાની":13040,"ચોમા":13041,"સૂચિત":13042,"▁જોઈએ.":13043,"▁સંપન્ન":13044,"▁અખિ":13045,"▁હોદ્દો":13046,"▁રાજકારણીઓ":13047,"▁સમારંભમાં":13048,"▁કર્ણાટ":13049,"▁ફફડાટ":13050,"▁પ્રવિણ":13051,"ંમદ":13052,"ગડ":13053,"૩૨":13054,"▁બલ્":13055,"▁નંગ":13056,"▁નિયા":13057,"▁એલાન":13058,"▁વિખ્યાત":13059,"ળાઈ":13060,"▁જીડીપી":13061,"ગાહ":13062,"▁દુર્ગ":13063,"▁યાત્ર":13064,"▁છોટા":13065,"▁ભરવાડ":13066,"▁ટ્રમ્પે":13067,"▁પ્રત્યેની":13068,"▁પ્રવાસે":13069,"▁સત્તાવાળાઓ":13070,"▁રેસ્ટોરાં":13071,"▁સેગમેન્ટમાં":13072,"▁સ્ટેડિયમમાં":13073,"84\tઆ":13074,"920\t":13075,"હળ":13076,"▁કેટર":13077,"યાયી":13078,"ટેલિ":13079,"▁ડ્રેસ":13080,"▁1968":13081,"▁1995":13082,"▁ઈજને":13083,"▁પહેરી":13084,"▁કહ્યા":13085,"▁પહોંચવા":13086,"▁ઝડપાયા":13087,"75\tઆ":13088,"શ્રમ":13089,"રાષ્ટ્રપતિ":13090,"▁મગજમાં":13091,"▁મેનેજિંગ":13092,"▁એક્સચેન્જ":13093,"▁નવેમ્બરના":13094,"▁પાલનપુર":13095,"▁ઉતાવળ":13096,"▁ગુનેગાર":13097,"▁લોકાર્પણ":13098,"316\t":13099,"915\t":13100,"બુક":13101,"િલિટી":13102,"રીટ":13103,"સેવા":13104,"▁ઉપચાર":13105,"બાલા":13106,"▁1950":13107,"સોની":13108,"▁બેન્કિંગ":13109,"▁ડાયરેક્ટ":13110,"▁ડિસેમ્બરે":13111,"▁સૌરાષ્ટ્રના":13112,"▁ચૌહા":13113,"▁સુપરત":13114,"▁ક્રોધ":13115,"▁માલિકીની":13116,"▁વાટાઘાટ":13117,"▁કાબુમાં":13118,"ઈટેડ":13119,"પમ":13120,"પૈ":13121,"ોર":13122,"▁ભગત":13123,"▁655":13124,"ન્ટન":13125,"પ્રત્ય":13126,"▁પુરૃ":13127,"▁દેવાય":13128,"▁બાદ,":13129,"▁પેલે":13130,"▁ડિવિઝન":13131,"▁ડિલિવ":13132,"▁કિડની":13133,"▁શોક":13134,"▁ચેકીંગ":13135,"વર્ગના":13136,"88\tઆ":13137,"▁બનેલ":13138,"87\tઆ":13139,"▁નજીકમાં":13140,"644\t":13141,"▁લિપ":13142,"▁બદલામાં":13143,"બ્રિટી":13144,"▁મુંઝ":13145,"▁લઘુત્તમ":13146,"317\t":13147,"912\t":13148,"કત્તા":13149,"કન્યા":13150,"ઝડ":13151,"▁મૃ":13152,"સ્ટ્રા":13153,"▁યુએ":13154,"▁સિરિય":13155,"▁સિંચાઈ":13156,"▁સ્વૈ":13157,"કરને":13158,"ચિંતા":13159,"વ્યક્તિ":13160,"▁સ્વીકારવામાં":13161,"▁થાક":13162,"ફિકેશન":13163,"▁મુંબઇમાં":13164,"▁આફ્રિકામાં":13165,"▁વટાવી":13166,"▁વેલ્યુએશન":13167,"ાંતિકારી":13168,"326\t":13169,"919\t":13170,"એણે":13171,"▁નમા":13172,"▁આવવું":13173,"▁સેહવા":13174,"પ્રવાહ":13175,"▁ઊતરી":13176,"▁શેરબજારમાં":13177,"▁સમજાવી":13178,"▁યોજાય":13179,"સરકારના":13180,"▁અપાશે.\n":13181,"સ્ટીક":13182,"▁ઓસ્ટ્રેલિયાના":13183,"▁સેનાએ":13184,"▁સહીત":13185,"▁કેટેગરી":13186,"▁રાત્રિના":13187,"▁સાવચેતી":13188,"325\t":13189,"318\t":13190,"ઈસ":13191,"વનાર":13192,"▁હૂ":13193,"▁મનની":13194,"લાજ":13195,"▁નટ":13196,"▁ગળ":13197,"રેટરી":13198,"▁વાપી":13199,"ડાનું":13200,"▁નોર્થ":13201,"▁૨૫૦":13202,"▁ટકાવી":13203,"નિષ્ણા":13204,"▁બનતું":13205,"▁ફેફ":13206,"▁બેઠી":13207,"▁૫૩":13208,"▁બેન્કોને":13209,"સૂર":13210,"સૂત્ર":13211,"▁નહિં":13212,"▁નજીકથી":13213,"▁એક્શન":13214,"▁પ્રમાણપત્ર":13215,"▁બોલીવુ":13216,"▁હૃદયમાં":13217,"▁ટૂંકમાં":13218,"▁સ્વાદિષ્ટ":13219,"▁તલવાર":13220,"▁સ્ટ્રીટ":13221,"▁ઘોષણા":13222,"327\t":13223,"929\t":13224,"કચ":13225,"૯ના":13226,"▁કફોડી":13227,"▁અગર":13228,"▁અન્ડર":13229,"▁આટલો":13230,"▁બલિ":13231,"▁પ્રેશ":13232,"▁સંજ્ઞા":13233,"▁395":13234,"▁નિયુક્ત":13235,"▁ભાસ્કર":13236,"▁અન્યો":13237,"બેઠ":13238,"દેવે":13239,"▁ભાગલા":13240,"▁હિંસક":13241,"▁વીતી":13242,"▁યજ":13243,"▁રમણ":13244,"▁મહત્ત્વપૂર્ણ":13245,"▁શબ્દનો":13246,"▁પસંદગીના":13247,"▁કિંમતના":13248,"▁સ્પેસ":13249,"▁બંગાળી":13250,"▁કચરા":13251,"▁બગડી":13252,"▁હાઇકોર્ટમાં":13253,"પંજા":13254,"▁કિંમતમાં":13255,"▁માધવ":13256,"▁કસોટી":13257,"319\t":13258,"અનુ":13259,"નૌ":13260,"મિટ":13261,"▁કડવા":13262,"રીતે":13263,"િકી":13264,"ક્ષમાં":13265,"વિયે":13266,"પાને":13267,"▁ભાભી":13268,"મ્પી":13269,"▁ભારતનાં":13270,"▁ટેવ":13271,"બેન્ક":13272,"ગ્રહો":13273,"▁ફરતે":13274,"▁રિયો":13275,"▁શિક્ષા":13276,"▁ચિંતિ":13277,"▁યાદવે":13278,"▁વિજયભાઈ":13279,"▁ઉદ્ઘાટન":13280,"▁વિધવા":13281,"▁દસ્તાવેજ":13282,"▁મજાક":13283,"ગાંવ":13284,"▁પ્રદર્શિત":13285,"▁લઘુમતી":13286,"ગઇકાલે":13287,"314\t":13288,"311\t":13289,"દું":13290,"િવિ":13291,"વારોમાં":13292,"▁શ્રા":13293,"ક્વ":13294,"લીત":13295,"િકન":13296,"પાલી":13297,"▁સિગ્ન":13298,"▁મિસા":13299,"પુર્ણ":13300,"▁૫૮":13301,"▁એસએમએસ":13302,"ઉપરો":13303,"▁વધારવાની":13304,"▁ટ્રેનિંગ":13305,"▁વિવેકા":13306,"▁હળવાશ":13307,"▁વાદળ":13308,"▁જુનાગઢ":13309,"▁કન્ટેન્ટ":13310,"▁ચૌધરી":13311,"▁મતભેદ":13312,"▁ડિપોઝિટ":13313,"સતત":13314,"ચાઇઝી":13315,"913\t":13316,"ઉદ":13317,"જયાં":13318,"મણી":13319,"હાં":13320,"નીલ":13321,"▁બુર":13322,"▁માસની":13323,"▁બેક્ટે":13324,"▁ખાતું":13325,"▁થયાના":13326,"▁શહેરને":13327,"▁લેખમાં":13328,"▁જણાતા":13329,"▁મુકવા":13330,"▁ફાઉન્ડેશન":13331,"▁તંદુરસ્ત":13332,"▁પ્રતિબિંબ":13333,"320\t":13334,"323\t":13335,"315\t":13336,"921\t":13337,"910\t":13338,"ંઠ":13339,"મં":13340,"▁કવા":13341,"▁પતા":13342,"નાણાં":13343,"▁વિડીયો":13344,"કેફ":13345,"▁કોમી":13346,"▁ધ્યેય":13347,"▁455":13348,"▁જાપાની":13349,"રૂમ":13350,"▁કરવામા":13351,"▁પેજ":13352,"મુજબ":13353,"▁ફેસ્ટિવ":13354,"▁પ્રોસે":13355,"▁ચૂંટણીના":13356,"▁વૈષ્ણ":13357,"▁દ્રવ્ય":13358,"▁મધ્યમાં":13359,"▁ખેડૂતોના":13360,"▁છોડવા":13361,"▁આફ્રિકાના":13362,"▁લગ્નમાં":13363,"▁ટેલિવિઝન":13364,"▁શૌચાલ":13365,"324\t":13366,"312\t":13367,"914\t":13368,"જમ્મુ":13369,"બાય":13370,"૭૬":13371,"▁કબુ":13372,"▁વસા":13373,"▁માજી":13374,"▁ધર્મે":13375,"▁સમયા":13376,"▁રોશન":13377,"▁પૂણે":13378,"હિતા":13379,"▁ગોટા":13380,"▁ચાલવા":13381,"▁કેન્દ્રની":13382,"▁રૂ.500":13383,"643\t":13384,"▁જેટલાં":13385,"▁સંચાલકો":13386,"▁નગરપાલિકાના":13387,"શ્યોરન્સ":13388,"▁ચાહકો":13389,"ર્મેશન":13390,"▁પાઇપ":13391,"328\t":13392,"911\t":13393,"ટિન":13394,"ૂતિ":13395,"▁સમાં":13396,"▁જયા":13397,"▁ફિલ":13398,"▁ખવડ":13399,"▁પરિક્ર":13400,"લેંડ":13401,"વેશન":13402,"▁345":13403,"▁595":13404,"▁રાજન":13405,"પ્રભુ":13406,"▁નીર":13407,"▁રેતી":13408,"▁પીવા":13409,"▁ગોદ":13410,"▁દુધ":13411,"▁વરદાન":13412,"▁દોસ્તી":13413,"આઇડી":13414,"▁ઘટાડીને":13415,"▁એલ્યુ":13416,"▁આજરોજ":13417,"▁ડૉલર":13418,"અમેરિકાની":13419,"▁સ્નાયુ":13420,"▁બંગલા":13421,"▁જલદી":13422,"▁જ્વેલરી":13423,"▁મસ્જિદ":13424,"310\t":13425,"922\t":13426,"925\t":13427,"૩૮":13428,"▁કયુ":13429,"▁આડા":13430,"▁રિંગ":13431,"▁બાર્":13432,"રાદ":13433,"▁ઉલ્":13434,"▁ઉંડા":13435,"▁ખાર":13436,"િયાઓ":13437,"ધીમે":13438,"▁બેથી":13439,"▁લાવ્યા":13440,"▁ઓર્ડ":13441,"▁નોટીસ":13442,"▁ઈલેક્ટ":13443,"▁દીપક":13444,"▁અનુયાયી":13445,"▁૪થી":13446,"▁અવસ્થામાં":13447,"▁કાઢે":13448,"▁કમલેશ":13449,"▁સુંદરતા":13450,"▁બાબતોમાં":13451,"▁કાઉન્સી":13452,"▁ઘેરી":13453,"ઘ્ધિ":13454,"▁માસથી":13455,"▁પ્રચંડ":13456,"▁પિતૃ":13457,"▁ઉડ્ડયન":13458,"▁ચિંતિત":13459,"322\t":13460,"313\t":13461,"926\t":13462,"▁પંપ":13463,"▁વત":13464,"લેન્ટા":13465,"લોકોને":13466,"બાબુ":13467,"▁જીભ":13468,"▁ટેનિસ":13469,"▁ડિફે":13470,"▁પડે,":13471,"વર્ષા":13472,"ચ્છિક":13473,"સિંહ,":13474,"▁વૈકલ્પિક":13475,"▁ચાંપ":13476,"▁રાજ્યોની":13477,"▁ત્રણેક":13478,"સમાજ":13479,"પહેલી":13480,"▁કૌભાંડો":13481,"▁વાટાઘાટો":13482,"▁જન્મેલા":13483,"▁સ્રોત":13484,"321\t":13485,"79\tઆ":13486,"924\t":13487,"ગાર્ડ":13488,"ચની":13489,"ટૂ":13490,"તપાસ":13491,"▁ા":13492,"▁શંક":13493,"▁વાકેફ":13494,"▁સંવત્":13495,"▁355":13496,"લિફોર્નિયા":13497,"▁પાણીને":13498,"▁થયાની":13499,"80\tઆ":13500,"▁સત્યા":13501,"▁રંગે":13502,"▁ભાષાની":13503,"▁પદવી":13504,"▁લગ્નના":13505,"▁બાતમીના":13506,"▁ડ્રાઈવર":13507,"બુધવારે":13508,"▁સ્પેક્ટ્રમ":13509,"આંક":13510,"ગ્ધ":13511,"તારી":13512,"▁એગ્રી":13513,"▁ફતે":13514,"▁હોઠ":13515,"▁વધઘટ":13516,"▁સાથેનું":13517,"▁955":13518,"▁ભાગર":13519,"▁રોશની":13520,"▁વેરાવ":13521,"▁1947":13522,"▁પીછો":13523,"ધ્યક્ષ":13524,"▁નિર્ભર":13525,"▁નિષ્ક્રિય":13526,"▁સોનાચાંદી":13527,"▁કાંઇ":13528,"▁વસુલ":13529,"▁અડચ":13530,"▁ઝડપાયો":13531,"▁દુકાનમાં":13532,"▁અણ્ણા":13533,"▁ગણતરીના":13534,"▁પેટ્રોલિયમ":13535,"▁નાટ્ય":13536,"▁ડુંગર":13537,"▁જોકે,":13538,"▁વેલ્યૂ":13539,"▁દુશ્મન":13540,"▁દહેશ":13541,"▁કબૂલાત":13542,"▁અસાધારણ":13543,"▁જબરદસ્ત":13544,"928\t":13545,"927\t":13546,"917\t":13547,"ગંગા":13548,"જકાલ":13549,"ભજન":13550,"▁જરાય":13551,"▁ભણી":13552,"▁ચાર્ટ":13553,"▁કરીશું":13554,"સાબી":13555,"▁ઇશ્વર":13556,"બ્બે":13557,"▁ફેકટ":13558,"એસઆઈ":13559,"▁સ્ટાર્ટ":13560,"છેલ્લે":13561,"▁ઉજવવામાં":13562,"▁વિભાજન":13563,"▁ડ્રાય":13564,"▁બહાને":13565,"▁પાંડવો":13566,"▁અમીર":13567,"▁ભગવાનની":13568,"▁ફ્યુચર":13569,"▁ફેમિલી":13570,"329\t":13571,"▁કપરા":13572,"ન્થ":13573,"▁પ્રદીપ":13574,"▁ઉષ્ણ":13575,"ંગર":13576,"રોલ":13577,"જે.\n":13578,"▁545":13579,"▁555":13580,"▁445":13581,"બાઇ":13582,"▁પુર્ણ":13583,"▁બનાસકાંઠા":13584,"શાળામાં":13585,"▁હિમ":13586,"▁આશય":13587,"▁તુલનાએ":13588,"▁આયુષ્ય":13589,"▁આશિષ":13590,"▁જળાશ":13591,"િસ્ટ":13592,"માંના":13593,"▁મસ્તી":13594,"▁દલ":13595,"▁495":13596,"▁855":13597,"▁ઉપજ":13598,"▁ઉપગ્રહ":13599,"▁રોજે":13600,"રિન":13601,"▁ડિરેક્ટ":13602,"▁ભર્યું":13603,"▁મારામારી":13604,"▁સમજાવ":13605,"▁અપાતા":13606,"▁ઉત્પાદકો":13607,"▁મોરચા":13608,"▁હસ્તગત":13609,"▁ટેલિફોન":13610,"▁ગુસ્સે":13611,"▁તલાટી":13612,"89\tઆ":13613,"923\t":13614,"916\t":13615,"જન્સ":13616,"ડન":13617,"ાે":13618,"▁સતી":13619,"▁વક":13620,"▁મનને":13621,"તાબેન":13622,"▁તેઆે":13623,"તેશ":13624,"▁૧૨૦":13625,"▁નીચું":13626,"▁સીપી":13627,"▁બદનામ":13628,"▁ચાઇનીઝ":13629,"▁મહેલ":13630,"▁લાઈટ":13631,"▁તાપમાનમાં":13632,"▁દુઃખી":13633,"▁લંબાઈ":13634,"પક્ષીય":13635,"▁પારેખ":13636,"918\t":13637,"ઇલના":13638,"ડલ":13639,"દોડ":13640,"વરે":13641,"માટ":13642,"▁અથા":13643,"▁દ્રો":13644,"▁થવો":13645,"▁વાડ":13646,"▁મેઘા":13647,"▁ભાડું":13648,"▁દેવાનો":13649,"▁દેખી":13650,"▁લીઘું":13651,"▁હેરા":13652,"▁પીરસ":13653,"▁વ્યવહારો":13654,"▁લીધેલા":13655,"▁પિતાના":13656,"▁શરતે":13657,"▁અપાતી":13658,"▁કૉંગ્રે":13659,"▁સુધારવા":13660,"▁રિકવરી":13661,"▁કેરોસીન":13662,"▁સિંધુ":13663,"83\tઆ":13664,"કિય":13665,"ઝિલ":13666,"શાંતિ":13667,"સંક":13668,"▁મરે":13669,"▁બટ":13670,"▁હોલી":13671,"કારની":13672,"▁આપણાં":13673,"ટાના":13674,"▁ઉપે":13675,"▁બોરી":13676,"સોમાં":13677,"▁સિલિ":13678,"▁કરતા.\n":13679,"▁કુમારે":13680,"▁અપરા":13681,"▁ટ્રાયલ":13682,"▁નેતાઓની":13683,"▁વિચાર્યું":13684,"▁હત્યાનો":13685,"▁બિઝનેસમાં":13686,"▁મોકલવા":13687,"પરિવાર":13688,"▁નિયંત્રિત":13689,"▁હરાવી":13690,"▁તોડફોડ":13691,"▁સંપાદન":13692,"▁તાજેતરના":13693,"જન્મ":13694,"▁પ્રોફેશનલ":13695,"ઠિયા":13696,"યંત્ર":13697,"વશે":13698,"સવા":13699,"હલા":13700,"▁મતો":13701,"▁રબારી":13702,"▁હોતો":13703,"▁સુલ":13704,"▁મુનિ":13705,"▁995":13706,"▁મળ્યો.\n":13707,"▁જાસૂ":13708,"▁ગુલ":13709,"▁રોજના":13710,"▁પુણ્ય":13711,"▁પેનલ":13712,"ડેડ":13713,"જૂન":13714,"▁ક્રાંતિકારી":13715,"▁૬૮":13716,"▁મુકાયા":13717,"▁છૂપ":13718,"▁વાહનોની":13719,"▁એન્જિનિય":13720,"▁અવગણના":13721,"▁સબસિડી":13722,"▁કન્ઝ્યુ":13723,"કચર":13724,"લંડ":13725,"હજી":13726,"▁હસ્તી":13727,"▁વયના":13728,"▁તેજીની":13729,"▁પ્રતાપ":13730,"▁પડકારો":13731,"▁ભાવનગરમાં":13732,"▁ક્લે":13733,"▁ઠક્કર":13734,"▁કર્યાની":13735,"▁ચિદમ્બર":13736,"એમસી":13737,"▁માતાનું":13738,"▁બોલ્યા":13739,"સંગત":13740,"▁હુમલાના":13741,"▁મુક્યો":13742,"▁ફિક્સ":13743,"▁તત્કાળ":13744,"▁મંડળના":13745,"▁તકલીફો":13746,"▁પલટ":13747,"▁અશક્ય":13748,"હાર્":13749,"ોથી":13750,"▁તથ":13751,"ન્ની":13752,"▁ભયાનક":13753,"▁સાલમાં":13754,"▁રાક્ષ":13755,"▁મોઢે":13756,"ેશને":13757,"▁386":13758,"▁795":13759,"▁895":13760,"▁1500":13761,"▁પરિચિત":13762,"▁મીના":13763,"▁અથડા":13764,"▁૨૦૦૮માં":13765,"▁ગુજરાતીઓ":13766,"▁ભાઈઓ":13767,"▁વિશ્લેષણ":13768,"▁ઉપાડવા":13769,"▁આનાથી":13770,"▁પ્રવચન":13771,"અમદાવાદના":13772,"▁ગતિવિધિ":13773,"▁સંકેતો":13774,"▁જ્યોર્જ":13775,"▁એમ્બેસે":13776,"82\tઆ":13777,"▁કૃત":13778,"▁પચાવી":13779,"તાબ્":13780,"▁નકસલ":13781,"લ્ફી":13782,"▁જેમ્સ":13783,"▁486":13784,"▁695":13785,"▁845":13786,"▁ખાવાનું":13787,"ગીય":13788,"▁કાળમાં":13789,"▁1200":13790,"ંડે":13791,"▁હેલ્પ":13792,"▁બદલાય":13793,"▁આઇઆઇ":13794,"▁રમઝ":13795,"▁ઘટયા":13796,"▁દબાણો":13797,"▁ગભરા":13798,"▁ટ્રીટમેન્ટ":13799,"▁તસ્કરો":13800,"▁સર્ટિફ":13801,"▁લક્ષ્મણ":13802,"સપ્ટેમ્બર":13803,"ઢિ":13804,"પાય":13805,"મંત્રાલ":13806,"૯૫":13807,"્રિક":13808,"▁બ્રી":13809,"▁પ્રત":13810,"▁ફકત":13811,"િકરણ":13812,"રોધી":13813,"▁755":13814,"▁786":13815,"▁945":13816,"▁મળ્યાં":13817,"ણાટ":13818,"▁લેપ":13819,"મોર્ટ":13820,"ખાતે":13821,"▁ચૂકેલા":13822,"▁ચીને":13823,"▁અસરથી":13824,"▁જીવનસાથી":13825,"દારોએ":13826,"▁વળાંક":13827,"ોનેશિયા":13828,"▁પ્રવાસન":13829,"▁સમયગાળો":13830,"▁એપ્લિક":13831,"▁બહિષ્કાર":13832,"અલી":13833,"જૈન":13834,"પમેન્ટ":13835,"▁અબુ":13836,"▁કોંગી":13837,"ામિન":13838,"▁એકંદરે":13839,"ધીશ":13840,"જેક્ટ":13841,"▁376":13842,"સાહિત્ય":13843,"▁745":13844,"જાની":13845,"વિભાગ":13846,"▁ઇ.":13847,"▁ઇન્સ":13848,"▁સેનાની":13849,"▁1948":13850,"▁ભાવની":13851,"▁પ્રાઇસ":13852,"▁અધિકારીઓના":13853,"સ્કૂલ":13854,"▁ભેજ":13855,"▁મદદની":13856,"▁પાડયો":13857,"▁કેમિકલ":13858,"▁ચૂક્યું":13859,"▁ચાલીને":13860,"▁જામનગરમાં":13861,"▁કાર્યક્રમનું":13862,"▁વર્ગને":13863,"▁હળવો":13864,"▁સરહદે":13865,"▁આગેવાનોએ":13866,"▁ગવર્ન":13867,"ભ્રમણ":13868,"▁મહુવા":13869,"▁જ્વાળામુખી":13870,"કૌ":13871,"જારોમાં":13872,"▁બટા":13873,"્યાે":13874,"▁ધબ":13875,"▁ડગ":13876,"▁576":13877,"ટોના":13878,"▁ડિસ્ટ્રિ":13879,"▁પાણીનું":13880,"▁દિપક":13881,"▁ગેજેટ":13882,"▁અનુભૂતિ":13883,"76\tઆ":13884,"▁સ્ટોરી":13885,"▁કમાન્ડ":13886,"▁વાર્તામાં":13887,"▁મૂલ્યો":13888,"▁ખુબજ":13889,"▁સ્કૂલના":13890,"...":13891,"▁નાનકડા":13892,"▁ઉંચાઈ":13893,"રાહુલ":13894,"▁નાબૂદ":13895,"▁ખળભળાટ":13896,"ધરી":13897,"સદ્":13898,"▁આઘુનિક":13899,"▁તેણી":13900,"▁થિય":13901,"ંગુ":13902,"▁નથી?\n":13903,"હિસાબી":13904,"▁સ્વર":13905,"▁પહોંચ્યું":13906,"▁અપરાધ":13907,"▁ગાંધીનગરમાં":13908,"કુમારી":13909,"ાવેલી":13910,"▁વૈશા":13911,"▁માતાજીના":13912,"લેન્ડના":13913,"▁કમિટીની":13914,"▁ભોગવી":13915,"પાકિસ્તાનના":13916,"સાંજે":13917,"▁વાપરવામાં":13918,"સામાજિક":13919,"▁મિસ્ત્રી":13920,"▁પ્રોત્સાહક":13921,"81\tઆ":13922,"ંજી":13923,"૪૬":13924,"▁સ્વે":13925,"તેવા":13926,"કોણ":13927,"▁776":13928,"▁નિમા":13929,"▁રોમા":13930,"▁નેમ":13931,"જુદી":13932,"હિર":13933,"▁જુઓ,":13934,"લાંબા":13935,"▁શિલા":13936,"▁પ્રોસેસ":13937,"▁ચીખલી":13938,"ટ્સના":13939,"▁કર્મી":13940,"▁2016માં":13941,"▁રણબીર":13942,"▁ગ્રીક":13943,"▁ગોલ્ડન":13944,"▁કારકિર્દીની":13945,"▁અંધકાર":13946,"▁સિંગલ":13947,"▁હોટલમાં":13948,"▁રેસ્ટોરન્ટ":13949,"▁પાઈપ":13950,"▁રિપબ્લિક":13951,"▁તાલિબાન":13952,"▁પોઝીટીવ":13953,"▁કશી":13954,"▁કમન":13955,"▁દૈ":13956,"▁એથી":13957,"▁તેટલો":13958,"▁લક્ષણ":13959,"▁પ્રૌ":13960,"▁પણે":13961,"▁પરફોર્મ":13962,"ત્રિય":13963,"▁રાઇ":13964,"▁નાક":13965,"▁586":13966,"▁476":13967,"સીયા":13968,"ન્ટો":13969,"▁1015":13970,"▁કોઈના":13971,"▁કહેલું":13972,"▁મિલન":13973,"▁ઊજ":13974,"▁ડિવાઇ":13975,"▁ગાળ":13976,"▁શિશુ":13977,"▁વિસ્તારને":13978,"▁૬૩":13979,"▁અનુભવાય.\n":13980,"▁બોર્ડમાં":13981,"▁ઉદ્યોગના":13982,"ગામના":13983,"સભ્ય":13984,"▁સાધના":13985,"▁ગુમાવ્યા":13986,"▁આશ્રય":13987,"▁સ્માર્ટફો":13988,"▁શરુઆત":13989,"▁ધોધમાર":13990,"▁સ્મારક":13991,"કૂટ":13992,"ઝલના":13993,"ફન":13994,"બાયો":13995,"હના":13996,"િટે":13997,"▁અન્":13998,"▁રચા":13999,"▁ઉગા":14000,"સાઉથ":14001,"લોસ":14002,"જાનો":14003,"લિતા":14004,"તરું":14005,"▁તાજી":14006,"▁સહમત":14007,"ચીસ":14008,"▁ગુજરાતને":14009,"▁સૂચિત":14010,"▁નિર્ણાયક":14011,"વાસન":14012,"બ્રહ્":14013,"▁મનસુખ":14014,"▁સંબંધમાં":14015,"સૂર્ય":14016,"▁907":14017,"▁આરોપીઓની":14018,"▁જઈએ":14019,"▁પુનરા":14020,"▁બિલ્ડર":14021,"મહત્વ":14022,"▁રમાયેલી":14023,"▁અધ્યાપ":14024,"મર્યાદા":14025,"▁ટાઇટલ":14026,"▁અભિવ્યક્તિ":14027,"દસ":14028,"ારના":14029,"▁બચ્ચા":14030,"▁માત":14031,"લીલા":14032,"વીના":14033,"▁હોતું":14034,"▁રાઇટ":14035,"▁686":14036,"મોરબી":14037,"બીન":14038,"▁ઉત્તરમાં":14039,"▁શોખી":14040,"▁ચેતન":14041,"▁વિદ્યાર્થીઓના":14042,"▁પ્રશ્નના":14043,"▁આઈપીએ":14044,"▁મનોહર":14045,"કેટલાંક":14046,"ંચાઇ":14047,"બ્રિજ":14048,"▁ફ્રેન્ચાઇઝી":14049,"▁જન્માષ્ટ":14050,"▁પીછેહ":14051,"ઇ.સ.":14052,"મર્":14053,"▁પટ્ટા":14054,"વાશે":14055,"▁લખાણ":14056,"યાજી":14057,"તેલા":14058,"▁ધર્મો":14059,"▁વેળાએ":14060,"બેનને":14061,"▁ફરજીયાત":14062,"▁૫૭":14063,"▁જેમકે":14064,"▁ચર્ચાનો":14065,"▁ફરિયાદના":14066,"▁એનજી":14067,"▁સમજણ":14068,"▁લિંક":14069,"▁નીતિશ":14070,"▁કોર્પોરેટર":14071,"▁05":14072,"પંચાય":14073,"▁ફ્રાં":14074,"▁ગુપ્તચર":14075,"જાન્યુઆરી":14076,"▁ધમધમાટ":14077,"ડીએફસી":14078,"▁ગર્લફ્રેન્ડ":14079,"▁વ્યાવસાય":14080,"પેર":14081,"પસંદ":14082,"બ્રો":14083,"નેતા":14084,"કાનો":14085,"▁રાસાયણિક":14086,"યોધ્યા":14087,"▁ટુર":14088,"▁મેગાવો":14089,"ગરમ":14090,"▁કામદાર":14091,"▁ટેર":14092,"▁ટકાવારી":14093,"▁ચોગ્ગા":14094,"▁કરોડમાં":14095,"▁વરણી":14096,"▁કર્યું,":14097,"▁છોકરો":14098,"▁અધિકારીઆે":14099,"કરણની":14100,"▁તંત્રના":14101,"▁હશે?\n":14102,"▁સ્વીકારે":14103,"▁વિશ્લેષ":14104,"▁ભગવાનને":14105,"▁કરશે,":14106,"ગ્રાફી":14107,"▁હવાલે":14108,"▁નોંધાઇ":14109,"▁લગાડી":14110,"▁ઉછળ્યા":14111,"▁બંગાળમાં":14112,"▁વહીવટીતંત્ર":14113,"▁વિજ્ઞાાની":14114,"▁કતારો":14115,"નીઓ":14116,"રીયન":14117,"▁ચર":14118,"▁ખાડા":14119,"▁નોકર":14120,"▁સોને":14121,"▁ઉત્કૃ":14122,"▁સૂક્ષ્મ":14123,"▁ગાે":14124,"▁૫૨":14125,"▁ચૂકવવામાં":14126,"▁દેખાડ":14127,"▁કૌટુંબિક":14128,"▁ઈન્સ્પે":14129,"▁નરમાઈ":14130,"▁રેન્જમાં":14131,"▁પીડિત":14132,"▁શરમજનક":14133,"▁ચૂંટાયેલા":14134,"▁નાણામંત્રી":14135,"▁સંવત્સર":14136,"જારા":14137,"▁કમ્પ":14138,"▁એટીએ":14139,"ન્દા":14140,"▁ખિસ્સા":14141,"ધીન":14142,"▁મોડું":14143,"▁ઓક્સિ":14144,"▁1966":14145,"▁શાહિદ":14146,"▁ઉત્તરી":14147,"▁બિંદુ":14148,"રુખ":14149,"▁અવશ્ય":14150,"ઘાતી":14151,"▁ચર્ચાઓ":14152,"▁દર્શકો":14153,"▁પાડયા":14154,"▁વગેરેની":14155,"▁વગેરેનો":14156,"▁ઉઠાવ":14157,"▁સોનાનો":14158,"▁પુસ્તકમાં":14159,"▁ઓક્ટોબરે":14160,"▁માનીએ":14161,"▁પ્રેરિત":14162,"▁બંગલો":14163,"જિલ્લામાં":14164,"▁વાલીઓ":14165,"▁લેબોરેટરી":14166,",7":14167,"નરેન્દ્ર":14168,"માળા":14169,"▁તગ":14170,"▁આણ":14171,"▁નકા":14172,"▁મુકત":14173,"જાતિ":14174,"▁વર્ચ":14175,"▁2025":14176,"▁દેશનો":14177,"▁પીર":14178,"શીએ":14179,"▁પગથ":14180,"▁બેન્કોએ":14181,"▁કોંગ્રેસમાં":14182,"▁યોજનાનો":14183,"▁કમિટીના":14184,"ટ્સએ":14185,"▁સ્વીકારવા":14186,"▁મગન":14187,"▁રમતગમત":14188,"▁જ્ઞાાન":14189,"▁રાજસ્થાનના":14190,"▁શખ્સોએ":14191,"નોકરીધંધા":14192,"▁મિટિંગ":14193,"▁દૃષ્ટિએ":14194,"3માં":14195,"ઉલ":14196,"પર્સ":14197,"▁જસદ":14198,"▁અખંડ":14199,"▁હલા":14200,"▁બ્રેડ":14201,"▁ગંધ":14202,"▁સાબુ":14203,"ણાનો":14204,"▁ગયા,":14205,"મુસ્લિ":14206,"બ્સ":14207,"▁ફોર્સ":14208,"▁307":14209,"▁૬૪":14210,"▁એરટેલ":14211,"▁હાઈકોર્ટે":14212,"▁લંડનમાં":14213,"▁આઇપીએલ":14214,"▁ટ્રાવેલ":14215,"▁ચચર્િ":14216,"▁શ્રદ્ધાંજલિ":14217,"ઈએ":14218,"મિંગ":14219,"વહે":14220,"▁મટી":14221,"▁મહેર":14222,"▁પાના":14223,"▁આપો.\n":14224,"▁ટક":14225,"સ્ટન":14226,"▁ગુજાર":14227,"ોડિયા":14228,"▁લગાવ્યો":14229,"▁થયાનું":14230,"▁ગયો,":14231,"773\t":14232,"▁પાંચમી":14233,"ઘાટ":14234,"લેન્ડમાં":14235,"દુઃ":14236,"▁વિનાશ":14237,"કટ્રો":14238,"સ્ટીટ":14239,"▁ફાળવી":14240,"▁બેંકે":14241,"▁જવાનોને":14242,"▁ગણાતી":14243,"▁અઠવાડિયામાં":14244,"▁પ્રધાનો":14245,"▁ડ્રગ્સ":14246,"▁એડવાન્સ":14247,"▁કોવિડ૧૯":14248,"▁ટ્વેન્ટી૨૦":14249,"ભક્":14250,"મનની":14251,"▁તન":14252,"ર્મી":14253,"▁નડ":14254,"▁આવવાના":14255,"ડીએસ":14256,"▁બાળા":14257,"ારીત":14258,"▁રોટલી":14259,"▁તમામને":14260,"નિક્સ":14261,"▁ગામડાં":14262,"▁ગુજરાત,":14263,"▁ગાળે":14264,"▁ઠગા":14265,"એમ.":14266,"▁લીધાં":14267,"▁વળગી":14268,"▁એન્જિ":14269,"▁મથકો":14270,"ડ્ઝ":14271,"▁સ્પર્ધાત્મક":14272,"▁બાબતોના":14273,"▁તપાસના":14274,"▁શાસકો":14275,"▁પેઢીના":14276,"▁શહેરીજનો":14277,"▁ધ્વજ":14278,"મુલ":14279,"▁પઠાણ":14280,"▁સ્ક્રિ":14281,"▁676":14282,"જાપાન":14283,"ન્ટની":14284,"▁ખાબ":14285,"▁ઉત્ત":14286,"▁દાદી":14287,"▁મીઠી":14288,"ચિદમ્બર":14289,"2\tઆમ":14290,"▁બનેલો":14291,"▁અસલી":14292,"▁ઘૂસણ":14293,"▁પૌરાણિક":14294,"▁પેસેન્જ":14295,"▁આડેધડ":14296,"▁કેનાલ":14297,"ત્વાકાં":14298,"ર્ની":14299,"કાલની":14300,"▁વિરા":14301,"▁રાંધણ":14302,"સોસ":14303,"ગાે":14304,"▁કરોડ,":14305,"674\t":14306,"3\tઆજે":14307,"658\t":14308,"▁આઇડિયા":14309,"▁એનસીપી":14310,"▁અપાયા":14311,"▁મિત્રતા":14312,"▁ભરાઇ":14313,"▁છેલ્લો":14314,"▁નબળો":14315,"▁એકબીજાની":14316,"▁યુવાનની":14317,"▁વિજ્ઞાાન":14318,"▁લઘુતમ":14319,"▁ભેળવી":14320,"▁બેસાડી":14321,"▁સિક્યુરિટી":14322,"▁ઇન્ફ્રાસ્ટ્રક્ચર":14323,"▁વૈવિધ્ય":14324,"ંકે":14325,"ચકા":14326,"ણવાડી":14327,"દરી":14328,"પપ્પા":14329,"બધ્ધ":14330,"વરમાં":14331,"▁સસરા":14332,"▁આલેખ":14333,"▁રચી":14334,"લાભ":14335,"▁ખસી":14336,"રોપી":14337,"▁વાંક":14338,"▁વાઘા":14339,"▁સંસ્":14340,"▁લાઠી":14341,"▁મોટુ":14342,"ોડે":14343,"▁યુસુફ":14344,"▁કાટ":14345,"▁વેદના":14346,"▁1920":14347,"▁દે.\n":14348,"▁સોહરા":14349,"▁છતાંય":14350,"તનામ":14351,"▁ગણના":14352,"▁અપક્ષ":14353,"▁એસો.\n":14354,"▁પાડ્યો":14355,"▁અસહ્ય":14356,"▁નીકળ્યો":14357,"▁વર્ગમાં":14358,"▁રાવણ":14359,"▁અંબાજી":14360,"▁ઓબામાએ":14361,"▁કેળવણી":14362,"મંગળવારે":14363,"▁ડેમોક્રે":14364,"પૃથ્વી":14365,"ઘટન":14366,"શબ્":14367,"હની":14368,"ારૂ":14369,"▁સાનિયા":14370,"▁ખેર":14371,"▁જેઠા":14372,"વેપારી":14373,"▁886":14374,"્યુલર":14375,"▁1978":14376,"▁વધુની":14377,"બેતા":14378,"ળો,":14379,"ચિન":14380,"608\t":14381,"▁પક્ષોના":14382,"▁પક્ષોએ":14383,"671\t":14384,"677\t":14385,"એમકે":14386,"ર્ષિ":14387,"▁વોડા":14388,"▁ચાલો":14389,"▁ફાયના":14390,"સ્ટેટ":14391,"▁ફિલ્મોની":14392,"▁બોલાચાલી":14393,"▁સંગ્રહાલ":14394,"▁બરાક":14395,"▁201516":14396,"▁અસ્થિર":14397,"▁અરુણ":14398,"જળ":14399,"▁કબા":14400,"▁સલ્":14401,"▁કેતન":14402,"ક્ષ્":14403,"▁મોકો":14404,"▁976":14405,"મોદીએ":14406,"ળીના":14407,"▁તાતા":14408,"▁ક્રૂર":14409,"▁બાબતને":14410,"654\t":14411,"651\t":14412,"ંધાને":14413,"▁આવાં":14414,"▁પ્રદેશની":14415,"હાલના":14416,"▁શાહની":14417,"▁વિગતાે":14418,"▁ભ્રષ્ટાચારના":14419,"▁દબાવી":14420,"▁મરાઠા":14421,"▁નોટબંધીના":14422,"અમેરિકી":14423,"▁પંચાંગ":14424,"▁ચિંતન":14425,"▁બોટાદ":14426,"ગોલિક":14427,"ડમ":14428,"ફલ":14429,"▁સોડ":14430,"▁રિય":14431,"▁અને..\n":14432,"રે,":14433,"▁નાખો":14434,"▁876":14435,"પાથ":14436,"▁પૂ.\n":14437,"▁ઝંપ":14438,"▁ગોંડલ":14439,"▁બાળકના":14440,"774\t":14441,"778\t":14442,"▁પાંચથી":14443,"▁લેવાથી":14444,"▁રૂ.6":14445,"▁પ્રજાતિ":14446,"▁પુરતી":14447,"▁ખેલાડીઓની":14448,"▁કાયદાના":14449,"▁જંગલી":14450,"▁સ્ટાઇલ":14451,"▁મૂલ્યાંકન":14452,"▁અસ્વી":14453,"▁બીજાં":14454,"▁સાચવી":14455,"▁હિતમાં":14456,"▁સમુદ્રમાં":14457,"▁મોટેભાગે":14458,"▁વ્રત":14459,"▁પ્રણાલી":14460,"વહી":14461,"ષભ":14462,"▁?\n":14463,"▁અન્વ":14464,"▁હવાઇ":14465,"▁મકર":14466,"કાવી":14467,"▁બાે":14468,"▁344":14469,"તોએ":14470,"▁લોડ":14471,"▁રોમન":14472,"જોની":14473,"ળી,":14474,"▁કાશી":14475,"▁સહયોગી":14476,"▁અનુરાગ":14477,"▁જવાન":14478,"ભાઈની":14479,"પણથી":14480,"666\t":14481,"668\t":14482,"ચ્છે":14483,"655\t":14484,"▁ફરિયાદી":14485,"▁બધાની":14486,"ચોક":14487,"લ્સને":14488,"▁વળતો":14489,"▁અરજીમાં":14490,"▁જાન્યુઆરીએ":14491,"▁સળંગ":14492,"▁કન્સલ્ટ":14493,"પ્રસંગે":14494,"▁આરાધના":14495,"▁વિવેકાનંદ":14496,"અંગ્રે":14497,"ઓસી":14498,"ખેર":14499,"જૈ":14500,"ત.\n":14501,"ૅન્ડ":14502,"૪૮":14503,"૪૯":14504,"▁પિયા":14505,"▁છરી":14506,"લાનો":14507,"ટીયા":14508,"કેદાર":14509,"▁સંમેલન":14510,"મોની":14511,"▁બોનસ":14512,"▁નેનો":14513,"▁સિમ":14514,"▁રાખવાના":14515,"▁લીક":14516,"▁કહેવાયું":14517,"▁કાર્યકારી":14518,"601\t":14519,"▁મહેસૂ":14520,"▁સંબંધોમાં":14521,"▁મૃત્યુઆંક":14522,"▁મેળવવાનો":14523,"સ્ટ્રાર":14524,"▁ઠાકો":14525,"▁આવશ્યકતા":14526,"▁બાંધીને":14527,"▁રહસ્યમય":14528,"▁નિમણું":14529,"▁હૉસ્પિટ":14530,"▁પોઝિશન":14531,"રાજકોટમાં":14532,"▁વાણિજ્ય":14533,"કયુ":14534,"પંડ":14535,"વૉ":14536,"સતી":14537,"▁તામિ":14538,"▁નસ":14539,"▁કેલ્":14540,"▁ભાન":14541,"▁મેહ":14542,"▁1940":14543,"સ્થળ":14544,"600\t":14545,"609\t":14546,"779\t":14547,"▁ખૂણે":14548,"▁લેવાઈ":14549,"676\t":14550,"આઇના":14551,"656\t":14552,"650\t":14553,"ડિસેમ્બર":14554,"▁સ્ટ્ર":14555,"▁રમખા":14556,"▁મુખ્યમંત્રીએ":14557,"▁કિસ્સાઓમાં":14558,"▁નાેંધી":14559,"▁જામનગરના":14560,"▁વપરાશકર્તા":14561,"કર્મી":14562,"▁પાઉડર":14563,"▁ષડ":14564,"▁કસાબ":14565,"▁રત્":14566,"▁ચં":14567,"▁ચશ્":14568,"ટીમ":14569,"▁નિગમ":14570,"તાં.\n":14571,"▁ઉપરમાં":14572,"▁નેત્ર":14573,"▁સોશ્યલ":14574,"▁દેશનાં":14575,"▁ડિસ્ટ":14576,"▁જુન":14577,"બોર":14578,"604\t":14579,"652\t":14580,"▁સાતમા":14581,"▁કમિટિ":14582,"▁ભાવનગરના":14583,"▁મોરચે":14584,"▁માથાના":14585,"▁ડૂબ":14586,"▁માબાપ":14587,"▁ટર્નઓવર":14588,"▁શોભાયાત્રા":14589,"▁મેન્યુફેક્ચર":14590,"ણવાળા":14591,"મૈ":14592,"▁હની":14593,"▁નરો":14594,"▁એનાં":14595,"્યોદય":14596,"▁ધ્રા":14597,"▁બેબી":14598,"▁બાકાત":14599,"▁986":14600,"પ્લી":14601,"ક્રાંતિ":14602,"હિન્દુ":14603,"રિઝ":14604,"▁ચાના":14605,"▁નોંધવામાં":14606,"ફોર્ડ":14607,"661\t":14608,"607\t":14609,"772\t":14610,"775\t":14611,"675\t":14612,"▁મહિલાના":14613,"653\t":14614,"ગુણ":14615,"▁૧૦૮":14616,"▁માણસની":14617,"▁૮૫":14618,"▁કોર્ટને":14619,"લાઇઝ":14620,"દ્રશ્ય":14621,"▁જોડાય":14622,"▁ગૃહમાં":14623,"▁નવેમ્બરથી":14624,"▁કોન્સો":14625,"▁નોંધાતા":14626,"▁માથામાં":14627,"▁માછીમા":14628,"▁ઉત્સુક":14629,"▁મકવાણા":14630,"ઇ,":14631,"ઘરે":14632,"જગત":14633,"સ્પો":14634,"રોન":14635,"▁644":14636,"▁ઇજિ":14637,"▁રહેવાના":14638,"િલ્ડ":14639,"દેવડ":14640,"▁ક્વિ":14641,"▁જુનિયર":14642,"ગોર":14643,"684\t":14644,"678\t":14645,"▁ફરીને":14646,"657\t":14647,"▁આઇટ":14648,"▁૧૦.\n":14649,"▁એરિયા":14650,"▁ફરિયાદમાં":14651,"▁ચિંતામાં":14652,"▁કાંઠા":14653,"▁માલધારી":14654,"▁કાર્યક્રમને":14655,"▁સર્જક":14656,"▁વર્લ્ડકપ":14657,"▁મુકાઈ":14658,"▁બ્રિટનમાં":14659,"▁લિસ્ટિંગ":14660,"▁સેગમેન્ટ":14661,"▁ફાઈનલ":14662,"▁સ્વૈચ્છિક":14663,",6":14664,"કિક":14665,"▁જુલ":14666,"▁અમારું":14667,"▁કરદાતા":14668,"રીશ":14669,"ક્ષકો":14670,"▁પૂછે":14671,"▁ઝું":14672,"663\t":14673,"687\t":14674,"770\t":14675,"777\t":14676,"679\t":14677,"673\t":14678,"▁વિશ્વયુદ્ધ":14679,"▁308":14680,"▁૨૦૧૪":14681,"સંખ્યા":14682,"ગ્લો":14683,"▁વહેંચી":14684,"▁મૂકવાની":14685,"ગુજરાતની":14686,"▁કરાવીને":14687,"▁કાગળો":14688,"▁અર્થતંત્રમાં":14689,"▁તળાવમાં":14690,"▁ટાંકી":14691,"▁બિહારના":14692,"▁નિમણૂંક":14693,"▁સેલિબ્રિટી":14694,"ઇટી":14695,"માડો":14696,"્રપાન":14697,"તાઈ":14698,"▁ચંદુ":14699,"▁સંકટ":14700,"▁નામાં":14701,"ાનિ":14702,"▁નિવ":14703,"રૂમમાં":14704,"▁પુષ્ટિ":14705,"▁પુખ્ત":14706,"▁રાખવું.\n":14707,"▁સીઆર":14708,"▁ડિસ":14709,"▁વરસની":14710,"▁ગુજરાતનો":14711,"▁લાગતો":14712,"▁દાદ":14713,"▁દાણા":14714,"681\t":14715,"688\t":14716,"605\t":14717,"776\t":14718,"672\t":14719,"વતીકાલે":14720,"▁પાર્ટન":14721,"ૂતન":14722,"સિંહજી":14723,"▁એનઆર":14724,"▁આઈટી":14725,"સ્ટ્રેટ":14726,"દિવસ":14727,"▁દેશોએ":14728,"▁ઓથોરિટી":14729,"▁હેલિકોપ્ટર":14730,"▁અન્વયે":14731,"તંક":14732,"૪ના":14733,"લીવ":14734,"▁રાતો":14735,"▁કોણે":14736,"ાંભ":14737,"▁બેભાન":14738,"સાથોસાથ":14739,"વિસ":14740,"રૂપી":14741,"પોષણ":14742,"▁1958":14743,"ટોને":14744,"664\t":14745,"667\t":14746,"686\t":14747,"685\t":14748,"602\t":14749,"603\t":14750,"▁અપવાદ":14751,"▁વિદ્યાર્થીને":14752,"▁રાખીએ":14753,"▁સુધારે":14754,"▁ડોલરમાં":14755,"▁નંબરે":14756,"▁કચેરીએ":14757,"▁ચોમાસા":14758,"▁જીલ્લામાં":14759,"▁અગત્યની":14760,"▁2008માં":14761,"▁વ્યૂહાત્મક":14762,"▁બરોબર":14763,"▁લેવડદેવડ":14764,"▁યાર્ડમાં":14765,"▁સ્તુતિ":14766,"અધિકારી":14767,"કડો":14768,"તમારે":14769,"▁વશ":14770,"▁તેર":14771,"ાવનાર":14772,"વેદ":14773,"▁નિફ્":14774,"સ્તર":14775,"▁ડે.\n":14776,"660\t":14777,"▁મીટીંગ":14778,"771\t":14779,"▁જાહેરના":14780,"▁૫૯":14781,"▁અંદરના":14782,"ઝીટ":14783,"▁થોડાં":14784,"▁અદાલત":14785,"▁આંધ્રપ્રદેશ":14786,"▁ધડાકા":14787,"▁થિયેટર":14788,"▁ગેરરીતિ":14789,"ઘ્ધા":14790,"શ્રેષ્ઠ":14791,"ંિ":14792,"જગ":14793,"પરમાં":14794,"બત્તી":14795,"ષિક":14796,"▁મઠ":14797,"▁સાદા":14798,"મેન્ટે":14799,"▁ટર્મિ":14800,"▁સમીર":14801,"▁444":14802,"▁રોયલ":14803,"▁વેંક":14804,"▁ગામનો":14805,"▁માર્કસ":14806,"▁જીવવા":14807,"▁લાખનું":14808,"▁ગાઇડ":14809,"662\t":14810,"▁વીમો":14811,"606\t":14812,"670\t":14813,"▁બંનેની":14814,"▁માગતી":14815,"ચોટ":14816,"▁કમિશ્નર":14817,"▁અસંતોષ":14818,"▁સ્ટેશનના":14819,"▁ઠંડુ":14820,"▁ઓકટોબર":14821,"▁સૈયદ":14822,"▁તામિલનાડુ":14823,"ટાં":14824,"શહે":14825,"સમુ":14826,"માય":14827,"▁અળ":14828,"▁દંત":14829,"▁એલે":14830,"▁લખ્યા":14831,"ક્ચ":14832,"ાવત્":14833,"કોન":14834,"▁આપતું":14835,"▁બેટરી":14836,"▁સમન્વ":14837,"▁ઇર":14838,"▁નેચરલ":14839,"▁2500":14840,"▁ચોકમાં":14841,"▁કાર્યકર":14842,"કાયદા":14843,"▁જિલ્લાનો":14844,"▁વખતની":14845,"▁ફેસ":14846,"682\t":14847,"▁ધોવાણ":14848,"▁ટ્રેનો":14849,"▁407":14850,"▁મંગલ":14851,"▁પ્રક્રિયાને":14852,"▁ઈન્ડે":14853,"▁ઈન્કમ":14854,"▁પુરાવો":14855,"▁માનવીય":14856,"▁કાવતરા":14857,"ુપયોગ":14858,"▁હેલ્ધી":14859,"▁શ્રીમંત":14860,"તહે":14861,"દળ":14862,"નવે":14863,"૧ના":14864,"▁છત્તીસ":14865,"▁રિસ્":14866,"▁ગાર્":14867,"સ્ત્રા":14868,"▁સાવર":14869,"▁ઉધ":14870,"વીણ":14871,"▁રાતના":14872,"▁જોડીને":14873,"મીત":14874,"▁1936":14875,"▁ભૂગર્ભ":14876,"669\t":14877,"ામીન":14878,"▁વૃધ્ધિ":14879,"▁બેંક,":14880,"▁પારિ":14881,"▁મંદિરોમાં":14882,"▁કાઢ્યું":14883,"▁સર્વત્ર":14884,"▁યુવતીએ":14885,"▁સંવેદના":14886,"▁વહેંચણી":14887,"કચ્છમાં":14888,"▁સેમસંગ":14889,"યર્સ":14890,"સત્ય":14891,"ુસાર":14892,"▁પૉ":14893,"નાશ":14894,"▁વ્યુ":14895,"▁મશ":14896,"▁પ્રાયો":14897,"▁પાટા":14898,"▁ના,":14899,"▁સુત્રોના":14900,"▁મેના":14901,"▁ઇકોમર્સ":14902,"▁કરવા,":14903,"બી,":14904,"▁1857":14905,"665\t":14906,"689\t":14907,"િકોના":14908,"▁વરસાદમાં":14909,"659\t":14910,"▁જીવનશૈ":14911,"ંઘવારી":14912,"૨૦૧૧":14913,"▁ઇન્ડિયાએ":14914,"▁હૈ.\n":14915,"▁ચોક્કસપણે":14916,"▁સુરત,":14917,"▁વિપક્ષી":14918,"બનાવના":14919,"▁જાતજા":14920,"▁૨૦૧૦માં":14921,"▁કાર્યકરોએ":14922,"▁ઉડાન":14923,"▁કુશળ":14924,"▁હિમાચલ":14925,"▁બંન્ને":14926,"▁માઓવાદી":14927,"▁કાલાવડ":14928,"▁પ્રકાશન":14929,"▁સમયાંતરે":14930,"કમિ":14931,"ભૌ":14932,
[...]
